{
  "version": "1.0",
  "truncation": null,
  "padding": null,
  "added_tokens": [
    {
      "id": 0,
      "content": "[UNK]",
      "single_word": false,
      "lstrip": false,
      "rstrip": false,
      "normalized": false,
      "special": true
    }
  ],
  "normalizer": null,
  "pre_tokenizer": {
    "type": "Sequence",
    "pretokenizers": [
      {
        "type": "Digits",
        "individual_digits": false
      },
      {
        "type": "ByteLevel",
        "add_prefix_space": false,
        "trim_offsets": true,
        "use_regex": true
      }
    ]
  },
  "post_processor": null,
  "decoder": null,
  "model": {
    "type": "BPE",
    "dropout": null,
    "unk_token": "[UNK]",
    "continuing_subword_prefix": null,
    "end_of_word_suffix": null,
    "fuse_unk": false,
    "byte_fallback": false,
    "vocab": {
      "[UNK]": 0,
      "!": 1,
      "\"": 2,
      "#": 3,
      "$": 4,
      "%": 5,
      "&": 6,
      "'": 7,
      "(": 8,
      ")": 9,
      "*": 10,
      "+": 11,
      ",": 12,
      "-": 13,
      ".": 14,
      "/": 15,
      "0": 16,
      "1": 17,
      "2": 18,
      "3": 19,
      "4": 20,
      "5": 21,
      "6": 22,
      "7": 23,
      "8": 24,
      "9": 25,
      ":": 26,
      ";": 27,
      "<": 28,
      "=": 29,
      ">": 30,
      "?": 31,
      "@": 32,
      "A": 33,
      "B": 34,
      "C": 35,
      "D": 36,
      "E": 37,
      "F": 38,
      "G": 39,
      "H": 40,
      "I": 41,
      "J": 42,
      "K": 43,
      "L": 44,
      "M": 45,
      "N": 46,
      "O": 47,
      "P": 48,
      "Q": 49,
      "R": 50,
      "S": 51,
      "T": 52,
      "U": 53,
      "V": 54,
      "W": 55,
      "X": 56,
      "Y": 57,
      "Z": 58,
      "[": 59,
      "\\": 60,
      "]": 61,
      "^": 62,
      "_": 63,
      "`": 64,
      "a": 65,
      "b": 66,
      "c": 67,
      "d": 68,
      "e": 69,
      "f": 70,
      "g": 71,
      "h": 72,
      "i": 73,
      "j": 74,
      "k": 75,
      "l": 76,
      "m": 77,
      "n": 78,
      "o": 79,
      "p": 80,
      "q": 81,
      "r": 82,
      "s": 83,
      "t": 84,
      "u": 85,
      "v": 86,
      "w": 87,
      "x": 88,
      "y": 89,
      "z": 90,
      "{": 91,
      "|": 92,
      "}": 93,
      "~": 94,
      "¡": 95,
      "¢": 96,
      "£": 97,
      "¤": 98,
      "¥": 99,
      "¦": 100,
      "§": 101,
      "¨": 102,
      "©": 103,
      "ª": 104,
      "«": 105,
      "¬": 106,
      "®": 107,
      "¯": 108,
      "°": 109,
      "±": 110,
      "²": 111,
      "³": 112,
      "´": 113,
      "µ": 114,
      "¶": 115,
      "·": 116,
      "¸": 117,
      "¹": 118,
      "º": 119,
      "»": 120,
      "¼": 121,
      "½": 122,
      "¾": 123,
      "¿": 124,
      "Â": 125,
      "Ã": 126,
      "Ä": 127,
      "Å": 128,
      "Æ": 129,
      "Ç": 130,
      "È": 131,
      "É": 132,
      "Ê": 133,
      "Ë": 134,
      "Ì": 135,
      "Í": 136,
      "Î": 137,
      "Ï": 138,
      "Ð": 139,
      "Ñ": 140,
      "Ò": 141,
      "Ó": 142,
      "Ô": 143,
      "Õ": 144,
      "Ö": 145,
      "×": 146,
      "Ø": 147,
      "Ù": 148,
      "Ú": 149,
      "Û": 150,
      "Ü": 151,
      "Ý": 152,
      "Þ": 153,
      "ß": 154,
      "à": 155,
      "á": 156,
      "â": 157,
      "ã": 158,
      "ä": 159,
      "å": 160,
      "æ": 161,
      "ç": 162,
      "è": 163,
      "é": 164,
      "ê": 165,
      "ë": 166,
      "ì": 167,
      "í": 168,
      "î": 169,
      "ï": 170,
      "ð": 171,
      "ó": 172,
      "ô": 173,
      "Ā": 174,
      "ā": 175,
      "Ă": 176,
      "ă": 177,
      "Ą": 178,
      "ą": 179,
      "Ć": 180,
      "ć": 181,
      "Ĉ": 182,
      "ĉ": 183,
      "Ċ": 184,
      "ċ": 185,
      "Č": 186,
      "č": 187,
      "Ď": 188,
      "ď": 189,
      "Đ": 190,
      "đ": 191,
      "Ē": 192,
      "Ĕ": 193,
      "ĕ": 194,
      "Ė": 195,
      "ė": 196,
      "Ę": 197,
      "ę": 198,
      "Ě": 199,
      "ě": 200,
      "ĝ": 201,
      "Ğ": 202,
      "ğ": 203,
      "Ġ": 204,
      "ġ": 205,
      "Ģ": 206,
      "ģ": 207,
      "Ĥ": 208,
      "ĥ": 209,
      "Ħ": 210,
      "ħ": 211,
      "Ĩ": 212,
      "ĩ": 213,
      "Ī": 214,
      "ī": 215,
      "Ĭ": 216,
      "ĭ": 217,
      "Į": 218,
      "į": 219,
      "İ": 220,
      "ı": 221,
      "Ĳ": 222,
      "ĳ": 223,
      "Ĵ": 224,
      "ĵ": 225,
      "Ķ": 226,
      "ķ": 227,
      "ĸ": 228,
      "Ĺ": 229,
      "ĺ": 230,
      "Ļ": 231,
      "ļ": 232,
      "Ľ": 233,
      "ľ": 234,
      "Ŀ": 235,
      "ŀ": 236,
      "Ł": 237,
      "ł": 238,
      "Ń": 239,
      "ĠĠ": 240,
      "Ġt": 241,
      "in": 242,
      "he": 243,
      "Ġa": 244,
      "on": 245,
      "er": 246,
      "re": 247,
      "at": 248,
      "Ġthe": 249,
      "ĠĠĠĠ": 250,
      "en": 251,
      "or": 252,
      "al": 253,
      "Ġs": 254,
      "an": 255,
      "is": 256,
      "it": 257,
      "es": 258,
      "Ġo": 259,
      "ar": 260,
      "ed": 261,
      "Ġc": 262,
      "ion": 263,
      "Ġw": 264,
      "Ġf": 265,
      "Ġof": 266,
      "Ġin": 267,
      "nd": 268,
      "ic": 269,
      "Ġp": 270,
      "le": 271,
      "Ġb": 272,
      "as": 273,
      "ing": 274,
      "ro": 275,
      "Ġand": 276,
      "Ġd": 277,
      "Ġm": 278,
      "ct": 279,
      "Ġ\\": 280,
      "et": 281,
      "ent": 282,
      "Ġto": 283,
      "el": 284,
      "am": 285,
      "ou": 286,
      "il": 287,
      "st": 288,
      "Ġ$": 289,
      "ĠĠĠ": 290,
      "ĠS": 291,
      "ig": 292,
      "om": 293,
      "ĠĠĠĠĠĠĠĠ": 294,
      "Ġre": 295,
      "ol": 296,
      "Ġ(": 297,
      "Ġh": 298,
      "ĠT": 299,
      "ation": 300,
      "ra": 301,
      "ĠC": 302,
      "Ġn": 303,
      "im": 304,
      "ĠA": 305,
      "Ġth": 306,
      "ot": 307,
      "Ġe": 308,
      "id": 309,
      "Ġl": 310,
      "ce": 311,
      "ur": 312,
      "iv": 313,
      "Ġis": 314,
      "ch": 315,
      "ut": 316,
      "ĠM": 317,
      "us": 318,
      "Ġfor": 319,
      "ul": 320,
      "ad": 321,
      "em": 322,
      "Ġg": 323,
      "ow": 324,
      "{\\": 325,
      "ers": 326,
      "ĠB": 327,
      "ly": 328,
      "ĠP": 329,
      "20": 330,
      "Ġon": 331,
      "um": 332,
      "ĠI": 333,
      "un": 334,
      "19": 335,
      "ab": 336,
      "od": 337,
      "ir": 338,
      "ter": 339,
      "ith": 340,
      "Ġst": 341,
      "qu": 342,
      "se": 343,
      "ag": 344,
      "ĠH": 345,
      "if": 346,
      "Ġas": 347,
      "ist": 348,
      "th": 349,
      "Ġv": 350,
      "Ġbe": 351,
      "ay": 352,
      "ĠR": 353,
      "Ġcon": 354,
      "ĠF": 355,
      "ĠL": 356,
      "ĠD": 357,
      "Ġ=": 358,
      "Ġwas": 359,
      "Ġwith": 360,
      "ĠThe": 361,
      "čĊ": 362,
      "and": 363,
      "pe": 364,
      "ĠĠĠĠĠĠĠ": 365,
      "end": 366,
      "ath": 367,
      "Ġal": 368,
      "ver": 369,
      "ate": 370,
      "ri": 371,
      "Ġthat": 372,
      "_{": 373,
      "ac": 374,
      "ction": 375,
      "Ġby": 376,
      "ĠN": 377,
      "est": 378,
      "ĠG": 379,
      "her": 380,
      "eg": 381,
      "oc": 382,
      "ĠW": 383,
      "ĠĊ": 384,
      "res": 385,
      "ht": 386,
      "Ġpro": 387,
      "op": 388,
      "Ġan": 389,
      "os": 390,
      "ex": 391,
      "ĠE": 392,
      "ap": 393,
      "Ġ$\\": 394,
      "rom": 395,
      "ub": 396,
      "up": 397,
      "ity": 398,
      "av": 399,
      "Ġde": 400,
      "Ġat": 401,
      "ĉĉ": 402,
      "ain": 403,
      "art": 404,
      "math": 405,
      "Ġwh": 406,
      "ph": 407,
      "Ġcom": 408,
      "ew": 409,
      "Ġ\"": 410,
      "all": 411,
      "âĢ": 412,
      "ĠJ": 413,
      "Ġfrom": 414,
      "Ġ&": 415,
      ");": 416,
      "ort": 417,
      "Ġex": 418,
      "ine": 419,
      "ass": 420,
      "ies": 421,
      "ore": 422,
      "ight": 423,
      "ess": 424,
      "Ġ<": 425,
      "pt": 426,
      "ure": 427,
      "ame": 428,
      "Ġ{": 429,
      "ran": 430,
      "ĠO": 431,
      "pl": 432,
      "=\"": 433,
      "ial": 434,
      "Ġse": 435,
      "ge": 436,
      "Ġit": 437,
      "Ġare": 438,
      "ber": 439,
      "--": 440,
      "ud": 441,
      "'s": 442,
      "ue": 443,
      "nt": 444,
      "ill": 445,
      "Ġor": 446,
      "}\\": 447,
      "ian": 448,
      "ment": 449,
      "ite": 450,
      "}$": 451,
      "Ġhe": 452,
      "ive": 453,
      "ref": 454,
      "^{": 455,
      "ef": 456,
      "ak": 457,
      "og": 458,
      "iz": 459,
      "ect": 460,
      "ĠU": 461,
      "ated": 462,
      "ĠK": 463,
      "ant": 464,
      "our": 465,
      "cl": 466,
      "The": 467,
      "ich": 468,
      "ard": 469,
      "ext": 470,
      "ĠĠĠĠĠĠĠĠĠĠĠ": 471,
      "ary": 472,
      "Ġcl": 473,
      "age": 474,
      "201": 475,
      "ip": 476,
      "ult": 477,
      "Ġwe": 478,
      "</": 479,
      "ld": 480,
      "ov": 481,
      "per": 482,
      "//": 483,
      "ia": 484,
      "Ġ*": 485,
      "),": 486,
      "âĢĵ": 487,
      "ell": 488,
      "ign": 489,
      "Ġch": 490,
      "und": 491,
      "00": 492,
      "Ġr": 493,
      "Ġpl": 494,
      "ft": 495,
      "ma": 496,
      "ical": 497,
      "ĠSt": 498,
      "rac": 499,
      "ition": 500,
      "orm": 501,
      "int": 502,
      "con": 503,
      "Ġ}": 504,
      "ĠIn": 505,
      "}}": 506,
      "(\\": 507,
      "Ġthis": 508,
      "Ġus": 509,
      "ta": 510,
      "Ġsh": 511,
      "ong": 512,
      "ast": 513,
      "port": 514,
      "ack": 515,
      "Ġcomp": 516,
      "Ġle": 517,
      "are": 518,
      "ust": 519,
      "ord": 520,
      "ug": 521,
      "ire": 522,
      "egin": 523,
      "ff": 524,
      "200": 525,
      "ĠV": 526,
      "begin": 527,
      "ens": 528,
      "ep": 529,
      "Ġres": 530,
      ").": 531,
      "urn": 532,
      "cal": 533,
      "Ġ-": 534,
      "Ġwhich": 535,
      "enc": 536,
      "du": 537,
      "able": 538,
      "ost": 539,
      "so": 540,
      "Ġk": 541,
      "Ġnot": 542,
      "Ġ|": 543,
      "In": 544,
      "pro": 545,
      "ations": 546,
      "ĠĠĠĠĠĠĠĠĠĠĠĠĠĠĠĠ": 547,
      "_{\\": 548,
      "ace": 549,
      ")$": 550,
      "ork": 551,
      "Ġhis": 552,
      "text": 553,
      "to": 554,
      "ave": 555,
      "18": 556,
      "ish": 557,
      "cc": 558,
      "ime": 559,
      "ase": 560,
      "ĠCh": 561,
      "ang": 562,
      "ere": 563,
      "ther": 564,
      "erv": 565,
      "Ġy": 566,
      "ence": 567,
      "ric": 568,
      "ide": 569,
      "ions": 570,
      "ĠĠĠĠĠ": 571,
      "ec": 572,
      "Ġun": 573,
      "ild": 574,
      "ib": 575,
      "}{": 576,
      "rm": 577,
      "mer": 578,
      "Ġwhe": 579,
      "low": 580,
      "ry": 581,
      "ear": 582,
      "\">": 583,
      "equ": 584,
      "act": 585,
      "},": 586,
      "Ġalso": 587,
      "ru": 588,
      "Ġcont": 589,
      "eq": 590,
      "tern": 591,
      "ile": 592,
      "frac": 593,
      "ind": 594,
      "right": 595,
      "ach": 596,
      "Ġap": 597,
      "Ġcan": 598,
      "ous": 599,
      "ey": 600,
      "ice": 601,
      "ok": 602,
      "sp": 603,
      "abel": 604,
      "ory": 605,
      "irst": 606,
      "Ġwere": 607,
      "ode": 608,
      "ener": 609,
      "Ġif": 610,
      "out": 611,
      "**": 612,
      "cite": 613,
      "ount": 614,
      "form": 615,
      "turn": 616,
      "Ġhas": 617,
      "Ġad": 618,
      "ubl": 619,
      "com": 620,
      "own": 621,
      "fer": 622,
      "ring": 623,
      "Ġar": 624,
      "Ġclass": 625,
      "over": 626,
      "Ġim": 627,
      "ound": 628,
      "erm": 629,
      "Ġhave": 630,
      "ype": 631,
      "rit": 632,
      "ĠTh": 633,
      "mathb": 634,
      "Ġ||": 635,
      "rans": 636,
      "ev": 637,
      "wo": 638,
      "the": 639,
      "row": 640,
      "ata": 641,
      "St": 642,
      "ree": 643,
      "old": 644,
      "clud": 645,
      "li": 646,
      "ates": 647,
      "rib": 648,
      "fig": 649,
      "Ġj": 650,
      "Ġpart": 651,
      "..": 652,
      "get": 653,
      "amp": 654,
      "eta": 655,
      "ks": 656,
      "ance": 657,
      "label": 658,
      "ents": 659,
      "Ġsu": 660,
      "ors": 661,
      "10": 662,
      "ject": 663,
      "Ġ+": 664,
      "ĠUn": 665,
      "ress": 666,
      "Ġ'": 667,
      "Ġab": 668,
      "unction": 669,
      "ert": 670,
      "hed": 671,
      "199": 672,
      "$,": 673,
      ",\\": 674,
      "()": 675,
      "Ġfirst": 676,
      "ob": 677,
      "ĠHe": 678,
      "mathcal": 679,
      "$.": 680,
      "Ġone": 681,
      "inal": 682,
      "Ġplay": 683,
      "ould": 684,
      "we": 685,
      "left": 686,
      "Ġro": 687,
      "----": 688,
      "Ġsp": 689,
      "iel": 690,
      "ss": 691,
      "Ġdis": 692,
      "ely": 693,
      "ational": 694,
      "Ġmod": 695,
      "ual": 696,
      "ĠY": 697,
      "ng": 698,
      "ĠIt": 699,
      "te": 700,
      "ll": 701,
      "}.": 702,
      "ics": 703,
      "Ġall": 704,
      "equation": 705,
      "ences": 706,
      "Ġtwo": 707,
      "==": 708,
      "})": 709,
      "Ġob": 710,
      "ark": 711,
      "Ġnew": 712,
      "fter": 713,
      "ome": 714,
      "ose": 715,
      "Ġits": 716,
      "amb": 717,
      "ps": 718,
      "ĠâĢĵ": 719,
      "ublic": 720,
      "ater": 721,
      "Ġreturn": 722,
      "ield": 723,
      "orn": 724,
      "}(": 725,
      "ock": 726,
      "Ġdef": 727,
      "Ex": 728,
      "Ġset": 729,
      "alue": 730,
      "oint": 731,
      "lect": 732,
      "Ġhad": 733,
      "cent": 734,
      "Ġsc": 735,
      "Ġper": 736,
      "Ġbut": 737,
      "Ġtheir": 738,
      "}^": 739,
      "ool": 740,
      "Ġint": 741,
      "les": 742,
      "pect": 743,
      "sum": 744,
      "ĠĠĠĠĠĠĠĠĠĠĠĠĠĠĠ": 745,
      "}_": 746,
      "aram": 747,
      "Ġdes": 748,
      "Ġte": 749,
      "~\\": 750,
      "Ġev": 751,
      "ray": 752,
      "rad": 753,
      "sh": 754,
      "Ġqu": 755,
      "ied": 756,
      "ize": 757,
      "set": 758,
      "ik": 759,
      "line": 760,
      "raph": 761,
      "ont": 762,
      "ix": 763,
      "io": 764,
      "yst": 765,
      "Ġpre": 766,
      "land": 767,
      "one": 768,
      "ular": 769,
      "pec": 770,
      "oot": 771,
      "pha": 772,
      "iss": 773,
      "sc": 774,
      "Ġout": 775,
      "pon": 776,
      "da": 777,
      "Ġ[": 778,
      "Ġother": 779,
      "Ref": 780,
      "\",": 781,
      "ollow": 782,
      "Ġfunction": 783,
      "aw": 784,
      "any": 785,
      "ym": 786,
      "12": 787,
      "alpha": 788,
      "ember": 789,
      "igh": 790,
      "ased": 791,
      "meric": 792,
      "imes": 793,
      "umber": 794,
      "ie": 795,
      "198": 796,
      "Ġover": 797,
      "ited": 798,
      "ution": 799,
      "ull": 800,
      "Ġag": 801,
      "roup": 802,
      "Ġme": 803,
      "ne": 804,
      ")\\": 805,
      "Ġup": 806,
      "Ġconst": 807,
      "Ġ//": 808,
      "ystem": 809,
      "ram": 810,
      "Ġcol": 811,
      "ict": 812,
      "vel": 813,
      "Ġwork": 814,
      "Ġwho": 815,
      "Refer": 816,
      "eng": 817,
      "eth": 818,
      "Ġtime": 819,
      "pos": 820,
      "ivers": 821,
      "put": 822,
      "Ġform": 823,
      "ption": 824,
      "ced": 825,
      "of": 826,
      "Ġvar": 827,
      "elf": 828,
      "ople": 829,
      "ail": 830,
      "Ġsub": 831,
      "Ġind": 832,
      "::": 833,
      "Ġfollow": 834,
      "ative": 835,
      "References": 836,
      "Ġinclud": 837,
      "Ġbeen": 838,
      "16": 839,
      "lement": 840,
      "ambda": 841,
      "Ġinter": 842,
      "ilm": 843,
      "->": 844,
      "ings": 845,
      "ax": 846,
      "ward": 847,
      "under": 848,
      "Ġcomm": 849,
      "Ġher": 850,
      "elta": 851,
      "ann": 852,
      "Ġbet": 853,
      "17": 854,
      "der": 855,
      "resent": 856,
      "Ġwhere": 857,
      "Ġreg": 858,
      "ck": 859,
      "sub": 860,
      "Ġresult": 861,
      "pr": 862,
      "15": 863,
      "let": 864,
      "merican": 865,
      "ific": 866,
      "lo": 867,
      "ral": 868,
      "ho": 869,
      "uring": 870,
      "cre": 871,
      "Ġdist": 872,
      "round": 873,
      "Ġyear": 874,
      "ĠSe": 875,
      "amma": 876,
      "Ġpr": 877,
      "Ġcons": 878,
      "$\\": 879,
      "ake": 880,
      "vi": 881,
      "Ġonly": 882,
      "ince": 883,
      "mathbb": 884,
      "ons": 885,
      "Ġ.": 886,
      "Ġloc": 887,
      "che": 888,
      "ined": 889,
      "_\\": 890,
      "ource": 891,
      "197": 892,
      "eople": 893,
      "Ġsuch": 894,
      "Ġtrans": 895,
      "Ġ@": 896,
      "ugh": 897,
      "ery": 898,
      "ans": 899,
      "Ġinto": 900,
      "ween": 901,
      "Ġco": 902,
      "ĉĉĉĉ": 903,
      "=\\": 904,
      "Ġ\\\\": 905,
      "oy": 906,
      "cond": 907,
      "dot": 908,
      "}_{": 909,
      "Ġ/": 910,
      "ĠThis": 911,
      "Ġdif": 912,
      "olog": 913,
      "ames": 914,
      "Ġ</": 915,
      "Ġsup": 916,
      "ball": 917,
      "}^{": 918,
      "Ġrel": 919,
      "ruct": 920,
      "ox": 921,
      "mu": 922,
      "Ġrec": 923,
      "Ġwhen": 924,
      "ĠCom": 925,
      "ĠNew": 926,
      "Ġmore": 927,
      "ick": 928,
      "aus": 929,
      "Ġthen": 930,
      "arg": 931,
      "Ġmodel": 932,
      "Ġgener": 933,
      "ĠAl": 934,
      "igma": 935,
      "abl": 936,
      "oug": 937,
      "ces": 938,
      "Ġafter": 939,
      "ists": 940,
      "als": 941,
      "col": 942,
      "align": 943,
      "oth": 944,
      "Ġacc": 945,
      "arch": 946,
      "ator": 947,
      "Ġname": 948,
      "Ġpol": 949,
      "red": 950,
      "Ġpos": 951,
      "Ġbetween": 952,
      "ating": 953,
      "Ġatt": 954,
      "Ġact": 955,
      "Ġlin": 956,
      "ega": 957,
      "-\\": 958,
      "ren": 959,
      "eb": 960,
      "Ġwill": 961,
      "Ġunder": 962,
      "Ġthey": 963,
      "ient": 964,
      "ident": 965,
      "Ġdo": 966,
      "Ġass": 967,
      "Ġne": 968,
      "ee": 969,
      "ty": 970,
      "hat": 971,
      "phi": 972,
      "lem": 973,
      "ision": 974,
      "ts": 975,
      "idth": 976,
      "ities": 977,
      "ished": 978,
      "Ġused": 979,
      "ĠAr": 980,
      "yn": 981,
      "Ġoff": 982,
      "ook": 983,
      "Ġpublic": 984,
      "21": 985,
      "',": 986,
      "^{\\": 987,
      "ton": 988,
      "Ġest": 989,
      "ures": 990,
      "Ġprov": 991,
      "ars": 992,
      "tain": 993,
      "dition": 994,
      "chool": 995,
      "Ġsim": 996,
      "ternal": 997,
      "way": 998,
      "Ġthere": 999,
      "its": 1000,
      "Ġso": 1001,
      "13": 1002,
      "196": 1003,
      "ise": 1004,
      "Ġph": 1005,
      "Ġ:": 1006,
      "ys": 1007,
      "ade": 1008,
      "lambda": 1009,
      "ove": 1010,
      "14": 1011,
      "Ġbu": 1012,
      "Ġshow": 1013,
      "pi": 1014,
      "err": 1015,
      "ues": 1016,
      "tt": 1017,
      "ins": 1018,
      "Ġprodu": 1019,
      "ature": 1020,
      "var": 1021,
      "(\"": 1022,
      "Ġthan": 1023,
      "app": 1024,
      "Ġserv": 1025,
      "ider": 1026,
      "ĠPro": 1027,
      "();": 1028,
      "part": 1029,
      "Ġfilm": 1030,
      "../": 1031,
      "bf": 1032,
      "ĠZ": 1033,
      "ute": 1034,
      "Ġdata": 1035,
      "min": 1036,
      "Ġline": 1037,
      "irect": 1038,
      "Con": 1039,
      "Ġspec": 1040,
      "ily": 1041,
      "Ġmat": 1042,
      "Ġtra": 1043,
      "Ġkn": 1044,
      "mathbf": 1045,
      "bar": 1046,
      "ethod": 1047,
      "Ġequ": 1048,
      "outh": 1049,
      "Ġend": 1050,
      "orld": 1051,
      "ility": 1052,
      "Ġnumber": 1053,
      "atic": 1054,
      "Ġ{\\": 1055,
      "wn": 1056,
      "Ġshe": 1057,
      "Pro": 1058,
      "oh": 1059,
      "Ġbec": 1060,
      "gan": 1061,
      "Ġen": 1062,
      "ason": 1063,
      "Ġstud": 1064,
      "Ġdiffer": 1065,
      "hip": 1066,
      "ury": 1067,
      "air": 1068,
      "oci": 1069,
      "att": 1070,
      "Ġi": 1071,
      "11": 1072,
      "ized": 1073,
      "Ġsome": 1074,
      "Ġinst": 1075,
      "iversity": 1076,
      "Ġcor": 1077,
      "Ġeach": 1078,
      "ash": 1079,
      "ilon": 1080,
      "Ġwould": 1081,
      "))": 1082,
      "ĠQ": 1083,
      "Ġsystem": 1084,
      "ĠAmerican": 1085,
      "Ġop": 1086,
      "ier": 1087,
      "Ġrem": 1088,
      "ml": 1089,
      "section": 1090,
      "lection": 1091,
      "emb": 1092,
      "22": 1093,
      "rough": 1094,
      "Ġgiv": 1095,
      "ever": 1096,
      "Ġpeople": 1097,
      "Ġext": 1098,
      "ower": 1099,
      "Ġfe": 1100,
      "Ġany": 1101,
      "ible": 1102,
      "oun": 1103,
      "Ġinv": 1104,
      "ilde": 1105,
      "oid": 1106,
      "25": 1107,
      "apt": 1108,
      "orth": 1109,
      "ning": 1110,
      "Ġno": 1111,
      "ĠWe": 1112,
      "Ġcent": 1113,
      "--------": 1114,
      "sigma": 1115,
      "Ġx": 1116,
      "ĠFor": 1117,
      "man": 1118,
      "ally": 1119,
      "def": 1120,
      "ĠSh": 1121,
      "Ġ*/": 1122,
      "194": 1123,
      "not": 1124,
      "ah": 1125,
      "Ġed": 1126,
      "ĠĠĠĠĠĠĠĠĠ": 1127,
      "ism": 1128,
      "Ġ(\\": 1129,
      "Ġcall": 1130,
      "Ġoper": 1131,
      "essage": 1132,
      "ron": 1133,
      "cess": 1134,
      "Ġent": 1135,
      "Ġmost": 1136,
      "Ġpoint": 1137,
      "}{\\": 1138,
      "beta": 1139,
      "Ġra": 1140,
      "Ġem": 1141,
      "mall": 1142,
      "span": 1143,
      "ve": 1144,
      "az": 1145,
      "195": 1146,
      "\\\\": 1147,
      "item": 1148,
      "Ġcur": 1149,
      "Ã©": 1150,
      "rent": 1151,
      "Ġvalue": 1152,
      "Ġtr": 1153,
      "Ġcase": 1154,
      "^{-": 1155,
      "Ġsing": 1156,
      "Ġfound": 1157,
      "****": 1158,
      "div": 1159,
      "ale": 1160,
      "son": 1161,
      "ern": 1162,
      "ough": 1163,
      "ĠCol": 1164,
      "*}": 1165,
      "30": 1166,
      "Ġbl": 1167,
      "aramet": 1168,
      "Th": 1169,
      "ĠLe": 1170,
      "Ġuse": 1171,
      "ond": 1172,
      "Ġrep": 1173,
      "ĠInd": 1174,
      "></": 1175,
      "Ġsign": 1176,
      "Ġgo": 1177,
      "Ġman": 1178,
      "Âł": 1179,
      "mathrm": 1180,
      "ract": 1181,
      "yle": 1182,
      "Ġgroup": 1183,
      "Ġthese": 1184,
      "Ġeff": 1185,
      "ement": 1186,
      "Ġmay": 1187,
      "Ġsecond": 1188,
      "Ġthree": 1189,
      "uss": 1190,
      "+\\": 1191,
      "gamma": 1192,
      "Ġchar": 1193,
      "Ġabout": 1194,
      "eries": 1195,
      "ization": 1196,
      "plic": 1197,
      "itt": 1198,
      "aj": 1199,
      "ĉĉĉ": 1200,
      "ootball": 1201,
      "rict": 1202,
      "Ġthrough": 1203,
      "Ch": 1204,
      "Ġam": 1205,
      "Ġagain": 1206,
      "Ġget": 1207,
      "ĠUnited": 1208,
      "lin": 1209,
      "uc": 1210,
      "Ġprob": 1211,
      "Ġsol": 1212,
      "]{": 1213,
      "ional": 1214,
      "Ġrequ": 1215,
      "array": 1216,
      "ages": 1217,
      "par": 1218,
      "ĠĠĠĠĠĠĠĠĠĠĠĠĠĠĠĠĠĠĠ": 1219,
      "Ġwell": 1220,
      "hen": 1221,
      "Ġsame": 1222,
      "Ġmin": 1223,
      "Ġfl": 1224,
      "ĠDe": 1225,
      "eps": 1226,
      "Ġcre": 1227,
      "Ġfollowing": 1228,
      "Ġstate": 1229,
      "ĠX": 1230,
      "Ġtype": 1231,
      "ouse": 1232,
      "ĠCon": 1233,
      "ĠCl": 1234,
      "Ġduring": 1235,
      "ife": 1236,
      "Ġfield": 1237,
      "leq": 1238,
      "Ġappro": 1239,
      "ER": 1240,
      "Ġval": 1241,
      "Ġthem": 1242,
      "ĠUniversity": 1243,
      "Ġdesc": 1244,
      "ript": 1245,
      "Ġexp": 1246,
      "^\\": 1247,
      ")}": 1248,
      "owever": 1249,
      "ample": 1250,
      "arly": 1251,
      "Ġvari": 1252,
      "Ġboth": 1253,
      "this": 1254,
      "Ġlinks": 1255,
      "serv": 1256,
      "gy": 1257,
      "Com": 1258,
      "uth": 1259,
      "theta": 1260,
      "ices": 1261,
      "Ġteam": 1262,
      "Ġac": 1263,
      "Ġhim": 1264,
      "Ġnon": 1265,
      "big": 1266,
      "width": 1267,
      "for": 1268,
      "figure": 1269,
      "Ġdifferent": 1270,
      "ask": 1271,
      "tr": 1272,
      "ĠAn": 1273,
      "Ġ_": 1274,
      "ner": 1275,
      "><": 1276,
      "Ġperform": 1277,
      "ten": 1278,
      "ired": 1279,
      "External": 1280,
      "Ġpartic": 1281,
      "Ġrele": 1282,
      "cdot": 1283,
      "ĠâĢ": 1284,
      "ke": 1285,
      "Ġusing": 1286,
      "irc": 1287,
      "Ġyears": 1288,
      "Ġ#": 1289,
      "('": 1290,
      "Ġsur": 1291,
      "Ġour": 1292,
      "delta": 1293,
      "rho": 1294,
      "Name": 1295,
      "vent": 1296,
      "ically": 1297,
      "tau": 1298,
      "====": 1299,
      "Ġwhile": 1300,
      "$-": 1301,
      "Ġback": 1302,
      "overn": 1303,
      "000": 1304,
      "Ġplayers": 1305,
      "Ġfam": 1306,
      "ived": 1307,
      "Ġfinal": 1308,
      "Ġterm": 1309,
      "iver": 1310,
      "Ġhigh": 1311,
      "We": 1312,
      "}$,": 1313,
      "eqref": 1314,
      "umn": 1315,
      "ĠAs": 1316,
      "by": 1317,
      "ple": 1318,
      "Ġdirect": 1319,
      "ache": 1320,
      "ote": 1321,
      "ments": 1322,
      "yp": 1323,
      "IN": 1324,
      "}$.": 1325,
      "work": 1326,
      "au": 1327,
      "Ġorder": 1328,
      "here": 1329,
      "Ġgiven": 1330,
      "rid": 1331,
      "ural": 1332,
      "Ġel": 1333,
      "Type": 1334,
      "ctions": 1335,
      "reat": 1336,
      "ersion": 1337,
      "24": 1338,
      "quad": 1339,
      "ulation": 1340,
      "ĠSc": 1341,
      "usic": 1342,
      "}(\\": 1343,
      "Ġlead": 1344,
      "ober": 1345,
      "Ġart": 1346,
      "ause": 1347,
      "ina": 1348,
      "times": 1349,
      "ĠEng": 1350,
      "ole": 1351,
      ".\"": 1352,
      "name": 1353,
      "../../": 1354,
      "ott": 1355,
      "23": 1356,
      "arrow": 1357,
      "istory": 1358,
      "Ġdec": 1359,
      "iew": 1360,
      "ead": 1361,
      "ON": 1362,
      "lation": 1363,
      "Ġmon": 1364,
      "Ġdet": 1365,
      "Ġpop": 1366,
      "ather": 1367,
      "Ġknown": 1368,
      "bum": 1369,
      "iving": 1370,
      "Ġmade": 1371,
      "Ġran": 1372,
      "Ġconsider": 1373,
      "ohn": 1374,
      "fore": 1375,
      "ets": 1376,
      "Ġmethod": 1377,
      "chi": 1378,
      "ross": 1379,
      "bl": 1380,
      "ĠMar": 1381,
      "Ġ`": 1382,
      "erson": 1383,
      "import": 1384,
      "Ġwrit": 1385,
      "rop": 1386,
      "center": 1387,
      "Ġmain": 1388,
      "ST": 1389,
      "ively": 1390,
      "Ġbeing": 1391,
      "olds": 1392,
      "ines": 1393,
      "alse": 1394,
      "ument": 1395,
      "ĠStates": 1396,
      "til": 1397,
      "ength": 1398,
      "read": 1399,
      "\".": 1400,
      "Ġmed": 1401,
      "ases": 1402,
      "Ġz": 1403,
      "ley": 1404,
      "Id": 1405,
      "back": 1406,
      "mod": 1407,
      "Ġlater": 1408,
      "val": 1409,
      "ĠSp": 1410,
      "ared": 1411,
      "sec": 1412,
      "fty": 1413,
      "enn": 1414,
      "tilde": 1415,
      "Res": 1416,
      "partial": 1417,
      "ange": 1418,
      "html": 1419,
      "uch": 1420,
      "infty": 1421,
      "mp": 1422,
      "arge": 1423,
      "els": 1424,
      "omega": 1425,
      "ograph": 1426,
      "50": 1427,
      "ots": 1428,
      "Ġsmall": 1429,
      "ĠShe": 1430,
      "ays": 1431,
      "Ġstart": 1432,
      "fl": 1433,
      "Ġself": 1434,
      "return": 1435,
      "ality": 1436,
      "ception": 1437,
      "Ġcount": 1438,
      "omen": 1439,
      "ĠOn": 1440,
      "includ": 1441,
      "rt": 1442,
      "ĠCount": 1443,
      "Cl": 1444,
      "ister": 1445,
      "Ġfour": 1446,
      "Ġfin": 1447,
      "me": 1448,
      "ology": 1449,
      "Ġrecord": 1450,
      "dd": 1451,
      "Ġbir": 1452,
      "String": 1453,
      "nu": 1454,
      "Ġdisc": 1455,
      "Ġfootball": 1456,
      "Ġappe": 1457,
      "ague": 1458,
      "ified": 1459,
      "Ġorig": 1460,
      "193": 1461,
      "trans": 1462,
      "cept": 1463,
      "Ġadd": 1464,
      "ĠIs": 1465,
      "|\\": 1466,
      "pm": 1467,
      "Ġseason": 1468,
      "bol": 1469,
      "esc": 1470,
      "ency": 1471,
      "param": 1472,
      "ission": 1473,
      "Ġstr": 1474,
      "Ġbefore": 1475,
      "Ġtest": 1476,
      "une": 1477,
      "Ġlong": 1478,
      "Ġerr": 1479,
      "atch": 1480,
      "itle": 1481,
      "add": 1482,
      "space": 1483,
      "ths": 1484,
      "Ġhref": 1485,
      "Ġmany": 1486,
      "ault": 1487,
      "Ġfact": 1488,
      "td": 1489,
      "ood": 1490,
      "other": 1491,
      "anc": 1492,
      "ior": 1493,
      "Ġrun": 1494,
      "ribut": 1495,
      "Ġyou": 1496,
      "Ġ!": 1497,
      "velop": 1498,
      "Ġdep": 1499,
      "box": 1500,
      "log": 1501,
      "rang": 1502,
      "AR": 1503,
      "lang": 1504,
      "Ġlist": 1505,
      "ike": 1506,
      "ains": 1507,
      "ane": 1508,
      "orem": 1509,
      "rix": 1510,
      "Ġestabl": 1511,
      "Ġrepresent": 1512,
      "AT": 1513,
      "Ġdevelop": 1514,
      "Ġsince": 1515,
      "Ġbro": 1516,
      "Ġseries": 1517,
      "Ġalbum": 1518,
      "Ġincluding": 1519,
      "arri": 1520,
      "raw": 1521,
      "eqn": 1522,
      "type": 1523,
      "Delta": 1524,
      "ĠComm": 1525,
      "class": 1526,
      ".,": 1527,
      "):": 1528,
      "ĠFran": 1529,
      "source": 1530,
      "iqu": 1531,
      "On": 1532,
      "view": 1533,
      "Ġparamet": 1534,
      "ĠEx": 1535,
      "ai": 1536,
      "etwork": 1537,
      "Ġmov": 1538,
      "epend": 1539,
      "ccess": 1540,
      "Ġmet": 1541,
      "Ġcontin": 1542,
      "co": 1543,
      "âĢĻ": 1544,
      "ential": 1545,
      "gram": 1546,
      "Ġ)": 1547,
      "lex": 1548,
      "Ġapp": 1549,
      "Ġresults": 1550,
      "Ġbel": 1551,
      "led": 1552,
      "Ġelect": 1553,
      "Ġdescrib": 1554,
      "respon": 1555,
      "Ġbuild": 1556,
      "ule": 1557,
      "ĠWorld": 1558,
      "Ġsupport": 1559,
      "It": 1560,
      "Ġ>": 1561,
      "ĠNational": 1562,
      "ining": 1563,
      "sk": 1564,
      "Ġstruct": 1565,
      "ĠJohn": 1566,
      "List": 1567,
      "message": 1568,
      "Ġeffect": 1569,
      "RE": 1570,
      "formation": 1571,
      "ĠMay": 1572,
      "ĠAust": 1573,
      "Ġproper": 1574,
      "ĠPh": 1575,
      "Ġschool": 1576,
      "ĠĠĊ": 1577,
      "Ġ$(": 1578,
      "ĠPl": 1579,
      "Ġbased": 1580,
      "27": 1581,
      "Ġ,": 1582,
      "ymbol": 1583,
      "Ġ=>": 1584,
      "arn": 1585,
      "gor": 1586,
      "lev": 1587,
      "Ġbecame": 1588,
      "Ġobtain": 1589,
      "Ġbound": 1590,
      "very": 1591,
      "28": 1592,
      "xi": 1593,
      "Ġpresent": 1594,
      "ival": 1595,
      "Ġagainst": 1596,
      "}[": 1597,
      "uro": 1598,
      "ĠAss": 1599,
      "26": 1600,
      "ives": 1601,
      "\\,": 1602,
      "ĠĠĠĠĠĠĠĠĠĠĠĠĠĠĠĠĠĠĠĠĠĠĠĠĠĠĠĠĠĠĠĠ": 1603,
      "aking": 1604,
      "For": 1605,
      "Ġopt": 1606,
      "ank": 1607,
      "code": 1608,
      "ability": 1609,
      "ĠWar": 1610,
      "ger": 1611,
      "ivate": 1612,
      "anu": 1613,
      "Ġlocal": 1614,
      "color": 1615,
      "}}\\": 1616,
      "opt": 1617,
      "2010": 1618,
      "itial": 1619,
      "rol": 1620,
      "sq": 1621,
      "ody": 1622,
      "ternational": 1623,
      "oss": 1624,
      ")$.": 1625,
      "amed": 1626,
      "ify": 1627,
      "Ġprocess": 1628,
      "ĠAd": 1629,
      "iam": 1630,
      "Ar": 1631,
      "self": 1632,
      "chn": 1633,
      "ually": 1634,
      "rand": 1635,
      "urch": 1636,
      "rack": 1637,
      "af": 1638,
      "100": 1639,
      "ĠCounty": 1640,
      "where": 1641,
      "Ġsever": 1642,
      "SS": 1643,
      "Ġcharact": 1644,
      "Ġobserv": 1645,
      "vert": 1646,
      "Ġdesign": 1647,
      "Ġopen": 1648,
      "aid": 1649,
      "ler": 1650,
      "Ġnull": 1651,
      "Ġlarge": 1652,
      "ĠCar": 1653,
      "ĠBrit": 1654,
      "ĠBl": 1655,
      "Un": 1656,
      "Ġcalled": 1657,
      "reg": 1658,
      "Ġown": 1659,
      "med": 1660,
      "Ġmult": 1661,
      "agn": 1662,
      "Ġpres": 1663,
      "To": 1664,
      "Ġ--": 1665,
      "inc": 1666,
      "org": 1667,
      "play": 1668,
      "Ġgu": 1669,
      "$$": 1670,
      "Ġimp": 1671,
      "str": 1672,
      "fo": 1673,
      "Ġanal": 1674,
      "Ġfamily": 1675,
      "ground": 1676,
      "2017": 1677,
      "ium": 1678,
      "ĠSchool": 1679,
      "ĠCan": 1680,
      "Ġobject": 1681,
      "Ġrece": 1682,
      "ĠYork": 1683,
      "ĠčĊ": 1684,
      "rem": 1685,
      "40": 1686,
      "ians": 1687,
      "ful": 1688,
      "|-": 1689,
      "Ġdr": 1690,
      "met": 1691,
      "ĠJul": 1692,
      "pp": 1693,
      "umer": 1694,
      "Ġ==": 1695,
      "por": 1696,
      "embers": 1697,
      "ret": 1698,
      "29": 1699,
      "Ġright": 1700,
      "Ġu": 1701,
      "Ph": 1702,
      "Ġcurrent": 1703,
      "ID": 1704,
      "ants": 1705,
      "Ġmeas": 1706,
      "://": 1707,
      "ital": 1708,
      "Ġtrue": 1709,
      "}_{\\": 1710,
      "Ġuntil": 1711,
      "ĠGerm": 1712,
      "urther": 1713,
      "ports": 1714,
      "Ġrefer": 1715,
      "Ġnow": 1716,
      "Ġsong": 1717,
      "ribution": 1718,
      "ampions": 1719,
      "ream": 1720,
      "Ġpar": 1721,
      "Ġgeneral": 1722,
      "face": 1723,
      "Ġstat": 1724,
      "2016": 1725,
      "wards": 1726,
      "aces": 1727,
      "Ġdeath": 1728,
      "2014": 1729,
      "vers": 1730,
      "vious": 1731,
      "requ": 1732,
      "psi": 1733,
      "ided": 1734,
      "ĠSouth": 1735,
      "Ġtop": 1736,
      "Ġhand": 1737,
      "ĠNov": 1738,
      "use": 1739,
      "reen": 1740,
      "ting": 1741,
      "Ġprof": 1742,
      "2015": 1743,
      "ected": 1744,
      "sim": 1745,
      "Om": 1746,
      "Ġcondition": 1747,
      "2018": 1748,
      "2011": 1749,
      "ugust": 1750,
      "Ġincre": 1751,
      "arget": 1752,
      "rist": 1753,
      "epsilon": 1754,
      "ink": 1755,
      "Ġexper": 1756,
      "As": 1757,
      "born": 1758,
      "position": 1759,
      "Ġsingle": 1760,
      "ector": 1761,
      "olution": 1762,
      "loc": 1763,
      "areer": 1764,
      "2012": 1765,
      "ris": 1766,
      "Ġsee": 1767,
      "ense": 1768,
      "ĠOr": 1769,
      "32": 1770,
      "Ġrespect": 1771,
      "ird": 1772,
      "ptember": 1773,
      "ae": 1774,
      "ilt": 1775,
      "overnment": 1776,
      "umb": 1777,
      "Ġtem": 1778,
      "Ġrad": 1779,
      "rodu": 1780,
      "Ġpass": 1781,
      "ĠGe": 1782,
      "ĠAt": 1783,
      "##": 1784,
      "Ġneed": 1785,
      "Ġevent": 1786,
      "respond": 1787,
      "field": 1788,
      "Ġdue": 1789,
      "Ġpolit": 1790,
      "2013": 1791,
      "Ġspace": 1792,
      "Ġelement": 1793,
      "Ġallow": 1794,
      "ĠFig": 1795,
      "ajor": 1796,
      "Omega": 1797,
      "Ġlim": 1798,
      "Ġleft": 1799,
      "Ġarea": 1800,
      "textbf": 1801,
      "rr": 1802,
      "Al": 1803,
      "new": 1804,
      "omet": 1805,
      "/>": 1806,
      "Ġproblem": 1807,
      "2019": 1808,
      "Ġposs": 1809,
      ")$,": 1810,
      "Ġref": 1811,
      "anuary": 1812,
      "psilon": 1813,
      "Ġseveral": 1814,
      "Col": 1815,
      "ctober": 1816,
      "Ġmass": 1817,
      "\")": 1818,
      "raphics": 1819,
      "ament": 1820,
      "Ġocc": 1821,
      "ĠPar": 1822,
      "ij": 1823,
      "Ġcould": 1824,
      "Ġvoid": 1825,
      "eqnarray": 1826,
      "ended": 1827,
      "ĠCent": 1828,
      "OR": 1829,
      "dis": 1830,
      "itive": 1831,
      "ĠTe": 1832,
      "LE": 1833,
      "Ġoriginal": 1834,
      "^*": 1835,
      "ised": 1836,
      "oad": 1837,
      "Ġbecom": 1838,
      "arm": 1839,
      "istor": 1840,
      "Ġann": 1841,
      "2008": 1842,
      "Ġwin": 1843,
      "2009": 1844,
      "ven": 1845,
      "Ġalong": 1846,
      "cm": 1847,
      "2020": 1848,
      "ĠAugust": 1849,
      "sqrt": 1850,
      "ety": 1851,
      "Ġcommun": 1852,
      "Ġbecause": 1853,
      "Ġmusic": 1854,
      "Ġrest": 1855,
      "ness": 1856,
      "lish": 1857,
      "Ġnear": 1858,
      "tab": 1859,
      "__": 1860,
      "Ġimport": 1861,
      "mber": 1862,
      "ĠHowever": 1863,
      "string": 1864,
      "iter": 1865,
      "ides": 1866,
      "ĠSeptember": 1867,
      "ĠMarch": 1868,
      "roll": 1869,
      "fra": 1870,
      "cont": 1871,
      "oard": 1872,
      "energy": 1873,
      "ene": 1874,
      "ration": 1875,
      "This": 1876,
      "subsection": 1877,
      "uild": 1878,
      "vare": 1879,
      "ithm": 1880,
      "Ġhead": 1881,
      "ved": 1882,
      "ĠRe": 1883,
      "bm": 1884,
      "Ġevery": 1885,
      "order": 1886,
      "Ġchild": 1887,
      "arent": 1888,
      "Ġgame": 1889,
      "pril": 1890,
      "Gamma": 1891,
      "ats": 1892,
      "ĠPol": 1893,
      "const": 1894,
      "Ġlast": 1895,
      "oman": 1896,
      "imens": 1897,
      "ilar": 1898,
      "capt": 1899,
      "Ġstring": 1900,
      "Ġaddition": 1901,
      "side": 1902,
      "Ġshould": 1903,
      "value": 1904,
      "Ġsize": 1905,
      "ĠJanuary": 1906,
      "Ġfalse": 1907,
      "ĠOctober": 1908,
      "lege": 1909,
      "key": 1910,
      "iod": 1911,
      "Ġorgan": 1912,
      "ĠĠĠĠĠĠ": 1913,
      "Ġstand": 1914,
      "varepsilon": 1915,
      "Ġfind": 1916,
      "ĠII": 1917,
      "Ob": 1918,
      "unc": 1919,
      "ience": 1920,
      "ĠPr": 1921,
      "Ġident": 1922,
      "htt": 1923,
      "Ġassum": 1924,
      "hes": 1925,
      "Ġplayed": 1926,
      "2007": 1927,
      "ble": 1928,
      "\"/>": 1929,
      "Cont": 1930,
      "ĠAustral": 1931,
      "AL": 1932,
      "')": 1933,
      "ĠJune": 1934,
      "Ġread": 1935,
      "Ġwon": 1936,
      "Ġcorrespond": 1937,
      "Ġprogram": 1938,
      "odes": 1939,
      "Ġche": 1940,
      "ĠAll": 1941,
      "Ġformer": 1942,
      "ification": 1943,
      "ser": 1944,
      "ately": 1945,
      "Ġreleased": 1946,
      "^{(": 1947,
      "ches": 1948,
      "aster": 1949,
      "cember": 1950,
      "lim": 1951,
      "cur": 1952,
      "Ġoffic": 1953,
      "ero": 1954,
      "time": 1955,
      "be": 1956,
      "2006": 1957,
      "Ġlevel": 1958,
      "table": 1959,
      "Ġwithin": 1960,
      "uthor": 1961,
      "190": 1962,
      "See": 1963,
      "Ġcap": 1964,
      "ators": 1965,
      "Ġbirths": 1966,
      "ĠJuly": 1967,
      "caption": 1968,
      "Ġscal": 1969,
      "ampl": 1970,
      "idd": 1971,
      "Ġav": 1972,
      "Ġestim": 1973,
      "Value": 1974,
      "off": 1975,
      "ored": 1976,
      "ties": 1977,
      "wh": 1978,
      "includeg": 1979,
      "includegraphics": 1980,
      "data": 1981,
      "de": 1982,
      "Ġvalues": 1983,
      "Ġlife": 1984,
      "ĠMin": 1985,
      "ĠReg": 1986,
      "ĠApril": 1987,
      "};": 1988,
      "ends": 1989,
      "Se": 1990,
      "ift": 1991,
      "}^{\\": 1992,
      "ling": 1993,
      "Ġpower": 1994,
      "century": 1995,
      "ampionship": 1996,
      "comm": 1997,
      "ording": 1998,
      "ords": 1999,
      "ape": 2000,
      "}=": 2001,
      "less": 2002,
      "ued": 2003,
      "ĠWh": 2004,
      "Ġband": 2005,
      "64": 2006,
      "action": 2007,
      "gorithm": 2008,
      "Ġposition": 2009,
      "EN": 2010,
      "Ġplace": 2011,
      "ĠNorth": 2012,
      "Ġarg": 2013,
      "********": 2014,
      "An": 2015,
      "Ġvery": 2016,
      "urg": 2017,
      "ĠEuro": 2018,
      "33": 2019,
      "Ġnetwork": 2020,
      "ava": 2021,
      "ĠLeague": 2022,
      "bs": 2023,
      "ung": 2024,
      "rightarrow": 2025,
      "rap": 2026,
      "ĠBritish": 2027,
      "ĠĠĠĠĠĠĠĠĠĠĠĠĠ": 2028,
      "////": 2029,
      "Ġelse": 2030,
      "posed": 2031,
      "Ġdoes": 2032,
      "uage": 2033,
      "ĠNovember": 2034,
      "ze": 2035,
      "ormal": 2036,
      "see": 2037,
      "Ġrespon": 2038,
      "ĠCal": 2039,
      "Ġsum": 2040,
      "ious": 2041,
      "60": 2042,
      "Data": 2043,
      "ĠCity": 2044,
      "Ġ\\,": 2045,
      "ĠGu": 2046,
      "translation": 2047,
      "tal": 2048,
      "Ġlarg": 2049,
      "ination": 2050,
      "ĠIf": 2051,
      "ĠRes": 2052,
      "ush": 2053,
      "Ġkey": 2054,
      "He": 2055,
      "aper": 2056,
      "Ġvis": 2057,
      "leg": 2058,
      "Ġearly": 2059,
      "Ġabove": 2060,
      "ography": 2061,
      "uk": 2062,
      "Ġcal": 2063,
      "Ġ&&": 2064,
      "ĠDecember": 2065,
      "Ġpubl": 2066,
      "Ġdi": 2067,
      "Ġmap": 2068,
      "Ġden": 2069,
      "Ġreal": 2070,
      "ĠMan": 2071,
      "rangle": 2072,
      "rag": 2073,
      "Ġ${\\": 2074,
      "uff": 2075,
      "----------------": 2076,
      "Ġexpl": 2077,
      "ained": 2078,
      "emph": 2079,
      ")=": 2080,
      "akes": 2081,
      "Ġid": 2082,
      "test": 2083,
      "\"><": 2084,
      "ĠState": 2085,
      "Ġcharacter": 2086,
      "Ġexample": 2087,
      "xim": 2088,
      "ilit": 2089,
      "aving": 2090,
      "apan": 2091,
      "Ġinteg": 2092,
      "duct": 2093,
      "2000": 2094,
      "Ġaround": 2095,
      "geq": 2096,
      "Ġtri": 2097,
      "Ġeven": 2098,
      "Ġexpect": 2099,
      "ĠâĢĶ": 2100,
      "Ġlaw": 2101,
      "yl": 2102,
      "DE": 2103,
      "80": 2104,
      "Ġhel": 2105,
      "ils": 2106,
      "Ġenergy": 2107,
      "Ind": 2108,
      "ebru": 2109,
      "ĠThey": 2110,
      "iment": 2111,
      "ĠBe": 2112,
      "top": 2113,
      "Ġprivate": 2114,
      "Ġgl": 2115,
      "SE": 2116,
      "Ġbook": 2117,
      "Ġmeasure": 2118,
      "Ġsuccess": 2119,
      "ales": 2120,
      "inition": 2121,
      "Ġtyp": 2122,
      "ription": 2123,
      "ebruary": 2124,
      "varphi": 2125,
      "atures": 2126,
      "inter": 2127,
      "aced": 2128,
      "Ġcity": 2129,
      "ison": 2130,
      "Big": 2131,
      "ham": 2132,
      "ped": 2133,
      "Ġtitle": 2134,
      "rel": 2135,
      "Ġfilms": 2136,
      "By": 2137,
      "ependent": 2138,
      "Ġsl": 2139,
      "Re": 2140,
      "Ġprevious": 2141,
      "reak": 2142,
      "Ġlike": 2143,
      "Ġgra": 2144,
      "ĠKing": 2145,
      "Ġinitial": 2146,
      "ances": 2147,
      "189": 2148,
      "ression": 2149,
      "non": 2150,
      "levision": 2151,
      "mary": 2152,
      "\");": 2153,
      "Ġthose": 2154,
      "alth": 2155,
      "Ġcomput": 2156,
      "mm": 2157,
      "AC": 2158,
      "lected": 2159,
      "aim": 2160,
      "Ã¡": 2161,
      "Ġsat": 2162,
      "iles": 2163,
      "cer": 2164,
      "lear": 2165,
      "Ġmake": 2166,
      "Sh": 2167,
      "Set": 2168,
      "script": 2169,
      "Ġdescribed": 2170,
      "Ġcompet": 2171,
      ".~\\": 2172,
      "no": 2173,
      "head": 2174,
      "ruction": 2175,
      "with": 2176,
      "Ġdid": 2177,
      "ius": 2178,
      "ĠCanad": 2179,
      "proof": 2180,
      "but": 2181,
      "ĠWill": 2182,
      "...": 2183,
      "American": 2184,
      "Ġjust": 2185,
      "Ġ/**": 2186,
      "],": 2187,
      "size": 2188,
      "empt": 2189,
      "rench": 2190,
      "ves": 2191,
      "rite": 2192,
      "Ġsimilar": 2193,
      "ino": 2194,
      "ĠAnd": 2195,
      "Ġcrit": 2196,
      "Ġtotal": 2197,
      "Ġmembers": 2198,
      "atter": 2199,
      "Ġassoci": 2200,
      "ĠEurope": 2201,
      "ĠAf": 2202,
      "ixed": 2203,
      "Ġparticular": 2204,
      "Ġder": 2205,
      "imal": 2206,
      "Ġstyle": 2207,
      "ensure": 2208,
      "Ġclos": 2209,
      "Ġeng": 2210,
      "gin": 2211,
      "2005": 2212,
      "overline": 2213,
      "ourn": 2214,
      "Ġcareer": 2215,
      "2021": 2216,
      "ĠĠĠĠĠĠĠĠĠĠĠĠĠĠĠĠĠĠĠĠĠĠĠ": 2217,
      "stit": 2218,
      "45": 2219,
      "ager": 2220,
      "eff": 2221,
      "Ġdom": 2222,
      ".}": 2223,
      "Ġstatic": 2224,
      "Ġdefined": 2225,
      "Ġtown": 2226,
      "Ġdem": 2227,
      "Ġintrodu": 2228,
      "ĠFebruary": 2229,
      "Ġwomen": 2230,
      "Ġnamed": 2231,
      "''": 2232,
      "Ġtrad": 2233,
      "oper": 2234,
      "iness": 2235,
      "Ġinclude": 2236,
      "Ġinformation": 2237,
      "ese": 2238,
      "ĠCo": 2239,
      "Ġpost": 2240,
      "Ġbas": 2241,
      "ĠArm": 2242,
      "ony": 2243,
      "Ġdiv": 2244,
      "date": 2245,
      "ensity": 2246,
      "ocument": 2247,
      "ffic": 2248,
      "Ġdown": 2249,
      "Ġshort": 2250,
      "));": 2251,
      "Ġshown": 2252,
      "plit": 2253,
      "Ġpoints": 2254,
      "Ġmember": 2255,
      "Ġaut": 2256,
      "ana": 2257,
      "itor": 2258,
      "ges": 2259,
      "ĠAfter": 2260,
      "Ġfollows": 2261,
      "Ġperiod": 2262,
      "ĠRep": 2263,
      "Ġland": 2264,
      "Pl": 2265,
      "Ġcomplet": 2266,
      "Ġmax": 2267,
      "Not": 2268,
      "ries": 2269,
      "frak": 2270,
      "dom": 2271,
      "&\\": 2272,
      "Ġmajor": 2273,
      "ially": 2274,
      "35": 2275,
      "Ġsection": 2276,
      "bolds": 2277,
      "Ġhig": 2278,
      "ĠPart": 2279,
      "indow": 2280,
      "pre": 2281,
      "ources": 2282,
      "refore": 2283,
      "},\\": 2284,
      "lor": 2285,
      "Ġestablished": 2286,
      "boldsymbol": 2287,
      "Ġpopulation": 2288,
      "lete": 2289,
      "Ġproject": 2290,
      "];": 2291,
      "AN": 2292,
      "bra": 2293,
      "ux": 2294,
      "istic": 2295,
      "sequ": 2296,
      "Ġlet": 2297,
      "ope": 2298,
      "IT": 2299,
      "cul": 2300,
      "Ġbeh": 2301,
      "ĠDist": 2302,
      "Ġworld": 2303,
      "ĠSw": 2304,
      "Ġmark": 2305,
      "Ġret": 2306,
      "cor": 2307,
      "ari": 2308,
      "ideo": 2309,
      "raft": 2310,
      "Ġold": 2311,
      "Ġtechn": 2312,
      "Ġbegan": 2313,
      "ĠEd": 2314,
      "Ġversion": 2315,
      "Exception": 2316,
      "px": 2317,
      "($": 2318,
      "ugg": 2319,
      "urs": 2320,
      "Ġnext": 2321,
      "Ġclub": 2322,
      "[\\": 2323,
      "Ġlocated": 2324,
      "ertain": 2325,
      "aint": 2326,
      "Ġexist": 2327,
      "Ġreport": 2328,
      "Ġquant": 2329,
      "Ġstill": 2330,
      "75": 2331,
      "vec": 2332,
      "go": 2333,
      "Ġmodels": 2334,
      "ynam": 2335,
      "2004": 2336,
      "ĠUS": 2337,
      "Ġspect": 2338,
      "Ġlow": 2339,
      "ĠAm": 2340,
      "Ġperson": 2341,
      "uration": 2342,
      "Ġgovernment": 2343,
      "hline": 2344,
      "eter": 2345,
      "iction": 2346,
      "Ġheld": 2347,
      "though": 2348,
      "ĠSup": 2349,
      "Ġstation": 2350,
      "ection": 2351,
      "ĠBy": 2352,
      "ww": 2353,
      "Ġerror": 2354,
      "alk": 2355,
      "urb": 2356,
      "Ġredu": 2357,
      "Ġway": 2358,
      "Ġalign": 2359,
      "Ġdeg": 2360,
      "ploy": 2361,
      "}).": 2362,
      "Ġ!=": 2363,
      "Ġpat": 2364,
      "rror": 2365,
      "Mod": 2366,
      "ĠEnglish": 2367,
      "ĠBar": 2368,
      "ered": 2369,
      ")^": 2370,
      "sl": 2371,
      "Ġchang": 2372,
      "Ġshows": 2373,
      "mathfrak": 2374,
      "ique": 2375,
      "Ġvill": 2376,
      "ering": 2377,
      "ĠJapan": 2378,
      "Ġmust": 2379,
      "ounc": 2380,
      "ĠHar": 2381,
      "Ġ///": 2382,
      "ĠWest": 2383,
      "Ġinf": 2384,
      "nabl": 2385,
      "Ġbest": 2386,
      "Ġcomb": 2387,
      "Object": 2388,
      "Test": 2389,
      "ĠHis": 2390,
      "ervice": 2391,
      "Ġleg": 2392,
      "}}$": 2393,
      "iron": 2394,
      "Ġregion": 2395,
      "ivity": 2396,
      "Ġpo": 2397,
      "ĠChrist": 2398,
      "Ġadv": 2399,
      "orph": 2400,
      "'t": 2401,
      "Ġhome": 2402,
      "99": 2403,
      "search": 2404,
      "Ġwithout": 2405,
      "function": 2406,
      "CO": 2407,
      "._": 2408,
      "ME": 2409,
      "nb": 2410,
      "ster": 2411,
      "Let": 2412,
      "adem": 2413,
      "usiness": 2414,
      "ford": 2415,
      "ĠString": 2416,
      "Ġdeterm": 2417,
      "Ġstudy": 2418,
      "rew": 2419,
      "Int": 2420,
      "ldots": 2421,
      "Ġreceived": 2422,
      "ĠMc": 2423,
      "Ġvol": 2424,
      "Ġsaid": 2425,
      "yd": 2426,
      "illion": 2427,
      "ysis": 2428,
      "Ġstructure": 2429,
      "ondon": 2430,
      "eneral": 2431,
      "Ġep": 2432,
      "Ġla": 2433,
      "ymmet": 2434,
      "Ġside": 2435,
      "node": 2436,
      "Ġsk": 2437,
      "oll": 2438,
      "Ġaver": 2439,
      "70": 2440,
      "CT": 2441,
      "ocial": 2442,
      "Ġcour": 2443,
      "file": 2444,
      "Ġgames": 2445,
      "Ġdistribution": 2446,
      "Ġterms": 2447,
      "========": 2448,
      "Ġprom": 2449,
      "ĠEl": 2450,
      "ume": 2451,
      "Ġtook": 2452,
      "Ġbuilt": 2453,
      "Ġjo": 2454,
      "Ġhouse": 2455,
      "Ġ%": 2456,
      "Ġanother": 2457,
      "unic": 2458,
      "31": 2459,
      "sf": 2460,
      "langle": 2461,
      "Ġprot": 2462,
      "Ġrepl": 2463,
      "Ġcar": 2464,
      "appa": 2465,
      "90": 2466,
      "ille": 2467,
      "day": 2468,
      "alf": 2469,
      "ĠCor": 2470,
      "Lambda": 2471,
      "Ġappear": 2472,
      "mat": 2473,
      "wid": 2474,
      "Ġview": 2475,
      "ention": 2476,
      "Ġspe": 2477,
      "Ġcompany": 2478,
      "ĠRec": 2479,
      "ently": 2480,
      "Ġaff": 2481,
      "bit": 2482,
      "Ġfeature": 2483,
      "ĠMed": 2484,
      "Ġet": 2485,
      "aul": 2486,
      "osp": 2487,
      "Ġconf": 2488,
      "Ġiss": 2489,
      "Ġservice": 2490,
      "rown": 2491,
      "isf": 2492,
      "Ġmuch": 2493,
      "Key": 2494,
      "Ġdel": 2495,
      "rary": 2496,
      "Ġtext": 2497,
      "roid": 2498,
      "rest": 2499,
      "Ġwhat": 2500,
      "Ġfr": 2501,
      "ither": 2502,
      "ological": 2503,
      "imum": 2504,
      "ables": 2505,
      "Ġpublished": 2506,
      "ĠChampionship": 2507,
      "cast": 2508,
      "().": 2509,
      "ĠCollege": 2510,
      "Ġpred": 2511,
      "Ġage": 2512,
      "ĠAfric": 2513,
      "eder": 2514,
      "Ġhow": 2515,
      "Ġarch": 2516,
      "2003": 2517,
      "ĠAb": 2518,
      "ĠEn": 2519,
      "mult": 2520,
      "idual": 2521,
      "Ġlang": 2522,
      "load": 2523,
      "ek": 2524,
      "rick": 2525,
      "Ġnational": 2526,
      "Ġpath": 2527,
      "max": 2528,
      "Ġthird": 2529,
      "ĠĠĠĠĊ": 2530,
      "Ġapproxim": 2531,
      "Ġinterest": 2532,
      "ĠNo": 2533,
      "Ġincluded": 2534,
      "Ġserved": 2535,
      "());": 2536,
      "Ġorg": 2537,
      "Ġsequ": 2538,
      "Ġmatch": 2539,
      "Ġstates": 2540,
      "iet": 2541,
      "ones": 2542,
      "Ġborn": 2543,
      "arried": 2544,
      "group": 2545,
      "rum": 2546,
      "ĠRuss": 2547,
      "ocus": 2548,
      "ĠFrench": 2549,
      "AS": 2550,
      "Ġhistory": 2551,
      "list": 2552,
      "na": 2553,
      "Ġtake": 2554,
      "Class": 2555,
      "Ġpe": 2556,
      "ĠHigh": 2557,
      "Ġport": 2558,
      "sup": 2559,
      "Ġtimes": 2560,
      "Get": 2561,
      "ude": 2562,
      "Ġcentury": 2563,
      "Ġsix": 2564,
      "Ġenc": 2565,
      "ending": 2566,
      "etic": 2567,
      "ayer": 2568,
      "ĠLondon": 2569,
      "ĠTo": 2570,
      "Ġstrong": 2571,
      "uck": 2572,
      "citep": 2573,
      "Ġrange": 2574,
      "Phi": 2575,
      "Ġbase": 2576,
      "Ġprofess": 2577,
      "Ġspecies": 2578,
      "34": 2579,
      "Ġcompon": 2580,
      "Ġlog": 2581,
      "Ġalgorithm": 2582,
      "Ġfive": 2583,
      "opy": 2584,
      "ĠAir": 2585,
      "nbsp": 2586,
      "path": 2587,
      "ops": 2588,
      "ĠThere": 2589,
      "br": 2590,
      "Ġcontrol": 2591,
      "aut": 2592,
      "estern": 2593,
      "De": 2594,
      "2002": 2595,
      "Ġcompos": 2596,
      "Ġcho": 2597,
      "65": 2598,
      "Ġtarget": 2599,
      "ribute": 2600,
      "Ġfull": 2601,
      "ilitary": 2602,
      "Ġelection": 2603,
      "Ġday": 2604,
      "Ġplayer": 2605,
      "ald": 2606,
      "pose": 2607,
      "Ġparameters": 2608,
      "188": 2609,
      "2001": 2610,
      "kappa": 2611,
      "ilter": 2612,
      "ii": 2613,
      "ĠMe": 2614,
      "oph": 2615,
      "ailable": 2616,
      "style": 2617,
      "ĠWilliam": 2618,
      "uman": 2619,
      "obal": 2620,
      "\\|": 2621,
      "Ġinvol": 2622,
      "Ġfurther": 2623,
      "Ġpossible": 2624,
      "Ġtelevision": 2625,
      "Im": 2626,
      "Ġperformance": 2627,
      "textit": 2628,
      "link": 2629,
      "iple": 2630,
      "ĠChar": 2631,
      ")(": 2632,
      "Ġdiscuss": 2633,
      "ĠGerman": 2634,
      "Ps": 2635,
      "Ġpot": 2636,
      "Ġsw": 2637,
      "annel": 2638,
      "Sc": 2639,
      "lymp": 2640,
      "atus": 2641,
      "ards": 2642,
      "ights": 2643,
      "plication": 2644,
      "ĠYou": 2645,
      "iant": 2646,
      "Qu": 2647,
      "nabla": 2648,
      "Error": 2649,
      "uation": 2650,
      "Ġturn": 2651,
      "subset": 2652,
      "Ġinput": 2653,
      "Ġwar": 2654,
      "Ġnode": 2655,
      "Ġmen": 2656,
      "Ġcover": 2657,
      "amples": 2658,
      "Def": 2659,
      "Ġcommon": 2660,
      "With": 2661,
      "map": 2662,
      "Ġrole": 2663,
      "Ġgraph": 2664,
      "})$": 2665,
      "draw": 2666,
      "Ġvert": 2667,
      "ĠDistrict": 2668,
      "ensuremath": 2669,
      "summary": 2670,
      "Ġsignific": 2671,
      "pace": 2672,
      "rc": 2673,
      "Ġcorre": 2674,
      "icle": 2675,
      "\\%": 2676,
      "Ã³": 2677,
      "Ġeduc": 2678,
      "ĠCup": 2679,
      "reet": 2680,
      "ĠItal": 2681,
      "Ġmean": 2682,
      "Ġconsidered": 2683,
      "uf": 2684,
      "Or": 2685,
      "Ġphys": 2686,
      "Ġlength": 2687,
      "aff": 2688,
      "Ġcomplex": 2689,
      "Ġmagn": 2690,
      "Ġcou": 2691,
      "ĠThen": 2692,
      "Ġimportant": 2693,
      "wide": 2694,
      "ington": 2695,
      "otimes": 2696,
      "Ġphot": 2697,
      "aining": 2698,
      "Ġred": 2699,
      "point": 2700,
      "IC": 2701,
      "Ġcamp": 2702,
      "2022": 2703,
      "ĠSch": 2704,
      "].": 2705,
      "ĠThese": 2706,
      "}),": 2707,
      "Ġaction": 2708,
      "Ġchildren": 2709,
      "Ġfunctions": 2710,
      "index": 2711,
      "Ġvarious": 2712,
      "ĠArt": 2713,
      "circ": 2714,
      "ĠHer": 2715,
      "Ġobtained": 2716,
      "Ġamong": 2717,
      "Ġfile": 2718,
      "Ġindic": 2719,
      "38": 2720,
      "ridge": 2721,
      "Ġoften": 2722,
      "Sigma": 2723,
      "rows": 2724,
      "ouncil": 2725,
      "Ġsatisf": 2726,
      "iff": 2727,
      ".\\": 2728,
      "ways": 2729,
      "inary": 2730,
      "Ġwritten": 2731,
      "now": 2732,
      "ateg": 2733,
      "48": 2734,
      "Ġfail": 2735,
      "ĠAng": 2736,
      "Ġtheory": 2737,
      "Ġbuilding": 2738,
      "olic": 2739,
      "ories": 2740,
      "ĠDav": 2741,
      "conom": 2742,
      "ĠComp": 2743,
      "ship": 2744,
      "Ġmatrix": 2745,
      "Ġmot": 2746,
      "ĠHouse": 2747,
      "url": 2748,
      "ĠPark": 2749,
      "ĠBro": 2750,
      "\";": 2751,
      "AP": 2752,
      "Ġauthor": 2753,
      "Ġsource": 2754,
      "Ġinvest": 2755,
      "mbox": 2756,
      "LL": 2757,
      "clus": 2758,
      "Ġattack": 2759,
      "Ġ``": 2760,
      "Ġsit": 2761,
      "Ġq": 2762,
      "Ġpri": 2763,
      "Living": 2764,
      "ware": 2765,
      "cher": 2766,
      "iber": 2767,
      "ociation": 2768,
      "alt": 2769,
      "public": 2770,
      "ached": 2771,
      "Ġdensity": 2772,
      "Ġspecial": 2773,
      "Ġeas": 2774,
      "df": 2775,
      "Ġfew": 2776,
      "Ġconv": 2777,
      "ĠChe": 2778,
      "ours": 2779,
      "Ġdat": 2780,
      "andom": 2781,
      "Ġsepar": 2782,
      "viron": 2783,
      "Ġnorth": 2784,
      "Ġproduct": 2785,
      "ctor": 2786,
      "Ġ($": 2787,
      "avy": 2788,
      "36": 2789,
      "ief": 2790,
      "mar": 2791,
      "Ġ:=": 2792,
      "perty": 2793,
      "anish": 2794,
      "widet": 2795,
      "Ġ()": 2796,
      "Ġfore": 2797,
      "Ġtraining": 2798,
      "Ġcross": 2799,
      "dots": 2800,
      "ĠMon": 2801,
      "Ġevents": 2802,
      "aken": 2803,
      "Ġlimit": 2804,
      "Ã¼": 2805,
      "Requ": 2806,
      "Ġarm": 2807,
      "ured": 2808,
      "Ġair": 2809,
      "Ġdied": 2810,
      "Ġlower": 2811,
      "ĠQu": 2812,
      "aterial": 2813,
      "inn": 2814,
      "Ġpaper": 2815,
      "itions": 2816,
      "ividual": 2817,
      "Ġprim": 2818,
      "ĠLet": 2819,
      "Ġwater": 2820,
      "\\[": 2821,
      "ula": 2822,
      "Ġparameter": 2823,
      "Ġins": 2824,
      "state": 2825,
      "ules": 2826,
      "Ġrespectively": 2827,
      "ught": 2828,
      "http": 2829,
      "ĠPhil": 2830,
      "Ġaverage": 2831,
      "En": 2832,
      "comp": 2833,
      "ĠPres": 2834,
      "44": 2835,
      "ÃŃ": 2836,
      "['": 2837,
      "Ġfac": 2838,
      "ĠLa": 2839,
      "Ġimpro": 2840,
      "ĉĉĉĉĉ": 2841,
      "Ġconn": 2842,
      "ĠDiv": 2843,
      "ĠList": 2844,
      "exp": 2845,
      "widetilde": 2846,
      "Ġround": 2847,
      "Ġdeta": 2848,
      "nonumber": 2849,
      "location": 2850,
      "ĠOne": 2851,
      "');": 2852,
      "Ġless": 2853,
      "cap": 2854,
      "âĢĿ": 2855,
      "ĠPer": 2856,
      "rain": 2857,
      "55": 2858,
      "Ġsuper": 2859,
      "ouble": 2860,
      "ĠInternational": 2861,
      "Ġvillage": 2862,
      "igned": 2863,
      "People": 2864,
      "Ġcirc": 2865,
      "37": 2866,
      "itect": 2867,
      "attle": 2868,
      "Ġcreated": 2869,
      "Ġflow": 2870,
      "PE": 2871,
      "Ġfree": 2872,
      "Ġbo": 2873,
      "Ġfeatures": 2874,
      "\":": 2875,
      "aged": 2876,
      "era": 2877,
      "abor": 2878,
      "scal": 2879,
      "ients": 2880,
      "ms": 2881,
      "utions": 2882,
      "RO": 2883,
      "Ġpair": 2884,
      "Ġsolution": 2885,
      "Ġrelations": 2886,
      "39": 2887,
      "nder": 2888,
      "Ġsem": 2889,
      "Ġrequest": 2890,
      "Ġhost": 2891,
      "(),": 2892,
      "length": 2893,
      "Ġassert": 2894,
      "ems": 2895,
      "ĠRiver": 2896,
      "History": 2897,
      "Ġannoun": 2898,
      "ought": 2899,
      "1990": 2900,
      "Ġstar": 2901,
      "Ġconsist": 2902,
      "iforn": 2903,
      "Ġimage": 2904,
      "ĠGl": 2905,
      "66": 2906,
      "itch": 2907,
      "Ġcoll": 2908,
      "ĠIndian": 2909,
      "/\\": 2910,
      "rim": 2911,
      "Ġ/>": 2912,
      "II": 2913,
      "}}{": 2914,
      "util": 2915,
      "asing": 2916,
      "Ġlight": 2917,
      "ĠÐ": 2918,
      "centering": 2919,
      "Ġchange": 2920,
      "Ġsystems": 2921,
      "1999": 2922,
      "flu": 2923,
      "Ġcell": 2924,
      "Ġavailable": 2925,
      "Ġworks": 2926,
      "TE": 2927,
      "Ġpotential": 2928,
      "oyal": 2929,
      "ara": 2930,
      "iev": 2931,
      "isc": 2932,
      "ifornia": 2933,
      "burg": 2934,
      "Ġson": 2935,
      "Ġide": 2936,
      "Ġsignificant": 2937,
      "oted": 2938,
      "Ġhowever": 2939,
      "State": 2940,
      "Ġrate": 2941,
      "Ġnov": 2942,
      "Ġknow": 2943,
      "gl": 2944,
      "Ġsouth": 2945,
      "oon": 2946,
      "reed": 2947,
      "Ġgen": 2948,
      "Ġproduced": 2949,
      "atural": 2950,
      "Ġconstant": 2951,
      "Ġclaim": 2952,
      "ĠSan": 2953,
      "New": 2954,
      "Ġhere": 2955,
      "Ġcommand": 2956,
      "FF": 2957,
      "mon": 2958,
      "BC": 2959,
      "orge": 2960,
      "irt": 2961,
      "ĠEngland": 2962,
      "Man": 2963,
      "Ġproperty": 2964,
      "Ġcorresponding": 2965,
      "Ġge": 2966,
      "ĠAg": 2967,
      "useum": 2968,
      "down": 2969,
      "ference": 2970,
      "Ġtw": 2971,
      "View": 2972,
      "Equ": 2973,
      "lands": 2974,
      "Ġsent": 2975,
      "{-": 2976,
      "ogn": 2977,
      "hold": 2978,
      "sw": 2979,
      "Ġapproach": 2980,
      "Ġgroups": 2981,
      "Ġstandard": 2982,
      "ĠLem": 2983,
      "ico": 2984,
      "from": 2985,
      "Ġdiff": 2986,
      "Ass": 2987,
      "Time": 2988,
      "Ġleast": 2989,
      "ken": 2990,
      "chiev": 2991,
      "ĠMich": 2992,
      "Ġanalysis": 2993,
      "kn": 2994,
      "Ġcode": 2995,
      "omb": 2996,
      "cit": 2997,
      "Ġled": 2998,
      "All": 2999,
      "Ġkill": 3000,
      "Ġlabel": 3001,
      "Ġfrequ": 3002,
      "Ġant": 3003,
      "Ġgood": 3004,
      "Ġbecome": 3005,
      "Ġestablish": 3006,
      "File": 3007,
      "hern": 3008,
      "']": 3009,
      "ait": 3010,
      "ension": 3011,
      "Ġbi": 3012,
      "Ġhaving": 3013,
      "Ġbusiness": 3014,
      "Ġcontext": 3015,
      "Bl": 3016,
      "ociety": 3017,
      "duc": 3018,
      "Ġ);": 3019,
      "01": 3020,
      "ĠBr": 3021,
      "thm": 3022,
      "Ġeither": 3023,
      "At": 3024,
      "Ġdev": 3025,
      "Result": 3026,
      ".</": 3027,
      "Ġsite": 3028,
      "lying": 3029,
      "ĠDep": 3030,
      "Ġequation": 3031,
      "Ġcases": 3032,
      "}-": 3033,
      "Ġhistor": 3034,
      "LA": 3035,
      "och": 3036,
      "Ġblack": 3037,
      "Ġexec": 3038,
      "ĠCalifornia": 3039,
      "ising": 3040,
      "Map": 3041,
      "Ġser": 3042,
      "ĠAc": 3043,
      "stand": 3044,
      "ĠParty": 3045,
      "cle": 3046,
      "Ġconstruct": 3047,
      "Node": 3048,
      "ĠAustralia": 3049,
      "ĠWhen": 3050,
      "Ġmethods": 3051,
      "Ad": 3052,
      "Ġproduction": 3053,
      "1998": 3054,
      "ica": 3055,
      "ackage": 3056,
      "Ġhigher": 3057,
      "erg": 3058,
      "que": 3059,
      "my": 3060,
      "ama": 3061,
      "ĠTr": 3062,
      "Ġindependent": 3063,
      "ustom": 3064,
      "Form": 3065,
      "hib": 3066,
      "Ġbackground": 3067,
      "Ġpract": 3068,
      "Ġthus": 3069,
      "Ġmoved": 3070,
      "ĠAct": 3071,
      "49": 3072,
      "ender": 3073,
      "Ġsett": 3074,
      "result": 3075,
      "Ġ?": 3076,
      "most": 3077,
      "evel": 3078,
      "Fig": 3079,
      "Ġloss": 3080,
      "Ġcountry": 3081,
      "tabular": 3082,
      "Ġassociated": 3083,
      "Element": 3084,
      "Ġdeaths": 3085,
      "idence": 3086,
      "Ġconfig": 3087,
      "ha": 3088,
      "Ġdimens": 3089,
      "bor": 3090,
      "Ġke": 3091,
      "IS": 3092,
      "ui": 3093,
      "Ġneg": 3094,
      "From": 3095,
      "ably": 3096,
      "Ġmale": 3097,
      "Ġship": 3098,
      "ournal": 3099,
      "pen": 3100,
      "Ġdistrict": 3101,
      "Ġear": 3102,
      "Ġengine": 3103,
      "Ġphase": 3104,
      "cy": 3105,
      "nav": 3106,
      "Ġindividual": 3107,
      "ession": 3108,
      "05": 3109,
      "\"></": 3110,
      "Ġconditions": 3111,
      "/*": 3112,
      "vironment": 3113,
      "ĠVal": 3114,
      "ĠTheorem": 3115,
      "Ġinstance": 3116,
      "\\]": 3117,
      "TR": 3118,
      "Ġimplement": 3119,
      "\\!": 3120,
      "Ġvideo": 3121,
      "Ġcalcul": 3122,
      "ĠOlymp": 3123,
      "187": 3124,
      "Ġblock": 3125,
      "ĠRepublic": 3126,
      "Ġindex": 3127,
      "Ġrequire": 3128,
      "based": 3129,
      "ottom": 3130,
      "uggest": 3131,
      "Ġlinear": 3132,
      "~~": 3133,
      "ĠAward": 3134,
      "Ġcult": 3135,
      "uture": 3136,
      "ivil": 3137,
      "Ġvia": 3138,
      "ĠEast": 3139,
      "ellow": 3140,
      "ogle": 3141,
      "rant": 3142,
      "nection": 3143,
      "Ġarray": 3144,
      "iol": 3145,
      "inated": 3146,
      "Over": 3147,
      "Ġhelp": 3148,
      "ĉĊ": 3149,
      "Ġnumer": 3150,
      "inst": 3151,
      "Ġdevelopment": 3152,
      "ĠPort": 3153,
      "Ġproperties": 3154,
      "Ġlate": 3155,
      "ĠArmy": 3156,
      "Ġregular": 3157,
      "Ġmiss": 3158,
      "iven": 3159,
      "Ġfem": 3160,
      "ibility": 3161,
      "chan": 3162,
      "eh": 3163,
      "Info": 3164,
      "Ġbelow": 3165,
      "\\{": 3166,
      "Rec": 3167,
      "plied": 3168,
      "Ġfather": 3169,
      "Ġsold": 3170,
      "Ġrandom": 3171,
      "Ġinternational": 3172,
      "Ġtemper": 3173,
      "Ġreturned": 3174,
      "Ġbreak": 3175,
      "rec": 3176,
      "ressed": 3177,
      "Event": 3178,
      "Ġvector": 3179,
      "âĢĶ": 3180,
      "itted": 3181,
      "gether": 3182,
      "Ġtogether": 3183,
      "Path": 3184,
      "||": 3185,
      "Request": 3186,
      "Ġcaus": 3187,
      "47": 3188,
      "If": 3189,
      "Ġproof": 3190,
      "van": 3191,
      "Ġresearch": 3192,
      "ponent": 3193,
      "Ġcreate": 3194,
      "ett": 3195,
      "1980": 3196,
      "ĠIndia": 3197,
      "Ġhom": 3198,
      "Ġlines": 3199,
      "ocal": 3200,
      "Ġhalf": 3201,
      "1996": 3202,
      "minist": 3203,
      "Ð°": 3204,
      "Att": 3205,
      "ĠSystem": 3206,
      "Ġfocus": 3207,
      "js": 3208,
      "Ġachiev": 3209,
      "Ġstarted": 3210,
      "foot": 3211,
      "Ġaccess": 3212,
      "Ġabs": 3213,
      "Ġdest": 3214,
      "han": 3215,
      "}+": 3216,
      "zeta": 3217,
      "Ġcommunity": 3218,
      "Ġcost": 3219,
      "ming": 3220,
      "Is": 3221,
      "itz": 3222,
      "ĠSec": 3223,
      "ĠâĢľ": 3224,
      "AD": 3225,
      "plies": 3226,
      "ota": 3227,
      "ĠBel": 3228,
      "ready": 3229,
      "ĠFrance": 3230,
      "Ġproposed": 3231,
      "Ġelements": 3232,
      "Text": 3233,
      "ĠWith": 3234,
      "ĠRed": 3235,
      "Ġdepend": 3236,
      "Ġyoung": 3237,
      "earch": 3238,
      "After": 3239,
      "Ġpositive": 3240,
      "Ġannounced": 3241,
      "Ġuser": 3242,
      "ride": 3243,
      "bb": 3244,
      "iddle": 3245,
      "ĠChurch": 3246,
      "ĠAmeric": 3247,
      "Ġsche": 3248,
      "1997": 3249,
      "api": 3250,
      "aries": 3251,
      "Ġseen": 3252,
      "ĠSim": 3253,
      "raint": 3254,
      "ĠMal": 3255,
      "Ġda": 3256,
      "aves": 3257,
      "error": 3258,
      "CC": 3259,
      "irection": 3260,
      "Ã¶": 3261,
      "Ġcy": 3262,
      "/**": 3263,
      "olean": 3264,
      "Ġground": 3265,
      "ya": 3266,
      "Ġrequired": 3267,
      "ittle": 3268,
      "Ð¾": 3269,
      "Ġcontinu": 3270,
      "acy": 3271,
      "ceed": 3272,
      "ls": 3273,
      "Ġpolitic": 3274,
      "Ġaward": 3275,
      "gcolor": 3276,
      "ĠSince": 3277,
      "orthern": 3278,
      "iance": 3279,
      "Ġbroad": 3280,
      "ĠOb": 3281,
      "iers": 3282,
      "sin": 3283,
      "ION": 3284,
      "Add": 3285,
      "Ġprovide": 3286,
      "Ġcolor": 3287,
      "gress": 3288,
      "Ġexpected": 3289,
      "Field": 3290,
      "ump": 3291,
      "}=\\": 3292,
      ")}\\": 3293,
      "MP": 3294,
      "ĠSection": 3295,
      "ounter": 3296,
      "medi": 3297,
      "Ġaccount": 3298,
      "ĠRoman": 3299,
      "Ġ&=": 3300,
      "wise": 3301,
      "ĠEq": 3302,
      "Ġlanguage": 3303,
      "Ġmillion": 3304,
      "omorph": 3305,
      "Ġund": 3306,
      ")=\\": 3307,
      "Trans": 3308,
      "prime": 3309,
      "amespace": 3310,
      "Ġsuggest": 3311,
      "icro": 3312,
      "ds": 3313,
      "itar": 3314,
      "ordin": 3315,
      "Ġepis": 3316,
      "Ġsurv": 3317,
      "asc": 3318,
      "ura": 3319,
      "input": 3320,
      ";\\": 3321,
      "known": 3322,
      "ecess": 3323,
      "ĠHam": 3324,
      "Ġcontains": 3325,
      "ccording": 3326,
      "ĠAnt": 3327,
      "Ġang": 3328,
      "Config": 3329,
      "{(": 3330,
      "Ġcheck": 3331,
      "Ġ},": 3332,
      "Ġdebut": 3333,
      "Ġnormal": 3334,
      "ael": 3335,
      "dt": 3336,
      "System": 3337,
      "Ġrecent": 3338,
      "ĠFirst": 3339,
      "())": 3340,
      "Ġoutput": 3341,
      "cell": 3342,
      "1995": 3343,
      "oment": 3344,
      "Sp": 3345,
      "eed": 3346,
      "Ġcontent": 3347,
      "ulated": 3348,
      "Ġconc": 3349,
      "which": 3350,
      "arning": 3351,
      "``": 3352,
      "Ġmy": 3353,
      "mark": 3354,
      "Ġgreat": 3355,
      "Ġperm": 3356,
      "Ġsm": 3357,
      "ibrary": 3358,
      "Ġplan": 3359,
      "Ġclose": 3360,
      "Context": 3361,
      "Index": 3362,
      "Ġfund": 3363,
      "Ġill": 3364,
      "Ġcame": 3365,
      "Ġmem": 3366,
      "aches": 3367,
      "ĠRev": 3368,
      "Ġtrack": 3369,
      "Ġmulti": 3370,
      "LO": 3371,
      "ĠAp": 3372,
      "cis": 3373,
      "ĠEm": 3374,
      "09": 3375,
      "unicip": 3376,
      "Ġresponse": 3377,
      "Ġfinite": 3378,
      "Ġsymmet": 3379,
      "Ġreview": 3380,
      "hel": 3381,
      "Ġ/*": 3382,
      "Ġprovided": 3383,
      "}]": 3384,
      "Ġdocument": 3385,
      "sing": 3386,
      "67": 3387,
      "ilities": 3388,
      "ĠEuropean": 3389,
      "bed": 3390,
      "Ġbgcolor": 3391,
      "cos": 3392,
      "ney": 3393,
      "ements": 3394,
      "Ġbody": 3395,
      "hood": 3396,
      "Ġacross": 3397,
      "Ġdegree": 3398,
      "Ġflo": 3399,
      "ĠCanada": 3400,
      "Ġdefine": 3401,
      "Build": 3402,
      "Ġemploy": 3403,
      "uel": 3404,
      "ĠGeneral": 3405,
      "Ġattempt": 3406,
      "ĠSum": 3407,
      "igen": 3408,
      "ĠQue": 3409,
      "ĠCouncil": 3410,
      "Ġofficial": 3411,
      "lemma": 3412,
      "68": 3413,
      "andid": 3414,
      "textwidth": 3415,
      "reek": 3416,
      "ĠDivision": 3417,
      "berg": 3418,
      "ĠAmerica": 3419,
      "thern": 3420,
      "Ġdynam": 3421,
      "iding": 3422,
      "erb": 3423,
      "=\"../../": 3424,
      "rote": 3425,
      "prop": 3426,
      "iled": 3427,
      "ĠJames": 3428,
      "Ġactiv": 3429,
      "ĠThom": 3430,
      "[]": 3431,
      "ĠPal": 3432,
      "95": 3433,
      "ĠSm": 3434,
      "Ġtaken": 3435,
      "Ġwent": 3436,
      "uments": 3437,
      "UR": 3438,
      "ĠHol": 3439,
      "Ġpopular": 3440,
      "Ġmeans": 3441,
      "Service": 3442,
      "utes": 3443,
      "rated": 3444,
      "Ġpolitical": 3445,
      "Ġlo": 3446,
      "Ġappoint": 3447,
      "ĠCont": 3448,
      "Ġperformed": 3449,
      "gen": 3450,
      "Ġfri": 3451,
      "escription": 3452,
      "}_\\": 3453,
      "':": 3454,
      "ĠMor": 3455,
      "Ġexists": 3456,
      "Ġdefault": 3457,
      "MA": 3458,
      ")^{": 3459,
      "08": 3460,
      "istics": 3461,
      "Ġparticip": 3462,
      "ĠRober": 3463,
      "1994": 3464,
      "Ġunit": 3465,
      "ĠCour": 3466,
      "}^\\": 3467,
      "outhern": 3468,
      "bert": 3469,
      "Ġconstruction": 3470,
      "1992": 3471,
      "Ġcr": 3472,
      "AA": 3473,
      "ville": 3474,
      "lt": 3475,
      "cdots": 3476,
      "!--": 3477,
      "band": 3478,
      "ĠPaul": 3479,
      "ĠĠĠĠĠĠĠĠĠĠĠĠ": 3480,
      "icon": 3481,
      "ili": 3482,
      "void": 3483,
      "otes": 3484,
      "ires": 3485,
      "Ġreported": 3486,
      "ĠFl": 3487,
      "artment": 3488,
      "agement": 3489,
      "ean": 3490,
      "ĠÃ": 3491,
      "Ġdeveloped": 3492,
      "ked": 3493,
      "plate": 3494,
      "Ġ(!": 3495,
      "$)": 3496,
      "Ġsocial": 3497,
      "ago": 3498,
      "true": 3499,
      "Ġmarried": 3500,
      "Ġrelated": 3501,
      "ED": 3502,
      "ranch": 3503,
      "small": 3504,
      "year": 3505,
      "ka": 3506,
      "Ge": 3507,
      "stitute": 3508,
      "ky": 3509,
      "Ġsequence": 3510,
      "eturn": 3511,
      "izing": 3512,
      "cup": 3513,
      "Ġbegin": 3514,
      "Array": 3515,
      "1970": 3516,
      "ML": 3517,
      "ĠPresident": 3518,
      "Ġliter": 3519,
      "////////": 3520,
      "ĠRoyal": 3521,
      "itte": 3522,
      "Ġtre": 3523,
      "ĠStreet": 3524,
      "apache": 3525,
      "ĠGeorge": 3526,
      "ensor": 3527,
      "eal": 3528,
      "ategory": 3529,
      "ttp": 3530,
      "gebra": 3531,
      "Ġarchitect": 3532,
      "Ġdefe": 3533,
      "Ġdefinition": 3534,
      "atal": 3535,
      "object": 3536,
      "Ġwidth": 3537,
      "atives": 3538,
      "config": 3539,
      "Ġworked": 3540,
      "uster": 3541,
      "US": 3542,
      "ĠBra": 3543,
      "struct": 3544,
      "Ġinflu": 3545,
      "embly": 3546,
      "ĠDi": 3547,
      "aker": 3548,
      "ĠIm": 3549,
      "refer": 3550,
      "Ġsurface": 3551,
      "Ġzero": 3552,
      "++": 3553,
      "oe": 3554,
      "ĠĠĠĠĠĠĠĠĠĠĠĠĠĠĠĠĠĠĠĠĠĠĠĠĠĠĠ": 3555,
      "Ġmilitary": 3556,
      ",-": 3557,
      "ributed": 3558,
      "widehat": 3559,
      "Ġlook": 3560,
      "ply": 3561,
      "Ġadditional": 3562,
      "call": 3563,
      "ĠDef": 3564,
      "Ġdistance": 3565,
      "Ġbehav": 3566,
      "quare": 3567,
      "ĠAssociation": 3568,
      "Ġjoined": 3569,
      "Ġgrow": 3570,
      ")]": 3571,
      "Ðµ": 3572,
      "ĠDes": 3573,
      "Ġ\\{": 3574,
      "ags": 3575,
      "Ġdays": 3576,
      "ĠFrom": 3577,
      "Ġstep": 3578,
      "umni": 3579,
      "ayout": 3580,
      "Ġinstead": 3581,
      "Ġcompar": 3582,
      "block": 3583,
      "ĠSen": 3584,
      "ĠMod": 3585,
      "fin": 3586,
      "ĠMount": 3587,
      "Ġlarger": 3588,
      "Ġfig": 3589,
      "atrix": 3590,
      "Ġoperator": 3591,
      "SP": 3592,
      "ĠRich": 3593,
      "ns": 3594,
      "Ġtable": 3595,
      "Ġrat": 3596,
      "like": 3597,
      "}}(": 3598,
      "Ġmaterial": 3599,
      "ework": 3600,
      "ĠDem": 3601,
      "men": 3602,
      "body": 3603,
      "Ġservices": 3604,
      "Ġparent": 3605,
      "roy": 3606,
      "qquad": 3607,
      "Ġalready": 3608,
      "Ġfields": 3609,
      "anel": 3610,
      "ĠBer": 3611,
      "Ġrail": 3612,
      "UT": 3613,
      "Out": 3614,
      "Inst": 3615,
      "assert": 3616,
      "ĠStud": 3617,
      "Ġcentral": 3618,
      "ani": 3619,
      "ĠLou": 3620,
      "Ġ});": 3621,
      "ync": 3622,
      "Ġmaking": 3623,
      "Ġobserved": 3624,
      "ulations": 3625,
      "ĠHall": 3626,
      "Ġtry": 3627,
      "ĠTrans": 3628,
      "user": 3629,
      "icy": 3630,
      "Ġcollection": 3631,
      "Ġequival": 3632,
      "46": 3633,
      "Ġintroduced": 3634,
      "Size": 3635,
      "ving": 3636,
      "185": 3637,
      "Ġfixed": 3638,
      "ĠUnion": 3639,
      "ributions": 3640,
      "ocr": 3641,
      "1993": 3642,
      "ynt": 3643,
      "ĠAustralian": 3644,
      "rian": 3645,
      "IG": 3646,
      "ĠMore": 3647,
      "Comp": 3648,
      "ĠGermany": 3649,
      "Ġcolumn": 3650,
      "Ġwhose": 3651,
      "\"\"": 3652,
      "Ġcapt": 3653,
      "board": 3654,
      "Ġmultiple": 3655,
      "Ġinvestig": 3656,
      "Ġhuman": 3657,
      "Ġscale": 3658,
      "ifier": 3659,
      "FA": 3660,
      "hand": 3661,
      "oo": 3662,
      "mathsf": 3663,
      "Ġwant": 3664,
      "ĠClass": 3665,
      "****************": 3666,
      "ners": 3667,
      "Ġmid": 3668,
      "rup": 3669,
      "istry": 3670,
      "Reg": 3671,
      "Ġeval": 3672,
      "Ġclosed": 3673,
      "Ġstory": 3674,
      "})\\": 3675,
      "alax": 3676,
      "Ġcoupl": 3677,
      "ramework": 3678,
      "Ġwrote": 3679,
      "AB": 3680,
      "icol": 3681,
      "Psi": 3682,
      "ida": 3683,
      "}|": 3684,
      "ado": 3685,
      "ĠDavid": 3686,
      "Ġexperiment": 3687,
      "ills": 3688,
      "pdf": 3689,
      "Ġdecl": 3690,
      "rd": 3691,
      "Ġfactor": 3692,
      "riate": 3693,
      "Ġsimple": 3694,
      "spec": 3695,
      "ein": 3696,
      "';": 3697,
      "ched": 3698,
      "count": 3699,
      "Ġareas": 3700,
      "ĠDuring": 3701,
      "iform": 3702,
      "Ġable": 3703,
      "asket": 3704,
      "Ġprobability": 3705,
      "Tr": 3706,
      "icles": 3707,
      "Hand": 3708,
      "Ġstudents": 3709,
      "Ġpresident": 3710,
      "ĠFigure": 3711,
      "Ġhold": 3712,
      "Ġvalid": 3713,
      "Code": 3714,
      "ĠPat": 3715,
      "Ġlik": 3716,
      "Ġ-->": 3717,
      "ander": 3718,
      "Ġneigh": 3719,
      "Of": 3720,
      "Ġmag": 3721,
      "Ġbetter": 3722,
      "}^{(": 3723,
      "ptions": 3724,
      "writ": 3725,
      "ĠPe": 3726,
      "ĠGroup": 3727,
      "1991": 3728,
      "88": 3729,
      "Ġgradu": 3730,
      "Ġopened": 3731,
      "ET": 3732,
      "Ġspecific": 3733,
      "skip": 3734,
      "ĠBlack": 3735,
      "change": 3736,
      "07": 3737,
      "esh": 3738,
      "Ġteams": 3739,
      "Ġ===": 3740,
      "SC": 3741,
      "Ġconduct": 3742,
      "mit": 3743,
      "&=": 3744,
      "Ġpredict": 3745,
      "Ġput": 3746,
      "Ġleading": 3747,
      "ĠDr": 3748,
      "Ġsuccessful": 3749,
      "raction": 3750,
      "Ġarr": 3751,
      "42": 3752,
      "Ġoccur": 3753,
      "asons": 3754,
      "icient": 3755,
      "astic": 3756,
      "nel": 3757,
      "Val": 3758,
      "Ġcenter": 3759,
      "Ġindust": 3760,
      "wood": 3761,
      "la": 3762,
      "aps": 3763,
      "ĠNor": 3764,
      "Ġcompleted": 3765,
      "ini": 3766,
      "Ġwebs": 3767,
      "03": 3768,
      "anies": 3769,
      "Ġquest": 3770,
      "Ġroad": 3771,
      ".~": 3772,
      "Ġ$(\\": 3773,
      "define": 3774,
      "oz": 3775,
      "mid": 3776,
      "https": 3777,
      "Ġlost": 3778,
      "alls": 3779,
      "ged": 3780,
      "Ġrecogn": 3781,
      "ĠMart": 3782,
      "star": 3783,
      "Inter": 3784,
      "Ġprofessional": 3785,
      "Group": 3786,
      "ipp": 3787,
      "Ġeconom": 3788,
      "ĠNe": 3789,
      "Ġsets": 3790,
      "Ġonce": 3791,
      "word": 3792,
      "ashington": 3793,
      "End": 3794,
      "Ġsay": 3795,
      "Te": 3796,
      "gs": 3797,
      "=\"+": 3798,
      "ĠĠĠĠĠĠĠĠĠĠ": 3799,
      "plicit": 3800,
      "Ġchurch": 3801,
      "uffer": 3802,
      "racy": 3803,
      "note": 3804,
      "rab": 3805,
      "ĠChina": 3806,
      "ĠBut": 3807,
      "Ġnatural": 3808,
      "ĠProv": 3809,
      "Ġmar": 3810,
      "Ġrelease": 3811,
      "model": 3812,
      "level": 3813,
      "rate": 3814,
      "Ð¸": 3815,
      "Ġsongs": 3816,
      "Ġrac": 3817,
      "ensive": 3818,
      "Ġdirector": 3819,
      "Ġdirected": 3820,
      "alle": 3821,
      "ĠAcadem": 3822,
      "xspace": 3823,
      "appro": 3824,
      "06": 3825,
      "Ġadded": 3826,
      "run": 3827,
      "Ġaccording": 3828,
      "Ġworking": 3829,
      "ensus": 3830,
      "Ġnovel": 3831,
      "^+": 3832,
      "Ġ__": 3833,
      "Ġlearning": 3834,
      "ĠMark": 3835,
      "atory": 3836,
      "ishing": 3837,
      "{{\\": 3838,
      "}\\,": 3839,
      "ĠLemma": 3840,
      "Ġnever": 3841,
      "Ġtransfer": 3842,
      "Ġstage": 3843,
      "}\\\\": 3844,
      "Ġedge": 3845,
      "Ġhon": 3846,
      "Item": 3847,
      "utive": 3848,
      "Ġothers": 3849,
      "Ġborder": 3850,
      "aign": 3851,
      "Ġyour": 3852,
      "ughter": 3853,
      "Ġradio": 3854,
      "Ġformed": 3855,
      "create": 3856,
      "Ġnil": 3857,
      "85": 3858,
      "NA": 3859,
      "Ġcontinued": 3860,
      "Ġpress": 3861,
      "ĠInt": 3862,
      "ites": 3863,
      "Ġgive": 3864,
      "Ġparty": 3865,
      "Ġrecorded": 3866,
      "Ġquantum": 3867,
      "rade": 3868,
      "check": 3869,
      "ES": 3870,
      "title": 3871,
      "1960": 3872,
      "Ġes": 3873,
      "ĠMary": 3874,
      "ooth": 3875,
      "liament": 3876,
      "Ġpur": 3877,
      "prot": 3878,
      "ĠMex": 3879,
      "antic": 3880,
      "oud": 3881,
      "ĠGames": 3882,
      "MS": 3883,
      "Ġhard": 3884,
      "ĠCenter": 3885,
      "itting": 3886,
      "ĠMy": 3887,
      "Ġincludes": 3888,
      "ittee": 3889,
      "500": 3890,
      "oke": 3891,
      "Ġentire": 3892,
      "ĠRoad": 3893,
      "ĠHen": 3894,
      "CH": 3895,
      "oken": 3896,
      "){": 3897,
      "Ġrev": 3898,
      "bo": 3899,
      "Ġcomplete": 3900,
      "light": 3901,
      "ĠCompany": 3902,
      "Ġbrother": 3903,
      "ĠMusic": 3904,
      "IP": 3905,
      "aur": 3906,
      "inese": 3907,
      "Ġcontract": 3908,
      "02": 3909,
      "izes": 3910,
      "Ġthough": 3911,
      "come": 3912,
      "Ġoffer": 3913,
      "Up": 3914,
      "Ġcandid": 3915,
      "Ġtradition": 3916,
      "Ġspin": 3917,
      "uz": 3918,
      "inally": 3919,
      "ĠClub": 3920,
      "fill": 3921,
      "quot": 3922,
      "43": 3923,
      "Ġtransform": 3924,
      "imate": 3925,
      "Ġpresented": 3926,
      "Ġmoment": 3927,
      "yt": 3928,
      "ĠInter": 3929,
      "Ġrather": 3930,
      "ĠLaw": 3931,
      "Ġalthough": 3932,
      "ios": 3933,
      "Ġmeet": 3934,
      "Ġten": 3935,
      "Table": 3936,
      "eline": 3937,
      "scale": 3938,
      "OS": 3939,
      "overnor": 3940,
      "Ġsigned": 3941,
      "Ġexact": 3942,
      "Ġcut": 3943,
      "xy": 3944,
      "1989": 3945,
      "Ġdatas": 3946,
      "Ġ&\\": 3947,
      "rame": 3948,
      "ĠSociety": 3949,
      "1988": 3950,
      "Ġmechan": 3951,
      "used": 3952,
      "Ġboundary": 3953,
      "Ġeducation": 3954,
      "IR": 3955,
      "And": 3956,
      "arily": 3957,
      "Ġalbums": 3958,
      "ĠDon": 3959,
      "ston": 3960,
      "41": 3961,
      ")-": 3962,
      "Ġassume": 3963,
      ",\"": 3964,
      "ala": 3965,
      "ĠBay": 3966,
      "ĠRef": 3967,
      "}:": 3968,
      "69": 3969,
      "Ġalways": 3970,
      "Ġprior": 3971,
      "Ġprinc": 3972,
      "Ġsoft": 3973,
      "pite": 3974,
      "atively": 3975,
      "Ġweek": 3976,
      "ĠCourt": 3977,
      "more": 3978,
      "Count": 3979,
      "ĠKingdom": 3980,
      "Ġnecess": 3981,
      "Ġsubject": 3982,
      "eck": 3983,
      "asketball": 3984,
      "place": 3985,
      "den": 3986,
      "unk": 3987,
      "verse": 3988,
      "Ġviol": 3989,
      "ĠTown": 3990,
      "actions": 3991,
      "Query": 3992,
      "Ġsample": 3993,
      "umbers": 3994,
      "Ġqual": 3995,
      "ĠMet": 3996,
      "Message": 3997,
      "atform": 3998,
      "ĠTra": 3999,
      "CD": 4000,
      "Ġaway": 4001,
      "ario": 4002,
      "ĠGreen": 4003,
      "ĠVir": 4004,
      "Ġtemperature": 4005,
      "Sub": 4006,
      "Ġactive": 4007,
      "ĠCanadian": 4008,
      "flo": 4009,
      "edge": 4010,
      "Ġremov": 4011,
      "77": 4012,
      "Exp": 4013,
      "Pr": 4014,
      "Ġcertain": 4015,
      "Ġfar": 4016,
      "Ã¤": 4017,
      "ponse": 4018,
      "elling": 4019,
      "Ġhor": 4020,
      "Ġ};": 4021,
      "using": 4022,
      "EE": 4023,
      "ĠHistor": 4024,
      "include": 4025,
      "Ġweight": 4026,
      "print": 4027,
      "Ġvers": 4028,
      "Ġfootballers": 4029,
      "Eng": 4030,
      "='": 4031,
      "ores": 4032,
      "ria": 4033,
      "olit": 4034,
      "ilton": 4035,
      "Model": 4036,
      "Ġholds": 4037,
      "ĠArch": 4038,
      "Ġcoach": 4039,
      "lient": 4040,
      "There": 4041,
      "Ġwhether": 4042,
      "info": 4043,
      "ĠWashington": 4044,
      "ĠGet": 4045,
      "citet": 4046,
      "base": 4047,
      "ĠIsland": 4048,
      "=#": 4049,
      "####": 4050,
      "ĠThus": 4051,
      "md": 4052,
      "]$": 4053,
      "Ġoptions": 4054,
      "Film": 4055,
      "Ġfuture": 4056,
      "dimens": 4057,
      "bt": 4058,
      "encies": 4059,
      "Ġcontain": 4060,
      "Ġwebsite": 4061,
      "Ġmer": 4062,
      "Comm": 4063,
      "equiv": 4064,
      "indent": 4065,
      "Ġchanges": 4066,
      "bound": 4067,
      "rey": 4068,
      "Ġfounded": 4069,
      "ĠInstitute": 4070,
      "display": 4071,
      "onic": 4072,
      "Ġaccept": 4073,
      "pty": 4074,
      "su": 4075,
      "Ġcomponent": 4076,
      "ĠSing": 4077,
      "Ġsuff": 4078,
      "Ġelected": 4079,
      "Ġgives": 4080,
      "dist": 4081,
      "Ġkm": 4082,
      "Ġgoal": 4083,
      "Sup": 4084,
      "Ġequal": 4085,
      "Ent": 4086,
      "www": 4087,
      "icult": 4088,
      "Ġtherefore": 4089,
      "estival": 4090,
      "ĠMiss": 4091,
      "Ġwrite": 4092,
      "Ġrace": 4093,
      "ĠSo": 4094,
      "Ġtreat": 4095,
      "Ġappeared": 4096,
      "roller": 4097,
      "Ġwife": 4098,
      "ĠCath": 4099,
      "04": 4100,
      "Ġaddress": 4101,
      "can": 4102,
      "start": 4103,
      "irtual": 4104,
      "itude": 4105,
      "ĠDepartment": 4106,
      "cho": 4107,
      "98": 4108,
      "Ġdirection": 4109,
      "method": 4110,
      "Ġvict": 4111,
      "ĠMont": 4112,
      "ĠSam": 4113,
      "Ġalmost": 4114,
      "Ġparts": 4115,
      "Ġselected": 4116,
      "}}{\\": 4117,
      "shire": 4118,
      "ĠJack": 4119,
      "onal": 4120,
      "ĠAfrican": 4121,
      "Ġappointed": 4122,
      "Ġbeliev": 4123,
      "Ġeffects": 4124,
      "Ġlive": 4125,
      "}+\\": 4126,
      "ĠVol": 4127,
      "Ġdiag": 4128,
      "Ġbox": 4129,
      "Ġtypes": 4130,
      "Ġfront": 4131,
      "ros": 4132,
      "hspace": 4133,
      "Ġren": 4134,
      "Ap": 4135,
      "oul": 4136,
      "ĠGo": 4137,
      "Bar": 4138,
      "Ġupper": 4139,
      "Ġstars": 4140,
      "gt": 4141,
      "cel": 4142,
      "ĠJapanese": 4143,
      "Ġcast": 4144,
      "yper": 4145,
      "ĠPress": 4146,
      "eloc": 4147,
      "ĠTest": 4148,
      "Ġlargest": 4149,
      "Ġalumni": 4150,
      "Ġben": 4151,
      "Log": 4152,
      "neq": 4153,
      "OT": 4154,
      "Ġjava": 4155,
      "Ġdenote": 4156,
      "ĠRecords": 4157,
      "Ġrow": 4158,
      "ids": 4159,
      "cial": 4160,
      "Ed": 4161,
      "Ġfollowed": 4162,
      "hi": 4163,
      "long": 4164,
      "Ġleague": 4165,
      "ona": 4166,
      "ened": 4167,
      "ĠTur": 4168,
      "uan": 4169,
      "default": 4170,
      "ĠTV": 4171,
      "97": 4172,
      "flow": 4173,
      "Ġtask": 4174,
      "Ġchannel": 4175,
      ".)": 4176,
      "oms": 4177,
      "ULL": 4178,
      "Ġglobal": 4179,
      "Ġbar": 4180,
      "ĠCentral": 4181,
      "Ġsubsequ": 4182,
      "1987": 4183,
      "Ġdisplay": 4184,
      "rast": 4185,
      "omial": 4186,
      "ĠMuseum": 4187,
      "ĠSl": 4188,
      "Ġclear": 4189,
      "Ġdouble": 4190,
      "split": 4191,
      "Ġdepart": 4192,
      "Call": 4193,
      "Ġlocation": 4194,
      "Ġstudies": 4195,
      "Ġcannot": 4196,
      "arameter": 4197,
      "Ġeast": 4198,
      "ĠAcademy": 4199,
      "case": 4200,
      "0000": 4201,
      "net": 4202,
      "Ġbasis": 4203,
      "TD": 4204,
      "tra": 4205,
      "acity": 4206,
      "ĠBest": 4207,
      "rish": 4208,
      "theorem": 4209,
      "do": 4210,
      "ĠRail": 4211,
      "ols": 4212,
      "valid": 4213,
      "ging": 4214,
      "abled": 4215,
      "ĠMad": 4216,
      "UN": 4217,
      "ki": 4218,
      "ena": 4219,
      "oding": 4220,
      "Ġcompared": 4221,
      "Ġgalax": 4222,
      "Ġnom": 4223,
      "Since": 4224,
      "ĠAngel": 4225,
      "ĠGrand": 4226,
      "Ġmaximum": 4227,
      "ĠAlex": 4228,
      "Ġacqu": 4229,
      "efore": 4230,
      "Ġsearch": 4231,
      "Ġmedia": 4232,
      "Ġdesigned": 4233,
      "'$": 4234,
      "ada": 4235,
      "Ġadminist": 4236,
      "Ġprop": 4237,
      "Ġgenerated": 4238,
      "Ġmessage": 4239,
      "unt": 4240,
      "Ġcle": 4241,
      "Ġequations": 4242,
      "ĠItalian": 4243,
      "rs": 4244,
      "Ġrepresentation": 4245,
      "Ġforce": 4246,
      "Ġoffice": 4247,
      "Ġmother": 4248,
      "scr": 4249,
      "ĠRobert": 4250,
      "Ġassist": 4251,
      "bour": 4252,
      "Ġconver": 4253,
      "Ġenvironment": 4254,
      "ĠCO": 4255,
      "ĠSummer": 4256,
      "ĠRussian": 4257,
      "Ġrot": 4258,
      "enumer": 4259,
      "Ġmodern": 4260,
      "Ġrespons": 4261,
      "Ġconstraint": 4262,
      "next": 4263,
      "Ġdone": 4264,
      "ua": 4265,
      "enced": 4266,
      "ING": 4267,
      "Ġreason": 4268,
      "Ser": 4269,
      "Ġunits": 4270,
      "Ġtoo": 4271,
      "}-\\": 4272,
      "((": 4273,
      "ĠThomas": 4274,
      "tes": 4275,
      "ises": 4276,
      "1986": 4277,
      "current": 4278,
      "ederal": 4279,
      "Ġinc": 4280,
      "Ġwest": 4281,
      "argin": 4282,
      "Ġmetric": 4283,
      "version": 4284,
      "Ġuses": 4285,
      "ĠDo": 4286,
      "web": 4287,
      "actory": 4288,
      "ĠTex": 4289,
      "Manager": 4290,
      "ĠSal": 4291,
      "edy": 4292,
      "Ġwhite": 4293,
      "nce": 4294,
      "Ġbirth": 4295,
      "tact": 4296,
      "Ġsupported": 4297,
      "ĠLeg": 4298,
      "Ġimages": 4299,
      "west": 4300,
      "acing": 4301,
      "Ġce": 4302,
      "km": 4303,
      "sel": 4304,
      "ĠOlympics": 4305,
      "aging": 4306,
      "cret": 4307,
      "ĠSet": 4308,
      "1984": 4309,
      "ĠCap": 4310,
      "Ġearli": 4311,
      "ĠCong": 4312,
      "thlet": 4313,
      "ĠZeal": 4314,
      "Color": 4315,
      "king": 4316,
      "ĠGreat": 4317,
      "|^": 4318,
      "Ġunc": 4319,
      "tem": 4320,
      "has": 4321,
      "ĠMac": 4322,
      "angle": 4323,
      "58": 4324,
      "osen": 4325,
      "ictor": 4326,
      "Ġusually": 4327,
      "ĠRad": 4328,
      "Ġeight": 4329,
      "ĠCons": 4330,
      "ĠMat": 4331,
      "ĠWestern": 4332,
      "contain": 4333,
      "vis": 4334,
      "Ġtaking": 4335,
      "--------------------------------": 4336,
      "plications": 4337,
      "ĠZealand": 4338,
      "Ġstatus": 4339,
      "arter": 4340,
      "Ġadj": 4341,
      "ĠWhile": 4342,
      "ledge": 4343,
      ")}{": 4344,
      "Ð½": 4345,
      "Ġdirectly": 4346,
      "ĠFootball": 4347,
      "Ġfire": 4348,
      "ocks": 4349,
      "cing": 4350,
      "Ġstudied": 4351,
      "pret": 4352,
      "ocation": 4353,
      "range": 4354,
      "ĠLand": 4355,
      "content": 4356,
      "Ġsound": 4357,
      "Ġprovides": 4358,
      "Ġmight": 4359,
      "Ġeffective": 4360,
      "reate": 4361,
      "ĠAfrica": 4362,
      "Ġhous": 4363,
      "1985": 4364,
      "Ġrock": 4365,
      "ĠScott": 4366,
      "Ġregard": 4367,
      "Ġcompanies": 4368,
      "Ġpers": 4369,
      "opl": 4370,
      "(-": 4371,
      "57": 4372,
      "Ġhimself": 4373,
      "iting": 4374,
      "ÑĤ": 4375,
      "Ġ-\\": 4376,
      "Ġamount": 4377,
      "ĠEar": 4378,
      "member": 4379,
      "Ġconstit": 4380,
      "Ġstre": 4381,
      "Ġdraw": 4382,
      "Ġschools": 4383,
      "{}": 4384,
      "erve": 4385,
      "Ġsmaller": 4386,
      "overs": 4387,
      "Ġoperation": 4388,
      "96": 4389,
      "Ġreplaced": 4390,
      "hest": 4391,
      "Ġmarket": 4392,
      "OD": 4393,
      "Ġpage": 4394,
      "]\\": 4395,
      "Ġoptim": 4396,
      "ĠCharles": 4397,
      "=\"#": 4398,
      "Ġmove": 4399,
      "book": 4400,
      ";&": 4401,
      "orage": 4402,
      "itemize": 4403,
      "ĠWil": 4404,
      "iments": 4405,
      "ĠFilm": 4406,
      "pc": 4407,
      "Spec": 4408,
      "Ġhealth": 4409,
      "urity": 4410,
      "Ġpay": 4411,
      "Ġguitar": 4412,
      "func": 4413,
      "Ġter": 4414,
      "Ġimplies": 4415,
      "onstr": 4416,
      "ams": 4417,
      "ĠSub": 4418,
      "olf": 4419,
      "ba": 4420,
      "Ġaud": 4421,
      "ican": 4422,
      "Ġexhib": 4423,
      "Ġstri": 4424,
      "png": 4425,
      "olar": 4426,
      "CE": 4427,
      "abs": 4428,
      "Ġdiscover": 4429,
      "ingu": 4430,
      "ĉĉĉĉĉĉ": 4431,
      "Ġapplied": 4432,
      "Ġveloc": 4433,
      "Ġgas": 4434,
      "height": 4435,
      "Ġallowed": 4436,
      "Ġcoordin": 4437,
      "Ġdon": 4438,
      "reland": 4439,
      "({\\": 4440,
      "Wh": 4441,
      "ĠUK": 4442,
      "Ġplaying": 4443,
      "Ġforces": 4444,
      "ircraft": 4445,
      "icture": 4446,
      "Property": 4447,
      "FC": 4448,
      "ĠLouis": 4449,
      "inct": 4450,
      "ĠYear": 4451,
      "static": 4452,
      "Ġrelationship": 4453,
      "ously": 4454,
      "Ġobjects": 4455,
      "child": 4456,
      "Ġsignal": 4457,
      "Response": 4458,
      "Ġproblems": 4459,
      "Ġsports": 4460,
      "Ġenough": 4461,
      "nes": 4462,
      "Ġthroughout": 4463,
      "Ġincrease": 4464,
      "Method": 4465,
      "Ġ(\"": 4466,
      "event": 4467,
      "ĠVirgin": 4468,
      "amily": 4469,
      "ĠMag": 4470,
      "Ġinj": 4471,
      "Ġprint": 4472,
      "Ġstructures": 4473,
      "Ġtro": 4474,
      "63": 4475,
      "Ġbool": 4476,
      "Ġpast": 4477,
      "google": 4478,
      "ansion": 4479,
      "build": 4480,
      "Ġdaughter": 4481,
      "usical": 4482,
      "ĠChinese": 4483,
      "ospital": 4484,
      "apping": 4485,
      "ĠWhite": 4486,
      "rael": 4487,
      "ilies": 4488,
      "dag": 4489,
      "Ġwindow": 4490,
      "enumerate": 4491,
      "active": 4492,
      "PI": 4493,
      "Ġoperations": 4494,
      "Ġitself": 4495,
      "gent": 4496,
      "No": 4497,
      "izer": 4498,
      "Ġcoeff": 4499,
      "dimensional": 4500,
      "Ġrepresented": 4501,
      "ĠGold": 4502,
      "Ġcurrently": 4503,
      "iation": 4504,
      "Ġtransition": 4505,
      ">&": 4506,
      "Ġnote": 4507,
      "Ġinvolved": 4508,
      "Ġliving": 4509,
      "azine": 4510,
      "Ġdate": 4511,
      "Ġcomponents": 4512,
      "ĠNot": 4513,
      "1983": 4514,
      "sy": 4515,
      "icense": 4516,
      "vspace": 4517,
      "Ġyield": 4518,
      "Ġmedal": 4519,
      "Ġdram": 4520,
      "Ġ\\|": 4521,
      "TH": 4522,
      "ully": 4523,
      "acher": 4524,
      "ĠMinister": 4525,
      "ĠKore": 4526,
      "ira": 4527,
      "Ġrestrict": 4528,
      "ita": 4529,
      "irm": 4530,
      "Ġmonths": 4531,
      "element": 4532,
      "duction": 4533,
      "Ġdifficult": 4534,
      "Ġstations": 4535,
      "Ġtourn": 4536,
      "Char": 4537,
      "Ġupon": 4538,
      "Ġsources": 4539,
      "well": 4540,
      "izations": 4541,
      "AM": 4542,
      "Ġepisode": 4543,
      "core": 4544,
      "Ġcampaign": 4545,
      "Ġnumbers": 4546,
      "rief": 4547,
      "Ġbecomes": 4548,
      "Ġprove": 4549,
      "final": 4550,
      "arp": 4551,
      "Ġpeak": 4552,
      "dev": 4553,
      "87": 4554,
      "rule": 4555,
      "ĠChristian": 4556,
      "Client": 4557,
      "Ġprimary": 4558,
      "Ġload": 4559,
      "false": 4560,
      "ĠMer": 4561,
      "context": 4562,
      "1950": 4563,
      "Ġalgebra": 4564,
      "ication": 4565,
      "dec": 4566,
      "Ġsil": 4567,
      "init": 4568,
      "ĠCarol": 4569,
      "Ġstop": 4570,
      "Ġbuildings": 4571,
      "arian": 4572,
      "Ġsetting": 4573,
      "ĠTexas": 4574,
      "Ġsrc": 4575,
      "Ġtree": 4576,
      "Ġrelation": 4577,
      "ĠPet": 4578,
      "atre": 4579,
      "ĠMichael": 4580,
      "arned": 4581,
      "lector": 4582,
      "ĠJew": 4583,
      "Ġboard": 4584,
      "Ġmunicip": 4585,
      "road": 4586,
      "Ġpreviously": 4587,
      "NS": 4588,
      "Ġheight": 4589,
      "isl": 4590,
      "Ġdomain": 4591,
      "ÑĢ": 4592,
      "Ġstated": 4593,
      "Ġgave": 4594,
      "ĠTom": 4595,
      "Ġadapt": 4596,
      "operat": 4597,
      ")}$": 4598,
      "~$": 4599,
      "aching": 4600,
      "Ġflu": 4601,
      "IL": 4602,
      "clusion": 4603,
      "main": 4604,
      "\\,\\": 4605,
      "](": 4606,
      "host": 4607,
      "Ġrights": 4608,
      "abase": 4609,
      "erman": 4610,
      "ollowing": 4611,
      "Ġspeed": 4612,
      "ping": 4613,
      "Ġfinished": 4614,
      "Vert": 4615,
      "jo": 4616,
      "ĠLat": 4617,
      "Ġreference": 4618,
      "Ġcharacters": 4619,
      "Ġunique": 4620,
      "astern": 4621,
      "mathscr": 4622,
      "Ġincreasing": 4623,
      "ĠSur": 4624,
      "java": 4625,
      "Ġvariables": 4626,
      "page": 4627,
      "operatorn": 4628,
      "Ġsens": 4629,
      "Ġmode": 4630,
      "Ġscen": 4631,
      "Ġdemonstr": 4632,
      "package": 4633,
      "win": 4634,
      "omorphism": 4635,
      "One": 4636,
      "Ġlisted": 4637,
      "option": 4638,
      "Ġphysical": 4639,
      "1982": 4640,
      "Ġpattern": 4641,
      "Ġplaces": 4642,
      "oring": 4643,
      "Ġanim": 4644,
      "aring": 4645,
      "zil": 4646,
      "het": 4647,
      "Ġtakes": 4648,
      "ĠUp": 4649,
      "operatorname": 4650,
      "idae": 4651,
      "people": 4652,
      "language": 4653,
      "isk": 4654,
      "62": 4655,
      "Ġiter": 4656,
      "Ġtheorem": 4657,
      "=\"../../../../": 4658,
      "command": 4659,
      "$}": 4660,
      "noindent": 4661,
      "ding": 4662,
      "ares": 4663,
      "ĠCatholic": 4664,
      "Ġsolutions": 4665,
      "&&": 4666,
      "}/": 4667,
      "za": 4668,
      "First": 4669,
      "Ġfav": 4670,
      "uns": 4671,
      "options": 4672,
      "oviet": 4673,
      "ĠTable": 4674,
      "ducation": 4675,
      "Ġmagnetic": 4676,
      "uit": 4677,
      "Ġrelative": 4678,
      "Read": 4679,
      "EC": 4680,
      "Ġfight": 4681,
      "1979": 4682,
      "Ġfemale": 4683,
      "ĠBook": 4684,
      "Ġoutside": 4685,
      "ributes": 4686,
      "Ġjournal": 4687,
      ">(": 4688,
      "ying": 4689,
      "Ġinternal": 4690,
      "Override": 4691,
      "di": 4692,
      "Ġreve": 4693,
      "Ġmention": 4694,
      "}}_": 4695,
      "\\}$": 4696,
      "ĠSpec": 4697,
      "Ġseg": 4698,
      "ĠDan": 4699,
      "rupt": 4700,
      "ĠSome": 4701,
      "aval": 4702,
      "ĠSecond": 4703,
      "Le": 4704,
      "Ġnames": 4705,
      "ĠParis": 4706,
      "Ġrunning": 4707,
      "Ġmissing": 4708,
      "Ġoriginally": 4709,
      "Ġallows": 4710,
      "Ġtrac": 4711,
      "Ġdifference": 4712,
      "Ġtransl": 4713,
      "ĠBo": 4714,
      "Ġjud": 4715,
      "ips": 4716,
      "IM": 4717,
      "ĠTherefore": 4718,
      "Ġwords": 4719,
      "Ġaltern": 4720,
      "ella": 4721,
      "Ġtransport": 4722,
      "ĠJose": 4723,
      "ny": 4724,
      "BA": 4725,
      "that": 4726,
      "PS": 4727,
      "Ġthrow": 4728,
      "61": 4729,
      "isions": 4730,
      "ockey": 4731,
      "idents": 4732,
      "ether": 4733,
      "ĠNote": 4734,
      "Ġnuc": 4735,
      "ube": 4736,
      "arts": 4737,
      "isation": 4738,
      "Ġevolution": 4739,
      "][": 4740,
      "Ġkilled": 4741,
      "Ġdam": 4742,
      "ĠTor": 4743,
      "Ġpolitician": 4744,
      "Ġmount": 4745,
      "Pi": 4746,
      "Ġconnected": 4747,
      "ĠOther": 4748,
      "allel": 4749,
      "NN": 4750,
      "Che": 4751,
      "Ġeventually": 4752,
      "Ġseven": 4753,
      "ĠDay": 4754,
      "aud": 4755,
      "pecially": 4756,
      "evelop": 4757,
      "background": 4758,
      "Ġtit": 4759,
      "char": 4760,
      "Ġartists": 4761,
      "Ġelectron": 4762,
      "ln": 4763,
      "sm": 4764,
      "Ġtowards": 4765,
      "ĠSpanish": 4766,
      "ras": 4767,
      "ĠFrancis": 4768,
      "Stream": 4769,
      "ENT": 4770,
      "Ġestimate": 4771,
      "Ġtour": 4772,
      "airs": 4773,
      "Ġchanged": 4774,
      "Ġagre": 4775,
      "Ġpolicy": 4776,
      "ĠMel": 4777,
      "Ġord": 4778,
      "ename": 4779,
      "oma": 4780,
      "FL": 4781,
      "ĠSuper": 4782,
      "linear": 4783,
      "iences": 4784,
      "db": 4785,
      "Ġdeal": 4786,
      "auge": 4787,
      "ĠBill": 4788,
      "1981": 4789,
      "ano": 4790,
      "css": 4791,
      "server": 4792,
      "ĠSmith": 4793,
      "Ġinstall": 4794,
      "================": 4795,
      "ishop": 4796,
      "gence": 4797,
      "doc": 4798,
      "Ġdetails": 4799,
      "Ġmix": 4800,
      "Ġregions": 4801,
      "Ġillust": 4802,
      "Ġax": 4803,
      "AG": 4804,
      "Ġdecre": 4805,
      "unity": 4806,
      "multicol": 4807,
      "rial": 4808,
      "undle": 4809,
      "Ġbooks": 4810,
      "ĠAccording": 4811,
      "ĠBen": 4812,
      "Med": 4813,
      "])": 4814,
      "Ġstd": 4815,
      "fess": 4816,
      "otype": 4817,
      "Ġaccom": 4818,
      "ias": 4819,
      "namespace": 4820,
      "ĠFore": 4821,
      "ĠService": 4822,
      "elt": 4823,
      "oto": 4824,
      "ifying": 4825,
      "Head": 4826,
      "Ġwriter": 4827,
      "Ġrelig": 4828,
      "ĠDemocr": 4829,
      "Ġste": 4830,
      "standing": 4831,
      "Ġclassical": 4832,
      "Ġchall": 4833,
      "stream": 4834,
      "multicolumn": 4835,
      "ĠSer": 4836,
      "ĠDirect": 4837,
      "TV": 4838,
      "apter": 4839,
      "Ġremains": 4840,
      "ĠPeter": 4841,
      "Ġcustom": 4842,
      "empty": 4843,
      "User": 4844,
      "Ġcorrect": 4845,
      "ayers": 4846,
      "Ġreached": 4847,
      "ĠPo": 4848,
      "Ġresulting": 4849,
      "utch": 4850,
      "Ġlatter": 4851,
      "Ġexpand": 4852,
      ")+": 4853,
      "Act": 4854,
      "Ã¨": 4855,
      "Ġcritical": 4856,
      "Ġapplication": 4857,
      "Ġneut": 4858,
      "Ġver": 4859,
      "Note": 4860,
      "ĠGra": 4861,
      "Be": 4862,
      "usion": 4863,
      "Ġvoc": 4864,
      "ĠFrank": 4865,
      "variant": 4866,
      "Builder": 4867,
      "1972": 4868,
      "}}}": 4869,
      "Ġexcept": 4870,
      "Ġbelong": 4871,
      "Ġweak": 4872,
      "1976": 4873,
      "Back": 4874,
      "ao": 4875,
      "ĠMass": 4876,
      "ĠRichard": 4877,
      "ĠDel": 4878,
      "Äģ": 4879,
      "Oper": 4880,
      "Ġimmedi": 4881,
      "rig": 4882,
      "Ġword": 4883,
      "ynomial": 4884,
      "ĠLake": 4885,
      "Ġkeep": 4886,
      "icago": 4887,
      "SU": 4888,
      "approx": 4889,
      "Ġmach": 4890,
      "ĠVictor": 4891,
      "ĠFlor": 4892,
      "Line": 4893,
      "Early": 4894,
      "pass": 4895,
      "tx": 4896,
      "Ġgrad": 4897,
      "Ġoccup": 4898,
      "Ġruns": 4899,
      "Off": 4900,
      "bul": 4901,
      "Ġpain": 4902,
      "ĠIreland": 4903,
      "ĠScience": 4904,
      "Ġunivers": 4905,
      "ocol": 4906,
      "Ġdrop": 4907,
      "1978": 4908,
      "ĠWork": 4909,
      "Ġstream": 4910,
      "Ġequivalent": 4911,
      "Co": 4912,
      "Ġrob": 4913,
      "ĠOut": 4914,
      "Ġremained": 4915,
      "Can": 4916,
      "ĠĠĠĠĠĠĠĠĠĠĠĠĠĠĠĠĠ": 4917,
      "Ġbehavior": 4918,
      "Ġratio": 4919,
      "Ġmakes": 4920,
      "Ġconclud": 4921,
      "local": 4922,
      "ĠFound": 4923,
      "olk": 4924,
      "Ġcivil": 4925,
      "Ġgeomet": 4926,
      "PC": 4927,
      "Ġvariable": 4928,
      "App": 4929,
      "stant": 4930,
      "ĠSant": 4931,
      "ĠOff": 4932,
      "Ġfrequency": 4933,
      "Ġestablishments": 4934,
      "Ġinstit": 4935,
      "Ġclasses": 4936,
      "first": 4937,
      "ĠLos": 4938,
      "59": 4939,
      "ĠPri": 4940,
      "ront": 4941,
      "Ġconcept": 4942,
      "duced": 4943,
      "Status": 4944,
      "Ġgenerally": 4945,
      "norm": 4946,
      "Ġplaced": 4947,
      "ĠForce": 4948,
      "orial": 4949,
      "Ġcountries": 4950,
      "Ġspectrum": 4951,
      "Ġsymbol": 4952,
      "Ġtravel": 4953,
      "ye": 4954,
      "1974": 4955,
      "idden": 4956,
      "ĠGeorg": 4957,
      "Ġawarded": 4958,
      "Ġexpression": 4959,
      "Ġscore": 4960,
      "Ġfourth": 4961,
      "Util": 4962,
      "ĠSwed": 4963,
      "Source": 4964,
      "({": 4965,
      "Token": 4966,
      "ĠHistory": 4967,
      "Ġeffort": 4968,
      "Ġfriend": 4969,
      "len": 4970,
      "reme": 4971,
      "bon": 4972,
      "Ġfall": 4973,
      "reater": 4974,
      "illa": 4975,
      "Base": 4976,
      "Per": 4977,
      "ĠOrder": 4978,
      "78": 4979,
      "yr": 4980,
      "Ġextended": 4981,
      "Ġrule": 4982,
      "Ġnodes": 4983,
      "ĠApp": 4984,
      "auss": 4985,
      "igan": 4986,
      ";\"": 4987,
      "Ġsen": 4988,
      "ĠWomen": 4989,
      "Ġconsists": 4990,
      "ades": 4991,
      "ĠHenry": 4992,
      "ĠRob": 4993,
      "Ġfeatured": 4994,
      "eria": 4995,
      "porary": 4996,
      "rice": 4997,
      "Ġdimension": 4998,
      "Ġess": 4999,
      "ĠPenn": 5000,
      "Ġautom": 5001,
      "Ġplant": 5002,
      "ithub": 5003,
      "Ġsus": 5004,
      "Dis": 5005,
      "Ġevalu": 5006,
      "Ġhapp": 5007,
      "ih": 5008,
      "ĠDu": 5009,
      "ĠHill": 5010,
      "ĠTer": 5011,
      "Ġeigen": 5012,
      "ĠPublic": 5013,
      "1977": 5014,
      "Ġmodule": 5015,
      "Ġgold": 5016,
      "Ġdetermined": 5017,
      "Ġespecially": 5018,
      "dr": 5019,
      "Ġdig": 5020,
      "textrm": 5021,
      "weight": 5022,
      ";</": 5023,
      "Ġorigin": 5024,
      "Ġwriting": 5025,
      "SO": 5026,
      "Mar": 5027,
      "minus": 5028,
      "1975": 5029,
      "ĠChampionships": 5030,
      "underline": 5031,
      "Sim": 5032,
      "Ġapproximately": 5033,
      "Input": 5034,
      "Ġaircraft": 5035,
      "module": 5036,
      "Ġvelocity": 5037,
      "51": 5038,
      "ells": 5039,
      "Notes": 5040,
      "Ġmaintain": 5041,
      "ugby": 5042,
      "ometimes": 5043,
      "Ñģ": 5044,
      "^-": 5045,
      "ĠSk": 5046,
      "Ġpolice": 5047,
      "nect": 5048,
      "Ġlimited": 5049,
      "Ġsom": 5050,
      "Ġded": 5051,
      "Ġcourt": 5052,
      "Par": 5053,
      "Ext": 5054,
      "ĠEmp": 5055,
      "otic": 5056,
      "bigg": 5057,
      "Ġjob": 5058,
      "pol": 5059,
      "54": 5060,
      "unch": 5061,
      "Ġcompetition": 5062,
      "Ġ<<": 5063,
      "Ġir": 5064,
      "null": 5065,
      "FT": 5066,
      "When": 5067,
      "war": 5068,
      "open": 5069,
      "ĠJust": 5070,
      "Ġoption": 5071,
      "ĠRock": 5072,
      "Ġprote": 5073,
      "1968": 5074,
      "Ġcourse": 5075,
      "ĠOffic": 5076,
      "56": 5077,
      "ATE": 5078,
      "Ġchoice": 5079,
      "ĠBur": 5080,
      "Ġhighest": 5081,
      "1973": 5082,
      "Ġadopt": 5083,
      "Ġbig": 5084,
      "}^{-": 5085,
      "Ġwid": 5086,
      "52": 5087,
      "column": 5088,
      "anning": 5089,
      "ĠCommission": 5090,
      "MC": 5091,
      "Ġformat": 5092,
      "isher": 5093,
      "Ġtrain": 5094,
      "Ġleaders": 5095,
      "Ġissue": 5096,
      "ĠCamp": 5097,
      "Ġtournament": 5098,
      "Ġ$\\{": 5099,
      "Ġadm": 5100,
      "texttt": 5101,
      "Ġdu": 5102,
      "ĠNULL": 5103,
      "dir": 5104,
      "ĠIsrael": 5105,
      "ectors": 5106,
      "oice": 5107,
      "Then": 5108,
      "Ġpaint": 5109,
      "Ġlittle": 5110,
      "BS": 5111,
      "Ġsinger": 5112,
      "Ġmatter": 5113,
      "Ġbroadcast": 5114,
      "Instance": 5115,
      "lease": 5116,
      "ĠVirginia": 5117,
      "pected": 5118,
      "aled": 5119,
      "Ã³n": 5120,
      "Ġbur": 5121,
      "Null": 5122,
      "urrent": 5123,
      "subseteq": 5124,
      "Ġartist": 5125,
      "ĠIts": 5126,
      "anned": 5127,
      "Ġcritic": 5128,
      "Ġball": 5129,
      "Ġstarting": 5130,
      "Ġoverall": 5131,
      "arameters": 5132,
      "irit": 5133,
      "Ġuniform": 5134,
      "89": 5135,
      "ouri": 5136,
      "ĠDen": 5137,
      "Part": 5138,
      "Ġneeded": 5139,
      "yles": 5140,
      "Ġforms": 5141,
      "Date": 5142,
      "image": 5143,
      "Pos": 5144,
      "ĠĠĠĠĠĠĠĠĠĠĠĠĠĠ": 5145,
      "Ġexpress": 5146,
      "mercial": 5147,
      "ĠĠĠĊ": 5148,
      "Ġappears": 5149,
      "crete": 5150,
      "Ð¾Ð": 5151,
      "fe": 5152,
      "SI": 5153,
      "ĠWeb": 5154,
      "Ġmatches": 5155,
      "istan": 5156,
      "Ġlonger": 5157,
      "53": 5158,
      "asks": 5159,
      "GL": 5160,
      "Ġcharge": 5161,
      "ici": 5162,
      "fficient": 5163,
      "query": 5164,
      "Ġdeep": 5165,
      "Ġissues": 5166,
      "gener": 5167,
      "ĠOper": 5168,
      "ĠIll": 5169,
      "Ġscored": 5170,
      "Ġbasketball": 5171,
      "Ġselection": 5172,
      "prod": 5173,
      "Ġlayer": 5174,
      "github": 5175,
      "ĠTechn": 5176,
      "rices": 5177,
      "ĠResearch": 5178,
      "request": 5179,
      "Ġremaining": 5180,
      "Ġquestion": 5181,
      "mes": 5182,
      "Image": 5183,
      "ĠÂ": 5184,
      "Ġfamilies": 5185,
      "Ġinit": 5186,
      "ĠItaly": 5187,
      "ĠEv": 5188,
      "greg": 5189,
      "Ġconnection": 5190,
      "Ġimpact": 5191,
      "Ġbehind": 5192,
      "Ġpractice": 5193,
      "gu": 5194,
      "Ġproced": 5195,
      "Run": 5196,
      "1971": 5197,
      "Äĩ": 5198,
      "ĠCast": 5199,
      "client": 5200,
      "inos": 5201,
      "Ġfit": 5202,
      "Ġscreen": 5203,
      "Ġ_{": 5204,
      "lib": 5205,
      "ĠHamilton": 5206,
      "ands": 5207,
      "Ġcharg": 5208,
      "Ġearlier": 5209,
      "}'": 5210,
      "ĠMexico": 5211,
      "OP": 5212,
      "Ġkind": 5213,
      "Ġemer": 5214,
      "perties": 5215,
      "Ġcome": 5216,
      "ĠThat": 5217,
      "ĠKh": 5218,
      "<\\": 5219,
      "Ġsaw": 5220,
      "Ġdescription": 5221,
      "post": 5222,
      "Fl": 5223,
      "ĠSaint": 5224,
      "ewidth": 5225,
      "ca": 5226,
      "Ġdestroy": 5227,
      "Ġbeginning": 5228,
      "ĠStar": 5229,
      "Ġdecision": 5230,
      "Pre": 5231,
      "strong": 5232,
      "ĠGod": 5233,
      "append": 5234,
      "Ġsaf": 5235,
      "ydro": 5236,
      "Ġveh": 5237,
      "target": 5238,
      "Ġavoid": 5239,
      "ĠArts": 5240,
      "ĠAtl": 5241,
      "Ġimm": 5242,
      "ato": 5243,
      "Ġreduced": 5244,
      "cles": 5245,
      "Ġcollege": 5246,
      "azz": 5247,
      "Ġnight": 5248,
      "Ġitem": 5249,
      "Ġstaff": 5250,
      "Options": 5251,
      "Ġderived": 5252,
      "FI": 5253,
      "1969": 5254,
      "ĠTwo": 5255,
      "1945": 5256,
      "det": 5257,
      "Ġtim": 5258,
      "ĠOpen": 5259,
      "ĠChicago": 5260,
      "black": 5261,
      "English": 5262,
      "Ġreading": 5263,
      "Ġlikely": 5264,
      "Ġactress": 5265,
      "Ġpolynomial": 5266,
      "Ġcred": 5267,
      "Ġvolume": 5268,
      "Ġnegative": 5269,
      "bottom": 5270,
      "ĠMo": 5271,
      "Ġsufficient": 5272,
      "ĠRem": 5273,
      "Ġderiv": 5274,
      "Ġ\\;": 5275,
      "oder": 5276,
      "HT": 5277,
      "ĠCD": 5278,
      "ONT": 5279,
      "Ġexplicit": 5280,
      "Ġesc": 5281,
      "adata": 5282,
      "abit": 5283,
      "Ġframe": 5284,
      "ĠBrown": 5285,
      "ĠSun": 5286,
      "Ġrank": 5287,
      "But": 5288,
      "Ġapply": 5289,
      "Ġsch": 5290,
      "{$": 5291,
      "Ġuncertain": 5292,
      "}},": 5293,
      "1940": 5294,
      "ĠĠĠĠĠĠĠĠĠĠĠĠĠĠĠĠĠĠĠĠĠĠĠĠĠĠĠĠĠĠĠ": 5295,
      "ĠScot": 5296,
      "Ġplays": 5297,
      "ricket": 5298,
      "Gener": 5299,
      "ĠMus": 5300,
      "ulture": 5301,
      "Ġembed": 5302,
      "oret": 5303,
      "Ġoperators": 5304,
      "YPE": 5305,
      "Ġchosen": 5306,
      "UE": 5307,
      "font": 5308,
      "ĠAssembly": 5309,
      "She": 5310,
      "Em": 5311,
      "riz": 5312,
      "86": 5313,
      "footnote": 5314,
      "ects": 5315,
      "Ġunion": 5316,
      "ko": 5317,
      "Ġnoise": 5318,
      "setminus": 5319,
      "ĠForm": 5320,
      "ĠNavy": 5321,
      "otion": 5322,
      "Ġscheme": 5323,
      "Ġpresence": 5324,
      "Ġcounter": 5325,
      "ĠAngeles": 5326,
      "iler": 5327,
      "Ġscient": 5328,
      "EX": 5329,
      "irl": 5330,
      "Ġprem": 5331,
      "Ġ->": 5332,
      "Ġwide": 5333,
      "ĠPan": 5334,
      "ski": 5335,
      "lam": 5336,
      "ĠDis": 5337,
      "ĠKar": 5338,
      "Ġremain": 5339,
      "ĠAlthough": 5340,
      "ĠRegister": 5341,
      "arams": 5342,
      "Ġestimated": 5343,
      "vention": 5344,
      "iques": 5345,
      "Ġhttp": 5346,
      "Ġcontinuous": 5347,
      "Ġdark": 5348,
      "uracy": 5349,
      "94": 5350,
      "Ġnoted": 5351,
      "Ġshape": 5352,
      "Ġwriters": 5353,
      "rative": 5354,
      "Ġinequ": 5355,
      "ien": 5356,
      "ashed": 5357,
      "ĠCommittee": 5358,
      "iny": 5359,
      "LT": 5360,
      "rl": 5361,
      "atriate": 5362,
      "RA": 5363,
      "Ġincor": 5364,
      "Ġstreng": 5365,
      "Ġnecessary": 5366,
      "iral": 5367,
      "ancial": 5368,
      ".$": 5369,
      "Ġfigure": 5370,
      "Theta": 5371,
      "iano": 5372,
      "ker": 5373,
      "ĠKn": 5374,
      "sg": 5375,
      "Ġ$|": 5376,
      "ympt": 5377,
      "Åį": 5378,
      "eger": 5379,
      "1967": 5380,
      "oys": 5381,
      "Ġ(-": 5382,
      "Ġcopy": 5383,
      "Ġmemory": 5384,
      "Ġprotected": 5385,
      "Career": 5386,
      "Ġcapital": 5387,
      "={": 5388,
      "Ġmovement": 5389,
      "300": 5390,
      "Further": 5391,
      "Ġlevels": 5392,
      "ĠParliament": 5393,
      "resh": 5394,
      "iro": 5395,
      "ĠFre": 5396,
      "Ġdecided": 5397,
      "Ġinside": 5398,
      "Ġpassed": 5399,
      "attice": 5400,
      "stack": 5401,
      "Ġsex": 5402,
      "Ġwave": 5403,
      "1930": 5404,
      "android": 5405,
      "\").": 5406,
      "Ġflux": 5407,
      "Ġtax": 5408,
      "Ġcop": 5409,
      "ola": 5410,
      "Ġlack": 5411,
      "Ġ]": 5412,
      "ĠProvince": 5413,
      "anda": 5414,
      "eve": 5415,
      "ĠFestival": 5416,
      "iana": 5417,
      "Ġhence": 5418,
      "Ġfilter": 5419,
      "ylvan": 5420,
      "Ġconfiguration": 5421,
      "ĠSoviet": 5422,
      "CP": 5423,
      "Ġdivision": 5424,
      "sort": 5425,
      "Ġens": 5426,
      "Ġfailed": 5427,
      "Ġinterpret": 5428,
      "ees": 5429,
      "Ġonline": 5430,
      "Ġactor": 5431,
      "Equal": 5432,
      "jection": 5433,
      "Person": 5434,
      "Ġincreased": 5435,
      "Ġneighbor": 5436,
      "Ġprec": 5437,
      "Ġanc": 5438,
      "ĠCongress": 5439,
      "soft": 5440,
      "ette": 5441,
      "ĠTime": 5442,
      "pan": 5443,
      "\"),": 5444,
      "stra": 5445,
      "bin": 5446,
      "ima": 5447,
      "Ġbounded": 5448,
      "stract": 5449,
      "Ġfif": 5450,
      "IV": 5451,
      "Ġvocals": 5452,
      "rich": 5453,
      "linewidth": 5454,
      "Ġwhole": 5455,
      "itors": 5456,
      "Ġdataset": 5457,
      "ora": 5458,
      "Ġleader": 5459,
      "1964": 5460,
      "Am": 5461,
      "sol": 5462,
      "Ġminor": 5463,
      "ĠFlorida": 5464,
      "resents": 5465,
      "ĠMa": 5466,
      "args": 5467,
      "ĠMil": 5468,
      "Ġvac": 5469,
      "write": 5470,
      "inem": 5471,
      "Ġvertex": 5472,
      "ĠBrazil": 5473,
      "oplus": 5474,
      "po": 5475,
      "ĠHon": 5476,
      "93": 5477,
      "Ġrecover": 5478,
      "ipl": 5479,
      "ĠGovernment": 5480,
      "Rep": 5481,
      "Ġframework": 5482,
      "Ġtraditional": 5483,
      "anner": 5484,
      "Ġhyp": 5485,
      "$_": 5486,
      "Ġliterature": 5487,
      "va": 5488,
      "Ġpen": 5489,
      "Ġconstructed": 5490,
      "unched": 5491,
      "uled": 5492,
      "Ġgauge": 5493,
      "ĠHistoric": 5494,
      "ĠAwards": 5495,
      "Ġboolean": 5496,
      "Ġintegral": 5497,
      "Ġhit": 5498,
      "Ġplatform": 5499,
      "Function": 5500,
      "adding": 5501,
      "Handler": 5502,
      "Ġgrav": 5503,
      "ĠReturn": 5504,
      "Ġevidence": 5505,
      "wedge": 5506,
      "subfigure": 5507,
      "udd": 5508,
      "uted": 5509,
      "ĠWales": 5510,
      "then": 5511,
      "}}_{": 5512,
      "ĠFin": 5513,
      "Block": 5514,
      "MM": 5515,
      "Ġmaps": 5516,
      "real": 5517,
      "Ġroute": 5518,
      "Ab": 5519,
      "Other": 5520,
      "aven": 5521,
      "Ġexpansion": 5522,
      "Ġsyn": 5523,
      "Ġgoing": 5524,
      "unct": 5525,
      "^{-\\": 5526,
      "dep": 5527,
      "Ġsmooth": 5528,
      "Ġreplace": 5529,
      "Ġblue": 5530,
      "ĠRussia": 5531,
      "Ġcaused": 5532,
      "ĠHel": 5533,
      "anks": 5534,
      "Ġargument": 5535,
      "ĠBase": 5536,
      "ebug": 5537,
      "Ġobservations": 5538,
      "Ġrules": 5539,
      "Ġ\"\"\"": 5540,
      "Ġnorm": 5541,
      "Ġ($\\": 5542,
      "Ġ+=": 5543,
      "Ġgrand": 5544,
      "Ġformation": 5545,
      "rat": 5546,
      "92": 5547,
      "track": 5548,
      "ylvania": 5549,
      "Content": 5550,
      "Point": 5551,
      "ket": 5552,
      "Ġsolid": 5553,
      "Ġentry": 5554,
      "Ġhyper": 5555,
      "\\}": 5556,
      "Ġmanager": 5557,
      "Ġnetworks": 5558,
      "Ġrailway": 5559,
      "Ġselect": 5560,
      "Ġface": 5561,
      "Ã§": 5562,
      "ptr": 5563,
      "Ġextends": 5564,
      "process": 5565,
      "values": 5566,
      "ufact": 5567,
      "Net": 5568,
      "parent": 5569,
      "84": 5570,
      "Films": 5571,
      "Ġspecified": 5572,
      "inner": 5573,
      "Ġcensus": 5574,
      "Ġpercent": 5575,
      "Ġsimply": 5576,
      "Attribute": 5577,
      "urt": 5578,
      "Ġauth": 5579,
      "ialog": 5580,
      "cs": 5581,
      "Start": 5582,
      "Ġmeaning": 5583,
      "Ġseasons": 5584,
      "obile": 5585,
      "1965": 5586,
      "=\"../": 5587,
      "Ġinteraction": 5588,
      "Ġextension": 5589,
      "ĠUnder": 5590,
      "allery": 5591,
      "Ġthought": 5592,
      "Ġ~": 5593,
      "72": 5594,
      "CL": 5595,
      "otal": 5596,
      "related": 5597,
      "Ġbranch": 5598,
      "Ġpurch": 5599,
      "Ġindustry": 5600,
      "rence": 5601,
      "76": 5602,
      "Ġpersonal": 5603,
      "icated": 5604,
      "Fe": 5605,
      "inf": 5606,
      "Ġsquare": 5607,
      "php": 5608,
      "Ġcurve": 5609,
      "During": 5610,
      "heast": 5611,
      "ĠAnn": 5612,
      "rea": 5613,
      "Ġcompact": 5614,
      "ĠCarolina": 5615,
      "arser": 5616,
      "ĠOh": 5617,
      "Ġ;": 5618,
      "inding": 5619,
      "Ġcontinue": 5620,
      "alo": 5621,
      "ĠHow": 5622,
      "Ġchem": 5623,
      ")|": 5624,
      "ecause": 5625,
      "ĠLu": 5626,
      "CA": 5627,
      "ja": 5628,
      "PR": 5629,
      "1920": 5630,
      "Ġexisting": 5631,
      "Ġaim": 5632,
      "nother": 5633,
      "Ġmotion": 5634,
      "Ġculture": 5635,
      "ellar": 5636,
      "Ġknowledge": 5637,
      "ugin": 5638,
      "Ġ\\(": 5639,
      "Sec": 5640,
      "Sw": 5641,
      "Ġminimum": 5642,
      "Ġnature": 5643,
      "Ġconvert": 5644,
      "atur": 5645,
      "Pop": 5646,
      "ali": 5647,
      "definition": 5648,
      "ĠObject": 5649,
      "pid": 5650,
      "Ġcategory": 5651,
      "ĠLine": 5652,
      "Ġorganization": 5653,
      "Ġstra": 5654,
      "1966": 5655,
      "Box": 5656,
      "iller": 5657,
      "Ġsymmetry": 5658,
      "Ġbank": 5659,
      "only": 5660,
      "press": 5661,
      "Ġmur": 5662,
      "ĠMain": 5663,
      "Factory": 5664,
      "present": 5665,
      "Ġ$[": 5666,
      "rees": 5667,
      "Ġscience": 5668,
      "Ġever": 5669,
      "ĠDev": 5670,
      "Ġsamples": 5671,
      "graph": 5672,
      "mission": 5673,
      "ĠSpace": 5674,
      "wa": 5675,
      "Ġdescribe": 5676,
      "Resource": 5677,
      "Ġtrade": 5678,
      "ĠKe": 5679,
      "_{(": 5680,
      "itable": 5681,
      "ĠTour": 5682,
      "ĠSil": 5683,
      "Ġresource": 5684,
      "igation": 5685,
      "Ġmonth": 5686,
      "pat": 5687,
      "Ġanti": 5688,
      "ervation": 5689,
      ")</": 5690,
      "Window": 5691,
      "ĠGar": 5692,
      "Ġchampionship": 5693,
      "Ġprofile": 5694,
      "osing": 5695,
      "Ġbrought": 5696,
      "Ġhot": 5697,
      "py": 5698,
      "ĠVer": 5699,
      "Ġroot": 5700,
      "Ġidea": 5701,
      "Ġwinning": 5702,
      "ĠEmpire": 5703,
      "Ġfast": 5704,
      "osh": 5705,
      "ĠSeries": 5706,
      "Ġmanufact": 5707,
      "ĠIrish": 5708,
      "ĠIII": 5709,
      "vant": 5710,
      "Ġupdate": 5711,
      "Ġproducer": 5712,
      "Ġsynt": 5713,
      "Ġriver": 5714,
      "flict": 5715,
      "ypes": 5716,
      "Met": 5717,
      "Ġrepe": 5718,
      "adium": 5719,
      "Ġcontaining": 5720,
      "Ġsense": 5721,
      "ilarly": 5722,
      "Ġpark": 5723,
      "button": 5724,
      "Ġandroid": 5725,
      "Buffer": 5726,
      "ĠLie": 5727,
      "ĠHaw": 5728,
      "Ġeditor": 5729,
      "acter": 5730,
      "ersey": 5731,
      "ental": 5732,
      "ategor": 5733,
      "normal": 5734,
      "ĠOver": 5735,
      "Ġattended": 5736,
      "ishes": 5737,
      "mann": 5738,
      "Ġbring": 5739,
      "Ġer": 5740,
      "Ġproduce": 5741,
      "Ġedition": 5742,
      "Ġbre": 5743,
      "Ġfood": 5744,
      "Ġsoftware": 5745,
      "Ġequip": 5746,
      "elled": 5747,
      "ĠOl": 5748,
      "oute": 5749,
      "ĠFe": 5750,
      "limits": 5751,
      "Ġmechanism": 5752,
      "Ġdiscussed": 5753,
      "vey": 5754,
      "Component": 5755,
      "hem": 5756,
      "ĠSecret": 5757,
      "Ġfully": 5758,
      "igger": 5759,
      "Ġfill": 5760,
      "Ġclient": 5761,
      "400": 5762,
      "Ġidentity": 5763,
      "Ġcare": 5764,
      "ĠOld": 5765,
      "NO": 5766,
      "Ġsoon": 5767,
      "Ġparticularly": 5768,
      "91": 5769,
      "Ġexamples": 5770,
      "Ġleads": 5771,
      "_*": 5772,
      "Ġsurround": 5773,
      "Ġvariety": 5774,
      "ĠMartin": 5775,
      "number": 5776,
      "ĠLong": 5777,
      "Ġstudio": 5778,
      ")/": 5779,
      "Ġtherm": 5780,
      "Ġnorthern": 5781,
      "ĠFurther": 5782,
      "Work": 5783,
      "Prov": 5784,
      "Ġpack": 5785,
      "gn": 5786,
      "Ġformula": 5787,
      "<!--": 5788,
      "ernel": 5789,
      "Ġheavy": 5790,
      "lock": 5791,
      "ibli": 5792,
      "Ġpanel": 5793,
      "Ġdefeated": 5794,
      "iring": 5795,
      "uls": 5796,
      "ĠPac": 5797,
      "Ne": 5798,
      "Ġsometimes": 5799,
      "Ġsouthern": 5800,
      "Ġexperiments": 5801,
      "Ġforward": 5802,
      "yan": 5803,
      "wan": 5804,
      "Ġfarm": 5805,
      "ipal": 5806,
      "example": 5807,
      "omy": 5808,
      "dat": 5809,
      "eds": 5810,
      "ansas": 5811,
      "Ġthrows": 5812,
      "property": 5813,
      "Ġarbit": 5814,
      "sylvania": 5815,
      "inite": 5816,
      "Ġyet": 5817,
      "82": 5818,
      "evelopment": 5819,
      "Cell": 5820,
      "Ġsubset": 5821,
      "shift": 5822,
      "ĠNorthern": 5823,
      "Ġslow": 5824,
      "ĠFort": 5825,
      "Ġshift": 5826,
      "ampion": 5827,
      "push": 5828,
      "_+": 5829,
      "Ġpert": 5830,
      "ĠJoseph": 5831,
      "83": 5832,
      "Ġmanagement": 5833,
      "Ġdiagram": 5834,
      "enge": 5835,
      "Ġquality": 5836,
      "John": 5837,
      "grad": 5838,
      "$(": 5839,
      "ocket": 5840,
      "kl": 5841,
      "ĠYoung": 5842,
      "Ġinitially": 5843,
      "Ġcoast": 5844,
      "Ġ{@": 5845,
      "asion": 5846,
      "*{": 5847,
      "rot": 5848,
      "ollary": 5849,
      "ancy": 5850,
      "num": 5851,
      "Ġmiddle": 5852,
      "Ġrepresents": 5853,
      "ĠIN": 5854,
      "ĠMur": 5855,
      "Ġ...": 5856,
      "Action": 5857,
      "TP": 5858,
      "Results": 5859,
      "Ġcontrast": 5860,
      "Ġmusical": 5861,
      "Ġapproximation": 5862,
      "Ġappearance": 5863,
      "ening": 5864,
      "ĠSir": 5865,
      "Ġarchitecture": 5866,
      "break": 5867,
      "iece": 5868,
      "Ġplane": 5869,
      "ĠField": 5870,
      "ĠLiber": 5871,
      "ĠColumb": 5872,
      "ĠMost": 5873,
      "Number": 5874,
      "Ġquick": 5875,
      "Default": 5876,
      "=(": 5877,
      "ĠBas": 5878,
      "Ġelectric": 5879,
      "DB": 5880,
      "ĠMos": 5881,
      "Ġ$-": 5882,
      "ĠMax": 5883,
      "El": 5884,
      "gra": 5885,
      "dagger": 5886,
      "omic": 5887,
      "Ġslight": 5888,
      "Ġfinally": 5889,
      "Ġmargin": 5890,
      "ropy": 5891,
      "ĠWood": 5892,
      "oration": 5893,
      "Ġconcern": 5894,
      "erved": 5895,
      "*/": 5896,
      "ĠBoard": 5897,
      "Ġacadem": 5898,
      "Ġjoint": 5899,
      "DF": 5900,
      "seud": 5901,
      "eek": 5902,
      "Ġshot": 5903,
      "inant": 5904,
      "emic": 5905,
      "ati": 5906,
      "ĠBig": 5907,
      "Ġended": 5908,
      "Ġgrowth": 5909,
      "Ġcandidate": 5910,
      "unior": 5911,
      "Ġoptimal": 5912,
      "\\\"": 5913,
      "Ġinters": 5914,
      "Ġseparate": 5915,
      "),\\": 5916,
      "Ġvan": 5917,
      "anced": 5918,
      "itter": 5919,
      "Ġcluster": 5920,
      "CS": 5921,
      "Ġ((": 5922,
      "Ġprison": 5923,
      "Ġpressure": 5924,
      "jav": 5925,
      "Aut": 5926,
      "Hel": 5927,
      "aussian": 5928,
      "Ġgenus": 5929,
      "aligned": 5930,
      "Ġbrief": 5931,
      "Desc": 5932,
      "ulate": 5933,
      "Nav": 5934,
      "Ġking": 5935,
      "ĠFoundation": 5936,
      "Ġcontact": 5937,
      "Ġsn": 5938,
      "Ġagreement": 5939,
      "Equals": 5940,
      "ĠGr": 5941,
      "Ġattention": 5942,
      "Ġinfluence": 5943,
      "hesis": 5944,
      "selves": 5945,
      "Ġparticles": 5946,
      "1962": 5947,
      "aught": 5948,
      "Ġisland": 5949,
      "Ġpoet": 5950,
      "endif": 5951,
      "DO": 5952,
      "Ġmajority": 5953,
      "Ġparticle": 5954,
      "Version": 5955,
      "LS": 5956,
      "Ġgrant": 5957,
      "header": 5958,
      "Ġcontribution": 5959,
      "ĠCam": 5960,
      "pton": 5961,
      "hemat": 5962,
      "Ġvertices": 5963,
      "Style": 5964,
      "Ġremoved": 5965,
      "1963": 5966,
      "deg": 5967,
      "ĠSpain": 5968,
      "Ġcollabor": 5969,
      "ĠProposition": 5970,
      "Ġsingles": 5971,
      "74": 5972,
      "oles": 5973,
      "True": 5974,
      "Ġreturns": 5975,
      "1944": 5976,
      "ifact": 5977,
      "ĠHere": 5978,
      "rics": 5979,
      "eful": 5980,
      "ĠEngine": 5981,
      "iga": 5982,
      "lood": 5983,
      "even": 5984,
      "Ġbenef": 5985,
      "Ġemission": 5986,
      "Ġsecret": 5987,
      "HE": 5988,
      "Ġult": 5989,
      "dl": 5990,
      "Ġspent": 5991,
      "Year": 5992,
      "Ġdetermine": 5993,
      "Ġconsequ": 5994,
      "Ġrequires": 5995,
      "Ġcit": 5996,
      "ĠWal": 5997,
      "TO": 5998,
      "ivial": 5999,
      "Ġlaunched": 6000,
      "Ġdistinct": 6001,
      "Ġcomparison": 6002,
      "BU": 6003,
      "81": 6004,
      "ĠJo": 6005,
      "Ġconsum": 6006,
      "Ġmoney": 6007,
      "Ġcentre": 6008,
      "ĠUk": 6009,
      "ova": 6010,
      "Ġusers": 6011,
      "ĠRh": 6012,
      "kins": 6013,
      "aka": 6014,
      "Ġscatter": 6015,
      "Ġproducts": 6016,
      "Ġcele": 6017,
      "Ġmanif": 6018,
      "ĠLove": 6019,
      "colon": 6020,
      "Ġarticle": 6021,
      "ĠĠĠĠĠĠĠĠĊ": 6022,
      "cons": 6023,
      "ĠGreek": 6024,
      "Ġquery": 6025,
      "atial": 6026,
      "thing": 6027,
      "apers": 6028,
      "Ġgoals": 6029,
      "Ġnewsp": 6030,
      "Ġ|\\": 6031,
      "force": 6032,
      "ultural": 6033,
      "ĠAdd": 6034,
      "Ġdeb": 6035,
      "ĠOur": 6036,
      "refix": 6037,
      "ĠCross": 6038,
      "79": 6039,
      "Ġwoman": 6040,
      "iders": 6041,
      ")_{": 6042,
      "Rem": 6043,
      "Ġsecur": 6044,
      ")\\,": 6045,
      "ĠNone": 6046,
      "ĠPennsylvania": 6047,
      "Ġinterface": 6048,
      "Ġterrit": 6049,
      "Ġcollect": 6050,
      "Ġunknown": 6051,
      "Ġidentified": 6052,
      "ĠTeam": 6053,
      "Ġedges": 6054,
      "Ġcatch": 6055,
      "Members": 6056,
      "ĠBattle": 6057,
      "Ġsemi": 6058,
      "Ġwood": 6059,
      "adow": 6060,
      "eft": 6061,
      "iography": 6062,
      "Ġwhom": 6063,
      "ĠTimes": 6064,
      "mond": 6065,
      "json": 6066,
      "ji": 6067,
      "ĠGal": 6068,
      "ady": 6069,
      "ĠPre": 6070,
      "Men": 6071,
      "ERT": 6072,
      "arks": 6073,
      ":\\": 6074,
      "Ġreferred": 6075,
      "Ġpolar": 6076,
      "Ġcomment": 6077,
      "Ġlat": 6078,
      "finished": 6079,
      "Ġradius": 6080,
      "73": 6081,
      "Ġopening": 6082,
      "house": 6083,
      "Ġphil": 6084,
      "etime": 6085,
      "Ġcommercial": 6086,
      "Ġcore": 6087,
      "ĠSy": 6088,
      "Ġdynamics": 6089,
      "ĠArab": 6090,
      "Ġfa": 6091,
      "REF": 6092,
      "Ġmentioned": 6093,
      "venue": 6094,
      "Ġcarried": 6095,
      "Ġcause": 6096,
      "Ġmostly": 6097,
      "last": 6098,
      "oded": 6099,
      "Ġcos": 6100,
      "Ġaccuracy": 6101,
      "reedom": 6102,
      "});": 6103,
      "Ġnews": 6104,
      "Ġlink": 6105,
      "Ġgot": 6106,
      "Ġapplications": 6107,
      "Ġhours": 6108,
      "ĠRo": 6109,
      "alg": 6110,
      "ĠJac": 6111,
      "ĠAtt": 6112,
      "aria": 6113,
      "Ġdistributed": 6114,
      "GB": 6115,
      "Ġspectral": 6116,
      "IF": 6117,
      "Ġshall": 6118,
      "Ġsplit": 6119,
      "kin": 6120,
      "Ġreli": 6121,
      "free": 6122,
      "find": 6123,
      "Ġmeasured": 6124,
      "description": 6125,
      "Ġstore": 6126,
      "Ġperturb": 6127,
      "Ġexistence": 6128,
      "Ġdrama": 6129,
      "Now": 6130,
      "'_": 6131,
      "Ġactivities": 6132,
      "Ġowned": 6133,
      "Ġmagazine": 6134,
      "Ġstudent": 6135,
      "Ġgalaxies": 6136,
      "Ġserver": 6137,
      "ategy": 6138,
      "Ġhighly": 6139,
      "${": 6140,
      "ĠĠĠĠĠĠĠĠĠĠĠĠĊ": 6141,
      "Ġcompute": 6142,
      "ĠValley": 6143,
      "}}(\\": 6144,
      "Ġprevent": 6145,
      "ĠAlso": 6146,
      "obj": 6147,
      "Min": 6148,
      "Ġnumerical": 6149,
      "xml": 6150,
      "ĠTw": 6151,
      "ĠTim": 6152,
      "ĠEnd": 6153,
      "Ġsatisfies": 6154,
      "tings": 6155,
      "mt": 6156,
      "ĠLin": 6157,
      "buf": 6158,
      "1961": 6159,
      "Ġfootballer": 6160,
      "Ġextra": 6161,
      "Ġerrors": 6162,
      "ibly": 6163,
      "inet": 6164,
      "ĠHot": 6165,
      "ĠLife": 6166,
      "plete": 6167,
      "Rel": 6168,
      "ĠBob": 6169,
      "ĠHence": 6170,
      "ĠChief": 6171,
      "iy": 6172,
      "LASS": 6173,
      "enth": 6174,
      "Ġmainly": 6175,
      "Ġmission": 6176,
      "spect": 6177,
      "Ġbal": 6178,
      "Us": 6179,
      "ĠDom": 6180,
      "Dec": 6181,
      "Child": 6182,
      "Ġcommission": 6183,
      "ĠLee": 6184,
      "Ġexperimental": 6185,
      "etts": 6186,
      ":#": 6187,
      "Ġchief": 6188,
      "ĠIran": 6189,
      "pack": 6190,
      "uages": 6191,
      "inals": 6192,
      "Ġeasily": 6193,
      "Mon": 6194,
      "Ġ}\\": 6195,
      "Ġmaster": 6196,
      "Ġclassification": 6197,
      "awa": 6198,
      "Return": 6199,
      "Ġspaces": 6200,
      "Ġreb": 6201,
      "inity": 6202,
      "Ġprocesses": 6203,
      "Ġregister": 6204,
      "Ġupd": 6205,
      "Ġreach": 6206,
      "Ġprograms": 6207,
      "ĠEducation": 6208,
      "Ġneeds": 6209,
      "unit": 6210,
      "Ġfix": 6211,
      ")}(": 6212,
      "inations": 6213,
      "Ġbuff": 6214,
      "ennis": 6215,
      "[\"": 6216,
      "bi": 6217,
      "Ġinterview": 6218,
      "Ġmicro": 6219,
      "ĠTem": 6220,
      "usband": 6221,
      "icients": 6222,
      "eler": 6223,
      "Ġsimpl": 6224,
      "Aust": 6225,
      "mail": 6226,
      "ban": 6227,
      "ĠID": 6228,
      "Ġuseful": 6229,
      "isters": 6230,
      "Ġsummer": 6231,
      "entry": 6232,
      "bury": 6233,
      "Arg": 6234,
      "SD": 6235,
      "1942": 6236,
      "Ġsec": 6237,
      "ribe": 6238,
      "Ġbattle": 6239,
      "Ġentered": 6240,
      "status": 6241,
      "mas": 6242,
      "airman": 6243,
      "Ġcoupling": 6244,
      "Ġcomes": 6245,
      "term": 6246,
      "rip": 6247,
      "71": 6248,
      "Ġmedical": 6249,
      "after": 6250,
      "elli": 6251,
      "ifically": 6252,
      "Row": 6253,
      "dim": 6254,
      "1956": 6255,
      "Ġdual": 6256,
      "reshold": 6257,
      "ĠPost": 6258,
      "arriage": 6259,
      "aya": 6260,
      "zero": 6261,
      "Ġtypically": 6262,
      "ĠBank": 6263,
      "FO": 6264,
      "ĠSol": 6265,
      "inois": 6266,
      "lections": 6267,
      "ĠNews": 6268,
      "uge": 6269,
      "Ġsecurity": 6270,
      "Ġcombined": 6271,
      "icks": 6272,
      "stein": 6273,
      "Ġarrang": 6274,
      "Ġchain": 6275,
      "ĠCamb": 6276,
      "ĠProfess": 6277,
      "ĠGen": 6278,
      "ĠBelg": 6279,
      "Ġactivity": 6280,
      "Ġtensor": 6281,
      "Ġinsp": 6282,
      "sky": 6283,
      "1958": 6284,
      "////////////////": 6285,
      "Next": 6286,
      "Top": 6287,
      "Ġarmy": 6288,
      "1000": 6289,
      "orter": 6290,
      "rolled": 6291,
      "Ġchoose": 6292,
      "Ġbul": 6293,
      "Description": 6294,
      "Ġbasic": 6295,
      "=-": 6296,
      "Ġresolution": 6297,
      "ĠSocial": 6298,
      "Ġlove": 6299,
      "Ġcard": 6300,
      "Ġdetection": 6301,
      "dx": 6302,
      "Ġlegal": 6303,
      "output": 6304,
      "ependence": 6305,
      "Ġlattice": 6306,
      "Ġdrum": 6307,
      "_{{\\": 6308,
      "ĠStep": 6309,
      "ĠBul": 6310,
      "Ġactually": 6311,
      "Ġcorresponds": 6312,
      "Ġotherwise": 6313,
      "Ġconstraints": 6314,
      "Ġmixed": 6315,
      "Label": 6316,
      "forall": 6317,
      "Ġminutes": 6318,
      "ĠEr": 6319,
      "Ġincorpor": 6320,
      "Ġconnect": 6321,
      "Link": 6322,
      "ĠType": 6323,
      "Ġresol": 6324,
      "Ġconcent": 6325,
      "Ġcounty": 6326,
      "'\\": 6327,
      "Ġolder": 6328,
      "nam": 6329,
      "Writ": 6330,
      "ĠFC": 6331,
      "Tem": 6332,
      "ĠCivil": 6333,
      "Ġofficer": 6334,
      "Ġcapacity": 6335,
      "cf": 6336,
      "iling": 6337,
      "Ġdevice": 6338,
      "gg": 6339,
      "Ġmomentum": 6340,
      "Ġtechnology": 6341,
      "Ġnumerous": 6342,
      "Page": 6343,
      "Sche": 6344,
      "stitution": 6345,
      "Ġpick": 6346,
      "{{": 6347,
      "1948": 6348,
      "ĠLibrary": 6349,
      "Ġclust": 6350,
      "1959": 6351,
      "Max": 6352,
      "Ġimmediately": 6353,
      "ĠHealth": 6354,
      "cases": 6355,
      "Ġroom": 6356,
      "Ġpositions": 6357,
      "Ġbottom": 6358,
      "SA": 6359,
      "Ġrecords": 6360,
      "ĠUnivers": 6361,
      "har": 6362,
      "Command": 6363,
      "anger": 6364,
      "ested": 6365,
      "oston": 6366,
      "Ġfactors": 6367,
      "ĠCE": 6368,
      "roduction": 6369,
      "Track": 6370,
      "Ġmut": 6371,
      "Ġlived": 6372,
      "achus": 6373,
      "ĠMem": 6374,
      "ainer": 6375,
      "ila": 6376,
      "ĠMen": 6377,
      "LP": 6378,
      "ĠSouthern": 6379,
      "Case": 6380,
      "Ġelections": 6381,
      "oral": 6382,
      "ĠNow": 6383,
      "Ġnative": 6384,
      "Ġcomposed": 6385,
      "btn": 6386,
      "perp": 6387,
      "textsc": 6388,
      "Ġrecently": 6389,
      "Ġinequality": 6390,
      "Ġcorn": 6391,
      "subsubsection": 6392,
      "ilation": 6393,
      "Load": 6394,
      "Ġbecoming": 6395,
      "project": 6396,
      "ĠJim": 6397,
      "Web": 6398,
      "ĠOx": 6399,
      "ĠBritain": 6400,
      "select": 6401,
      "lie": 6402,
      "uri": 6403,
      "Ġetc": 6404,
      "orig": 6405,
      "Ġgreater": 6406,
      "contin": 6407,
      "ĠLi": 6408,
      "PO": 6409,
      "ĠSong": 6410,
      "ror": 6411,
      "vol": 6412,
      "1939": 6413,
      "Ġgreen": 6414,
      "lad": 6415,
      "Ġmole": 6416,
      "Ġprocedure": 6417,
      "ech": 6418,
      "Ġvirtual": 6419,
      "Ġplot": 6420,
      "Port": 6421,
      "_{-": 6422,
      "Ġforest": 6423,
      "aver": 6424,
      "ĠAz": 6425,
      "ĠMoreover": 6426,
      "rants": 6427,
      "img": 6428,
      "Filter": 6429,
      "Ġauto": 6430,
      "ĠMichigan": 6431,
      "Ġsenior": 6432,
      "ĠDemocratic": 6433,
      "ĠAut": 6434,
      "icate": 6435,
      "Ġbus": 6436,
      "iÄĩ": 6437,
      "Ġurl": 6438,
      "sche": 6439,
      "Ġinner": 6440,
      "Ġformal": 6441,
      "sole": 6442,
      ",\\,": 6443,
      "erry": 6444,
      "ĠCarl": 6445,
      "Offset": 6446,
      "Ġteacher": 6447,
      "Ġstatement": 6448,
      "Ġthemselves": 6449,
      "filter": 6450,
      "private": 6451,
      "Ġexperience": 6452,
      "Ġsurvey": 6453,
      "Car": 6454,
      "Task": 6455,
      "Sports": 6456,
      "ĠAsian": 6457,
      "Ġones": 6458,
      "1943": 6459,
      "ĠFri": 6460,
      "Ġsimulations": 6461,
      "Ġchart": 6462,
      "efined": 6463,
      "Ġangle": 6464,
      "tag": 6465,
      "asi": 6466,
      "meta": 6467,
      "Ġprefer": 6468,
      "format": 6469,
      "MB": 6470,
      "des": 6471,
      "cr": 6472,
      "_.": 6473,
      "ĠPoland": 6474,
      "ĠSee": 6475,
      "1957": 6476,
      "ĠCro": 6477,
      "Dist": 6478,
      "ĠDutch": 6479,
      "Ġdecay": 6480,
      "anged": 6481,
      "rical": 6482,
      "ponents": 6483,
      "FONT": 6484,
      "Ġnearly": 6485,
      "achusetts": 6486,
      "Ġextract": 6487,
      "Create": 6488,
      "Ġsquad": 6489,
      "Ġtreatment": 6490,
      "Tra": 6491,
      "Ġconsistent": 6492,
      "ABLE": 6493,
      "ĠRam": 6494,
      "else": 6495,
      "Ġcells": 6496,
      "Å¡": 6497,
      ")^{\\": 6498,
      "Ġfraction": 6499,
      "ador": 6500,
      "ĠSar": 6501,
      "However": 6502,
      "annels": 6503,
      "ĠRel": 6504,
      "ĠOhio": 6505,
      "ĠJud": 6506,
      "ĠPak": 6507,
      "ĠDet": 6508,
      "}$-": 6509,
      "Ġvisual": 6510,
      "Ġstraight": 6511,
      "rowser": 6512,
      "Ġassumption": 6513,
      "Ġnone": 6514,
      "Ġsignificantly": 6515,
      "sen": 6516,
      "ĠRadio": 6517,
      "ĠPacific": 6518,
      "Ġbatt": 6519,
      "src": 6520,
      "ader": 6521,
      "Ġmeasurements": 6522,
      "ĠTop": 6523,
      "Const": 6524,
      "Ġwind": 6525,
      "viation": 6526,
      "Ġtechniques": 6527,
      "1941": 6528,
      "Ġdise": 6529,
      "burgh": 6530,
      "ĠEach": 6531,
      "Ġminim": 6532,
      "cd": 6533,
      "Ġagent": 6534,
      "Ġoperated": 6535,
      "Ġlearn": 6536,
      "sto": 6537,
      "Ġbeg": 6538,
      "ĠBuild": 6539,
      "ĠPeople": 6540,
      "Ġshare": 6541,
      "Ġhum": 6542,
      "///": 6543,
      "sur": 6544,
      "white": 6545,
      "Ġcontributions": 6546,
      "enant": 6547,
      "Ġ+\\": 6548,
      "Format": 6549,
      "Eq": 6550,
      "Ġpoly": 6551,
      "Ġsteps": 6552,
      "Ġcam": 6553,
      "([": 6554,
      "Ġinteger": 6555,
      "Ġcalculated": 6556,
      "ifications": 6557,
      "ĠDirector": 6558,
      "Ġexam": 6559,
      "Ġscalar": 6560,
      "ĠJersey": 6561,
      "rypt": 6562,
      "Output": 6563,
      "Ġamplit": 6564,
      "1946": 6565,
      "Ġeconomic": 6566,
      "Sing": 6567,
      "abilities": 6568,
      "Check": 6569,
      "icity": 6570,
      "chen": 6571,
      "Ġdepends": 6572,
      "olute": 6573,
      "Ġstrategy": 6574,
      "Ġvictory": 6575,
      "container": 6576,
      "(&": 6577,
      "neg": 6578,
      "ĠPrem": 6579,
      "Ġassumed": 6580,
      "iffer": 6581,
      "National": 6582,
      "Ġthreat": 6583,
      "ĠNetwork": 6584,
      "wer": 6585,
      "Ġfinancial": 6586,
      "Ġfun": 6587,
      "uer": 6588,
      "tree": 6589,
      "ĠEdward": 6590,
      "Ġactual": 6591,
      "According": 6592,
      "Ġcomputer": 6593,
      "ĠScotland": 6594,
      "Ġfeed": 6595,
      "Ġindividuals": 6596,
      "erse": 6597,
      "Ġsea": 6598,
      "Ġrelatively": 6599,
      "Ġthink": 6600,
      "Ġclaimed": 6601,
      "Ġhusband": 6602,
      "ĠRepresent": 6603,
      "\"]": 6604,
      "Ġdescent": 6605,
      "Ġdecom": 6606,
      "stone": 6607,
      "Ġpairs": 6608,
      "eks": 6609,
      "ounds": 6610,
      "1955": 6611,
      "Ġgenerate": 6612,
      "Ġquarter": 6613,
      "irmed": 6614,
      "aters": 6615,
      "ĠBow": 6616,
      "fect": 6617,
      "Ġexception": 6618,
      "rons": 6619,
      "Ġinn": 6620,
      "float": 6621,
      "Ġsampl": 6622,
      "Ġannual": 6623,
      "Brit": 6624,
      "ded": 6625,
      "arant": 6626,
      "Ġpoliticians": 6627,
      "Ġcommunities": 6628,
      "Ġbass": 6629,
      "Ġvs": 6630,
      "Ġring": 6631,
      "Ġmachine": 6632,
      "ĠTro": 6633,
      "Ġgeneration": 6634,
      "ĠData": 6635,
      "conf": 6636,
      "Ġforced": 6637,
      "construct": 6638,
      "Ġsituation": 6639,
      "Ġcarry": 6640,
      "Ġcoefficients": 6641,
      "1952": 6642,
      "arden": 6643,
      "ĠInc": 6644,
      "Ġalgorithms": 6645,
      "}^*": 6646,
      "Ġpoor": 6647,
      "ela": 6648,
      "Length": 6649,
      "Ġarguments": 6650,
      "ĠEarth": 6651,
      "Ġremove": 6652,
      "Ġalt": 6653,
      "bas": 6654,
      "ĠEX": 6655,
      "Art": 6656,
      "cean": 6657,
      "Ġpsy": 6658,
      "Ġelev": 6659,
      "lines": 6660,
      "ĠIllinois": 6661,
      "show": 6662,
      "Ġstrict": 6663,
      "Ġque": 6664,
      "Ġseat": 6665,
      "Ġactors": 6666,
      "close": 6667,
      "Ġshowed": 6668,
      "ĠJones": 6669,
      "Ġcompletely": 6670,
      "essages": 6671,
      "Ġice": 6672,
      "Ġessential": 6673,
      "Ġprogress": 6674,
      "erem": 6675,
      "aily": 6676,
      "ĠAsia": 6677,
      "Ġbit": 6678,
      "unfinished": 6679,
      "Ġdoc": 6680,
      "Ġcolon": 6681,
      "Ġdisk": 6682,
      "ĠLog": 6683,
      "ĠShow": 6684,
      "Ġcallback": 6685,
      "Ġmoving": 6686,
      "ERR": 6687,
      "Ġships": 6688,
      "ĠLord": 6689,
      "ĠMajor": 6690,
      "response": 6691,
      "Ac": 6692,
      "Ġdenotes": 6693,
      "rium": 6694,
      "More": 6695,
      "izont": 6696,
      "Ġutil": 6697,
      "Ġsubsequently": 6698,
      "prototype": 6699,
      "Ġpromin": 6700,
      "Ġstable": 6701,
      "Ġordered": 6702,
      "INT": 6703,
      "Ġtoday": 6704,
      "Ġfiles": 6705,
      "Ġleave": 6706,
      "ĠQueen": 6707,
      "Here": 6708,
      "Ġquad": 6709,
      "Ġsegment": 6710,
      "ĠMah": 6711,
      "ailed": 6712,
      "ĠKent": 6713,
      "Ġstay": 6714,
      "ĠRos": 6715,
      "ething": 6716,
      "hom": 6717,
      "rison": 6718,
      "cat": 6719,
      "ĠConference": 6720,
      "je": 6721,
      "1947": 6722,
      "Ġwestern": 6723,
      "Ġfil": 6724,
      "ĠPhilipp": 6725,
      "uty": 6726,
      "std": 6727,
      "adel": 6728,
      "Ġauthors": 6729,
      "oting": 6730,
      "Ġspread": 6731,
      "irls": 6732,
      "aly": 6733,
      "ulty": 6734,
      "Ġmurder": 6735,
      "second": 6736,
      "Ġsimulation": 6737,
      "Ġproved": 6738,
      "Ġraised": 6739,
      "Me": 6740,
      "Gu": 6741,
      "itation": 6742,
      "ogene": 6743,
      "aylor": 6744,
      "gypt": 6745,
      "lers": 6746,
      "Ġchalleng": 6747,
      "Ġincreases": 6748,
      "Ġtun": 6749,
      "onia": 6750,
      "Ġtor": 6751,
      "Ġrecording": 6752,
      "Sl": 6753,
      "miss": 6754,
      "Ġcombination": 6755,
      "Ġtracks": 6756,
      "Ġresponsible": 6757,
      "iable": 6758,
      "ĠRailway": 6759,
      "iants": 6760,
      "ĠMassachusetts": 6761,
      "ĠTheir": 6762,
      "SR": 6763,
      "ĠRun": 6764,
      "Ġnine": 6765,
      "Ġachieved": 6766,
      "Ġlif": 6767,
      ")\\\\": 6768,
      "\\'": 6769,
      "Ġrates": 6770,
      "1954": 6771,
      "Ġreduce": 6772,
      "Ġcorrelation": 6773,
      "Ġdepartment": 6774,
      "Ġdistributions": 6775,
      "ĠÅ": 6776,
      "she": 6777,
      "Ġreligious": 6778,
      "ellig": 6779,
      "IO": 6780,
      "Ġpropag": 6781,
      "ĠOffice": 6782,
      "ĠLang": 6783,
      "').": 6784,
      "ĠCentre": 6785,
      "Ġvon": 6786,
      "PP": 6787,
      "ĠJournal": 6788,
      "etween": 6789,
      "ĠPortug": 6790,
      "cript": 6791,
      "Ġretired": 6792,
      "Ġhistorical": 6793,
      "La": 6794,
      "Ġmeeting": 6795,
      "ĠSpring": 6796,
      "emporary": 6797,
      "pes": 6798,
      ">>": 6799,
      "antry": 6800,
      "Ġapprop": 6801,
      "AF": 6802,
      "update": 6803,
      "ilib": 6804,
      "Ġstatistics": 6805,
      "Ġfoot": 6806,
      "ĠBern": 6807,
      "Ã±": 6808,
      "Ġleaving": 6809,
      "Ġactions": 6810,
      "Ġdou": 6811,
      "dy": 6812,
      "Ġdepict": 6813,
      "inate": 6814,
      "Ġanaly": 6815,
      "Ġlies": 6816,
      "Ġempty": 6817,
      "Ġserving": 6818,
      "1953": 6819,
      "ĠBoth": 6820,
      "ĠGovernor": 6821,
      "Ġarrest": 6822,
      "Ġign": 6823,
      "ĠJan": 6824,
      "owers": 6825,
      "Ġmodes": 6826,
      "las": 6827,
      "inder": 6828,
      "Ġuniversity": 6829,
      "inger": 6830,
      ")^{-": 6831,
      "while": 6832,
      "faces": 6833,
      "Ġsites": 6834,
      "Ġsettlement": 6835,
      "Des": 6836,
      "1949": 6837,
      "Ġassigned": 6838,
      "author": 6839,
      "scope": 6840,
      "INE": 6841,
      "Ġcomputed": 6842,
      "Ġserve": 6843,
      ")}{\\": 6844,
      "ĠPlaces": 6845,
      "Ġapproaches": 6846,
      "aa": 6847,
      "ograp": 6848,
      "Ġtrained": 6849,
      "Ġslightly": 6850,
      "Ġpil": 6851,
      "pers": 6852,
      "ĠCreek": 6853,
      "Ġcycl": 6854,
      "Ġclubs": 6855,
      "endix": 6856,
      "cks": 6857,
      "ql": 6858,
      "MD": 6859,
      "ĠKong": 6860,
      "Ġensure": 6861,
      "Ġflat": 6862,
      "Ġincome": 6863,
      "atalog": 6864,
      "si": 6865,
      "Ġcru": 6866,
      "ture": 6867,
      "ĠGeorgia": 6868,
      "matrix": 6869,
      "Ġoffset": 6870,
      "Ġoccurs": 6871,
      "ÅĤ": 6872,
      "UI": 6873,
      "Ġeth": 6874,
      "vest": 6875,
      "urban": 6876,
      "hr": 6877,
      "ĠMu": 6878,
      "Ġcircle": 6879,
      "Ġresources": 6880,
      "CON": 6881,
      "Ġwalk": 6882,
      "ĉĠĠĠ": 6883,
      "$$\\": 6884,
      "ĠHung": 6885,
      "Ġgrid": 6886,
      "Ġcomedy": 6887,
      "yb": 6888,
      "multi": 6889,
      "Ġfont": 6890,
      "clos": 6891,
      "ĠFrancisco": 6892,
      "Ġability": 6893,
      "ĠHa": 6894,
      "ĠDec": 6895,
      "Hz": 6896,
      "\\!\\!": 6897,
      "PT": 6898,
      "Ġrelevant": 6899,
      "Ġweeks": 6900,
      "Ġexternal": 6901,
      "pa": 6902,
      "params": 6903,
      "ĠEqu": 6904,
      "){\\": 6905,
      "ensions": 6906,
      "system": 6907,
      "Cache": 6908,
      "aped": 6909,
      "NR": 6910,
      "service": 6911,
      "olt": 6912,
      "Ġbinary": 6913,
      "ĠSte": 6914,
      "phy": 6915,
      "Ġexpressed": 6916,
      "Ġimplementation": 6917,
      "Ġscript": 6918,
      "Ġimprove": 6919,
      "Ġfederal": 6920,
      "SL": 6921,
      "Ġ${": 6922,
      "ĠCre": 6923,
      "ĠPy": 6924,
      "$).": 6925,
      "Ġweb": 6926,
      "navbar": 6927,
      "Ġforeign": 6928,
      "ĠPrince": 6929,
      "ĠTheatre": 6930,
      "rong": 6931,
      "ifies": 6932,
      "del": 6933,
      "Ġparents": 6934,
      "ĠProject": 6935,
      "1951": 6936,
      "ictionary": 6937,
      "fit": 6938,
      "ĠWilliams": 6939,
      "abeth": 6940,
      "ĠInst": 6941,
      "Ġshoot": 6942,
      "United": 6943,
      "Ġsitu": 6944,
      "writer": 6945,
      "vector": 6946,
      "Ġdespite": 6947,
      "British": 6948,
      "{$\\": 6949,
      "Ä±": 6950,
      "Ġhockey": 6951,
      "sign": 6952,
      "prob": 6953,
      "Ġintroduce": 6954,
      "ĠOf": 6955,
      "à¤": 6956,
      "istical": 6957,
      "Ġsuc": 6958,
      "amental": 6959,
      "~$\\": 6960,
      "Ġparallel": 6961,
      "ighter": 6962,
      "Ġ!==": 6963,
      "ĠCoast": 6964,
      "expected": 6965,
      "Ġsister": 6966,
      "URL": 6967,
      "menu": 6968,
      "rect": 6969,
      "ported": 6970,
      "Ġlibrary": 6971,
      "ĠBlue": 6972,
      "Ġ[]": 6973,
      "bullet": 6974,
      "icens": 6975,
      "Ġacquired": 6976,
      "ĠScottish": 6977,
      "wait": 6978,
      "oir": 6979,
      "Ġrecomm": 6980,
      "Ġexactly": 6981,
      "enty": 6982,
      "Ġaspect": 6983,
      "Ġanalog": 6984,
      "arters": 6985,
      "remove": 6986,
      "RL": 6987,
      "SON": 6988,
      "ĠLy": 6989,
      "Controller": 6990,
      "rance": 6991,
      "Ġtheoret": 6992,
      "sem": 6993,
      "prov": 6994,
      "Ġmatrices": 6995,
      "card": 6996,
      "Don": 6997,
      "AV": 6998,
      "ĠProgram": 6999,
      "./": 7000,
      "\\_": 7001,
      "150": 7002,
      "ĠJohnson": 7003,
      "Ġorient": 7004,
      "Ġorb": 7005,
      "Ġinvariant": 7006,
      "ĠBoston": 7007,
      "ĠJewish": 7008,
      "Ġcovered": 7009,
      "ĠLuc": 7010,
      "desc": 7011,
      "Ġpurpose": 7012,
      "Ġcontained": 7013,
      "lets": 7014,
      "eli": 7015,
      "ãģ": 7016,
      "Ġcurves": 7017,
      "Ġfle": 7018,
      ".~(\\": 7019,
      "Ġscene": 7020,
      "ĉĉĉĉĉĉĉĉ": 7021,
      "onym": 7022,
      "Ġarbitrary": 7023,
      "Ġflag": 7024,
      "oped": 7025,
      "iciency": 7026,
      "Vis": 7027,
      "bass": 7028,
      "Valid": 7029,
      "ione": 7030,
      "ĠCr": 7031,
      "ĠEastern": 7032,
      "Ġsucceed": 7033,
      "ĠOxford": 7034,
      "Mode": 7035,
      "ĠPolish": 7036,
      "Ġswitch": 7037,
      "car": 7038,
      "Ġhydro": 7039,
      "poration": 7040,
      "}}^": 7041,
      "nowled": 7042,
      "Ġitems": 7043,
      "Ġfeat": 7044,
      "PRO": 7045,
      "Po": 7046,
      "Figure": 7047,
      "annot": 7048,
      "Ġharm": 7049,
      "Rev": 7050,
      "Ġspatial": 7051,
      "Ġadopted": 7052,
      "osoph": 7053,
      "EL": 7054,
      "ĠBal": 7055,
      "Ġvary": 7056,
      "instance": 7057,
      "atically": 7058,
      "attr": 7059,
      "sime": 7060,
      "ĠHead": 7061,
      ")$-": 7062,
      "})$.": 7063,
      "poses": 7064,
      "Dem": 7065,
      "Ġassign": 7066,
      "proto": 7067,
      "simeq": 7068,
      "aug": 7069,
      "pped": 7070,
      "Ġbelieved": 7071,
      "older": 7072,
      "remark": 7073,
      "lap": 7074,
      "izontal": 7075,
      "Ġvote": 7076,
      "Parameter": 7077,
      "ĠStan": 7078,
      "Ġdivided": 7079,
      "agraph": 7080,
      "ructure": 7081,
      "Ġprojects": 7082,
      "occer": 7083,
      "Ġcompeted": 7084,
      "actor": 7085,
      "Ġnam": 7086,
      "SM": 7087,
      "ĠGood": 7088,
      "Ġmunicipality": 7089,
      "Ġloop": 7090,
      "Ġâ": 7091,
      "Ġdepth": 7092,
      "Ġthick": 7093,
      "Ġadvant": 7094,
      "ĠSand": 7095,
      "ĠBre": 7096,
      "Ġofficers": 7097,
      "Ġbad": 7098,
      "pmatrix": 7099,
      "ervices": 7100,
      "Theorem": 7101,
      "Ev": 7102,
      "Ġpersonnel": 7103,
      "pop": 7104,
      "ternet": 7105,
      "Local": 7106,
      "Ġbrand": 7107,
      "yer": 7108,
      "Ð»": 7109,
      "dependent": 7110,
      "Ġpartial": 7111,
      "akers": 7112,
      "itage": 7113,
      "Ġ=\\": 7114,
      "ĠMr": 7115,
      "Ġhelped": 7116,
      "Ġmuseum": 7117,
      "CR": 7118,
      "ĉĉĊ": 7119,
      "ĠLater": 7120,
      "ĠPop": 7121,
      "imer": 7122,
      "Ġprofessor": 7123,
      "ĠBang": 7124,
      "Ġonto": 7125,
      "Ġcities": 7126,
      "eller": 7127,
      "Ġbey": 7128,
      "Ġdiscovered": 7129,
      "1936": 7130,
      "Ġbridge": 7131,
      "ĠColumbia": 7132,
      "Ġturned": 7133,
      "ricts": 7134,
      "Ġconflict": 7135,
      "ĠCorps": 7136,
      "thon": 7137,
      "Ġconducted": 7138,
      "ĠHig": 7139,
      "ĠCard": 7140,
      "Ġdistingu": 7141,
      "Ġstrength": 7142,
      "Ġestimates": 7143,
      "onto": 7144,
      "Disc": 7145,
      "Ġelim": 7146,
      "ĠLatin": 7147,
      "Ġeasy": 7148,
      "Ġcricket": 7149,
      "\\|_{": 7150,
      "Ġsymmetric": 7151,
      "Ġfamous": 7152,
      "Ġinteresting": 7153,
      "ĠMid": 7154,
      "chron": 7155,
      "bold": 7156,
      "Ġcalc": 7157,
      "Ġlanguages": 7158,
      "Ġsession": 7159,
      "Cons": 7160,
      "ws": 7161,
      "Ġsections": 7162,
      "xx": 7163,
      "Ġnearby": 7164,
      "hent": 7165,
      "Ġretain": 7166,
      "Ġgiving": 7167,
      "ederation": 7168,
      "OL": 7169,
      "bro": 7170,
      "fort": 7171,
      "Last": 7172,
      "hu": 7173,
      "Ġshared": 7174,
      "etch": 7175,
      "ND": 7176,
      "plex": 7177,
      "forms": 7178,
      "uler": 7179,
      "offset": 7180,
      "gr": 7181,
      "Ġcategor": 7182,
      "ĠJean": 7183,
      "$^{-": 7184,
      "Our": 7185,
      "Ġanalyt": 7186,
      "claim": 7187,
      "Ġansw": 7188,
      "ĠEnter": 7189,
      "Ġgovern": 7190,
      "ographic": 7191,
      "undred": 7192,
      "ez": 7193,
      "ĠJr": 7194,
      "ulpt": 7195,
      "ĠGame": 7196,
      "ĉĠ": 7197,
      "rawn": 7198,
      "ãĥ": 7199,
      "yes": 7200,
      "tri": 7201,
      "Ġ&=&": 7202,
      "~~~~": 7203,
      "ryst": 7204,
      "una": 7205,
      "ocated": 7206,
      "pg": 7207,
      "Ġcitiz": 7208,
      "Thus": 7209,
      "1918": 7210,
      "Ġbeyond": 7211,
      "chor": 7212,
      "ulf": 7213,
      "law": 7214,
      "Ġsingular": 7215,
      "amm": 7216,
      "Ġmetal": 7217,
      "Ġcycle": 7218,
      "Ġsched": 7219,
      "ĠSenate": 7220,
      "ĠHT": 7221,
      "Ġproceed": 7222,
      "zech": 7223,
      "icrosoft": 7224,
      "Ġmeasures": 7225,
      "Ġrisk": 7226,
      "Ġorganizations": 7227,
      "Ġmedian": 7228,
      "'.": 7229,
      "blue": 7230,
      "ĠHor": 7231,
      "Ġ$$": 7232,
      "hor": 7233,
      "thur": 7234,
      "Bo": 7235,
      "chers": 7236,
      "Ġindicates": 7237,
      "1938": 7238,
      "Ġtag": 7239,
      "ĠLab": 7240,
      "Ġhandle": 7241,
      "ĠBerlin": 7242,
      "ĠWay": 7243,
      "ransp": 7244,
      "alysis": 7245,
      "mb": 7246,
      "Right": 7247,
      "Ġrecall": 7248,
      "Ã¡n": 7249,
      "ĠChild": 7250,
      "Ġletter": 7251,
      "orough": 7252,
      "ĠĠĠĠĠĠĠĠĠĠĠĠĠĠĠĠĠĠĠĠĠĠĠĠĠĠĠĠĠĠĠĠĠĠĠ": 7253,
      "Ġoffered": 7254,
      "Ġpi": 7255,
      "enger": 7256,
      "ĠHREF": 7257,
      "Address": 7258,
      "Ġparties": 7259,
      "ascript": 7260,
      "Ġaxis": 7261,
      "itory": 7262,
      "mapsto": 7263,
      "Ġcompare": 7264,
      "ĠVan": 7265,
      "ais": 7266,
      "ĠSpe": 7267,
      "Ġjoin": 7268,
      "Ðº": 7269,
      "ĠAv": 7270,
      "Ġattract": 7271,
      "posite": 7272,
      "ĠRay": 7273,
      "ĠSpecial": 7274,
      "Ġefficient": 7275,
      "exec": 7276,
      "Ġsqu": 7277,
      "Ġpan": 7278,
      "zo": 7279,
      "ĠColor": 7280,
      "Ġtasks": 7281,
      "ĠInf": 7282,
      "Ġexchange": 7283,
      "teen": 7284,
      "Ġcoordinates": 7285,
      "ĠMiddle": 7286,
      "Ġregional": 7287,
      "Ġabsor": 7288,
      "Ġ{}": 7289,
      "|}": 7290,
      "Ġprep": 7291,
      "---": 7292,
      "bot": 7293,
      "acc": 7294,
      "ĠStation": 7295,
      "Listener": 7296,
      "Ġregime": 7297,
      "uint": 7298,
      "Column": 7299,
      "site": 7300,
      "ĠFar": 7301,
      "ni": 7302,
      "ibr": 7303,
      "Ġversions": 7304,
      "Section": 7305,
      "'}": 7306,
      "Current": 7307,
      "Ġinteractions": 7308,
      "ĠMany": 7309,
      "asure": 7310,
      "ĠSea": 7311,
      "ĠPlay": 7312,
      "mc": 7313,
      "should": 7314,
      "ga": 7315,
      "VER": 7316,
      "Sch": 7317,
      "pool": 7318,
      "ĠGaussian": 7319,
      "Ġrapid": 7320,
      "Ġearned": 7321,
      "Ġdead": 7322,
      "Types": 7323,
      "TYPE": 7324,
      "Ġappearances": 7325,
      "Mat": 7326,
      "Ġimprov": 7327,
      "ĠEgypt": 7328,
      ")_": 7329,
      "iger": 7330,
      "holds": 7331,
      "Ġasked": 7332,
      "ĠBroad": 7333,
      "ĠIslam": 7334,
      "Ġinterval": 7335,
      "While": 7336,
      "tik": 7337,
      "ART": 7338,
      "Ġtypical": 7339,
      "\"|": 7340,
      "Ã£": 7341,
      "common": 7342,
      "Ġnav": 7343,
      "Cast": 7344,
      "ĠMov": 7345,
      "World": 7346,
      "Ġmovie": 7347,
      "Ġscope": 7348,
      "Ġyields": 7349,
      "Server": 7350,
      "Ġalternative": 7351,
      "Container": 7352,
      "abil": 7353,
      "Ġhypot": 7354,
      "Ġpartition": 7355,
      "ĠBu": 7356,
      "Dev": 7357,
      "Ġtransformation": 7358,
      "Ġstrongly": 7359,
      "ĠWis": 7360,
      "Ġmeasurement": 7361,
      "ĠHong": 7362,
      "Ġawards": 7363,
      "ĠTre": 7364,
      "Ġspectra": 7365,
      "step": 7366,
      "Ġquickly": 7367,
      "ydney": 7368,
      "Ġconvergence": 7369,
      "ĠSecretary": 7370,
      "success": 7371,
      "alities": 7372,
      "Ġquite": 7373,
      "ĠST": 7374,
      "Ġmanaged": 7375,
      "Ġfort": 7376,
      "ĠModel": 7377,
      "}}^{": 7378,
      "ĠSu": 7379,
      "120": 7380,
      "Ġproviding": 7381,
      "udes": 7382,
      "returns": 7383,
      "Ġreceive": 7384,
      "Ġsociety": 7385,
      "ĠAlexander": 7386,
      "Ġmarked": 7387,
      "Ġyouth": 7388,
      "Ġdependence": 7389,
      "zy": 7390,
      "Ġpure": 7391,
      "Ġeastern": 7392,
      "Ġast": 7393,
      "Ġplans": 7394,
      "ynamic": 7395,
      "Ġepisodes": 7396,
      "++)": 7397,
      "Ġcommonly": 7398,
      "emble": 7399,
      "Ġdemand": 7400,
      "ĠDar": 7401,
      "Ġtests": 7402,
      "ĠCy": 7403,
      "Red": 7404,
      "ĠArgent": 7405,
      "Ġut": 7406,
      "ologist": 7407,
      "utenant": 7408,
      "IA": 7409,
      "uries": 7410,
      "Ġsupp": 7411,
      "proposition": 7412,
      "ĠSi": 7413,
      "Ġwall": 7414,
      "Ġbaseball": 7415,
      "Ġprimarily": 7416,
      "ĠArray": 7417,
      "Ġrevealed": 7418,
      "1937": 7419,
      "asy": 7420,
      "ĠLicense": 7421,
      "chester": 7422,
      "Background": 7423,
      "found": 7424,
      "Ġobserve": 7425,
      "Provider": 7426,
      "NAME": 7427,
      "ĠOp": 7428,
      "omorphic": 7429,
      "Ġcelebr": 7430,
      "Ġleaves": 7431,
      "Ġlen": 7432,
      "ĠDevelopment": 7433,
      "<?": 7434,
      "ective": 7435,
      "ĠTam": 7436,
      "Ġsusp": 7437,
      "Ġfre": 7438,
      "Ġdraft": 7439,
      "Ġvectors": 7440,
      "These": 7441,
      "Ġconcert": 7442,
      "EM": 7443,
      "ĠPoint": 7444,
      "cut": 7445,
      "Ġwidely": 7446,
      "********************************": 7447,
      "Ġtouch": 7448,
      "General": 7449,
      "ĠEst": 7450,
      "Entry": 7451,
      "peror": 7452,
      "aser": 7453,
      "ĠVictoria": 7454,
      "Button": 7455,
      "Music": 7456,
      "ĠTri": 7457,
      "Ġhar": 7458,
      "odot": 7459,
      "Ġmis": 7460,
      "ĠCommon": 7461,
      "ĠNight": 7462,
      "Ã¸": 7463,
      "ĠNS": 7464,
      "Ġtransferred": 7465,
      "otted": 7466,
      "Ġmarriage": 7467,
      "ĠKorea": 7468,
      "Ġpromoted": 7469,
      "fs": 7470,
      "Ġexpatriate": 7471,
      "mem": 7472,
      "ĠRegion": 7473,
      "Ġbuffer": 7474,
      "Url": 7475,
      "ĠCLASS": 7476,
      "Ġpriv": 7477,
      "Ġcat": 7478,
      "icine": 7479,
      "Austral": 7480,
      "ori": 7481,
      "VID": 7482,
      "itzer": 7483,
      "Ġfifth": 7484,
      "Cal": 7485,
      "ĠIslands": 7486,
      "Ġhouses": 7487,
      "ĠAD": 7488,
      "imation": 7489,
      "ests": 7490,
      "ographer": 7491,
      "$;": 7492,
      "ĠKey": 7493,
      "riptor": 7494,
      "Mult": 7495,
      "kit": 7496,
      "floor": 7497,
      "illy": 7498,
      "Ġsort": 7499,
      "Ġtroops": 7500,
      "Äį": 7501,
      "Ġreflect": 7502,
      "Ġprotest": 7503,
      "Pol": 7504,
      "ĠLittle": 7505,
      "vin": 7506,
      "Ġstellar": 7507,
      "ĠĠĠĠĠĠĠĠĠĠĠĠĠĠĠĠĠĠĠĠĠ": 7508,
      "Ġprobably": 7509,
      "Ġwinner": 7510,
      "Ġindicate": 7511,
      "Ġwav": 7512,
      "Will": 7513,
      "Ġcreation": 7514,
      "Ġorganized": 7515,
      "scill": 7516,
      "rovers": 7517,
      "ancing": 7518,
      "ĠUr": 7519,
      "Ġworkers": 7520,
      "Ġfair": 7521,
      "ĠBir": 7522,
      "Configuration": 7523,
      "Width": 7524,
      "rames": 7525,
      "Ġtesting": 7526,
      "Var": 7527,
      "Ġmerg": 7528,
      "parse": 7529,
      "VD": 7530,
      "Ġmorph": 7531,
      "ennes": 7532,
      "Ġdifferences": 7533,
      "Ġblocks": 7534,
      "ĠOlympic": 7535,
      "ĠHospital": 7536,
      "Ġasympt": 7537,
      "Association": 7538,
      "ronze": 7539,
      "ĠWilson": 7540,
      "ruck": 7541,
      "ĠEliz": 7542,
      "iced": 7543,
      "Ġthr": 7544,
      "Ġsuggested": 7545,
      "University": 7546,
      "QL": 7547,
      "dest": 7548,
      "ĠCorn": 7549,
      "ĠJes": 7550,
      "Ġdiscussion": 7551,
      "yo": 7552,
      "Ġsecondary": 7553,
      "ĠAndrew": 7554,
      "results": 7555,
      "'(": 7556,
      "ĠMot": 7557,
      "Ġcoming": 7558,
      "olicy": 7559,
      "ĠStand": 7560,
      "room": 7561,
      "ito": 7562,
      "Ġalleg": 7563,
      "picture": 7564,
      "Ġprogramming": 7565,
      "Ġowner": 7566,
      "bre": 7567,
      "Ġhospital": 7568,
      "root": 7569,
      "tikz": 7570,
      "ĠFour": 7571,
      "Ġsaying": 7572,
      "ĠWall": 7573,
      "amber": 7574,
      "Personal": 7575,
      "Ġdifferential": 7576,
      "Ġassociation": 7577,
      "ĠBell": 7578,
      "ipage": 7579,
      "Ġacting": 7580,
      "ĠAPI": 7581,
      "weg": 7582,
      "ĠKen": 7583,
      "Ġtold": 7584,
      "MR": 7585,
      "ĠAssert": 7586,
      "models": 7587,
      "Ġmodified": 7588,
      "Ġwanted": 7589,
      "Ġheart": 7590,
      "sor": 7591,
      "ĠOfficial": 7592,
      "PA": 7593,
      "Exec": 7594,
      "dule": 7595,
      ")},": 7596,
      "opher": 7597,
      "rank": 7598,
      "ĠBC": 7599,
      "Ġfriends": 7600,
      "Ġdetailed": 7601,
      "iated": 7602,
      "Acc": 7603,
      "Ġopport": 7604,
      "ĠRegiment": 7605,
      "Ġoptical": 7606,
      "1935": 7607,
      "So": 7608,
      "Ġdrug": 7609,
      "Ġuns": 7610,
      "high": 7611,
      "henomen": 7612,
      "ĠFollowing": 7613,
      "aved": 7614,
      "ĠJackson": 7615,
      "}%": 7616,
      "GC": 7617,
      "leton": 7618,
      "Ġenter": 7619,
      "Ġgun": 7620,
      "minipage": 7621,
      "(_": 7622,
      "layout": 7623,
      "Ġstories": 7624,
      "ĠBrook": 7625,
      "images": 7626,
      "\\{\\": 7627,
      "depend": 7628,
      "Ġ<!--": 7629,
      "Ġrepresenting": 7630,
      "ponential": 7631,
      "Ġconstitu": 7632,
      "newcommand": 7633,
      "1919": 7634,
      "ĠÎ": 7635,
      "CK": 7636,
      "HO": 7637,
      "Ġgoes": 7638,
      "ilibrium": 7639,
      "Ġfavor": 7640,
      "Pat": 7641,
      "ĠPolice": 7642,
      "emet": 7643,
      "ogg": 7644,
      "ctu": 7645,
      "Cor": 7646,
      "Tag": 7647,
      "Ġcommunication": 7648,
      "You": 7649,
      "mode": 7650,
      "Ġissued": 7651,
      "Ġidentify": 7652,
      "Ġneighborhood": 7653,
      "Ġfeel": 7654,
      "notes": 7655,
      "Target": 7656,
      "Stat": 7657,
      "Layout": 7658,
      "Ġcultural": 7659,
      "Ġuint": 7660,
      "Update": 7661,
      "phia": 7662,
      "Ġintended": 7663,
      "Polit": 7664,
      "ĠPubl": 7665,
      "uous": 7666,
      "Ġconfirmed": 7667,
      "zer": 7668,
      "aret": 7669,
      "Ġmaterials": 7670,
      "Ġfellow": 7671,
      "Ġprovince": 7672,
      "ĠCat": 7673,
      "Ġchannels": 7674,
      ":\"": 7675,
      "Ġcaptured": 7676,
      "Ġpix": 7677,
      "iate": 7678,
      "^{+": 7679,
      "ĠPen": 7680,
      "ĠElect": 7681,
      "control": 7682,
      "Ġnotation": 7683,
      "omer": 7684,
      "zh": 7685,
      "TC": 7686,
      "Ġpra": 7687,
      "Write": 7688,
      "ĠBBC": 7689,
      "Ġresist": 7690,
      "TI": 7691,
      "also": 7692,
      ")\"": 7693,
      "Process": 7694,
      "mediate": 7695,
      "bal": 7696,
      "ĠWild": 7697,
      "ĠRepublican": 7698,
      "Ġnuclear": 7699,
      "two": 7700,
      "Location": 7701,
      "Ġdegrees": 7702,
      "Ġpp": 7703,
      "Ġcomposition": 7704,
      "ucky": 7705,
      "such": 7706,
      "Ġdelay": 7707,
      "pir": 7708,
      "conn": 7709,
      "Ġaccepted": 7710,
      "Frame": 7711,
      "Ġdedicated": 7712,
      "Ġcert": 7713,
      "Ġargs": 7714,
      "ntario": 7715,
      "etherlands": 7716,
      "stable": 7717,
      "agers": 7718,
      "template": 7719,
      "Ġinstr": 7720,
      "Ġcouncil": 7721,
      "Ġachieve": 7722,
      "uting": 7723,
      "ĠGener": 7724,
      "ĠRaj": 7725,
      "Ġallowing": 7726,
      "ĠWater": 7727,
      "token": 7728,
      "ĠCall": 7729,
      "javascript": 7730,
      "Ġhol": 7731,
      "rome": 7732,
      "BO": 7733,
      "ĠBa": 7734,
      "Ġattacks": 7735,
      "ĠâĢĺ": 7736,
      "1914": 7737,
      "$~": 7738,
      "ĠBoy": 7739,
      "Ġattribute": 7740,
      "Ġoscill": 7741,
      "igration": 7742,
      "Ġsal": 7743,
      "ĠVill": 7744,
      "bool": 7745,
      "Unit": 7746,
      "Ġalongside": 7747,
      "Ġ{};": 7748,
      "ĠLight": 7749,
      "'),": 7750,
      "alion": 7751,
      "ropical": 7752,
      "ĠRead": 7753,
      "Ġvoice": 7754,
      "aki": 7755,
      "ĠBi": 7756,
      ")+\\": 7757,
      "ĠTechnology": 7758,
      "Ġlives": 7759,
      "arrier": 7760,
      "inson": 7761,
      "adelphia": 7762,
      "Ġproport": 7763,
      "Non": 7764,
      "Ġaccur": 7765,
      "Ġsays": 7766,
      "Ġoil": 7767,
      "match": 7768,
      "Ġfirm": 7769,
      "ibliography": 7770,
      "Ġlayers": 7771,
      "ĠBand": 7772,
      "Ġextrem": 7773,
      "ashion": 7774,
      "formed": 7775,
      "Gl": 7776,
      "Ġgraduated": 7777,
      "ĠMap": 7778,
      "Ġbehavi": 7779,
      "Ġexecutive": 7780,
      "ĠPrize": 7781,
      "ĠSydney": 7782,
      "}&": 7783,
      "ĠMinistry": 7784,
      "MO": 7785,
      "arc": 7786,
      "anth": 7787,
      "adian": 7788,
      "PL": 7789,
      "Ġnewspaper": 7790,
      "ĠHome": 7791,
      "Ġsatisfy": 7792,
      "Ġthreshold": 7793,
      "ĠBon": 7794,
      "ĠBatt": 7795,
      "direct": 7796,
      "Ġoperating": 7797,
      "onical": 7798,
      "}}$,": 7799,
      "%)": 7800,
      "tach": 7801,
      "Ġarrived": 7802,
      "nic": 7803,
      "Direct": 7804,
      "cale": 7805,
      "Ġrough": 7806,
      "()->": 7807,
      "Left": 7808,
      "Ġprincipal": 7809,
      "Ġfeaturing": 7810,
      "Ġmagnitude": 7811,
      "Long": 7812,
      "acent": 7813,
      "bec": 7814,
      "Ġconsec": 7815,
      "ĠViet": 7816,
      "ĠTaylor": 7817,
      "Ġinstrument": 7818,
      "Ġmill": 7819,
      "Ã£o": 7820,
      "Ġtechnique": 7821,
      "Ġoptimization": 7822,
      "frame": 7823,
      "parameter": 7824,
      "Ġoccurred": 7825,
      "Ġpseud": 7826,
      "}}$.": 7827,
      "Ġgap": 7828,
      "ervative": 7829,
      "Order": 7830,
      "Ġassistant": 7831,
      "ĠHand": 7832,
      "hy": 7833,
      "Ġideal": 7834,
      "Ġcosm": 7835,
      "\\)": 7836,
      "sch": 7837,
      "window": 7838,
      "Ġreduction": 7839,
      "reference": 7840,
      "1929": 7841,
      "ĠAff": 7842,
      "ĠKorean": 7843,
      "Ġconvex": 7844,
      "Ġsector": 7845,
      "ĠFile": 7846,
      "Ġrare": 7847,
      "Ġshowing": 7848,
      "raine": 7849,
      "akh": 7850,
      "Ġobservation": 7851,
      "My": 7852,
      "```": 7853,
      "tan": 7854,
      "ĠMethod": 7855,
      "Ġlot": 7856,
      "1928": 7857,
      "Ġsettings": 7858,
      "fa": 7859,
      "eness": 7860,
      "Utils": 7861,
      "Ġminimal": 7862,
      "ĠSports": 7863,
      "ami": 7864,
      "})$,": 7865,
      "ĠLim": 7866,
      "ĠSund": 7867,
      "require": 7868,
      "1933": 7869,
      "COL": 7870,
      "Ġowners": 7871,
      "Ġlisting": 7872,
      "maz": 7873,
      "Ġsoldiers": 7874,
      "Ġappropriate": 7875,
      "ĠBrig": 7876,
      "Interface": 7877,
      "Ġefforts": 7878,
      "Ġguarant": 7879,
      "establ": 7880,
      "ĠDaniel": 7881,
      "Ġprominent": 7882,
      "Ġtraffic": 7883,
      "Ġtrial": 7884,
      "Ġfrag": 7885,
      "ologies": 7886,
      "spe": 7887,
      "ĠHamiltonian": 7888,
      "document": 7889,
      "Ġnarrow": 7890,
      "ctx": 7891,
      "Ġsilver": 7892,
      "2023": 7893,
      "1934": 7894,
      "Ġdiss": 7895,
      "Ġways": 7896,
      "Ġtemplate": 7897,
      "ĠSom": 7898,
      "ĠKenn": 7899,
      "watch": 7900,
      "ĠPower": 7901,
      "ĠRod": 7902,
      "ĠÂ£": 7903,
      "defined": 7904,
      "Ġfailure": 7905,
      "task": 7906,
      "1917": 7907,
      "Callback": 7908,
      "ĠLag": 7909,
      "fri": 7910,
      "Ġnet": 7911,
      "ĠAirport": 7912,
      "ĠCommand": 7913,
      "Ġacts": 7914,
      ")-\\": 7915,
      "sect": 7916,
      "Ġprediction": 7917,
      "Ġdigital": 7918,
      ")}_{": 7919,
      "ĠEp": 7920,
      "Ġsculpt": 7921,
      "Ġvertical": 7922,
      "ĠLo": 7923,
      "vas": 7924,
      "Ġgraphs": 7925,
      "ĠFinally": 7926,
      "mitted": 7927,
      "Ġlocations": 7928,
      "1910": 7929,
      "South": 7930,
      "power": 7931,
      "Ã©e": 7932,
      "Script": 7933,
      "Ġnucle": 7934,
      "Ġhonor": 7935,
      "Ġarticles": 7936,
      "|_{": 7937,
      "ĠReturns": 7938,
      "Ġkernel": 7939,
      "ĠSciences": 7940,
      "bourne": 7941,
      "Ġgradient": 7942,
      "orning": 7943,
      "Ġwinners": 7944,
      "ĠAk": 7945,
      "apes": 7946,
      "consin": 7947,
      "Dat": 7948,
      "ĠRog": 7949,
      "jected": 7950,
      "uv": 7951,
      "ĠThree": 7952,
      "ĠLes": 7953,
      "Ġsomething": 7954,
      "Di": 7955,
      "apped": 7956,
      "Ġresidents": 7957,
      "Ġspl": 7958,
      "ometry": 7959,
      "ymp": 7960,
      "drop": 7961,
      "Ġgain": 7962,
      "Ġbounds": 7963,
      "%;": 7964,
      "Ġreson": 7965,
      "phas": 7966,
      "Sum": 7967,
      "ĠJeff": 7968,
      "fn": 7969,
      "rapper": 7970,
      "cular": 7971,
      "Ġbomb": 7972,
      "CODE": 7973,
      "Ġobj": 7974,
      "coming": 7975,
      "Ġdepending": 7976,
      "Que": 7977,
      "1932": 7978,
      "PU": 7979,
      "eld": 7980,
      "ĠJustice": 7981,
      "Ġcrew": 7982,
      "Ġcandidates": 7983,
      "ĠInitial": 7984,
      "chestra": 7985,
      "ĠFI": 7986,
      "etails": 7987,
      "Ġfloat": 7988,
      "odies": 7989,
      "Ġlett": 7990,
      "cccc": 7991,
      "Ġsend": 7992,
      "make": 7993,
      "ĠSupreme": 7994,
      "ĠFurthermore": 7995,
      "NE": 7996,
      "Bundle": 7997,
      "ĠQueens": 7998,
      "Ġexpanded": 7999,
      "Ġrise": 8000,
      "Ġheat": 8001,
      "ĠPlan": 8002,
      "Ġancient": 8003,
      "Ġthings": 8004,
      "erc": 8005,
      "Op": 8006,
      "Ag": 8007,
      "Control": 8008,
      "ĠOt": 8009,
      "1900": 8010,
      "Ġsport": 8011,
      "sd": 8012,
      "ãĤ": 8013,
      "Range": 8014,
      "sv": 8015,
      "Ġbeam": 8016,
      "Second": 8017,
      "ĠAnother": 8018,
      "Ġagreed": 8019,
      "sex": 8020,
      "Ġorders": 8021,
      "Ġathlet": 8022,
      "Lem": 8023,
      "Ġpurs": 8024,
      "Mark": 8025,
      "ĠCorporation": 8026,
      "Ġdeploy": 8027,
      "ĠEconom": 8028,
      "Ġ$.": 8029,
      "Enc": 8030,
      "perial": 8031,
      "Ġtheoretical": 8032,
      "Ġfine": 8033,
      "DS": 8034,
      "Access": 8035,
      "osl": 8036,
      "ĠFederal": 8037,
      "None": 8038,
      "ĠMedia": 8039,
      "ĠRoute": 8040,
      "Ġven": 8041,
      "ĠAvenue": 8042,
      "]);": 8043,
      "ĠOntario": 8044,
      "Ġdimensions": 8045,
      "styles": 8046,
      "ĠSwedish": 8047,
      "ĠBab": 8048,
      "Ġinduced": 8049,
      "EQ": 8050,
      "water": 8051,
      "DA": 8052,
      "Ġinh": 8053,
      "hol": 8054,
      "ĠAnton": 8055,
      "rane": 8056,
      "Ġseem": 8057,
      "Ġacademic": 8058,
      "ĠOs": 8059,
      "quarters": 8060,
      "Ġdescribes": 8061,
      "mma": 8062,
      "Ġdatabase": 8063,
      "Ġseems": 8064,
      "Ġhtt": 8065,
      "kes": 8066,
      "Ġpartners": 8067,
      "Ġera": 8068,
      "Ġsides": 8069,
      "ĠJoe": 8070,
      "Ġgr": 8071,
      "1922": 8072,
      "imary": 8073,
      "_-": 8074,
      "Ġdiam": 8075,
      "ĠAsh": 8076,
      "anta": 8077,
      "Ġrenamed": 8078,
      "ĠRome": 8079,
      "Ġrugby": 8080,
      "Header": 8081,
      "Ġplanned": 8082,
      "allow": 8083,
      "ĠCambridge": 8084,
      "Ġcapture": 8085,
      "Ġfreedom": 8086,
      "ads": 8087,
      "Ġrotation": 8088,
      "tw": 8089,
      "Ġphysics": 8090,
      "ĠGuard": 8091,
      "olitan": 8092,
      "Ġlargely": 8093,
      "wegian": 8094,
      "Do": 8095,
      "ĠRevolution": 8096,
      "Ġtwice": 8097,
      "orship": 8098,
      "That": 8099,
      "Ġphenomen": 8100,
      "ometric": 8101,
      "Ġclean": 8102,
      "Ġ..": 8103,
      "ĠElizabeth": 8104,
      "Ġadministrative": 8105,
      "Ġwor": 8106,
      "displaystyle": 8107,
      "Ġpit": 8108,
      "Ġweap": 8109,
      "Ġcreating": 8110,
      ":</": 8111,
      "ĠLew": 8112,
      "Ġnotable": 8113,
      "250": 8114,
      "1927": 8115,
      "ĠPrime": 8116,
      "ĠAthlet": 8117,
      "Post": 8118,
      "ĠName": 8119,
      "Ġsubsequent": 8120,
      "ĠMedal": 8121,
      "cong": 8122,
      "ogeneous": 8123,
      "Ġroles": 8124,
      "hbar": 8125,
      "ĠTok": 8126,
      "1924": 8127,
      "opes": 8128,
      "DP": 8129,
      "Ġangular": 8130,
      "ĠJon": 8131,
      "Ġemployed": 8132,
      "yal": 8133,
      "ĠBad": 8134,
      "Ġraces": 8135,
      "legate": 8136,
      "ĠTod": 8137,
      "Open": 8138,
      "ilbert": 8139,
      "ĠNations": 8140,
      "1931": 8141,
      "cp": 8142,
      "jan": 8143,
      "Record": 8144,
      "Ġtranslation": 8145,
      "hard": 8146,
      "lesssim": 8147,
      ":}": 8148,
      "Ġbin": 8149,
      "Ġmusicians": 8150,
      "Ġchemical": 8151,
      "Tree": 8152,
      "Ġcomplexity": 8153,
      "Ġlimits": 8154,
      "Ġvisit": 8155,
      "Ġadministration": 8156,
      "ĠNetherlands": 8157,
      "buffer": 8158,
      "islative": 8159,
      "Ġca": 8160,
      "Ġdisease": 8161,
      "Ġparticipated": 8162,
      "ZE": 8163,
      "utt": 8164,
      "ci": 8165,
      "Ġcov": 8166,
      "Ġgalaxy": 8167,
      "ults": 8168,
      "Ġmountain": 8169,
      "Ġdestroyed": 8170,
      "ambig": 8171,
      "Ġimportance": 8172,
      "owa": 8173,
      "Ġwhereas": 8174,
      "Ġstorage": 8175,
      "IST": 8176,
      "Ġconclude": 8177,
      "His": 8178,
      "Ġperforming": 8179,
      "Ġlie": 8180,
      "}{|": 8181,
      "Ġhouseholds": 8182,
      "ĠHuman": 8183,
      "Operation": 8184,
      "Ġstack": 8185,
      "imb": 8186,
      "ĠMarg": 8187,
      "Ġtrees": 8188,
      "Ġthermal": 8189,
      "German": 8190,
      "hing": 8191,
      "eman": 8192,
      "Properties": 8193,
      "Ġwhy": 8194,
      "ĠNC": 8195,
      "TS": 8196,
      "mass": 8197,
      "Ġabsolute": 8198,
      "ĠOF": 8199,
      "Public": 8200,
      "Ġwing": 8201,
      "Introduction": 8202,
      "Ġimproved": 8203,
      "Biography": 8204,
      "Ġofficially": 8205,
      "cknowled": 8206,
      "ĠToronto": 8207,
      "International": 8208,
      "Definition": 8209,
      "Ġfundamental": 8210,
      "athan": 8211,
      "########": 8212,
      "Ġhttps": 8213,
      "[(": 8214,
      "ĠVen": 8215,
      "Ġoffers": 8216,
      "hedral": 8217,
      "$),": 8218,
      "called": 8219,
      "oned": 8220,
      "eces": 8221,
      "ĠPass": 8222,
      "Ġhundred": 8223,
      "cref": 8224,
      "ĠPeak": 8225,
      "Ġwait": 8226,
      "Ġstrateg": 8227,
      "ĠPremier": 8228,
      "Ġodd": 8229,
      "ĠUsing": 8230,
      "ĠDer": 8231,
      "Ġfigures": 8232,
      "Ġsurn": 8233,
      "ierarch": 8234,
      "Ġgeometry": 8235,
      "Song": 8236,
      "uses": 8237,
      "disc": 8238,
      "brace": 8239,
      "Ġunderstand": 8240,
      "Ġbands": 8241,
      "Ġreviews": 8242,
      "pute": 8243,
      "Ġrural": 8244,
      "Ġcoal": 8245,
      "holder": 8246,
      "Ġprime": 8247,
      "ĠSa": 8248,
      "Ġconj": 8249,
      "Ġclearly": 8250,
      "Ġcompl": 8251,
      "))$": 8252,
      "udio": 8253,
      "Ġmasses": 8254,
      "ĠĠĠĠĠĠĠĠĠĠĠĠĠĠĠĠĠĠĠĠ": 8255,
      "Ġvotes": 8256,
      "Ġ::": 8257,
      "bel": 8258,
      "Sk": 8259,
      "Ġnation": 8260,
      "urer": 8261,
      "Ġcouple": 8262,
      "construction": 8263,
      "ĠCreate": 8264,
      "Ident": 8265,
      "ĠCa": 8266,
      "hetic": 8267,
      "Ġrepro": 8268,
      "ĠMuslim": 8269,
      "ĠVis": 8270,
      "Ġcomputation": 8271,
      "Ġchampion": 8272,
      "Ġrect": 8273,
      "Ġ$|\\": 8274,
      "Ġdevices": 8275,
      "afe": 8276,
      "forward": 8277,
      "ĠGro": 8278,
      "Ġsolo": 8279,
      "Ġpull": 8280,
      "Ġpropos": 8281,
      "mi": 8282,
      "Ġtal": 8283,
      "Ġfloor": 8284,
      "Ġdeliver": 8285,
      "ĠOrgan": 8286,
      "Ġexc": 8287,
      "ĠAcc": 8288,
      "Module": 8289,
      "III": 8290,
      "}({\\": 8291,
      "Ġencou": 8292,
      "Ġscattering": 8293,
      "iang": 8294,
      "Ġdeclared": 8295,
      "raq": 8296,
      "Ġengineering": 8297,
      "Ġpiece": 8298,
      "Ġpartner": 8299,
      "Ġaggreg": 8300,
      "ĠMaster": 8301,
      "Olymp": 8302,
      "Ġflight": 8303,
      "uing": 8304,
      "Ġlabor": 8305,
      "Ġmathemat": 8306,
      "Ġalone": 8307,
      "ĠCommunity": 8308,
      "anga": 8309,
      "HS": 8310,
      "Ġinfinite": 8311,
      "obs": 8312,
      "}$)": 8313,
      "Ġsuccessfully": 8314,
      "ootst": 8315,
      "Ġparish": 8316,
      ")--": 8317,
      "Ġly": 8318,
      "ĠSerb": 8319,
      "]}": 8320,
      "Ġpal": 8321,
      "elligence": 8322,
      "ĠUSA": 8323,
      "lyn": 8324,
      "Ġassess": 8325,
      "French": 8326,
      "Ġshell": 8327,
      "vo": 8328,
      "agon": 8329,
      "arse": 8330,
      "ĠWisconsin": 8331,
      "1925": 8332,
      "KE": 8333,
      "Ġserial": 8334,
      "1912": 8335,
      "Ġcalls": 8336,
      "DR": 8337,
      "ĠKal": 8338,
      "ĠProfessor": 8339,
      "ĠRen": 8340,
      "emetery": 8341,
      "Ġminister": 8342,
      "Ġ>=": 8343,
      "Ġinsert": 8344,
      "ĠTurk": 8345,
      "nesota": 8346,
      "ĠDE": 8347,
      "riev": 8348,
      "lan": 8349,
      "ĠAst": 8350,
      "clip": 8351,
      "Position": 8352,
      "Ġroll": 8353,
      "Ġraise": 8354,
      "Ñĥ": 8355,
      "udget": 8356,
      "aska": 8357,
      "Ġreports": 8358,
      "rog": 8359,
      "itness": 8360,
      "rie": 8361,
      "aux": 8362,
      "osa": 8363,
      "ĠDespite": 8364,
      "render": 8365,
      "Ġnewly": 8366,
      "ĠCub": 8367,
      "ogen": 8368,
      "poss": 8369,
      "XX": 8370,
      "Ġserves": 8371,
      "ego": 8372,
      "Ġkept": 8373,
      "Prot": 8374,
      "Ġadding": 8375,
      "Ġisol": 8376,
      "1921": 8377,
      "aren": 8378,
      "Go": 8379,
      "Ġamplitude": 8380,
      "Ġtail": 8381,
      "1926": 8382,
      "points": 8383,
      "Http": 8384,
      "Entity": 8385,
      "Ġgrew": 8386,
      "Ġfunctional": 8387,
      "ĠBrad": 8388,
      "ĠMinnesota": 8389,
      "Using": 8390,
      "Ġorth": 8391,
      "appe": 8392,
      "Ġlum": 8393,
      "ĠMember": 8394,
      "Ġcomputational": 8395,
      "ello": 8396,
      "Ġdenoted": 8397,
      "opic": 8398,
      "Ġfacilities": 8399,
      "PECT": 8400,
      "former": 8401,
      "ĠDuke": 8402,
      "Empty": 8403,
      "Ġscales": 8404,
      "resource": 8405,
      "Ġcaptain": 8406,
      "ĠUs": 8407,
      "algorithm": 8408,
      "Ġdecomposition": 8409,
      "condition": 8410,
      ".âĢĿ": 8411,
      "ymmetric": 8412,
      "organ": 8413,
      "ĠĠĠĠĠĠĠĠĠĠĠĠĠĠĠĠĠĠĠĠĠĠĠĠĠĠĠĠĠĠĠĠĠĠĠĠĠĠĠĠĠĠĠĠĠĠĠĠĠĠĠĠĠĠĠĠĠĠĠĠĠĠĠĠ": 8414,
      "Ġsurrounding": 8415,
      "Document": 8416,
      "dfrac": 8417,
      "ĠSab": 8418,
      "internal": 8419,
      "Women": 8420,
      "sey": 8421,
      "ootstrap": 8422,
      "Ġadvantage": 8423,
      "ĠGL": 8424,
      "ĠUN": 8425,
      "Connection": 8426,
      "Ġstreet": 8427,
      "dem": 8428,
      "Ġdetail": 8429,
      "HP": 8430,
      "ĠCur": 8431,
      "ĠForest": 8432,
      "Ġmedium": 8433,
      "ĠSanta": 8434,
      "Ġspring": 8435,
      "ĠSher": 8436,
      "Ġtitles": 8437,
      "ĠFair": 8438,
      "Therefore": 8439,
      "umes": 8440,
      "Json": 8441,
      "Ġtechnical": 8442,
      "Dir": 8443,
      "efe": 8444,
      "Level": 8445,
      "Ġconsisting": 8446,
      "ĠPhys": 8447,
      "ĠHay": 8448,
      "Ġequipment": 8449,
      "Dom": 8450,
      ",$": 8451,
      "Ġmassive": 8452,
      "worth": 8453,
      "Ġcharacteristic": 8454,
      "Ġorbit": 8455,
      "Ġcancer": 8456,
      "Ġprocessing": 8457,
      "Ġplants": 8458,
      "Ġextend": 8459,
      "Ġmedalists": 8460,
      "ĠPakistan": 8461,
      "itled": 8462,
      "leep": 8463,
      "uli": 8464,
      "Ġunderstanding": 8465,
      "Ġefficiency": 8466,
      "Ġdriver": 8467,
      "oor": 8468,
      "full": 8469,
      "iki": 8470,
      "shot": 8471,
      "ĠWalk": 8472,
      "Dr": 8473,
      "ATION": 8474,
      "ĠPhiladelphia": 8475,
      "Awards": 8476,
      "olis": 8477,
      "Ġperman": 8478,
      "Ġlabels": 8479,
      "Ġpool": 8480,
      "Some": 8481,
      "Ġsure": 8482,
      "Ġreasons": 8483,
      "Ġtempor": 8484,
      "Ġfinish": 8485,
      "anges": 8486,
      "bigl": 8487,
      "Ġspirit": 8488,
      "legal": 8489,
      "angular": 8490,
      "ĠBol": 8491,
      "lig": 8492,
      "Thread": 8493,
      "ĠDisc": 8494,
      "}{(": 8495,
      "itivity": 8496,
      "rage": 8497,
      "ĠAR": 8498,
      "DD": 8499,
      "ĠSus": 8500,
      "urches": 8501,
      "Ġbr": 8502,
      "Ġimplemented": 8503,
      "Ġpsych": 8504,
      "Ġhosted": 8505,
      "Ġapparent": 8506,
      "estic": 8507,
      "ĠCirc": 8508,
      "zen": 8509,
      "lementary": 8510,
      "going": 8511,
      "ĠTai": 8512,
      "Ġcollected": 8513,
      "Ãº": 8514,
      ":=": 8515,
      "ĠCzech": 8516,
      "ultane": 8517,
      "Async": 8518,
      "ĠBaron": 8519,
      "Ġmotor": 8520,
      "Ġdance": 8521,
      "nections": 8522,
      "arr": 8523,
      "%%": 8524,
      "Ġuncertainty": 8525,
      "Ġcopies": 8526,
      "Ġconference": 8527,
      "Ġcalculation": 8528,
      "Ġrepresentative": 8529,
      "Ġcontrovers": 8530,
      "1923": 8531,
      "ĠStephen": 8532,
      "asty": 8533,
      "ĠLady": 8534,
      "andra": 8535,
      "Ġinvolving": 8536,
      "amin": 8537,
      "ĠMath": 8538,
      "Ġconsidering": 8539,
      "agnetic": 8540,
      "Ġpet": 8541,
      "aml": 8542,
      "formance": 8543,
      "ĠSweden": 8544,
      "ĠPers": 8545,
      "osis": 8546,
      "&=&": 8547,
      "$:": 8548,
      "ĠAli": 8549,
      "ĠBishop": 8550,
      "Each": 8551,
      "yard": 8552,
      "Ġsubgroup": 8553,
      "ĠExt": 8554,
      "living": 8555,
      "ĠStadium": 8556,
      "ĠExec": 8557,
      "Ġtoken": 8558,
      "SH": 8559,
      "ĠIndust": 8560,
      "Olympic": 8561,
      "Height": 8562,
      "Ġdefeat": 8563,
      "Expression": 8564,
      "Ġperfect": 8565,
      "ĠKir": 8566,
      "Ġstarts": 8567,
      "Ġemphas": 8568,
      "IGN": 8569,
      "ĠRom": 8570,
      "Ġresulted": 8571,
      "Ġclusters": 8572,
      "Ġperformances": 8573,
      "Ġener": 8574,
      "ĠTownship": 8575,
      "pet": 8576,
      "othing": 8577,
      "ĠSem": 8578,
      "Ġvisible": 8579,
      "Ġmatching": 8580,
      "ĠMarsh": 8581,
      "Ġrobust": 8582,
      "1916": 8583,
      "Ġlocally": 8584,
      "inus": 8585,
      "ĠBridge": 8586,
      "Ġpolic": 8587,
      "ussion": 8588,
      "Option": 8589,
      "Ġprinciple": 8590,
      "idel": 8591,
      "istent": 8592,
      "Ġlab": 8593,
      "Ġprice": 8594,
      "110": 8595,
      "Ġagric": 8596,
      "mad": 8597,
      "Ġmapping": 8598,
      "Ġdatasets": 8599,
      "Ġdamage": 8600,
      "artifact": 8601,
      "short": 8602,
      "allet": 8603,
      "special": 8604,
      "hs": 8605,
      "cache": 8606,
      "Ġ[\\": 8607,
      "Ġcitizens": 8608,
      "Ġnamely": 8609,
      "Ġgirl": 8610,
      "ĠSquad": 8611,
      "ighth": 8612,
      "Ġincident": 8613,
      ">,": 8614,
      "Ġinstitutions": 8615,
      "regon": 8616,
      "ĠIV": 8617,
      "Collection": 8618,
      "Ġgets": 8619,
      "ĠMike": 8620,
      "Ġcoefficient": 8621,
      "Ġweights": 8622,
      "Ġhole": 8623,
      "Ġswim": 8624,
      "Ġevaluation": 8625,
      "pot": 8626,
      "ĠDoug": 8627,
      "Hash": 8628,
      "types": 8629,
      "Ġ**": 8630,
      "Ġhistoric": 8631,
      "Ġvariation": 8632,
      "VAL": 8633,
      "Ġaffect": 8634,
      "Ġcalculations": 8635,
      "ĠBecause": 8636,
      "Ġsummar": 8637,
      "Ġdesired": 8638,
      "aga": 8639,
      "ipeline": 8640,
      "\"))": 8641,
      "Ġends": 8642,
      "Cent": 8643,
      "Finally": 8644,
      "sear": 8645,
      "Ġtalk": 8646,
      "Ġlemma": 8647,
      "Host": 8648,
      "Ġattend": 8649,
      ")}}": 8650,
      "global": 8651,
      "Ġbegins": 8652,
      "tfrac": 8653,
      "Ġtool": 8654,
      "Ġlock": 8655,
      "ĠBusiness": 8656,
      "imately": 8657,
      "May": 8658,
      "omot": 8659,
      "Ġhidden": 8660,
      "CF": 8661,
      "bigr": 8662,
      "600": 8663,
      "Main": 8664,
      "Ġrecognition": 8665,
      "ĠCas": 8666,
      "=\"_": 8667,
      "ĠStudies": 8668,
      "scape": 8669,
      "endar": 8670,
      "restling": 8671,
      "fields": 8672,
      "Ġcomposer": 8673,
      "orney": 8674,
      "Ġaffili": 8675,
      "ĠOrig": 8676,
      "ĠConf": 8677,
      "Ġfemales": 8678,
      "Impl": 8679,
      "Reference": 8680,
      "icial": 8681,
      "Ġgrowing": 8682,
      "herent": 8683,
      "Ġsuggests": 8684,
      "Ġtheme": 8685,
      "Ġdiscrete": 8686,
      "1915": 8687,
      "Change": 8688,
      "'re": 8689,
      "green": 8690,
      "ĠOR": 8691,
      "HL": 8692,
      "Params": 8693,
      "cha": 8694,
      "Ġouter": 8695,
      "Ġtraject": 8696,
      "Down": 8697,
      "Ġgained": 8698,
      "Ġengineer": 8699,
      "ĠReview": 8700,
      "Ġthous": 8701,
      "ĠChris": 8702,
      "Ġcoordinate": 8703,
      "wing": 8704,
      "Ġlaunch": 8705,
      "Ġtowns": 8706,
      "pective": 8707,
      "ĠWinter": 8708,
      "kh": 8709,
      "conv": 8710,
      "Ġoverride": 8711,
      "joint": 8712,
      "ĠFinal": 8713,
      "Ġcars": 8714,
      "ĠDam": 8715,
      "]$.": 8716,
      "Ġpurchased": 8717,
      "ĠJoh": 8718,
      "Following": 8719,
      "Ġcache": 8720,
      "Ġexponential": 8721,
      "anna": 8722,
      "Nov": 8723,
      "cow": 8724,
      "ropolitan": 8725,
      "ĠAddition": 8726,
      "illery": 8727,
      "Ġinspired": 8728,
      "master": 8729,
      "ĠMcC": 8730,
      "ben": 8731,
      "ĠKim": 8732,
      "BL": 8733,
      "Ġvehicles": 8734,
      "Ġcancell": 8735,
      "Ġrecognized": 8736,
      "}\\,\\": 8737,
      "ouch": 8738,
      "send": 8739,
      "ĠWat": 8740,
      "ĠMissouri": 8741,
      "Ġblood": 8742,
      "ritical": 8743,
      "Ġtend": 8744,
      "ĠWin": 8745,
      "phant": 8746,
      "Ġbeat": 8747,
      "Ġfinding": 8748,
      "Vol": 8749,
      "Ġheav": 8750,
      "Ġindustrial": 8751,
      "Ġterritory": 8752,
      "rizona": 8753,
      "outheast": 8754,
      "Ġclaims": 8755,
      "Ġpiano": 8756,
      "Ġseconds": 8757,
      "Rad": 8758,
      "season": 8759,
      "Ġacceler": 8760,
      "Ġdetect": 8761,
      "ĠFire": 8762,
      "Ġpeace": 8763,
      "Ġion": 8764,
      "ĠException": 8765,
      "ennessee": 8766,
      "Ġserious": 8767,
      "Ġtitled": 8768,
      "128": 8769,
      "Ġregarding": 8770,
      "aling": 8771,
      "Ġstability": 8772,
      "Ġcontainer": 8773,
      "Ġsafety": 8774,
      "Ġnovels": 8775,
      "Ġsolve": 8776,
      "unte": 8777,
      "BE": 8778,
      "Ġ{$": 8779,
      "before": 8780,
      "Ġfocused": 8781,
      "Su": 8782,
      "auth": 8783,
      "leted": 8784,
      "Ġwild": 8785,
      "ĠStat": 8786,
      "Ġvehicle": 8787,
      "req": 8788,
      "Ġparliament": 8789,
      "Ġentries": 8790,
      "Ġprojection": 8791,
      "Ġreferences": 8792,
      "Ġzone": 8793,
      "pur": 8794,
      "API": 8795,
      "Before": 8796,
      "Ġpenal": 8797,
      "Ġstatistical": 8798,
      "ä¸": 8799,
      "Ġpackage": 8800,
      "Ã¢": 8801,
      "hbox": 8802,
      "ĠIl": 8803,
      "Ġconvent": 8804,
      "Ġsetup": 8805,
      "kg": 8806,
      "Dep": 8807,
      "Ġtrust": 8808,
      "ĠVi": 8809,
      "Ġobjective": 8810,
      "Ġsatisfying": 8811,
      "Ġcolumns": 8812,
      "Ġrepresentations": 8813,
      "Ø§": 8814,
      "\\}$.": 8815,
      "shape": 8816,
      "gies": 8817,
      "Ġremark": 8818,
      "Ġcalculate": 8819,
      "pson": 8820,
      "ĠAnth": 8821,
      "riminal": 8822,
      "Ġrepeated": 8823,
      "Ġunderlying": 8824,
      "ĠClark": 8825,
      "asters": 8826,
      "ĠHo": 8827,
      "bu": 8828,
      "names": 8829,
      "Ġsubstant": 8830,
      "Ġhousing": 8831,
      "Although": 8832,
      "oster": 8833,
      "255": 8834,
      "ĠHan": 8835,
      "ods": 8836,
      "bles": 8837,
      "Ġcerem": 8838,
      "ĠTy": 8839,
      "Ġinterested": 8840,
      "Ġaffected": 8841,
      "ĠOnly": 8842,
      "ims": 8843,
      "Ġestate": 8844,
      "Ġopposite": 8845,
      "Ġscaling": 8846,
      "device": 8847,
      "atible": 8848,
      "Sportspeople": 8849,
      "Ġexplained": 8850,
      "ĠFree": 8851,
      "Ġleadership": 8852,
      "ika": 8853,
      "1913": 8854,
      "ĠCaptain": 8855,
      "Ġenem": 8856,
      "ĠIndones": 8857,
      "utf": 8858,
      "Ġurban": 8859,
      "Bibliography": 8860,
      "rine": 8861,
      "Ġsubt": 8862,
      "Ġscenario": 8863,
      "Ġemb": 8864,
      "Ġbright": 8865,
      "ĠGolden": 8866,
      "Sources": 8867,
      "scription": 8868,
      "ĠMedical": 8869,
      "Ġlaws": 8870,
      "Ġconverted": 8871,
      "END": 8872,
      "RI": 8873,
      "Ġintegration": 8874,
      "ĠBudd": 8875,
      "ĠLev": 8876,
      "MT": 8877,
      "ĠMilitary": 8878,
      "ĠMun": 8879,
      "-$": 8880,
      "enna": 8881,
      "Ġcharged": 8882,
      "apore": 8883,
      "idi": 8884,
      "}})": 8885,
      "ĠLind": 8886,
      "issions": 8887,
      "Project": 8888,
      "Ġportion": 8889,
      "diag": 8890,
      "^*$": 8891,
      "Ġthread": 8892,
      "ading": 8893,
      "Parameters": 8894,
      "Ġcoinc": 8895,
      "ĠMill": 8896,
      "ruit": 8897,
      "since": 8898,
      "Ġpassing": 8899,
      "ordan": 8900,
      "Ġdetected": 8901,
      "ĠNaz": 8902,
      "ĠHun": 8903,
      "Ġquestions": 8904,
      "nergy": 8905,
      "sets": 8906,
      "Ġscientific": 8907,
      "Ġentropy": 8908,
      "Ġestimation": 8909,
      "loop": 8910,
      "paragraph": 8911,
      "ĉĉĉĉĉĉĉ": 8912,
      "ĠSon": 8913,
      "ĠWars": 8914,
      "Ġmac": 8915,
      ",\\\\": 8916,
      "ĠMountain": 8917,
      "ĠColon": 8918,
      "Ġevol": 8919,
      "Ptr": 8920,
      "ĠBack": 8921,
      "ĠBh": 8922,
      "Ġgranted": 8923,
      "ĠDown": 8924,
      "Ġreally": 8925,
      "Ġhabit": 8926,
      "ĠWel": 8927,
      "arest": 8928,
      "Ġcontinues": 8929,
      "cred": 8930,
      "Ġusual": 8931,
      "Ġbill": 8932,
      "formal": 8933,
      "Ġsales": 8934,
      "$};": 8935,
      "Ġdoing": 8936,
      "Ġradiation": 8937,
      "Ġcool": 8938,
      "ensis": 8939,
      "Ġresear": 8940,
      "Ġapi": 8941,
      "Ġpowerful": 8942,
      "ĠEXPECT": 8943,
      "UP": 8944,
      "Two": 8945,
      "]$,": 8946,
      "emptyset": 8947,
      "\\;": 8948,
      "Ġsuitable": 8949,
      "Ġpadding": 8950,
      "utable": 8951,
      "ĠEll": 8952,
      "Ġinher": 8953,
      "mosp": 8954,
      "ĠRepresentatives": 8955,
      "styleshe": 8956,
      "Ġmind": 8957,
      "axis": 8958,
      "Ġ^": 8959,
      "Ġjourn": 8960,
      "ĠBeach": 8961,
      "ĠBG": 8962,
      "Ġvess": 8963,
      "Ġcontest": 8964,
      "Ġnotes": 8965,
      "Ġdrive": 8966,
      "Canadian": 8967,
      "Ġadvanced": 8968,
      "Ġseats": 8969,
      "estamp": 8970,
      "ĠKansas": 8971,
      "BR": 8972,
      "ĠIndiana": 8973,
      "Ġfounder": 8974,
      "ĠSurvey": 8975,
      "duce": 8976,
      "ronic": 8977,
      "Ġpossibly": 8978,
      "ĠGree": 8979,
      "BM": 8980,
      "uly": 8981,
      "ĠArthur": 8982,
      "Ġplanet": 8983,
      "uum": 8984,
      "GE": 8985,
      "rell": 8986,
      "Orig": 8987,
      "ĠMaria": 8988,
      "=\"../../../../../": 8989,
      "ĠFox": 8990,
      "actic": 8991,
      "ĠKel": 8992,
      "Ġaband": 8993,
      "Tax": 8994,
      "mers": 8995,
      "ictures": 8996,
      "component": 8997,
      "Sign": 8998,
      "Ġcorner": 8999,
      "Ġrecip": 9000,
      "vard": 9001,
      "Ġrefers": 9002,
      "(*": 9003,
      "tiny": 9004,
      "ĠHard": 9005,
      "osophy": 9006,
      "Ġundefined": 9007,
      "aton": 9008,
      "ĠDavis": 9009,
      "ĠTal": 9010,
      "Ġspecifically": 9011,
      "Draw": 9012,
      "ochastic": 9013,
      "Ġirre": 9014,
      "Har": 9015,
      "Populated": 9016,
      "ĠCastle": 9017,
      "Ġdisp": 9018,
      "Ġsave": 9019,
      "weet": 9020,
      "icker": 9021,
      "Ġtried": 9022,
      "fi": 9023,
      ")).": 9024,
      "urations": 9025,
      "ifts": 9026,
      "Ġstone": 9027,
      "ĠAh": 9028,
      "ĠArea": 9029,
      "Ġexcit": 9030,
      "Ġranked": 9031,
      "Ġfaculty": 9032,
      "ĠDun": 9033,
      "160": 9034,
      "Ġcrime": 9035,
      "Ġneural": 9036,
      "Ġconsequence": 9037,
      "Ġresident": 9038,
      "Ġdipl": 9039,
      "gers": 9040,
      "Ġpowers": 9041,
      "1911": 9042,
      "ĠĠĠĠĠĠĠĠĠĠĠĠĠĠĠĠĠĠ": 9043,
      "ĠAtlantic": 9044,
      "Ġinvestigation": 9045,
      "Ġspeech": 9046,
      "FR": 9047,
      "Ġwaves": 9048,
      "oli": 9049,
      "tml": 9050,
      "Ġnamespace": 9051,
      "Geography": 9052,
      "GS": 9053,
      "ceived": 9054,
      "Ġworth": 9055,
      "ybrid": 9056,
      "ĠCOVID": 9057,
      "Ġsuffered": 9058,
      "ĠTrue": 9059,
      "Ġstress": 9060,
      "ĠMunicip": 9061,
      "Ġdistricts": 9062,
      "Ġcontemporary": 9063,
      "ĠHighway": 9064,
      "\"));": 9065,
      "foo": 9066,
      "Store": 9067,
      "Ġtheories": 9068,
      "ĠWeek": 9069,
      "Ġfelt": 9070,
      "Ġexplicitly": 9071,
      "Ġtransmission": 9072,
      "hash": 9073,
      "Ġsummary": 9074,
      "Ġsuperv": 9075,
      "Ġdocumentary": 9076,
      "Ġcategories": 9077,
      "isted": 9078,
      "Ġfinds": 9079,
      "}[\\": 9080,
      "=\"-": 9081,
      "ymph": 9082,
      "ĠIraq": 9083,
      "Ġsexual": 9084,
      "Ġpolitics": 9085,
      "wealth": 9086,
      "OM": 9087,
      "Ġscoring": 9088,
      "....": 9089,
      "clusive": 9090,
      "Book": 9091,
      "iota": 9092,
      "ĠMoh": 9093,
      "ĠBall": 9094,
      "erior": 9095,
      "Ġbow": 9096,
      "ician": 9097,
      "joy": 9098,
      "Arch": 9099,
      "Body": 9100,
      "isa": 9101,
      "ATA": 9102,
      "ĠId": 9103,
      "Pass": 9104,
      "Ġconven": 9105,
      "ters": 9106,
      "zi": 9107,
      "ĠDig": 9108,
      "Ġnotice": 9109,
      "Ġ),": 9110,
      "Ġeq": 9111,
      "STR": 9112,
      "Ġmixing": 9113,
      "Ġinterior": 9114,
      "Ġbronze": 9115,
      ":(": 9116,
      "classes": 9117,
      "yg": 9118,
      "tail": 9119,
      "Ġsampling": 9120,
      "Serial": 9121,
      "ĠEngineering": 9122,
      "Ġgar": 9123,
      "equal": 9124,
      "periment": 9125,
      "western": 9126,
      "GR": 9127,
      "ĠOregon": 9128,
      "Ġequilibrium": 9129,
      "Ġliber": 9130,
      "Ġtells": 9131,
      "ÃŃa": 9132,
      "utils": 9133,
      "Ġprotect": 9134,
      "ordon": 9135,
      "Ġxml": 9136,
      "Ġpredicted": 9137,
      "Search": 9138,
      "WE": 9139,
      "Ġcovers": 9140,
      "_;": 9141,
      "[-": 9142,
      "Video": 9143,
      "vs": 9144,
      "ĠDesign": 9145,
      "ĠGallery": 9146,
      "Ġpaths": 9147,
      "Ġisomorphism": 9148,
      "Ġ\\(\\": 9149,
      "bp": 9150,
      "ĠMexican": 9151,
      "Japan": 9152,
      "files": 9153,
      "Ġadjacent": 9154,
      "uple": 9155,
      "))\\": 9156,
      "Ġsequences": 9157,
      "ĠPhilippines": 9158,
      "ĠAlf": 9159,
      "iÃ³n": 9160,
      "Ġdoesn": 9161,
      "ĠNorway": 9162,
      "ĠFederation": 9163,
      "Ġimag": 9164,
      "ĠJunior": 9165,
      "Ġfiction": 9166,
      "ĠPier": 9167,
      "Font": 9168,
      "ĠTurkey": 9169,
      "ĠCommun": 9170,
      "ifer": 9171,
      "GN": 9172,
      "Ġsy": 9173,
      "ĠManagement": 9174,
      "ĠEvent": 9175,
      "irement": 9176,
      "ĠGer": 9177,
      "bind": 9178,
      "800": 9179,
      "Ġrequirements": 9180,
      "ĠLocal": 9181,
      "ĠEnt": 9182,
      "Ġturns": 9183,
      "Ġviews": 9184,
      "ĠRon": 9185,
      "OK": 9186,
      "ĠSuch": 9187,
      "Names": 9188,
      "large": 9189,
      "Ġcommittee": 9190,
      "Ġfactory": 9191,
      "Ġarms": 9192,
      "ĠCountry": 9193,
      "Ġparse": 9194,
      "Ġattempts": 9195,
      "Iter": 9196,
      "Ġboy": 9197,
      "Ġdynamic": 9198,
      "tim": 9199,
      "ĠSlov": 9200,
      "Ð²": 9201,
      "stat": 9202,
      "Ġfrequently": 9203,
      "Ġtransp": 9204,
      "Ġcart": 9205,
      "anes": 9206,
      "Ġ*)": 9207,
      "Ġportray": 9208,
      "CM": 9209,
      "}}_{\\": 9210,
      "cope": 9211,
      "ĠAdminist": 9212,
      "pres": 9213,
      "Ã¼r": 9214,
      "Ġbriefly": 9215,
      "wall": 9216,
      "Ġyards": 9217,
      "Ġintroduction": 9218,
      "Ġpaid": 9219,
      "Ġofficials": 9220,
      "Ġapplying": 9221,
      "ĠTennessee": 9222,
      "clusions": 9223,
      "Ġsufficiently": 9224,
      "Ġfish": 9225,
      "ĠChannel": 9226,
      "ĠBru": 9227,
      "ĠMult": 9228,
      "Ġpages": 9229,
      "ĠColl": 9230,
      "Session": 9231,
      "Ġstrugg": 9232,
      "Kind": 9233,
      "Ġevaluate": 9234,
      "Ġsimultane": 9235,
      "Ġlosing": 9236,
      "Ġpicture": 9237,
      "Ġconsecutive": 9238,
      "Ġconstants": 9239,
      "Ġpatterns": 9240,
      "Ġsevent": 9241,
      "bmatrix": 9242,
      "ACK": 9243,
      "prise": 9244,
      "igrants": 9245,
      "ambiguation": 9246,
      "Ġprepar": 9247,
      "atern": 9248,
      ",\\,\\": 9249,
      "Ġpublication": 9250,
      "mn": 9251,
      "Ġyellow": 9252,
      "Ġ(;": 9253,
      "comment": 9254,
      "gest": 9255,
      "clear": 9256,
      "ĠWrit": 9257,
      "Ġmiles": 9258,
      "Ġdiver": 9259,
      "Ġparams": 9260,
      "Ġ\\]": 9261,
      "product": 9262,
      "racks": 9263,
      "ĠJacob": 9264,
      "ĠIR": 9265,
      "Ġreturning": 9266,
      "1908": 9267,
      "iser": 9268,
      "inton": 9269,
      "join": 9270,
      "Ġinstalled": 9271,
      "ĠGh": 9272,
      "Ġexecution": 9273,
      "BB": 9274,
      "Ġtools": 9275,
      "ĠHart": 9276,
      "Ġjournalist": 9277,
      "West": 9278,
      "Ġarts": 9279,
      "256": 9280,
      "ĠShort": 9281,
      "ques": 9282,
      "Ġclosely": 9283,
      "ĠMP": 9284,
      "ivated": 9285,
      "aine": 9286,
      "ĠMic": 9287,
      "COLOR": 9288,
      "ĠSecurity": 9289,
      "phys": 9290,
      "arthe": 9291,
      "mf": 9292,
      "Ġfell": 9293,
      "plicity": 9294,
      "copy": 9295,
      "ĠMemorial": 9296,
      "Ġbelieve": 9297,
      "ĠCON": 9298,
      "ourier": 9299,
      ")})": 9300,
      "access": 9301,
      "Ġjet": 9302,
      "ĠLive": 9303,
      "Ġdefend": 9304,
      "ĠConst": 9305,
      "artifactId": 9306,
      "sn": 9307,
      "ĠSteve": 9308,
      "Ġintersection": 9309,
      "aded": 9310,
      "ĠColorado": 9311,
      "Ġcontrolled": 9312,
      "Ġpainting": 9313,
      "debug": 9314,
      "Ġnum": 9315,
      "ĠGre": 9316,
      "yntax": 9317,
      "ĠBaseball": 9318,
      "iative": 9319,
      "Ġabund": 9320,
      "bat": 9321,
      "apel": 9322,
      "rÃ©": 9323,
      "High": 9324,
      "ĠYour": 9325,
      "Member": 9326,
      "border": 9327,
      "diff": 9328,
      "Ġderivative": 9329,
      "vee": 9330,
      "ĠPit": 9331,
      "Copy": 9332,
      "ĠFamily": 9333,
      "Ġgovernor": 9334,
      "Ġdimensional": 9335,
      "hire": 9336,
      "Ġletters": 9337,
      "orders": 9338,
      "ilters": 9339,
      "ĠWhat": 9340,
      "Ġagents": 9341,
      "Best": 9342,
      "izon": 9343,
      "ĠRoss": 9344,
      "pert": 9345,
      "False": 9346,
      "ĠUkraine": 9347,
      "Ġsupply": 9348,
      "uese": 9349,
      "ynasty": 9350,
      "Ġcab": 9351,
      "roke": 9352,
      "Sm": 9353,
      "rainian": 9354,
      "inv": 9355,
      "Ġlearned": 9356,
      "ois": 9357,
      "sequently": 9358,
      "ictional": 9359,
      "Ġscholar": 9360,
      "Ġyounger": 9361,
      "123": 9362,
      "ĠOcean": 9363,
      "life": 9364,
      "Ġsolar": 9365,
      "incial": 9366,
      "itational": 9367,
      "ĠAppendix": 9368,
      "Ġadvance": 9369,
      "Ġescape": 9370,
      "transform": 9371,
      "180": 9372,
      "Ġextensive": 9373,
      "ears": 9374,
      "Core": 9375,
      "Ġinverse": 9376,
      "Ġupdated": 9377,
      "ogram": 9378,
      "ĠConnect": 9379,
      "Ġearth": 9380,
      "Ġbias": 9381,
      "ĠLabor": 9382,
      "ĠSD": 9383,
      "agnost": 9384,
      "Ġfacility": 9385,
      "bras": 9386,
      "Ġburied": 9387,
      "ĠSav": 9388,
      "tainment": 9389,
      "ĠFreder": 9390,
      "ĠHal": 9391,
      "parison": 9392,
      "Ġspons": 9393,
      "Settings": 9394,
      "Death": 9395,
      "Ġmeant": 9396,
      "agu": 9397,
      "UM": 9398,
      "ĠKhan": 9399,
      "ogs": 9400,
      "Menu": 9401,
      "slant": 9402,
      "Ġmanner": 9403,
      "Ġtoward": 9404,
      "ses": 9405,
      "family": 9406,
      "wick": 9407,
      "parameters": 9408,
      "Ġ(,": 9409,
      "ti": 9410,
      "Ġturb": 9411,
      "Ġchairman": 9412,
      "Ġdrawn": 9413,
      "Ġnominated": 9414,
      "Ġpatients": 9415,
      "Ġelectronic": 9416,
      "Ġreceiving": 9417,
      "Australian": 9418,
      "ups": 9419,
      "Ġseparated": 9420,
      "Ġnothing": 9421,
      "ingham": 9422,
      "Ġclimate": 9423,
      "offs": 9424,
      "Ġrom": 9425,
      "Helper": 9426,
      "hl": 9427,
      "Stack": 9428,
      "CI": 9429,
      "Ġfashion": 9430,
      "Ġhash": 9431,
      "mo": 9432,
      "(:": 9433,
      "andy": 9434,
      "romise": 9435,
      "Ġeducated": 9436,
      "aration": 9437,
      "Cap": 9438,
      "Mem": 9439,
      "Ġadvert": 9440,
      "Ġ('": 9441,
      "Hon": 9442,
      "Ġexclud": 9443,
      "Ġembedding": 9444,
      "ĠAuthor": 9445,
      "Ġvillages": 9446,
      "Ġunable": 9447,
      "$_{": 9448,
      "ĠMaryland": 9449,
      "ĠReal": 9450,
      "ĠSat": 9451,
      "plot": 9452,
      "rior": 9453,
      "Ġvice": 9454,
      "ĠMir": 9455,
      "ĠArizona": 9456,
      "Proof": 9457,
      "Match": 9458,
      "Ġneutr": 9459,
      "ALL": 9460,
      "ĠLeon": 9461,
      "&$": 9462,
      "Ġsubs": 9463,
      "general": 9464,
      "ivation": 9465,
      "Ġprotection": 9466,
      "utor": 9467,
      "ĠLewis": 9468,
      "ĠPolit": 9469,
      "Ġcomputing": 9470,
      "Å«": 9471,
      "Ġbra": 9472,
      "ERROR": 9473,
      "Ġdie": 9474,
      "ĠLO": 9475,
      "Ġcauses": 9476,
      "Ġadjust": 9477,
      "ivals": 9478,
      "AND": 9479,
      "ĠMoscow": 9480,
      "Ġaccident": 9481,
      "Ġdiagonal": 9482,
[...]
