{"[UNK]":0,"!":1,"\"":2,"#":3,"$":4,"%":5,"&":6,"'":7,"(":8,")":9,"*":10,"+":11,",":12,"-":13,".":14,"/":15,"0":16,"1":17,"2":18,"3":19,"4":20,"5":21,"6":22,"7":23,"8":24,"9":25,":":26,";":27,"<":28,"=":29,">":30,"?":31,"@":32,"A":33,"B":34,"C":35,"D":36,"E":37,"F":38,"G":39,"H":40,"I":41,"J":42,"K":43,"L":44,"M":45,"N":46,"O":47,"P":48,"Q":49,"R":50,"S":51,"T":52,"U":53,"V":54,"W":55,"X":56,"Y":57,"Z":58,"[":59,"\\":60,"]":61,"^":62,"_":63,"`":64,"a":65,"b":66,"c":67,"d":68,"e":69,"f":70,"g":71,"h":72,"i":73,"j":74,"k":75,"l":76,"m":77,"n":78,"o":79,"p":80,"q":81,"r":82,"s":83,"t":84,"u":85,"v":86,"w":87,"x":88,"y":89,"z":90,"{":91,"|":92,"}":93,"~":94,"¡":95,"¢":96,"£":97,"¤":98,"¥":99,"¦":100,"§":101,"¨":102,"©":103,"ª":104,"«":105,"¬":106,"®":107,"¯":108,"°":109,"±":110,"²":111,"³":112,"´":113,"µ":114,"¶":115,"·":116,"¸":117,"¹":118,"º":119,"»":120,"¼":121,"½":122,"¾":123,"¿":124,"Â":125,"Ã":126,"Ä":127,"Å":128,"Æ":129,"Ç":130,"È":131,"É":132,"Ê":133,"Ë":134,"Ì":135,"Í":136,"Î":137,"Ï":138,"Ð":139,"Ñ":140,"Ò":141,"Ó":142,"Ô":143,"Õ":144,"Ö":145,"×":146,"Ø":147,"Ù":148,"Ú":149,"Û":150,"Ü":151,"Ý":152,"Þ":153,"ß":154,"à":155,"á":156,"â":157,"ã":158,"ä":159,"å":160,"æ":161,"ç":162,"è":163,"é":164,"ê":165,"ë":166,"ì":167,"í":168,"î":169,"ï":170,"ð":171,"ó":172,"ô":173,"Ā":174,"ā":175,"Ă":176,"ă":177,"Ą":178,"ą":179,"Ć":180,"ć":181,"Ĉ":182,"ĉ":183,"Ċ":184,"ċ":185,"Č":186,"č":187,"Ď":188,"ď":189,"Đ":190,"đ":191,"Ē":192,"Ĕ":193,"ĕ":194,"Ė":195,"ė":196,"Ę":197,"ę":198,"Ě":199,"ě":200,"ĝ":201,"Ğ":202,"ğ":203,"Ġ":204,"ġ":205,"Ģ":206,"ģ":207,"Ĥ":208,"ĥ":209,"Ħ":210,"ħ":211,"Ĩ":212,"ĩ":213,"Ī":214,"ī":215,"Ĭ":216,"ĭ":217,"Į":218,"į":219,"İ":220,"ı":221,"Ĳ":222,"ĳ":223,"Ĵ":224,"ĵ":225,"Ķ":226,"ķ":227,"ĸ":228,"Ĺ":229,"ĺ":230,"Ļ":231,"ļ":232,"Ľ":233,"ľ":234,"Ŀ":235,"ŀ":236,"Ł":237,"ł":238,"Ń":239,"ĠĠ":240,"Ġt":241,"in":242,"he":243,"Ġa":244,"on":245,"er":246,"re":247,"at":248,"Ġthe":249,"ĠĠĠĠ":250,"en":251,"or":252,"al":253,"Ġs":254,"an":255,"is":256,"it":257,"es":258,"Ġo":259,"ar":260,"ed":261,"Ġc":262,"ion":263,"Ġw":264,"Ġf":265,"Ġof":266,"Ġin":267,"nd":268,"ic":269,"Ġp":270,"le":271,"Ġb":272,"as":273,"ing":274,"ro":275,"Ġand":276,"Ġd":277,"Ġm":278,"ct":279,"Ġ\\":280,"et":281,"ent":282,"Ġto":283,"el":284,"am":285,"ou":286,"il":287,"st":288,"Ġ$":289,"ĠĠĠ":290,"ĠS":291,"ig":292,"om":293,"ĠĠĠĠĠĠĠĠ":294,"Ġre":295,"ol":296,"Ġ(":297,"Ġh":298,"ĠT":299,"ation":300,"ra":301,"ĠC":302,"Ġn":303,"im":304,"ĠA":305,"Ġth":306,"ot":307,"Ġe":308,"id":309,"Ġl":310,"ce":311,"ur":312,"iv":313,"Ġis":314,"ch":315,"ut":316,"ĠM":317,"us":318,"Ġfor":319,"ul":320,"ad":321,"em":322,"Ġg":323,"ow":324,"{\\":325,"ers":326,"ĠB":327,"ly":328,"ĠP":329,"20":330,"Ġon":331,"um":332,"ĠI":333,"un":334,"19":335,"ab":336,"od":337,"ir":338,"ter":339,"ith":340,"Ġst":341,"qu":342,"se":343,"ag":344,"ĠH":345,"if":346,"Ġas":347,"ist":348,"th":349,"Ġv":350,"Ġbe":351,"ay":352,"ĠR":353,"Ġcon":354,"ĠF":355,"ĠL":356,"ĠD":357,"Ġ=":358,"Ġwas":359,"Ġwith":360,"ĠThe":361,"čĊ":362,"and":363,"pe":364,"ĠĠĠĠĠĠĠ":365,"end":366,"ath":367,"Ġal":368,"ver":369,"ate":370,"ri":371,"Ġthat":372,"_{":373,"ac":374,"ction":375,"Ġby":376,"ĠN":377,"est":378,"ĠG":379,"her":380,"eg":381,"oc":382,"ĠW":383,"ĠĊ":384,"res":385,"ht":386,"Ġpro":387,"op":388,"Ġan":389,"os":390,"ex":391,"ĠE":392,"ap":393,"Ġ$\\":394,"rom":395,"ub":396,"up":397,"ity":398,"av":399,"Ġde":400,"Ġat":401,"ĉĉ":402,"ain":403,"art":404,"math":405,"Ġwh":406,"ph":407,"Ġcom":408,"ew":409,"Ġ\"":410,"all":411,"âĢ":412,"ĠJ":413,"Ġfrom":414,"Ġ&":415,");":416,"ort":417,"Ġex":418,"ine":419,"ass":420,"ies":421,"ore":422,"ight":423,"ess":424,"Ġ<":425,"pt":426,"ure":427,"ame":428,"Ġ{":429,"ran":430,"ĠO":431,"pl":432,"=\"":433,"ial":434,"Ġse":435,"ge":436,"Ġit":437,"Ġare":438,"ber":439,"--":440,"ud":441,"'s":442,"ue":443,"nt":444,"ill":445,"Ġor":446,"}\\":447,"ian":448,"ment":449,"ite":450,"}$":451,"Ġhe":452,"ive":453,"ref":454,"^{":455,"ef":456,"ak":457,"og":458,"iz":459,"ect":460,"ĠU":461,"ated":462,"ĠK":463,"ant":464,"our":465,"cl":466,"The":467,"ich":468,"ard":469,"ext":470,"ĠĠĠĠĠĠĠĠĠĠĠ":471,"ary":472,"Ġcl":473,"age":474,"201":475,"ip":476,"ult":477,"Ġwe":478,"</":479,"ld":480,"ov":481,"per":482,"//":483,"ia":484,"Ġ*":485,"),":486,"âĢĵ":487,"ell":488,"ign":489,"Ġch":490,"und":491,"00":492,"Ġr":493,"Ġpl":494,"ft":495,"ma":496,"ical":497,"ĠSt":498,"rac":499,"ition":500,"orm":501,"int":502,"con":503,"Ġ}":504,"ĠIn":505,"}}":506,"(\\":507,"Ġthis":508,"Ġus":509,"ta":510,"Ġsh":511,"ong":512,"ast":513,"port":514,"ack":515,"Ġcomp":516,"Ġle":517,"are":518,"ust":519,"ord":520,"ug":521,"ire":522,"egin":523,"ff":524,"200":525,"ĠV":526,"begin":527,"ens":528,"ep":529,"Ġres":530,").":531,"urn":532,"cal":533,"Ġ-":534,"Ġwhich":535,"enc":536,"du":537,"able":538,"ost":539,"so":540,"Ġk":541,"Ġnot":542,"Ġ|":543,"In":544,"pro":545,"ations":546,"ĠĠĠĠĠĠĠĠĠĠĠĠĠĠĠĠ":547,"_{\\":548,"ace":549,")$":550,"ork":551,"Ġhis":552,"text":553,"to":554,"ave":555,"18":556,"ish":557,"cc":558,"ime":559,"ase":560,"ĠCh":561,"ang":562,"ere":563,"ther":564,"erv":565,"Ġy":566,"ence":567,"ric":568,"ide":569,"ions":570,"ĠĠĠĠĠ":571,"ec":572,"Ġun":573,"ild":574,"ib":575,"}{":576,"rm":577,"mer":578,"Ġwhe":579,"low":580,"ry":581,"ear":582,"\">":583,"equ":584,"act":585,"},":586,"Ġalso":587,"ru":588,"Ġcont":589,"eq":590,"tern":591,"ile":592,"frac":593,"ind":594,"right":595,"ach":596,"Ġap":597,"Ġcan":598,"ous":599,"ey":600,"ice":601,"ok":602,"sp":603,"abel":604,"ory":605,"irst":606,"Ġwere":607,"ode":608,"ener":609,"Ġif":610,"out":611,"**":612,"cite":613,"ount":614,"form":615,"turn":616,"Ġhas":617,"Ġad":618,"ubl":619,"com":620,"own":621,"fer":622,"ring":623,"Ġar":624,"Ġclass":625,"over":626,"Ġim":627,"ound":628,"erm":629,"Ġhave":630,"ype":631,"rit":632,"ĠTh":633,"mathb":634,"Ġ||":635,"rans":636,"ev":637,"wo":638,"the":639,"row":640,"ata":641,"St":642,"ree":643,"old":644,"clud":645,"li":646,"ates":647,"rib":648,"fig":649,"Ġj":650,"Ġpart":651,"..":652,"get":653,"amp":654,"eta":655,"ks":656,"ance":657,"label":658,"ents":659,"Ġsu":660,"ors":661,"10":662,"ject":663,"Ġ+":664,"ĠUn":665,"ress":666,"Ġ'":667,"Ġab":668,"unction":669,"ert":670,"hed":671,"199":672,"$,":673,",\\":674,"()":675,"Ġfirst":676,"ob":677,"ĠHe":678,"mathcal":679,"$.":680,"Ġone":681,"inal":682,"Ġplay":683,"ould":684,"we":685,"left":686,"Ġro":687,"----":688,"Ġsp":689,"iel":690,"ss":691,"Ġdis":692,"ely":693,"ational":694,"Ġmod":695,"ual":696,"ĠY":697,"ng":698,"ĠIt":699,"te":700,"ll":701,"}.":702,"ics":703,"Ġall":704,"equation":705,"ences":706,"Ġtwo":707,"==":708,"})":709,"Ġob":710,"ark":711,"Ġnew":712,"fter":713,"ome":714,"ose":715,"Ġits":716,"amb":717,"ps":718,"ĠâĢĵ":719,"ublic":720,"ater":721,"Ġreturn":722,"ield":723,"orn":724,"}(":725,"ock":726,"Ġdef":727,"Ex":728,"Ġset":729,"alue":730,"oint":731,"lect":732,"Ġhad":733,"cent":734,"Ġsc":735,"Ġper":736,"Ġbut":737,"Ġtheir":738,"}^":739,"ool":740,"Ġint":741,"les":742,"pect":743,"sum":744,"ĠĠĠĠĠĠĠĠĠĠĠĠĠĠĠ":745,"}_":746,"aram":747,"Ġdes":748,"Ġte":749,"~\\":750,"Ġev":751,"ray":752,"rad":753,"sh":754,"Ġqu":755,"ied":756,"ize":757,"set":758,"ik":759,"line":760,"raph":761,"ont":762,"ix":763,"io":764,"yst":765,"Ġpre":766,"land":767,"one":768,"ular":769,"pec":770,"oot":771,"pha":772,"iss":773,"sc":774,"Ġout":775,"pon":776,"da":777,"Ġ[":778,"Ġother":779,"Ref":780,"\",":781,"ollow":782,"Ġfunction":783,"aw":784,"any":785,"ym":786,"12":787,"alpha":788,"ember":789,"igh":790,"ased":791,"meric":792,"imes":793,"umber":794,"ie":795,"198":796,"Ġover":797,"ited":798,"ution":799,"ull":800,"Ġag":801,"roup":802,"Ġme":803,"ne":804,")\\":805,"Ġup":806,"Ġconst":807,"Ġ//":808,"ystem":809,"ram":810,"Ġcol":811,"ict":812,"vel":813,"Ġwork":814,"Ġwho":815,"Refer":816,"eng":817,"eth":818,"Ġtime":819,"pos":820,"ivers":821,"put":822,"Ġform":823,"ption":824,"ced":825,"of":826,"Ġvar":827,"elf":828,"ople":829,"ail":830,"Ġsub":831,"Ġind":832,"::":833,"Ġfollow":834,"ative":835,"References":836,"Ġinclud":837,"Ġbeen":838,"16":839,"lement":840,"ambda":841,"Ġinter":842,"ilm":843,"->":844,"ings":845,"ax":846,"ward":847,"under":848,"Ġcomm":849,"Ġher":850,"elta":851,"ann":852,"Ġbet":853,"17":854,"der":855,"resent":856,"Ġwhere":857,"Ġreg":858,"ck":859,"sub":860,"Ġresult":861,"pr":862,"15":863,"let":864,"merican":865,"ific":866,"lo":867,"ral":868,"ho":869,"uring":870,"cre":871,"Ġdist":872,"round":873,"Ġyear":874,"ĠSe":875,"amma":876,"Ġpr":877,"Ġcons":878,"$\\":879,"ake":880,"vi":881,"Ġonly":882,"ince":883,"mathbb":884,"ons":885,"Ġ.":886,"Ġloc":887,"che":888,"ined":889,"_\\":890,"ource":891,"197":892,"eople":893,"Ġsuch":894,"Ġtrans":895,"Ġ@":896,"ugh":897,"ery":898,"ans":899,"Ġinto":900,"ween":901,"Ġco":902,"ĉĉĉĉ":903,"=\\":904,"Ġ\\\\":905,"oy":906,"cond":907,"dot":908,"}_{":909,"Ġ/":910,"ĠThis":911,"Ġdif":912,"olog":913,"ames":914,"Ġ</":915,"Ġsup":916,"ball":917,"}^{":918,"Ġrel":919,"ruct":920,"ox":921,"mu":922,"Ġrec":923,"Ġwhen":924,"ĠCom":925,"ĠNew":926,"Ġmore":927,"ick":928,"aus":929,"Ġthen":930,"arg":931,"Ġmodel":932,"Ġgener":933,"ĠAl":934,"igma":935,"abl":936,"oug":937,"ces":938,"Ġafter":939,"ists":940,"als":941,"col":942,"align":943,"oth":944,"Ġacc":945,"arch":946,"ator":947,"Ġname":948,"Ġpol":949,"red":950,"Ġpos":951,"Ġbetween":952,"ating":953,"Ġatt":954,"Ġact":955,"Ġlin":956,"ega":957,"-\\":958,"ren":959,"eb":960,"Ġwill":961,"Ġunder":962,"Ġthey":963,"ient":964,"ident":965,"Ġdo":966,"Ġass":967,"Ġne":968,"ee":969,"ty":970,"hat":971,"phi":972,"lem":973,"ision":974,"ts":975,"idth":976,"ities":977,"ished":978,"Ġused":979,"ĠAr":980,"yn":981,"Ġoff":982,"ook":983,"Ġpublic":984,"21":985,"',":986,"^{\\":987,"ton":988,"Ġest":989,"ures":990,"Ġprov":991,"ars":992,"tain":993,"dition":994,"chool":995,"Ġsim":996,"ternal":997,"way":998,"Ġthere":999,"its":1000,"Ġso":1001,"13":1002,"196":1003,"ise":1004,"Ġph":1005,"Ġ:":1006,"ys":1007,"ade":1008,"lambda":1009,"ove":1010,"14":1011,"Ġbu":1012,"Ġshow":1013,"pi":1014,"err":1015,"ues":1016,"tt":1017,"ins":1018,"Ġprodu":1019,"ature":1020,"var":1021,"(\"":1022,"Ġthan":1023,"app":1024,"Ġserv":1025,"ider":1026,"ĠPro":1027,"();":1028,"part":1029,"Ġfilm":1030,"../":1031,"bf":1032,"ĠZ":1033,"ute":1034,"Ġdata":1035,"min":1036,"Ġline":1037,"irect":1038,"Con":1039,"Ġspec":1040,"ily":1041,"Ġmat":1042,"Ġtra":1043,"Ġkn":1044,"mathbf":1045,"bar":1046,"ethod":1047,"Ġequ":1048,"outh":1049,"Ġend":1050,"orld":1051,"ility":1052,"Ġnumber":1053,"atic":1054,"Ġ{\\":1055,"wn":1056,"Ġshe":1057,"Pro":1058,"oh":1059,"Ġbec":1060,"gan":1061,"Ġen":1062,"ason":1063,"Ġstud":1064,"Ġdiffer":1065,"hip":1066,"ury":1067,"air":1068,"oci":1069,"att":1070,"Ġi":1071,"11":1072,"ized":1073,"Ġsome":1074,"Ġinst":1075,"iversity":1076,"Ġcor":1077,"Ġeach":1078,"ash":1079,"ilon":1080,"Ġwould":1081,"))":1082,"ĠQ":1083,"Ġsystem":1084,"ĠAmerican":1085,"Ġop":1086,"ier":1087,"Ġrem":1088,"ml":1089,"section":1090,"lection":1091,"emb":1092,"22":1093,"rough":1094,"Ġgiv":1095,"ever":1096,"Ġpeople":1097,"Ġext":1098,"ower":1099,"Ġfe":1100,"Ġany":1101,"ible":1102,"oun":1103,"Ġinv":1104,"ilde":1105,"oid":1106,"25":1107,"apt":1108,"orth":1109,"ning":1110,"Ġno":1111,"ĠWe":1112,"Ġcent":1113,"--------":1114,"sigma":1115,"Ġx":1116,"ĠFor":1117,"man":1118,"ally":1119,"def":1120,"ĠSh":1121,"Ġ*/":1122,"194":1123,"not":1124,"ah":1125,"Ġed":1126,"ĠĠĠĠĠĠĠĠĠ":1127,"ism":1128,"Ġ(\\":1129,"Ġcall":1130,"Ġoper":1131,"essage":1132,"ron":1133,"cess":1134,"Ġent":1135,"Ġmost":1136,"Ġpoint":1137,"}{\\":1138,"beta":1139,"Ġra":1140,"Ġem":1141,"mall":1142,"span":1143,"ve":1144,"az":1145,"195":1146,"\\\\":1147,"item":1148,"Ġcur":1149,"Ã©":1150,"rent":1151,"Ġvalue":1152,"Ġtr":1153,"Ġcase":1154,"^{-":1155,"Ġsing":1156,"Ġfound":1157,"****":1158,"div":1159,"ale":1160,"son":1161,"ern":1162,"ough":1163,"ĠCol":1164,"*}":1165,"30":1166,"Ġbl":1167,"aramet":1168,"Th":1169,"ĠLe":1170,"Ġuse":1171,"ond":1172,"Ġrep":1173,"ĠInd":1174,"></":1175,"Ġsign":1176,"Ġgo":1177,"Ġman":1178,"Âł":1179,"mathrm":1180,"ract":1181,"yle":1182,"Ġgroup":1183,"Ġthese":1184,"Ġeff":1185,"ement":1186,"Ġmay":1187,"Ġsecond":1188,"Ġthree":1189,"uss":1190,"+\\":1191,"gamma":1192,"Ġchar":1193,"Ġabout":1194,"eries":1195,"ization":1196,"plic":1197,"itt":1198,"aj":1199,"ĉĉĉ":1200,"ootball":1201,"rict":1202,"Ġthrough":1203,"Ch":1204,"Ġam":1205,"Ġagain":1206,"Ġget":1207,"ĠUnited":1208,"lin":1209,"uc":1210,"Ġprob":1211,"Ġsol":1212,"]{":1213,"ional":1214,"Ġrequ":1215,"array":1216,"ages":1217,"par":1218,"ĠĠĠĠĠĠĠĠĠĠĠĠĠĠĠĠĠĠĠ":1219,"Ġwell":1220,"hen":1221,"Ġsame":1222,"Ġmin":1223,"Ġfl":1224,"ĠDe":1225,"eps":1226,"Ġcre":1227,"Ġfollowing":1228,"Ġstate":1229,"ĠX":1230,"Ġtype":1231,"ouse":1232,"ĠCon":1233,"ĠCl":1234,"Ġduring":1235,"ife":1236,"Ġfield":1237,"leq":1238,"Ġappro":1239,"ER":1240,"Ġval":1241,"Ġthem":1242,"ĠUniversity":1243,"Ġdesc":1244,"ript":1245,"Ġexp":1246,"^\\":1247,")}":1248,"owever":1249,"ample":1250,"arly":1251,"Ġvari":1252,"Ġboth":1253,"this":1254,"Ġlinks":1255,"serv":1256,"gy":1257,"Com":1258,"uth":1259,"theta":1260,"ices":1261,"Ġteam":1262,"Ġac":1263,"Ġhim":1264,"Ġnon":1265,"big":1266,"width":1267,"for":1268,"figure":1269,"Ġdifferent":1270,"ask":1271,"tr":1272,"ĠAn":1273,"Ġ_":1274,"ner":1275,"><":1276,"Ġperform":1277,"ten":1278,"ired":1279,"External":1280,"Ġpartic":1281,"Ġrele":1282,"cdot":1283,"ĠâĢ":1284,"ke":1285,"Ġusing":1286,"irc":1287,"Ġyears":1288,"Ġ#":1289,"('":1290,"Ġsur":1291,"Ġour":1292,"delta":1293,"rho":1294,"Name":1295,"vent":1296,"ically":1297,"tau":1298,"====":1299,"Ġwhile":1300,"$-":1301,"Ġback":1302,"overn":1303,"000":1304,"Ġplayers":1305,"Ġfam":1306,"ived":1307,"Ġfinal":1308,"Ġterm":1309,"iver":1310,"Ġhigh":1311,"We":1312,"}$,":1313,"eqref":1314,"umn":1315,"ĠAs":1316,"by":1317,"ple":1318,"Ġdirect":1319,"ache":1320,"ote":1321,"ments":1322,"yp":1323,"IN":1324,"}$.":1325,"work":1326,"au":1327,"Ġorder":1328,"here":1329,"Ġgiven":1330,"rid":1331,"ural":1332,"Ġel":1333,"Type":1334,"ctions":1335,"reat":1336,"ersion":1337,"24":1338,"quad":1339,"ulation":1340,"ĠSc":1341,"usic":1342,"}(\\":1343,"Ġlead":1344,"ober":1345,"Ġart":1346,"ause":1347,"ina":1348,"times":1349,"ĠEng":1350,"ole":1351,".\"":1352,"name":1353,"../../":1354,"ott":1355,"23":1356,"arrow":1357,"istory":1358,"Ġdec":1359,"iew":1360,"ead":1361,"ON":1362,"lation":1363,"Ġmon":1364,"Ġdet":1365,"Ġpop":1366,"ather":1367,"Ġknown":1368,"bum":1369,"iving":1370,"Ġmade":1371,"Ġran":1372,"Ġconsider":1373,"ohn":1374,"fore":1375,"ets":1376,"Ġmethod":1377,"chi":1378,"ross":1379,"bl":1380,"ĠMar":1381,"Ġ`":1382,"erson":1383,"import":1384,"Ġwrit":1385,"rop":1386,"center":1387,"Ġmain":1388,"ST":1389,"ively":1390,"Ġbeing":1391,"olds":1392,"ines":1393,"alse":1394,"ument":1395,"ĠStates":1396,"til":1397,"ength":1398,"read":1399,"\".":1400,"Ġmed":1401,"ases":1402,"Ġz":1403,"ley":1404,"Id":1405,"back":1406,"mod":1407,"Ġlater":1408,"val":1409,"ĠSp":1410,"ared":1411,"sec":1412,"fty":1413,"enn":1414,"tilde":1415,"Res":1416,"partial":1417,"ange":1418,"html":1419,"uch":1420,"infty":1421,"mp":1422,"arge":1423,"els":1424,"omega":1425,"ograph":1426,"50":1427,"ots":1428,"Ġsmall":1429,"ĠShe":1430,"ays":1431,"Ġstart":1432,"fl":1433,"Ġself":1434,"return":1435,"ality":1436,"ception":1437,"Ġcount":1438,"omen":1439,"ĠOn":1440,"includ":1441,"rt":1442,"ĠCount":1443,"Cl":1444,"ister":1445,"Ġfour":1446,"Ġfin":1447,"me":1448,"ology":1449,"Ġrecord":1450,"dd":1451,"Ġbir":1452,"String":1453,"nu":1454,"Ġdisc":1455,"Ġfootball":1456,"Ġappe":1457,"ague":1458,"ified":1459,"Ġorig":1460,"193":1461,"trans":1462,"cept":1463,"Ġadd":1464,"ĠIs":1465,"|\\":1466,"pm":1467,"Ġseason":1468,"bol":1469,"esc":1470,"ency":1471,"param":1472,"ission":1473,"Ġstr":1474,"Ġbefore":1475,"Ġtest":1476,"une":1477,"Ġlong":1478,"Ġerr":1479,"atch":1480,"itle":1481,"add":1482,"space":1483,"ths":1484,"Ġhref":1485,"Ġmany":1486,"ault":1487,"Ġfact":1488,"td":1489,"ood":1490,"other":1491,"anc":1492,"ior":1493,"Ġrun":1494,"ribut":1495,"Ġyou":1496,"Ġ!":1497,"velop":1498,"Ġdep":1499,"box":1500,"log":1501,"rang":1502,"AR":1503,"lang":1504,"Ġlist":1505,"ike":1506,"ains":1507,"ane":1508,"orem":1509,"rix":1510,"Ġestabl":1511,"Ġrepresent":1512,"AT":1513,"Ġdevelop":1514,"Ġsince":1515,"Ġbro":1516,"Ġseries":1517,"Ġalbum":1518,"Ġincluding":1519,"arri":1520,"raw":1521,"eqn":1522,"type":1523,"Delta":1524,"ĠComm":1525,"class":1526,".,":1527,"):":1528,"ĠFran":1529,"source":1530,"iqu":1531,"On":1532,"view":1533,"Ġparamet":1534,"ĠEx":1535,"ai":1536,"etwork":1537,"Ġmov":1538,"epend":1539,"ccess":1540,"Ġmet":1541,"Ġcontin":1542,"co":1543,"âĢĻ":1544,"ential":1545,"gram":1546,"Ġ)":1547,"lex":1548,"Ġapp":1549,"Ġresults":1550,"Ġbel":1551,"led":1552,"Ġelect":1553,"Ġdescrib":1554,"respon":1555,"Ġbuild":1556,"ule":1557,"ĠWorld":1558,"Ġsupport":1559,"It":1560,"Ġ>":1561,"ĠNational":1562,"ining":1563,"sk":1564,"Ġstruct":1565,"ĠJohn":1566,"List":1567,"message":1568,"Ġeffect":1569,"RE":1570,"formation":1571,"ĠMay":1572,"ĠAust":1573,"Ġproper":1574,"ĠPh":1575,"Ġschool":1576,"ĠĠĊ":1577,"Ġ$(":1578,"ĠPl":1579,"Ġbased":1580,"27":1581,"Ġ,":1582,"ymbol":1583,"Ġ=>":1584,"arn":1585,"gor":1586,"lev":1587,"Ġbecame":1588,"Ġobtain":1589,"Ġbound":1590,"very":1591,"28":1592,"xi":1593,"Ġpresent":1594,"ival":1595,"Ġagainst":1596,"}[":1597,"uro":1598,"ĠAss":1599,"26":1600,"ives":1601,"\\,":1602,"ĠĠĠĠĠĠĠĠĠĠĠĠĠĠĠĠĠĠĠĠĠĠĠĠĠĠĠĠĠĠĠĠ":1603,"aking":1604,"For":1605,"Ġopt":1606,"ank":1607,"code":1608,"ability":1609,"ĠWar":1610,"ger":1611,"ivate":1612,"anu":1613,"Ġlocal":1614,"color":1615,"}}\\":1616,"opt":1617,"2010":1618,"itial":1619,"rol":1620,"sq":1621,"ody":1622,"ternational":1623,"oss":1624,")$.":1625,"amed":1626,"ify":1627,"Ġprocess":1628,"ĠAd":1629,"iam":1630,"Ar":1631,"self":1632,"chn":1633,"ually":1634,"rand":1635,"urch":1636,"rack":1637,"af":1638,"100":1639,"ĠCounty":1640,"where":1641,"Ġsever":1642,"SS":1643,"Ġcharact":1644,"Ġobserv":1645,"vert":1646,"Ġdesign":1647,"Ġopen":1648,"aid":1649,"ler":1650,"Ġnull":1651,"Ġlarge":1652,"ĠCar":1653,"ĠBrit":1654,"ĠBl":1655,"Un":1656,"Ġcalled":1657,"reg":1658,"Ġown":1659,"med":1660,"Ġmult":1661,"agn":1662,"Ġpres":1663,"To":1664,"Ġ--":1665,"inc":1666,"org":1667,"play":1668,"Ġgu":1669,"$$":1670,"Ġimp":1671,"str":1672,"fo":1673,"Ġanal":1674,"Ġfamily":1675,"ground":1676,"2017":1677,"ium":1678,"ĠSchool":1679,"ĠCan":1680,"Ġobject":1681,"Ġrece":1682,"ĠYork":1683,"ĠčĊ":1684,"rem":1685,"40":1686,"ians":1687,"ful":1688,"|-":1689,"Ġdr":1690,"met":1691,"ĠJul":1692,"pp":1693,"umer":1694,"Ġ==":1695,"por":1696,"embers":1697,"ret":1698,"29":1699,"Ġright":1700,"Ġu":1701,"Ph":1702,"Ġcurrent":1703,"ID":1704,"ants":1705,"Ġmeas":1706,"://":1707,"ital":1708,"Ġtrue":1709,"}_{\\":1710,"Ġuntil":1711,"ĠGerm":1712,"urther":1713,"ports":1714,"Ġrefer":1715,"Ġnow":1716,"Ġsong":1717,"ribution":1718,"ampions":1719,"ream":1720,"Ġpar":1721,"Ġgeneral":1722,"face":1723,"Ġstat":1724,"2016":1725,"wards":1726,"aces":1727,"Ġdeath":1728,"2014":1729,"vers":1730,"vious":1731,"requ":1732,"psi":1733,"ided":1734,"ĠSouth":1735,"Ġtop":1736,"Ġhand":1737,"ĠNov":1738,"use":1739,"reen":1740,"ting":1741,"Ġprof":1742,"2015":1743,"ected":1744,"sim":1745,"Om":1746,"Ġcondition":1747,"2018":1748,"2011":1749,"ugust":1750,"Ġincre":1751,"arget":1752,"rist":1753,"epsilon":1754,"ink":1755,"Ġexper":1756,"As":1757,"born":1758,"position":1759,"Ġsingle":1760,"ector":1761,"olution":1762,"loc":1763,"areer":1764,"2012":1765,"ris":1766,"Ġsee":1767,"ense":1768,"ĠOr":1769,"32":1770,"Ġrespect":1771,"ird":1772,"ptember":1773,"ae":1774,"ilt":1775,"overnment":1776,"umb":1777,"Ġtem":1778,"Ġrad":1779,"rodu":1780,"Ġpass":1781,"ĠGe":1782,"ĠAt":1783,"##":1784,"Ġneed":1785,"Ġevent":1786,"respond":1787,"field":1788,"Ġdue":1789,"Ġpolit":1790,"2013":1791,"Ġspace":1792,"Ġelement":1793,"Ġallow":1794,"ĠFig":1795,"ajor":1796,"Omega":1797,"Ġlim":1798,"Ġleft":1799,"Ġarea":1800,"textbf":1801,"rr":1802,"Al":1803,"new":1804,"omet":1805,"/>":1806,"Ġproblem":1807,"2019":1808,"Ġposs":1809,")$,":1810,"Ġref":1811,"anuary":1812,"psilon":1813,"Ġseveral":1814,"Col":1815,"ctober":1816,"Ġmass":1817,"\")":1818,"raphics":1819,"ament":1820,"Ġocc":1821,"ĠPar":1822,"ij":1823,"Ġcould":1824,"Ġvoid":1825,"eqnarray":1826,"ended":1827,"ĠCent":1828,"OR":1829,"dis":1830,"itive":1831,"ĠTe":1832,"LE":1833,"Ġoriginal":1834,"^*":1835,"ised":1836,"oad":1837,"Ġbecom":1838,"arm":1839,"istor":1840,"Ġann":1841,"2008":1842,"Ġwin":1843,"2009":1844,"ven":1845,"Ġalong":1846,"cm":1847,"2020":1848,"ĠAugust":1849,"sqrt":1850,"ety":1851,"Ġcommun":1852,"Ġbecause":1853,"Ġmusic":1854,"Ġrest":1855,"ness":1856,"lish":1857,"Ġnear":1858,"tab":1859,"__":1860,"Ġimport":1861,"mber":1862,"ĠHowever":1863,"string":1864,"iter":1865,"ides":1866,"ĠSeptember":1867,"ĠMarch":1868,"roll":1869,"fra":1870,"cont":1871,"oard":1872,"energy":1873,"ene":1874,"ration":1875,"This":1876,"subsection":1877,"uild":1878,"vare":1879,"ithm":1880,"Ġhead":1881,"ved":1882,"ĠRe":1883,"bm":1884,"Ġevery":1885,"order":1886,"Ġchild":1887,"arent":1888,"Ġgame":1889,"pril":1890,"Gamma":1891,"ats":1892,"ĠPol":1893,"const":1894,"Ġlast":1895,"oman":1896,"imens":1897,"ilar":1898,"capt":1899,"Ġstring":1900,"Ġaddition":1901,"side":1902,"Ġshould":1903,"value":1904,"Ġsize":1905,"ĠJanuary":1906,"Ġfalse":1907,"ĠOctober":1908,"lege":1909,"key":1910,"iod":1911,"Ġorgan":1912,"ĠĠĠĠĠĠ":1913,"Ġstand":1914,"varepsilon":1915,"Ġfind":1916,"ĠII":1917,"Ob":1918,"unc":1919,"ience":1920,"ĠPr":1921,"Ġident":1922,"htt":1923,"Ġassum":1924,"hes":1925,"Ġplayed":1926,"2007":1927,"ble":1928,"\"/>":1929,"Cont":1930,"ĠAustral":1931,"AL":1932,"')":1933,"ĠJune":1934,"Ġread":1935,"Ġwon":1936,"Ġcorrespond":1937,"Ġprogram":1938,"odes":1939,"Ġche":1940,"ĠAll":1941,"Ġformer":1942,"ification":1943,"ser":1944,"ately":1945,"Ġreleased":1946,"^{(":1947,"ches":1948,"aster":1949,"cember":1950,"lim":1951,"cur":1952,"Ġoffic":1953,"ero":1954,"time":1955,"be":1956,"2006":1957,"Ġlevel":1958,"table":1959,"Ġwithin":1960,"uthor":1961,"190":1962,"See":1963,"Ġcap":1964,"ators":1965,"Ġbirths":1966,"ĠJuly":1967,"caption":1968,"Ġscal":1969,"ampl":1970,"idd":1971,"Ġav":1972,"Ġestim":1973,"Value":1974,"off":1975,"ored":1976,"ties":1977,"wh":1978,"includeg":1979,"includegraphics":1980,"data":1981,"de":1982,"Ġvalues":1983,"Ġlife":1984,"ĠMin":1985,"ĠReg":1986,"ĠApril":1987,"};":1988,"ends":1989,"Se":1990,"ift":1991,"}^{\\":1992,"ling":1993,"Ġpower":1994,"century":1995,"ampionship":1996,"comm":1997,"ording":1998,"ords":1999,"ape":2000,"}=":2001,"less":2002,"ued":2003,"ĠWh":2004,"Ġband":2005,"64":2006,"action":2007,"gorithm":2008,"Ġposition":2009,"EN":2010,"Ġplace":2011,"ĠNorth":2012,"Ġarg":2013,"********":2014,"An":2015,"Ġvery":2016,"urg":2017,"ĠEuro":2018,"33":2019,"Ġnetwork":2020,"ava":2021,"ĠLeague":2022,"bs":2023,"ung":2024,"rightarrow":2025,"rap":2026,"ĠBritish":2027,"ĠĠĠĠĠĠĠĠĠĠĠĠĠ":2028,"////":2029,"Ġelse":2030,"posed":2031,"Ġdoes":2032,"uage":2033,"ĠNovember":2034,"ze":2035,"ormal":2036,"see":2037,"Ġrespon":2038,"ĠCal":2039,"Ġsum":2040,"ious":2041,"60":2042,"Data":2043,"ĠCity":2044,"Ġ\\,":2045,"ĠGu":2046,"translation":2047,"tal":2048,"Ġlarg":2049,"ination":2050,"ĠIf":2051,"ĠRes":2052,"ush":2053,"Ġkey":2054,"He":2055,"aper":2056,"Ġvis":2057,"leg":2058,"Ġearly":2059,"Ġabove":2060,"ography":2061,"uk":2062,"Ġcal":2063,"Ġ&&":2064,"ĠDecember":2065,"Ġpubl":2066,"Ġdi":2067,"Ġmap":2068,"Ġden":2069,"Ġreal":2070,"ĠMan":2071,"rangle":2072,"rag":2073,"Ġ${\\":2074,"uff":2075,"----------------":2076,"Ġexpl":2077,"ained":2078,"emph":2079,")=":2080,"akes":2081,"Ġid":2082,"test":2083,"\"><":2084,"ĠState":2085,"Ġcharacter":2086,"Ġexample":2087,"xim":2088,"ilit":2089,"aving":2090,"apan":2091,"Ġinteg":2092,"duct":2093,"2000":2094,"Ġaround":2095,"geq":2096,"Ġtri":2097,"Ġeven":2098,"Ġexpect":2099,"ĠâĢĶ":2100,"Ġlaw":2101,"yl":2102,"DE":2103,"80":2104,"Ġhel":2105,"ils":2106,"Ġenergy":2107,"Ind":2108,"ebru":2109,"ĠThey":2110,"iment":2111,"ĠBe":2112,"top":2113,"Ġprivate":2114,"Ġgl":2115,"SE":2116,"Ġbook":2117,"Ġmeasure":2118,"Ġsuccess":2119,"ales":2120,"inition":2121,"Ġtyp":2122,"ription":2123,"ebruary":2124,"varphi":2125,"atures":2126,"inter":2127,"aced":2128,"Ġcity":2129,"ison":2130,"Big":2131,"ham":2132,"ped":2133,"Ġtitle":2134,"rel":2135,"Ġfilms":2136,"By":2137,"ependent":2138,"Ġsl":2139,"Re":2140,"Ġprevious":2141,"reak":2142,"Ġlike":2143,"Ġgra":2144,"ĠKing":2145,"Ġinitial":2146,"ances":2147,"189":2148,"ression":2149,"non":2150,"levision":2151,"mary":2152,"\");":2153,"Ġthose":2154,"alth":2155,"Ġcomput":2156,"mm":2157,"AC":2158,"lected":2159,"aim":2160,"Ã¡":2161,"Ġsat":2162,"iles":2163,"cer":2164,"lear":2165,"Ġmake":2166,"Sh":2167,"Set":2168,"script":2169,"Ġdescribed":2170,"Ġcompet":2171,".~\\":2172,"no":2173,"head":2174,"ruction":2175,"with":2176,"Ġdid":2177,"ius":2178,"ĠCanad":2179,"proof":2180,"but":2181,"ĠWill":2182,"...":2183,"American":2184,"Ġjust":2185,"Ġ/**":2186,"],":2187,"size":2188,"empt":2189,"rench":2190,"ves":2191,"rite":2192,"Ġsimilar":2193,"ino":2194,"ĠAnd":2195,"Ġcrit":2196,"Ġtotal":2197,"Ġmembers":2198,"atter":2199,"Ġassoci":2200,"ĠEurope":2201,"ĠAf":2202,"ixed":2203,"Ġparticular":2204,"Ġder":2205,"imal":2206,"Ġstyle":2207,"ensure":2208,"Ġclos":2209,"Ġeng":2210,"gin":2211,"2005":2212,"overline":2213,"ourn":2214,"Ġcareer":2215,"2021":2216,"ĠĠĠĠĠĠĠĠĠĠĠĠĠĠĠĠĠĠĠĠĠĠĠ":2217,"stit":2218,"45":2219,"ager":2220,"eff":2221,"Ġdom":2222,".}":2223,"Ġstatic":2224,"Ġdefined":2225,"Ġtown":2226,"Ġdem":2227,"Ġintrodu":2228,"ĠFebruary":2229,"Ġwomen":2230,"Ġnamed":2231,"''":2232,"Ġtrad":2233,"oper":2234,"iness":2235,"Ġinclude":2236,"Ġinformation":2237,"ese":2238,"ĠCo":2239,"Ġpost":2240,"Ġbas":2241,"ĠArm":2242,"ony":2243,"Ġdiv":2244,"date":2245,"ensity":2246,"ocument":2247,"ffic":2248,"Ġdown":2249,"Ġshort":2250,"));":2251,"Ġshown":2252,"plit":2253,"Ġpoints":2254,"Ġmember":2255,"Ġaut":2256,"ana":2257,"itor":2258,"ges":2259,"ĠAfter":2260,"Ġfollows":2261,"Ġperiod":2262,"ĠRep":2263,"Ġland":2264,"Pl":2265,"Ġcomplet":2266,"Ġmax":2267,"Not":2268,"ries":2269,"frak":2270,"dom":2271,"&\\":2272,"Ġmajor":2273,"ially":2274,"35":2275,"Ġsection":2276,"bolds":2277,"Ġhig":2278,"ĠPart":2279,"indow":2280,"pre":2281,"ources":2282,"refore":2283,"},\\":2284,"lor":2285,"Ġestablished":2286,"boldsymbol":2287,"Ġpopulation":2288,"lete":2289,"Ġproject":2290,"];":2291,"AN":2292,"bra":2293,"ux":2294,"istic":2295,"sequ":2296,"Ġlet":2297,"ope":2298,"IT":2299,"cul":2300,"Ġbeh":2301,"ĠDist":2302,"Ġworld":2303,"ĠSw":2304,"Ġmark":2305,"Ġret":2306,"cor":2307,"ari":2308,"ideo":2309,"raft":2310,"Ġold":2311,"Ġtechn":2312,"Ġbegan":2313,"ĠEd":2314,"Ġversion":2315,"Exception":2316,"px":2317,"($":2318,"ugg":2319,"urs":2320,"Ġnext":2321,"Ġclub":2322,"[\\":2323,"Ġlocated":2324,"ertain":2325,"aint":2326,"Ġexist":2327,"Ġreport":2328,"Ġquant":2329,"Ġstill":2330,"75":2331,"vec":2332,"go":2333,"Ġmodels":2334,"ynam":2335,"2004":2336,"ĠUS":2337,"Ġspect":2338,"Ġlow":2339,"ĠAm":2340,"Ġperson":2341,"uration":2342,"Ġgovernment":2343,"hline":2344,"eter":2345,"iction":2346,"Ġheld":2347,"though":2348,"ĠSup":2349,"Ġstation":2350,"ection":2351,"ĠBy":2352,"ww":2353,"Ġerror":2354,"alk":2355,"urb":2356,"Ġredu":2357,"Ġway":2358,"Ġalign":2359,"Ġdeg":2360,"ploy":2361,"}).":2362,"Ġ!=":2363,"Ġpat":2364,"rror":2365,"Mod":2366,"ĠEnglish":2367,"ĠBar":2368,"ered":2369,")^":2370,"sl":2371,"Ġchang":2372,"Ġshows":2373,"mathfrak":2374,"ique":2375,"Ġvill":2376,"ering":2377,"ĠJapan":2378,"Ġmust":2379,"ounc":2380,"ĠHar":2381,"Ġ///":2382,"ĠWest":2383,"Ġinf":2384,"nabl":2385,"Ġbest":2386,"Ġcomb":2387,"Object":2388,"Test":2389,"ĠHis":2390,"ervice":2391,"Ġleg":2392,"}}$":2393,"iron":2394,"Ġregion":2395,"ivity":2396,"Ġpo":2397,"ĠChrist":2398,"Ġadv":2399,"orph":2400,"'t":2401,"Ġhome":2402,"99":2403,"search":2404,"Ġwithout":2405,"function":2406,"CO":2407,"._":2408,"ME":2409,"nb":2410,"ster":2411,"Let":2412,"adem":2413,"usiness":2414,"ford":2415,"ĠString":2416,"Ġdeterm":2417,"Ġstudy":2418,"rew":2419,"Int":2420,"ldots":2421,"Ġreceived":2422,"ĠMc":2423,"Ġvol":2424,"Ġsaid":2425,"yd":2426,"illion":2427,"ysis":2428,"Ġstructure":2429,"ondon":2430,"eneral":2431,"Ġep":2432,"Ġla":2433,"ymmet":2434,"Ġside":2435,"node":2436,"Ġsk":2437,"oll":2438,"Ġaver":2439,"70":2440,"CT":2441,"ocial":2442,"Ġcour":2443,"file":2444,"Ġgames":2445,"Ġdistribution":2446,"Ġterms":2447,"========":2448,"Ġprom":2449,"ĠEl":2450,"ume":2451,"Ġtook":2452,"Ġbuilt":2453,"Ġjo":2454,"Ġhouse":2455,"Ġ%":2456,"Ġanother":2457,"unic":2458,"31":2459,"sf":2460,"langle":2461,"Ġprot":2462,"Ġrepl":2463,"Ġcar":2464,"appa":2465,"90":2466,"ille":2467,"day":2468,"alf":2469,"ĠCor":2470,"Lambda":2471,"Ġappear":2472,"mat":2473,"wid":2474,"Ġview":2475,"ention":2476,"Ġspe":2477,"Ġcompany":2478,"ĠRec":2479,"ently":2480,"Ġaff":2481,"bit":2482,"Ġfeature":2483,"ĠMed":2484,"Ġet":2485,"aul":2486,"osp":2487,"Ġconf":2488,"Ġiss":2489,"Ġservice":2490,"rown":2491,"isf":2492,"Ġmuch":2493,"Key":2494,"Ġdel":2495,"rary":2496,"Ġtext":2497,"roid":2498,"rest":2499,"Ġwhat":2500,"Ġfr":2501,"ither":2502,"ological":2503,"imum":2504,"ables":2505,"Ġpublished":2506,"ĠChampionship":2507,"cast":2508,"().":2509,"ĠCollege":2510,"Ġpred":2511,"Ġage":2512,"ĠAfric":2513,"eder":2514,"Ġhow":2515,"Ġarch":2516,"2003":2517,"ĠAb":2518,"ĠEn":2519,"mult":2520,"idual":2521,"Ġlang":2522,"load":2523,"ek":2524,"rick":2525,"Ġnational":2526,"Ġpath":2527,"max":2528,"Ġthird":2529,"ĠĠĠĠĊ":2530,"Ġapproxim":2531,"Ġinterest":2532,"ĠNo":2533,"Ġincluded":2534,"Ġserved":2535,"());":2536,"Ġorg":2537,"Ġsequ":2538,"Ġmatch":2539,"Ġstates":2540,"iet":2541,"ones":2542,"Ġborn":2543,"arried":2544,"group":2545,"rum":2546,"ĠRuss":2547,"ocus":2548,"ĠFrench":2549,"AS":2550,"Ġhistory":2551,"list":2552,"na":2553,"Ġtake":2554,"Class":2555,"Ġpe":2556,"ĠHigh":2557,"Ġport":2558,"sup":2559,"Ġtimes":2560,"Get":2561,"ude":2562,"Ġcentury":2563,"Ġsix":2564,"Ġenc":2565,"ending":2566,"etic":2567,"ayer":2568,"ĠLondon":2569,"ĠTo":2570,"Ġstrong":2571,"uck":2572,"citep":2573,"Ġrange":2574,"Phi":2575,"Ġbase":2576,"Ġprofess":2577,"Ġspecies":2578,"34":2579,"Ġcompon":2580,"Ġlog":2581,"Ġalgorithm":2582,"Ġfive":2583,"opy":2584,"ĠAir":2585,"nbsp":2586,"path":2587,"ops":2588,"ĠThere":2589,"br":2590,"Ġcontrol":2591,"aut":2592,"estern":2593,"De":2594,"2002":2595,"Ġcompos":2596,"Ġcho":2597,"65":2598,"Ġtarget":2599,"ribute":2600,"Ġfull":2601,"ilitary":2602,"Ġelection":2603,"Ġday":2604,"Ġplayer":2605,"ald":2606,"pose":2607,"Ġparameters":2608,"188":2609,"2001":2610,"kappa":2611,"ilter":2612,"ii":2613,"ĠMe":2614,"oph":2615,"ailable":2616,"style":2617,"ĠWilliam":2618,"uman":2619,"obal":2620,"\\|":2621,"Ġinvol":2622,"Ġfurther":2623,"Ġpossible":2624,"Ġtelevision":2625,"Im":2626,"Ġperformance":2627,"textit":2628,"link":2629,"iple":2630,"ĠChar":2631,")(":2632,"Ġdiscuss":2633,"ĠGerman":2634,"Ps":2635,"Ġpot":2636,"Ġsw":2637,"annel":2638,"Sc":2639,"lymp":2640,"atus":2641,"ards":2642,"ights":2643,"plication":2644,"ĠYou":2645,"iant":2646,"Qu":2647,"nabla":2648,"Error":2649,"uation":2650,"Ġturn":2651,"subset":2652,"Ġinput":2653,"Ġwar":2654,"Ġnode":2655,"Ġmen":2656,"Ġcover":2657,"amples":2658,"Def":2659,"Ġcommon":2660,"With":2661,"map":2662,"Ġrole":2663,"Ġgraph":2664,"})$":2665,"draw":2666,"Ġvert":2667,"ĠDistrict":2668,"ensuremath":2669,"summary":2670,"Ġsignific":2671,"pace":2672,"rc":2673,"Ġcorre":2674,"icle":2675,"\\%":2676,"Ã³":2677,"Ġeduc":2678,"ĠCup":2679,"reet":2680,"ĠItal":2681,"Ġmean":2682,"Ġconsidered":2683,"uf":2684,"Or":2685,"Ġphys":2686,"Ġlength":2687,"aff":2688,"Ġcomplex":2689,"Ġmagn":2690,"Ġcou":2691,"ĠThen":2692,"Ġimportant":2693,"wide":2694,"ington":2695,"otimes":2696,"Ġphot":2697,"aining":2698,"Ġred":2699,"point":2700,"IC":2701,"Ġcamp":2702,"2022":2703,"ĠSch":2704,"].":2705,"ĠThese":2706,"}),":2707,"Ġaction":2708,"Ġchildren":2709,"Ġfunctions":2710,"index":2711,"Ġvarious":2712,"ĠArt":2713,"circ":2714,"ĠHer":2715,"Ġobtained":2716,"Ġamong":2717,"Ġfile":2718,"Ġindic":2719,"38":2720,"ridge":2721,"Ġoften":2722,"Sigma":2723,"rows":2724,"ouncil":2725,"Ġsatisf":2726,"iff":2727,".\\":2728,"ways":2729,"inary":2730,"Ġwritten":2731,"now":2732,"ateg":2733,"48":2734,"Ġfail":2735,"ĠAng":2736,"Ġtheory":2737,"Ġbuilding":2738,"olic":2739,"ories":2740,"ĠDav":2741,"conom":2742,"ĠComp":2743,"ship":2744,"Ġmatrix":2745,"Ġmot":2746,"ĠHouse":2747,"url":2748,"ĠPark":2749,"ĠBro":2750,"\";":2751,"AP":2752,"Ġauthor":2753,"Ġsource":2754,"Ġinvest":2755,"mbox":2756,"LL":2757,"clus":2758,"Ġattack":2759,"Ġ``":2760,"Ġsit":2761,"Ġq":2762,"Ġpri":2763,"Living":2764,"ware":2765,"cher":2766,"iber":2767,"ociation":2768,"alt":2769,"public":2770,"ached":2771,"Ġdensity":2772,"Ġspecial":2773,"Ġeas":2774,"df":2775,"Ġfew":2776,"Ġconv":2777,"ĠChe":2778,"ours":2779,"Ġdat":2780,"andom":2781,"Ġsepar":2782,"viron":2783,"Ġnorth":2784,"Ġproduct":2785,"ctor":2786,"Ġ($":2787,"avy":2788,"36":2789,"ief":2790,"mar":2791,"Ġ:=":2792,"perty":2793,"anish":2794,"widet":2795,"Ġ()":2796,"Ġfore":2797,"Ġtraining":2798,"Ġcross":2799,"dots":2800,"ĠMon":2801,"Ġevents":2802,"aken":2803,"Ġlimit":2804,"Ã¼":2805,"Requ":2806,"Ġarm":2807,"ured":2808,"Ġair":2809,"Ġdied":2810,"Ġlower":2811,"ĠQu":2812,"aterial":2813,"inn":2814,"Ġpaper":2815,"itions":2816,"ividual":2817,"Ġprim":2818,"ĠLet":2819,"Ġwater":2820,"\\[":2821,"ula":2822,"Ġparameter":2823,"Ġins":2824,"state":2825,"ules":2826,"Ġrespectively":2827,"ught":2828,"http":2829,"ĠPhil":2830,"Ġaverage":2831,"En":2832,"comp":2833,"ĠPres":2834,"44":2835,"ÃŃ":2836,"['":2837,"Ġfac":2838,"ĠLa":2839,"Ġimpro":2840,"ĉĉĉĉĉ":2841,"Ġconn":2842,"ĠDiv":2843,"ĠList":2844,"exp":2845,"widetilde":2846,"Ġround":2847,"Ġdeta":2848,"nonumber":2849,"location":2850,"ĠOne":2851,"');":2852,"Ġless":2853,"cap":2854,"âĢĿ":2855,"ĠPer":2856,"rain":2857,"55":2858,"Ġsuper":2859,"ouble":2860,"ĠInternational":2861,"Ġvillage":2862,"igned":2863,"People":2864,"Ġcirc":2865,"37":2866,"itect":2867,"attle":2868,"Ġcreated":2869,"Ġflow":2870,"PE":2871,"Ġfree":2872,"Ġbo":2873,"Ġfeatures":2874,"\":":2875,"aged":2876,"era":2877,"abor":2878,"scal":2879,"ients":2880,"ms":2881,"utions":2882,"RO":2883,"Ġpair":2884,"Ġsolution":2885,"Ġrelations":2886,"39":2887,"nder":2888,"Ġsem":2889,"Ġrequest":2890,"Ġhost":2891,"(),":2892,"length":2893,"Ġassert":2894,"ems":2895,"ĠRiver":2896,"History":2897,"Ġannoun":2898,"ought":2899,"1990":2900,"Ġstar":2901,"Ġconsist":2902,"iforn":2903,"Ġimage":2904,"ĠGl":2905,"66":2906,"itch":2907,"Ġcoll":2908,"ĠIndian":2909,"/\\":2910,"rim":2911,"Ġ/>":2912,"II":2913,"}}{":2914,"util":2915,"asing":2916,"Ġlight":2917,"ĠÐ":2918,"centering":2919,"Ġchange":2920,"Ġsystems":2921,"1999":2922,"flu":2923,"Ġcell":2924,"Ġavailable":2925,"Ġworks":2926,"TE":2927,"Ġpotential":2928,"oyal":2929,"ara":2930,"iev":2931,"isc":2932,"ifornia":2933,"burg":2934,"Ġson":2935,"Ġide":2936,"Ġsignificant":2937,"oted":2938,"Ġhowever":2939,"State":2940,"Ġrate":2941,"Ġnov":2942,"Ġknow":2943,"gl":2944,"Ġsouth":2945,"oon":2946,"reed":2947,"Ġgen":2948,"Ġproduced":2949,"atural":2950,"Ġconstant":2951,"Ġclaim":2952,"ĠSan":2953,"New":2954,"Ġhere":2955,"Ġcommand":2956,"FF":2957,"mon":2958,"BC":2959,"orge":2960,"irt":2961,"ĠEngland":2962,"Man":2963,"Ġproperty":2964,"Ġcorresponding":2965,"Ġge":2966,"ĠAg":2967,"useum":2968,"down":2969,"ference":2970,"Ġtw":2971,"View":2972,"Equ":2973,"lands":2974,"Ġsent":2975,"{-":2976,"ogn":2977,"hold":2978,"sw":2979,"Ġapproach":2980,"Ġgroups":2981,"Ġstandard":2982,"ĠLem":2983,"ico":2984,"from":2985,"Ġdiff":2986,"Ass":2987,"Time":2988,"Ġleast":2989,"ken":2990,"chiev":2991,"ĠMich":2992,"Ġanalysis":2993,"kn":2994,"Ġcode":2995,"omb":2996,"cit":2997,"Ġled":2998,"All":2999,"Ġkill":3000,"Ġlabel":3001,"Ġfrequ":3002,"Ġant":3003,"Ġgood":3004,"Ġbecome":3005,"Ġestablish":3006,"File":3007,"hern":3008,"']":3009,"ait":3010,"ension":3011,"Ġbi":3012,"Ġhaving":3013,"Ġbusiness":3014,"Ġcontext":3015,"Bl":3016,"ociety":3017,"duc":3018,"Ġ);":3019,"01":3020,"ĠBr":3021,"thm":3022,"Ġeither":3023,"At":3024,"Ġdev":3025,"Result":3026,".</":3027,"Ġsite":3028,"lying":3029,"ĠDep":3030,"Ġequation":3031,"Ġcases":3032,"}-":3033,"Ġhistor":3034,"LA":3035,"och":3036,"Ġblack":3037,"Ġexec":3038,"ĠCalifornia":3039,"ising":3040,"Map":3041,"Ġser":3042,"ĠAc":3043,"stand":3044,"ĠParty":3045,"cle":3046,"Ġconstruct":3047,"Node":3048,"ĠAustralia":3049,"ĠWhen":3050,"Ġmethods":3051,"Ad":3052,"Ġproduction":3053,"1998":3054,"ica":3055,"ackage":3056,"Ġhigher":3057,"erg":3058,"que":3059,"my":3060,"ama":3061,"ĠTr":3062,"Ġindependent":3063,"ustom":3064,"Form":3065,"hib":3066,"Ġbackground":3067,"Ġpract":3068,"Ġthus":3069,"Ġmoved":3070,"ĠAct":3071,"49":3072,"ender":3073,"Ġsett":3074,"result":3075,"Ġ?":3076,"most":3077,"evel":3078,"Fig":3079,"Ġloss":3080,"Ġcountry":3081,"tabular":3082,"Ġassociated":3083,"Element":3084,"Ġdeaths":3085,"idence":3086,"Ġconfig":3087,"ha":3088,"Ġdimens":3089,"bor":3090,"Ġke":3091,"IS":3092,"ui":3093,"Ġneg":3094,"From":3095,"ably":3096,"Ġmale":3097,"Ġship":3098,"ournal":3099,"pen":3100,"Ġdistrict":3101,"Ġear":3102,"Ġengine":3103,"Ġphase":3104,"cy":3105,"nav":3106,"Ġindividual":3107,"ession":3108,"05":3109,"\"></":3110,"Ġconditions":3111,"/*":3112,"vironment":3113,"ĠVal":3114,"ĠTheorem":3115,"Ġinstance":3116,"\\]":3117,"TR":3118,"Ġimplement":3119,"\\!":3120,"Ġvideo":3121,"Ġcalcul":3122,"ĠOlymp":3123,"187":3124,"Ġblock":3125,"ĠRepublic":3126,"Ġindex":3127,"Ġrequire":3128,"based":3129,"ottom":3130,"uggest":3131,"Ġlinear":3132,"~~":3133,"ĠAward":3134,"Ġcult":3135,"uture":3136,"ivil":3137,"Ġvia":3138,"ĠEast":3139,"ellow":3140,"ogle":3141,"rant":3142,"nection":3143,"Ġarray":3144,"iol":3145,"inated":3146,"Over":3147,"Ġhelp":3148,"ĉĊ":3149,"Ġnumer":3150,"inst":3151,"Ġdevelopment":3152,"ĠPort":3153,"Ġproperties":3154,"Ġlate":3155,"ĠArmy":3156,"Ġregular":3157,"Ġmiss":3158,"iven":3159,"Ġfem":3160,"ibility":3161,"chan":3162,"eh":3163,"Info":3164,"Ġbelow":3165,"\\{":3166,"Rec":3167,"plied":3168,"Ġfather":3169,"Ġsold":3170,"Ġrandom":3171,"Ġinternational":3172,"Ġtemper":3173,"Ġreturned":3174,"Ġbreak":3175,"rec":3176,"ressed":3177,"Event":3178,"Ġvector":3179,"âĢĶ":3180,"itted":3181,"gether":3182,"Ġtogether":3183,"Path":3184,"||":3185,"Request":3186,"Ġcaus":3187,"47":3188,"If":3189,"Ġproof":3190,"van":3191,"Ġresearch":3192,"ponent":3193,"Ġcreate":3194,"ett":3195,"1980":3196,"ĠIndia":3197,"Ġhom":3198,"Ġlines":3199,"ocal":3200,"Ġhalf":3201,"1996":3202,"minist":3203,"Ð°":3204,"Att":3205,"ĠSystem":3206,"Ġfocus":3207,"js":3208,"Ġachiev":3209,"Ġstarted":3210,"foot":3211,"Ġaccess":3212,"Ġabs":3213,"Ġdest":3214,"han":3215,"}+":3216,"zeta":3217,"Ġcommunity":3218,"Ġcost":3219,"ming":3220,"Is":3221,"itz":3222,"ĠSec":3223,"ĠâĢľ":3224,"AD":3225,"plies":3226,"ota":3227,"ĠBel":3228,"ready":3229,"ĠFrance":3230,"Ġproposed":3231,"Ġelements":3232,"Text":3233,"ĠWith":3234,"ĠRed":3235,"Ġdepend":3236,"Ġyoung":3237,"earch":3238,"After":3239,"Ġpositive":3240,"Ġannounced":3241,"Ġuser":3242,"ride":3243,"bb":3244,"iddle":3245,"ĠChurch":3246,"ĠAmeric":3247,"Ġsche":3248,"1997":3249,"api":3250,"aries":3251,"Ġseen":3252,"ĠSim":3253,"raint":3254,"ĠMal":3255,"Ġda":3256,"aves":3257,"error":3258,"CC":3259,"irection":3260,"Ã¶":3261,"Ġcy":3262,"/**":3263,"olean":3264,"Ġground":3265,"ya":3266,"Ġrequired":3267,"ittle":3268,"Ð¾":3269,"Ġcontinu":3270,"acy":3271,"ceed":3272,"ls":3273,"Ġpolitic":3274,"Ġaward":3275,"gcolor":3276,"ĠSince":3277,"orthern":3278,"iance":3279,"Ġbroad":3280,"ĠOb":3281,"iers":3282,"sin":3283,"ION":3284,"Add":3285,"Ġprovide":3286,"Ġcolor":3287,"gress":3288,"Ġexpected":3289,"Field":3290,"ump":3291,"}=\\":3292,")}\\":3293,"MP":3294,"ĠSection":3295,"ounter":3296,"medi":3297,"Ġaccount":3298,"ĠRoman":3299,"Ġ&=":3300,"wise":3301,"ĠEq":3302,"Ġlanguage":3303,"Ġmillion":3304,"omorph":3305,"Ġund":3306,")=\\":3307,"Trans":3308,"prime":3309,"amespace":3310,"Ġsuggest":3311,"icro":3312,"ds":3313,"itar":3314,"ordin":3315,"Ġepis":3316,"Ġsurv":3317,"asc":3318,"ura":3319,"input":3320,";\\":3321,"known":3322,"ecess":3323,"ĠHam":3324,"Ġcontains":3325,"ccording":3326,"ĠAnt":3327,"Ġang":3328,"Config":3329,"{(":3330,"Ġcheck":3331,"Ġ},":3332,"Ġdebut":3333,"Ġnormal":3334,"ael":3335,"dt":3336,"System":3337,"Ġrecent":3338,"ĠFirst":3339,"())":3340,"Ġoutput":3341,"cell":3342,"1995":3343,"oment":3344,"Sp":3345,"eed":3346,"Ġcontent":3347,"ulated":3348,"Ġconc":3349,"which":3350,"arning":3351,"``":3352,"Ġmy":3353,"mark":3354,"Ġgreat":3355,"Ġperm":3356,"Ġsm":3357,"ibrary":3358,"Ġplan":3359,"Ġclose":3360,"Context":3361,"Index":3362,"Ġfund":3363,"Ġill":3364,"Ġcame":3365,"Ġmem":3366,"aches":3367,"ĠRev":3368,"Ġtrack":3369,"Ġmulti":3370,"LO":3371,"ĠAp":3372,"cis":3373,"ĠEm":3374,"09":3375,"unicip":3376,"Ġresponse":3377,"Ġfinite":3378,"Ġsymmet":3379,"Ġreview":3380,"hel":3381,"Ġ/*":3382,"Ġprovided":3383,"}]":3384,"Ġdocument":3385,"sing":3386,"67":3387,"ilities":3388,"ĠEuropean":3389,"bed":3390,"Ġbgcolor":3391,"cos":3392,"ney":3393,"ements":3394,"Ġbody":3395,"hood":3396,"Ġacross":3397,"Ġdegree":3398,"Ġflo":3399,"ĠCanada":3400,"Ġdefine":3401,"Build":3402,"Ġemploy":3403,"uel":3404,"ĠGeneral":3405,"Ġattempt":3406,"ĠSum":3407,"igen":3408,"ĠQue":3409,"ĠCouncil":3410,"Ġofficial":3411,"lemma":3412,"68":3413,"andid":3414,"textwidth":3415,"reek":3416,"ĠDivision":3417,"berg":3418,"ĠAmerica":3419,"thern":3420,"Ġdynam":3421,"iding":3422,"erb":3423,"=\"../../":3424,"rote":3425,"prop":3426,"iled":3427,"ĠJames":3428,"Ġactiv":3429,"ĠThom":3430,"[]":3431,"ĠPal":3432,"95":3433,"ĠSm":3434,"Ġtaken":3435,"Ġwent":3436,"uments":3437,"UR":3438,"ĠHol":3439,"Ġpopular":3440,"Ġmeans":3441,"Service":3442,"utes":3443,"rated":3444,"Ġpolitical":3445,"Ġlo":3446,"Ġappoint":3447,"ĠCont":3448,"Ġperformed":3449,"gen":3450,"Ġfri":3451,"escription":3452,"}_\\":3453,"':":3454,"ĠMor":3455,"Ġexists":3456,"Ġdefault":3457,"MA":3458,")^{":3459,"08":3460,"istics":3461,"Ġparticip":3462,"ĠRober":3463,"1994":3464,"Ġunit":3465,"ĠCour":3466,"}^\\":3467,"outhern":3468,"bert":3469,"Ġconstruction":3470,"1992":3471,"Ġcr":3472,"AA":3473,"ville":3474,"lt":3475,"cdots":3476,"!--":3477,"band":3478,"ĠPaul":3479,"ĠĠĠĠĠĠĠĠĠĠĠĠ":3480,"icon":3481,"ili":3482,"void":3483,"otes":3484,"ires":3485,"Ġreported":3486,"ĠFl":3487,"artment":3488,"agement":3489,"ean":3490,"ĠÃ":3491,"Ġdeveloped":3492,"ked":3493,"plate":3494,"Ġ(!":3495,"$)":3496,"Ġsocial":3497,"ago":3498,"true":3499,"Ġmarried":3500,"Ġrelated":3501,"ED":3502,"ranch":3503,"small":3504,"year":3505,"ka":3506,"Ge":3507,"stitute":3508,"ky":3509,"Ġsequence":3510,"eturn":3511,"izing":3512,"cup":3513,"Ġbegin":3514,"Array":3515,"1970":3516,"ML":3517,"ĠPresident":3518,"Ġliter":3519,"////////":3520,"ĠRoyal":3521,"itte":3522,"Ġtre":3523,"ĠStreet":3524,"apache":3525,"ĠGeorge":3526,"ensor":3527,"eal":3528,"ategory":3529,"ttp":3530,"gebra":3531,"Ġarchitect":3532,"Ġdefe":3533,"Ġdefinition":3534,"atal":3535,"object":3536,"Ġwidth":3537,"atives":3538,"config":3539,"Ġworked":3540,"uster":3541,"US":3542,"ĠBra":3543,"struct":3544,"Ġinflu":3545,"embly":3546,"ĠDi":3547,"aker":3548,"ĠIm":3549,"refer":3550,"Ġsurface":3551,"Ġzero":3552,"++":3553,"oe":3554,"ĠĠĠĠĠĠĠĠĠĠĠĠĠĠĠĠĠĠĠĠĠĠĠĠĠĠĠ":3555,"Ġmilitary":3556,",-":3557,"ributed":3558,"widehat":3559,"Ġlook":3560,"ply":3561,"Ġadditional":3562,"call":3563,"ĠDef":3564,"Ġdistance":3565,"Ġbehav":3566,"quare":3567,"ĠAssociation":3568,"Ġjoined":3569,"Ġgrow":3570,")]":3571,"Ðµ":3572,"ĠDes":3573,"Ġ\\{":3574,"ags":3575,"Ġdays":3576,"ĠFrom":3577,"Ġstep":3578,"umni":3579,"ayout":3580,"Ġinstead":3581,"Ġcompar":3582,"block":3583,"ĠSen":3584,"ĠMod":3585,"fin":3586,"ĠMount":3587,"Ġlarger":3588,"Ġfig":3589,"atrix":3590,"Ġoperator":3591,"SP":3592,"ĠRich":3593,"ns":3594,"Ġtable":3595,"Ġrat":3596,"like":3597,"}}(":3598,"Ġmaterial":3599,"ework":3600,"ĠDem":3601,"men":3602,"body":3603,"Ġservices":3604,"Ġparent":3605,"roy":3606,"qquad":3607,"Ġalready":3608,"Ġfields":3609,"anel":3610,"ĠBer":3611,"Ġrail":3612,"UT":3613,"Out":3614,"Inst":3615,"assert":3616,"ĠStud":3617,"Ġcentral":3618,"ani":3619,"ĠLou":3620,"Ġ});":3621,"ync":3622,"Ġmaking":3623,"Ġobserved":3624,"ulations":3625,"ĠHall":3626,"Ġtry":3627,"ĠTrans":3628,"user":3629,"icy":3630,"Ġcollection":3631,"Ġequival":3632,"46":3633,"Ġintroduced":3634,"Size":3635,"ving":3636,"185":3637,"Ġfixed":3638,"ĠUnion":3639,"ributions":3640,"ocr":3641,"1993":3642,"ynt":3643,"ĠAustralian":3644,"rian":3645,"IG":3646,"ĠMore":3647,"Comp":3648,"ĠGermany":3649,"Ġcolumn":3650,"Ġwhose":3651,"\"\"":3652,"Ġcapt":3653,"board":3654,"Ġmultiple":3655,"Ġinvestig":3656,"Ġhuman":3657,"Ġscale":3658,"ifier":3659,"FA":3660,"hand":3661,"oo":3662,"mathsf":3663,"Ġwant":3664,"ĠClass":3665,"****************":3666,"ners":3667,"Ġmid":3668,"rup":3669,"istry":3670,"Reg":3671,"Ġeval":3672,"Ġclosed":3673,"Ġstory":3674,"})\\":3675,"alax":3676,"Ġcoupl":3677,"ramework":3678,"Ġwrote":3679,"AB":3680,"icol":3681,"Psi":3682,"ida":3683,"}|":3684,"ado":3685,"ĠDavid":3686,"Ġexperiment":3687,"ills":3688,"pdf":3689,"Ġdecl":3690,"rd":3691,"Ġfactor":3692,"riate":3693,"Ġsimple":3694,"spec":3695,"ein":3696,"';":3697,"ched":3698,"count":3699,"Ġareas":3700,"ĠDuring":3701,"iform":3702,"Ġable":3703,"asket":3704,"Ġprobability":3705,"Tr":3706,"icles":3707,"Hand":3708,"Ġstudents":3709,"Ġpresident":3710,"ĠFigure":3711,"Ġhold":3712,"Ġvalid":3713,"Code":3714,"ĠPat":3715,"Ġlik":3716,"Ġ-->":3717,"ander":3718,"Ġneigh":3719,"Of":3720,"Ġmag":3721,"Ġbetter":3722,"}^{(":3723,"ptions":3724,"writ":3725,"ĠPe":3726,"ĠGroup":3727,"1991":3728,"88":3729,"Ġgradu":3730,"Ġopened":3731,"ET":3732,"Ġspecific":3733,"skip":3734,"ĠBlack":3735,"change":3736,"07":3737,"esh":3738,"Ġteams":3739,"Ġ===":3740,"SC":3741,"Ġconduct":3742,"mit":3743,"&=":3744,"Ġpredict":3745,"Ġput":3746,"Ġleading":3747,"ĠDr":3748,"Ġsuccessful":3749,"raction":3750,"Ġarr":3751,"42":3752,"Ġoccur":3753,"asons":3754,"icient":3755,"astic":3756,"nel":3757,"Val":3758,"Ġcenter":3759,"Ġindust":3760,"wood":3761,"la":3762,"aps":3763,"ĠNor":3764,"Ġcompleted":3765,"ini":3766,"Ġwebs":3767,"03":3768,"anies":3769,"Ġquest":3770,"Ġroad":3771,".~":3772,"Ġ$(\\":3773,"define":3774,"oz":3775,"mid":3776,"https":3777,"Ġlost":3778,"alls":3779,"ged":3780,"Ġrecogn":3781,"ĠMart":3782,"star":3783,"Inter":3784,"Ġprofessional":3785,"Group":3786,"ipp":3787,"Ġeconom":3788,"ĠNe":3789,"Ġsets":3790,"Ġonce":3791,"word":3792,"ashington":3793,"End":3794,"Ġsay":3795,"Te":3796,"gs":3797,"=\"+":3798,"ĠĠĠĠĠĠĠĠĠĠ":3799,"plicit":3800,"Ġchurch":3801,"uffer":3802,"racy":3803,"note":3804,"rab":3805,"ĠChina":3806,"ĠBut":3807,"Ġnatural":3808,"ĠProv":3809,"Ġmar":3810,"Ġrelease":3811,"model":3812,"level":3813,"rate":3814,"Ð¸":3815,"Ġsongs":3816,"Ġrac":3817,"ensive":3818,"Ġdirector":3819,"Ġdirected":3820,"alle":3821,"ĠAcadem":3822,"xspace":3823,"appro":3824,"06":3825,"Ġadded":3826,"run":3827,"Ġaccording":3828,"Ġworking":3829,"ensus":3830,"Ġnovel":3831,"^+":3832,"Ġ__":3833,"Ġlearning":3834,"ĠMark":3835,"atory":3836,"ishing":3837,"{{\\":3838,"}\\,":3839,"ĠLemma":3840,"Ġnever":3841,"Ġtransfer":3842,"Ġstage":3843,"}\\\\":3844,"Ġedge":3845,"Ġhon":3846,"Item":3847,"utive":3848,"Ġothers":3849,"Ġborder":3850,"aign":3851,"Ġyour":3852,"ughter":3853,"Ġradio":3854,"Ġformed":3855,"create":3856,"Ġnil":3857,"85":3858,"NA":3859,"Ġcontinued":3860,"Ġpress":3861,"ĠInt":3862,"ites":3863,"Ġgive":3864,"Ġparty":3865,"Ġrecorded":3866,"Ġquantum":3867,"rade":3868,"check":3869,"ES":3870,"title":3871,"1960":3872,"Ġes":3873,"ĠMary":3874,"ooth":3875,"liament":3876,"Ġpur":3877,"prot":3878,"ĠMex":3879,"antic":3880,"oud":3881,"ĠGames":3882,"MS":3883,"Ġhard":3884,"ĠCenter":3885,"itting":3886,"ĠMy":3887,"Ġincludes":3888,"ittee":3889,"500":3890,"oke":3891,"Ġentire":3892,"ĠRoad":3893,"ĠHen":3894,"CH":3895,"oken":3896,"){":3897,"Ġrev":3898,"bo":3899,"Ġcomplete":3900,"light":3901,"ĠCompany":3902,"Ġbrother":3903,"ĠMusic":3904,"IP":3905,"aur":3906,"inese":3907,"Ġcontract":3908,"02":3909,"izes":3910,"Ġthough":3911,"come":3912,"Ġoffer":3913,"Up":3914,"Ġcandid":3915,"Ġtradition":3916,"Ġspin":3917,"uz":3918,"inally":3919,"ĠClub":3920,"fill":3921,"quot":3922,"43":3923,"Ġtransform":3924,"imate":3925,"Ġpresented":3926,"Ġmoment":3927,"yt":3928,"ĠInter":3929,"Ġrather":3930,"ĠLaw":3931,"Ġalthough":3932,"ios":3933,"Ġmeet":3934,"Ġten":3935,"Table":3936,"eline":3937,"scale":3938,"OS":3939,"overnor":3940,"Ġsigned":3941,"Ġexact":3942,"Ġcut":3943,"xy":3944,"1989":3945,"Ġdatas":3946,"Ġ&\\":3947,"rame":3948,"ĠSociety":3949,"1988":3950,"Ġmechan":3951,"used":3952,"Ġboundary":3953,"Ġeducation":3954,"IR":3955,"And":3956,"arily":3957,"Ġalbums":3958,"ĠDon":3959,"ston":3960,"41":3961,")-":3962,"Ġassume":3963,",\"":3964,"ala":3965,"ĠBay":3966,"ĠRef":3967,"}:":3968,"69":3969,"Ġalways":3970,"Ġprior":3971,"Ġprinc":3972,"Ġsoft":3973,"pite":3974,"atively":3975,"Ġweek":3976,"ĠCourt":3977,"more":3978,"Count":3979,"ĠKingdom":3980,"Ġnecess":3981,"Ġsubject":3982,"eck":3983,"asketball":3984,"place":3985,"den":3986,"unk":3987,"verse":3988,"Ġviol":3989,"ĠTown":3990,"actions":3991,"Query":3992,"Ġsample":3993,"umbers":3994,"Ġqual":3995,"ĠMet":3996,"Message":3997,"atform":3998,"ĠTra":3999,"CD":4000,"Ġaway":4001,"ario":4002,"ĠGreen":4003,"ĠVir":4004,"Ġtemperature":4005,"Sub":4006,"Ġactive":4007,"ĠCanadian":4008,"flo":4009,"edge":4010,"Ġremov":4011,"77":4012,"Exp":4013,"Pr":4014,"Ġcertain":4015,"Ġfar":4016,"Ã¤":4017,"ponse":4018,"elling":4019,"Ġhor":4020,"Ġ};":4021,"using":4022,"EE":4023,"ĠHistor":4024,"include":4025,"Ġweight":4026,"print":4027,"Ġvers":4028,"Ġfootballers":4029,"Eng":4030,"='":4031,"ores":4032,"ria":4033,"olit":4034,"ilton":4035,"Model":4036,"Ġholds":4037,"ĠArch":4038,"Ġcoach":4039,"lient":4040,"There":4041,"Ġwhether":4042,"info":4043,"ĠWashington":4044,"ĠGet":4045,"citet":4046,"base":4047,"ĠIsland":4048,"=#":4049,"####":4050,"ĠThus":4051,"md":4052,"]$":4053,"Ġoptions":4054,"Film":4055,"Ġfuture":4056,"dimens":4057,"bt":4058,"encies":4059,"Ġcontain":4060,"Ġwebsite":4061,"Ġmer":4062,"Comm":4063,"equiv":4064,"indent":4065,"Ġchanges":4066,"bound":4067,"rey":4068,"Ġfounded":4069,"ĠInstitute":4070,"display":4071,"onic":4072,"Ġaccept":4073,"pty":4074,"su":4075,"Ġcomponent":4076,"ĠSing":4077,"Ġsuff":4078,"Ġelected":4079,"Ġgives":4080,"dist":4081,"Ġkm":4082,"Ġgoal":4083,"Sup":4084,"Ġequal":4085,"Ent":4086,"www":4087,"icult":4088,"Ġtherefore":4089,"estival":4090,"ĠMiss":4091,"Ġwrite":4092,"Ġrace":4093,"ĠSo":4094,"Ġtreat":4095,"Ġappeared":4096,"roller":4097,"Ġwife":4098,"ĠCath":4099,"04":4100,"Ġaddress":4101,"can":4102,"start":4103,"irtual":4104,"itude":4105,"ĠDepartment":4106,"cho":4107,"98":4108,"Ġdirection":4109,"method":4110,"Ġvict":4111,"ĠMont":4112,"ĠSam":4113,"Ġalmost":4114,"Ġparts":4115,"Ġselected":4116,"}}{\\":4117,"shire":4118,"ĠJack":4119,"onal":4120,"ĠAfrican":4121,"Ġappointed":4122,"Ġbeliev":4123,"Ġeffects":4124,"Ġlive":4125,"}+\\":4126,"ĠVol":4127,"Ġdiag":4128,"Ġbox":4129,"Ġtypes":4130,"Ġfront":4131,"ros":4132,"hspace":4133,"Ġren":4134,"Ap":4135,"oul":4136,"ĠGo":4137,"Bar":4138,"Ġupper":4139,"Ġstars":4140,"gt":4141,"cel":4142,"ĠJapanese":4143,"Ġcast":4144,"yper":4145,"ĠPress":4146,"eloc":4147,"ĠTest":4148,"Ġlargest":4149,"Ġalumni":4150,"Ġben":4151,"Log":4152,"neq":4153,"OT":4154,"Ġjava":4155,"Ġdenote":4156,"ĠRecords":4157,"Ġrow":4158,"ids":4159,"cial":4160,"Ed":4161,"Ġfollowed":4162,"hi":4163,"long":4164,"Ġleague":4165,"ona":4166,"ened":4167,"ĠTur":4168,"uan":4169,"default":4170,"ĠTV":4171,"97":4172,"flow":4173,"Ġtask":4174,"Ġchannel":4175,".)":4176,"oms":4177,"ULL":4178,"Ġglobal":4179,"Ġbar":4180,"ĠCentral":4181,"Ġsubsequ":4182,"1987":4183,"Ġdisplay":4184,"rast":4185,"omial":4186,"ĠMuseum":4187,"ĠSl":4188,"Ġclear":4189,"Ġdouble":4190,"split":4191,"Ġdepart":4192,"Call":4193,"Ġlocation":4194,"Ġstudies":4195,"Ġcannot":4196,"arameter":4197,"Ġeast":4198,"ĠAcademy":4199,"case":4200,"0000":4201,"net":4202,"Ġbasis":4203,"TD":4204,"tra":4205,"acity":4206,"ĠBest":4207,"rish":4208,"theorem":4209,"do":4210,"ĠRail":4211,"ols":4212,"valid":4213,"ging":4214,"abled":4215,"ĠMad":4216,"UN":4217,"ki":4218,"ena":4219,"oding":4220,"Ġcompared":4221,"Ġgalax":4222,"Ġnom":4223,"Since":4224,"ĠAngel":4225,"ĠGrand":4226,"Ġmaximum":4227,"ĠAlex":4228,"Ġacqu":4229,"efore":4230,"Ġsearch":4231,"Ġmedia":4232,"Ġdesigned":4233,"'$":4234,"ada":4235,"Ġadminist":4236,"Ġprop":4237,"Ġgenerated":4238,"Ġmessage":4239,"unt":4240,"Ġcle":4241,"Ġequations":4242,"ĠItalian":4243,"rs":4244,"Ġrepresentation":4245,"Ġforce":4246,"Ġoffice":4247,"Ġmother":4248,"scr":4249,"ĠRobert":4250,"Ġassist":4251,"bour":4252,"Ġconver":4253,"Ġenvironment":4254,"ĠCO":4255,"ĠSummer":4256,"ĠRussian":4257,"Ġrot":4258,"enumer":4259,"Ġmodern":4260,"Ġrespons":4261,"Ġconstraint":4262,"next":4263,"Ġdone":4264,"ua":4265,"enced":4266,"ING":4267,"Ġreason":4268,"Ser":4269,"Ġunits":4270,"Ġtoo":4271,"}-\\":4272,"((":4273,"ĠThomas":4274,"tes":4275,"ises":4276,"1986":4277,"current":4278,"ederal":4279,"Ġinc":4280,"Ġwest":4281,"argin":4282,"Ġmetric":4283,"version":4284,"Ġuses":4285,"ĠDo":4286,"web":4287,"actory":4288,"ĠTex":4289,"Manager":4290,"ĠSal":4291,"edy":4292,"Ġwhite":4293,"nce":4294,"Ġbirth":4295,"tact":4296,"Ġsupported":4297,"ĠLeg":4298,"Ġimages":4299,"west":4300,"acing":4301,"Ġce":4302,"km":4303,"sel":4304,"ĠOlympics":4305,"aging":4306,"cret":4307,"ĠSet":4308,"1984":4309,"ĠCap":4310,"Ġearli":4311,"ĠCong":4312,"thlet":4313,"ĠZeal":4314,"Color":4315,"king":4316,"ĠGreat":4317,"|^":4318,"Ġunc":4319,"tem":4320,"has":4321,"ĠMac":4322,"angle":4323,"58":4324,"osen":4325,"ictor":4326,"Ġusually":4327,"ĠRad":4328,"Ġeight":4329,"ĠCons":4330,"ĠMat":4331,"ĠWestern":4332,"contain":4333,"vis":4334,"Ġtaking":4335,"--------------------------------":4336,"plications":4337,"ĠZealand":4338,"Ġstatus":4339,"arter":4340,"Ġadj":4341,"ĠWhile":4342,"ledge":4343,")}{":4344,"Ð½":4345,"Ġdirectly":4346,"ĠFootball":4347,"Ġfire":4348,"ocks":4349,"cing":4350,"Ġstudied":4351,"pret":4352,"ocation":4353,"range":4354,"ĠLand":4355,"content":4356,"Ġsound":4357,"Ġprovides":4358,"Ġmight":4359,"Ġeffective":4360,"reate":4361,"ĠAfrica":4362,"Ġhous":4363,"1985":4364,"Ġrock":4365,"ĠScott":4366,"Ġregard":4367,"Ġcompanies":4368,"Ġpers":4369,"opl":4370,"(-":4371,"57":4372,"Ġhimself":4373,"iting":4374,"ÑĤ":4375,"Ġ-\\":4376,"Ġamount":4377,"ĠEar":4378,"member":4379,"Ġconstit":4380,"Ġstre":4381,"Ġdraw":4382,"Ġschools":4383,"{}":4384,"erve":4385,"Ġsmaller":4386,"overs":4387,"Ġoperation":4388,"96":4389,"Ġreplaced":4390,"hest":4391,"Ġmarket":4392,"OD":4393,"Ġpage":4394,"]\\":4395,"Ġoptim":4396,"ĠCharles":4397,"=\"#":4398,"Ġmove":4399,"book":4400,";&":4401,"orage":4402,"itemize":4403,"ĠWil":4404,"iments":4405,"ĠFilm":4406,"pc":4407,"Spec":4408,"Ġhealth":4409,"urity":4410,"Ġpay":4411,"Ġguitar":4412,"func":4413,"Ġter":4414,"Ġimplies":4415,"onstr":4416,"ams":4417,"ĠSub":4418,"olf":4419,"ba":4420,"Ġaud":4421,"ican":4422,"Ġexhib":4423,"Ġstri":4424,"png":4425,"olar":4426,"CE":4427,"abs":4428,"Ġdiscover":4429,"ingu":4430,"ĉĉĉĉĉĉ":4431,"Ġapplied":4432,"Ġveloc":4433,"Ġgas":4434,"height":4435,"Ġallowed":4436,"Ġcoordin":4437,"Ġdon":4438,"reland":4439,"({\\":4440,"Wh":4441,"ĠUK":4442,"Ġplaying":4443,"Ġforces":4444,"ircraft":4445,"icture":4446,"Property":4447,"FC":4448,"ĠLouis":4449,"inct":4450,"ĠYear":4451,"static":4452,"Ġrelationship":4453,"ously":4454,"Ġobjects":4455,"child":4456,"Ġsignal":4457,"Response":4458,"Ġproblems":4459,"Ġsports":4460,"Ġenough":4461,"nes":4462,"Ġthroughout":4463,"Ġincrease":4464,"Method":4465,"Ġ(\"":4466,"event":4467,"ĠVirgin":4468,"amily":4469,"ĠMag":4470,"Ġinj":4471,"Ġprint":4472,"Ġstructures":4473,"Ġtro":4474,"63":4475,"Ġbool":4476,"Ġpast":4477,"google":4478,"ansion":4479,"build":4480,"Ġdaughter":4481,"usical":4482,"ĠChinese":4483,"ospital":4484,"apping":4485,"ĠWhite":4486,"rael":4487,"ilies":4488,"dag":4489,"Ġwindow":4490,"enumerate":4491,"active":4492,"PI":4493,"Ġoperations":4494,"Ġitself":4495,"gent":4496,"No":4497,"izer":4498,"Ġcoeff":4499,"dimensional":4500,"Ġrepresented":4501,"ĠGold":4502,"Ġcurrently":4503,"iation":4504,"Ġtransition":4505,">&":4506,"Ġnote":4507,"Ġinvolved":4508,"Ġliving":4509,"azine":4510,"Ġdate":4511,"Ġcomponents":4512,"ĠNot":4513,"1983":4514,"sy":4515,"icense":4516,"vspace":4517,"Ġyield":4518,"Ġmedal":4519,"Ġdram":4520,"Ġ\\|":4521,"TH":4522,"ully":4523,"acher":4524,"ĠMinister":4525,"ĠKore":4526,"ira":4527,"Ġrestrict":4528,"ita":4529,"irm":4530,"Ġmonths":4531,"element":4532,"duction":4533,"Ġdifficult":4534,"Ġstations":4535,"Ġtourn":4536,"Char":4537,"Ġupon":4538,"Ġsources":4539,"well":4540,"izations":4541,"AM":4542,"Ġepisode":4543,"core":4544,"Ġcampaign":4545,"Ġnumbers":4546,"rief":4547,"Ġbecomes":4548,"Ġprove":4549,"final":4550,"arp":4551,"Ġpeak":4552,"dev":4553,"87":4554,"rule":4555,"ĠChristian":4556,"Client":4557,"Ġprimary":4558,"Ġload":4559,"false":4560,"ĠMer":4561,"context":4562,"1950":4563,"Ġalgebra":4564,"ication":4565,"dec":4566,"Ġsil":4567,"init":4568,"ĠCarol":4569,"Ġstop":4570,"Ġbuildings":4571,"arian":4572,"Ġsetting":4573,"ĠTexas":4574,"Ġsrc":4575,"Ġtree":4576,"Ġrelation":4577,"ĠPet":4578,"atre":4579,"ĠMichael":4580,"arned":4581,"lector":4582,"ĠJew":4583,"Ġboard":4584,"Ġmunicip":4585,"road":4586,"Ġpreviously":4587,"NS":4588,"Ġheight":4589,"isl":4590,"Ġdomain":4591,"ÑĢ":4592,"Ġstated":4593,"Ġgave":4594,"ĠTom":4595,"Ġadapt":4596,"operat":4597,")}$":4598,"~$":4599,"aching":4600,"Ġflu":4601,"IL":4602,"clusion":4603,"main":4604,"\\,\\":4605,"](":4606,"host":4607,"Ġrights":4608,"abase":4609,"erman":4610,"ollowing":4611,"Ġspeed":4612,"ping":4613,"Ġfinished":4614,"Vert":4615,"jo":4616,"ĠLat":4617,"Ġreference":4618,"Ġcharacters":4619,"Ġunique":4620,"astern":4621,"mathscr":4622,"Ġincreasing":4623,"ĠSur":4624,"java":4625,"Ġvariables":4626,"page":4627,"operatorn":4628,"Ġsens":4629,"Ġmode":4630,"Ġscen":4631,"Ġdemonstr":4632,"package":4633,"win":4634,"omorphism":4635,"One":4636,"Ġlisted":4637,"option":4638,"Ġphysical":4639,"1982":4640,"Ġpattern":4641,"Ġplaces":4642,"oring":4643,"Ġanim":4644,"aring":4645,"zil":4646,"het":4647,"Ġtakes":4648,"ĠUp":4649,"operatorname":4650,"idae":4651,"people":4652,"language":4653,"isk":4654,"62":4655,"Ġiter":4656,"Ġtheorem":4657,"=\"../../../../":4658,"command":4659,"$}":4660,"noindent":4661,"ding":4662,"ares":4663,"ĠCatholic":4664,"Ġsolutions":4665,"&&":4666,"}/":4667,"za":4668,"First":4669,"Ġfav":4670,"uns":4671,"options":4672,"oviet":4673,"ĠTable":4674,"ducation":4675,"Ġmagnetic":4676,"uit":4677,"Ġrelative":4678,"Read":4679,"EC":4680,"Ġfight":4681,"1979":4682,"Ġfemale":4683,"ĠBook":4684,"Ġoutside":4685,"ributes":4686,"Ġjournal":4687,">(":4688,"ying":4689,"Ġinternal":4690,"Override":4691,"di":4692,"Ġreve":4693,"Ġmention":4694,"}}_":4695,"\\}$":4696,"ĠSpec":4697,"Ġseg":4698,"ĠDan":4699,"rupt":4700,"ĠSome":4701,"aval":4702,"ĠSecond":4703,"Le":4704,"Ġnames":4705,"ĠParis":4706,"Ġrunning":4707,"Ġmissing":4708,"Ġoriginally":4709,"Ġallows":4710,"Ġtrac":4711,"Ġdifference":4712,"Ġtransl":4713,"ĠBo":4714,"Ġjud":4715,"ips":4716,"IM":4717,"ĠTherefore":4718,"Ġwords":4719,"Ġaltern":4720,"ella":4721,"Ġtransport":4722,"ĠJose":4723,"ny":4724,"BA":4725,"that":4726,"PS":4727,"Ġthrow":4728,"61":4729,"isions":4730,"ockey":4731,"idents":4732,"ether":4733,"ĠNote":4734,"Ġnuc":4735,"ube":4736,"arts":4737,"isation":4738,"Ġevolution":4739,"][":4740,"Ġkilled":4741,"Ġdam":4742,"ĠTor":4743,"Ġpolitician":4744,"Ġmount":4745,"Pi":4746,"Ġconnected":4747,"ĠOther":4748,"allel":4749,"NN":4750,"Che":4751,"Ġeventually":4752,"Ġseven":4753,"ĠDay":4754,"aud":4755,"pecially":4756,"evelop":4757,"background":4758,"Ġtit":4759,"char":4760,"Ġartists":4761,"Ġelectron":4762,"ln":4763,"sm":4764,"Ġtowards":4765,"ĠSpanish":4766,"ras":4767,"ĠFrancis":4768,"Stream":4769,"ENT":4770,"Ġestimate":4771,"Ġtour":4772,"airs":4773,"Ġchanged":4774,"Ġagre":4775,"Ġpolicy":4776,"ĠMel":4777,"Ġord":4778,"ename":4779,"oma":4780,"FL":4781,"ĠSuper":4782,"linear":4783,"iences":4784,"db":4785,"Ġdeal":4786,"auge":4787,"ĠBill":4788,"1981":4789,"ano":4790,"css":4791,"server":4792,"ĠSmith":4793,"Ġinstall":4794,"================":4795,"ishop":4796,"gence":4797,"doc":4798,"Ġdetails":4799,"Ġmix":4800,"Ġregions":4801,"Ġillust":4802,"Ġax":4803,"AG":4804,"Ġdecre":4805,"unity":4806,"multicol":4807,"rial":4808,"undle":4809,"Ġbooks":4810,"ĠAccording":4811,"ĠBen":4812,"Med":4813,"])":4814,"Ġstd":4815,"fess":4816,"otype":4817,"Ġaccom":4818,"ias":4819,"namespace":4820,"ĠFore":4821,"ĠService":4822,"elt":4823,"oto":4824,"ifying":4825,"Head":4826,"Ġwriter":4827,"Ġrelig":4828,"ĠDemocr":4829,"Ġste":4830,"standing":4831,"Ġclassical":4832,"Ġchall":4833,"stream":4834,"multicolumn":4835,"ĠSer":4836,"ĠDirect":4837,"TV":4838,"apter":4839,"Ġremains":4840,"ĠPeter":4841,"Ġcustom":4842,"empty":4843,"User":4844,"Ġcorrect":4845,"ayers":4846,"Ġreached":4847,"ĠPo":4848,"Ġresulting":4849,"utch":4850,"Ġlatter":4851,"Ġexpand":4852,")+":4853,"Act":4854,"Ã¨":4855,"Ġcritical":4856,"Ġapplication":4857,"Ġneut":4858,"Ġver":4859,"Note":4860,"ĠGra":4861,"Be":4862,"usion":4863,"Ġvoc":4864,"ĠFrank":4865,"variant":4866,"Builder":4867,"1972":4868,"}}}":4869,"Ġexcept":4870,"Ġbelong":4871,"Ġweak":4872,"1976":4873,"Back":4874,"ao":4875,"ĠMass":4876,"ĠRichard":4877,"ĠDel":4878,"Äģ":4879,"Oper":4880,"Ġimmedi":4881,"rig":4882,"Ġword":4883,"ynomial":4884,"ĠLake":4885,"Ġkeep":4886,"icago":4887,"SU":4888,"approx":4889,"Ġmach":4890,"ĠVictor":4891,"ĠFlor":4892,"Line":4893,"Early":4894,"pass":4895,"tx":4896,"Ġgrad":4897,"Ġoccup":4898,"Ġruns":4899,"Off":4900,"bul":4901,"Ġpain":4902,"ĠIreland":4903,"ĠScience":4904,"Ġunivers":4905,"ocol":4906,"Ġdrop":4907,"1978":4908,"ĠWork":4909,"Ġstream":4910,"Ġequivalent":4911,"Co":4912,"Ġrob":4913,"ĠOut":4914,"Ġremained":4915,"Can":4916,"ĠĠĠĠĠĠĠĠĠĠĠĠĠĠĠĠĠ":4917,"Ġbehavior":4918,"Ġratio":4919,"Ġmakes":4920,"Ġconclud":4921,"local":4922,"ĠFound":4923,"olk":4924,"Ġcivil":4925,"Ġgeomet":4926,"PC":4927,"Ġvariable":4928,"App":4929,"stant":4930,"ĠSant":4931,"ĠOff":4932,"Ġfrequency":4933,"Ġestablishments":4934,"Ġinstit":4935,"Ġclasses":4936,"first":4937,"ĠLos":4938,"59":4939,"ĠPri":4940,"ront":4941,"Ġconcept":4942,"duced":4943,"Status":4944,"Ġgenerally":4945,"norm":4946,"Ġplaced":4947,"ĠForce":4948,"orial":4949,"Ġcountries":4950,"Ġspectrum":4951,"Ġsymbol":4952,"Ġtravel":4953,"ye":4954,"1974":4955,"idden":4956,"ĠGeorg":4957,"Ġawarded":4958,"Ġexpression":4959,"Ġscore":4960,"Ġfourth":4961,"Util":4962,"ĠSwed":4963,"Source":4964,"({":4965,"Token":4966,"ĠHistory":4967,"Ġeffort":4968,"Ġfriend":4969,"len":4970,"reme":4971,"bon":4972,"Ġfall":4973,"reater":4974,"illa":4975,"Base":4976,"Per":4977,"ĠOrder":4978,"78":4979,"yr":4980,"Ġextended":4981,"Ġrule":4982,"Ġnodes":4983,"ĠApp":4984,"auss":4985,"igan":4986,";\"":4987,"Ġsen":4988,"ĠWomen":4989,"Ġconsists":4990,"ades":4991,"ĠHenry":4992,"ĠRob":4993,"Ġfeatured":4994,"eria":4995,"porary":4996,"rice":4997,"Ġdimension":4998,"Ġess":4999,"ĠPenn":5000,"Ġautom":5001,"Ġplant":5002,"ithub":5003,"Ġsus":5004,"Dis":5005,"Ġevalu":5006,"Ġhapp":5007,"ih":5008,"ĠDu":5009,"ĠHill":5010,"ĠTer":5011,"Ġeigen":5012,"ĠPublic":5013,"1977":5014,"Ġmodule":5015,"Ġgold":5016,"Ġdetermined":5017,"Ġespecially":5018,"dr":5019,"Ġdig":5020,"textrm":5021,"weight":5022,";</":5023,"Ġorigin":5024,"Ġwriting":5025,"SO":5026,"Mar":5027,"minus":5028,"1975":5029,"ĠChampionships":5030,"underline":5031,"Sim":5032,"Ġapproximately":5033,"Input":5034,"Ġaircraft":5035,"module":5036,"Ġvelocity":5037,"51":5038,"ells":5039,"Notes":5040,"Ġmaintain":5041,"ugby":5042,"ometimes":5043,"Ñģ":5044,"^-":5045,"ĠSk":5046,"Ġpolice":5047,"nect":5048,"Ġlimited":5049,"Ġsom":5050,"Ġded":5051,"Ġcourt":5052,"Par":5053,"Ext":5054,"ĠEmp":5055,"otic":5056,"bigg":5057,"Ġjob":5058,"pol":5059,"54":5060,"unch":5061,"Ġcompetition":5062,"Ġ<<":5063,"Ġir":5064,"null":5065,"FT":5066,"When":5067,"war":5068,"open":5069,"ĠJust":5070,"Ġoption":5071,"ĠRock":5072,"Ġprote":5073,"1968":5074,"Ġcourse":5075,"ĠOffic":5076,"56":5077,"ATE":5078,"Ġchoice":5079,"ĠBur":5080,"Ġhighest":5081,"1973":5082,"Ġadopt":5083,"Ġbig":5084,"}^{-":5085,"Ġwid":5086,"52":5087,"column":5088,"anning":5089,"ĠCommission":5090,"MC":5091,"Ġformat":5092,"isher":5093,"Ġtrain":5094,"Ġleaders":5095,"Ġissue":5096,"ĠCamp":5097,"Ġtournament":5098,"Ġ$\\{":5099,"Ġadm":5100,"texttt":5101,"Ġdu":5102,"ĠNULL":5103,"dir":5104,"ĠIsrael":5105,"ectors":5106,"oice":5107,"Then":5108,"Ġpaint":5109,"Ġlittle":5110,"BS":5111,"Ġsinger":5112,"Ġmatter":5113,"Ġbroadcast":5114,"Instance":5115,"lease":5116,"ĠVirginia":5117,"pected":5118,"aled":5119,"Ã³n":5120,"Ġbur":5121,"Null":5122,"urrent":5123,"subseteq":5124,"Ġartist":5125,"ĠIts":5126,"anned":5127,"Ġcritic":5128,"Ġball":5129,"Ġstarting":5130,"Ġoverall":5131,"arameters":5132,"irit":5133,"Ġuniform":5134,"89":5135,"ouri":5136,"ĠDen":5137,"Part":5138,"Ġneeded":5139,"yles":5140,"Ġforms":5141,"Date":5142,"image":5143,"Pos":5144,"ĠĠĠĠĠĠĠĠĠĠĠĠĠĠ":5145,"Ġexpress":5146,"mercial":5147,"ĠĠĠĊ":5148,"Ġappears":5149,"crete":5150,"Ð¾Ð":5151,"fe":5152,"SI":5153,"ĠWeb":5154,"Ġmatches":5155,"istan":5156,"Ġlonger":5157,"53":5158,"asks":5159,"GL":5160,"Ġcharge":5161,"ici":5162,"fficient":5163,"query":5164,"Ġdeep":5165,"Ġissues":5166,"gener":5167,"ĠOper":5168,"ĠIll":5169,"Ġscored":5170,"Ġbasketball":5171,"Ġselection":5172,"prod":5173,"Ġlayer":5174,"github":5175,"ĠTechn":5176,"rices":5177,"ĠResearch":5178,"request":5179,"Ġremaining":5180,"Ġquestion":5181,"mes":5182,"Image":5183,"ĠÂ":5184,"Ġfamilies":5185,"Ġinit":5186,"ĠItaly":5187,"ĠEv":5188,"greg":5189,"Ġconnection":5190,"Ġimpact":5191,"Ġbehind":5192,"Ġpractice":5193,"gu":5194,"Ġproced":5195,"Run":5196,"1971":5197,"Äĩ":5198,"ĠCast":5199,"client":5200,"inos":5201,"Ġfit":5202,"Ġscreen":5203,"Ġ_{":5204,"lib":5205,"ĠHamilton":5206,"ands":5207,"Ġcharg":5208,"Ġearlier":5209,"}'":5210,"ĠMexico":5211,"OP":5212,"Ġkind":5213,"Ġemer":5214,"perties":5215,"Ġcome":5216,"ĠThat":5217,"ĠKh":5218,"<\\":5219,"Ġsaw":5220,"Ġdescription":5221,"post":5222,"Fl":5223,"ĠSaint":5224,"ewidth":5225,"ca":5226,"Ġdestroy":5227,"Ġbeginning":5228,"ĠStar":5229,"Ġdecision":5230,"Pre":5231,"strong":5232,"ĠGod":5233,"append":5234,"Ġsaf":5235,"ydro":5236,"Ġveh":5237,"target":5238,"Ġavoid":5239,"ĠArts":5240,"ĠAtl":5241,"Ġimm":5242,"ato":5243,"Ġreduced":5244,"cles":5245,"Ġcollege":5246,"azz":5247,"Ġnight":5248,"Ġitem":5249,"Ġstaff":5250,"Options":5251,"Ġderived":5252,"FI":5253,"1969":5254,"ĠTwo":5255,"1945":5256,"det":5257,"Ġtim":5258,"ĠOpen":5259,"ĠChicago":5260,"black":5261,"English":5262,"Ġreading":5263,"Ġlikely":5264,"Ġactress":5265,"Ġpolynomial":5266,"Ġcred":5267,"Ġvolume":5268,"Ġnegative":5269,"bottom":5270,"ĠMo":5271,"Ġsufficient":5272,"ĠRem":5273,"Ġderiv":5274,"Ġ\\;":5275,"oder":5276,"HT":5277,"ĠCD":5278,"ONT":5279,"Ġexplicit":5280,"Ġesc":5281,"adata":5282,"abit":5283,"Ġframe":5284,"ĠBrown":5285,"ĠSun":5286,"Ġrank":5287,"But":5288,"Ġapply":5289,"Ġsch":5290,"{$":5291,"Ġuncertain":5292,"}},":5293,"1940":5294,"ĠĠĠĠĠĠĠĠĠĠĠĠĠĠĠĠĠĠĠĠĠĠĠĠĠĠĠĠĠĠĠ":5295,"ĠScot":5296,"Ġplays":5297,"ricket":5298,"Gener":5299,"ĠMus":5300,"ulture":5301,"Ġembed":5302,"oret":5303,"Ġoperators":5304,"YPE":5305,"Ġchosen":5306,"UE":5307,"font":5308,"ĠAssembly":5309,"She":5310,"Em":5311,"riz":5312,"86":5313,"footnote":5314,"ects":5315,"Ġunion":5316,"ko":5317,"Ġnoise":5318,"setminus":5319,"ĠForm":5320,"ĠNavy":5321,"otion":5322,"Ġscheme":5323,"Ġpresence":5324,"Ġcounter":5325,"ĠAngeles":5326,"iler":5327,"Ġscient":5328,"EX":5329,"irl":5330,"Ġprem":5331,"Ġ->":5332,"Ġwide":5333,"ĠPan":5334,"ski":5335,"lam":5336,"ĠDis":5337,"ĠKar":5338,"Ġremain":5339,"ĠAlthough":5340,"ĠRegister":5341,"arams":5342,"Ġestimated":5343,"vention":5344,"iques":5345,"Ġhttp":5346,"Ġcontinuous":5347,"Ġdark":5348,"uracy":5349,"94":5350,"Ġnoted":5351,"Ġshape":5352,"Ġwriters":5353,"rative":5354,"Ġinequ":5355,"ien":5356,"ashed":5357,"ĠCommittee":5358,"iny":5359,"LT":5360,"rl":5361,"atriate":5362,"RA":5363,"Ġincor":5364,"Ġstreng":5365,"Ġnecessary":5366,"iral":5367,"ancial":5368,".$":5369,"Ġfigure":5370,"Theta":5371,"iano":5372,"ker":5373,"ĠKn":5374,"sg":5375,"Ġ$|":5376,"ympt":5377,"Åį":5378,"eger":5379,"1967":5380,"oys":5381,"Ġ(-":5382,"Ġcopy":5383,"Ġmemory":5384,"Ġprotected":5385,"Career":5386,"Ġcapital":5387,"={":5388,"Ġmovement":5389,"300":5390,"Further":5391,"Ġlevels":5392,"ĠParliament":5393,"resh":5394,"iro":5395,"ĠFre":5396,"Ġdecided":5397,"Ġinside":5398,"Ġpassed":5399,"attice":5400,"stack":5401,"Ġsex":5402,"Ġwave":5403,"1930":5404,"android":5405,"\").":5406,"Ġflux":5407,"Ġtax":5408,"Ġcop":5409,"ola":5410,"Ġlack":5411,"Ġ]":5412,"ĠProvince":5413,"anda":5414,"eve":5415,"ĠFestival":5416,"iana":5417,"Ġhence":5418,"Ġfilter":5419,"ylvan":5420,"Ġconfiguration":5421,"ĠSoviet":5422,"CP":5423,"Ġdivision":5424,"sort":5425,"Ġens":5426,"Ġfailed":5427,"Ġinterpret":5428,"ees":5429,"Ġonline":5430,"Ġactor":5431,"Equal":5432,"jection":5433,"Person":5434,"Ġincreased":5435,"Ġneighbor":5436,"Ġprec":5437,"Ġanc":5438,"ĠCongress":5439,"soft":5440,"ette":5441,"ĠTime":5442,"pan":5443,"\"),":5444,"stra":5445,"bin":5446,"ima":5447,"Ġbounded":5448,"stract":5449,"Ġfif":5450,"IV":5451,"Ġvocals":5452,"rich":5453,"linewidth":5454,"Ġwhole":5455,"itors":5456,"Ġdataset":5457,"ora":5458,"Ġleader":5459,"1964":5460,"Am":5461,"sol":5462,"Ġminor":5463,"ĠFlorida":5464,"resents":5465,"ĠMa":5466,"args":5467,"ĠMil":5468,"Ġvac":5469,"write":5470,"inem":5471,"Ġvertex":5472,"ĠBrazil":5473,"oplus":5474,"po":5475,"ĠHon":5476,"93":5477,"Ġrecover":5478,"ipl":5479,"ĠGovernment":5480,"Rep":5481,"Ġframework":5482,"Ġtraditional":5483,"anner":5484,"Ġhyp":5485,"$_":5486,"Ġliterature":5487,"va":5488,"Ġpen":5489,"Ġconstructed":5490,"unched":5491,"uled":5492,"Ġgauge":5493,"ĠHistoric":5494,"ĠAwards":5495,"Ġboolean":5496,"Ġintegral":5497,"Ġhit":5498,"Ġplatform":5499,"Function":5500,"adding":5501,"Handler":5502,"Ġgrav":5503,"ĠReturn":5504,"Ġevidence":5505,"wedge":5506,"subfigure":5507,"udd":5508,"uted":5509,"ĠWales":5510,"then":5511,"}}_{":5512,"ĠFin":5513,"Block":5514,"MM":5515,"Ġmaps":5516,"real":5517,"Ġroute":5518,"Ab":5519,"Other":5520,"aven":5521,"Ġexpansion":5522,"Ġsyn":5523,"Ġgoing":5524,"unct":5525,"^{-\\":5526,"dep":5527,"Ġsmooth":5528,"Ġreplace":5529,"Ġblue":5530,"ĠRussia":5531,"Ġcaused":5532,"ĠHel":5533,"anks":5534,"Ġargument":5535,"ĠBase":5536,"ebug":5537,"Ġobservations":5538,"Ġrules":5539,"Ġ\"\"\"":5540,"Ġnorm":5541,"Ġ($\\":5542,"Ġ+=":5543,"Ġgrand":5544,"Ġformation":5545,"rat":5546,"92":5547,"track":5548,"ylvania":5549,"Content":5550,"Point":5551,"ket":5552,"Ġsolid":5553,"Ġentry":5554,"Ġhyper":5555,"\\}":5556,"Ġmanager":5557,"Ġnetworks":5558,"Ġrailway":5559,"Ġselect":5560,"Ġface":5561,"Ã§":5562,"ptr":5563,"Ġextends":5564,"process":5565,"values":5566,"ufact":5567,"Net":5568,"parent":5569,"84":5570,"Films":5571,"Ġspecified":5572,"inner":5573,"Ġcensus":5574,"Ġpercent":5575,"Ġsimply":5576,"Attribute":5577,"urt":5578,"Ġauth":5579,"ialog":5580,"cs":5581,"Start":5582,"Ġmeaning":5583,"Ġseasons":5584,"obile":5585,"1965":5586,"=\"../":5587,"Ġinteraction":5588,"Ġextension":5589,"ĠUnder":5590,"allery":5591,"Ġthought":5592,"Ġ~":5593,"72":5594,"CL":5595,"otal":5596,"related":5597,"Ġbranch":5598,"Ġpurch":5599,"Ġindustry":5600,"rence":5601,"76":5602,"Ġpersonal":5603,"icated":5604,"Fe":5605,"inf":5606,"Ġsquare":5607,"php":5608,"Ġcurve":5609,"During":5610,"heast":5611,"ĠAnn":5612,"rea":5613,"Ġcompact":5614,"ĠCarolina":5615,"arser":5616,"ĠOh":5617,"Ġ;":5618,"inding":5619,"Ġcontinue":5620,"alo":5621,"ĠHow":5622,"Ġchem":5623,")|":5624,"ecause":5625,"ĠLu":5626,"CA":5627,"ja":5628,"PR":5629,"1920":5630,"Ġexisting":5631,"Ġaim":5632,"nother":5633,"Ġmotion":5634,"Ġculture":5635,"ellar":5636,"Ġknowledge":5637,"ugin":5638,"Ġ\\(":5639,"Sec":5640,"Sw":5641,"Ġminimum":5642,"Ġnature":5643,"Ġconvert":5644,"atur":5645,"Pop":5646,"ali":5647,"definition":5648,"ĠObject":5649,"pid":5650,"Ġcategory":5651,"ĠLine":5652,"Ġorganization":5653,"Ġstra":5654,"1966":5655,"Box":5656,"iller":5657,"Ġsymmetry":5658,"Ġbank":5659,"only":5660,"press":5661,"Ġmur":5662,"ĠMain":5663,"Factory":5664,"present":5665,"Ġ$[":5666,"rees":5667,"Ġscience":5668,"Ġever":5669,"ĠDev":5670,"Ġsamples":5671,"graph":5672,"mission":5673,"ĠSpace":5674,"wa":5675,"Ġdescribe":5676,"Resource":5677,"Ġtrade":5678,"ĠKe":5679,"_{(":5680,"itable":5681,"ĠTour":5682,"ĠSil":5683,"Ġresource":5684,"igation":5685,"Ġmonth":5686,"pat":5687,"Ġanti":5688,"ervation":5689,")</":5690,"Window":5691,"ĠGar":5692,"Ġchampionship":5693,"Ġprofile":5694,"osing":5695,"Ġbrought":5696,"Ġhot":5697,"py":5698,"ĠVer":5699,"Ġroot":5700,"Ġidea":5701,"Ġwinning":5702,"ĠEmpire":5703,"Ġfast":5704,"osh":5705,"ĠSeries":5706,"Ġmanufact":5707,"ĠIrish":5708,"ĠIII":5709,"vant":5710,"Ġupdate":5711,"Ġproducer":5712,"Ġsynt":5713,"Ġriver":5714,"flict":5715,"ypes":5716,"Met":5717,"Ġrepe":5718,"adium":5719,"Ġcontaining":5720,"Ġsense":5721,"ilarly":5722,"Ġpark":5723,"button":5724,"Ġandroid":5725,"Buffer":5726,"ĠLie":5727,"ĠHaw":5728,"Ġeditor":5729,"acter":5730,"ersey":5731,"ental":5732,"ategor":5733,"normal":5734,"ĠOver":5735,"Ġattended":5736,"ishes":5737,"mann":5738,"Ġbring":5739,"Ġer":5740,"Ġproduce":5741,"Ġedition":5742,"Ġbre":5743,"Ġfood":5744,"Ġsoftware":5745,"Ġequip":5746,"elled":5747,"ĠOl":5748,"oute":5749,"ĠFe":5750,"limits":5751,"Ġmechanism":5752,"Ġdiscussed":5753,"vey":5754,"Component":5755,"hem":5756,"ĠSecret":5757,"Ġfully":5758,"igger":5759,"Ġfill":5760,"Ġclient":5761,"400":5762,"Ġidentity":5763,"Ġcare":5764,"ĠOld":5765,"NO":5766,"Ġsoon":5767,"Ġparticularly":5768,"91":5769,"Ġexamples":5770,"Ġleads":5771,"_*":5772,"Ġsurround":5773,"Ġvariety":5774,"ĠMartin":5775,"number":5776,"ĠLong":5777,"Ġstudio":5778,")/":5779,"Ġtherm":5780,"Ġnorthern":5781,"ĠFurther":5782,"Work":5783,"Prov":5784,"Ġpack":5785,"gn":5786,"Ġformula":5787,"<!--":5788,"ernel":5789,"Ġheavy":5790,"lock":5791,"ibli":5792,"Ġpanel":5793,"Ġdefeated":5794,"iring":5795,"uls":5796,"ĠPac":5797,"Ne":5798,"Ġsometimes":5799,"Ġsouthern":5800,"Ġexperiments":5801,"Ġforward":5802,"yan":5803,"wan":5804,"Ġfarm":5805,"ipal":5806,"example":5807,"omy":5808,"dat":5809,"eds":5810,"ansas":5811,"Ġthrows":5812,"property":5813,"Ġarbit":5814,"sylvania":5815,"inite":5816,"Ġyet":5817,"82":5818,"evelopment":5819,"Cell":5820,"Ġsubset":5821,"shift":5822,"ĠNorthern":5823,"Ġslow":5824,"ĠFort":5825,"Ġshift":5826,"ampion":5827,"push":5828,"_+":5829,"Ġpert":5830,"ĠJoseph":5831,"83":5832,"Ġmanagement":5833,"Ġdiagram":5834,"enge":5835,"Ġquality":5836,"John":5837,"grad":5838,"$(":5839,"ocket":5840,"kl":5841,"ĠYoung":5842,"Ġinitially":5843,"Ġcoast":5844,"Ġ{@":5845,"asion":5846,"*{":5847,"rot":5848,"ollary":5849,"ancy":5850,"num":5851,"Ġmiddle":5852,"Ġrepresents":5853,"ĠIN":5854,"ĠMur":5855,"Ġ...":5856,"Action":5857,"TP":5858,"Results":5859,"Ġcontrast":5860,"Ġmusical":5861,"Ġapproximation":5862,"Ġappearance":5863,"ening":5864,"ĠSir":5865,"Ġarchitecture":5866,"break":5867,"iece":5868,"Ġplane":5869,"ĠField":5870,"ĠLiber":5871,"ĠColumb":5872,"ĠMost":5873,"Number":5874,"Ġquick":5875,"Default":5876,"=(":5877,"ĠBas":5878,"Ġelectric":5879,"DB":5880,"ĠMos":5881,"Ġ$-":5882,"ĠMax":5883,"El":5884,"gra":5885,"dagger":5886,"omic":5887,"Ġslight":5888,"Ġfinally":5889,"Ġmargin":5890,"ropy":5891,"ĠWood":5892,"oration":5893,"Ġconcern":5894,"erved":5895,"*/":5896,"ĠBoard":5897,"Ġacadem":5898,"Ġjoint":5899,"DF":5900,"seud":5901,"eek":5902,"Ġshot":5903,"inant":5904,"emic":5905,"ati":5906,"ĠBig":5907,"Ġended":5908,"Ġgrowth":5909,"Ġcandidate":5910,"unior":5911,"Ġoptimal":5912,"\\\"":5913,"Ġinters":5914,"Ġseparate":5915,"),\\":5916,"Ġvan":5917,"anced":5918,"itter":5919,"Ġcluster":5920,"CS":5921,"Ġ((":5922,"Ġprison":5923,"Ġpressure":5924,"jav":5925,"Aut":5926,"Hel":5927,"aussian":5928,"Ġgenus":5929,"aligned":5930,"Ġbrief":5931,"Desc":5932,"ulate":5933,"Nav":5934,"Ġking":5935,"ĠFoundation":5936,"Ġcontact":5937,"Ġsn":5938,"Ġagreement":5939,"Equals":5940,"ĠGr":5941,"Ġattention":5942,"Ġinfluence":5943,"hesis":5944,"selves":5945,"Ġparticles":5946,"1962":5947,"aught":5948,"Ġisland":5949,"Ġpoet":5950,"endif":5951,"DO":5952,"Ġmajority":5953,"Ġparticle":5954,"Version":5955,"LS":5956,"Ġgrant":5957,"header":5958,"Ġcontribution":5959,"ĠCam":5960,"pton":5961,"hemat":5962,"Ġvertices":5963,"Style":5964,"Ġremoved":5965,"1963":5966,"deg":5967,"ĠSpain":5968,"Ġcollabor":5969,"ĠProposition":5970,"Ġsingles":5971,"74":5972,"oles":5973,"True":5974,"Ġreturns":5975,"1944":5976,"ifact":5977,"ĠHere":5978,"rics":5979,"eful":5980,"ĠEngine":5981,"iga":5982,"lood":5983,"even":5984,"Ġbenef":5985,"Ġemission":5986,"Ġsecret":5987,"HE":5988,"Ġult":5989,"dl":5990,"Ġspent":5991,"Year":5992,"Ġdetermine":5993,"Ġconsequ":5994,"Ġrequires":5995,"Ġcit":5996,"ĠWal":5997,"TO":5998,"ivial":5999,"Ġlaunched":6000,"Ġdistinct":6001,"Ġcomparison":6002,"BU":6003,"81":6004,"ĠJo":6005,"Ġconsum":6006,"Ġmoney":6007,"Ġcentre":6008,"ĠUk":6009,"ova":6010,"Ġusers":6011,"ĠRh":6012,"kins":6013,"aka":6014,"Ġscatter":6015,"Ġproducts":6016,"Ġcele":6017,"Ġmanif":6018,"ĠLove":6019,"colon":6020,"Ġarticle":6021,"ĠĠĠĠĠĠĠĠĊ":6022,"cons":6023,"ĠGreek":6024,"Ġquery":6025,"atial":6026,"thing":6027,"apers":6028,"Ġgoals":6029,"Ġnewsp":6030,"Ġ|\\":6031,"force":6032,"ultural":6033,"ĠAdd":6034,"Ġdeb":6035,"ĠOur":6036,"refix":6037,"ĠCross":6038,"79":6039,"Ġwoman":6040,"iders":6041,")_{":6042,"Rem":6043,"Ġsecur":6044,")\\,":6045,"ĠNone":6046,"ĠPennsylvania":6047,"Ġinterface":6048,"Ġterrit":6049,"Ġcollect":6050,"Ġunknown":6051,"Ġidentified":6052,"ĠTeam":6053,"Ġedges":6054,"Ġcatch":6055,"Members":6056,"ĠBattle":6057,"Ġsemi":6058,"Ġwood":6059,"adow":6060,"eft":6061,"iography":6062,"Ġwhom":6063,"ĠTimes":6064,"mond":6065,"json":6066,"ji":6067,"ĠGal":6068,"ady":6069,"ĠPre":6070,"Men":6071,"ERT":6072,"arks":6073,":\\":6074,"Ġreferred":6075,"Ġpolar":6076,"Ġcomment":6077,"Ġlat":6078,"finished":6079,"Ġradius":6080,"73":6081,"Ġopening":6082,"house":6083,"Ġphil":6084,"etime":6085,"Ġcommercial":6086,"Ġcore":6087,"ĠSy":6088,"Ġdynamics":6089,"ĠArab":6090,"Ġfa":6091,"REF":6092,"Ġmentioned":6093,"venue":6094,"Ġcarried":6095,"Ġcause":6096,"Ġmostly":6097,"last":6098,"oded":6099,"Ġcos":6100,"Ġaccuracy":6101,"reedom":6102,"});":6103,"Ġnews":6104,"Ġlink":6105,"Ġgot":6106,"Ġapplications":6107,"Ġhours":6108,"ĠRo":6109,"alg":6110,"ĠJac":6111,"ĠAtt":6112,"aria":6113,"Ġdistributed":6114,"GB":6115,"Ġspectral":6116,"IF":6117,"Ġshall":6118,"Ġsplit":6119,"kin":6120,"Ġreli":6121,"free":6122,"find":6123,"Ġmeasured":6124,"description":6125,"Ġstore":6126,"Ġperturb":6127,"Ġexistence":6128,"Ġdrama":6129,"Now":6130,"'_":6131,"Ġactivities":6132,"Ġowned":6133,"Ġmagazine":6134,"Ġstudent":6135,"Ġgalaxies":6136,"Ġserver":6137,"ategy":6138,"Ġhighly":6139,"${":6140,"ĠĠĠĠĠĠĠĠĠĠĠĠĊ":6141,"Ġcompute":6142,"ĠValley":6143,"}}(\\":6144,"Ġprevent":6145,"ĠAlso":6146,"obj":6147,"Min":6148,"Ġnumerical":6149,"xml":6150,"ĠTw":6151,"ĠTim":6152,"ĠEnd":6153,"Ġsatisfies":6154,"tings":6155,"mt":6156,"ĠLin":6157,"buf":6158,"1961":6159,"Ġfootballer":6160,"Ġextra":6161,"Ġerrors":6162,"ibly":6163,"inet":6164,"ĠHot":6165,"ĠLife":6166,"plete":6167,"Rel":6168,"ĠBob":6169,"ĠHence":6170,"ĠChief":6171,"iy":6172,"LASS":6173,"enth":6174,"Ġmainly":6175,"Ġmission":6176,"spect":6177,"Ġbal":6178,"Us":6179,"ĠDom":6180,"Dec":6181,"Child":6182,"Ġcommission":6183,"ĠLee":6184,"Ġexperimental":6185,"etts":6186,":#":6187,"Ġchief":6188,"ĠIran":6189,"pack":6190,"uages":6191,"inals":6192,"Ġeasily":6193,"Mon":6194,"Ġ}\\":6195,"Ġmaster":6196,"Ġclassification":6197,"awa":6198,"Return":6199,"Ġspaces":6200,"Ġreb":6201,"inity":6202,"Ġprocesses":6203,"Ġregister":6204,"Ġupd":6205,"Ġreach":6206,"Ġprograms":6207,"ĠEducation":6208,"Ġneeds":6209,"unit":6210,"Ġfix":6211,")}(":6212,"inations":6213,"Ġbuff":6214,"ennis":6215,"[\"":6216,"bi":6217,"Ġinterview":6218,"Ġmicro":6219,"ĠTem":6220,"usband":6221,"icients":6222,"eler":6223,"Ġsimpl":6224,"Aust":6225,"mail":6226,"ban":6227,"ĠID":6228,"Ġuseful":6229,"isters":6230,"Ġsummer":6231,"entry":6232,"bury":6233,"Arg":6234,"SD":6235,"1942":6236,"Ġsec":6237,"ribe":6238,"Ġbattle":6239,"Ġentered":6240,"status":6241,"mas":6242,"airman":6243,"Ġcoupling":6244,"Ġcomes":6245,"term":6246,"rip":6247,"71":6248,"Ġmedical":6249,"after":6250,"elli":6251,"ifically":6252,"Row":6253,"dim":6254,"1956":6255,"Ġdual":6256,"reshold":6257,"ĠPost":6258,"arriage":6259,"aya":6260,"zero":6261,"Ġtypically":6262,"ĠBank":6263,"FO":6264,"ĠSol":6265,"inois":6266,"lections":6267,"ĠNews":6268,"uge":6269,"Ġsecurity":6270,"Ġcombined":6271,"icks":6272,"stein":6273,"Ġarrang":6274,"Ġchain":6275,"ĠCamb":6276,"ĠProfess":6277,"ĠGen":6278,"ĠBelg":6279,"Ġactivity":6280,"Ġtensor":6281,"Ġinsp":6282,"sky":6283,"1958":6284,"////////////////":6285,"Next":6286,"Top":6287,"Ġarmy":6288,"1000":6289,"orter":6290,"rolled":6291,"Ġchoose":6292,"Ġbul":6293,"Description":6294,"Ġbasic":6295,"=-":6296,"Ġresolution":6297,"ĠSocial":6298,"Ġlove":6299,"Ġcard":6300,"Ġdetection":6301,"dx":6302,"Ġlegal":6303,"output":6304,"ependence":6305,"Ġlattice":6306,"Ġdrum":6307,"_{{\\":6308,"ĠStep":6309,"ĠBul":6310,"Ġactually":6311,"Ġcorresponds":6312,"Ġotherwise":6313,"Ġconstraints":6314,"Ġmixed":6315,"Label":6316,"forall":6317,"Ġminutes":6318,"ĠEr":6319,"Ġincorpor":6320,"Ġconnect":6321,"Link":6322,"ĠType":6323,"Ġresol":6324,"Ġconcent":6325,"Ġcounty":6326,"'\\":6327,"Ġolder":6328,"nam":6329,"Writ":6330,"ĠFC":6331,"Tem":6332,"ĠCivil":6333,"Ġofficer":6334,"Ġcapacity":6335,"cf":6336,"iling":6337,"Ġdevice":6338,"gg":6339,"Ġmomentum":6340,"Ġtechnology":6341,"Ġnumerous":6342,"Page":6343,"Sche":6344,"stitution":6345,"Ġpick":6346,"{{":6347,"1948":6348,"ĠLibrary":6349,"Ġclust":6350,"1959":6351,"Max":6352,"Ġimmediately":6353,"ĠHealth":6354,"cases":6355,"Ġroom":6356,"Ġpositions":6357,"Ġbottom":6358,"SA":6359,"Ġrecords":6360,"ĠUnivers":6361,"har":6362,"Command":6363,"anger":6364,"ested":6365,"oston":6366,"Ġfactors":6367,"ĠCE":6368,"roduction":6369,"Track":6370,"Ġmut":6371,"Ġlived":6372,"achus":6373,"ĠMem":6374,"ainer":6375,"ila":6376,"ĠMen":6377,"LP":6378,"ĠSouthern":6379,"Case":6380,"Ġelections":6381,"oral":6382,"ĠNow":6383,"Ġnative":6384,"Ġcomposed":6385,"btn":6386,"perp":6387,"textsc":6388,"Ġrecently":6389,"Ġinequality":6390,"Ġcorn":6391,"subsubsection":6392,"ilation":6393,"Load":6394,"Ġbecoming":6395,"project":6396,"ĠJim":6397,"Web":6398,"ĠOx":6399,"ĠBritain":6400,"select":6401,"lie":6402,"uri":6403,"Ġetc":6404,"orig":6405,"Ġgreater":6406,"contin":6407,"ĠLi":6408,"PO":6409,"ĠSong":6410,"ror":6411,"vol":6412,"1939":6413,"Ġgreen":6414,"lad":6415,"Ġmole":6416,"Ġprocedure":6417,"ech":6418,"Ġvirtual":6419,"Ġplot":6420,"Port":6421,"_{-":6422,"Ġforest":6423,"aver":6424,"ĠAz":6425,"ĠMoreover":6426,"rants":6427,"img":6428,"Filter":6429,"Ġauto":6430,"ĠMichigan":6431,"Ġsenior":6432,"ĠDemocratic":6433,"ĠAut":6434,"icate":6435,"Ġbus":6436,"iÄĩ":6437,"Ġurl":6438,"sche":6439,"Ġinner":6440,"Ġformal":6441,"sole":6442,",\\,":6443,"erry":6444,"ĠCarl":6445,"Offset":6446,"Ġteacher":6447,"Ġstatement":6448,"Ġthemselves":6449,"filter":6450,"private":6451,"Ġexperience":6452,"Ġsurvey":6453,"Car":6454,"Task":6455,"Sports":6456,"ĠAsian":6457,"Ġones":6458,"1943":6459,"ĠFri":6460,"Ġsimulations":6461,"Ġchart":6462,"efined":6463,"Ġangle":6464,"tag":6465,"asi":6466,"meta":6467,"Ġprefer":6468,"format":6469,"MB":6470,"des":6471,"cr":6472,"_.":6473,"ĠPoland":6474,"ĠSee":6475,"1957":6476,"ĠCro":6477,"Dist":6478,"ĠDutch":6479,"Ġdecay":6480,"anged":6481,"rical":6482,"ponents":6483,"FONT":6484,"Ġnearly":6485,"achusetts":6486,"Ġextract":6487,"Create":6488,"Ġsquad":6489,"Ġtreatment":6490,"Tra":6491,"Ġconsistent":6492,"ABLE":6493,"ĠRam":6494,"else":6495,"Ġcells":6496,"Å¡":6497,")^{\\":6498,"Ġfraction":6499,"ador":6500,"ĠSar":6501,"However":6502,"annels":6503,"ĠRel":6504,"ĠOhio":6505,"ĠJud":6506,"ĠPak":6507,"ĠDet":6508,"}$-":6509,"Ġvisual":6510,"Ġstraight":6511,"rowser":6512,"Ġassumption":6513,"Ġnone":6514,"Ġsignificantly":6515,"sen":6516,"ĠRadio":6517,"ĠPacific":6518,"Ġbatt":6519,"src":6520,"ader":6521,"Ġmeasurements":6522,"ĠTop":6523,"Const":6524,"Ġwind":6525,"viation":6526,"Ġtechniques":6527,"1941":6528,"Ġdise":6529,"burgh":6530,"ĠEach":6531,"Ġminim":6532,"cd":6533,"Ġagent":6534,"Ġoperated":6535,"Ġlearn":6536,"sto":6537,"Ġbeg":6538,"ĠBuild":6539,"ĠPeople":6540,"Ġshare":6541,"Ġhum":6542,"///":6543,"sur":6544,"white":6545,"Ġcontributions":6546,"enant":6547,"Ġ+\\":6548,"Format":6549,"Eq":6550,"Ġpoly":6551,"Ġsteps":6552,"Ġcam":6553,"([":6554,"Ġinteger":6555,"Ġcalculated":6556,"ifications":6557,"ĠDirector":6558,"Ġexam":6559,"Ġscalar":6560,"ĠJersey":6561,"rypt":6562,"Output":6563,"Ġamplit":6564,"1946":6565,"Ġeconomic":6566,"Sing":6567,"abilities":6568,"Check":6569,"icity":6570,"chen":6571,"Ġdepends":6572,"olute":6573,"Ġstrategy":6574,"Ġvictory":6575,"container":6576,"(&":6577,"neg":6578,"ĠPrem":6579,"Ġassumed":6580,"iffer":6581,"National":6582,"Ġthreat":6583,"ĠNetwork":6584,"wer":6585,"Ġfinancial":6586,"Ġfun":6587,"uer":6588,"tree":6589,"ĠEdward":6590,"Ġactual":6591,"According":6592,"Ġcomputer":6593,"ĠScotland":6594,"Ġfeed":6595,"Ġindividuals":6596,"erse":6597,"Ġsea":6598,"Ġrelatively":6599,"Ġthink":6600,"Ġclaimed":6601,"Ġhusband":6602,"ĠRepresent":6603,"\"]":6604,"Ġdescent":6605,"Ġdecom":6606,"stone":6607,"Ġpairs":6608,"eks":6609,"ounds":6610,"1955":6611,"Ġgenerate":6612,"Ġquarter":6613,"irmed":6614,"aters":6615,"ĠBow":6616,"fect":6617,"Ġexception":6618,"rons":6619,"Ġinn":6620,"float":6621,"Ġsampl":6622,"Ġannual":6623,"Brit":6624,"ded":6625,"arant":6626,"Ġpoliticians":6627,"Ġcommunities":6628,"Ġbass":6629,"Ġvs":6630,"Ġring":6631,"Ġmachine":6632,"ĠTro":6633,"Ġgeneration":6634,"ĠData":6635,"conf":6636,"Ġforced":6637,"construct":6638,"Ġsituation":6639,"Ġcarry":6640,"Ġcoefficients":6641,"1952":6642,"arden":6643,"ĠInc":6644,"Ġalgorithms":6645,"}^*":6646,"Ġpoor":6647,"ela":6648,"Length":6649,"Ġarguments":6650,"ĠEarth":6651,"Ġremove":6652,"Ġalt":6653,"bas":6654,"ĠEX":6655,"Art":6656,"cean":6657,"Ġpsy":6658,"Ġelev":6659,"lines":6660,"ĠIllinois":6661,"show":6662,"Ġstrict":6663,"Ġque":6664,"Ġseat":6665,"Ġactors":6666,"close":6667,"Ġshowed":6668,"ĠJones":6669,"Ġcompletely":6670,"essages":6671,"Ġice":6672,"Ġessential":6673,"Ġprogress":6674,"erem":6675,"aily":6676,"ĠAsia":6677,"Ġbit":6678,"unfinished":6679,"Ġdoc":6680,"Ġcolon":6681,"Ġdisk":6682,"ĠLog":6683,"ĠShow":6684,"Ġcallback":6685,"Ġmoving":6686,"ERR":6687,"Ġships":6688,"ĠLord":6689,"ĠMajor":6690,"response":6691,"Ac":6692,"Ġdenotes":6693,"rium":6694,"More":6695,"izont":6696,"Ġutil":6697,"Ġsubsequently":6698,"prototype":6699,"Ġpromin":6700,"Ġstable":6701,"Ġordered":6702,"INT":6703,"Ġtoday":6704,"Ġfiles":6705,"Ġleave":6706,"ĠQueen":6707,"Here":6708,"Ġquad":6709,"Ġsegment":6710,"ĠMah":6711,"ailed":6712,"ĠKent":6713,"Ġstay":6714,"ĠRos":6715,"ething":6716,"hom":6717,"rison":6718,"cat":6719,"ĠConference":6720,"je":6721,"1947":6722,"Ġwestern":6723,"Ġfil":6724,"ĠPhilipp":6725,"uty":6726,"std":6727,"adel":6728,"Ġauthors":6729,"oting":6730,"Ġspread":6731,"irls":6732,"aly":6733,"ulty":6734,"Ġmurder":6735,"second":6736,"Ġsimulation":6737,"Ġproved":6738,"Ġraised":6739,"Me":6740,"Gu":6741,"itation":6742,"ogene":6743,"aylor":6744,"gypt":6745,"lers":6746,"Ġchalleng":6747,"Ġincreases":6748,"Ġtun":6749,"onia":6750,"Ġtor":6751,"Ġrecording":6752,"Sl":6753,"miss":6754,"Ġcombination":6755,"Ġtracks":6756,"Ġresponsible":6757,"iable":6758,"ĠRailway":6759,"iants":6760,"ĠMassachusetts":6761,"ĠTheir":6762,"SR":6763,"ĠRun":6764,"Ġnine":6765,"Ġachieved":6766,"Ġlif":6767,")\\\\":6768,"\\'":6769,"Ġrates":6770,"1954":6771,"Ġreduce":6772,"Ġcorrelation":6773,"Ġdepartment":6774,"Ġdistributions":6775,"ĠÅ":6776,"she":6777,"Ġreligious":6778,"ellig":6779,"IO":6780,"Ġpropag":6781,"ĠOffice":6782,"ĠLang":6783,"').":6784,"ĠCentre":6785,"Ġvon":6786,"PP":6787,"ĠJournal":6788,"etween":6789,"ĠPortug":6790,"cript":6791,"Ġretired":6792,"Ġhistorical":6793,"La":6794,"Ġmeeting":6795,"ĠSpring":6796,"emporary":6797,"pes":6798,">>":6799,"antry":6800,"Ġapprop":6801,"AF":6802,"update":6803,"ilib":6804,"Ġstatistics":6805,"Ġfoot":6806,"ĠBern":6807,"Ã±":6808,"Ġleaving":6809,"Ġactions":6810,"Ġdou":6811,"dy":6812,"Ġdepict":6813,"inate":6814,"Ġanaly":6815,"Ġlies":6816,"Ġempty":6817,"Ġserving":6818,"1953":6819,"ĠBoth":6820,"ĠGovernor":6821,"Ġarrest":6822,"Ġign":6823,"ĠJan":6824,"owers":6825,"Ġmodes":6826,"las":6827,"inder":6828,"Ġuniversity":6829,"inger":6830,")^{-":6831,"while":6832,"faces":6833,"Ġsites":6834,"Ġsettlement":6835,"Des":6836,"1949":6837,"Ġassigned":6838,"author":6839,"scope":6840,"INE":6841,"Ġcomputed":6842,"Ġserve":6843,")}{\\":6844,"ĠPlaces":6845,"Ġapproaches":6846,"aa":6847,"ograp":6848,"Ġtrained":6849,"Ġslightly":6850,"Ġpil":6851,"pers":6852,"ĠCreek":6853,"Ġcycl":6854,"Ġclubs":6855,"endix":6856,"cks":6857,"ql":6858,"MD":6859,"ĠKong":6860,"Ġensure":6861,"Ġflat":6862,"Ġincome":6863,"atalog":6864,"si":6865,"Ġcru":6866,"ture":6867,"ĠGeorgia":6868,"matrix":6869,"Ġoffset":6870,"Ġoccurs":6871,"ÅĤ":6872,"UI":6873,"Ġeth":6874,"vest":6875,"urban":6876,"hr":6877,"ĠMu":6878,"Ġcircle":6879,"Ġresources":6880,"CON":6881,"Ġwalk":6882,"ĉĠĠĠ":6883,"$$\\":6884,"ĠHung":6885,"Ġgrid":6886,"Ġcomedy":6887,"yb":6888,"multi":6889,"Ġfont":6890,"clos":6891,"ĠFrancisco":6892,"Ġability":6893,"ĠHa":6894,"ĠDec":6895,"Hz":6896,"\\!\\!":6897,"PT":6898,"Ġrelevant":6899,"Ġweeks":6900,"Ġexternal":6901,"pa":6902,"params":6903,"ĠEqu":6904,"){\\":6905,"ensions":6906,"system":6907,"Cache":6908,"aped":6909,"NR":6910,"service":6911,"olt":6912,"Ġbinary":6913,"ĠSte":6914,"phy":6915,"Ġexpressed":6916,"Ġimplementation":6917,"Ġscript":6918,"Ġimprove":6919,"Ġfederal":6920,"SL":6921,"Ġ${":6922,"ĠCre":6923,"ĠPy":6924,"$).":6925,"Ġweb":6926,"navbar":6927,"Ġforeign":6928,"ĠPrince":6929,"ĠTheatre":6930,"rong":6931,"ifies":6932,"del":6933,"Ġparents":6934,"ĠProject":6935,"1951":6936,"ictionary":6937,"fit":6938,"ĠWilliams":6939,"abeth":6940,"ĠInst":6941,"Ġshoot":6942,"United":6943,"Ġsitu":6944,"writer":6945,"vector":6946,"Ġdespite":6947,"British":6948,"{$\\":6949,"Ä±":6950,"Ġhockey":6951,"sign":6952,"prob":6953,"Ġintroduce":6954,"ĠOf":6955,"à¤":6956,"istical":6957,"Ġsuc":6958,"amental":6959,"~$\\":6960,"Ġparallel":6961,"ighter":6962,"Ġ!==":6963,"ĠCoast":6964,"expected":6965,"Ġsister":6966,"URL":6967,"menu":6968,"rect":6969,"ported":6970,"Ġlibrary":6971,"ĠBlue":6972,"Ġ[]":6973,"bullet":6974,"icens":6975,"Ġacquired":6976,"ĠScottish":6977,"wait":6978,"oir":6979,"Ġrecomm":6980,"Ġexactly":6981,"enty":6982,"Ġaspect":6983,"Ġanalog":6984,"arters":6985,"remove":6986,"RL":6987,"SON":6988,"ĠLy":6989,"Controller":6990,"rance":6991,"Ġtheoret":6992,"sem":6993,"prov":6994,"Ġmatrices":6995,"card":6996,"Don":6997,"AV":6998,"ĠProgram":6999,"./":7000,"\\_":7001,"150":7002,"ĠJohnson":7003,"Ġorient":7004,"Ġorb":7005,"Ġinvariant":7006,"ĠBoston":7007,"ĠJewish":7008,"Ġcovered":7009,"ĠLuc":7010,"desc":7011,"Ġpurpose":7012,"Ġcontained":7013,"lets":7014,"eli":7015,"ãģ":7016,"Ġcurves":7017,"Ġfle":7018,".~(\\":7019,"Ġscene":7020,"ĉĉĉĉĉĉĉĉ":7021,"onym":7022,"Ġarbitrary":7023,"Ġflag":7024,"oped":7025,"iciency":7026,"Vis":7027,"bass":7028,"Valid":7029,"ione":7030,"ĠCr":7031,"ĠEastern":7032,"Ġsucceed":7033,"ĠOxford":7034,"Mode":7035,"ĠPolish":7036,"Ġswitch":7037,"car":7038,"Ġhydro":7039,"poration":7040,"}}^":7041,"nowled":7042,"Ġitems":7043,"Ġfeat":7044,"PRO":7045,"Po":7046,"Figure":7047,"annot":7048,"Ġharm":7049,"Rev":7050,"Ġspatial":7051,"Ġadopted":7052,"osoph":7053,"EL":7054,"ĠBal":7055,"Ġvary":7056,"instance":7057,"atically":7058,"attr":7059,"sime":7060,"ĠHead":7061,")$-":7062,"})$.":7063,"poses":7064,"Dem":7065,"Ġassign":7066,"proto":7067,"simeq":7068,"aug":7069,"pped":7070,"Ġbelieved":7071,"older":7072,"remark":7073,"lap":7074,"izontal":7075,"Ġvote":7076,"Parameter":7077,"ĠStan":7078,"Ġdivided":7079,"agraph":7080,"ructure":7081,"Ġprojects":7082,"occer":7083,"Ġcompeted":7084,"actor":7085,"Ġnam":7086,"SM":7087,"ĠGood":7088,"Ġmunicipality":7089,"Ġloop":7090,"Ġâ":7091,"Ġdepth":7092,"Ġthick":7093,"Ġadvant":7094,"ĠSand":7095,"ĠBre":7096,"Ġofficers":7097,"Ġbad":7098,"pmatrix":7099,"ervices":7100,"Theorem":7101,"Ev":7102,"Ġpersonnel":7103,"pop":7104,"ternet":7105,"Local":7106,"Ġbrand":7107,"yer":7108,"Ð»":7109,"dependent":7110,"Ġpartial":7111,"akers":7112,"itage":7113,"Ġ=\\":7114,"ĠMr":7115,"Ġhelped":7116,"Ġmuseum":7117,"CR":7118,"ĉĉĊ":7119,"ĠLater":7120,"ĠPop":7121,"imer":7122,"Ġprofessor":7123,"ĠBang":7124,"Ġonto":7125,"Ġcities":7126,"eller":7127,"Ġbey":7128,"Ġdiscovered":7129,"1936":7130,"Ġbridge":7131,"ĠColumbia":7132,"Ġturned":7133,"ricts":7134,"Ġconflict":7135,"ĠCorps":7136,"thon":7137,"Ġconducted":7138,"ĠHig":7139,"ĠCard":7140,"Ġdistingu":7141,"Ġstrength":7142,"Ġestimates":7143,"onto":7144,"Disc":7145,"Ġelim":7146,"ĠLatin":7147,"Ġeasy":7148,"Ġcricket":7149,"\\|_{":7150,"Ġsymmetric":7151,"Ġfamous":7152,"Ġinteresting":7153,"ĠMid":7154,"chron":7155,"bold":7156,"Ġcalc":7157,"Ġlanguages":7158,"Ġsession":7159,"Cons":7160,"ws":7161,"Ġsections":7162,"xx":7163,"Ġnearby":7164,"hent":7165,"Ġretain":7166,"Ġgiving":7167,"ederation":7168,"OL":7169,"bro":7170,"fort":7171,"Last":7172,"hu":7173,"Ġshared":7174,"etch":7175,"ND":7176,"plex":7177,"forms":7178,"uler":7179,"offset":7180,"gr":7181,"Ġcategor":7182,"ĠJean":7183,"$^{-":7184,"Our":7185,"Ġanalyt":7186,"claim":7187,"Ġansw":7188,"ĠEnter":7189,"Ġgovern":7190,"ographic":7191,"undred":7192,"ez":7193,"ĠJr":7194,"ulpt":7195,"ĠGame":7196,"ĉĠ":7197,"rawn":7198,"ãĥ":7199,"yes":7200,"tri":7201,"Ġ&=&":7202,"~~~~":7203,"ryst":7204,"una":7205,"ocated":7206,"pg":7207,"Ġcitiz":7208,"Thus":7209,"1918":7210,"Ġbeyond":7211,"chor":7212,"ulf":7213,"law":7214,"Ġsingular":7215,"amm":7216,"Ġmetal":7217,"Ġcycle":7218,"Ġsched":7219,"ĠSenate":7220,"ĠHT":7221,"Ġproceed":7222,"zech":7223,"icrosoft":7224,"Ġmeasures":7225,"Ġrisk":7226,"Ġorganizations":7227,"Ġmedian":7228,"'.":7229,"blue":7230,"ĠHor":7231,"Ġ$$":7232,"hor":7233,"thur":7234,"Bo":7235,"chers":7236,"Ġindicates":7237,"1938":7238,"Ġtag":7239,"ĠLab":7240,"Ġhandle":7241,"ĠBerlin":7242,"ĠWay":7243,"ransp":7244,"alysis":7245,"mb":7246,"Right":7247,"Ġrecall":7248,"Ã¡n":7249,"ĠChild":7250,"Ġletter":7251,"orough":7252,"ĠĠĠĠĠĠĠĠĠĠĠĠĠĠĠĠĠĠĠĠĠĠĠĠĠĠĠĠĠĠĠĠĠĠĠ":7253,"Ġoffered":7254,"Ġpi":7255,"enger":7256,"ĠHREF":7257,"Address":7258,"Ġparties":7259,"ascript":7260,"Ġaxis":7261,"itory":7262,"mapsto":7263,"Ġcompare":7264,"ĠVan":7265,"ais":7266,"ĠSpe":7267,"Ġjoin":7268,"Ðº":7269,"ĠAv":7270,"Ġattract":7271,"posite":7272,"ĠRay":7273,"ĠSpecial":7274,"Ġefficient":7275,"exec":7276,"Ġsqu":7277,"Ġpan":7278,"zo":7279,"ĠColor":7280,"Ġtasks":7281,"ĠInf":7282,"Ġexchange":7283,"teen":7284,"Ġcoordinates":7285,"ĠMiddle":7286,"Ġregional":7287,"Ġabsor":7288,"Ġ{}":7289,"|}":7290,"Ġprep":7291,"---":7292,"bot":7293,"acc":7294,"ĠStation":7295,"Listener":7296,"Ġregime":7297,"uint":7298,"Column":7299,"site":7300,"ĠFar":7301,"ni":7302,"ibr":7303,"Ġversions":7304,"Section":7305,"'}":7306,"Current":7307,"Ġinteractions":7308,"ĠMany":7309,"asure":7310,"ĠSea":7311,"ĠPlay":7312,"mc":7313,"should":7314,"ga":7315,"VER":7316,"Sch":7317,"pool":7318,"ĠGaussian":7319,"Ġrapid":7320,"Ġearned":7321,"Ġdead":7322,"Types":7323,"TYPE":7324,"Ġappearances":7325,"Mat":7326,"Ġimprov":7327,"ĠEgypt":7328,")_":7329,"iger":7330,"holds":7331,"Ġasked":7332,"ĠBroad":7333,"ĠIslam":7334,"Ġinterval":7335,"While":7336,"tik":7337,"ART":7338,"Ġtypical":7339,"\"|":7340,"Ã£":7341,"common":7342,"Ġnav":7343,"Cast":7344,"ĠMov":7345,"World":7346,"Ġmovie":7347,"Ġscope":7348,"Ġyields":7349,"Server":7350,"Ġalternative":7351,"Container":7352,"abil":7353,"Ġhypot":7354,"Ġpartition":7355,"ĠBu":7356,"Dev":7357,"Ġtransformation":7358,"Ġstrongly":7359,"ĠWis":7360,"Ġmeasurement":7361,"ĠHong":7362,"Ġawards":7363,"ĠTre":7364,"Ġspectra":7365,"step":7366,"Ġquickly":7367,"ydney":7368,"Ġconvergence":7369,"ĠSecretary":7370,"success":7371,"alities":7372,"Ġquite":7373,"ĠST":7374,"Ġmanaged":7375,"Ġfort":7376,"ĠModel":7377,"}}^{":7378,"ĠSu":7379,"120":7380,"Ġproviding":7381,"udes":7382,"returns":7383,"Ġreceive":7384,"Ġsociety":7385,"ĠAlexander":7386,"Ġmarked":7387,"Ġyouth":7388,"Ġdependence":7389,"zy":7390,"Ġpure":7391,"Ġeastern":7392,"Ġast":7393,"Ġplans":7394,"ynamic":7395,"Ġepisodes":7396,"++)":7397,"Ġcommonly":7398,"emble":7399,"Ġdemand":7400,"ĠDar":7401,"Ġtests":7402,"ĠCy":7403,"Red":7404,"ĠArgent":7405,"Ġut":7406,"ologist":7407,"utenant":7408,"IA":7409,"uries":7410,"Ġsupp":7411,"proposition":7412,"ĠSi":7413,"Ġwall":7414,"Ġbaseball":7415,"Ġprimarily":7416,"ĠArray":7417,"Ġrevealed":7418,"1937":7419,"asy":7420,"ĠLicense":7421,"chester":7422,"Background":7423,"found":7424,"Ġobserve":7425,"Provider":7426,"NAME":7427,"ĠOp":7428,"omorphic":7429,"Ġcelebr":7430,"Ġleaves":7431,"Ġlen":7432,"ĠDevelopment":7433,"<?":7434,"ective":7435,"ĠTam":7436,"Ġsusp":7437,"Ġfre":7438,"Ġdraft":7439,"Ġvectors":7440,"These":7441,"Ġconcert":7442,"EM":7443,"ĠPoint":7444,"cut":7445,"Ġwidely":7446,"********************************":7447,"Ġtouch":7448,"General":7449,"ĠEst":7450,"Entry":7451,"peror":7452,"aser":7453,"ĠVictoria":7454,"Button":7455,"Music":7456,"ĠTri":7457,"Ġhar":7458,"odot":7459,"Ġmis":7460,"ĠCommon":7461,"ĠNight":7462,"Ã¸":7463,"ĠNS":7464,"Ġtransferred":7465,"otted":7466,"Ġmarriage":7467,"ĠKorea":7468,"Ġpromoted":7469,"fs":7470,"Ġexpatriate":7471,"mem":7472,"ĠRegion":7473,"Ġbuffer":7474,"Url":7475,"ĠCLASS":7476,"Ġpriv":7477,"Ġcat":7478,"icine":7479,"Austral":7480,"ori":7481,"VID":7482,"itzer":7483,"Ġfifth":7484,"Cal":7485,"ĠIslands":7486,"Ġhouses":7487,"ĠAD":7488,"imation":7489,"ests":7490,"ographer":7491,"$;":7492,"ĠKey":7493,"riptor":7494,"Mult":7495,"kit":7496,"floor":7497,"illy":7498,"Ġsort":7499,"Ġtroops":7500,"Äį":7501,"Ġreflect":7502,"Ġprotest":7503,"Pol":7504,"ĠLittle":7505,"vin":7506,"Ġstellar":7507,"ĠĠĠĠĠĠĠĠĠĠĠĠĠĠĠĠĠĠĠĠĠ":7508,"Ġprobably":7509,"Ġwinner":7510,"Ġindicate":7511,"Ġwav":7512,"Will":7513,"Ġcreation":7514,"Ġorganized":7515,"scill":7516,"rovers":7517,"ancing":7518,"ĠUr":7519,"Ġworkers":7520,"Ġfair":7521,"ĠBir":7522,"Configuration":7523,"Width":7524,"rames":7525,"Ġtesting":7526,"Var":7527,"Ġmerg":7528,"parse":7529,"VD":7530,"Ġmorph":7531,"ennes":7532,"Ġdifferences":7533,"Ġblocks":7534,"ĠOlympic":7535,"ĠHospital":7536,"Ġasympt":7537,"Association":7538,"ronze":7539,"ĠWilson":7540,"ruck":7541,"ĠEliz":7542,"iced":7543,"Ġthr":7544,"Ġsuggested":7545,"University":7546,"QL":7547,"dest":7548,"ĠCorn":7549,"ĠJes":7550,"Ġdiscussion":7551,"yo":7552,"Ġsecondary":7553,"ĠAndrew":7554,"results":7555,"'(":7556,"ĠMot":7557,"Ġcoming":7558,"olicy":7559,"ĠStand":7560,"room":7561,"ito":7562,"Ġalleg":7563,"picture":7564,"Ġprogramming":7565,"Ġowner":7566,"bre":7567,"Ġhospital":7568,"root":7569,"tikz":7570,"ĠFour":7571,"Ġsaying":7572,"ĠWall":7573,"amber":7574,"Personal":7575,"Ġdifferential":7576,"Ġassociation":7577,"ĠBell":7578,"ipage":7579,"Ġacting":7580,"ĠAPI":7581,"weg":7582,"ĠKen":7583,"Ġtold":7584,"MR":7585,"ĠAssert":7586,"models":7587,"Ġmodified":7588,"Ġwanted":7589,"Ġheart":7590,"sor":7591,"ĠOfficial":7592,"PA":7593,"Exec":7594,"dule":7595,")},":7596,"opher":7597,"rank":7598,"ĠBC":7599,"Ġfriends":7600,"Ġdetailed":7601,"iated":7602,"Acc":7603,"Ġopport":7604,"ĠRegiment":7605,"Ġoptical":7606,"1935":7607,"So":7608,"Ġdrug":7609,"Ġuns":7610,"high":7611,"henomen":7612,"ĠFollowing":7613,"aved":7614,"ĠJackson":7615,"}%":7616,"GC":7617,"leton":7618,"Ġenter":7619,"Ġgun":7620,"minipage":7621,"(_":7622,"layout":7623,"Ġstories":7624,"ĠBrook":7625,"images":7626,"\\{\\":7627,"depend":7628,"Ġ<!--":7629,"Ġrepresenting":7630,"ponential":7631,"Ġconstitu":7632,"newcommand":7633,"1919":7634,"ĠÎ":7635,"CK":7636,"HO":7637,"Ġgoes":7638,"ilibrium":7639,"Ġfavor":7640,"Pat":7641,"ĠPolice":7642,"emet":7643,"ogg":7644,"ctu":7645,"Cor":7646,"Tag":7647,"Ġcommunication":7648,"You":7649,"mode":7650,"Ġissued":7651,"Ġidentify":7652,"Ġneighborhood":7653,"Ġfeel":7654,"notes":7655,"Target":7656,"Stat":7657,"Layout":7658,"Ġcultural":7659,"Ġuint":7660,"Update":7661,"phia":7662,"Ġintended":7663,"Polit":7664,"ĠPubl":7665,"uous":7666,"Ġconfirmed":7667,"zer":7668,"aret":7669,"Ġmaterials":7670,"Ġfellow":7671,"Ġprovince":7672,"ĠCat":7673,"Ġchannels":7674,":\"":7675,"Ġcaptured":7676,"Ġpix":7677,"iate":7678,"^{+":7679,"ĠPen":7680,"ĠElect":7681,"control":7682,"Ġnotation":7683,"omer":7684,"zh":7685,"TC":7686,"Ġpra":7687,"Write":7688,"ĠBBC":7689,"Ġresist":7690,"TI":7691,"also":7692,")\"":7693,"Process":7694,"mediate":7695,"bal":7696,"ĠWild":7697,"ĠRepublican":7698,"Ġnuclear":7699,"two":7700,"Location":7701,"Ġdegrees":7702,"Ġpp":7703,"Ġcomposition":7704,"ucky":7705,"such":7706,"Ġdelay":7707,"pir":7708,"conn":7709,"Ġaccepted":7710,"Frame":7711,"Ġdedicated":7712,"Ġcert":7713,"Ġargs":7714,"ntario":7715,"etherlands":7716,"stable":7717,"agers":7718,"template":7719,"Ġinstr":7720,"Ġcouncil":7721,"Ġachieve":7722,"uting":7723,"ĠGener":7724,"ĠRaj":7725,"Ġallowing":7726,"ĠWater":7727,"token":7728,"ĠCall":7729,"javascript":7730,"Ġhol":7731,"rome":7732,"BO":7733,"ĠBa":7734,"Ġattacks":7735,"ĠâĢĺ":7736,"1914":7737,"$~":7738,"ĠBoy":7739,"Ġattribute":7740,"Ġoscill":7741,"igration":7742,"Ġsal":7743,"ĠVill":7744,"bool":7745,"Unit":7746,"Ġalongside":7747,"Ġ{};":7748,"ĠLight":7749,"'),":7750,"alion":7751,"ropical":7752,"ĠRead":7753,"Ġvoice":7754,"aki":7755,"ĠBi":7756,")+\\":7757,"ĠTechnology":7758,"Ġlives":7759,"arrier":7760,"inson":7761,"adelphia":7762,"Ġproport":7763,"Non":7764,"Ġaccur":7765,"Ġsays":7766,"Ġoil":7767,"match":7768,"Ġfirm":7769,"ibliography":7770,"Ġlayers":7771,"ĠBand":7772,"Ġextrem":7773,"ashion":7774,"formed":7775,"Gl":7776,"Ġgraduated":7777,"ĠMap":7778,"Ġbehavi":7779,"Ġexecutive":7780,"ĠPrize":7781,"ĠSydney":7782,"}&":7783,"ĠMinistry":7784,"MO":7785,"arc":7786,"anth":7787,"adian":7788,"PL":7789,"Ġnewspaper":7790,"ĠHome":7791,"Ġsatisfy":7792,"Ġthreshold":7793,"ĠBon":7794,"ĠBatt":7795,"direct":7796,"Ġoperating":7797,"onical":7798,"}}$,":7799,"%)":7800,"tach":7801,"Ġarrived":7802,"nic":7803,"Direct":7804,"cale":7805,"Ġrough":7806,"()->":7807,"Left":7808,"Ġprincipal":7809,"Ġfeaturing":7810,"Ġmagnitude":7811,"Long":7812,"acent":7813,"bec":7814,"Ġconsec":7815,"ĠViet":7816,"ĠTaylor":7817,"Ġinstrument":7818,"Ġmill":7819,"Ã£o":7820,"Ġtechnique":7821,"Ġoptimization":7822,"frame":7823,"parameter":7824,"Ġoccurred":7825,"Ġpseud":7826,"}}$.":7827,"Ġgap":7828,"ervative":7829,"Order":7830,"Ġassistant":7831,"ĠHand":7832,"hy":7833,"Ġideal":7834,"Ġcosm":7835,"\\)":7836,"sch":7837,"window":7838,"Ġreduction":7839,"reference":7840,"1929":7841,"ĠAff":7842,"ĠKorean":7843,"Ġconvex":7844,"Ġsector":7845,"ĠFile":7846,"Ġrare":7847,"Ġshowing":7848,"raine":7849,"akh":7850,"Ġobservation":7851,"My":7852,"```":7853,"tan":7854,"ĠMethod":7855,"Ġlot":7856,"1928":7857,"Ġsettings":7858,"fa":7859,"eness":7860,"Utils":7861,"Ġminimal":7862,"ĠSports":7863,"ami":7864,"})$,":7865,"ĠLim":7866,"ĠSund":7867,"require":7868,"1933":7869,"COL":7870,"Ġowners":7871,"Ġlisting":7872,"maz":7873,"Ġsoldiers":7874,"Ġappropriate":7875,"ĠBrig":7876,"Interface":7877,"Ġefforts":7878,"Ġguarant":7879,"establ":7880,"ĠDaniel":7881,"Ġprominent":7882,"Ġtraffic":7883,"Ġtrial":7884,"Ġfrag":7885,"ologies":7886,"spe":7887,"ĠHamiltonian":7888,"document":7889,"Ġnarrow":7890,"ctx":7891,"Ġsilver":7892,"2023":7893,"1934":7894,"Ġdiss":7895,"Ġways":7896,"Ġtemplate":7897,"ĠSom":7898,"ĠKenn":7899,"watch":7900,"ĠPower":7901,"ĠRod":7902,"ĠÂ£":7903,"defined":7904,"Ġfailure":7905,"task":7906,"1917":7907,"Callback":7908,"ĠLag":7909,"fri":7910,"Ġnet":7911,"ĠAirport":7912,"ĠCommand":7913,"Ġacts":7914,")-\\":7915,"sect":7916,"Ġprediction":7917,"Ġdigital":7918,")}_{":7919,"ĠEp":7920,"Ġsculpt":7921,"Ġvertical":7922,"ĠLo":7923,"vas":7924,"Ġgraphs":7925,"ĠFinally":7926,"mitted":7927,"Ġlocations":7928,"1910":7929,"South":7930,"power":7931,"Ã©e":7932,"Script":7933,"Ġnucle":7934,"Ġhonor":7935,"Ġarticles":7936,"|_{":7937,"ĠReturns":7938,"Ġkernel":7939,"ĠSciences":7940,"bourne":7941,"Ġgradient":7942,"orning":7943,"Ġwinners":7944,"ĠAk":7945,"apes":7946,"consin":7947,"Dat":7948,"ĠRog":7949,"jected":7950,"uv":7951,"ĠThree":7952,"ĠLes":7953,"Ġsomething":7954,"Di":7955,"apped":7956,"Ġresidents":7957,"Ġspl":7958,"ometry":7959,"ymp":7960,"drop":7961,"Ġgain":7962,"Ġbounds":7963,"%;":7964,"Ġreson":7965,"phas":7966,"Sum":7967,"ĠJeff":7968,"fn":7969,"rapper":7970,"cular":7971,"Ġbomb":7972,"CODE":7973,"Ġobj":7974,"coming":7975,"Ġdepending":7976,"Que":7977,"1932":7978,"PU":7979,"eld":7980,"ĠJustice":7981,"Ġcrew":7982,"Ġcandidates":7983,"ĠInitial":7984,"chestra":7985,"ĠFI":7986,"etails":7987,"Ġfloat":7988,"odies":7989,"Ġlett":7990,"cccc":7991,"Ġsend":7992,"make":7993,"ĠSupreme":7994,"ĠFurthermore":7995,"NE":7996,"Bundle":7997,"ĠQueens":7998,"Ġexpanded":7999,"Ġrise":8000,"Ġheat":8001,"ĠPlan":8002,"Ġancient":8003,"Ġthings":8004,"erc":8005,"Op":8006,"Ag":8007,"Control":8008,"ĠOt":8009,"1900":8010,"Ġsport":8011,"sd":8012,"ãĤ":8013,"Range":8014,"sv":8015,"Ġbeam":8016,"Second":8017,"ĠAnother":8018,"Ġagreed":8019,"sex":8020,"Ġorders":8021,"Ġathlet":8022,"Lem":8023,"Ġpurs":8024,"Mark":8025,"ĠCorporation":8026,"Ġdeploy":8027,"ĠEconom":8028,"Ġ$.":8029,"Enc":8030,"perial":8031,"Ġtheoretical":8032,"Ġfine":8033,"DS":8034,"Access":8035,"osl":8036,"ĠFederal":8037,"None":8038,"ĠMedia":8039,"ĠRoute":8040,"Ġven":8041,"ĠAvenue":8042,"]);":8043,"ĠOntario":8044,"Ġdimensions":8045,"styles":8046,"ĠSwedish":8047,"ĠBab":8048,"Ġinduced":8049,"EQ":8050,"water":8051,"DA":8052,"Ġinh":8053,"hol":8054,"ĠAnton":8055,"rane":8056,"Ġseem":8057,"Ġacademic":8058,"ĠOs":8059,"quarters":8060,"Ġdescribes":8061,"mma":8062,"Ġdatabase":8063,"Ġseems":8064,"Ġhtt":8065,"kes":8066,"Ġpartners":8067,"Ġera":8068,"Ġsides":8069,"ĠJoe":8070,"Ġgr":8071,"1922":8072,"imary":8073,"_-":8074,"Ġdiam":8075,"ĠAsh":8076,"anta":8077,"Ġrenamed":8078,"ĠRome":8079,"Ġrugby":8080,"Header":8081,"Ġplanned":8082,"allow":8083,"ĠCambridge":8084,"Ġcapture":8085,"Ġfreedom":8086,"ads":8087,"Ġrotation":8088,"tw":8089,"Ġphysics":8090,"ĠGuard":8091,"olitan":8092,"Ġlargely":8093,"wegian":8094,"Do":8095,"ĠRevolution":8096,"Ġtwice":8097,"orship":8098,"That":8099,"Ġphenomen":8100,"ometric":8101,"Ġclean":8102,"Ġ..":8103,"ĠElizabeth":8104,"Ġadministrative":8105,"Ġwor":8106,"displaystyle":8107,"Ġpit":8108,"Ġweap":8109,"Ġcreating":8110,":</":8111,"ĠLew":8112,"Ġnotable":8113,"250":8114,"1927":8115,"ĠPrime":8116,"ĠAthlet":8117,"Post":8118,"ĠName":8119,"Ġsubsequent":8120,"ĠMedal":8121,"cong":8122,"ogeneous":8123,"Ġroles":8124,"hbar":8125,"ĠTok":8126,"1924":8127,"opes":8128,"DP":8129,"Ġangular":8130,"ĠJon":8131,"Ġemployed":8132,"yal":8133,"ĠBad":8134,"Ġraces":8135,"legate":8136,"ĠTod":8137,"Open":8138,"ilbert":8139,"ĠNations":8140,"1931":8141,"cp":8142,"jan":8143,"Record":8144,"Ġtranslation":8145,"hard":8146,"lesssim":8147,":}":8148,"Ġbin":8149,"Ġmusicians":8150,"Ġchemical":8151,"Tree":8152,"Ġcomplexity":8153,"Ġlimits":8154,"Ġvisit":8155,"Ġadministration":8156,"ĠNetherlands":8157,"buffer":8158,"islative":8159,"Ġca":8160,"Ġdisease":8161,"Ġparticipated":8162,"ZE":8163,"utt":8164,"ci":8165,"Ġcov":8166,"Ġgalaxy":8167,"ults":8168,"Ġmountain":8169,"Ġdestroyed":8170,"ambig":8171,"Ġimportance":8172,"owa":8173,"Ġwhereas":8174,"Ġstorage":8175,"IST":8176,"Ġconclude":8177,"His":8178,"Ġperforming":8179,"Ġlie":8180,"}{|":8181,"Ġhouseholds":8182,"ĠHuman":8183,"Operation":8184,"Ġstack":8185,"imb":8186,"ĠMarg":8187,"Ġtrees":8188,"Ġthermal":8189,"German":8190,"hing":8191,"eman":8192,"Properties":8193,"Ġwhy":8194,"ĠNC":8195,"TS":8196,"mass":8197,"Ġabsolute":8198,"ĠOF":8199,"Public":8200,"Ġwing":8201,"Introduction":8202,"Ġimproved":8203,"Biography":8204,"Ġofficially":8205,"cknowled":8206,"ĠToronto":8207,"International":8208,"Definition":8209,"Ġfundamental":8210,"athan":8211,"########":8212,"Ġhttps":8213,"[(":8214,"ĠVen":8215,"Ġoffers":8216,"hedral":8217,"$),":8218,"called":8219,"oned":8220,"eces":8221,"ĠPass":8222,"Ġhundred":8223,"cref":8224,"ĠPeak":8225,"Ġwait":8226,"Ġstrateg":8227,"ĠPremier":8228,"Ġodd":8229,"ĠUsing":8230,"ĠDer":8231,"Ġfigures":8232,"Ġsurn":8233,"ierarch":8234,"Ġgeometry":8235,"Song":8236,"uses":8237,"disc":8238,"brace":8239,"Ġunderstand":8240,"Ġbands":8241,"Ġreviews":8242,"pute":8243,"Ġrural":8244,"Ġcoal":8245,"holder":8246,"Ġprime":8247,"ĠSa":8248,"Ġconj":8249,"Ġclearly":8250,"Ġcompl":8251,"))$":8252,"udio":8253,"Ġmasses":8254,"ĠĠĠĠĠĠĠĠĠĠĠĠĠĠĠĠĠĠĠĠ":8255,"Ġvotes":8256,"Ġ::":8257,"bel":8258,"Sk":8259,"Ġnation":8260,"urer":8261,"Ġcouple":8262,"construction":8263,"ĠCreate":8264,"Ident":8265,"ĠCa":8266,"hetic":8267,"Ġrepro":8268,"ĠMuslim":8269,"ĠVis":8270,"Ġcomputation":8271,"Ġchampion":8272,"Ġrect":8273,"Ġ$|\\":8274,"Ġdevices":8275,"afe":8276,"forward":8277,"ĠGro":8278,"Ġsolo":8279,"Ġpull":8280,"Ġpropos":8281,"mi":8282,"Ġtal":8283,"Ġfloor":8284,"Ġdeliver":8285,"ĠOrgan":8286,"Ġexc":8287,"ĠAcc":8288,"Module":8289,"III":8290,"}({\\":8291,"Ġencou":8292,"Ġscattering":8293,"iang":8294,"Ġdeclared":8295,"raq":8296,"Ġengineering":8297,"Ġpiece":8298,"Ġpartner":8299,"Ġaggreg":8300,"ĠMaster":8301,"Olymp":8302,"Ġflight":8303,"uing":8304,"Ġlabor":8305,"Ġmathemat":8306,"Ġalone":8307,"ĠCommunity":8308,"anga":8309,"HS":8310,"Ġinfinite":8311,"obs":8312,"}$)":8313,"Ġsuccessfully":8314,"ootst":8315,"Ġparish":8316,")--":8317,"Ġly":8318,"ĠSerb":8319,"]}":8320,"Ġpal":8321,"elligence":8322,"ĠUSA":8323,"lyn":8324,"Ġassess":8325,"French":8326,"Ġshell":8327,"vo":8328,"agon":8329,"arse":8330,"ĠWisconsin":8331,"1925":8332,"KE":8333,"Ġserial":8334,"1912":8335,"Ġcalls":8336,"DR":8337,"ĠKal":8338,"ĠProfessor":8339,"ĠRen":8340,"emetery":8341,"Ġminister":8342,"Ġ>=":8343,"Ġinsert":8344,"ĠTurk":8345,"nesota":8346,"ĠDE":8347,"riev":8348,"lan":8349,"ĠAst":8350,"clip":8351,"Position":8352,"Ġroll":8353,"Ġraise":8354,"Ñĥ":8355,"udget":8356,"aska":8357,"Ġreports":8358,"rog":8359,"itness":8360,"rie":8361,"aux":8362,"osa":8363,"ĠDespite":8364,"render":8365,"Ġnewly":8366,"ĠCub":8367,"ogen":8368,"poss":8369,"XX":8370,"Ġserves":8371,"ego":8372,"Ġkept":8373,"Prot":8374,"Ġadding":8375,"Ġisol":8376,"1921":8377,"aren":8378,"Go":8379,"Ġamplitude":8380,"Ġtail":8381,"1926":8382,"points":8383,"Http":8384,"Entity":8385,"Ġgrew":8386,"Ġfunctional":8387,"ĠBrad":8388,"ĠMinnesota":8389,"Using":8390,"Ġorth":8391,"appe":8392,"Ġlum":8393,"ĠMember":8394,"Ġcomputational":8395,"ello":8396,"Ġdenoted":8397,"opic":8398,"Ġfacilities":8399,"PECT":8400,"former":8401,"ĠDuke":8402,"Empty":8403,"Ġscales":8404,"resource":8405,"Ġcaptain":8406,"ĠUs":8407,"algorithm":8408,"Ġdecomposition":8409,"condition":8410,".âĢĿ":8411,"ymmetric":8412,"organ":8413,"ĠĠĠĠĠĠĠĠĠĠĠĠĠĠĠĠĠĠĠĠĠĠĠĠĠĠĠĠĠĠĠĠĠĠĠĠĠĠĠĠĠĠĠĠĠĠĠĠĠĠĠĠĠĠĠĠĠĠĠĠĠĠĠĠ":8414,"Ġsurrounding":8415,"Document":8416,"dfrac":8417,"ĠSab":8418,"internal":8419,"Women":8420,"sey":8421,"ootstrap":8422,"Ġadvantage":8423,"ĠGL":8424,"ĠUN":8425,"Connection":8426,"Ġstreet":8427,"dem":8428,"Ġdetail":8429,"HP":8430,"ĠCur":8431,"ĠForest":8432,"Ġmedium":8433,"ĠSanta":8434,"Ġspring":8435,"ĠSher":8436,"Ġtitles":8437,"ĠFair":8438,"Therefore":8439,"umes":8440,"Json":8441,"Ġtechnical":8442,"Dir":8443,"efe":8444,"Level":8445,"Ġconsisting":8446,"ĠPhys":8447,"ĠHay":8448,"Ġequipment":8449,"Dom":8450,",$":8451,"Ġmassive":8452,"worth":8453,"Ġcharacteristic":8454,"Ġorbit":8455,"Ġcancer":8456,"Ġprocessing":8457,"Ġplants":8458,"Ġextend":8459,"Ġmedalists":8460,"ĠPakistan":8461,"itled":8462,"leep":8463,"uli":8464,"Ġunderstanding":8465,"Ġefficiency":8466,"Ġdriver":8467,"oor":8468,"full":8469,"iki":8470,"shot":8471,"ĠWalk":8472,"Dr":8473,"ATION":8474,"ĠPhiladelphia":8475,"Awards":8476,"olis":8477,"Ġperman":8478,"Ġlabels":8479,"Ġpool":8480,"Some":8481,"Ġsure":8482,"Ġreasons":8483,"Ġtempor":8484,"Ġfinish":8485,"anges":8486,"bigl":8487,"Ġspirit":8488,"legal":8489,"angular":8490,"ĠBol":8491,"lig":8492,"Thread":8493,"ĠDisc":8494,"}{(":8495,"itivity":8496,"rage":8497,"ĠAR":8498,"DD":8499,"ĠSus":8500,"urches":8501,"Ġbr":8502,"Ġimplemented":8503,"Ġpsych":8504,"Ġhosted":8505,"Ġapparent":8506,"estic":8507,"ĠCirc":8508,"zen":8509,"lementary":8510,"going":8511,"ĠTai":8512,"Ġcollected":8513,"Ãº":8514,":=":8515,"ĠCzech":8516,"ultane":8517,"Async":8518,"ĠBaron":8519,"Ġmotor":8520,"Ġdance":8521,"nections":8522,"arr":8523,"%%":8524,"Ġuncertainty":8525,"Ġcopies":8526,"Ġconference":8527,"Ġcalculation":8528,"Ġrepresentative":8529,"Ġcontrovers":8530,"1923":8531,"ĠStephen":8532,"asty":8533,"ĠLady":8534,"andra":8535,"Ġinvolving":8536,"amin":8537,"ĠMath":8538,"Ġconsidering":8539,"agnetic":8540,"Ġpet":8541,"aml":8542,"formance":8543,"ĠSweden":8544,"ĠPers":8545,"osis":8546,"&=&":8547,"$:":8548,"ĠAli":8549,"ĠBishop":8550,"Each":8551,"yard":8552,"Ġsubgroup":8553,"ĠExt":8554,"living":8555,"ĠStadium":8556,"ĠExec":8557,"Ġtoken":8558,"SH":8559,"ĠIndust":8560,"Olympic":8561,"Height":8562,"Ġdefeat":8563,"Expression":8564,"Ġperfect":8565,"ĠKir":8566,"Ġstarts":8567,"Ġemphas":8568,"IGN":8569,"ĠRom":8570,"Ġresulted":8571,"Ġclusters":8572,"Ġperformances":8573,"Ġener":8574,"ĠTownship":8575,"pet":8576,"othing":8577,"ĠSem":8578,"Ġvisible":8579,"Ġmatching":8580,"ĠMarsh":8581,"Ġrobust":8582,"1916":8583,"Ġlocally":8584,"inus":8585,"ĠBridge":8586,"Ġpolic":8587,"ussion":8588,"Option":8589,"Ġprinciple":8590,"idel":8591,"istent":8592,"Ġlab":8593,"Ġprice":8594,"110":8595,"Ġagric":8596,"mad":8597,"Ġmapping":8598,"Ġdatasets":8599,"Ġdamage":8600,"artifact":8601,"short":8602,"allet":8603,"special":8604,"hs":8605,"cache":8606,"Ġ[\\":8607,"Ġcitizens":8608,"Ġnamely":8609,"Ġgirl":8610,"ĠSquad":8611,"ighth":8612,"Ġincident":8613,">,":8614,"Ġinstitutions":8615,"regon":8616,"ĠIV":8617,"Collection":8618,"Ġgets":8619,"ĠMike":8620,"Ġcoefficient":8621,"Ġweights":8622,"Ġhole":8623,"Ġswim":8624,"Ġevaluation":8625,"pot":8626,"ĠDoug":8627,"Hash":8628,"types":8629,"Ġ**":8630,"Ġhistoric":8631,"Ġvariation":8632,"VAL":8633,"Ġaffect":8634,"Ġcalculations":8635,"ĠBecause":8636,"Ġsummar":8637,"Ġdesired":8638,"aga":8639,"ipeline":8640,"\"))":8641,"Ġends":8642,"Cent":8643,"Finally":8644,"sear":8645,"Ġtalk":8646,"Ġlemma":8647,"Host":8648,"Ġattend":8649,")}}":8650,"global":8651,"Ġbegins":8652,"tfrac":8653,"Ġtool":8654,"Ġlock":8655,"ĠBusiness":8656,"imately":8657,"May":8658,"omot":8659,"Ġhidden":8660,"CF":8661,"bigr":8662,"600":8663,"Main":8664,"Ġrecognition":8665,"ĠCas":8666,"=\"_":8667,"ĠStudies":8668,"scape":8669,"endar":8670,"restling":8671,"fields":8672,"Ġcomposer":8673,"orney":8674,"Ġaffili":8675,"ĠOrig":8676,"ĠConf":8677,"Ġfemales":8678,"Impl":8679,"Reference":8680,"icial":8681,"Ġgrowing":8682,"herent":8683,"Ġsuggests":8684,"Ġtheme":8685,"Ġdiscrete":8686,"1915":8687,"Change":8688,"'re":8689,"green":8690,"ĠOR":8691,"HL":8692,"Params":8693,"cha":8694,"Ġouter":8695,"Ġtraject":8696,"Down":8697,"Ġgained":8698,"Ġengineer":8699,"ĠReview":8700,"Ġthous":8701,"ĠChris":8702,"Ġcoordinate":8703,"wing":8704,"Ġlaunch":8705,"Ġtowns":8706,"pective":8707,"ĠWinter":8708,"kh":8709,"conv":8710,"Ġoverride":8711,"joint":8712,"ĠFinal":8713,"Ġcars":8714,"ĠDam":8715,"]$.":8716,"Ġpurchased":8717,"ĠJoh":8718,"Following":8719,"Ġcache":8720,"Ġexponential":8721,"anna":8722,"Nov":8723,"cow":8724,"ropolitan":8725,"ĠAddition":8726,"illery":8727,"Ġinspired":8728,"master":8729,"ĠMcC":8730,"ben":8731,"ĠKim":8732,"BL":8733,"Ġvehicles":8734,"Ġcancell":8735,"Ġrecognized":8736,"}\\,\\":8737,"ouch":8738,"send":8739,"ĠWat":8740,"ĠMissouri":8741,"Ġblood":8742,"ritical":8743,"Ġtend":8744,"ĠWin":8745,"phant":8746,"Ġbeat":8747,"Ġfinding":8748,"Vol":8749,"Ġheav":8750,"Ġindustrial":8751,"Ġterritory":8752,"rizona":8753,"outheast":8754,"Ġclaims":8755,"Ġpiano":8756,"Ġseconds":8757,"Rad":8758,"season":8759,"Ġacceler":8760,"Ġdetect":8761,"ĠFire":8762,"Ġpeace":8763,"Ġion":8764,"ĠException":8765,"ennessee":8766,"Ġserious":8767,"Ġtitled":8768,"128":8769,"Ġregarding":8770,"aling":8771,"Ġstability":8772,"Ġcontainer":8773,"Ġsafety":8774,"Ġnovels":8775,"Ġsolve":8776,"unte":8777,"BE":8778,"Ġ{$":8779,"before":8780,"Ġfocused":8781,"Su":8782,"auth":8783,"leted":8784,"Ġwild":8785,"ĠStat":8786,"Ġvehicle":8787,"req":8788,"Ġparliament":8789,"Ġentries":8790,"Ġprojection":8791,"Ġreferences":8792,"Ġzone":8793,"pur":8794,"API":8795,"Before":8796,"Ġpenal":8797,"Ġstatistical":8798,"ä¸":8799,"Ġpackage":8800,"Ã¢":8801,"hbox":8802,"ĠIl":8803,"Ġconvent":8804,"Ġsetup":8805,"kg":8806,"Dep":8807,"Ġtrust":8808,"ĠVi":8809,"Ġobjective":8810,"Ġsatisfying":8811,"Ġcolumns":8812,"Ġrepresentations":8813,"Ø§":8814,"\\}$.":8815,"shape":8816,"gies":8817,"Ġremark":8818,"Ġcalculate":8819,"pson":8820,"ĠAnth":8821,"riminal":8822,"Ġrepeated":8823,"Ġunderlying":8824,"ĠClark":8825,"asters":8826,"ĠHo":8827,"bu":8828,"names":8829,"Ġsubstant":8830,"Ġhousing":8831,"Although":8832,"oster":8833,"255":8834,"ĠHan":8835,"ods":8836,"bles":8837,"Ġcerem":8838,"ĠTy":8839,"Ġinterested":8840,"Ġaffected":8841,"ĠOnly":8842,"ims":8843,"Ġestate":8844,"Ġopposite":8845,"Ġscaling":8846,"device":8847,"atible":8848,"Sportspeople":8849,"Ġexplained":8850,"ĠFree":8851,"Ġleadership":8852,"ika":8853,"1913":8854,"ĠCaptain":8855,"Ġenem":8856,"ĠIndones":8857,"utf":8858,"Ġurban":8859,"Bibliography":8860,"rine":8861,"Ġsubt":8862,"Ġscenario":8863,"Ġemb":8864,"Ġbright":8865,"ĠGolden":8866,"Sources":8867,"scription":8868,"ĠMedical":8869,"Ġlaws":8870,"Ġconverted":8871,"END":8872,"RI":8873,"Ġintegration":8874,"ĠBudd":8875,"ĠLev":8876,"MT":8877,"ĠMilitary":8878,"ĠMun":8879,"-$":8880,"enna":8881,"Ġcharged":8882,"apore":8883,"idi":8884,"}})":8885,"ĠLind":8886,"issions":8887,"Project":8888,"Ġportion":8889,"diag":8890,"^*$":8891,"Ġthread":8892,"ading":8893,"Parameters":8894,"Ġcoinc":8895,"ĠMill":8896,"ruit":8897,"since":8898,"Ġpassing":8899,"ordan":8900,"Ġdetected":8901,"ĠNaz":8902,"ĠHun":8903,"Ġquestions":8904,"nergy":8905,"sets":8906,"Ġscientific":8907,"Ġentropy":8908,"Ġestimation":8909,"loop":8910,"paragraph":8911,"ĉĉĉĉĉĉĉ":8912,"ĠSon":8913,"ĠWars":8914,"Ġmac":8915,",\\\\":8916,"ĠMountain":8917,"ĠColon":8918,"Ġevol":8919,"Ptr":8920,"ĠBack":8921,"ĠBh":8922,"Ġgranted":8923,"ĠDown":8924,"Ġreally":8925,"Ġhabit":8926,"ĠWel":8927,"arest":8928,"Ġcontinues":8929,"cred":8930,"Ġusual":8931,"Ġbill":8932,"formal":8933,"Ġsales":8934,"$};":8935,"Ġdoing":8936,"Ġradiation":8937,"Ġcool":8938,"ensis":8939,"Ġresear":8940,"Ġapi":8941,"Ġpowerful":8942,"ĠEXPECT":8943,"UP":8944,"Two":8945,"]$,":8946,"emptyset":8947,"\\;":8948,"Ġsuitable":8949,"Ġpadding":8950,"utable":8951,"ĠEll":8952,"Ġinher":8953,"mosp":8954,"ĠRepresentatives":8955,"styleshe":8956,"Ġmind":8957,"axis":8958,"Ġ^":8959,"Ġjourn":8960,"ĠBeach":8961,"ĠBG":8962,"Ġvess":8963,"Ġcontest":8964,"Ġnotes":8965,"Ġdrive":8966,"Canadian":8967,"Ġadvanced":8968,"Ġseats":8969,"estamp":8970,"ĠKansas":8971,"BR":8972,"ĠIndiana":8973,"Ġfounder":8974,"ĠSurvey":8975,"duce":8976,"ronic":8977,"Ġpossibly":8978,"ĠGree":8979,"BM":8980,"uly":8981,"ĠArthur":8982,"Ġplanet":8983,"uum":8984,"GE":8985,"rell":8986,"Orig":8987,"ĠMaria":8988,"=\"../../../../../":8989,"ĠFox":8990,"actic":8991,"ĠKel":8992,"Ġaband":8993,"Tax":8994,"mers":8995,"ictures":8996,"component":8997,"Sign":8998,"Ġcorner":8999,"Ġrecip":9000,"vard":9001,"Ġrefers":9002,"(*":9003,"tiny":9004,"ĠHard":9005,"osophy":9006,"Ġundefined":9007,"aton":9008,"ĠDavis":9009,"ĠTal":9010,"Ġspecifically":9011,"Draw":9012,"ochastic":9013,"Ġirre":9014,"Har":9015,"Populated":9016,"ĠCastle":9017,"Ġdisp":9018,"Ġsave":9019,"weet":9020,"icker":9021,"Ġtried":9022,"fi":9023,")).":9024,"urations":9025,"ifts":9026,"Ġstone":9027,"ĠAh":9028,"ĠArea":9029,"Ġexcit":9030,"Ġranked":9031,"Ġfaculty":9032,"ĠDun":9033,"160":9034,"Ġcrime":9035,"Ġneural":9036,"Ġconsequence":9037,"Ġresident":9038,"Ġdipl":9039,"gers":9040,"Ġpowers":9041,"1911":9042,"ĠĠĠĠĠĠĠĠĠĠĠĠĠĠĠĠĠĠ":9043,"ĠAtlantic":9044,"Ġinvestigation":9045,"Ġspeech":9046,"FR":9047,"Ġwaves":9048,"oli":9049,"tml":9050,"Ġnamespace":9051,"Geography":9052,"GS":9053,"ceived":9054,"Ġworth":9055,"ybrid":9056,"ĠCOVID":9057,"Ġsuffered":9058,"ĠTrue":9059,"Ġstress":9060,"ĠMunicip":9061,"Ġdistricts":9062,"Ġcontemporary":9063,"ĠHighway":9064,"\"));":9065,"foo":9066,"Store":9067,"Ġtheories":9068,"ĠWeek":9069,"Ġfelt":9070,"Ġexplicitly":9071,"Ġtransmission":9072,"hash":9073,"Ġsummary":9074,"Ġsuperv":9075,"Ġdocumentary":9076,"Ġcategories":9077,"isted":9078,"Ġfinds":9079,"}[\\":9080,"=\"-":9081,"ymph":9082,"ĠIraq":9083,"Ġsexual":9084,"Ġpolitics":9085,"wealth":9086,"OM":9087,"Ġscoring":9088,"....":9089,"clusive":9090,"Book":9091,"iota":9092,"ĠMoh":9093,"ĠBall":9094,"erior":9095,"Ġbow":9096,"ician":9097,"joy":9098,"Arch":9099,"Body":9100,"isa":9101,"ATA":9102,"ĠId":9103,"Pass":9104,"Ġconven":9105,"ters":9106,"zi":9107,"ĠDig":9108,"Ġnotice":9109,"Ġ),":9110,"Ġeq":9111,"STR":9112,"Ġmixing":9113,"Ġinterior":9114,"Ġbronze":9115,":(":9116,"classes":9117,"yg":9118,"tail":9119,"Ġsampling":9120,"Serial":9121,"ĠEngineering":9122,"Ġgar":9123,"equal":9124,"periment":9125,"western":9126,"GR":9127,"ĠOregon":9128,"Ġequilibrium":9129,"Ġliber":9130,"Ġtells":9131,"ÃŃa":9132,"utils":9133,"Ġprotect":9134,"ordon":9135,"Ġxml":9136,"Ġpredicted":9137,"Search":9138,"WE":9139,"Ġcovers":9140,"_;":9141,"[-":9142,"Video":9143,"vs":9144,"ĠDesign":9145,"ĠGallery":9146,"Ġpaths":9147,"Ġisomorphism":9148,"Ġ\\(\\":9149,"bp":9150,"ĠMexican":9151,"Japan":9152,"files":9153,"Ġadjacent":9154,"uple":9155,"))\\":9156,"Ġsequences":9157,"ĠPhilippines":9158,"ĠAlf":9159,"iÃ³n":9160,"Ġdoesn":9161,"ĠNorway":9162,"ĠFederation":9163,"Ġimag":9164,"ĠJunior":9165,"Ġfiction":9166,"ĠPier":9167,"Font":9168,"ĠTurkey":9169,"ĠCommun":9170,"ifer":9171,"GN":9172,"Ġsy":9173,"ĠManagement":9174,"ĠEvent":9175,"irement":9176,"ĠGer":9177,"bind":9178,"800":9179,"Ġrequirements":9180,"ĠLocal":9181,"ĠEnt":9182,"Ġturns":9183,"Ġviews":9184,"ĠRon":9185,"OK":9186,"ĠSuch":9187,"Names":9188,"large":9189,"Ġcommittee":9190,"Ġfactory":9191,"Ġarms":9192,"ĠCountry":9193,"Ġparse":9194,"Ġattempts":9195,"Iter":9196,"Ġboy":9197,"Ġdynamic":9198,"tim":9199,"ĠSlov":9200,"Ð²":9201,"stat":9202,"Ġfrequently":9203,"Ġtransp":9204,"Ġcart":9205,"anes":9206,"Ġ*)":9207,"Ġportray":9208,"CM":9209,"}}_{\\":9210,"cope":9211,"ĠAdminist":9212,"pres":9213,"Ã¼r":9214,"Ġbriefly":9215,"wall":9216,"Ġyards":9217,"Ġintroduction":9218,"Ġpaid":9219,"Ġofficials":9220,"Ġapplying":9221,"ĠTennessee":9222,"clusions":9223,"Ġsufficiently":9224,"Ġfish":9225,"ĠChannel":9226,"ĠBru":9227,"ĠMult":9228,"Ġpages":9229,"ĠColl":9230,"Session":9231,"Ġstrugg":9232,"Kind":9233,"Ġevaluate":9234,"Ġsimultane":9235,"Ġlosing":9236,"Ġpicture":9237,"Ġconsecutive":9238,"Ġconstants":9239,"Ġpatterns":9240,"Ġsevent":9241,"bmatrix":9242,"ACK":9243,"prise":9244,"igrants":9245,"ambiguation":9246,"Ġprepar":9247,"atern":9248,",\\,\\":9249,"Ġpublication":9250,"mn":9251,"Ġyellow":9252,"Ġ(;":9253,"comment":9254,"gest":9255,"clear":9256,"ĠWrit":9257,"Ġmiles":9258,"Ġdiver":9259,"Ġparams":9260,"Ġ\\]":9261,"product":9262,"racks":9263,"ĠJacob":9264,"ĠIR":9265,"Ġreturning":9266,"1908":9267,"iser":9268,"inton":9269,"join":9270,"Ġinstalled":9271,"ĠGh":9272,"Ġexecution":9273,"BB":9274,"Ġtools":9275,"ĠHart":9276,"Ġjournalist":9277,"West":9278,"Ġarts":9279,"256":9280,"ĠShort":9281,"ques":9282,"Ġclosely":9283,"ĠMP":9284,"ivated":9285,"aine":9286,"ĠMic":9287,"COLOR":9288,"ĠSecurity":9289,"phys":9290,"arthe":9291,"mf":9292,"Ġfell":9293,"plicity":9294,"copy":9295,"ĠMemorial":9296,"Ġbelieve":9297,"ĠCON":9298,"ourier":9299,")})":9300,"access":9301,"Ġjet":9302,"ĠLive":9303,"Ġdefend":9304,"ĠConst":9305,"artifactId":9306,"sn":9307,"ĠSteve":9308,"Ġintersection":9309,"aded":9310,"ĠColorado":9311,"Ġcontrolled":9312,"Ġpainting":9313,"debug":9314,"Ġnum":9315,"ĠGre":9316,"yntax":9317,"ĠBaseball":9318,"iative":9319,"Ġabund":9320,"bat":9321,"apel":9322,"rÃ©":9323,"High":9324,"ĠYour":9325,"Member":9326,"border":9327,"diff":9328,"Ġderivative":9329,"vee":9330,"ĠPit":9331,"Copy":9332,"ĠFamily":9333,"Ġgovernor":9334,"Ġdimensional":9335,"hire":9336,"Ġletters":9337,"orders":9338,"ilters":9339,"ĠWhat":9340,"Ġagents":9341,"Best":9342,"izon":9343,"ĠRoss":9344,"pert":9345,"False":9346,"ĠUkraine":9347,"Ġsupply":9348,"uese":9349,"ynasty":9350,"Ġcab":9351,"roke":9352,"Sm":9353,"rainian":9354,"inv":9355,"Ġlearned":9356,"ois":9357,"sequently":9358,"ictional":9359,"Ġscholar":9360,"Ġyounger":9361,"123":9362,"ĠOcean":9363,"life":9364,"Ġsolar":9365,"incial":9366,"itational":9367,"ĠAppendix":9368,"Ġadvance":9369,"Ġescape":9370,"transform":9371,"180":9372,"Ġextensive":9373,"ears":9374,"Core":9375,"Ġinverse":9376,"Ġupdated":9377,"ogram":9378,"ĠConnect":9379,"Ġearth":9380,"Ġbias":9381,"ĠLabor":9382,"ĠSD":9383,"agnost":9384,"Ġfacility":9385,"bras":9386,"Ġburied":9387,"ĠSav":9388,"tainment":9389,"ĠFreder":9390,"ĠHal":9391,"parison":9392,"Ġspons":9393,"Settings":9394,"Death":9395,"Ġmeant":9396,"agu":9397,"UM":9398,"ĠKhan":9399,"ogs":9400,"Menu":9401,"slant":9402,"Ġmanner":9403,"Ġtoward":9404,"ses":9405,"family":9406,"wick":9407,"parameters":9408,"Ġ(,":9409,"ti":9410,"Ġturb":9411,"Ġchairman":9412,"Ġdrawn":9413,"Ġnominated":9414,"Ġpatients":9415,"Ġelectronic":9416,"Ġreceiving":9417,"Australian":9418,"ups":9419,"Ġseparated":9420,"Ġnothing":9421,"ingham":9422,"Ġclimate":9423,"offs":9424,"Ġrom":9425,"Helper":9426,"hl":9427,"Stack":9428,"CI":9429,"Ġfashion":9430,"Ġhash":9431,"mo":9432,"(:":9433,"andy":9434,"romise":9435,"Ġeducated":9436,"aration":9437,"Cap":9438,"Mem":9439,"Ġadvert":9440,"Ġ('":9441,"Hon":9442,"Ġexclud":9443,"Ġembedding":9444,"ĠAuthor":9445,"Ġvillages":9446,"Ġunable":9447,"$_{":9448,"ĠMaryland":9449,"ĠReal":9450,"ĠSat":9451,"plot":9452,"rior":9453,"Ġvice":9454,"ĠMir":9455,"ĠArizona":9456,"Proof":9457,"Match":9458,"Ġneutr":9459,"ALL":9460,"ĠLeon":9461,"&$":9462,"Ġsubs":9463,"general":9464,"ivation":9465,"Ġprotection":9466,"utor":9467,"ĠLewis":9468,"ĠPolit":9469,"Ġcomputing":9470,"Å«":9471,"Ġbra":9472,"ERROR":9473,"Ġdie":9474,"ĠLO":9475,"Ġcauses":9476,"Ġadjust":9477,"ivals":9478,"AND":9479,"ĠMoscow":9480,"Ġaccident":9481,"Ġdiagonal":9482,"Ġinvestigate":9483,"ĠVo":9484,"Ġrestaur":9485,"adi":9486,"Ġindicated":9487,"Ġtaught":9488,"aints":9489,"agen":9490,"ymn":9491,"een":9492,"ĠStock":9493,"}}.":9494,"Tool":9495,"category":9496,"elihood":9497,"itzerland":9498,"iem":9499,"Ġflows":9500,"ĠBooks":9501,"ĠMelbourne":9502,"slash":9503,"Ġcontrad":9504,"Ġdecor":9505,"Ġbond":9506,"icip":9507,"à¸":9508,"Ġtrigger":9509,"Ġidentical":9510,"Ġiron":9511,"Ġreaction":9512,"Ġbroken":9513,"ĠMalays":9514,"uter":9515,"Ġreader":9516,"Ġdust":9517,"etail":9518,"Ġtheatre":9519,"Ġcorrel":9520,"Ġstarring":9521,"Leg":9522,"Ġauthorities":9523,"Transport":9524,"Ġgeneric":9525,"Ġideas":9526,"Ġtrace":9527,"GA":9528,"Ġprotocol":9529,"ĠGoogle":9530,"Ġil":9531,"apl":9532,"ĠBrother":9533,"})}":9534,"connect":9535,"mathop":9536,"ĠBos":9537,";\\;\\":9538,"haps":9539,"Ġexplain":9540,"Ġshop":9541,"ĠDue":9542,"fully":9543,"idge":9544,"ĠWindow":9545,"ussian":9546,"ĠKitt":9547,"Ġdesignated":9548,"ĠInformation":9549,"ahoma":9550,"Template":9551,"Ġ++":9552,"vm":9553,"Ġtrains":9554,"Dav":9555,"Vector":9556,"ĠEs":9557,"operation":9558,"'],":9559,"ĠLeb":9560,"Ġloan":9561,"ĠEu":9562,"coln":9563,"Ġindeed":9564,"ĠRa":9565,"MI":9566,"disambiguation":9567,"ĠTel":9568,"Ġcampus":9569,"vature":9570,"Ġcompris":9571,"'>":9572,"ĠIS":9573,"Ġentity":9574,"Ġroyal":9575,"initial":9576,"HC":9577,"kind":9578,"Ġcoverage":9579,"ancer":9580,"ĠDor":9581,"Rail":9582,"Ġexplo":9583,"Step":9584,"lat":9585,"Ġferm":9586,"jar":9587,"Plot":9588,"Â°":9589,"Ġarc":9590,"ented":9591,"ĠNa":9592,"Doc":9593,"groupId":9594,"ĠJos":9595,"fact":9596,"Tim":9597,"Bel":9598,"Ġpurposes":9599,"Gen":9600,"Ġquadr":9601,"awn":9602,"ĠDrag":9603,"Ġsomew":9604,"bad":9605,"modal":9606,"oured":9607,"Ġlooking":9608,"focus":9609,"ortheast":9610,"ĠMach":9611,"ounded":9612,"Ġsucceeded":9613,"Ġdaily":9614,"Ġassumptions":9615,"sive":9616,"Television":9617,"Ġopposed":9618,"aks":9619,"Ġhands":9620,"interface":9621,"columnwidth":9622,"lywood":9623,"webkit":9624,"equals":9625,"William":9626,"ULT":9627,";->":9628,"Ġcamera":9629,"ogether":9630,"gebras":9631,"TER":9632,"msg":9633,"scriptstyle":9634,"ocese":9635,"Err":9636,"TEST":9637,"Ġsatell":9638,"Ġaudio":9639,"Ġinjury":9640,"ĠFellow":9641,"ĠBan":9642,"Ġattributes":9643,"ĠServices":9644,"Ġcharges":9645,"Ñı":9646,"ĠAustria":9647,"outs":9648,"ĠForeign":9649,"double":9650,"fef":9651,"store":9652,"ĠSri":9653,"tikzpicture":9654,"Life":9655,"ĠEmperor":9656,"bell":9657,"heim":9658,"eral":9659,"including":9660,"TA":9661,"Ġthin":9662,"Ġtwenty":9663,"Ġending":9664,"Ġaccurate":9665,"Ġcommander":9666,"network":9667,"Ð´":9668,"Decl":9669,"Ġannot":9670,"Ġnor":9671,"ructions":9672,"Handle":9673,"kov":9674,"ĠGi":9675,"Ġdoctor":9676,"Ġarrested":9677,"ĠNorwegian":9678,"Ġdropped":9679,"]{\\":9680,"Ġplanning":9681,"ĠBarn":9682,"'m":9683,"\\}$,":9684,"Ġ\"\\":9685,"ĠAlbert":9686,"complete":9687,"Ġelem":9688,"Ġindependence":9689,"ĠBah":9690,"Ġhall":9691,"Ġwins":9692,"ĠObserv":9693,"|}{":9694,"Ġplus":9695,"ĠSever":9696,"101":9697,"isms":9698,"Ġ\\!":9699,"1905":9700,"ĠMas":9701,"regular":9702,"ĠJews":9703,"phone":9704,"ĠNorm":9705,"RR":9706,"Ġburn":9707,"Integer":9708,"irections":9709,"inator":9710,"Ġtower":9711,"Ġpossibility":9712,"Ġcoaches":9713,"Ġcalling":9714,"avor":9715,"ĠArk":9716,">\\":9717,"unes":9718,"125":9719,"ĠAffairs":9720,"ĠPhilip":9721,"don":9722,"Ġbulk":9723,"}}}\\":9724,"}_{-":9725,"Ġ(),":9726,"Ġdrums":9727,"address":9728,"Ġbillion":9729,"Ġintensity":9730,"Ġcritics":9731,"Ġwatch":9732,"obe":9733,"ĠWhe":9734,"Ġcloud":9735,")),":9736,"Ġbran":9737,"Ġbehaviour":9738,"Ġsatisfied":9739,"^{*":9740,"ĠLow":9741,"ĠHur":9742,"1890":9743,"Lin":9744,"ĠTrust":9745,"Ġabstract":9746,"klahoma":9747,"anton":9748,"inion":9749,"icut":9750,"Ġaspects":9751,"delete":9752,"scriptsize":9753,"alian":9754,"Ġchallenge":9755,"ĠZh":9756,"oust":9757,"Ġoccupied":9758,"erves":9759,"algebra":9760,"Ġpremier":9761,"Loc":9762,"Vari":9763,"fold":9764,"Ġteaching":9765,"ĠEven":9766,"Ġpieces":9767,"Ġformerly":9768,"Ġmaxim":9769,"Ġracing":9770,"issip":9771,"integ":9772,"Ġsignals":9773,"Ġhypothesis":9774,"Ġmales":9775,"Lemma":9776,"grid":9777,"Prop":9778,"Ġdriving":9779,"Ġmaximal":9780,"resol":9781,"1909":9782,"Ġjump":9783,"ĠCheck":9784,"elength":9785,"Ġstock":9786,")}_":9787,"Ġliqu":9788,"1907":9789,"ĠInfantry":9790,"Ġobvious":9791,"Ġvocal":9792,"Ġbeaut":9793,"Ġrear":9794,"Ġderive":9795,"abama":9796,"ĠQueensland":9797,"agh":9798,"Ġpredictions":9799,"/(":9800,"rations":9801,"imp":9802,"})=":9803,"ropic":9804,"oths":9805,"Ant":9806,"ĠSC":9807,"click":9808,"ĠSquadron":9809,"ĠâĢł":9810,"ĠCharl":9811,"rained":9812,"ĠJer":9813,"?:":9814,"ĠFront":9815,"Ġnonlinear":9816,"Ġvisited":9817,"Ġlowest":9818,"ĠEth":9819,"Ġatmosp":9820,"Ġdens":9821,"Ġunless":9822,"DC":9823,"Ġinfer":9824,"&=\\":9825,"Title":9826,"Ġbench":9827,"engers":9828,"ĠIndeed":9829,"Ġdeveloping":9830,"tn":9831,"ĠSingapore":9832,"Ġmanifold":9833,"ouses":9834,"1906":9835,"Ġple":9836,"ĠCab":9837,"Ġfestival":9838,"Ġmessages":9839,"FM":9840,"ĠOtt":9841,"NavBar":9842,"ĠIowa":9843,"Ġregistered":9844,"ĠCase":9845,"Ġtrivial":9846,"ĠTransport":9847,"fefefe":9848,"Given":9849,"domain":9850,"Ġanimals":9851,"ĠNon":9852,"gment":9853,"region":9854,"uther":9855,"toString":9856,"Network":9857,"Ġtrying":9858,"Ġtele":9859,"Ġtopological":9860,"sat":9861,"ĠChristmas":9862,"multirow":9863,"ĠTa":9864,"Ġroughly":9865,"}}^{\\":9866,"Ġopposition":9867,"fil":9868,"ĠVietnam":9869,"Ġsixth":9870,"Ġcanonical":9871,"Has":9872,"oking":9873,"Ġgravity":9874,"Ġseed":9875,"Ġrend":9876,"================================":9877,"handle":9878,"plane":9879,"Ġjudge":9880,"FS":9881,"ĠEntertainment":9882,"Ġsizes":9883,"Final":9884,"Ġbundle":9885,"cisely":9886,"Ġpossess":9887,"Ġoldest":9888,"ĠTurn":9889,"ĠSU":9890,"Application":9891,"Ġenh":9892,"Ġ['":9893,"Ġintegrated":9894,"ĠText":9895,"Ġdocuments":9896,"ĠRE":9897,"ĠLemmon":9898,"rub":9899,")--(":9900,"ĠAL":9901,"Ġcosts":9902,"ĠSound":9903,"Ġguest":9904,"when":9905,"ĠSM":9906,"Ġenvironmental":9907,"Ġluminos":9908,"Ġglass":9909,",{\\":9910,"ĠIO":9911,"ĠFord":9912,"Ġtemperatures":9913,"media":9914,"ĠGlobal":9915,"Ġcharacteristics":9916,"Ġentirely":9917,"Ġpainter":9918,"Ġanswer":9919,"Ġsupporting":9920,"ĠSky":9921,"][]{":9922,"stan":9923,"ĠMit":9924,"itative":9925,"ĠCode":9926,"ĠNative":9927,"Ġtrend":9928,"longrightarrow":9929,"ĠSO":9930,"gar":9931,"byte":9932,"Initial":9933,"ĠHou":9934,"NC":9935,"docs":9936,"Ġattempted":9937,"wich":9938,"roit":9939,"Play":9940,"ateur":9941,"ulse":9942,"ĠAdam":9943,"ugins":9944,"Det":9945,"rait":9946,"Ġchanging":9947,"ĠAmericans":9948,"uling":9949,"Ġoccasion":9950,"ĠAnderson":9951,"Ġapplic":9952,"Ġfluid":9953,"ante":9954,"Meta":9955,"Ġecho":9956,"ologists":9957,"Ġauthority":9958,"uy":9959,"North":9960,"Ġgeneralized":9961,"ĠPrinc":9962,"Euro":9963,"Ġsail":9964,"Ġfighting":9965,"ĠEarl":9966,"ĠSpacewatch":9967,"Ġhighlight":9968,"ogonal":9969,"just":9970,"Ġvariance":9971,"Ġbos":9972,"Ġgetting":9973,"Ġultimately":9974,"ĠChile":9975,"ideos":9976,"ĠGib":9977,"Ġrational":9978,"Invalid":9979,"erial":9980,"nn":9981,"Flo":9982,"elect":9983,"Ġadapted":9984,"Ġsurname":9985,"replace":9986,"world":9987,"Ġfluctu":9988,"ĠBat":9989,"Cre":9990,"aws":9991,"icular":9992,"Ġdelete":9993,"INFO":9994,"Use":9995,"dam":9996,"ĠKentucky":9997,"Ġradial":9998,"Ġresc":9999,"Ġversus":10000,"ĠCape":10001,"ĠBeng":10002,"=.":10003,"eeper":10004,"Ġscheduled":10005,"bums":10006,"hover":10007,":=\\":10008,"Ġequality":10009,"Xml":10010,"Ġcharts":10011,"uj":10012,"ĠBalt":10013,"ĠRet":10014,"layer":10015,"isor":10016,"mathit":10017,"ĠDa":10018,"Ġinstances":10019,"Ġinfo":10020,"ĠGreece":10021,"Lang":10022,"Ġheadquarters":10023,"theless":10024,"Ġverify":10025,".'":10026,"Ġtrip":10027,"each":10028,"Ġfeet":10029,"Ġheader":10030,"ĠSwitzerland":10031,"Ġnob":10032,"Conn":10033,"Ġrig":10034,"ĠBillboard":10035,"oni":10036,"Ġvir":10037,"ifferent":10038,"ribed":10039,"Ġcolour":10040,"ĠMiller":10041,"ifiers":10042,"rating":10043,"Ġcovering":10044,"Ð¼":10045,"Ġbudget":10046,"Ġpromotion":10047,"Ġdisestabl":10048,"{|":10049,"ureau":10050,"ĠBattalion":10051,"puter":10052,"})^":10053,"ĠSche":10054,"Ġtransaction":10055,"erset":10056,"support":10057,"Ġmerged":10058,"1904":10059,"DM":10060,"Ġinteract":10061,"stop":10062,"channel":10063,"Selected":10064,"ORT":10065,"Ver":10066,"rency":10067,"sql":10068,"ĠMA":10069,"Ġcatalog":10070,"super":10071,"ĠFame":10072,"Parser":10073,"Notable":10074,"ubble":10075,"Ġjav":10076,"exists":10077,"attery":10078,"Ġcrow":10079,"ĠRose":10080,"ificate":10081,"boolean":10082,"figures":10083,"iveness":10084,"elve":10085,"ĠEP":10086,"ublin":10087,"\\}\\":10088,"Ġpropose":10089,"Ġfans":10090,"Ġhorse":10091,"Ġquantities":10092,"Events":10093,"Schema":10094,"Ġenergies":10095,"Ġstorm":10096,"Ġclin":10097,"ĠTan":10098,"lower":10099,"Ġenjoy":10100,"():":10101,"Ġconnections":10102,"}|\\":10103,"ĠNav":10104,"Hence":10105,"Only":10106,"Metadata":10107,"Consider":10108,"Ġdiplom":10109,"Ġsportspeople":10110,"Ġpapers":10111,"ĠBet":10112,"Ġpasses":10113,"ĠLore":10114,"Ġprecisely":10115,"Ġapproved":10116,"edia":10117,"Ġ^{":10118,"ipe":10119,"GET":10120,"Ġwalls":10121,"agan":10122,"Ġpy":10123,"ĠStaff":10124,"owski":10125,"ĠKy":10126,"igenous":10127,"Ġpolicies":10128,"Ġsust":10129,"radius":10130,"inction":10131,"achelor":10132,"Ġdiscrim":10133,"Ġmayor":10134,"Ġ(*":10135,"ymmetry":10136,"RC":10137,"ĠTokyo":10138,"Ġguard":10139,"Ġexplan":10140,"ugu":10141,"Ġsingers":10142,"ĠJane":10143,"Ġbytes":10144,"record":10145,"Ġcompetitions":10146,"illing":10147,"ĠNap":10148,"zz":10149,"Ġmusician":10150,"ĠSimon":10151,"Ġdivers":10152,"notag":10153,"ĠHoly":10154,"okes":10155,"Ġmanagers":10156,"vect":10157,"Ġsituated":10158,"ĠForces":10159,"eties":10160,"ĠEric":10161,"Ġhousehold":10162,"pred":10163,"Ġaudience":10164,"Ġextremely":10165,"ĠFer":10166,"}~":10167,"ango":10168,"Ġargued":10169,"uid":10170,"ĠLiter":10171,"rase":10172,"iner":10173,"ĠRoy":10174,"Ġhistorian":10175,"ĠNY":10176,"Media":10177,"ĠLast":10178,"WS":10179,"nabled":10180,"Ġlists":10181,"Ġrelax":10182,"Ġeffectively":10183,"ocate":10184,"Ġabsence":10185,"Christ":10186,"Assert":10187,"ĠError":10188,"refect":10189,"ĠHarry":10190,"RS":10191,"Ġapproximate":10192,"Values":10193,"medskip":10194,"ĠColomb":10195,"uerto":10196,"ibration":10197,"mont":10198,"esian":10199,"Policy":10200,"Ã¥":10201,"irty":10202,"BI":10203,"Ġspot":10204,"ridges":10205,"Reader":10206,"istence":10207,"rops":10208,"ĠÄ":10209,"Af":10210,"ptic":10211,"Ġasymptotic":10212,"framework":10213,"enez":10214,"ester":10215,"^{(\\":10216,"eless":10217,"risis":10218,"incess":10219,"Ġpilot":10220,"Ġdefense":10221,"rosc":10222,"hips":10223,"Ġcryst":10224,"Ġcontribut":10225,"Ġcm":10226,"ĠGiven":10227,"âĢľ":10228,"oton":10229,"=\"../../../../../../":10230,"Ġmel":10231,"ĠLank":10232,"ĠSunday":10233,"Ġsan":10234,"Ġcircum":10235,"Football":10236,"iva":10237,"Ġproducing":10238,"Ġmask":10239,"widget":10240,"closed":10241,"icted":10242,"Av":10243,"Ġdependent":10244,"Ġflex":10245,"Ġsupports":10246,"Äĥ":10247,"ĠInternet":10248,"Ġstages":10249,"Ġeconomy":10250,"Ġencourag":10251,"ĠModern":10252,"craft":10253,"ĠAmong":10254,"\\|\\":10255,"ĠRequ":10256,"panel":10257,"evin":10258,"Ġholding":10259,"utation":10260,"aro":10261,"ĠWalter":10262,"ĠTony":10263,"PRE":10264,"ista":10265,"Ġsons":10266,"Ġphoton":10267,"Vill":10268,"oggle":10269,"...,":10270,"Li":10271,"Ġfuel":10272,"icians":10273,"ĠFred":10274,"\\%$":10275,"ĠLike":10276,"rins":10277,"ĠHy":10278,"subsec":10279,"ĠBor":10280,"Ġmarg":10281,"ĠSix":10282,"Del":10283,"ando":10284,"Indian":10285,"artheta":10286,"disabled":10287,"Ġtreated":10288,"Ġsettled":10289,"application":10290,"Bytes":10291,"vartheta":10292,"Ġattached":10293,"Ġbyte":10294,"ĠGreg":10295,"Offic":10296,"Ġrefused":10297,"Ġlect":10298,"Ġbought":10299,"inth":10300,"Under":10301,"Ġbrothers":10302,"Ġdecades":10303,"Ġexceed":10304,"Pres":10305,"burn":10306,"ĠLincoln":10307,"Education":10308,"Ġdense":10309,"ĠAlabama":10310,"Ġcombat":10311,"ĠDate":10312,"Found":10313,"Ġpush":10314,"Device":10315,"Ġcircuit":10316,"alid":10317,"Ġstochastic":10318,"olished":10319,"izable":10320,"}}=":10321,"person":10322,">();":10323,"Born":10324,"rastructure":10325,"oked":10326,"ĠNick":10327,"tor":10328,"ĠĠĠĠĠĠĠĠĠĠĠĠĠĠĠĠĠĠĠĠĠĠĠĠĠĠĠĠĠĠĠĠĠĠĠĠĠĠĠ":10329,"never":10330,"ORD":10331,"ĠThrough":10332,"Ġlyrics":10333,"Ġencoding":10334,"Ġcontributed":10335,"Ġ}{":10336,"Ġgate":10337,"ĠKat":10338,"ĠDat":10339,"Ġaired":10340,"Argument":10341,"Ġregarded":10342,"ĠBGCOLOR":10343,"eyn":10344,"Ġcharacterized":10345,"wt":10346,"ancell":10347,"Character":10348,"Ġli":10349,"lik":10350,"ĠBurn":10351,"1903":10352,"Ġrestricted":10353,"ĠCle":10354,"Ã©t":10355,"Her":10356,"ĠValue":10357,"inema":10358,"Ġintermediate":10359,"ĠWolf":10360,"Ġdominant":10361,"ulus":10362,"Ġinline":10363,"ĠBuilding":10364,"ĠLtd":10365,"adoop":10366,"ĠStone":10367,"Ġexpressions":10368,"ĠRow":10369,"Ġped":10370,"Ġqualified":10371,"nie":10372,"ĠGrant":10373,"1901":10374,"Ġnegot":10375,"ania":10376,"Ġconsult":10377,"Ġidx":10378,"Py":10379,"ACE":10380,"Ġreaching":10381,"Ġconclusion":10382,"Ġassembly":10383,"Ġunsigned":10384,"etal":10385,"Ġvent":10386,"ĠNumber":10387,"Parent":10388,"Ã©s":10389,"oments":10390,"urst":10391,"ĠFund":10392,"Ġtrib":10393,"ĠCost":10394,"Ġsand":10395,"ĠUse":10396,"icons":10397,"ples":10398,"ĠassertEquals":10399,"ĠBefore":10400,"Tab":10401,"odd":10402,"Ġmock":10403,"session":10404,"Ġec":10405,"Ġdominated":10406,"modules":10407,"ĠJam":10408,"negative":10409,"ĠGram":10410,"overy":10411,"ĠTrum":10412,"Rect":10413,"Ġstrings":10414,"Ġpermanent":10415,"Ang":10416,"Ġstands":10417,"Ġreality":10418,"Ġfolk":10419,"ĠGab":10420,"ername":10421,"exports":10422,"ĠManchester":10423,"Ġreplacing":10424,"ĠNFL":10425,"stylesheet":10426,"apse":10427,"ECT":10428,"ikh":10429,"Ġmorning":10430,"Ġconsisted":10431,"ĠNev":10432,"forming":10433,"cert":10434,"enum":10435,"Bas":10436,"textcolor":10437,"Ġexecuted":10438,"Ġrich":10439,"SET":10440,"ĠMagazine":10441,"ĠCart":10442,"callback":10443,"Ġtemple":10444,"onomy":10445,"oved":10446,"late":10447,"iley":10448,"Ġroof":10449,"ĠPot":10450,"Ġshortly":10451,"issippi":10452,"Ġenable":10453,"ĠTelevision":10454,"Ġmobile":10455,"ĠCommonwealth":10456,"Ġopera":10457,"Ġschol":10458,"ĠHop":10459,"ĠConstitution":10460,"resp":10461,"arios":10462,"Ġcausing":10463,"urable":10464,"Select":10465,"Club":10466,"ĠCH":10467,"Ġneighbour":10468,"ĠJordan":10469,"rev":10470,"Ġ})":10471,"ĠOklahoma":10472,"ĠSquare":10473,"ĠWell":10474,"Military":10475,"1902":10476,"Ġcrossing":10477,"Ġmultip":10478,"plugin":10479,"Ġquantity":10480,"vals":10481,"Phil":10482,"Ġrows":10483,"Ġautomatically":10484,"ĠSoft":10485,"Ġmagnet":10486,"ulator":10487,"Ġpreced":10488,"ĠSoc":10489,"keys":10490,"Ġtruth":10491,"uscript":10492,"ĠML":10493,"Bra":10494,"Ġuniversal":10495,"agues":10496,"Ġkeys":10497,"STATE":10498,"ĠDark":10499,"RT":10500,"ĠCollection":10501,"Ġinterpretation":10502,"uties":10503,"Ret":10504,"Ġsignature":10505,"aph":10506,"Rule":10507,"ĠConnecticut":10508,"Ġfunding":10509,"ĠHans":10510,"Ġcurvature":10511,"ĠMarine":10512,"Writer":10513,"`.":10514,"Ġcompletion":10515,"Sem":10516,"iversary":10517,"night":10518,"Windows":10519,"letion":10520,"ĠLabour":10521,"Ġmonitor":10522,"Ġcodes":10523,"Ġlayout":10524,"Root":10525,"enny":10526,"ĠTurkish":10527,"Ġenabled":10528,"mazon":10529,"ĠBulg":10530,"ebox":10531,"Ġwinter":10532,"Black":10533,"ĠPrix":10534,"Ġseparation":10535,"Ġcommissioned":10536,"Ġmolecular":10537,"ĠHoward":10538,"idget":10539,"}\\|":10540,"Args":10541,"Sym":10542,"1880":10543,"Ġbroke":10544,"isson":10545,"Ġproduces":10546,"iples":10547,"ĠPur":10548,"ĠWind":10549,"custom":10550,"Ġattacked":10551,"enia":10552,"Scope":10553,"DIR":10554,"quest":10555,"rik":10556,"none":10557,"Ġquasi":10558,"Storage":10559,"Ġbodies":10560,"gency":10561,"chant":10562,"Ġtennis":10563,"Ġmand":10564,"iful":10565,"oa":10566,"Ġvariations":10567,"NG":10568,"LI":10569,"Enabled":10570,"ĠTen":10571,"Ġalter":10572,"Ġiteration":10573,"Ġdrag":10574,"uma":10575,"ĠAction":10576,"rav":10577,"Pool":10578,"Ġmetres":10579,"Debug":10580,"original":10581,"Lo":10582,"Ġprotein":10583,"Ġsun":10584,"Ġdashed":10585,"export":10586,"ĠIP":10587,"Ġdynamical":10588,"ĠNCAA":10589,"Ġsomeone":10590,"ĠNich":10591,"fly":10592,"Suppose":10593,"Descriptor":10594,"Ġraw":10595,"Ġneutral":10596,"Ġhero":10597,"Star":10598,"%.":10599,"Ġdetector":10600,"Most":10601,"Ġshock":10602,"ĠAllen":10603,"Ġdomestic":10604,"Ġduration":10605,"tah":10606,"Ġkeyboard":10607,"ĠBrigade":10608,"ele":10609,"racket":10610,"HTML":10611,"lay":10612,"Ġindices":10613,"ĠSenior":10614,"Ġresistance":10615,"ĠKam":10616,"Ġwitness":10617,"ĠFinn":10618,"circle":10619,"ĠRecord":10620,"Ġconfigurations":10621,"Ġcarri":10622,"Ġlake":10623,"Ġincorporated":10624,"env":10625,"Ġdx":10626,"ieval":10627,"Ġ$,":10628,"Rest":10629,"Ġsole":10630,"Ġassuming":10631,"ĠCru":10632,"Ġfresh":10633,"porated":10634,"ĠNever":10635,"Ġillustrated":10636,"Ġpand":10637,"ships":10638,"ĠBrun":10639,"exception":10640,"aza":10641,"ĠSin":10642,"ĠCop":10643,"Ġmart":10644,"ĠThird":10645,"}$}":10646,"enberg":10647,"ĠPa":10648,"Ġss":10649,"putation":10650,"iami":10651,"ĠRegional":10652,"ĠNag":10653,"dens":10654,"Ġos":10655,"Ġpresidential":10656,"Ġdirectory":10657,"ĠCroat":10658,"Ġspan":10659,"Ġexhibition":10660,"ĠNO":10661,"incor":10662,"ĠHu":10663,"Ġprecision":10664,"ĠHom":10665,"SF":10666,"Ġconservation":10667,"-(":10668,"zed":10669,"ardo":10670,"Ġinfluenced":10671,"Ep":10672,"\">&":10673,"ĠMatt":10674,"Ġfought":10675,"BUG":10676,"connection":10677,"ĠHamp":10678,"inces":10679,"Ġheavily":10680,"Ġscenes":10681,"plicated":10682,"eval":10683,"Ġexperi":10684,"@{":10685,"bootstrap":10686,"Ġlicense":10687,"ĠMoon":10688,"Ġhorizontal":10689,"Ġhierarch":10690,"profile":10691,"ĠHawai":10692,"ladesh":10693,"Ġcovar":10694,"Num":10695,"Tests":10696,"ĠDiego":10697,"register":10698,"Ġbreaking":10699,"rin":10700,"'))":10701,"fast":10702,"ulating":10703,"ĠDream":10704,"Ġrender":10705,"Ġnotion":10706,"protobuf":10707,"ĠGall":10708,"Ġ$\\{\\":10709,"ĠNaval":10710,"Ġfounding":10711,"Ġformally":10712,"Ġwealth":10713,"Ġ\\,\\":10714,"ĠMarc":10715,"Ġappearing":10716,"ĠAge":10717,"ĠChildren":10718,"limit":10719,"ĠArgentina":10720,"ayan":10721,"Ġcas":10722,"Ġexcess":10723,"sson":10724,"rates":10725,"Ġhour":10726,"ĠHeart":10727,"Reception":10728,"ĠAbout":10729,"ĠPortuguese":10730,"=\"../../../":10731,"Ġclassified":10732,"Phys":10733,"total":10734,"ĠAgain":10735,"ĠStory":10736,"aware":10737,"ĠView":10738,"Ġdirections":10739,"mal":10740,"Ġinhabit":10741,"ĠVar":10742,"icensed":10743,"Ġequivalence":10744,"Ġgeometric":10745,"Ġfaced":10746,"Ġbelongs":10747,"ĠChampions":10748,";\"|":10749,"auto":10750,"Ġgenerator":10751,"ATH":10752,"Security":10753,"VM":10754,"Param":10755,"ĠBrian":10756,"ĠFac":10757,"----------------------------------------------------------------":10758,"Ġevaluated":10759,"Moreover":10760,"Ġinvoke":10761,"Icon":10762,"Boolean":10763,"Ġaid":10764,"Ġcommit":10765,"finals":10766,"Ġlocomot":10767,"Ġgirls":10768,"AE":10769,"ĠDC":10770,"ĠDoctor":10771,"}{*":10772,"dict":10773,"Api":10774,"died":10775,"Ġ<=":10776,"ĠChall":10777,"settings":10778,"ĠAnne":10779,"Ġchose":10780,"ĠCemetery":10781,"Ġdemonstrated":10782,"Ġactresses":10783,"iamond":10784,"Ġredshift":10785,"relation":10786,"ushed":10787,"ĠFunction":10788,"lass":10789,"ĠIr":10790,"Ġliterary":10791,"Ġviolence":10792,"Ġguns":10793,"opter":10794,"Ġtopology":10795,"ĠQuebec":10796,"ĠĠĠĠĠĠĠĠĠĠĠĠĠĠĠĠĠĠĠĠĠĠĠĠĠ":10797,"Ġdecrease":10798,"ĠEnergy":10799,"Ġlinked":10800,"ractions":10801,"olo":10802,"oslav":10803,"coh":10804,"]]":10805,"ĠBrand":10806,"Ġbelief":10807,"Ġfilename":10808,"ĠNik":10809,"_->":10810,"insert":10811,"Ġquark":10812,"Ġessentially":10813,"ĠSilver":10814,"ographical":10815,"Songs":10816,"ĠHockey":10817,"Ġaged":10818,"Family":10819,"ctors":10820,"margin":10821,"kw":10822,"ĠSwiss":10823,"Ġmaintained":10824,"ownt":10825,"DL":10826,"ĠPas":10827,"DI":10828,"Ġdefines":10829,"Mock":10830,"ĠNAS":10831,"ourse":10832,"ĠOfficer":10833,"Another":10834,"Ġpractical":10835,"possible":10836,"Ġgenerating":10837,"Den":10838,"Ġentitled":10839,"Ġkilling":10840,"Ġstored":10841,"backslash":10842,"Expatriate":10843,"Ġbalance":10844,"ashi":10845,"Fix":10846,"ĠEc":10847,"Ġkil":10848,"Ġdirectors":10849,"Ġcollaboration":10850,"Ġpartially":10851,"Ġconstitution":10852,"ĠRab":10853,"ĠKaz":10854,"Ġtranslated":10855,"Ġlens":10856,"ĠSn":10857,"ĠFa":10858,"creen":10859,"Ġdedu":10860,"ĠStandard":10861,"icket":10862,"elson":10863,"Byte":10864,"aming":10865,"Ġconcluded":10866,"Ġalleged":10867,"Ġreconstruction":10868,"Ġdidn":10869,"rator":10870,"erion":10871,"Ġusage":10872,"Ġrespective":10873,"Ġcold":10874,"Ġstandards":10875,"duate":10876,"porting":10877,"(-\\":10878,"ĠCook":10879,"parallel":10880,"Ġsought":10881,"ĠEnvironment":10882,"ĠTemple":10883,"ĠDenmark":10884,"abric":10885,"uda":10886,"Ġsimilarly":10887,"ĠOnce":10888,"Hom":10889,"phantom":10890,"imit":10891,"Ġopportunity":10892,"Ġretirement":10893,"ghan":10894,"Ġinvolves":10895,"Ġreform":10896,"Ġjazz":10897,"Ġherself":10898,"attribute":10899,"Ġnormalized":10900,"ORM":10901,"ĠBelgium":10902,"cers":10903,"001":10904,"AGE":10905,"ancel":10906,"plus":10907,"vc":10908,"ivery":10909,"Ġchurches":10910,"!\\":10911,"Ġeigenvalues":10912,"virtual":10913,"^*\\":10914,"ĠJava":10915,"entity":10916,"olver":10917,"Roman":10918,"inking":10919,"Ġfunds":10920,"+(":10921,"changed":10922,".\\\\":10923,"hadoop":10924,"Ġsymbols":10925,"Ġvideos":10926,"Ġgravitational":10927,"`,":10928,"encing":10929,"ĠTerrit":10930,"square":10931,"ĠDur":10932,"ĠJSON":10933,"Ġscores":10934,"Ġencounter":10935,"Ġdemonstrate":10936,"corollary":10937,"Ġsoccer":10938,"ĠSel":10939,"Ġprogramme":10940,"Ġsentence":10941,"ĠKer":10942,"bey":10943,"ĠHonor":10944,"Ġdates":10945,"oda":10946,"ĠFlo":10947,"Mc":10948,"Delete":10949,"ĠBureau":10950,"ĠCra":10951,"ĠWy":10952,"Ġmes":10953,"1898":10954,"Ġsky":10955,"abad":10956,"ĠJay":10957,"hist":10958,"Ġaware":10959,"ĠPatrick":10960,"Ġinstant":10961,"Ġconsole":10962,"ĠNext":10963,"argo":10964,"ĠHarris":10965,"Ġimprovement":10966,"ĠĠčĊ":10967,"ĠWho":10968,"ĠTask":10969,"Ġweapons":10970,"!]":10971,"Ġphases":10972,"arry":10973,"istration":10974,"Ġcenturies":10975,"footnotes":10976,"recated":10977,"cht":10978,"Ġhop":10979,"Ġmetrics":10980,"Opt":10981,"fix":10982,"properties":10983,"Ġsomewhat":10984,"sis":10985,"ĠAlb":10986,"ĠIsraeli":10987,"ingly":10988,"ĠĠĠĠĠĠĠĠĠĠĠĠĠĠĠĠĠĠĠĠĠĠĠĠ":10989,"Ġcoupled":10990,"ĠOak":10991,"Ġreplacement":10992,"Ġstating":10993,"odec":10994,"ĠInn":10995,"was":10996,"kt":10997,"ĠDouglas":10998,"ĠDal":10999,"ĠGordon":11000,"ĠVice":11001,"Ġroots":11002,"WA":11003,"aired":11004,"fire":11005,"Ġsynchron":11006,"ĠReb":11007,"ĠAlgorithm":11008,"ĠAdditionally":11009,",.":11010,"ducible":11011,"ĠDanish":11012,"oupl":11013,"Ġdesigns":11014,"Ġhotel":11015,"Ġairport":11016,"130":11017,"important":11018,"dependency":11019,"Ġproportional":11020,"Ġisot":11021,"Ġchampions":11022,"Ġvacuum":11023,"cline":11024,"Ġ,\\":11025,"rena":11026,"ĠFM":11027,">.":11028,"ĠMand":11029,"Common":11030,"Ġoptional":11031,"Ġhandler":11032,"spring":11033,"ĠURL":11034,"inburgh":11035,"ĠBrazilian":11036,"Ġsac":11037,"Ã´":11038,"ĠSign":11039,"anim":11040,"Ġentertain":11041,"Ġconcentration":11042,"${\\":11043,"odox":11044,"Ġlawyer":11045,"Ġancest":11046,")^\\":11047,"sa":11048,"Ġcarbon":11049,"bc":11050,"Ġoperate":11051,"verb":11052,"Ġindicating":11053,"otte":11054,"istant":11055,"Ġcorrection":11056,"Ġnecessarily":11057,"cloud":11058,"Ġboundaries":11059,"atar":11060,"Ġcolors":11061,"bean":11062,"Ġhair":11063,"esides":11064,"ĠPope":11065,"ĠPage":11066,"Ġpromote":11067,"Ġbrown":11068,"ĠRights":11069,"Ġgene":11070,"ĠArg":11071,"Major":11072,"FAULT":11073,"Ġreduces":11074,"rama":11075,"ĠNA":11076,"mouth":11077,"footnotesize":11078,"Ġextent":11079,"ĠSud":11080,"Ġwire":11081,"posing":11082,"stood":11083,"ĠWindows":11084,"Symbol":11085,"kern":11086,"Ġkin":11087,"ĠTaiwan":11088,"idal":11089,"What":11090,"ĠExpress":11091,"ĠGard":11092,"ĠWhit":11093,"Many":11094,"ĠYouth":11095,"Academ":11096,"Ġluminosity":11097,"unn":11098,"lu":11099,"aked":11100,"Ġicon":11101,"ieg":11102,"Render":11103,"PD":11104,"Ġtab":11105,"yers":11106,"}\"":11107,"Mac":11108,"ĠAlber":11109,"ĠVersion":11110,"chain":11111,"-->":11112,"Custom":11113,"Ġcompilation":11114,"Ġanimal":11115,"Ġperiods":11116,"urance":11117,"Ġfilled":11118,"ĠPlayer":11119,"Ġsimultaneously":11120,"Ġwrong":11121,"ĠCommunic":11122,"Ġfranch":11123,"Ġfaith":11124,"numer":11125,"Ġtested":11126,"ĠHouston":11127,"ĠKo":11128,"Ġinaug":11129,"Ġtouchdown":11130,"via":11131,"ĠMoore":11132,")[":11133,"yll":11134,"CB":11135,"Ġinvar":11136,"odge":11137,"pair":11138,"issance":11139,"Ġrejected":11140,"ĠPhill":11141,"Jo":11142,"SSERT":11143,"Ġplate":11144,"Ġenemy":11145,"Ġstores":11146,"1899":11147,"ĠFle":11148,"para":11149,"Ġdownload":11150,"Ġmidfield":11151,"wen":11152,"atin":11153,"quant":11154,"observ":11155,"ĠPuerto":11156,"700":11157,"ithuan":11158,"Ġjur":11159,"Ġsurfaces":11160,"inline":11161,"plan":11162,"oses":11163,"ĠMississippi":11164,"cross":11165,"Ġwavelength":11166,"Ġoffices":11167,"Ġparticipants":11168,"ĠDak":11169,"aments":11170,"padding":11171,"Ġgender":11172,"random":11173,"ĠPlace":11174,"Graph":11175,"onom":11176,"Ġemployees":11177,"ĠÃī":11178,"ĠLam":11179,"Ġweather":11180,"lope":11181,"eland":11182,"ĠAnthony":11183,"ocker":11184,"$.}":11185,"rg":11186,"ĠAN":11187,"screen":11188,"athe":11189,"'_{":11190,"Ġinstitution":11191,"Ġvarying":11192,"ĠStudios":11193,"equations":11194,"ĠMi":11195,"song":11196,"ĠImp":11197,"Ġcub":11198,"Ġsafe":11199,"bits":11200,"Ġfaster":11201,"Ġcontroller":11202,"ACT":11203,"Ġconfidence":11204,"Ġpoetry":11205,"oom":11206,"Ġreligion":11207,"ocratic":11208,"GM":11209,"Ġstudying":11210,"ovation":11211,"instein":11212,"aturally":11213,"ĠBus":11214,"ĠPalest":11215,"Ġdisplayed":11216,"ĠHotel":11217,"Ġeducational":11218,"ĠDeb":11219,"Ġinputs":11220,"ĠMonte":11221,"Ġperiodic":11222,"ĠLieutenant":11223,"Ġinduct":11224,"Ġfrequencies":11225,"Ġestablishment":11226,"Ġ({\\":11227,"Ġworldwide":11228,"Ġsoci":11229,"ĠPath":11230,"Fields":11231,"Ġanom":11232,"Ä«":11233,"Ġuniformly":11234,"dash":11235,"Ġhighway":11236,"Buildings":11237,"Ġfluctuations":11238,"1870":11239,"there":11240,"comb":11241,"Ġprofiles":11242,"SION":11243,"ĠHerm":11244,"Ġabandoned":11245,"###":11246,"cycl":11247,"IE":11248,"Ġpione":11249,"Ġmodules":11250,"ĠMicrosoft":11251,"Active":11252,"ĠPortugal":11253,"Prim":11254,"Ġpaintings":11255,"ĠExecutive":11256,"Ġplas":11257,"Ġjoining":11258,"angel":11259,"jecture":11260,"LC":11261,"ahn":11262,"Ġdescribing":11263,"ĠRest":11264,"inating":11265,"Ġpopulations":11266,"Ġconversion":11267,"Ġpublications":11268,"antasy":11269,"ĠLegislative":11270,"Ġempir":11271,"ĠVillage":11272,"Ġorbital":11273,"%,":11274,"Ġimmediate":11275,"Ġperturbation":11276,"Imp":11277,"ournament":11278,"elle":11279,"ĠJuan":11280,"Ġrival":11281,"ordinate":11282,"_(":11283,"wig":11284,"Ġconcerns":11285,"ĠIslamic":11286,"ĠAntonio":11287,"leveland":11288,"ĠUkrainian":11289,"Ġpandemic":11290,"umption":11291,"ÃŃn":11292,"Ġextreme":11293,"essions":11294,"Ġsteel":11295,"Ġfleet":11296,"cover":11297,"aron":11298,"Ġadvent":11299,"Ġcomments":11300,"ĠHeritage":11301,"Ġentrance":11302,"Spe":11303,"ceil":11304,"words":11305,"phase":11306,"Ġvanish":11307,"ĠLouisiana":11308,"PAR":11309,"ÅŁ":11310,"Any":11311,"Ġstrike":11312,"PM":11313,"Ġadaptation":11314,"Ġment":11315,"Ġexplos":11316,"ĠNig":11317,"chell":11318,"ĠInstead":11319,"lon":11320,"written":11321,"Ġstadium":11322,"ĠDick":11323,"Ġcorrections":11324,"connected":11325,"unsigned":11326,"Ġhumans":11327,"estyle":11328,"Ġreserve":11329,"Mal":11330,"itecture":11331,"Ġbrain":11332,"__(":11333,"hentication":11334,"downarrow":11335,"herical":11336,"Ġmsg":11337,"ĠDetroit":11338,"_,":11339,"retch":11340,"Ġvariant":11341,"1895":11342,"Ġago":11343,"Ġensemble":11344,"jpg":11345,"enz":11346,"items":11347,"Ġdynasty":11348,"ĠUnit":11349,"Ġreign":11350,"Ġahead":11351,"ĠFil":11352,"Europe":11353,"mock":11354,"Ġhybrid":11355,"Ġready":11356,")))":11357,"ĠĠĠĠĠĠĠĠĠĠĠĠĠĠĠĠĠĠĠĠĠĠ":11358,"Ġfinishing":11359,"iliary":11360,"Ġstrictly":11361,"Ġruled":11362,"Ġtrav":11363,"friend":11364,"Ġmyst":11365,"Ġcriminal":11366,"ĠNOT":11367,"ĠBuck":11368,"Ġislands":11369,"structure":11370,"Ġpod":11371,"Ġatoms":11372,"ĠEag":11373,"Ġlosses":11374,"ĠStart":11375,"Queue":11376,"ĠDublin":11377,"uts":11378,"Ġspac":11379,"ĠBou":11380,"ativ":11381,"ĠFA":11382,"Ġschemes":11383,"Pe":11384,"Space":11385,"zone":11386,"impl":11387,"Flor":11388,"Channel":11389,"Ġcapable":11390,"ĠPed":11391,"Ġaccret":11392,"ĠUl":11393,"Ġchance":11394,"tsburgh":11395,"forcement":11396,"Ġfoundation":11397,"ĠSuppose":11398,"Ġfeedback":11399,"Ġsurg":11400,"jective":11401,"incorporated":11402,"conduct":11403,"UK":11404,"1896":11405,"Ġdeput":11406,"Ġapart":11407,"Ġmodeling":11408,"Xi":11409,"Gr":11410,"Ġ\\&":11411,"Ġroutes":11412,"Ġengines":11413,"ipher":11414,"Obj":11415,"Ġpolynomials":11416,"avi":11417,"aturday":11418,"selected":11419,"1897":11420,"Ġjson":11421,"Display":11422,"dale":11423,"icide":11424,"ĠOrchestra":11425,"ãĢ":11426,"Ġinvited":11427,"Ġbenefit":11428,"ĠJesus":11429,"Ġdefinitions":11430,"ĠAre":11431,"ĠFourier":11432,"Ġcorpor":11433,"acle":11434,"inch":11435,"ĠImperial":11436,"Ġviewed":11437,"ĠHiggs":11438,"WR":11439,"east":11440,"ĠControl":11441,"Ġconjug":11442,"Str":11443,"Ġceremony":11444,"URE":11445,"Ġsensitive":11446,"Ġadult":11447,"borough":11448,"Ġvo":11449,"Ġclosure":11450,"ĠHas":11451,"Ġkick":11452,"Ġprev":11453,"Ġvoted":11454,"ĠNet":11455,"Ġinclusion":11456,"aby":11457,"anal":11458,"home":11459,"ĠLiberal":11460,"acon":11461,"Ġinstanceof":11462,"ĠFern":11463,"ĠAbd":11464,"Ġremote":11465,"Ġmoves":11466,"Ġcontrols":11467,"Ġdry":11468,"apshot":11469,"ĠStr":11470,"Ġliquid":11471,"Ġinvasion":11472,"Ġovers":11473,"Ġexcell":11474,"^*(":11475,"ige":11476,"Ġresidual":11477,"Ġaccounts":11478,"Ġorientation":11479,"Send":11480,"ĠRub":11481,"ĠSimilarly":11482,"Ġtight":11483,"Ġmist":11484,"Ġdiameter":11485,"ĠBry":11486,"aire":11487,"upl":11488,"Ġpassenger":11489,"gressive":11490,"cules":11491,"ĠAle":11492,"admin":11493,"Classes":11494,"txt":11495,"Place":11496,"ĠReserve":11497,"Ġfitting":11498,"ĠKu":11499,"Ġaccompan":11500,"Ġuniverse":11501,"Ġpoll":11502,"rangian":11503,"ĠCow":11504,"Ġdrivers":11505,"ĠIndependent":11506,"Ġnick":11507,"ĠUser":11508,"Ġequipped":11509,"imore":11510,"ĠConsider":11511,"Ġsolving":11512,"ĠWalker":11513,"Ġorthogonal":11514,"Ġresigned":11515,"ĠVin":11516,"usal":11517,"ĠAdministration":11518,"ĠNam":11519,"abet":11520,"Timeout":11521,"gate":11522,"grade":11523,"ĠChen":11524,"ĠFace":11525,"Ġtall":11526,"ĠĠĠĠĠĠĊ":11527,"ĠHarvard":11528,"Ġpanels":11529,"Ġmoder":11530,"Italian":11531,"Japanese":11532,"Ġpolarization":11533,"iii":11534,"Ġlaid":11535,"Former":11536,"hab":11537,"ĠPap":11538,"Medal":11539,"Rober":11540,"ĠEdinburgh":11541,"Ġinjured":11542,"olid":11543,"Ġprefix":11544,"ĠDVD":11545,"Ġtropical":11546,"assertEquals":11547,"Ġmanuscript":11548,"ĠEvery":11549,"ECK":11550,"nik":11551,"orro":11552,"ĠIndonesia":11553,"Ġmus":11554,"area":11555,"Ġquadratic":11556,"ĠMrs":11557,"Ġprompt":11558,"enezuel":11559,"ĠFrederick":11560,"roc":11561,"orer":11562,"Ġanything":11563,"Ġlay":11564,"Ġproposal":11565,"heastern":11566,"Ġpun":11567,"Sn":11568,"Ġbacking":11569,"Ġdistances":11570,"PY":11571,"zing":11572,"ĠBowl":11573,"plays":11574,"NotNull":11575,"Ġtack":11576,"boldmath":11577,"ugar":11578,"Div":11579,"Est":11580,"Ġrating":11581,"San":11582,"Ã«":11583,"Ġdriven":11584,"Ġ$^{":11585,"Ġheard":11586,"Ġsupers":11587,"ĠHTML":11588,"ĠTun":11589,"will":11590,"Official":11591,"Ġframes":11592,"Ġanimated":11593,"ĠAlan":11594,"ĠImage":11595,"Ġcompete":11596,"email":11597,"ITY":11598,"ĠMean":11599,"Ġrecommend":11600,"wrap":11601,"isot":11602,"azines":11603,"blem":11604,"\\|_":11605,"Ġdeviation":11606,"Ġdisappe":11607,"Ġalgebraic":11608,"Ġeye":11609,"Ġpublisher":11610,"ĠSingh":11611,"|$":11612,"ĠGeV":11613,"Ġtypename":11614,"ĠFinland":11615,"ĠMaur":11616,"Ġbranches":11617,"ĠTar":11618,"ĠOperation":11619,"finite":11620,"Ġstead":11621,"Ġjunior":11622,"BP":11623,"issue":11624,"Ġconvolution":11625,"Ġboat":11626,")(\\":11627,"Ġdoor":11628,"Ġconventional":11629,"Railway":11630,")}.":11631,"Ġforming":11632,"ĠAustrian":11633,"Ġcyl":11634,"GBT":11635,"ĠHills":11636,"uber":11637,"Ġdegener":11638,"ĠOrth":11639,"Ġexpert":11640,"orf":11641,"ĠAny":11642,"oche":11643,"Ġ).":11644,"Ġelli":11645,"|^{":11646,"primary":11647,"Release":11648,"Ġrecordings":11649,"Ġgreatest":11650,"ĠSamuel":11651,"ĠLanguage":11652,"Ġlift":11653,"Ġwindows":11654,"Widget":11655,"Ġsale":11656,"Ġdiscovery":11657,"father":11658,"Villages":11659,"ĠStew":11660,"Ñĭ":11661,"Ġadvers":11662,"Ġcriteria":11663,"ÑĮ":11664,"Histor":11665,"Ġperhaps":11666,"Lock":11667,"ĠGa":11668,"Ġsell":11669,"bus":11670,"ĪĴ":11671,"din":11672,"oustic":11673,"ĠBlo":11674,"allas":11675,"ĠEarly":11676,"irds":11677,"Ġclock":11678,"rinsic":11679,"Ġformulation":11680,"->_":11681,"orses":11682,"FFFF":11683,"Ġcastle":11684,"represent":11685,"ĠCensus":11686,"nol":11687,"Î±":11688,"cmd":11689,"ĠLaure":11690,"*}[":11691,"ĠRic":11692,"Ġ{{":11693,"ĠRoberts":11694,"Ġinhabitants":11695,"ynamics":11696,"isting":11697,"Internal":11698,"Ġenhance":11699,"ĠFried":11700,"Editor":11701,"footer":11702,"ĠRol":11703,"ĠArkansas":11704,"Ġbatch":11705,"ĠToday":11706,"Ġprecise":11707,"larg":11708,"DT":11709,"inian":11710,"iri":11711,"uzz":11712,"Game":11713,"ĠKur":11714,"Ġhomes":11715,"orient":11716,"million":11717,"Ġcloser":11718,"David":11719,"wave":11720,"Ġconvention":11721,"ĠKa":11722,"ĠDonald":11723,"asa":11724,"Ġhits":11725,"Ġrevolution":11726,"Mich":11727,"Ġhired":11728,"Float":11729,"Ġ'/":11730,"Short":11731,"orus":11732,"Ġarrival":11733,"ODO":11734,"ĠBangladesh":11735,"named":11736,"Ġacid":11737,"Miss":11738,"~(\\":11739,"Ġinvestigated":11740,"owntown":11741,"annotation":11742,"Ġcollision":11743,"Ãł":11744,"owned":11745,"Ġinterests":11746,"Ġlocality":11747,"install":11748,"ĠBerg":11749,"intend":11750,"uki":11751,"ĠMatthe":11752,"Ġuncertainties":11753,"Ġscenarios":11754,"ĠHug":11755,"Ġenv":11756,"Ġexplore":11757,"Changed":11758,"Ġcompatible":11759,"duces":11760,"Ġsubjects":11761,"mean":11762,"Ġrequests":11763,"ĠLanc":11764,"ĠCulture":11765,"Ġban":11766,"Ġvalign":11767,"ĠTig":11768,"Ġmoments":11769,"Attributes":11770,"uparrow":11771,"Ġvolunte":11772,"Ġcontribute":11773,"ĠRang":11774,"Ġranges":11775,"Feature":11776,"oi":11777,"Ġagree":11778,"Ġtries":11779,"Ġqueue":11780,"}$\\":11781,"ĠMS":11782,"Ġfitted":11783,"Ġhur":11784,"Ġtel":11785,"ĠCommander":11786,"Extension":11787,"ĠAud":11788,"ĠHollywood":11789,"ĠHistorical":11790,"Ġmetall":11791,"Ġanth":11792,"Ġsuppose":11793,"ĠIndex":11794,"imits":11795,"Ġphoto":11796,"Ġelectro":11797,"Ġweighted":11798,"Ġexport":11799,"[$":11800,"Ġham":11801,"MF":11802,"Ġidentification":11803,"Ġprepared":11804,"Ġ\"/":11805,"merce":11806,"ĠGarden":11807,"single":11808,"Ġtwelve":11809,"leges":11810,"Ġrein":11811,"GP":11812,"multline":11813,"Ġboost":11814,"ĠFalse":11815,"Ġaccommod":11816,"Ġisolated":11817,"Ġengaged":11818,"ĠDefault":11819,"arithm":11820,"Ġsecretary":11821,"ĠGuide":11822,"ĠGirl":11823,"Ġtopic":11824,"Ġsystematic":11825,"ĠBuff":11826,"game":11827,"Ġbaseline":11828,"(!":11829,"ĠMiami":11830,"who":11831,"Ġsensitivity":11832,"ugment":11833,"patch":11834,"ĠHungarian":11835,"igious":11836,"Ġagency":11837,"ailand":11838,"ĠFarm":11839,"Ġstanding":11840,"////////////////////////////////":11841,"Ġderivatives":11842,"Ġbits":11843,"Ġcomic":11844,"Works":11845,"ders":11846,"TT":11847,"Ġelectrons":11848,"Func":11849,"Ġ\"\"":11850,"Ġhosts":11851,"$}}":11852,"Ġcref":11853,"Ġrapidly":11854,"ĉĉĉĊ":11855,"Ġconcrete":11856,"Ġdisorder":11857,"ĠTamil":11858,"UV":11859,"ĠMalaysia":11860,"ĠSE":11861,"ĠMayor":11862,"Ġpraised":11863,",âĢĿ":11864,"sep":11865,"Ġnearest":11866,"ĠRugby":11867,"Runtime":11868,"Ġpenalty":11869,"oves":11870,"Ġanimation":11871,"othe":11872,"Ġvalidation":11873,"Ġreward":11874,"Pattern":11875,"ĠNE":11876,"Ġexit":11877,"Ġexpectation":11878,"ishops":11879,"coin":11880,"addr":11881,"tenance":11882,"eting":11883,"ĠAS":11884,"player":11885,"OO":11886,"ĠNob":11887,"pto":11888,"ĠNar":11889,"Ġconstituency":11890,"Ġtemporal":11891,"Ġastron":11892,"events":11893,"Ġstrategies":11894,"ycl":11895,"Ġparam":11896,"Ġrelationships":11897,"Ġperspective":11898,"ĠCEO":11899,"fall":11900,"nm":11901,"Ġexped":11902,"ĠSN":11903,"ĠLINE":11904,"Ġintelligence":11905,"ĠLawrence":11906,"cycle":11907,"{(\\":11908,"ĠFall":11909,"Ġcommitted":11910,"Init":11911,"role":11912,"Ġmunicipal":11913,"Ġskills":11914,"Ġhomogeneous":11915,"Ġbutton":11916,"MAX":11917,"Ġparticipate":11918,"enian":11919,"lyph":11920,"1889":11921,"cerning":11922,"Ġtang":11923,"otional":11924,"Ġmir":11925,"Ġoccas":11926,"ĠBart":11927,"itals":11928,"oca":11929,"Ġtargets":11930,")\">":11931,"115":11932,"}/\\":11933,"Ġ\\|\\":11934,"Ġsatellite":11935,"Ġdelivered":11936,";<":11937,".*":11938,"Show":11939,"door":11940,"fony":11941,")_{\\":11942,"CN":11943,"1892":11944,"ĠLyn":11945,"$^{":11946,"mut":11947,"Ġpixel":11948,"ĠCR":11949,"Ġrestriction":11950,"ĠNatural":11951,"1894":11952,"Ġtransitions":11953,"ĠWard":11954,"ĠMPs":11955,"Ġcommunic":11956,"Ġbishop":11957,"Ġcollections":11958,"Production":11959,"Ġdomains":11960,"ĠCopy":11961,"Ġatomic":11962,"ĠPeters":11963,".$$":11964,"Ġleaf":11965,"Ġearliest":11966,"They":11967,"thread":11968,"Ġthing":11969,"metadata":11970,"Ġvalley":11971,"phal":11972,"Full":11973,"ĠTreat":11974,"1893":11975,"ĠMcK":11976,"textup":11977,"ĠProp":11978,"Ġexpos":11979,"Ġreads":11980,"umps":11981,"ections":11982,"ĠSeveral":11983,"Ġfly":11984,"Ġprofession":11985,"thick":11986,"Ġdecreases":11987,"ployment":11988,"Ġsecure":11989,"ĠTraining":11990,"emen":11991,"ĠDave":11992,"puted":11993,"Ġstraightforward":11994,"Ġaux":11995,"Ġdanger":11996,"refecture":11997,"rak":11998,"Bur":11999,"depth":12000,"[:":12001,"Begin":12002,"How":12003,"Ġdismiss":12004,"Job":12005,"Ġfan":12006,"Ġeverything":12007,"cam":12008,"olas":12009,"Ġsevere":12010,"Ġdecade":12011,"Ġexhibit":12012,"Organ":12013,"ruments":12014,"ĠRound":12015,"Ġinstruments":12016,"Ġinvalid":12017,"Ġbirds":12018,"ĠHungary":12019,"ĠIron":12020,"Perm":12021,"Ġshut":12022,"Ġinvestment":12023,"Ġsphere":12024,"ographics":12025,"Ġmining":12026,"Bit":12027,"typeof":12028,"ĠImm":12029,"Ġpresents":12030,"ĠSR":12031,"Ġrenew":12032,"Ġpersons":12033,"arity":12034,"ortion":12035,"1885":12036,"ĠUtah":12037,"sym":12038,"scroll":12039,"Russian":12040,"enter":12041,"JECT":12042,"mag":12043,"olph":12044,"ĠRailroad":12045,"omas":12046,"apolis":12047,"Sur":12048,"erving":12049,"Ġindependently":12050,"Ġsteam":12051,"eron":12052,"aten":12053,"Ġfavour":12054,"Ġremainder":12055,"ĠRot":12056,"ctic":12057,"ĠDefense":12058,"Ġcolspan":12059,"nest":12060,"Route":12061,"Ġhope":12062,"itudes":12063,"Dialog":12064,"Ġrequirement":12065,"Ġarchae":12066,"rable":12067,"ĠPalace":12068,"prising":12069,"Ġfib":12070,"Fran":12071,"ĠInvest":12072,"ditional":12073,"Ġconvers":12074,"ĠMC":12075,"rett":12076,"children":12077,"Ġcricketers":12078,"ĠProcess":12079,"Ġbuilder":12080,"textsf":12081,"ĠAfghan":12082,"ircles":12083,"Ġabsorption":12084,"casting":12085,"Ġunderstood":12086,"Ġcollapse":12087,"ĠOttoman":12088,"ĠBox":12089,"rend":12090,"ativity":12091,"cb":12092,"á»":12093,"anny":12094,"}.}":12095,"ĠRap":12096,"ĠNode":12097,"itional":12098,"Ġdialog":12099,"ĠDigital":12100,"ĠCommunist":12101,"atherine":12102,"Ġclassic":12103,"Ġarmed":12104,"112":12105,"105":12106,"ĠPear":12107,"Ġfalls":12108,"ĠVideo":12109,"Ġles":12110,"Ġaccused":12111,"ĠSaf":12112,"ĠAlban":12113,"fail":12114,"$'":12115,"Example":12116,"ĠAgency":12117,"uality":12118,"Ġstopped":12119,"uis":12120,"HR":12121,"Ġsignificance":12122,"Ġdiffusion":12123,"Ġbed":12124,"romagnetic":12125,"Ġlands":12126,"ĠHind":12127,"1860":12128,"140":12129,"illed":12130,"LR":12131,"Ġlegend":12132,"ĠAdvent":12133,"Ġmembership":12134,"=\\{":12135,"invariant":12136,"ea":12137,"ĠLib":12138,"ethe":12139,"Ġsimilarity":12140,"Ġchapter":12141,"Total":12142,"ĠDead":12143,"Ġvision":12144,"fol":12145,"series":12146,"ĠDeputy":12147,"OF":12148,"Ġreconstruct":12149,"ĠTrump":12150,"fr":12151,"TED":12152,"isode":12153,"ipped":12154,"FILE":12155,"loss":12156,")>":12157,"Ġtell":12158,"queue":12159,"ĠMedicine":12160,"ĠManu":12161,"Ġdies":12162,"ĠPrad":12163,"Ġcircular":12164,"Ġdescend":12165,"ĠTit":12166,"bach":12167,"ĠJun":12168,"stackrel":12169,"distance":12170,"ĠMontreal":12171,"material":12172,"Ġmort":12173,"hfill":12174,"bridge":12175,"Ġmal":12176,"Ġoccupation":12177,"ĠObl":12178,")}(\\":12179,"Ã³w":12180,"Ġtot":12181,"Ġgoods":12182,"rapy":12183,"Seg":12184,"Ġcarrying":12185,"ĠWelsh":12186,"ROM":12187,"Cam":12188,"ĠAtlanta":12189,"eget":12190,"Ġpremiered":12191,"ĠPad":12192,"Ġdim":12193,"ĠKon":12194,"Ġrequested":12195,"\\!\\":12196,"\")]":12197,"ĠDeath":12198,"ĠRyan":12199,"unicode":12200,"ĠAmazon":12201,"Ġdt":12202,"month":12203,"Ġ(_":12204,"avalry":12205,"ĠSI":12206,"Mer":12207,"Ġio":12208,"Ġoperates":12209,"STAT":12210,"islation":12211,"election":12212,"Elements":12213,"ĠMetro":12214,"Single":12215,"ĠJohann":12216,"binom":12217,"Selector":12218,"ĠNash":12219,"ĠAnna":12220,"Ġcrucial":12221,"iration":12222,"Political":12223,"Ġgenera":12224,"Ġwarm":12225,"Ġquot":12226,"Ġconnecting":12227,"1891":12228,"phan":12229,"Ġneither":12230,"Ġvolumes":12231,"Ġdivisions":12232,"mathtt":12233,"James":12234,"ĠLas":12235,"Ġprize":12236,"Generic":12237,"Ġpup":12238,"eo":12239,"ervoir":12240,"publ":12241,"ĠGon":12242,"aset":12243,"ĠLINEAR":12244,"March":12245,"verted":12246,"Ġmob":12247,"states":12248,"Rich":12249,"aneous":12250,"Ġextracted":12251,"}>":12252,"FIG":12253,"symbol":12254,"=\"/":12255,"ĠPeace":12256,"Ġrounds":12257,"Ġentang":12258,"flat":12259,"Ġdepicted":12260,"ĠAssoci":12261,"&=&\\":12262,"ĠScient":12263,"manif":12264,"Ġroads":12265,"ocracy":12266,"JSON":12267,"Items":12268,"schema":12269,"Ġsegments":12270,"KEY":12271,"Ġnortheast":12272,"ruption":12273,"Summary":12274,"lied":12275,"elian":12276,"Ġdial":12277,"Ġpurchase":12278,"Ġpercentage":12279,"through":12280,"keep":12281,"Ġregularly":12282,"Ġexperienced":12283,"=\"\">":12284,"ibl":12285,"Ġedited":12286,"hanced":12287,"Ġrevers":12288,"ĠBed":12289,"Ġ_{\\":12290,"Mount":12291,"Scott":12292,"Inv":12293,"ĠShah":12294,"apply":12295,"Ġtank":12296,"Ġminute":12297,"ĠKevin":12298,"pin":12299,"ĠUE":12300,"ARY":12301,"Ġreception":12302,"Ġdict":12303,"Ġdesigner":12304,"ĠOpera":12305,"Ġethnic":12306,"ilst":12307,"spin":12308,"Ġjobs":12309,"Ġrecovered":12310,"Ġarranged":12311,"have":12312,"Ġnaturally":12313,"ĠDomin":12314,"ĠAlice":12315,"Ġfragment":12316,"sample":12317,"Paul":12318,"Click":12319,"ĠVienna":12320,"ĠSS":12321,"bled":12322,"Ġbreed":12323,"Own":12324,"assertEqual":12325,"ĠDeep":12326,"Ġelementary":12327,"prec":12328,"isition":12329,"Ġassociate":12330,"ugoslav":12331,"ĠCorollary":12332,"Ġformul":12333,"ĠPi":12334,"Ġconditional":12335,"Ġlikelihood":12336,"Ġneutrino":12337,"Ġvot":12338,"Ġstructural":12339,"XT":12340,"bara":12341,"ĠChampion":12342,"ĠFight":12343,"Ġdensities":12344,"Ġdoll":12345,"Ġseventh":12346,"unities":12347,"ĠJosÃ©":12348,"Ġtransverse":12349,"problem":12350,"Files":12351,"ĠPublishing":12352,"Ġproducers":12353,"1888":12354,"esis":12355,"ĠDisney":12356,"Ġ[];":12357,"ĠRick":12358,"plugins":12359,"leased":12360,"Ġsimulated":12361,"ilk":12362,"leftarrow":12363,"ermi":12364,"inea":12365,"Ġray":12366,"leman":12367,"Stand":12368,"printf":12369,"Package":12370,"Len":12371,"113":12372,"Ġretained":12373,"Ġaccompl":12374,"Ġrandomly":12375,"functions":12376,"Ġfacilit":12377,"ĠPun":12378,"\"`":12379,"Ġ---":12380,"Term":12381,"vironments":12382,"isations":12383,"ÅĦ":12384,"Ġuniqu":12385,"Ġwaters":12386,"Ġgrounds":12387,"UID":12388,"ĠPsy":12389,"Ġstabil":12390,"leqslant":12391,"aste":12392,"hh":12393,"ĠDM":12394,"Logger":12395,"Ġpassengers":12396,"placement":12397,"GeV":12398,"ĠDefinition":12399,"iverpool":12400,"toggle":12401,"dig":12402,"Ġscholars":12403,"Ġchair":12404,"ĠCP":12405,"DEBUG":12406,"bassador":12407,"Ġterror":12408,"Ġsed":12409,"ĠSocorro":12410,"ĠCatal":12411,"ĠLear":12412,"ĠCA":12413,"Ġschedule":12414,"Ham":12415,"$/":12416,"ried":12417,"insula":12418,"Ġresearchers":12419,"TF":12420,"Ã©n":12421,"Ġstyles":12422,"Ġunus":12423,"etry":12424,"ĠBoys":12425,"'ve":12426,"flags":12427,"ĠFal":12428,"ificial":12429,"iche":12430,"Keys":12431,"ONE":12432,"requency":12433,"Ġstronger":12434,"SQL":12435,"ĠNewton":12436,"Ġphilosophy":12437,"Ġirreducible":12438,"uning":12439,"Ġfired":12440,"SIZE":12441,"Fore":12442,"Ġagricultural":12443,"August":12444,"Ġresidence":12445,"ĠBlock":12446,"Ġcancel":12447,"specific":12448,"Ġcenters":12449,"Ġpreserved":12450,"Ġmanip":12451,"password":12452,"Ġmarine":12453,"ĠMetropolitan":12454,"Ġnotably":12455,"'d":12456,"ĠMes":12457,"throws":12458,"ducer":12459,"Ġsubstantial":12460,"$\\\\":12461,"Ġvirt":12462,"ĠRace":12463,"bd":12464,"Ġplatforms":12465,"ĠjQuery":12466,"Ġreaches":12467,"(@":12468,"shaped":12469,"Ġbinding":12470,"Ġimplements":12471,"ĠWorks":12472,"Ġflying":12473,"Ġpainters":12474,"Ġgrade":12475,"Ġseek":12476,"pository":12477,"oba":12478,"ĠCurrent":12479,"Ġdistinguish":12480,"Ġranking":12481,"ĠProt":12482,"ĠAlfred":12483,"aman":12484,"marks":12485,"ĠMountains":12486,"illo":12487,"ĠRomania":12488,"tool":12489,"Ġaccompanied":12490,"typed":12491,"Ġhtml":12492,"ĠRio":12493,"Ġaccum":12494,"leyball":12495,"Ġ\\[":12496,"ĠMission":12497,"Flags":12498,"mingham":12499,"ĠConfig":12500,"ĠKarl":12501,"Ġsubspace":12502,"sun":12503,"1865":12504,"ĠSeattle":12505,"Ġcontinuum":12506,"ĠChamber":12507,"Ġopinion":12508,"ĠThailand":12509,"]^":12510,"oka":12511,"Ġkeeping":12512,"Ġcounterpart":12513,"Ġpron":12514,"Ġmechanical":12515,"Transaction":12516,"Ġinvent":12517,"Ġfn":12518,"oving":12519,"Ġlib":12520,"stances":12521,"Ġbusinesses":12522,"Proxy":12523,"tensor":12524,"Ġrunner":12525,"orrow":12526,"Account":12527,"iemann":12528,"Tube":12529,"ĠCS":12530,"Ġchallenges":12531,"contains":12532,"Ġwithd":12533,"Ġtemporary":12534,"erbai":12535,"Ġpartnership":12536,"Ġau":12537,"ĠDNA":12538,"()).":12539,"Ġepoch":12540,"ĠKnight":12541,"Ġpars":12542,"Ġthank":12543,"Ġgraduate":12544,"anging":12545,"Ġinfrastructure":12546,"gow":12547,"Ġ}}":12548,"gray":12549,"hai":12550,"Ġflags":12551,"Ġshooting":12552,"Ġbelonging":12553,"ĠDie":12554,"ĠBetween":12555,"Ġregression":12556,"cluster":12557,"ishment":12558,";/":12559,"Ġinterpol":12560,"Ġanalytic":12561,"Ġng":12562,"Ġphotograph":12563,"Ġcrisis":12564,"Ġamb":12565,"Ġloaded":12566,"tage":12567,"Ã¨re":12568,")&":12569,"ĠHampshire":12570,"ĠCleveland":12571,"ĠExp":12572,"gather":12573,"ugs":12574,"ÈĻ":12575,"Ġsmallest":12576,"Ġcomposers":12577,"ĠMarie":12578,")));":12579,"fixed":12580,"Ġuniversities":12581,"114":12582,"Memory":12583,"Engine":12584,"Ġawait":12585,"$^":12586,"Ġblow":12587,"Ġrestored":12588,"ĠMorgan":12589,"edding":12590,"LOG":12591,"cia":12592,"ĠNic":12593,"ĠTag":12594,"Ġscientists":12595,"Ġcolonial":12596,"ĠFull":12597,"Ġpriest":12598,"lia":12599,"Ġpuls":12600,"ĠAdams":12601,"ĠBull":12602,"simple":12603,"Ġdefining":12604,"\\},":12605,"dp":12606,"ĠDance":12607,"Ġwrest":12608,"Ġjavax":12609,"Ġresign":12610,"ĠChairman":12611,"Ġchoices":12612,"orous":12613,"Ġquas":12614,"lg":12615,"ĠRussell":12616,"onian":12617,"Ġhalo":12618,"ĠMargaret":12619,"Ins":12620,"ĠContin":12621,"uon":12622,"ĠOri":12623,"mel":12624,"entials":12625,"Ġsurvived":12626,"Ġri":12627,"article":12628,"Ġresid":12629,"osed":12630,"ĠDean":12631,"1887":12632,"hoen":12633,"Ġbenefits":12634,"oviÄĩ":12635,"Ġsinging":12636,"tha":12637,"help":12638,"Ġpatient":12639,"ĠKelly":12640,"Ġster":12641,"ibilities":12642,"Ġrailroad":12643,"ÐµÐ½":12644,"()));":12645,"islature":12646,"ĠHilbert":12647,"Air":12648,"UL":12649,",...,":12650,"ĠMcG":12651,"Proposition":12652,"ĠTak":12653,"nia":12654,"mac":12655,"Ġfranchise":12656,"Ġlogic":12657,"}[!":12658,"kens":12659,"Activity":12660,"Ġsupposed":12661,"ÑģÑĤ":12662,"bone":12663,"ĠVik":12664,"ĠSac":12665,"ĠCrown":12666,"identifier":12667,"Ġacknowled":12668,"Ġcompens":12669,"ĠĠĠĠĠĠĠĠĠĠĠĠĠĠĠĠĠĠĠĠĠĠĠĠĠĠĠĠĠ":12670,"uh":12671,"ĠKings":12672,"Ġownership":12673,"mask":12674,"Cur":12675,"Å¾":12676,"Ġvic":12677,"ĠGR":12678,"Ġposterior":12679,"Ġmedicine":12680,"Layer":12681,"ĠPC":12682,"sumer":12683,"scriptscriptstyle":12684,"Ġthousands":12685,"ĠNi":12686,"tools":12687,"EP":12688,"configuration":12689,"aders":12690,"Database":12691,"move":12692,"Ġcourses":12693,"hibition":12694,"Ġtunnel":12695,"Kn":12696,"Ġinference":12697,"Ġsolved":12698,"midrule":12699,"Close":12700,"Ġstatements":12701,"ĠMagn":12702,"ĠGirls":12703,"prison":12704,"Ġ\\{\\":12705,"}^{+":12706,"ounced":12707,"front":12708,"bow":12709,"Fail":12710,"Ġalgebras":12711,"inher":12712,"utative":12713,"Ġembedded":12714,"Ġmilit":12715,"governor":12716,"Ġdamaged":12717,"ĠNeb":12718,"Ġswe":12719,"$-$":12720,"ĠAlliance":12721,"Ġlatest":12722,"ibraries":12723,"Ġmig":12724,"ĠMaine":12725,"iper":12726,"ĠABC":12727,"Ġcomparable":12728,"]:":12729,"miral":12730,"ĠVolume":12731,"ogy":12732,"indu":12733,"Ġtransformations":12734,"ĠĠĠĠĠĠĠĠĠĠĠĠĠĠĠĠĠĠĠĠĠĠĠĠĠĠ":12735,"Ġcrown":12736,"nil":12737,"Ġhuge":12738,"Ġnorthwest":12739,"CTION":12740,"Ġmeters":12741,"eva":12742,"Ġpotentially":12743,"Ġwa":12744,"some":12745,"Ġmit":12746,"ĠEdition":12747,"ĠConstant":12748,"arus":12749,"Mag":12750,"ĠLower":12751,"nowledge":12752,"ï¼":12753,"density":12754,"ĠKennedy":12755,"ĠKl":12756,"Later":12757,"Ġassault":12758,"ĠRural":12759,"imir":12760,"conc":12761,"tableblock":12762,"Ġproposition":12763,"Ġpractices":12764,"'ll":12765,"Prior":12766,"ĠRoger":12767,"1886":12768,"ultan":12769,"expect":12770,"Ġconfirm":12771,"rupted":12772,"clide":12773,"ctrine":12774,"Iterator":12775,"Ġexplanation":12776,"Ġassistance":12777,"orton":12778,"111":12779,"Ġpointed":12780,"away":12781,"ranean":12782,"ĠMol":12783,"Ġattributed":12784,"Ġinduction":12785,"Ġ~\\":12786,"umar":12787,"ĠPittsburgh":12788,"Ġcited":12789,"ĠAP":12790,"Ġrecommended":12791,"ĠThompson":12792,"bigcup":12793,"iop":12794,"Global":12795,"ĠMong":12796,"Ġcler":12797,"Ġrain":12798,"ĠBruce":12799,"bishop":12800,"Ġconsiderable":12801,"Ġretriev":12802,"save":12803,"ĠComics":12804,"Parse":12805,"chy":12806,"ĠRud":12807,"Ġdiscontin":12808,"Ġdispersion":12809,"ĠTHE":12810,"Ġincreasingly":12811,"Ġdb":12812,"ĠCooper":12813,"ĠUpper":12814,"OC":12815,"Ġpreferred":12816,"ceptions":12817,"Annot":12818,"grav":12819,"complex":12820,".__":12821,"Ġathletes":12822,"ĠDakota":12823,"ĠFive":12824,"Ġapplies":12825,"inners":12826,"Ġneighb":12827,"Sequ":12828,"Ġdefensive":12829,"ĠRan":12830,"Ġcaught":12831,"ĠHorn":12832,"Ġdepos":12833,"egas":12834,"Ġmine":12835,"ĠEver":12836,"sys":12837,"Ġcorrelations":12838,"Ġduty":12839,"ĠCare":12840,"ĠNep":12841,"ĠHell":12842,"ĠStewart":12843,"117":12844,"Ġcredit":12845,"Ġpopularity":12846,"stats":12847,"ĠLithuan":12848,"pattern":12849,"edit":12850,"Ġdeputy":12851,"\\}.":12852,"Ġkid":12853,"Ġjunction":12854,"Ġhun":12855,"Ġreverse":12856,"iterator":12857,"Ġcaref":12858,"ĠLP":12859,"Ġproperly":12860,"Ġmechanisms":12861,"coll":12862,"Ġspecify":12863,"Afric":12864,"Ġjourney":12865,"})^{":12866,"Real":12867,"Ġtriangle":12868,"components":12869,"amps":12870,"ĠGran":12871,"ĠVenezuel":12872,"liminary":12873,"Ġgran":12874,"Ġhardware":12875,"ĠCarn":12876,"Region":12877,"ĠAgric":12878,"security":12879,"ĠUlt":12880,"Ġadmitted":12881,"ĠUV":12882,"Ġlabeled":12883,"ĠUpdate":12884,"Multi":12885,"eros":12886,"Ġnavigation":12887,"Ġrobot":12888,"Ġregiment":12889,"overset":12890,"Socket":12891,"listed":12892,"ĠBrothers":12893,"ovo":12894,"Bigg":12895,"rehen":12896,"Ġsigns":12897,"ĠArn":12898,"yy":12899,"1864":12900,"ĠTR":12901,"Ġdestination":12902,"Ġfunc":12903,"360":12904,"Ġcav":12905,"volume":12906,"ĠReport":12907,"Ð¾Ð²":12908,"Auto":12909,"central":12910,"wp":12911,"spirit":12912,"Ġanniversary":12913,"verage":12914,"Double":12915,"Ġmeta":12916,"ĠBeat":12917,"manager":12918,"evens":12919,"tmp":12920,"ĠCNN":12921,"editor":12922,"Ġcod":12923,"dated":12924,"jet":12925,"Ġjustice":12926,"Ġwat":12927,"TL":12928,"Auth":12929,"Ġinterpreted":12930,"Ġintegers":12931,"Ġconcerned":12932,"Ġdog":12933,"Observ":12934,"ĠAM":12935,"Ġdistinguished":12936,"ĠJu":12937,"propto":12938,"Ġreceiver":12939,"ICE":12940,"Ke":12941,"102":12942,"Ġaugment":12943,"Register":12944,"Ġbid":12945,"Ġlaser":12946,"Ġbiggest":12947,"ĠColonel":12948,"&&\\":12949,"HD":12950,"Ġintervals":12951,"Ġpublishing":12952,"{.":12953,"ted":12954,"uable":12955,"rb":12956,"Ġreducing":12957,"Ġtrajectory":12958,"Pack":12959,"ĠCass":12960,"Ġimplicit":12961,"Ġphone":12962,"umbent":12963,"Ġguide":12964,"iline":12965,"Ġaveraged":12966,"ĠOd":12967,"oro":12968,"Ġrecovery":12969,"Msg":12970,"Ġpermission":12971,"Ġvictims":12972,"inist":12973,"Ġhorizon":12974,"Conf":12975,"wright":12976,"dropdown":12977,"Ġapplicable":12978,"ĠZe":12979,"Ġmyth":12980,"Ġwheel":12981,"Ġresponsibility":12982,"rolling":12983,"clidean":12984,"ĠArena":12985,"Ġsynd":12986,"overty":12987,"Ġboys":12988,"Î¿":12989,"ĠMaj":12990,"ĠGets":12991,"asts":12992,"Ġseparately":12993,"Ġhill":12994,"Ġlegislation":12995,"Ġdip":12996,"104":12997,"âĢ¦":12998,"Ġvenues":12999,"ĠOrthodox":13000,"++;":13001,"Ġdrawing":13002,"ĠSaturday":13003,"Ġgather":13004,"Ġanalys":13005,"ĠNeg":13006,"ĠChart":13007,"ĠTol":13008,"ĠYang":13009,"aptist":13010,"Ġgreatly":13011,"ĠRight":13012,"Cref":13013,"ĠGulf":13014,"varrho":13015,"Ġexerc":13016,"ĠChem":13017,"ĠGray":13018,"arma":13019,"rf":13020,"Ġslope":13021,"Ġdebuted":13022,"Ġratios":13023,"ĠBaltimore":13024,"ĠHend":13025,"ĠPrincess":13026,"Ġcriticized":13027,"VERSION":13028,"Ġgrows":13029,"ĠMond":13030,"Ġsnow":13031,"Ġheads":13032,"ĠVAL":13033,"ĠGlas":13034,"pay":13035,"Arm":13036,")}$.":13037,"engine":13038,"ĠNord":13039,"Ġresidential":13040,"irates":13041,"Ġdiscussions":13042,"Ġveter":13043,"Profile":13044,"moment":13045,"Ġentering":13046,"çļ":13047,"Ġracial":13048,"Ġeliminated":13049,"terior":13050,"etary":13051,"1884":13052,"Ġrooms":13053,"ĠTs":13054,"valued":13055,"Ġfiber":13056,"Ġpointer":13057,"ĠLagrangian":13058,"Ġstationary":13059,"heric":13060,"Ġrout":13061,"ository":13062,"ĠOblast":13063,"lee":13064,"rob":13065,"Ġdir":13066,"IB":13067,"Ġreasonable":13068,"Cred":13069,"Plugin":13070,"Grid":13071,"Pal":13072,"Ġhelps":13073,"Ġbringing":13074,"kee":13075,"account":13076,"1850":13077,"1861":13078,"ĠAustin":13079,"pping":13080,"ĠKan":13081,"Ġunitary":13082,"apsed":13083,"iere":13084,"seq":13085,"inae":13086,"leans":13087,"ĠDub":13088,"EV":13089,"Ġip":13090,"design":13091,"EEE":13092,"umed":13093,"ynchron":13094,"Ġjudges":13095,"Ġterminal":13096,"Green":13097,"}{{\\":13098,"Ġperforms":13099,"ĠMadrid":13100,"ĠSeason":13101,"Ġsud":13102,"ĠCit":13103,"SY":13104,"ĠSoftware":13105,"ÑĢÐ°":13106,"Ġsuccessor":13107,"Ġthanks":13108,"trivial":13109,"Ġsimplicity":13110,"Ġfeas":13111,"Ġkilomet":13112,"hal":13113,"boost":13114,"assets":13115,"handler":13116,"9999":13117,"Ġna":13118,"ĠThough":13119,"counter":13120,"Ġcomparing":13121,"ĠÐ¿":13122,"Ġestimator":13123,"lean":13124,"osc":13125,"Ð·":13126,"jamin":13127,"Ġhal":13128,"nan":13129,"alph":13130,"ĠCampbell":13131,"Ãª":13132,"(){":13133,"oes":13134,"Ġru":13135,"rep":13136,"ĠNelson":13137,"ĠOption":13138,"try":13139,"Ġmathematical":13140,"Ġselling":13141,"Ġmovements":13142,"Category":13143,"Super":13144,"Ġanalyze":13145,"fd":13146,"ducational":13147,"separ":13148,"pu":13149,"ĠAuthority":13150,"operator":13151,"Ġempirical":13152,"Ġordinary":13153,"rov":13154,"ĠSenator":13155,"iah":13156,"ĠChristopher":13157,"_{+":13158,"ĠLiverpool":13159,"anion":13160,"ĠExample":13161,"Ġconverges":13162,"ĠRobinson":13163,"ouver":13164,"Ġtownship":13165,"Ġresonance":13166,"Ġfinals":13167,"Ġpseudo":13168,"Ġpixels":13169,"overning":13170,"ifle":13171,"ĠGill":13172,"Ġpole":13173,"ĠIOException":13174,"ĠHash":13175,"gments":13176,"ĠMunicipality":13177,"ĠLanka":13178,"Ġmo":13179,"June":13180,"!\"":13181,"TABLE":13182,"Ġactivist":13183,"ativistic":13184,"igate":13185,"Ġadmin":13186,"iac":13187,"ĠPolicy":13188,"1881":13189,"ĠAthletics":13190,"Ġnar":13191,"about":13192,"?\"":13193,"ĠUpon":13194,"pend":13195,"ĠLane":13196,"ishments":13197,"ĠYears":13198,"Ġrecurs":13199,"Ġresolve":13200,"ĠSmall":13201,"ĠWon":13202,"Ġappend":13203,"Ġconservative":13204,"learning":13205,"sea":13206,"period":13207,"Ġaccretion":13208,"Ġgenerators":13209,"}{*}{":13210,"Ġknock":13211,"asm":13212,"Ġdiagrams":13213,"ĠMorris":13214,"ĠCrit":13215,"ĉčĊ":13216,"Ġ{$\\":13217,"than":13218,"Ġatom":13219,"Demographics":13220,"olia":13221,"ymphony":13222,"Ġsuit":13223,"ĠDocument":13224,"Ġskin":13225,"SN":13226,"icht":13227,"\\}_{":13228,"Ġpitch":13229,"onymous":13230,"ĠEquation":13231,"PH":13232,"Ġstarred":13233,"Adapter":13234,"ĠPack":13235,"ĠFranklin":13236,"Ġimply":13237,"Ġfold":13238,"Ġremember":13239,"Ġshares":13240,"ĠBud":13241,"aze":13242,"Ġinstruct":13243,"Ġoffering":13244,"Ġfails":13245,"ĠBernard":13246,"unately":13247,"ĠMarshall":13248,"Ġintent":13249,"Ġextensions":13250,"marine":13251,"Ġdecreasing":13252,"opal":13253,"April":13254,"NULL":13255,"ĠWright":13256,"fish":13257,"citealt":13258,"Ġutility":13259,"Ġsym":13260,"ĠAthletic":13261,"Alumni":13262,"gi":13263,"outer":13264,"Enum":13265,"Headers":13266,"Ġimprison":13267,"ĠEdd":13268,"Ġswit":13269,"uct":13270,"Ġhappens":13271,"generated":13272,"Ġcompetitive":13273,"ĠWebsite":13274,"Ġexperiences":13275,"Ġstreets":13276,"ĠBush":13277,"Collections":13278,"Constraint":13279,"Ġrefuge":13280,"hidden":13281,"subequations":13282,"Ġspeaking":13283,"ignment":13284,"Season":13285,"ĠBrooklyn":13286,"Ġoffensive":13287,"arial":13288,"1882":13289,"Ġcredited":13290,"Ġmile":13291,"ĠCarlo":13292,"ntil":13293,"ĠCarter":13294,"Ġwhenever":13295,"ĠBasketball":13296,"Ġbrig":13297,"smallskip":13298,"Ġtypeof":13299,"Ġhappen":13300,"np":13301,"Ġnaval":13302,"ĠNad":13303,"Mart":13304,"uilt":13305,"ĠTrade":13306,"Ġbars":13307,"orted":13308,"]=":13309,"Trace":13310,"Ġdefeating":13311,"çļĦ":13312,"Expr":13313,"Ġteen":13314,"Ġconcepts":13315,"hill":13316,"Ġdating":13317,"Ġmouth":13318,"/.":13319,"ĠLeban":13320,"standard":13321,"keyword":13322,"half":13323,"deep":13324,"ĠCer":13325,"ĠRico":13326,"controller":13327,"Profess":13328,"Ġsouthwest":13329,"git":13330,"iterranean":13331,"lapse":13332,"ĠPatri":13333,"Ġcourts":13334,"ĠStanley":13335,"Ġrivers":13336,"izers":13337,"Ġcomplicated":13338,"1862":13339,"ĠSport":13340,"Ġtied":13341,"Ġbanks":13342,"inistic":13343,"\\[\\":13344,"Print":13345,"Town":13346,"ĠBomb":13347,"Matrix":13348,"ĠPA":13349,"perimental":13350,"rove":13351,"George":13352,"Ġunsuccess":13353,"Free":13354,"mund":13355,"ĠĠĠĠĠĠĠĠĠĠĠĠĠĠĠĠĠĠĠĠĠĠĠĠĠĠĠĠ":13356,"Ġrestaurant":13357,"Bound":13358,"Ġmerger":13359,"![":13360,"Cert":13361,"Overview":13362,"bytes":13363,"ĠCarib":13364,"Ġcomplement":13365,"ĠDaily":13366,"ials":13367,"ĠFIFA":13368,"1863":13369,"Ġassignment":13370,"ĠReform":13371,"ivan":13372,"&#":13373,"vanced":13374,"Univers":13375,"Ġasync":13376,"ĠSchools":13377,"Ġplasma":13378,"trim":13379,"profit":13380,"Directory":13381,"Ġbases":13382,"Ġsoutheast":13383,"Ġmanufacturing":13384,"Ġgang":13385,"Ġheaded":13386,"October":13387,"switch":13388,"tar":13389,"Spanish":13390,"Edit":13391,"ensively":13392,"Robert":13393,"agger":13394,".:":13395,"eenth":13396,"panic":13397,"Ġeyes":13398,"ĠFood":13399,"notin":13400,"}^+":13401,"ĠBorn":13402,"Ġangles":13403,"Ġreveals":13404,"Ġbusinessman":13405,"Ġcompeting":13406,"fiction":13407,"ĠMovement":13408,"rapped":13409,"Player":13410,"Ġcriticism":13411,"Rob":13412,"Ġpainted":13413,"103":13414,"ĠConvention":13415,"ĠPrior":13416,"Ġholes":13417,"Ġfiled":13418,"ifdef":13419,"Ġprisoners":13420,"oga":13421,"'])":13422,"Ġtriple":13423,"resize":13424,"Ġcontents":13425,"ĠTournament":13426,"Ġstood":13427,"Recip":13428,"Ġcous":13429,"newline":13430,"writers":13431,"NT":13432,"ĠYan":13433,"Comment":13434,"may":13435,"September":13436,"ĠFuture":13437,"ĠMurray":13438,"abi":13439,"July":13440,"Moths":13441,"mate":13442,"ĠMake":13443,"Ġwounded":13444,"Ġeigenvalue":13445,"anti":13446,"Ġdiagn":13447,"Ġlogarithm":13448,"ĠStage":13449,"ellect":13450,"Ġtranslate":13451,"Fin":13452,"ĠBirmingham":13453,"Ġtables":13454,"expr":13455,"Ben":13456,"Ġreq":13457,"particle":13458,"prefix":13459,"ĠKit":13460,"ĠWoman":13461,"icking":13462,"three":13463,"Ġpipeline":13464,"Ġenvironments":13465,"ĠPrefecture":13466,"scious":13467,"ĠOrleans":13468,"Syntax":13469,"Ñĩ":13470,"FE":13471,"(__":13472,"Week":13473,"Ġprovincial":13474,"Panel":13475,"ste":13476,"Ġgrass":13477,"Old":13478,"ĠPut":13479,"Ġjournalists":13480,"sortValue":13481,"Ġcomed":13482,"Ġlandscape":13483,"story":13484,"Ġsemantic":13485,"Product":13486,"116":13487,"ĠDallas":13488,"Ġtrunc":13489,"Ġsending":13490,"ĠEmer":13491,"rint":13492,"both":13493,"isen":13494,"ĠBelgian":13495,"Ġcomprehen":13496,"ĠSarah":13497,"ĠRefer":13498,"ĠSite":13499,"\",\"":13500,"ĠEconomic":13501,"Mass":13502,"Ġheter":13503,"Ġrap":13504,"$\\,":13505,"athered":13506,"getName":13507,"ĠSax":13508,"ĠDefence":13509,"harm":13510,"iday":13511,")}$,":13512,"riday":13513,"Ġconcerning":13514,"nodes":13515,"ĠSupport":13516,"Ġfest":13517,"ĠCathedral":13518,"Bi":13519,"Ġ\\}":13520,"Albums":13521,"textnormal":13522,"Ġsaved":13523,"ulu":13524,"riel":13525,"Ali":13526,"Ġdecisions":13527,"____":13528,"ĠCapital":13529,"trigger":13530,"ĠØ":13531,"approxim":13532,"lb":13533,"Donald":13534,"Ġcentered":13535,"Loader":13536,"eras":13537,"plates":13538,"vertex":13539,"ĠOk":13540,"ĠCarlos":13541,"Ġfruit":13542,"UTF":13543,"Ġglob":13544,"Ġmemorial":13545,"Recall":13546,"alymp":13547,"Ġwrites":13548,"sequence":13549,"Ġmeets":13550,"Ġinstruction":13551,"ĠGraham":13552,"blockList":13553,"Abstract":13554,"hus":13555,"Nodes":13556,"osopher":13557,"rift":13558,"Ġphotons":13559,"ĠMack":13560,"Ġiterations":13561,"ĠVari":13562,"Ġmarkets":13563,"Cluster":13564,"omp":13565,"ĠGuy":13566,"ĠCentury":13567,"READ":13568,"ĠRy":13569,"Ġweekly":13570,"Ġsplitting":13571,"Br":13572,"Ġdifficulty":13573,"Ġreleg":13574,"Also":13575,"Inf":13576,"video":13577,"hook":13578,"Ġwish":13579,"$&":13580,"upper":13581,"127":13582,"Ġworst":13583,"webpack":13584,"Ġtheater":13585,"Ġchallenging":13586,"League":13587,"triangle":13588,"cz":13589,"annon":13590,"Ġå":13591,"Ġcorrespondence":13592,"ĠOrganization":13593,"Ġrealized":13594,"enable":13595,"Dest":13596,"ĠMars":13597,"Ġĉ":13598,"1878":13599,"ĠApple":13600,"Station":13601,"ĠHum":13602,"})=\\":13603,"tery":13604,"Ġpeaked":13605,"estone":13606,"Ġupdates":13607,"defn":13608,"Ġask":13609,"Ġagencies":13610,"Ġordering":13611,"Ġsees":13612,"Author":13613,"SV":13614,"later":13615,"Ġspherical":13616,"Ġorganisation":13617,"Ġcards":13618,"otan":13619,"ĠMarkov":13620,"ĠWing":13621,"ĠJe":13622,"ido":13623,"Ġcircles":13624,"Ġmorphism":13625,"Ġsight":13626,"Db":13627,"four":13628,"etition":13629,"onomous":13630,"below":13631,"Ã¦":13632,"XML":13633,"hum":13634,"ĠWrestling":13635,"Ġsharp":13636,"aba":13637,"fare":13638,"Ġexposure":13639,"ĠSystems":13640,"ĠNazi":13641,"ĠHit":13642,"Ġcorrectly":13643,"nolimits":13644,"ailability":13645,"audi":13646,"kar":13647,"Ġsharing":13648,"ĠLud":13649,"Ġduties":13650,"December":13651,"Ġheritage":13652,"Ġamounts":13653,"GO":13654,"Ġvoting":13655,"Bigl":13656,"ĠAthe":13657,"osph":13658,"Personnel":13659,"holm":13660,"endment":13661,"ĠCricket":13662,"Ġmental":13663,"Namespace":13664,"akia":13665,"ĠResource":13666,"Ġworker":13667,"isp":13668,"bounds":13669,"dings":13670,"Az":13671,"ivia":13672,"ĠAGN":13673,"ĠYorkshire":13674,"sig":13675,"ĠYouTube":13676,"European":13677,"Ġful":13678,"Sal":13679,"Nor":13680,"itime":13681,"Ġhabitat":13682,"Day":13683,"ĠChallenge":13684,"ĠTerm":13685,"Ġprivacy":13686,"Ġcoastal":13687,"Ġhappened":13688,"Ġlanding":13689,"viously":13690,"ĠAqu":13691,"ĠPerson":13692,"ĠLock":13693,"1883":13694,"Ġdiverse":13695,"ĠZone":13696,"Ġfunctor":13697,"Eff":13698,"ApJ":13699,"ĠPrim":13700,"Ġpropagation":13701,"agnostic":13702,"Ġctx":13703,"stage":13704,"ixel":13705,"mill":13706,"PATH":13707,"Ġwel":13708,"Medalists":13709,"Hol":13710,"3333":13711,"Ġrg":13712,"neur":13713,"ĠPhot":13714,"OB":13715,"Ġdisabled":13716,"maker":13717,"Furthermore":13718,"Ġbrick":13719,"|_":13720,"Scale":13721,"Ġdivor":13722,"Ġnormally":13723,"^+$":13724,"hour":13725,"lined":13726,"Ġwallet":13727,"Ġelectoral":13728,"agram":13729,"Ġteachers":13730,"emale":13731,"Ġdeleg":13732,"Ġgeneralization":13733,"ĠMotor":13734,"Ġqualifying":13735,"ĠWang":13736,"Ġemergency":13737,"Ġhydrogen":13738,"'=":13739,"Ġcreates":13740,"dk":13741,"ĠAzerbai":13742,"udson":13743,"ĠĠĠĠĠĠĠĠĠĠĠĠĠĠĠĠĠĠĠĠĠĠĠĠĠĠĠĠĠĠĠĠĠĠĠĠĠĠĠĠĠĠĠ":13744,"Ġcounts":13745,"Ġoperational":13746,"tre":13747,"vance":13748,"Ġplots":13749,"ulner":13750,"ĠEvans":13751,"Ġprinciples":13752,"Volume":13753,"ĠLimited":13754,"Ġjuris":13755,"Ġsumm":13756,"ĠBaker":13757,"ĠRain":13758,"emor":13759,"Ġresolved":13760,"Ġvessels":13761,"Ġoutcome":13762,"Ġguitarist":13763,"ĠPictures":13764,"uka":13765,"Home":13766,"ĠSerbia":13767,"opsis":13768,"ĠElementary":13769,"rez":13770,"Condition":13771,"Pan":13772,"Ġinterference":13773,"care":13774,"ifting":13775,"Ġrestrictions":13776,"autore":13777,"umin":13778,"Ġdebate":13779,"ĠTODO":13780,"Ġattorney":13781,"Ġcommune":13782,"}},\\":13783,"Construct":13784,"Ġlit":13785,"Ġnewspapers":13786,"Through":13787,"ĠFinnish":13788,"1875":13789,"SER":13790,"War":13791,"Ġsigning":13792,"ĠNigeria":13793,"ĠPradesh":13794,"Ġtopics":13795,"ĠTrophy":13796,"Ġox":13797,"Ġvacc":13798,"Ġcouplings":13799,"Liter":13800,"ughters":13801,"January":13802,"Ġcontradiction":13803,"ĠEston":13804,"HM":13805,"oming":13806,"Ġwants":13807,"Ġrecru":13808,"ĠTrad":13809,"Ġturbul":13810,"Mill":13811,"'));":13812,"aku":13813,"Ġfits":13814,"Ġgarden":13815,"Ġinherited":13816,"arnings":13817,"Ġfictional":13818,"Ġpublicly":13819,"1876":13820,"WAR":13821,"independent":13822,"ceptor":13823,"Ġsleep":13824,"Ġveget":13825,"Ġsparse":13826,"Ġanchor":13827,"Ġneutron":13828,"ĠHawaii":13829,"Land":13830,"Ġpoem":13831,"ĠBroadway":13832,"Mapping":13833,"Ġ[[":13834,"Ġfaces":13835,"cussion":13836,"Ġtransformed":13837,"Ġ],":13838,"ĠJimmy":13839,"ĠConservative":13840,"ĠBilly":13841,"Ġisomorphic":13842,"ĠShip":13843,"Ma":13844,"ĠConfeder":13845,"eyer":13846,"ĠResults":13847,"comes":13848,"ancouver":13849,"vv":13850,"Ġmm":13851,"Ġmetadata":13852,"substack":13853,"hattan":13854,"ÃŁ":13855,"Ġmedieval":13856,"Ġlob":13857,"lier":13858,"vement":13859,"isons":13860,"ĠAC":13861,"Ġcouples":13862,"Ġchiral":13863,"look":13864,"Ġcrash":13865,"Ġsubsection":13866,"urers":13867,"hide":13868,"rock":13869,"ĠNorman":13870,"Ġlongest":13871,"|_{\\":13872,"usalem":13873,"School":13874,"Ġpret":13875,"intro":13876,"escope":13877,"Ġsituations":13878,"ĠEss":13879,"Ġtie":13880,"Ġdwar":13881,"ĠYugoslav":13882,"alia":13883,"Ġgrey":13884,"East":13885,"hoenix":13886,"ĠStars":13887,"UC":13888,"iu":13889,"Ġfermion":13890,"Ax":13891,"ails":13892,"owner":13893,"pler":13894,"Ġacoustic":13895,"works":13896,"ById":13897,"rv":13898,"URI":13899,"rus":13900,"aco":13901,"idx":13902,"ijing":13903,"ulum":13904,"ĠTrib":13905,"credited":13906,"Ġgram":13907,"Jew":13908,"ĠEqs":13909,"Ġartistic":13910,"ortex":13911,"lington":13912,"Simple":13913,"ĠAld":13914,"Ġtrading":13915,"initely":13916,"ĠBeck":13917,"ĠUSS":13918,"Ġevening":13919,"idad":13920,"avior":13921,"uez":13922,"fam":13923,"Ġconsumption":13924,"Ġasc":13925,"Ġcriterion":13926,"alis":13927,"ĠCos":13928,"ĠIvan":13929,"GG":13930,"Ġoutputs":13931,"ĠPortland":13932,"ĠPay":13933,"orb":13934,"race":13935,"ĠJudge":13936,"gets":13937,"Ġgeodes":13938,"1879":13939,"hammad":13940,"eners":13941,"transition":13942,"Ġmagazines":13943,"Ġgradually":13944,"Ġpian":13945,"Ġlimitations":13946,"Ġprobabilities":13947,"IMP":13948,"Ġalignment":13949,"Ġsoil":13950,"Ġmarginal":13951,"ookie":13952,"350":13953,"November":13954,"Ġprosec":13955,"speed":13956,"Ġimpossible":13957,"pus":13958,"shop":13959,"Variable":13960,"Ġcustomers":13961,"Ġassets":13962,"ĠHad":13963,"hematic":13964,"ĠFather":13965,"ĠSoccer":13966,"ĠDictionary":13967,"Ġproxy":13968,"once":13969,"ĠPR":13970,"\\,{\\":13971,"Ġtracking":13972,"bounded":13973,"Scal":13974,"Ġgiant":13975,"spi":13976,"Ġcup":13977,"IX":13978,"HER":13979,"hn":13980,"NavBarCell":13981,"ĠJason":13982,"Ġfrequent":13983,"TRUE":13984,"Pointer":13985,"irms":13986,"compare":13987,"ĠTigers":13988,"ĠDelhi":13989,"uart":13990,"ĠStudio":13991,"Cho":13992,"Ġcelebrated":13993,"ĠTrack":13994,"Ġemail":13995,"Ġrose":13996,"Ġconvenient":13997,"lementation":13998,"constant":13999,"Ġphenomenon":14000,"Ġrepresentatives":14001,"Ġrenormal":14002,"between":14003,"Ġexpensive":14004,"Ġdecline":14005,"ĠMilan":14006,"uity":14007,"107":14008,"ĠDJ":14009,"UD":14010,"*)":14011,"oids":14012,"inemat":14013,"respect":14014,"haus":14015,"Ġcycles":14016,"ĠRu":14017,"ubb":14018,"Ġfindings":14019,"Ġforests":14020,"Scroll":14021,"Plan":14022,">:":14023,"ycle":14024,"platform":14025,"angles":14026,"Ġturning":14027,"Ġwithdraw":14028,"Ġchamber":14029,"Ġdescript":14030,"\\|^":14031,"bes":14032,"ummy":14033,"jquery":14034,"Ġnomination":14035,"Ġsensor":14036,"Ġbind":14037,"lfloor":14038,"avan":14039,"Ġorbits":14040,"Ġtransparent":14041,"ĠPierre":14042,"herence":14043,"Ġlooks":14044,"Ġsuspended":14045,"ĠGlasgow":14046,"Because":14047,"Ġfault":14048,"ĠSearch":14049,"ĠVic":14050,"eton":14051,"Ġaccessible":14052,"claimed":14053,"dominant":14054,"ĠTower":14055,"ĠTob":14056,"shadow":14057,".\");":14058,"Ġobst":14059,"ĠVI":14060,"ĠPos":14061,"Ġdress":14062,"ĠProm":14063,"Ġappeal":14064,"Ġdaughters":14065,"ĠDerby":14066,"fx":14067,"ĠBurg":14068,"rategy":14069,"elastic":14070,"iations":14071,"Ġchildhood":14072,"Ġinform":14073,"iden":14074,"ĠRand":14075,"cient":14076,"country":14077,"Ġimprovements":14078,"Ġpeaks":14079,"Ġnations":14080,"ĠFel":14081,"ĠTheater":14082,"ĠStorm":14083,"Ġrent":14084,"decl":14085,"Ġverb":14086,"ĠFermi":14087,"Ġcovariance":14088,"Shape":14089,"ricane":14090,"Distribution":14091,"Success":14092,"Ġmini":14093,"Ġreceives":14094,"dashed":14095,"Ġstruck":14096,"Ġhelping":14097,"Ġbon":14098,"tection":14099,"Ġinflation":14100,"Ġindigenous":14101,"ĠSeg":14102,"======":14103,"ntz":14104,"Ġchrom":14105,"Taxa":14106,"Ġparticipation":14107,"Ġneur":14108,"pread":14109,"Ġprovider":14110,"othy":14111,"sha":14112,"backs":14113,"ĠLink":14114,"Identifier":14115,"Ġnan":14116,"Ġabuse":14117,"semantic":14118,"ouds":14119,"ĠCultural":14120,"ĠIce":14121,"}~\\":14122,"ĠTab":14123,"Ġhook":14124,"Ġmixture":14125,"Ġmodify":14126,"900":14127,"Ġattach":14128,"1877":14129,"stad":14130,"Ġsynthes":14131,"VP":14132,"Ġmonot":14133,"Ġprovision":14134,"Ġpoets":14135,"SCR":14136,"ĠUniverse":14137,"^*_":14138,"Tur":14139,"ĠHero":14140,"Ġpreserve":14141,"rfloor":14142,"Ġfilmed":14143,"ĠIndians":14144,"Flora":14145,"Ġcounties":14146,"Ġillegal":14147,"Just":14148,"Coll":14149,"Ġmissions":14150,"ĠJazz":14151,"temp":14152,"Ġsudden":14153,"Ġmesh":14154,"Details":14155,"Uri":14156,"Ġresemb":14157,"fg":14158,"LECT":14159,"ĠBlues":14160,"town":14161,"weak":14162,"Ġromantic":14163,"ĠTree":14164,"ĠGun":14165,"dynamic":14166,"irk":14167,"oples":14168,"izz":14169,"entric":14170,"Ġexposed":14171,"Ġcondens":14172,"Failed":14173,"Ġoverlap":14174,"reset":14175,"Ġhandling":14176,"Ġmaintenance":14177,"ĠPeru":14178,"Ġdeployed":14179,"1871":14180,"aceae":14181,"ĠPra":14182,"Ġpresentation":14183,"whe":14184,"_{-\\":14185,"ĠNation":14186,"Ġinfluential":14187,"Java":14188,"clude":14189,"Ġmunicipalities":14190,"Ġsurrounded":14191,"Ġfocuses":14192,"Ġatmosphere":14193,"how":14194,"Ġalcoh":14195,"brief":14196,"celand":14197,"ĠGary":14198,"Ġprinted":14199,"omon":14200,"ĠFine":14201,"loyd":14202,"jk":14203,"Struct":14204,"Ð¿":14205,"Ġstim":14206,"astery":14207,"Honours":14208,"\"/":14209,"1874":14210,"Ġtransportation":14211,"1867":14212,"repe":14213,"vdots":14214,"charge":14215,"Ġtexts":14216,"Ġeasier":14217,"Ġsteady":14218,"Ġdevi":14219,"Ġsizeof":14220,"Ġ%}":14221,"Ġkinetic":14222,"IVE":14223,"Ġmedals":14224,"ĠFr":14225,"Ġplotted":14226,"headers":14227,"geon":14228,"iko":14229,"'$.":14230,"Ġrelief":14231,"Children":14232,"Ġinstrumental":14233,"Ġsuperior":14234,"ĠBorough":14235,"ickets":14236,"Pod":14237,"Ġstrip":14238,"dual":14239,"ĠOnline":14240,"making":14241,"encer":14242,"Ġeg":14243,"Ġfear":14244,"Ġflowers":14245,"Hen":14246,"Bigr":14247,"Ġtransmit":14248,"Ġcone":14249,"Ġaccord":14250,"Ġbrowser":14251,"expl":14252,"ipart":14253,"boy":14254,"Ġpoverty":14255,"ĠBranch":14256,"estim":14257,"wang":14258,"Services":14259,"aura":14260,"FP":14261,"details":14262,"ĠMak":14263,"Constants":14264,"}}=\\":14265,"Ġelectrical":14266,"rieve":14267,"NOT":14268,"Ġoverse":14269,"ovich":14270,"shell":14271,"umul":14272,"ĠMall":14273,"Ġintention":14274,"astrop":14275,"mathbbm":14276,"ĠAlaska":14277,"Mo":14278,"Ġendemic":14279,"Ġdated":14280,"ĠFab":14281,"Ġcook":14282,"WN":14283,"otton":14284,"Alex":14285,"unique":14286,"ĠNBA":14287,"ToString":14288,"1868":14289,"auer":14290,"Ġvoltage":14291,"ĠNicol":14292,"ĠMatthew":14293,"Ġpulse":14294,"Ġguarantee":14295,"Language":14296,"castle":14297,"ĠProtest":14298,"Ð¹":14299,"lp":14300,"ĠSalv":14301,"elines":14302,"ristol":14303,"Ġcraft":14304,"attributes":14305,"cpp":14306,"ĠRangers":14307,"best":14308,"109":14309,"cost":14310,"ĠWarren":14311,"Ġsoundtrack":14312,"################":14313,"into":14314,"Ġcosmological":14315,"uble":14316,"Ġhundreds":14317,"ĠWayne":14318,"Statement":14319,"Ġwarning":14320,"storage":14321,"ĠPrimary":14322,"Remove":14323,")->":14324,"ceiver":14325,"ĠFu":14326,"Ġtrials":14327,"Ġabundance":14328,"Ġaggregate":14329,"Based":14330,"omatic":14331,"hythm":14332,"Ġassass":14333,"Ġstayed":14334,"ĠCaribbean":14335,"antine":14336,"Ġautomatic":14337,"Ġpersonality":14338,"Ġspeak":14339,"raska":14340,"ĠGuinea":14341,"ĠSP":14342,"eto":14343,"Depend":14344,"ĠAy":14345,"Ġaf":14346,"ĠTu":14347,"ffff":14348,"ĠJohnny":14349,"Ġmonument":14350,"ĠLiga":14351,"City":14352,"Ġhistorians":14353,"Ġchampionships":14354,"Ġcancelled":14355,"typedef":14356,"ĠLGBT":14357,"rod":14358,"Ġmoth":14359,"Gold":14360,"vy":14361,"ermont":14362,"Pers":14363,"tabs":14364,"}})$":14365,"1872":14366,"ĠLad":14367,"Ġfilters":14368,"ĠFitz":14369,"ĠElectric":14370,"ĠMitchell":14371,"Fact":14372,"riction":14373,"Jack":14374,"echo":14375,"correspond":14376,"Ġmolecules":14377,"Ġdenied":14378,"clipse":14379,"lm":14380,"Ġmachines":14381,"ĠMother":14382,"Ġbuy":14383,"Crit":14384,"Ġreleases":14385,"Ġcounc":14386,"Ġcombining":14387,"PER":14388,"Ġretail":14389,"ĠRiemann":14390,"ALSE":14391,"Lou":14392,"ADD":14393,"Ġcollective":14394,"Ġphon":14395,"Ġrowspan":14396,"Ġexpedition":14397,"Ġeveryone":14398,"ĠAlberta":14399,"ogue":14400,"Generator":14401,"ĠRange":14402,"Ġauxiliary":14403,"igo":14404,"EXT":14405,"Ġdisjoint":14406,"graduate":14407,"Ġ\",":14408,"åı":14409,"Ġpatch":14410,"ĠNevertheless":14411,"Ġsurgery":14412,"itely":14413,"ĠDirac":14414,"Ġ{'":14415,"}\\;":14416,"Ġexcellent":14417,"}<":14418,"Ġweakly":14419,"ĠSaints":14420,"ĠKos":14421,"ĠSteel":14422,"Prefix":14423,"ĠVas":14424,"Program":14425,"Ġentertainment":14426,"lett":14427,";\\;":14428,"MOD":14429,"Ġcolleges":14430,"Ġdocumentation":14431,"ĠRacing":14432,"Ġreflection":14433,"$_{\\":14434,"Ġignored":14435,"hole":14436,"ĠCher":14437,"ĠCustom":14438,"idespread":14439,"feature":14440,"Ġsynthetic":14441,"tb":14442,"hot":14443,"bolic":14444,"Ġaffairs":14445,"Team":14446,"Ġequals":14447,"Ġoverl":14448,"Ġranging":14449,"iat":14450,"1873":14451,"hyper":14452,"Discography":14453,"ĠBron":14454,"opts":14455,"Ġ[],":14456,"Ġdream":14457,"ĠPoisson":14458,"Ġvaries":14459,"Role":14460,"clusively":14461,"Ġdiscipl":14462,"Ã¶r":14463,"errors":14464,"ĠBachelor":14465,"Bal":14466,"ju":14467,"ĠRomanian":14468,"Ġvariants":14469,"analysis":14470,"ĠCore":14471,"Ġgoverning":14472,"folio":14473,"Ġunlike":14474,"perature":14475,"Ġconfront":14476,"IPT":14477,"Ġparliamentary":14478,"Stats":14479,"Ġ$\\|":14480,"protected":14481,"Ġslot":14482,"CHECK":14483,"empl":14484,"ĠProperty":14485,"Ġconstructor":14486,"Ġphotographer":14487,"Ġrescue":14488,"anne":14489,"Ġconsideration":14490,"USE":14491,"Ġdoubles":14492,"ITE":14493,"ĠPant":14494,"ĠRichmond":14495,"ĠBased":14496,"108":14497,"ĠJerusalem":14498,"frared":14499,"ĠCharlie":14500,"135":14501,"uming":14502,"abe":14503,"ĠSerge":14504,"Ġportrayed":14505,"ĠUg":14506,"Ġhist":14507,"Ġconformal":14508,"Ġbold":14509,"variable":14510,"filename":14511,"Sever":14512,"rose":14513,"Ġterritories":14514,"Ġarrangement":14515,"SW":14516,"good":14517,"Ġarise":14518,"ĠCov":14519,"ĠFro":14520,"Ġposted":14521,"{%":14522,"Ġencoded":14523,"Ġsupplied":14524,"Ġchoosing":14525,"Ġhosp":14526,"Ljava":14527,"Ġclients":14528,"ĠSerbian":14529,"Ġconsistency":14530,"Ġreplic":14531,"ĠAND":14532,"ĠAccess":14533,"oker":14534,"Ġignore":14535,"Ġ&$":14536,"roscopic":14537,"Ġpref":14538,"Ġappointment":14539,"Qual":14540,"Ġbear":14541,"effect":14542,"1866":14543,"Ġshifted":14544,"Ġsubsidi":14545,"\\,,":14546,"Flow":14547,"Sync":14548,"ĠYu":14549,"Radio":14550,"ĠFlore":14551,"ĠMind":14552,"Ġmanage":14553,"Ġdelivery":14554,"ĠQCD":14555,"ĠMeg":14556,"lew":14557,"Ġartillery":14558,"Ġgrown":14559,"NP":14560,"iti":14561,"sharp":14562,"Comparison":14563,"throw":14564,"Ġshorter":14565,"Environment":14566,"lag":14567,"Ġnoting":14568,"Rightarrow":14569,"Ġsquadron":14570,"prev":14571,
[...]
