#version: 0.2
Ġ t
h e
i n
Ġ a
o n
e r
Ġt he
r e
a t
Ġ o
e n
Ġ s
a n
o r
i s
a l
i t
Ġ w
e s
e d
Ġ c
a r
Ġo f
Ġ f
n d
Ġ in
Ġ p
Ġ b
i on
in g
i c
Ġa nd
a s
r o
l e
Ġt o
Ġ m
Ġ d
o u
en t
Ġ h
i l
e l
Ġ S
c t
o m
Ġt h
s t
Ġ re
Ġ C
Ġ T
Ġ A
e t
a m
o l
i g
Ġ Ġ
Ġ l
at ion
Ġ n
Ġ e
r a
â Ģ
o t
i m
Ġ \
Ġ (
Ġ M
i v
i d
Ġ is
u r
c h
c e
Ġf or
Ġ I
Ġ $
u t
Ġ g
l y
u s
Ġ on
Ġ B
er s
Ġ P
a d
o w
2 0
Ġb e
i r
a y
it h
Ġ H
e m
u l
Ġa s
Ġs t
Ġth at
1 9
t er
Ġ R
u n
Ġw as
Ġ D
Ġw ith
Ġ F
is t
v er
u m
he r
Ġ L
ĠT he
o s
t h
Ġa l
Ġc on
Ġ W
a b
an d
Ġ N
Ġa n
Ġ G
a g
Ġp ro
Ġb y
Ġw h
i f
q u
v e
{ \
o p
o d
Ġ E
es t
Ġa t
r i
a c
it y
re s
ro m
Ġ it
at e
Ġd e
Ġ v
e ct
Ġ J
ig h
Ġc om
en d
Ġ he
il l
p p
o c
a in
i es
ar t
Ġf rom
s e
o re
Ġa re
ĠĠ ĠĠ
Ġe x
e w
Ġ O
Ġo r
u d
an t
l d
u b
at h
es s
al l
or t
Ġs e
Ġ Ċ
m ent
a k
' s
_ {
igh t
iv e
e g
i al
Ġ y
u re
âĢ Ļ
b er
Ġ U
u p
g e
Ġ âĢ
ar d
a p
T he
ic h
Ġ r
i an
20 1
in e
ou r
Ġ K
p h
Ġ$ \
n t
i a
Ġw e
Ġc h
at ed
u nd
u st
Ġp l
ar y
el l
o g
ion s
i p
e ar
ic al
a ve
ĠS t
Ġs h
e p
ĠI n
Ġ le
m ath
e c
Ġn ot
Ġs p
Ġh is
Ġ "
u g
on g
as t
f er
20 0
e x
Ġcom p
Ġth is
Ġ &
r an
o st
a re
i z
it e
Ġ k
Ġwh ich
c l
or k
f f
o v
ig n
t her
i re
Ġ us
Ġh ave
u c
Ġ V
or d
ĠC h
am e
} \
ul t
er e
} $
u e
ation s
0 0
s o
m er
Ġh as
ct ion
a v
^ {
p l
č Ċ
is h
p er
en ce
as s
Ġw he
ac k
) ,
or m
p t
ou s
Ġre s
en s
Ġa b
Ġ un
en c
om e
o k
f t
Ġc l
ra c
ag e
Ġw ere
ou ld
Ġcon t
id e
ou t
r y
r ic
i e
it ion
1 8
Ġal so
Ġs u
Ġin t
im e
Ġc an
Ġal l
Ġa d
on d
i b
a ct
\ \
Ġ j
ic e
in t
m a
a ce
ĠT h
Ġ im
Ġa r
Ġa pp
re f
a ch
ou nt
) .
Ġthe ir
an g
c c
ir st
Ġp art
. .
or y
Ġ -
i k
ab le
o ver
ter n
er v
Ġon e
t a
} }
( \
ĠU n
il d
ĠH e
r it
Ġ |
ex t
al ly
Ġb ut
ow n
âĢ Ŀ
ol l
at es
as e
ent s
Ġwh o
Ġh ad
Ġp er
w o
r u
Ġ Y
in d
re e
ou nd
or s
eg in
el y
Ġit s
ĠI t
Ġd is
ation al
an ce
b egin
Ġ ro
c al
âĢ ĵ
ar k
he d
Ġf irst
f orm
1 0
cl ud
ol d
Ġm e
res s
os e
an y
I n
er m
Ġ en
Ġy ear
) $
Ġt e
Ġo ther
Ġpl ay
ĠâĢ ĵ
Ġa g
Ġo ut
Ġy ou
Ġthe y
19 9
_ {\
e op
p ort
f ter
on e
Ġre c
Ġw ork
l ic
i le
ug h
am p
a w
Ġbe en
n g
at er
d u
v el
k s
Ġe v
n e
eop le
} {
l l
Ġw ill
Ġ her
Ġm ore
o b
ĠâĢ ľ
Ġt wo
Ġ =
Ġp re
Ġbe c
on s
r ight
t he
r m
w e
Ġd o
ĠĠĠĠ ĠĠĠĠ
Ġ up
ic s
Ġs c
ĠĠ Ġ
Ġ qu
t e
f rac
ri b
ing s
is s
s s
mer ic
iv ers
l and
Ġo ver
it ed
Ġ| |
o ok
le ct
o od
Ġcom m
g h
Ġd es
ect ion
und er
or n
ak e
Ġt ime
ro w
o ol
an s
a il
enc es
l es
en er
ra d
o y
i ed
e qu
em ber
Ġn ew
Ġin clud
Ġab out
} ,
as ed
Ġin d
e q
Ġs o
Ġcon s
ran s
ab el
r am
us e
ver y
Ġw ould
al s
w ard
Ġint o
ro p
Ġthe re
ul ar
Ġn e
o int
Ġ under
ol og
Ġp eople
ur ing
Ġin ter
t ext
Ġof f
ĠN ew
Ġa ct
Ġb et
ĠC om
Ġs y
Ġm od
ou gh
e f
math b
19 8
Ġwhe n
i ous
Ġre g
ur n
Ġth an
Ġas s
Ġk n
an c
1 2
it ies
Ġs ub
on t
ay s
h ip
at ive
i o
Ġre l
il m
re d
oll ow
Ġo b
R e
or ld
Ġa cc
ic t
ut ion
Ġwhe re
$ ,
ro ugh
id ent
ĠA meric
Ġon ly
Ġa fter
s p
c ite
Ġs he
Ġsu ch
ot h
ĠM ar
j ect
a id
im es
1 7
ch ool
i el
t ain
Ġp ol
1 5
u al
Ġs ome
c ent
l abel
ro und
$ .
ad e
if ic
at ing
ĠA l
ik e
y s
, \
ra ph
i x
am b
math cal
e e
Ġan y
fer ences
in ce
le ft
res ent
Ġde f
Ġst ud
Ġex p
re n
Ġs et
t s
Ġat t
p s
equ ation
1 6
Ġthe m
an n
Ġd if
Ġf ollow
r al
we en
Ġl oc
Ġfor m
w n
ub lic
p r
Ġpro v
Ġse c
19 7
c ess
ĠTh is
o ot
ic k
Ġin v
g an
Ġc o
in al
il y
} .
Ġ if
Ġo ur
Ġn um
Ġp r
ist s
} )
ro up
re at
ĠA r
ivers ity
d er
Ġm ost
Ġthe n
Ġt rans
Ġyear s
c om
et h
is ion
} (
Ġbet ween
Ġp h
l ine
Ġp os
d uc
Ġd ist
ĠD e
p ro
o h
Ġs erv
Ġa m
is e
st em
Ġf l
iel d
oc k
em ent
oc i
et a
if e
Ġn o
Re ferences
~ \
i ew
le t
ar g
Ġf e
Ġm an
1 3
ow er
} ^
u res
b all
Ġc ol
as on
is hed
e y
1 4
is m
Ġt ra
Ġh im
Ġg o
a h
Ġth rough
Ġs aid
a x
Ġin c
Ġsh ow
Ġf ilm
ou n
ire ct
Ġre m
} _
h at
il ity
ĠW e
over n
ment s
a ir
f ig
in ed
Ġm ay
Ġe m
Ġg ener
it s
a pp
2 1
Ġ est
Ġa c
Ġb u
ph a
t on
m an
Ġthe se
ĠP ro
a use
Ġ ra
he s
19 6
it t
Ġsu pp
ur y
in s
e v
Ġad d
Ġag ain
t t
vel op
\\ \\
e ver
us s
d a
or th
in es
u es
i er
al pha
ou th
he n
Ġw ell
Ġb l
ĠS h
Ġres ult
o ve
Ġus ed
Ġ ent
y p
1 1
Ġsp ec
at a
Ġ Z
am es
Ġc ent
Ġde c
ĠAmeric an
t o
ra ct
ib le
ers on
ab l
o f
ar s
Ġre p
Ġs im
as h
ĠI nd
ĠL e
Ġ ed
at ure
Ġe ff
ĠUn iversity
ar n
er n
u ch
Ġres p
in k
em b
Ġsy stem
i ent
Ġ [
Ġf ound
ĠS p
Ġf am
Ġ end
ĠA n
) \
ĠUn ited
3 0
Ġh ow
Ġcon st
ĠF or
el s
ar i
Ġdif fer
id er
ou se
ra y
w ay
Ġth ree
Ġ +
el f
Ġd uring
Ġar t
iv es
ĠS c
Ġs er
Ġc ount
el ta
t en
p art
Ġm any
o x
ru ct
iz ed
al e
Ġm ade
a z
a j
c on
in n
Ġle ad
amb da
ĠA s
Ġf un
Ġs ur
Ġbe ing
Ġwh at
Ġd et
s c
le m
Ġs ign
Ġin st
ot her
Ġc or
ion al
2 2
$ \
Ġnum ber
Ġe ach
at t
Ġs m
Ġe qu
ĠC ol
am ma
Ġ Q
ut e
Ġb ack
Ġl ike
Ġdis c
Ġte am
ĠC l
Ġex t
er g
iv ing
an k
at her
ce pt
2 5
Ġc all
Ġg roup
mathb b
in a
et s
Ġp oint
ar ly
Ġj ust
ot s
h o
Ġh igh
ul l
ut h
19 4
t y
. ,
Ġb oth
ic es
E x
us ic
} _{
19 5
e b
r on
_ \
Ġde velop
Ġs ame
an ge
Ġv al
p os
Ġre t
ur al
ar l
m in
Ġsec ond
m u
Ġst r
Ġf in
Ã ©
o ber
= \
Ġst ate
olog y
Ġm at
Ġus e
Ġm ed
00 0
Ġcl ass
Ġo per
f ore
iv en
Ġs ing
T h
Ġpart ic
ig ma
y m
iv ed
ant s
iz e
Ġm in
Ġd irect
oh n
Ġre le
ric t
Ġc ould
Ġc ur
} ^{
ĠI s
ist ory
Ġpro b
f ul
Ġc re
ĠCom m
eg a
Ġwh ile
g ram
p le
om en
ak ing
Ġ\ \
ical ly
- \
ĠS he
ĠSt ates
. "
Ġch ar
en n
Ġo wn
ĠE ng
iv er
al th
s ub
Ġm on
Ġbe fore
tern al
en g
Ġw rit
Ġm ov
Ġo p
Ġs chool
Ġp op
overn ment
Ġb el
Ġdiffer ent
le y
Ġm y
ro ss
i am
ph i
Ġr ight
s h
Ġbec ause
i ence
ĠC on
ar ch
Ġl ong
Ġinclud ing
^ {\
du ct
Ġse e
l ed
ep t
ire d
Ġn ow
un e
ap t
ag es
in c
. âĢĿ
oot ball
Ġp ar
iz ation
ot e
at or
Ġd id
Ġper form
re nt
Ġsupp ort
Ġt erm
Ġs ol
Ġst art
iss ion
oun c
s on
Ġapp ro
Ġw orld
it al
Ġrec ord
al ign
v ed
2 4
p ar
Ġg u
ch n
Ġne ed
Ġcont in
ĠA nd
Ġe very
l ambda
ul ation
Ġagain st
ĠB l
od e
in ks
ĠA d
Ġp ublic
er t
Ġcomm un
ĠJ an
Ġf act
Ġin f
Ġre qu
Ġf our
Ġc are
Ġfollow ing
Ġm ain
W e
Ġe lect
Ġex per
ir c
Ġc ase
Ġ {\
ĠM ay
al ity
ĠP h
Ġkn own
ar ri
Ġ .
Ġl ater
form ation
y n
Ġ very
Ġor der
Ġd r
u ally
Â ł
th s
are d
og raph
ial ly
Ġg et
Ġth ose
in ess
as es
re t
.. ..
r id
ĠJ ohn
2 3
Ġcons ider
Ġn on
Ġdes c
Ġp res
tern ational
et y
b um
ĠF ran
ĠO n
d ay
Ġs ince
et er
c es
Ġd ata
r ist
il on
Ġplay ers
t ing
Ġe le
Ġl ine
b y
Ġl ife
p i
Ġev en
ur ch
ub l
it ions
a u
ĠN ational
b f
Ġl aw
ĠC ount
v en
e an
mathb f
ĠâĢ Ķ
20 20
he re
ect ed
Ġse ason
i or
v ent
Ġl inks
is ter
5 0
ĠP l
Ġch ild
Ġsm all
ĠH ow
iv ely
ĠY ork
f or
ĠW orld
ar m
Ġt r
Ġor ig
Ġpro gram
Ġfam ily
ĉ ĉ
Ġkn ow
Ġbu ild
ian s
Ġpol it
Ġ X
r is
Ġp erson
s igma
Ġmod el
ĠC an
Ġhe l
enc y
ild e
ill ion
us iness
ir d
Ġm ake
^{ -
ag ue
Ġan n
Ġeff ect
s ection
Ġest abl
Ġre port
r ing
S t
Ġser ies
at ic
Ġw ay
v iew
u ary
Ġc our
ar ge
ep s
Ġor gan
" .
Ġpro f
ot t
ĠN ov
in ing
Ġre ce
ĠC ent
k e
r ation
Ex ternal
} {\
a f
p or
Ġse ver
Ġdes ign
id ed
Ġg iven
ĠJ u
Ġ( \
Ġf ield
amp le
ĠA ust
Ġop en
b ar
19 3
r and
Ġl ast
Ġb ook
is c
Ġal bum
Ġbec ame
n ess
Ġex pl
Ġoff ic
emb ers
v ers
Ġus ing
a i
w ork
aj or
201 6
du ction
201 8
ĠO r
s um
Ġr un
b eta
Ġp resent
2 8
if ied
Ġb ro
t il
âĢ ľ
ain s
Ġsh ould
ĠS chool
Ġinc re
re m
ĠB rit
duc ed
2 6
201 7
ĠE x
c ol
ĠA ss
+ \
ug ust
Ġm usic
Ġdo es
2 7
i qu
w id
ĠE u
c k
Ġm uch
math rm
201 5
g amma
201 0
g et
ĠO ct
Ġg overnment
* }
20 19
Ġy our
- -
ept ember
ĠW h
Ġde p
ĠR e
is ed
, âĢĿ
Ġf ootball
ĠS outh
ĠThe y
os s
201 4
ĠW ar
= "
he m
i um
Ġa round
Ġt yp
Ġde ath
" ,
ĠMar ch
Ġcall ed
Ġs l
Ġs uc
Ġm et
Ġb ased
iv al
ĠT e
Ġpl ace
c d
Ġfun ction
Ġpro cess
Ġg ame
ff ic
C h
Ġst at
m ber
Ġun til
o ard
Ġs ong
Ġc ap
ĠA t
pr il
le x
b s
Ġn ame
Ġchar act
Ġpos s
al k
ĠR ep
Ġf ind
Ġrep resent
en se
Ġloc al
uth or
ĠCount y
r ho
re en
se c
Ġ {
m ed
ĠA ll
Ġle g
r um
an e
201 2
Ġp ower
ĠJan uary
ward s
ĠG erm
ver t
Ġre st
Ġim port
ri pt
at ely
201 1
201 3
le ge
v es
m p
ak es
Ġhel p
ĠU S
2 9
ĠA ugust
ĠG e
ab ility
I t
Ġ '
ĠS eptember
ce mber
Ġis s
Ġm ark
ĠJ une
v ious
\\\\ \\\\
Ġb ir
er ing
Ġre ad
Ġd own
oc ial
Ġp ass
id es
Ġdesc rib
e k
Ġst ill
Ġst and
end ed
ĠSt ate
Ġl ist
^ \
av ing
Ġare a
Ġcon d
om an
Ġret urn
ĠJu ly
s et
Ġa v
ro l
Ġsever al
ĠOct ober
re ad
Ġn ear
ist or
y le
le q
ur ther
] {
old s
am ed
Ġb as
ĠP ol
qu ad
the ta
Ġcon f
Ġpro t
âĢ Ķ
ent ly
d elta
) }
ar ray
Ġl arge
Ġ x
ĠA pril
ord ing
a im
Ġall ow
Ġo cc
il it
um an
ĠĠĠĠ ĠĠĠ
con om
ĠEu rop
/ /
Ġwith in
Ġd em
pl oy
Ġre al
b ig
$ -
ur s
Ġh and
ta u
Ġre f
4 0
Ġto p
ĠP r
Ġt ake
Ġ i
eth od
Th is
s ide
ĠDe cember
y l
Ġt rad
u ed
m b
ĠM an
erg y
Ġd ay
ĠNov ember
p ut
Ġt ri
ar row
ĠA f
Ġad v
i od
Ġw omen
Ġh ome
ĠR es
le v
ran g
O n
Ġal ong
Ġe arly
Ġin formation
Ġ z
}$ ,
200 9
Ġc ity
st it
Ġl and
1 00
ent ial
Ġg ood
' t
Ġan al
ĠC ity
Ġinter est
er y
Ġcur rent
}$ .
Ġpro per
rac k
Ġhe ad
ĠN orth
os ed
Ġfor mer
Ġth ough
200 8
l ess
ate g
Ġte chn
Ġm embers
Ġprob lem
ĠCh rist
Ġg l
ĠC o
Ġd ue
Ġo pp
t imes
rib ut
ol ution
} (\
Ġgener al
Ġb usiness
ĠĠĠĠĠĠĠĠ ĠĠĠĠĠĠĠĠ
l ish
ĠC al
fig ure
Ġv is
ĠB e
er tain
ĠG u
od y
Ġp at
Ġcomp any
eq ref
.. .
ĠB ut
Ġm ajor
Ġp ubl
Ġadd ition
w w
Ġle ft
Ġb est
ĠE d
Ġg ra
Ġle vel
Ġob s
ag n
Ġpro ject
ĠCan ad
ang u
eb ru
ne y
ebru ary
il t
Ġl im
en e
ac es
ep end
Ġme as
Ġen g
ĠAust ral
Ġ el
amp ions
ĠHow ever
Ġim p
Ġm ult
) ;
Ġv ari
ĠY ou
in ation
200 7
Ġre se
uc k
Ġs om
Ġapp ear
Ġw on
Ġp ost
et work
Ġl ook
Ġresult s
Ġsuc cess
ug g
Ġinv est
part ial
ra w
ft y
al es
ĠS ec
Ġplay ed
ed er
ĠI I
Ġsing le
Ġth ink
Ġman ag
Ġ rad
t ilde
Ġ ,
Ġw ant
as ter
Ġan other
Ġa ff
s k
ĠW ill
end s
Ġ ident
in fty
ĠC ar
v al
Ġresp ect
it ive
ain ed
um n
200 6
Ġc ar
er r
Ġl arg
ĠF l
l ing
Ġre fer
n u
at s
ri es
Ġrele ased
Ġst ruct
ord s
n er
un g
is on
ĠF ebruary
it em
a ugh
our n
Ġcount ry
ore d
ĠBrit ish
m m
Ġcon c
ie f
Ġt est
Ġed uc
Ġbe h
le g
or ies
p m
iv id
Ġev ent
| -
ĠE n
Ġt it
Ġob tain
a us
Ġm ust
os p
Ġo ld
Ġg reat
Ġs ay
Ġh istory
ĠM ed
e ed
F or
H e
om ega
anc es
Ġf ac
ĠM in
a e
Ġb and
if y
ĠP art
o le
ĠR eg
r t
h am
| \
Ġcomp et
re l
Ġper iod
i pp
res p
il ar
Ġv ers
Ġc rit
eq n
Ġpartic ular
ĠK ing
A s
ĠM c
ĠThe re
Ġm ass
id d
ap an
Ġm ethod
Ġhe re
ĠP res
Ġsp ace
ure d
Ġa uthor
Ġwith out
ograph y
Ġc r
Ġchild ren
6 0
ir on
ĠN o
w here
Ġv ar
he st
Ġm illion
Ġcare er
ent al
re g
ore m
ain t
Ġd el
Ġ ve
b orn
ĠH is
Ġimport ant
Ġpro m
at ch
Ġin it
o ad
x i
Ġd on
Ġm ember
ent ion
le ction
or g
n ot
ĠA ct
c ed
Ġto t
Ġf ew
rib ution
wid th
Ġs um
Ġf re
Ġsh ort
Ġinclud e
Ġb ound
ĠAf ric
ur g
re w
c it
at ors
it er
Ġcharact er
19 0
Ġn ational
Ġf inal
Ġg row
in o
up er
ĠA b
Ġto ok
Ġo pt
Ġt em
th ough
Ġs k
A l
Ġn ext
Ġbe gan
ap er
Ġprof ess
Ġhe ld
o or
al f
Ġc le
z e
Ġhe alth
Ġex ample
ĠW est
on y
Ġch ang
w ays
Ġc amp
im ate
l u
ĠH ar
u pp
st and
ri x
v ar
ĠLe ague
D elta
e ak
: //
ĠA rm
as k
ad em
Ġle arn
ra ft
ic le
Ġt urn
Ġact iv
Ġ <
Ġstud y
ĠI f
ĠA fter
ren ch
cd ot
Ġto wn
Ġinv ol
Ġen ergy
Ġde b
\ ,
an a
es p
200 0
um e
h i
200 5
ard s
Ġ }
ampions hip
op e
Ġst re
Ġd iv
Ġh ouse
Ġs ection
Ġh ig
lev ision
ĠR uss
ru ction
Ġobs erv
ing ton
ĠB ar
20 21
ĠE l
u le
Ġcomp let
b m
ĠS e
Ġpre vious
Ġf ive
c o
al d
om in
e ad
ĠC or
ĠâĢ ĺ
Ġ ide
c hes
es e
a ul
er ed
Ġcommun ity
Ġpop ulation
Ġe conom
Ġam ong
Ġj o
are nt
ct or
ra g
sp ace
Ġfilm s
A meric
Ġa ge
Ġbe g
ond on
oci ation
ĠEng lish
} }\
)$ .
l er
ĠA m
Ġrese arch
Ġl ess
u k
8 0
i et
S ee
ilit ary
Ġpro duct
um ent
f ord
l in
Ġof ten
3 5
Ġcon n
ĠP ar
Ġs it
i ol
i j
er o
Ġcl aim
Ġrece ived
itt le
Ġv iew
ounc il
ĠS w
ight s
Ġab ove
em pt
Ġem ploy
ĠD ist
Ġs ix
um b
ific ation
Ġf und
Ġint ro
ĠCol lege
olog ical
our ce
on es
ĠJ apan
Ġs ocial
cent ury
A n
Ġc ult
Ġn amed
angu age
Ġt imes
oci ety
18 9
e al
Ġsim ilar
Ġtot al
Ġdevelop ment
Ġp ract
Ġw ater
} [
Ġind ivid
ĠH ouse
ab or
200 4
ĠD ep
Ġl a
Ġe p
a ff
Ġbir ths
Ġestabl ished
Ġf ull
3 1
Ġpubl ished
Ġgo ing
b e
id ence
Ġg ames
Ġm en
ĠR ec
Ġbec ome
$ $
ĠA g
Ġc over
Ġserv ice
Ġth ird
our ces
Ġw ar
Ġf ore
Ġb re
Ġme an
Ġ$ (
Ġd en
ĠAr t
if t
ist ic
il le
Ġdescrib ed
Ġde g
4 5
om m
ab ly
Ġ et
Ġval ue
Ġst ory
i ber
Ġ /
ĠD av
ak en
w h
is ing
r ont
Ġyou ng
resp ond
Ġex ist
ac ed
ide o
ĠT o
ĠCom p
ort s
s elf
Ġqu est
Ġstr ong
Ġv ol
Ġpar am
l im
Ġcl ub
ener al
b ack
eps ilon
Ġspec ial
O m
ĠP ark
Ġh uman
Ġl ow
Americ an
eqn array
in clud
Ġro le
op h
ĠB y
d ef
oc us
ĠL ondon
s q
Ġorig inal
Ġdet erm
g round
v iron
us h
Ġloc ated
Ġn etwork
Ġcent ury
it her
Ġstud ents
c hed
Ġin s
Ġav ail
ĠC our
Ġch ange
ap e
Ġle t
end ing
3 3
Ġs at
Ġs ide
Ã ¡
Ġp ot
col or
arri ed
Ġbuild ing
at ter
Ġa ir
ur b
Ġcom b
Ġsign ific
ict ion
ĠPres ident
b l
ĠS y
inn ing
Ġf urther
A R
Ġre pl
he l
ĠWill iam
es tern
ĠĠ Ċ
7 0
se qu
Ġne ver
Ġph ot
Ġshow s
og n
ourn al
Ġdisc uss
Ġc al
Ġrel ations
ĠIn ternational
Ġserv ed
row n
Ġpoint s
ĠG l
ic y
ĠA ir
at ures
Ġh aving
re st
Om ega
r ant
Ġbu ilt
Ġc ame
min ist
Ġcont rol
Ġv ill
ĠB ro
ap s
ĠF ig
s im
Ġbel ie
Ġc ost
ial s
Ġ Â
ĠH er
ps ilon
Ġpro pos
ĠH igh
Ġint eg
Ġan t
ang le
ĠS ch
Ġpolit ical
Ġind ust
ric k
iv il
ra in
Ġp ri
Ġe as
ĠO ne
Ġst ates
it or
Ġd i
ĠA ng
Ġcomm on
am a
200 3
ut ure
} _{\
Ġb orn
Ġph ys
Ġreg ion
Ġinclud ed
Ġp ut
ĠAmeric a
Ġterm s
Ġ$ {\
, "
fer ence
Ġposs ible
ra p
i ents
n ing
ref ore
ĠF rench
Ġcomp ut
Ġa ver
b le
e ep
Ġst ation
Ġim pro
)$ ,
Ġwork ing
Ġd ays
iqu e
ĠS o
v are
ĠThe se
Ġch o
Ġatt ack
Ġar ch
9 0
Ġf ri
ra k
Ġcor respond
im ens
Ġf ree
our s
du ce
if orn
on st
^ *
Ġk ill
get her
Ġto gether
Ġpr iv
u ation
Ġavail able
ps i
n a
Ġs cal
ch i
Ġwe ek
lect ed
et ers
ob al
Ġvar ious
ct ions
sq rt
op er
Ġle ast
if f
A S
um ber
viron ment
Ġme et
iforn ia
it te
Ġ :
âĢ ¦
Ġob ject
g er
200 2
o ff
Ġf ocus
r ated
Ġh app
vare psilon
Ġm ot
ac y
Ġac ross
Ġd er
ĠM ich
Ġpos ition
) =
Ġc ou
_ _
epend ent
ĠPh il
E R
Ġprov ide
G amma
U n
un ic
Ġwrit ten
Ġserv ices
op s
ens ure
ys is
es c
ĠS er
Ġre ally
P ro
il es
Ġc oll
raph ics
ĠĠĠĠ Ġ
Ġapp lic
Ġh istor
os ition
7 5
im al
Ġde v
ut ions
ĠP er
ĠIt al
m ost
Ġhow ever
Ġpl an
ĠW hen
ot es
Ġin ternational
n ow
att le
al t
200 1
b ol
ur ity
use um
Ġsignific ant
h ib
ĠDist rict
Ġexp ress
ud e
Ġab le
am pl
Ġp ort
Ġpre d
Ġd ied
Ġw ent
ch ie
Ġm aking
at ural
.... ....
ounc ed
ĠGerm an
Ġfe ature
ĠR ev
se e
ers hip
i us
b or
Ġs w
cl us
Ġsh own
et t
one y
ĠS m
Ġg en
Ġtit le
Ġto o
itt ed
ĠW ith
Ġstart ed
ĠCal ifornia
Ġass oci
Ġ\ ,
or ge
f ield
Ġbet ter
et ic
Ġl ed
ĠRep ublic
Ġa ut
sub section
Ġte levision
^{ (
Ġconsider ed
her s
rid ge
Ġcom e
ĠCour t
Ġs ent
Ġwork s
in ally
ir m
om b
Ġa ction
Ġse en
eder al
ith m
Ġre d
Ġt w
Ġspec ies
Ġre view
Ġp ay
ĠInd ian
Ġof fer
orm al
Ġar g
ĠS an
3 6
as ing
od es
Ġ enc
Ġacc ess
em ents
Ġplay er
c ast
ĠM e
Ġperform ance
d om
Ġs ays
ĠA pp
cent er
text bf
ĠTh at
ĠD r
Ġm ater
s y
} =
3 4
Ġl ight
ĠQ u
ow s
f l
Ġal ways
Ġev ents
Ġl ik
a ut
}^ {\
right arrow
Ġpr im
Ġc ases
x im
ĠA c
Ġdif f
Ġh om
il ities
A T
Ġfollow s
I D
Ġs on
Ġother s
ĠEng land
Ġ čĊ
a el
av y
Ġme ans
pl ay
Ġpartic ip
Ġpro duction
Ġs ite
Ġw in
ens ity
ĠL a
c ul
ir l
Ġmark et
ĠSt re
Ġc irc
Ġf ather
Ġb ig
s el
Ġp ast
ec ess
) :
Ġh ard
n on
ĠCh ampionship
Ġm ight
Ġbl ack
18 8
ect s
Ġn ov
Ġgroup s
apt ion
Ġpres ident
w are
Ġacc ount
em ph
y ear
ĠInd ia
rang le
f ace
includ eg
ĠL aw
includeg raphics
Ġv iol
' '
ec ut
Ġl ate
Ġag re
an ies
ic o
Ġeduc ation
Ġh alf
ĠE ast
Ġf ail
Ġsp ect
art ment
er a
land s
ish ing
ĠC up
Ġf ar
3 8
ly mp
Ġse em
g or
Ġc ertain
ar a
ort un
ip le
it ing
ĠCanad a
u el
ĠIn stit
B C
oc r
I N
ĠCh urch
ix ed
itte e
r ary
\\\\\\\\ \\\\\\\\
oy al
Ġf uture
w ith
ro ll
Ġb en
ĠSt ud
ĠEurop ean
ĠCh ina
ugg est
g es
c m
Ġcre ated
r ig
Ġb i
Ġal ign
ic a
ĠC ouncil
ce ed
id ing
Ġval ues
var phi
Ġt aken
Ġaver age
Ġs old
o on
ĠM on
6 5
a ction
Ġst yle
199 0
Ġn orth
ill s
Ġa way
Ġvers ion
Ġas k
S T
Ġind ic
Ġcour t
Ġc he
c aption
o e
ĠAustral ia
t ime
Ġtra ining
4 8
read y
w ide
Ġh ost
3 2
ar ing
v ing
ain ing
Ġc aus
Ġn eg
Ġt re
ĠD iv
Ġwork ed
eth ing
Ġm ilitary
d e
her n
Ġtyp e
ĠA cc
g ress
Ġstruct ure
Ġth ings
Ġs uggest
eng th
ĠR iver
ĠS en
Ġsystem s
Ġg ive
u x
i ation
et ry
Ġdef ined
ac hed
Ġp o
Ġse par
Ġar m
Ġst ar
Ġm iss
Ġcomp lex
t ies
Ġann ounced
Ġr ange
ĠCent er
Ġdet ail
ot ed
Ġqu ant
3 7
ib ility
Ġd oc
Ġ u
ell s
ash ington
Ġl ittle
Ġa ward
ĠD em
ge q
r im
or ph
Ġeng ine
ĠM y
pro of
Ġg round
ĠPart y
c he
Ġinf lu
Ġr ul
at ives
Ġv ideo
Ġmov ed
is f
199 9
Ġc ross
ar th
Ġrec ogn
idd le
Ġl ive
Ġest im
Ġro und
at ory
c y
ĠFran ce
Ġmod els
Ġpro duced
i i
Ġa chie
id s
st er
Ġbec om
Ġdist rict
and er
ĠS erv
ro te
Ġare as
Ġbro ad
Ġp ur
Ġr ate
th ing
3 9
Ġreport ed
Ġright s
m e
ĠDep artment
c er
bs ite
u f
S p
Ġm om
gor ithm
Ġf em
Ã ³
Ġe ither
le ment
Ġs ize
c le
Ġmeas ure
Ġpop ular
op t
ar ies
B ig
4 9
ĠA ward
Ġal ready
I I
ol ic
) ^
Ġs outh
b it
yn am
Ġprov ided
en ed
Ġpot ential
C A
Ġ ill
ĠP al
n ew
Ġt reat
Ġdist ribution
Ġhig her
ell ing
Ġappro ach
ĠG eneral
Ġunder stand
a ign
ition al
Ġp ress
ĠT r
ĠP aul
Ġg ot
ĠJ ames
ym bol
h ood
Ġcont ract
. ~\
Ġp aper
Ġl oss
err or
] $
Ġsub ject
Ġele ction
Ġl ot
Ġresp ons
is l
ear ch
ĠF irst
h a
Ġcons ist
Ġvill age
Ġl ower
over line
am s
Ġthe ory
t ab
L et
Ġpart y
Ġt ax
& \
199 8
Ġs elf
b ased
it ar
ĠC O
Ġatt empt
h old
ĠA nt
ĠV al
ut es
B y
4 4
im um
Ġmon ths
ĠB el
ĠR ober
Ġinvest ig
b ra
n o
ĠBl ack
Ġwhe ther
Ġacc ording
im ent
ĠCh ar
Ġsom ething
l og
Ġset t
Ġre ason
l i
Ġab s
am ent
ĠDav id
ĠH ol
Ġsh all
r ate
ĠAss ociation
e le
Ġon ce
it z
Ġgra du
ĠTh om
Ġh old
is k
ord er
Ġd est
ĠStre et
) (
Ġt ry
ĠC ont
Ġh y
Ġdirect or
Ġcomp anies
v ille
Ġcond itions
Ġh on
Ġpro duc
Ġcour se
Ġcount ries
Ġper cent
ĠW ashington
ort hern
5 5
an ish
Ã ¼
Ġapp oint
ĠThe n
Ġcl ose
Ġfe atures
ĠEurop e
ĠU K
Ġre v
ly ing
Ġk ind
Ġcon duct
. }
Ġse qu
The re
Ġanal ysis
s w
Ġw rote
ic les
f rak
Ġb ody
ĠArm y
ul a
ĠG od
air s
ĠM or
Ġm agn
Ġrequ ire
Ġconc ern
Ã Ń
P eople
Ġexper ience
Ġ rac
ĠGe orge
med i
Ġestabl ish
Ġk ey
ĠP ort
Ġmed ia
ag o
Ġd ou
[ \
Ġw r
Ġoff ice
om s
he ad
ĠR ich
Ġmat ch
ĠC ong
in ary
I f
Ġl anguage
ĠR ed
ic ult
Ġdevelop ed
198 0
ou ther
ra b
Ġass um
it ect
ĠM al
anc ial
Ġj ud
Ġc y
ĠM ark
b olds
er ve
}, \
ĠV ol
Ġf ig
} ).
Ġde cl
om p
g ed
le te
Ġent ire
Ġen vironment
Ġdeg ree
Ġr ather
L iving
bolds ymbol
ect or
Ġreg ular
Ġep is
A N
Ġch all
Ġdeath s
outher n
18 6
Ġ- -
Ġp ers
Ġproper ty
Ġv ict
ens ive
Ġappro xim
Ġn ecess
Ġto day
ve c
e es
Ġfe el
Ġk eep
199 6
ĠInstit ute
Ġ *
C l
Ġm ale
ĠP at
y a
Ġad minist
Ġl ost
Ġal most
Ġcl os
ĠL ou
Ġj ob
app a
ĠGerm any
Ġd om
Ġstand ard
Ġro ad
ĠD on
h line
Ġbel ow
Ġsh ip
E S
ĠO lymp
Ġl iter
ra el
et ric
4 7
) )
ab les
ul ations
Ġrel ated
as ons
4 6
ĠE m
Ġs em
Ġquest ion
Ġdef in
ve y
Ġp arent
Ġb ase
199 7
ĠComp any
Ġwh ose
d en
v an
id a
math frak
. )
um p
ĠR oman
Ġrequ ired
Ġl ove
ad es
ĠQ ue
o ch
Ġrel ig
Ġf all
Ġm ax
ĠUn ion
Ġde al
} }$
Ġup on
Ġsat isf
wo od
um er
ian ce
Ġfre qu
T o
ĠS im
Ġ #
ber g
Ġt rack
Ġen ough
ĠF rom
ĠG roup
ĠM r
Ġwe bsite
Ġobtain ed
o id
ĠH all
ar c
ld ots
Ġe ver
al le
o res
ch an
Ġass ist
ach ing
Ġ `
0 5
Ġreg ard
Ġs ound
0 1
ac hes
l angle
9 9
Ġt ext
O N
A fter
ra z
ĠV ir
Ġcomp on
ec ially
20 22
oc al
b and
Ġlead ing
ri an
Ġm arried
m ult
Ġiss ues
ww w
Ġl iving
osp ital
Ġg e
Ġrelations hip
av es
Ġl o
it es
Ġm other
Ġindust ry
Ġprofess ional
Ġch urch
Ġfam il
ĠM ore
u ff
Ġpol icy
18 7
Ġdeb ut
Ġd one
Ġindivid ual
Ġpr inc
C on
H istory
Ġth us
Ġm em
tt ps
Ġv ia
Ġpos itive
iz ing
Ġsuccess ful
Ġben ef
and id
st on
Ġs uper
ĠL et
N ew
P s
S h
Ġrele ase
Ġhim self
Ġcontin ued
Ġn atural
ĠC ons
ampl es
ĠM art
Ġimp act
i res
g y
Ġjo ined
Ġs af
I S
Ġm id
Ġm ag
is ions
Ġa ud
ĠP ress
P l
ot a
W h
i ences
Ġassoci ated
Ġcamp aign
ines e
Ġinclud es
Ġm oney
Ġla un
Ġpriv ate
Ġt aking
Ġt en
Ġg overn
ĠI m
ou l
Ġac cept
g in
199 5
Ġconst ruction
Ġcont ribut
Ġtem per
cept ion
Ġ esp
ĠH am
~ ~
Ġpolit ic
d d
Ġse x
a ur
ar ter
Ġim m
ĠD irect
e ared
yp e
ip al
it ch
Ġf av
Ġp e
n own
Ġf ront
ĠN e
Ġinst it
ĠM ary
Ġmod ern
end er
Ġc ut
ar ily
Ġfun ctions
Ġcontin u
Ġdiff icult
Ġperson al
led ge
ree k
Ġf ight
k y
Ġschool s
Ġnum er
Ġw id
A C
Ġiss ue
ple ment
Ġar r
Ġam ount
is es
ĠB er
ect ions
ĠS ociety
Ġb oard
r up
Ġd ensity
Ġde part
ĠR oyal
Ġsol ution
ist ics
ĠJ ew
ĠDiv ision
Ġconst ant
nd er
Ġind ependent
Ġw ind
Ġinvol ved
L ambda
in ter
ĠHe alth
Ġin j
ĠM usic
k appa
Ġlim it
ĠM ex
Ġadd ed
rac y
Ġsong s
s m
Ġpol ice
197 0
P hi
199 4
Ġpri or
ĠC ap
Ġnov el
m on
an i
Ġthough t
Ġrespect ively
ĠAr ch
Ġc op
iv ity
ĠT rans
ĠAfric a
and s
ĠAfric an
Ġadd ress
Ġl ay
qu e
ag ed
Ġpropos ed
Ġra ce
Ġw ife
ĠT V
\ |
Ġcond ition
ĠAc adem
ot imes
Ġdec ision
A t
Ġm akes
ell ow
ul ated
r as
ĠS um
it ude
m od
cit ep
Ġgl obal
Ġaddition al
ĠS ince
Ġrec ent
Ġim pl
oun ter
ri ate
Ġt arg
on se
Ġp ath
ript ion
mb ox
Ġbeh av
Ġbro ther
Ġra il
Ġto ld
Ġstr ateg
Ġv ir
< /
ĠG reen
us ed
Ġne igh
A r
ber t
i ers
re am
ĠM ount
Ġteam s
Ġs ource
ĠD o
Ġtr ue
sel ves
ĠD uring
9 5
Ġh ous
ĠJ ust
enc ed
Ġe arl
ĠAng el
ĠChrist ian
pt ion
arl iam
el t
Ġd augh
l am
ed y
Ġreturn ed
Ġincre ase
Ġl ines
199 2
Ġf ire
ĠJ ack
Ġc ivil
Ġst age
Ġt alk
Ġthrough out
d raw
n abl
m ing
Ġb o
u it
Ġcent ral
ĠWh ile
Ġcle ar
uc le
Ġinit ial
Ġchang es
f ess
a ult
* *
Ġev idence
Ġocc ur
Ġac qu
ist ry
ĠIn ter
Ġdef e
Ġn ight
Ġgo al
Ġesp ecially
Ġal though
ĠT ex
Ġits elf
ensure math
rad e
Ã ¶
ex p
ĠN ot
ec k
m ark
Ġpro p
Ġoffic ial
nabl a
un t
rum p
Ġopp ortun
arliam ent
sub set
Ġplay ing
Ġlarg est
ĠSt e
ĠAustral ian
Ġconst it
Ġbook s
g o
tt p
ĠG o
ann el
Ġr ank
Ġem b
ĠC ath
ĠIs rael
ur k
199 3
an ks
Ġnew s
ĠD i
itt ing
id ents
b b
Ġwh y
Ġopen ed
m ar
Ġc andid
} )$
H ow
ĠNew s
Ġperform ed
Ġal gorithm
Ġmom ent
Ġf ood
k et
ĠM iss
Ġtra vel
op p
ffic ient
ĠComm ission
text it
Ġg raph
ran ch
Ġeconom ic
us p
Ġqu al
est ival
p d
Ġdisc over
ĠT ra
u als
O R
qu are
Ġconst ruct
ĠR oad
ecut ive
Ġwh ite
Ġcurrent ly
ens ion
c irc
c or
m it
s f
r ast
l ied
Ġinst ead
ro y
ĠB ay
Ġlik ely
l ike
ĠM useum
ele b
P h
duc ation
Ġt er
ac c
ĠCanad ian
Ġspec ific
g color
ĠWh ite
Ġw ords
Ġh or
ĠM ad
5 00
Ġin sp
Ġstud ies
r d
at al
Ġc ust
Ġout side
Ġcomplet ed
ough t
\ [
Ġan g
Ġ >
Ġwho le
Ġm ap
anc ed
ĠCl ub
c ont
ĠD ay
ĠMich ael
ĠN or
4 2
I C
ĠH en
6 6
Ġmat ter
ic ro
Ġcap ital
Ġro ck
l or
Ġtrans fer
Ġg ave
Ġexp ected
th m
Ġd am
Ġcan not
ĠSc ience
. \
ĠL eg
ĠRes earch
mer c
c ell
u ild
non umber
Ġph ase
Ġrad io
il ed
ord in
ĠS ing
ĠY ear
Ġc ast
ĠO ff
ĠG reat
ĠMin ister
rough t
on a
Ġfor ce
Ġst aff
ĠL em
Ġe ight
Ġto ur
ĠRober t
ĠIs land
Ġs up
} ),
ect ive
Ġim plement
re y
b ers
5 7
Ġintro duced
Ġrecord ed
g en
ĠB ook
iz ations
ib rary
n el
Ġact ually
b urg
Ġcon v
ĠCh inese
ĠS ection
199 1
Ġt ro
}} {
Ġ ess
ĠDem ocr
Ġleg al
Ġcomp lete
rem e
0 8
re c
Ġcol lect
ĠCong ress
ĠRuss ian
Ġ Ã
ire ction
Ġsign ed
Ġl og
0 6
ĠFran c
Ġdid n
Ġim age
Ġl ength
wh ich
Ġapp eared
Ġbeh ind
ig en
b ook
Ġdoc ument
d own
Ġe mer
ret ary
Ġc apt
ĠTex as
ĠS am
Ġsc ient
en ing
Ġde ep
5 8
Ġprov ides
st e
Ġb gcolor
Ġ )
Ġdesign ed
Ġb ring
Ġlarg er
\ %
port s
Ġmon th
ĠA lex
et imes
196 0
Ġfin ancial
Ġproblem s
Ġwrit ing
ol it
Ġstud ent
ĠB r
ĠK h
Ġcent er
Ġlearn ing
w ise
u z
Ġequ ation
and om
S c
ĠS l
Ġc red
ult s
ol f
ĠCent ral
\ !
Ġd ate
Ġarch itect
e ff
Ġfollow ed
Ġtechn ology
4 3
est s
Ġdirect ed
Ġe arn
Ġst ri
ann ing
he t
S igma
Ġ vert
Ġbir th
ĠD ef
com m
ĠThom as
Ġbas is
A nd
Ġcal cul
Ġs aw
Ġbre ak
ri a
0 7
l ant
I nd
Ġmat rix
m ore
ĠM us
ĠW estern
Ġmult iple
a res
ĠĠĠĠĠĠĠĠ ĠĠĠ
g l
ĠH istory
ok e
Ġpresent ed
ĠK ore
ĠCar ol
Ġtrans l
E N
Ġsur v
ĠB est
Ġart icle
Ġide a
5 6
Ġsur face
Ġform ed
0 9
Ġpart s
ĠKing dom
in i
ĠS al
Ġcre ate
Ġy et
ĠB ill
Ġcor re
ĠComm ittee
ĠSc ott
alle l
I T
ĠT own
4 1
} -
F ig
Ġon line
r ish
n ov
Ġeffect s
ĠM ont
ĠW il
Ġre ve
Ġmanag ement
Ġp ain
y ing
ĠPro v
or ing
Ġs en
ĠVir gin
Ġele ments
Ġm ove
ens us
er c
Ġelect ed
u ra
ĠW hat
Ġj ournal
Ġpro of
uf act
Ġfor ces
Ġpre c
Ġun it
all s
Ġcorrespond ing
ĠG overnment
Ġc ateg
Ġparam eters
ĠS ome
k nown
Ġmethod s
umn i
ress ion
n y
ĠAcadem y
ov ed
W hen
Ġ und
st yle
ĠG old
Ġt akes
Ġr at
Ġfound ed
198 9
Ġsh are
ĠLou is
ak er
Ġpract ice
7 8
Ġse ven
Ġex hib
it iz
u ge
ĠF ound
as c
ĠP ublic
b ox
d ots
Ġcom es
ist an
Ġm us
o ice
U S
at ively
Ġcontin ue
ĠM od
ĠF ilm
az ine
ĠO p
k a
ĠIn c
vent ion
Ġcl osed
Ġn ormal
b ul
Ġf ul
Ġresp onse
E C
Ġd imens
wid et
Ġdep end
Ġsim ple
f fer
Ġmain tain
ĠF in
ĠJapan ese
Ġth ing
ĠB en
p rop
Ġdo ing
i os
ĠG rand
al a
ĠSm ith
Ġb ar
Ġcult ure
Ġthe refore
Ġp ric
Ġf ederal
ĠM ag
Ġg as
0 2
ĠM at
o o
p ly
ĠT rump
Ġf ace
Ġus ually
Ġex act
ĠM et
re land
Ġsc ience
ad a
at re
Ġfamil ies
198 8
d is
Ġpl aces
Ġl abel
t able
Ġappoint ed
ig ital
Ġm ention
ri al
ast ic
Ġmater ial
Ġeffect ive
ĠFl or
A L
re p
ĠB oard
inn er
| |
w rit
ĠL ist
ol s
sy ch
Ġs il
Ġincre asing
Ġd ram
ign ed
ĠH istor
ict or
em ic
rup t
/ \
Ġs ens
Ġs ense
il i
Ġprogram s
Ġanal y
Ġdel iver
Ġcont ains
Ġkill ed
Ġme chan
Ġk m
ĠR ad
\ ]
0 3
on ic
ĠM ac
enc ies
Ġmed ical
ĠW ork
Ġdaugh ter
widet ilde
Ġcommun ic
ĠTe chn
Ġp ark
ĠChar les
ĠD an
Ġdem onst
Ġvis it
b oard
ĠG ames
0 4
Ġg ives
Ġun ivers
Ġproper ties
Ġto wards
Ġp an
Ġb rought
m itted
ĠF ore
{ -
ĠI nt
Ġ q
Ġst ep
ĠL at
ro s
Ġim medi
ar io
A M
Ġthem selves
ad d
ĠComm un
Ġso ft
Ġallow ed
ch ange
en a
Ġm ar
Ġd ynam
un k
Ġd raw
A ll
5 9
] ,
Ġtarg et
A P
Ġsec urity
ic ago
om orph
Ġgrow th
all ed
Ġfri ends
Ġw oman
Ġact ive
un ction
G e
Ġcol lection
ed d
c ap
Ġfor ward
pr ime
pp ed
ut y
ĠCath olic
Ġobserv ed
com p
Ġorgan ization
merc ial
b our
ĠFran k
ous ly
Ġdis e
ra ction
ĠC he
l a
th let
w est
an o
8 8
Ġbelie ve
m id
ĠJ ose
Ġinter view
Ġart ists
Ġcomp ared
Ġcol lege
c os
Ġle ague
Ġneed s
Ġc eleb
Ġoper ations
Ġr isk
ĠL os
ĠS ur
z eta
at rix
h t
C C
} ;
Ġalbum s
ĠThe orem
ĠGe org
ow ers
Ġmov ement
Ġlong er
ĠZ eal
Ġor d
Ġn ature
Ġtrans port
Ġb ank
Ġl ives
Ġw ord
p e
Ġl ack
Ġst ated
Ġch arg
Ġbeg inning
S S
s cal
Ġrem ains
Ġbuild ings
Ġphys ical
Ġcon cept
ro ad
ĠAn n
Ġ` `
Ġth reat
Ġdec ided
Ġh ours
Ġso on
ĠS up
ĠD es
Ġdirect ly
6 4
D e
Ġve h
ĠR ock
ĠZeal and
Ġs ociety
cent ering
\ {
Ġev al
w ell
Ġg irl
Ġd at
ĠRec ords
Ġneed ed
ĠRich ard
Ġprevious ly
Ġearl ier
Ġlim ited
Ġh it
Ġ( $
Ġs usp
por ary
Ġn ation
Ġask ed
) =\
198 7
Ġsub sequ
ĠP eter
om a
is ation
ic it
Ġrec ently
Ġinter p
198 6
ur t
ĠR ob
Ġproduct s
Ġback ground
ĠG ra
ĠT or
Ġr andom
Ġun c
ĠItal ian
Ġfem ale
Ġgu itar
t r
Ġtrad e
ing u
r ative
Ġdist ance
Ġad opt
o z
at ur
m ission
Ġline ar
Ġco ach
ou d
ĠM ass
Ġw est
Ġcharact ers
Ġe ast
st ate
irc raft
ĠD el
as tern
y e
Ġequ ival
b re
Ġfact or
Ġactiv ities
Ġd irection
al ax
um ents
ĠW omen
et her
Ġwant ed
Ġb ur
ĠPar is
Ġad j
l ight
Ġpl ant
il s
m y
ĠE v
ĠH ill
Ġhe art
Ġpred ict
Ġs ch
} +
velop ment
E D
Ġexper im
Ġg re
Ġre b
ir it
Ġp urch
Ġnum bers
Ġst e
W ith
ĠC amp
ri ef
198 4
oy s
Ġscal e
Ġprim ary
Ġfri end
ĠP ri
Ġf arm
Ġnecess ary
9 8
Ġevent ually
Ġepis ode
Ġread ing
Ġd ed
Ġrest rict
ag ement
T e
Ġincre ased
p ose
ĠServ ice
Ġqu ick
Ġb all
Ġart ist
Ġknow ledge
L e
Ġg rant
Ġparticular ly
iz es
ag ing
Ġele ment
Ġl ink
Ġlead er
Ġan im
ĠO ther
ĠI reland
Ġal tern
ĠAcc ording
Ġst ars
Ġst ay
Ġun ique
or al
os ing
B A
Ġrem ain
emb ly
Ġp le
Ġbl ock
ad o
ĠR ail
Ġsp eak
} =\
it a
Ġpre m
i en
at form
Ġexp ect
Ġmeet ing
ĠRuss ia
ĠO f
Ġleg isl
) }\
198 5
5 2
vers e
C ol
tab ular
Ġb r
Ġun its
Ġman ufact
ov ers
Ġex ists
Ġocc up
ĠT w
Ġqu ality
Ġdist ribut
ĠFlor ida
V ID
Ġs ources
) ^{
Ġlaw s
Ġchall eng
Ġn ucle
ĠE q
Ġcou pl
ĠS uper
ĠE ducation
W hat
i ra
am ily
Ġ ut
Ġcom ing
7 7
in ct
ann ed
er ry
Ġsy mm
Ġm ess
erm an
Ġcomp ar
Ġg rand
em s
Ġfin ite
Ġus es
Ġ ver
Ġwe ight
Ġant i
il ton
Ġh olds
Ġcont ent
ail y
ĠO ffic
O ne
Ġmean ing
ĠPl ay
ĠCh icago
9 6
Ġtemper ature
Ġmov ie
ĠDirect or
Ġm ind
Ġnot e
ĠS ub
Ġcrit ical
Ġsim ply
ess ion
and ed
Ġeff ic
Ġparent s
ĠAngel es
Ġm ount
a it
Ġsub st
Ġb ox
Ġre ached
os en
Ġbecom es
s ing
Ġf irm
Ġlevel s
ĠP enn
5 1
Ġchang ed
Ġac adem
ma x
Ġgener ally
Ġrun ning
ĠVirgin ia
clus ion
ĠJ ournal
A cc
b on
F ilm
Ġparam eter
ĠSec ond
Ġ( )
Ġh ot
A d
ult ure
Ġc ell
ĠSum mer
5 4
Ġve ctor
ĠSp ec
u ct
Ġsp ent
' ,
ict ure
Ġcrit ic
ĠAr ts
ig an
Ġcust om
B ut
ĠSp anish
ĠB rown
ĠMex ico
p oint
ĠT om
Ġcont act
Ġdr ug
for ce
{ (
195 0
ify ing
Ġorig inally
Ġagre ement
Ġad apt
upp er
Ġtreat ment
Ġwrit er
= #
Ġte ac
; \
ar ian
ĠM el
ĠPro fess
Ġstre ng
if orm
t op
Ġqu ite
6 8
Ġcommun ities
Ġm unic
Ġhig hest
Ġcom ment
198 3
erv ation
R es
9 7
Ġm ur
ip l
Y ou
ov iet
Ġfore ign
ĠS un
raz il
Ġg un
ĠF ootball
ĠFor ce
Ġsc hem
ol k
Ġf ixed
Ġr ule
e ks
ud d
Ġpr ison
F L
Ġfin ished
ĠT imes
ĠTh us
Ġc ause
ans ion
ste in
ed om
Ġen j
Ġdiffer ence
Ġex cept
ĠĠĠĠ ĠĠ
ĠS ant
Ġa im
y r
' re
ĠO ut
Ġag o
ge bra
Ġdef ine
or por
ĠL ake
av al
Ġfield s
Ġg old
d ot
Ġloc ation
v est
Ġorig in
ĠOlymp ics
ĠP e
Ġwr ite
Ġb it
ir ing
Ġsu ffer
Ġcompet ition
cl ass
F rom
Ġtrad itional
i h
ĠB ank
Ġpro gress
Ġindivid uals
Ġz ero
z a
Ġnot ed
5 3
f oot
Ġm er
v ement
Ġp air
ĠHen ry
Ġfour th
Ġal umni
Ġse arch
Ġan c
Ġrem ained
Ġfootball ers
Ġmajor ity
ĠO b
augh t
Ġc itiz
Ġto urn
ĠV ictor
198 2
Ġcoll abor
g ing
ip s
Ġ& =
Ġsc en
Ġsupport ed
\\\\\\\\\\\\\\\\ \\\\\\\\\\\\\\\\
Ġstud ied
ĠS ocial
Ġsequ ence
ĠD ec
ot o
en ge
Ġequ al
Ġsp eed
Ã ¤
ĠSt ar
ĠD is
Ġsom etimes
Ġst ations
ac ity
ĠCl ass
a ud
ish op
Ġwork ers
Ġlist ed
Ġreve al
Ġp en
Ġsc reen
Ġelect ron
Ġset s
Ġnear ly
ĠI ll
le vel
Ġatt ention
and a
ec ause
ven ue
b ur
Ġpl aced
Ġl ic
ĠT urk
or ial
f ill
Ġim ages
ĠItal y
Ġas p
ell a
ie ce
Ġstat ement
Ġmin or
Ġwe eks
ĠP ost
h ing
ĠSer ies
197 9
c up
Ġsit uation
$ )
ĠC arl
ĠB re
Ġcont ext
ag on
Ġcomp os
C O
S ince
6 7
Ġrepresent ed
Ġw ays
Ġaward ed
Ġrul es
sh ire
}^ \
Ġappear s
Ġover all
s hip
Ġan sw
Ġro om
sc ript
Ġt rac
ollow ing
wide hat
ub e
ac ing
Ġst ories
Ġrepl aced
ĠL and
ell ig
ĠO ur
M S
Ġel se
Ġsmall er
Ġcon clud
n ce
ut ch
. [
er ia
. ~
Ġrelig ious
Ġw ide
ĠOff ice
Ġsum mer
I s
T V
r ants
Ġapproxim ately
ĠA re
Ġs ure
Ġd omin
b an
ic ol
ot ion
app ro
ĠD en
C om
ĠAl though
Ġinc ome
Ġsay ing
Ġf ram
cd ots
E ng
ĠN ow
B l
Ġform s
Ġprob ably
ĠM er
Ġm ach
Ġpre vent
ĠB o
Ġdoes n
Ġapplic ation
Ġlook ing
Ġcl ust
Ġb ad
Ġw or
ĠJ ud
Ġoffic er
}\ ,
Ġproject s
Ġpart n
act ions
ĠSc ot
ĠL ife
198 1
Ġfeature d
ill er
Ġp aint
f ect
Ġa ircraft
a ith
Ġw alk
ĠM ost
Ġrec over
n es
ĠI ran
ĠPro gram
Ġph il
ĠCarol ina
av en
ic ated
Ġpl ans
ĠO h
ĠFound ation
Ġtyp es
Ġdes p
Ġm ission
Ġse lected
S he
Ġapp lied
ran ge
Ġb illion
Ġstart ing
Ġchar ge
Ġcaus ed
Ġwh om
ĠFig ure
st ar
k m
}} (
Ġstruct ures
v is
anc y
R ec
ĠSt at
F A
arri age
lem ma
Ġal leg
s l
ĠSw ed
ĠA rab
Ġv oc
Ġsol utions
Ġrec omm
Ġle ave
Ġ ult
Ġprob ability
Ġseem s
Ġsch ol
ĠR et
ĠM o
Ġd ark
l ig
ĠP eople
P S
ĠIt s
Ġ ~
Ġplay s
ĠE mp
Ġm ix
Ġab ility
Ġdeterm ined
ĠSy stem
Ġass ume
k ing
A ss
hest er
Ġcho ice
Ġsp orts
ab it
Ġh ol
v ant
Ġin put
ĠP an
az z
Ġ error
Ġann ual
Ġch art
Ġgo als
O S
et te
ĠC ast
tern et
Ġdest roy
ĠT wo
ĠCO VID
Ġh um
ĠS ol
ian a
Ġf if
Ġsing er
c el
Ġsp l
Ġsh ot
Ġill ust
Ġ eth
ĠF estival
Ġcom mercial
}_ \
ock ey
Ġp ack
Ġpl atform
Ġdetail s
ĠD u
197 6
Ġ ir
k en
Ġrun s
ang er
Ġallow s
Ġ Ð
ic an
h y
Ġpro ced
Ġvari ety
Ġt able
197 8
c ome
ap ter
c her
Ġsur round
-- --
Ġstat us
n ote
k i
197 2
text width
Ġmed al
Ġfl ow
Ġche ck
n s
ent h
Ġinflu ence
l oad
Ġcol or
Ġ\ {
ĠR el
Ġp eak
Ġdefin ition
ĠF re
u a
ĠB ur
pd f
Ġpass ed
Ġbel ong
q quad
f in
ĠMart in
ĠSec retary
Ġc hem
Ġex am
ĠP et
Ġ ens
us band
Ġbehav ior
Ġ upper
Ġpart ies
B S
Ġn ames
Ġp age
Ġmin utes
r ich
Ġfig ure
Ġqu arter
ĠOr der
Ġhigh ly
ed ia
Ġtrans form
Ġbound ary
Ġend ed
ĠCh ief
} |
in em
Ġco ordin
& =
und red
ult ural
ĠO per
Ġoper ator
Ġed ge
Ġget ting
Ġquant um
it ation
ag ram
ent ially
3 00
ad y
ĠC D
a o
ot ing
ur rent
Ġpres ence
oc ks
}) \
Ġp oor
us ion
ans as
Ġm iddle
Ġtry ing
L ist
197 4
à ¤
Ġeff orts
Ġsp ort
c an
Ġin side
Ġp urs
h ouse
197 7
ur ation
es h
Ġv ote
Ġp ick
im in
Ġbas ket
Ġt al
Ġtra in
Ġl atter
r at
Ġde ad
bul let
ott om
Ġg alax
Ġsp in
F C
Ġpat ients
Ġorgan izations
197 5
}^{ (
m iss
Ġres ources
Ġch ief
Ġneigh bor
Ġsc hed
Ġfav or
Ġinterp ret
as ion
yl van
Ġsen ior
ra int
Ġreg ions
A A
Ġpur pose
o oth
ot ic
R E
ĠO ver
ent y
ĠP arliament
ri z
ĠU nder
ee k
ĠA v
........ ........
Ġdec re
ĠJose ph
Ġenj oy
ap ers
Ġbroad cast
Ġl ived
d o
Ġinst rum
Ġrequ est
ĠP ac
r or
Ġelect ric
ĠL iber
Ġc ode
ĠDe velopment
Ġrespons ible
Ġup d
Ġmiss ing
Ġs ample
ĠCol umb
) -
ĠIs lam
Ps i
Ġlead ers
Ġmus ical
ter m
Ġ er
ĠS il
Ġh op
Ġser ious
Ġst ra
on om
Ġhelp ed
} ]
w ar
Ġpro ve
Ġset ting
ĠM ur
ĠA wards
Ġatt ract
Ġsc ore
Ġh ospital
Ġconn ected
Ġd u
t ra
ic ine
ĠO l
Ġev olution
Ġful ly
196 8
ĠM os
Ã ¨
ĠK n
Ġrel ation
isc o
Ġ @
__ __
ĠO ld
ĠS aint
Ġext ended
ian o
ruct ure
Ġmax imum
ĠW ood
ib ly
Ġaut om
Ġcar ry
Ġcomm ission
Ġsome one
197 3
7 6
ĠEng ine
Ġ esc
^ +
d ro
Ġf r
y an
Ġoper ation
N A
Ġopen ing
Ä ģ
Ġapp rop
ĠAt lant
8 5
cl es
ĠN avy
Ġdou ble
Ġpat tern
Ġb rief
Ġl at
ĠL ove
Ġb rand
g ment
ing er
is her
Ġsc ored
ĠG overn
Ġw inning
ĠM il
ĠS und
Ġra p
{ {\
ĠI rish
ĠLem ma
Ġrecord s
Ġsp read
Ġc ounter
ylvan ia
it ter
ĠUS A
rib ute
math sf
at o
i as
Ġbe y
ar p
th at
ĠR o
Ġfin ally
J ohn
ĠB ig
Ġapp ly
w ed
Ġactiv ity
Ġco ast
Ġmanag er
Ġdise ase
ect ing
Ġre ach
ct ors
Ġf air
Ġpro duce
c a
os h
Ġpolitic ian
Ġdis s
stit ution
Ġtrans ition
Ġwrit ers
ĠJ im
ĠL ee
Ġbey ond
Ġter rit
ĠB usiness
ĠS k
Ġconf lic
ĠYou ng
Ġar rest
Ġser ve
id ae
}\ \
ĠCh ild
l ong
H E
Ġopportun ity
ĠE conom
Ġquest ions
Ġact or
Ġst op
ĠS oviet
Ġtourn ament
Ġk ing
ĠP re
Ġinterest ing
ers ey
d imens
Ġh usband
ew ork
Ġstud io
i ro
Ġ$ (\
el ine
ĠB razil
Ġsy mb
Ġgre ater
Ġbasket ball
Ġro w
ĠL ord
Ġf it
ef ul
Ġturn ed
Ġch annel
Ġw ave
ĠT our
ob ile
ĠH ere
' $
in y
Ġro b
197 1
196 9
ĠC ivil
ĠJ es
ĠN orthern
ed s
m en
ĠF e
Ġnot hing
ĠJew ish
is hes
Ġenc ou
Ġtri al
Ġcon ver
Ġnew sp
Ġsign al
ad ium
Ġb al
os oph
ĠH aw
k ins
ĠG en
Ġbecom ing
air man
pl it
Ġpress ure
im b
ag er
it able
Ġb attle
Ġo il
ĠA tt
Ġlaun ched
Ġresp ond
in f
Ġcorre ct
ĠE arth
Ġdiv ision
Ġcol umn
Ġcor rel
scal e
Ġra ised
em porary
h aps
ill a
Ġrefer red
ol a
Ġestim ated
ĠSp ace
ou ri
w a
orn ing
ĠSp ain
Ġnumer ous
Ġhistor ical
Ġdepart ment
Ġpr int
194 0
Ġmur der
Ġatt ended
Ġresult ing
Ġadminist ration
ĠH uman
ĠP o
, -
ann er
g ent
ost on
ĠT er
Ġed ition
Ġdesp ite
Ġwe ak
w an
Ġun ion
Ġun iversity
cit et
ĠH el
Ġinit i
ĠS pr
Ġdou b
Ġw atch
or ter
Ġliter ature
Ġb us
ĠS upp
Ġany thing
ĠJ o
Ġprov iding
gy pt
C D
ĠBrit ain
( {\
Ġp p
ĠM a
E arly
" >
ĠAs ia
ĠG all
ĠII I
ma z
ĠP rop
ress ed
Ġf ast
9 3
are er
ĠPro t
Ġpre p
Ġcon sequ
9 4
Ġact ress
R A
ĠRev iew
Ġth ous
erv ed
Ġc ities
Ġrepresent ation
Ġmost ly
i ant
Ġre duced
Ġcult ural
Ġcor por
s ylvania
Ġg iving
D uring
M A
8 7
ill ed
ug by
al y
uss ian
ĠW ales
id ers
Ġequ ations
Ġgo es
ĠVal ley
19 30
m as
Ġc arried
8 6
Ġpro ceed
Ġis land
Ġcompon ents
196 7
Ġimmedi ately
Ġsh oot
he ast
Ġold er
Ġed itor
Ġcomp l
194 5
ĠE lect
} +\
ĠThe refore
9 2
ain e
ĠP ak
b ody
ĠJ ul
C an
Ġcomm and
Ġpe ace
ĠB i
Ġcap acity
esp ite
Ġrem aining
ĠIn st
og ue
n am
ĠD ou
ĠF ederal
S o
ur ance
equ iv
Ġr an
Ġfor ced
Ġrece ive
Ġ ensure
ee ch
ult y
Ġdis play
ĠG r
ĠU p
Ġ( "
Ġsepar ate
Ġw ood
Ġexist ing
ef ore
sm all
ĠL u
ĠH ot
at ers
Ġmov ing
Ġclass es
Ġv an
Ġmention ed
ĠE r
Ġident ified
x space
Ġon es
ren ce
Ġf elt
anc ing
ism s
Ġclass ical
er em
ĠT re
Ġident ity
Ġfact ors
Ġfam ous
Ġcou ple
ĠB ob
Ġoffic ers
Ġden ote
ĠDemocr atic
Ġar rang
Ġpol ic
Ġ& \
Ġcons ists
ĠJohn son
Ġestablish ments
l o
Ġcomplet ely
Ġquick ly
ĠEmp ire
ĠC E
Ġoffic ials
or ation
g s
Ġevery thing
sk i
Ġ â
ĠT ime
Ġeconom y
Ġr iver
Ġopt im
' m
u an
Ġsaf ety
stand ing
Ġhe avy
Ġcompon ent
Ġim pos
Ġro t
ell ed
Ġcount y
Ġneg ative
" )
h ttps
Ġass ess
Ġobject s
Ġs outhern
ru le
ĠGeorg ia
196 4
Ġrefer ence
Ġstr ugg
op l
urb an
Ġse asons
Ġin form
ĉĉ ĉĉ
Ġcl imate
Ġm aster
Ġp sych
Ġs ector
ĠSen ate
Ġbe aut
Ġv el
ĠS outhern
Ġh ttps
ĠL ong
Ġcomput er
m ond
Ġn orthern
Ġoffer ed
ound s
Ġcent re
S e
Ġgrow ing
Ġfail ed
Ġmeas ures
ĠG ood
Ġh undred
at i
t rans
Ġh arm
ip ality
or a
Ġsu fficient
I nt
in et
Ġmult i
Ġj oint
ĠO x
Ġtr ust
iqu es
ĠĠĠĠĠĠĠĠĠĠĠĠĠĠĠĠ ĠĠĠĠĠĠĠĠĠĠĠĠĠĠĠĠ
Ġproduc er
Ġdef end
Ġown ed
Ġsim pl
ĠAss embly
ĠChampionship s
ĠF red
Ġm is
re te
ĠTe am
ĠÂ £
Ġcitiz ens
Ġt ell
per p
Ġimpro ve
Ġeas y
ĠS ir
Ġm arriage
Ġclaim s
Ġcont roll
Ġappear ance
s in
) ]
Ġ ...
Ġt ask
ĠThe ir
Ġdis p
y er
196 5
ĠPenn sylvania
N N
ari ant
if ically
Ġy ield
Ġex ecutive
amp ion
ne q
Ġlet ter
Ġg reen
7 2
Ġsl ow
ĠJust ice
ul s
Ã³ n
Ġp aid
ĠJ ones
Ġne ut
ĠF ort
Ġs quare
ĠK e
N ot
Ġb ill
Ġmag azine
ri ev
Ġref lect
g u
ris is
dimens ional
in os
Ġequival ent
} :
d s
i able
N o
od ay
9 1
Ġn ine
Ġch ampionship
Ġsc ene
Ġiss ued
E T
ĠL ibrary
u ated
Ġch osen
Ġs al
Ġv oice
ce an
ri ed
) }{
ĠG reek
ra ge
P R
Acc ording
Ġn ode
ĠU N
Ġval id
ĠC ross
ĠCon n
ist ance
Ġshow ed
ar ia
h space
Ġcon vers
ĠT im
Ġext ra
I V
Ġcost s
ĠCent re
ind ent
Ġimpl ies
v a
Ġgener ated
ĠD et
Ġreport s
ĠH on
Ġvoc als
Ġexp ansion
D on
196 6
ĠG al
Ġmagn etic
the orem
ur ies
Ġr ates
Ġh yp
ĠT op
i Ä
il ing
Ġw orth
ĠMc C
Ġfore st
Ġcandid ate
Ġact ions
ĠC amb
ĠSup reme
res h
Ġf oot
ard en
ond er
| ^
it ors
} -\
ĠM any
Ġlead ership
ĠAmeric ans
ĠC am
Ġent ered
Ġp et
est ic
Ġunderstand ing
Ġt ree
19 20
k o
f rom
ĠM iddle
ĠCon ference
Ġcon cent
ĠMich igan
}} {\
g reg
Wh ile
ino is
im a
âĢĿ .
Ġbas ic
ist ers
Ġc ard
ĠU k
Ġd igital
I A
ĠI S
Ġlead s
ev en
I R
ĠJ ersey
oper at
Ġinst ance
et ts
Ġse a
ĠB as
N otes
pl ace
Ġbl ood
Ġcont ain
Ġrep e
ir med
Ġent er
Ġn orm
D A
Ġsl ight
Ġdeterm ine
it age
d i
Ġet c
ĉ Ċ
Ġmot ion
P A
pos ition
Eng lish
Ġsp irit
ĠAd d
sp an
ent ed
ĠUn ivers
Ġmet ric
Ġsex ual
Ġbelie ved
Ġvict im
operat orn
Ġres idents
Ġoff ers
ful ly
Ġd ro
uth ors
Ġs ales
Ġl if
ar ant
Ġvol ume
ĠOh io
Ġelect ions
ĠJ ac
ĠPac ific
O ther
ĠCor por
ĠWilliam s
sc r
ĠG a
ĠM ov
P r
ĠE gypt
operatorn ame
Ġest imate
Ġarm y
al i
Ġreg ional
Ġus er
Ġgener ation
ig ration
ĠB oston
hem at
Ġvel oc
ĠAs ian
Ġt im
Ġeas ily
ellig ence
Ġcons um
I m
Ġclaim ed
Ġop in
Ġth r
O r
sk ip
= =
Ġunc ertain
Ġdiscuss ed
ĠS ar
ĠIn f
or ney
Ġeff ort
Ġrel ative
ro om
t ical
Ġs ust
Ġh ope
epend ence
ĠA ff
b ury
Ġm icro
u ro
and emic
ĠHistor ic
ĠM em
Ġinit ially
Ġvict ory
d iv
Ġre n
ol ved
I L
Ġprofess or
ĠB attle
Ġvir t
sec ut
ĠTechn ology
Ġle aving
ĠFranc isco
Ġsoft ware
8 9
un ior
6 3
ear s
ĠL y
k er
ud get
c hest
Ġevery one
Ġl iber
Ġc orn
g ra
ĠPro ject
] \
Ġex c
Ġserv ing
ĠV er
ĠEx p
umer ate
ĠMus lim
Ġco e
Ġc ells
Ġspect rum
Ġrepl ace
Ġrat io
Ġexist ence
ad or
Ġpric e
ĠHam ilton
w in
Ġdom ain
ĠC r
Ġsit es
Ġstrateg y
Ġre duce
Ġus ers
Ġal gebra
Ġdram a
Ġsur pr
Ġexpress ion
ul ate
Ġrequ ires
ĠF C
Ġ- \
Ġun iform
Ġp il
Ġal one
ĠProv ince
ĠM ah
Ġg rad
ĠH ome
ul es
inn ers
Ġcan cer
og rap
par allel
6 2
Ġconn ection
Ġh ttp
Ġre form
Ġext rem
ran ce
ĠThe atre
ĠPhil ipp
ĠMan agement
Ġdat as
ĠSt ep
Ġconst raint
Ġdem and
Ġapplic ations
ĠF urther
erson al
Ġinc orpor
Ġro ute
Ġout put
Ġsub s
Ġschem e
ĠScot land
C omm
ĠOp en
h an
ister ed
ic ity
ach us
al se
Ġform ation
ak ers
ip ment
al o
s up
ĠAl so
ĠRad io
4 00
F F
] [
Ġbl ue
Ġthe orem
Ġconduct ed
ĠB ow
Ġrail way
ris on
A b
en umerate
ĠO k
ĠQue en
ic ks
bur gh
ĠH y
Ġb order
it ness
) }$
os m
\ ,\
enn is
e en
Ġstra ight
Å į
ĠN etwork
ĠM en
Ġm useum
l ies
Ġb ul
Ġl abor
" |
Ġre asons
if ul
ab eth
m ann
Ġinstit utions
Ġm ill
ad ing
Ġcateg ory
Ġcol on
Ġcover ed
in ition
Ġacadem ic
g est
ĠCh arl
Ġdefe ated
Ġjo in
Ġind ex
Ġemploy ees
ĠS ong
Ġm erg
el er
196 3
ĠIll inois
b a
ĠT ro
Ġc ensus
ak a
196 2
Ġdist inct
olog ies
Ġmat ches
ma il
ĠW ay
ĠBel g
Ġn omin
st r
ĠB et
Ġviol ence
ĠS and
' ve
Ġc am
ĠS ee
ĠT ri
ĠProfess or
8 4
Ġdr um
achus etts
Ġc ouncil
Ġother wise
Ġper fect
Ġcont rast
ĠL uc
Ġwe ap
F urther
appro x
l aw
ĠRepublic an
ist ed
Ġrele vant
ĠJ r
f it
d ag
at riate
Ġnucle ar
op y
Ġmater ials
Ġ$ -
Ġc ert
Ġim ag
Ð °
Ġmain ly
uild ing
Ġhe ard
Ġb att
Ġs n
un c
re es
B e
g n
as hed
ĠV an
Ġc ore
Ġpos itions
ra q
Ġa part
res ents
ad el
ĠB C
Ġyou th
Ġt ens
The n
i y
Ġex amples
Ġconstruct ed
item ize
C areer
ĠCommun ity
Ġauthor ity
ĠK ong
S P
Ġfe ed
ay lor
ĠM ax
Ġcho ose
$ }
Ġfac ilities
angu ages
6 1
ĠSpec ial
ĠE ll
Ġdiscover ed
7 1
E L
7 4
j a
ĠEd ward
8 3
ab s
ĠKore a
Ġfrequ ency
Ġcomb ined
Ġmin imum
ĠDe v
8 2
h ttp
au ge
i ate
ĠW all
Ġcontin ues
Ġr ise
Ġa st
Ġf ans
ĠR os
ir al
Ġadv ant
no indent
Ġin equ
ound ed
Ġrel atively
ab ilities
Ġder ived
Ġ ice
Ġact ors
ĠAd minist
ĠS om
Ġp iece
ĠB ul
6 9
s en
er ies
re al
Ġpro min
Ð ¾
Ġcont ribution
Ġearn ed
l anguage
Ġprocess es
ĠSh ow
r ical
ĠC ro
O T
ĠColumb ia
M C
ĠW al
Ġarchitect ure
Ġbeg in
ĠCo ast
ĠRep resent
ĠK ent
ĠU r
ĠW ater
am ing
Ġp oll
un ch
Ġmem ory
ĠServ ices
b o
Ġide as
Ġge om
Ġsol id
Ġprot ection
pos es
ĠSt an
z er
Ġpolit ics
ĠM u
ĠP rem
g roup
ĠEn ter
Ġrecord ing
Ġw estern
ĠR am
ĠH ospital
ac hel
ĠL ie
ĠSund ay
math scr
ĠE astern
) +
y es
ĠL ine
Ġhand s
7 9
Ġb ranch
Ġra re
Ġfund ing
Ġfre edom
Ġp andemic
od ies
O ur
7 3
ĠR h
How ever
Ġatt end
Ġv s
Ġs ister
Ġtyp ically
ĠT able
Ġexact ly
art ers
i ency
ĠB ern
Ġ\ |
194 4
N ow
Ġcl in
ell er
Ġoper ating
in ity
ĠR em
Ġav oid
8 1
Ġcon ference
196 1
M ore
Ġpan el
il arly
A m
G B
Ġsh ape
Ġart icles
r ations
Ġem p
ĠJ eff
ĠGovern or
S ec
Ġapprop riate
Ġnetwork s
ro vers
M y
ĠB oth
Ġenvironment al
ĠÂ §
ĠOr gan
Ġsh ift
Ġinvest ment
~ $
Ġfram ework
ĠMed ical
Ġsur vey
ĠD utch
Ġf le
Ġse at
ĠMass achusetts
am in
Ġrep resents
et ime
Ġcr ime
ĠE nd
v space
N ote
Ġf ell
E d
u ations
Ġrem oved
m l
M an
A pp
ĠA p
Ġrem ark
A D
Ġregard ing
oc ation
Film s
ĠPr ince
A ust
ĠStud ies
ĠF ield
Ġw a
u er
Ġadopt ed
ĠH or
ĠOx ford
og le
s ize
ash ion
C ont
Ġst ore
ym m
ĠJack son
ĠLat in
N e
ĠG i
Ġpolitic ians
\ }$
Ġse lect
Ġreveal ed
uck y
t d
el a
ĠW ind
Ġw ild
Ġsing les
ph y
Ġto uch
N ational
hen s
Ġcontinu ous
Ġpart ner
ĠJ oe
Ġint ended
ĠHe ad
r ates
ĠM id
& &
Ġfor t
Ġa x
ograph ic
Ġhous ing
Ġrap id
b i
Ġf aith
ĠPol and
ĠAnd rew
T S
}} _
en ant
Ġsh ared
o ir
Ġn ative
ipp ed
c ript
ĠPol ice
ĠM ajor
Ġd raft
Ã §
Ġm ut
un n
Ġmanag ed
ĠSt r
Ġin nov
Ġded icated
ĠG h
Ġsignificant ly
Ġdiscuss ion
Ġcle arly
D ef
ĠMed ia
ab our
Ġinterest ed
Ġres olution
Ġoper ated
ion e
Ġv ac
com ing
Ġa ware
Ġwr ong
Ġret ired
Ġequ ipment
ict ed
Ġprot ect
Ġcom edy
Ġcons ult
ĠC y
Ġexpress ed
Ġimport ance
ĠT em
T hat
t ic
ph as
F irst
il a
ĠBro ad
c ons
Ġtrad ition
Ġrem ember
ĠY our
ont o
il ly
P i
ĠBro ok
ĠN ote
ĠSec urity
yn om
Ġag ent
Ġvari ables
Ġfe at
we ight
Ġwas n
1 10
ay a
ĠE p
olog ist
ĠT est
Ġc rick
r ating
ĠCon st
194 8
Ġanc ient
Ġdec ades
Ġsm ooth
ĠK enn
ĠReg ister
Ġex change
Ġpl ot
u ing
195 6
Ġpl ane
Ġscient ific
erv ative
rel ated
Ġk ept
E n
I M
V ert
Ġtri ed
Ġa uthors
Ġpl anning
Ġc at
Ġaltern ative
ĠE ven
ĠH ung
ĠSe a
sp eople
cl aim
Ġpower ful
Ġder iv
195 9
Ġcre ating
Ġbusiness es
Ġto ward
pp er
under line
Ġg rew
it led
Ġrequire ments
on ed
le ase
d et
Ġt rib
195 8
Ġg ets
as y
te en
Ġarg ument
ĠE ach
Ġc ry
un te
Ġprim arily
Ġagre ed
am m
Ġcontribut ions
ov a
ĠBl ue
Ġinter action
ĠPort ug
] .
P ost
Ġact ing
aw a
Ġtrac ks
ĠSc iences
ĠR ef
ĠF our
ĠN ations
ĠK en
Ġm iles
C o
rid ay
Q u
ĠW ild
ot hes
ĠR ights
sk y
Ġen h
ĠC ard
}$ \
194 2
iz abeth
ib li
Ġa wards
Ġobserv ations
Ġhe nce
val ue
n ode
Ġthe rm
ĠC oll
Ġpur poses
ĠP ower
Ġar bit
ĠN ight
l ife
Ġpolic ies
Ġre ality
âĢĿ ,
ĠF ar
Ġperson nel
Ġsum m
go ing
ĠI raq
un ct
Ġform al
im ately
ĠH a
Ġcop y
C omp
Ġact ual
193 9
Ġcont est
Ġexpl icit
Ġacqu ired
Ġun known
Ġsp eech
Ġhous es
Ġgra v
Ġorder ed
Ġ era
ĠF orm
Ġst ock
( -
es ter
Ġus eful
ĠH ong
Ġhon or
C S
Ġdescrib e
Ġadv oc
Ġkn ew
Ġdimens ion
t rack
ird s
Ġbenef its
Ġattack s
Ġsuc ceed
ab y
Ġachie ved
L A
Ġfocus ed
M ar
Ġapp eal
Ġst eps
Ġin ternal
Ġconflic t
Ġconf irmed
Ġexper iment
ĠB ase
n orm
ĠL i
Ġrese arc
e z
Ġteac her
Ġe igen
Ġnot ice
Ġe arth
s plit
uc ed
Ġown er
ĠMin istry
Ġveloc ity
ĠL ittle
iÄ ĩ
Ġs quad
ĠR ay
ĠO nt
ĠV iet
Ġint ers
195 7
15 0
or ough
ĠPol it
e aking
am ental
us es
Ġb ass
Ġb oy
Ġdevelop ing
el d
Ġis n
Ġcomm ittee
Ġc risis
The se
Ġmult ip
Ġse lection
ĠI d
Ġsem i
Ġarr ived
ins on
Ġinvestig ation
L E
h ire
Ġhy per
Ġauthor ities
Ġme ant
Ġno ise
sp ec
ag s
Ġprof ile
Ġship s
ĠA ut
duc ing
Ġte aching
ĠP op
ĠB ang
Ġcomp osed
Ġm ixed
f ort
ĠDan iel
Ġcr im
Ġoper ators
ĠB ra
Ġstreng th
m ap
Ġwid ely
Ġdr ive
itz er
ĠM ot
Ġd aily
}} }
Ġchall enge
ic ed
Ġman if
wh ile
Ġschol ars
k in
igh ter
Ġstre et
Ġaud ience
ĠE U
Ġvis ual
ĠB al
ag raph
Ġachie ve
Ġmin ister
Ġmet al
Ġtro ops
pt on
t urb
Ġl ies
Ġn om
Un ited
Ġs ort
Ġconsist ent
ĠM ike
ra wn
g ence
Ġa p
ĠCon f
b ut
Ġm aps
Ġin h
194 1
ĠG ar
Ġlarg ely
tt y
Ġgen us
Ġany one
Ġ _{
T rans
Ġcomb ination
ĠG irl
Ġfl u
text rm
w er
am ber
Ġcirc um
Ġtechn ical
ors hip
A rt
l ines
Ġcre ation
Ġv acc
the n
Ġf ine
Ġm orning
Ġon to
Ġfund s
ĠScott ish
av a
ĠF und
Ġag ency
ĠIn formation
194 6
Ġent ry
Ġdis app
i est
Ġcre w
ap ed
Ġveh icle
Ġaccept ed
atur day
Ġtr uth
ĠB ecause
I P
Ġest ate
Ġlearn ed
on ia
Ġlaun ch
Ġabs ol
ĠĠĠĠĠĠĠĠ ĠĠĠĠĠĠĠ
Ġbenef it
ĠG re
Ġob vious
194 3
d r
os is
Ġsold iers
ĠĠĠĠĠĠĠĠ Ġ
Ġre tain
st one
Ġsubsequ ently
S ub
ĠJ ean
195 5
ĠPr ime
ĠSt and
Ġansw er
B rit
Ġdesc ription
ĠJ on
194 7
R ep
ĠPak istan
Ġsec ret
Ġem phas
Ġcompar ison
Ġrecogn ized
Ġag ric
Ġact s
H ere
Ġsp aces
Ġstand ards
Ġt end
Ġapp arent
g ency
ĠF amily
Ġform ula
Ġcommunic ation
Ġneighbor hood
Ġmach ine
oc cer
Ġw all
Ġclub s
eng er
Ġident ify
Ġsupp ly
Ġsuggest ed
S A
i ar
Ġcon fig
Ġmess age
ĠGu ard
ĠL im
j ection
ĠCol or
i ec
om er
Ġro ll
ak h
Ġext ension
eder ation
Ġl anguages
ĠN ig
ir us
S im
Ġp ull
Ġle tt
C H
os ure
B i
Ġh ar
Ġprov ed
osoph y
Ġfl at
195 2
ĠAlex ander
Ġslight ly
Ġtechn iques
Ġw inner
D F
E E
ric ts
ĠG ame
195 4
ul f
ĠF ace
^ -
k now
Ġnear by
Ġcomp act
Ġc arri
Ġfe et
Ġro les
Ġsubst ant
j i
Ġcrim inal
ĠM inn
Ġex erc
ĠM aster
Ġf il
enn es
ell ar
{ }
ĠCorpor ation
}^{ -
ĠComm on
Ġc ars
Ġt error
ĠC a
ĠGl obal
ĠInd ust
ig ation
Ġr ural
Ġmod e
ul ed
Ġch ance
Ġb omb
ific ations
ĠCor ps
Ġfl ux
u racy
ĠS ports
mult icol
Ġserv es
line ar
d ney
Ġcont ained
Ġdam age
Ġengine ering
Ġshow ing
or b
ĠWil son
Ġcy cl
Ġsk ills
Ġfl oor
a ug
Ġcomm it
Ġg auge
Ġstr ing
ul pt
multicol umn
f e
s ch
Ġb ridge
app ing
Ġm ole
Ġfig ures
Ġhapp ened
ĠE qu
Ġwe b
Ġpl anned
ĠB oy
id th
Ġreg ime
Ġorgan ized
Ġfac ility
Ġcont aining
ta il
ĠP ubl
ath an
min us
Ġres ident
Ġch ain
Ġprov ince
th is
Ġcur ve
Ġinterest s
Ġm arg
Ġ$\ {
th ur
Ġper haps
Ġmeas ured
Ġp hen
m s
ĠCl ark
Ġdif ferences
subset eq
p re
ĠL ew
Ġper man
Ð ¸
ĠBer lin
Ġtest ing
ĠB BC
adel ph
Ġaff ected
ill ing
r ass
ĠC irc
195 3
Ġdiv ided
Ġfootball er
Ġexper i
int on
M ed
Ġs amples
{ $
es ota
Ġhe ar
ant ry
Ð µ
Ġ urban
id el
Ġjust ice
Ġnewsp aper
t ype
Ġr ing
ĠR od
194 9
Ġfif th
ĠOnt ario
Ġass ociation
Ġ\ ;
back ground
Ġindust rial
Ġnot es
act ive
ĠJes us
Ġpol ynom
Ã ±
l n
ob s
x y
ĠB ell
Ġexperim ents
are n
Ġpro te
ro g
E M
Ġ ign
Ġp ra
Ġallow ing
ĠW ell
ĠT aylor
idd en
Ġun s
Ġhe ight
D P
Ġd rop
a is
Ġcont rovers
b ec
Ġencou rag
am il
as ks
Ġbase ball
ether lands
og s
Ġn ar
w ater
we et
Ġexp and
ze ch
Ġco al
it ely
Ġincre ases
adelph ia
Ġfind ing
n ic
Ġh uge
< \
Ġfail ure
Ġhy dro
ĠCh ris
I G
rast ructure
Ġalong side
Ġs ections
ĠĠ ĠĊ
ĠRev olution
Ġcandid ates
ĠU l
R C
Ġoccur red
ĠM ond
ĠPri ze
ĠD isc
ic ial
Ġassist ant
Ġem ission
ĠP en
T C
Ġsc atter
Ġbe at
omorph ism
ĠSt ation
S C
Ġa thlet
I ON
P op
o is
Ġb udget
Ġd oll
mult i
Ġlay er
ĠN Y
ens es
ad er
Ġcall s
att ers
ĠB rad
Ġspl it
h ar
Ġstat istics
Ġf ellow
ĠC at
Ġdist ingu
Ġepis odes
) |
The y
riev ed
Ġn or
un a
Ġpl ants
Ġdef ense
Ġass igned
Ġex ecut
Ġwid th
R O
ĠU s
The ta
at ically
Ġle aves
ĠIs lands
Ġvari able
Ġrest aur
Ġview s
Ġexper t
Ġprot est
ant ic
ur er
Ġtra ffic
Ġdes cent
Ġun f
Ġexpl ained
M ay
Ġpers p
195 1
Ġro ugh
ĠF riday
ĠPol icy
ĠRail way
Ġcle an
ĠR og
Ġp icture
} /
Ġproced ure
Ġg ain
i ary
ĠL ater
ĠI ss
} '
ang ing
Ġd ual
Ġb ottom
oun ce
ran k
ĠVictor ia
edd ing
ĠW eek
ĠEl izabeth
Ġjob s
h olds
ĠC orn
our ney
Å ¡
Ġen em
ĠCon stitution
Ġhistor ic
ĠEn ergy
r ons
Ġbound ed
p an
ĠR ome
ly n
ar ry
Ġgradu ated
pro d
ri e
ĠA uthor
ĠV ill
S U
as ure
eg o
Ġad vert
Ġmass ive
v in
ĠB u
% )
Ġopin ion
Ġbel ief
_ *
Ġchalleng es
Ġd ial
big g
h u
se y
Ġdi agram
ĠKore an
el ess
ĠTor onto
ĠC ub
ost er
Ġfl ight
^{ -\
ĠP ers
ra ine
Ġappro ved
ĠE st
Ġs ides
Ġchem ical
Ġsy nt
Ġv en
ĠAs h
Ġdynam ics
Ġjud ge
ip les
ru it
ig rants
ud es
ĠChrist mas
ĠB a
Ġc ool
ĠB ol
ĠTh ree
Ġcy cle
Ġh ockey
Ġopportun ities
S ome
Ġdom estic
Ġeas tern
Ġinstit ution
ĠB and
Ġadminist rative
Ġmot or
Ġv on
Ġ id
ĠC reek
a ver
Ġexperim ental
c are
ĠW ho
ĠMore over
Ġtransfer red
og en
Ġanim als
Ġco oper
se ud
foot note
S E
ĠOlymp ic
ĠK ar
Ġ err
Ġadv ance
Ġ$ |
ow a
ap h
opl us
od d
ĠAr gent
ĠA venue
Ġcon vert
ons in
th rop
ur ches
ly wood
ew idth
comm and
Ġent ertain
Ġbeg ins
D E
W ill
Ġfeat uring
ĠS her
Ġassum ed
Ġag ree
Ġinsp ired
m es
ro duction
Ġbu y
p ol
ĠPol ish
1 20
ĠE very
19 18
isc onsin
Ġw itness
ĠA k
ut ed
Ġd ance
per ial
le ep
A F
S O
ĠPl an
ĠA M
S R
ĠTr ust
fer red
Ġre ject
Ġc reat
Ġwe alth
text tt
}} _{
Ġpol y
ask a
ĠL abor
c ond
d ist
m at
ĠW alk
Ġpartn ership
ĠIn ternet
Ġneg ot
Ġd anger
Ġd ivers
H is
ĠF ire
Ġpartic les
E l
ĠPh ys
Ġtra ined
ĉĉ ĉ
Ġpre par
writ er
l ers
Ġp owers
Ġadvant age
Ġrec ip
Ġprinc ipal
Ġcommon ly
ĠEx ecutive
Ġrelig ion
Ġlat est
ict ures
Ġclass ification
ric s
Ġgrant ed
} ~~
Ġcamp us
y o
ut t
ay er
opp ing
Ġbehav i
Ġpromin ent
ĠA st
ĠF air
Ġacc omp
ĠL ight
or i
Ġ( $\
Ġinj ury
ĠAn other
Ġ il
set minus
ĠOb ama
Ġtre nd
Ġt ells
Ġw arn
al g
Ġappear ances
Ġtyp ical
Ġcomm itted
193 6
G u
ap ore
Ġcred it
Ġst able
l ation
on ent
ĠK im
ĠS T
ipl om
Ġf ix
Ġtw ice
Ġex cit
Brit ish
Ġt aught
ĠEngine ering
Ġcont emporary
dis play
Ġalleg ed
per or
ist ical
ind er
Ġpol ar
Ġocc urs
Ġmunic ipality
ĠS u
ĠâĢ ¦
h ol
Ġfund amental
ĠR om
Ġm anner
Ġconcern s
ĠSy dney
Ġthous ands
Ġveh icles
M od
Ġsol o
force ment
ĠCE O
ĠRep ort
st ream
ĠPl aces
c hen
Ġspec ifically
H S
riz ona
Ġad m
att ice
em eter
ri end
Ġsy n
Ġord ers
_{ (
Ġsurround ing
hip s
Ġp ure
wed ge
Ġj ur
Ġ( -
U N
ĠS aturday
Ġhe ro
in er
Ġgalax ies
ĠB on
Ġacc ur
Ġar ts
Ġm ental
ĠCamb ridge
end ment
f ree
qu arters
\ }
Ġprom oted
ut enant
oc racy
Ġsymm etry
Ġconstit ution
ĠK el
Ġrecomm end
ĠS a
ĠAir port
Ġsom ew
Ġdecl ared
he im
se x
_ +
Ġ$ [
og y
rap y
Ġloc ations
ĠF ree
ĠR out
Ġfac ulty
ĠH ig
Ġsett lement
l av
Ġv otes
Ġphys ic
Ġv ary
m osp
Ġgu arant
op her
Ġinequ ality
ĠN etherlands
Ġsp ons
Ġappro aches
ĠI N
Ġsupport ing
ĠMinn esota
as i
ĠT it
ĠDes ign
Ġsaf e
Ġf alse
Ġeffic ient
ott ed
Ġp it
ĠJew s
sc ape
ur d
Ġprogram ming
ang es
}} ,
at ial
193 8
Ġstrong ly
pp ing
Ġinc ident
lin ewidth
Ġmusic ians
Ġthink ing
Ġcharg ed
D r
Ġdev ice
Ġdetail ed
M P
olit an
Ġmark ed
Ġc row
Ġ~ ~\
i eg
Ġdo ctor
Ġreview s
Ġess ential
Ġeduc ational
ĠD espite
ĠC re
Ġel imin
Ġbig gest
Y ear
ron ic
Ġadv anced
ĠSte ve
b ound
ann a
Ġdoc uments
Ġdeg rees
j o
n et
ast ers
ord ers
ĠW ars
chest ra
ibli ography
Ġret ire
ĠA N
Ġb rain
Ġf iled
ut ation
ch o
h and
ĠSant a
Ġa head
Ġth ick
Ġsp ok
Ġfight ing
text bullet
P re
Ġn arrow
Ġc erem
ĠL ike
Ġcharg es
Ġmoment um
ĠM ain
ll ap
Ġsp ot
Un iversity
ol is
iec es
re ne
P ar
P er
ĠR en
rop ical
Ġ Å
ps on
em an
ĠK ansas
z en
Ġrecogn ition
Ġf iction
ĠD un
i ated
Ġhouse hold
iv ial
Ġprofess ion
ĠH ence
ĠIn vest
T r
clus ive
Ġcapt ured
ĠV en
L C
b ro
d ec
ĠDav is
ĠM ember
Ġhapp en
ĠAff airs
Ġo ri
on av
Ġextrem ely
Ġp al
Ġprop ag
Ġfr ame
ing ly
ĠF ox
' )
ord an
Ġhe av
Ġbeaut iful
Ġpract ices
T A
row s
Ġpartic le
Ġsp ring
193 7
ĠPhil adelphia
Ġinvol ving
reg on
ĠC ur
Ġopp os
Ġs qu
B ack
Ġinteg ral
ĠE th
IN G
v ard
ĠBe ach
dag ger
om y
Ġ ;
Ġpar allel
ĠB udd
ing ham
ĠH ay
ĠL o
Ġform at
G eneral
d isc
Ġte le
Ġsuggest s
Ġestim ates
Ġr ich
Ġrepresent ative
Ġl ie
Ġhe aring
Ġterm in
Ġre duction
Ġparticip ated
Ġperform ances
Ġsecond ary
g a
ir t
Ġoffic ially
Ġsuffer ed
Ġmunic ipal
Ġs an
Ġsc ulpt
Ġdestroy ed
ĠAnt on
ĠW isconsin
ĠN az
Ġut il
Å Ĥ
ac he
ĠFore st
D em
con st
Ġresult ed
or age
ĠHow ard
if er
Ġhe at
P C
ers ion
Ġt un
Ġl ibrary
Ġt or
ĠP oint
R eg
ĠF ollowing
r ator
Ġl oad
bre ak
Ġphen omen
et ing
Ġimpro ved
Ġacc uracy
Ġplan et
Ġit er
r un
Aust ral
Ġf uel
Ġl y
Ġsil ver
er al
Ġperform ing
ind ing
Ġab and
Ġterrit ory
Ġpublic ation
O ver
Ġdistribut ed
s es
bour ne
re hens
Ġfl ag
C ons
Ġw ants
ic ation
W orld
Ġcover age
Ġpre tty
Ġtre es
Ġis ol
het ic
Ġfound er
Ġhom es
Ġac know
Ġemploy ed
par am
R S
Ġit ems
ev in
Ġsust ain
Ġacc ident
Ġf ish
Ġdep ends
Ã¡ n
ĠL ady
ub b
ĠW rit
ĠEn vironment
Ġp ages
Ġc osm
Ġpro port
S outh
V D
ig a
Ġam b
\\\\\\\\\\\\\\\\\\\\\\\\\\\\\\\\ \\\\\\\\\\\\\\\\\\\\\\\\\\\\\\\\
Ġrece iving
us ing
Ġb ond
{ $\
Ġcompet ed
art s
ain ts
)\ ,
ym pt
Ġult imately
el i
ĠV is
M embers
oll ary
am i
onav irus
Ġmin im
ĠStep hen
Ġyoung er
Ġcircum st
ĠAdminist ration
Ġexp anded
Ġs ac
ĠT al
Ġcol lected
Ġrac es
w orth
Ġconstit u
Ġopp osition
w ing
Ġh our
Ġcalcul ated
Ġhor iz
Ġcom ments
Ġre pro
ook ing
ĠChild ren
Ġasp ects
Ġassum ption
Ġch ampion
Ġlegisl ation
Ġrespons ibility
Ġs ail
Ġdr iving
are t
), \
Al though
on ym
Ġf ashion
il ation
Ġsubsequ ent
Ġtit les
Ġa f
ĠTurk ey
Ġnew ly
19 17
ĠColor ado
M usic
ĠG ro
ĠW at
Ġst ress
Ġmed ian
ĠT ok
ĠR on
ĠM ic
00 1
Ġdescrib es
ĠDon ald
Ġrem ov
ob e
Ġinst ruct
Â °
Ġs ale
Ġdec isions
Ġgirl s
Ġnumer ical
ic ip
Ġv ess
Ġend s
ĠFore ign
$ _
ink ing
d eg
ĠDu ke
ĠAb out
Ġintro duce
Ġ }\
25 0
Ġmeasure ments
Ġs av
lim its
Ġp un
ĠQue ens
Ġex cell
Ġexpl ain
L a
Ġide al
Ġdel ay
oth ing
S port
ĠM ill
Ġdocument ary
gh an
S ch
Ġg ained
ab il
ĠD own
Ġf ile
ĠC le
Ġc e
Ġcomp osition
Ġb urn
' ll
Ġsc ript
Ġport ion
ut ies
ĠAtlant ic
Ġv ision
at us
Ġg ender
ennes see
Ġover l
ĠProp osition
Ġentire ly
Ġtw enty
ĠS on
ron ze
Ġin ner
Ġent itled
Ġprinc iple
Ġconc ert
Ġ rom
Ġin n
ĠB ad
A c
ir k
Ġfind s
oc ol
tain ment
193 3
N ov
ĠPrem ier
Ġa id
Ġdec ay
Ġstart s
bl ack
Ġinf in
Ex p
multi row
v ements
ĠT oday
ĠReg ion
\! \!
Ġhold ing
6 00
Ġvers ions
P ol
Ġspect ral
Ġthe ore
19 14
ĠA h
Ð ½
ĠBook s
t an
ĠSt adium
Ġarrest ed
oun sel
ĠB ack
Ġvert ex
Ġrepresent ing
Ġclos ely
Ġext ensive
Ġlo an
ĠH ind
or row
ĠR aj
pr int
Ġread y
ĠJ er
Ġm ist
if fer
Ġrev olution
ĠL ind
ĠMiss ouri
ĠL ive
Ġdi agn
for mer
Ġmount ain
ĠLeg isl
ĠG ree
ak i
Ġpers ons
Ġadv is
ĠFace book
Ġm and
ot ional
Ġex ternal
Ġhouse holds
Ġcaus es
193 5
Ġapproxim ation
Ġindic ate
Ġopt imal
Ġo dd
Ġf resh
du ate
Ġdev ices
ĠPr inc
P olit
Ġcertain ly
ĠIndian a
á ĥ
ĠS us
Ġele v
Ġp arliament
ĠL es
ĠPal est
ĠGo ogle
Ġn et
Ġcirc le
end ix
Ġpurch ased
P art
19 19
Ġnot able
n ormal
Ġhost ed
c oh
ĠA rizona
Ġgreat est
ĠGold en
a fter
L S
ĠB rig
ol n
Ġmot iv
Ġst rict
Ġdec ade
) }(
: #
ran e
ĠSwed en
Ġposs ibly
Ġrad ius
ĠCount ry
l ow
Ġimplement ation
Ġto ols
P P
ĠA D
Ġun able
sub figure
ĠBro ther
ĠFranc is
ĠS ab
M e
Ġinst all
Ġthem e
emeter y
ĠMar sh
ploy ment
Ġv ice
Ġband s
Ġtri p
Ġadd ing
j an
ht ml
rop y
o om
ĠB ridge
ĠW ed
Ġsymb ol
Ġfin ish
Ġf ear
ĠT HE
emb le
Ġdefe at
Ġh abit
in ations
Ġw inners
ĠWe b
Ġconsider ing
Ġil leg
Ġl osing
ot al
ĠO tt
Ġf raction
u ous
Ġdo or
ir ty
ĠRe al
align ed
Ġw el
ĠD am
g g
ĠG reg
Ġfrequ ently
Ġext ent
ĠL ast
bl ue
oc ated
Ġarm s
Ġdr iver
Ġchang ing
Ġcustom ers
Ġst one
Ġext ract
Ġ| \
w eg
ure au
og ene
Ġfl ood
Ġam pl
Ġcomp lic
J an
Ġlim its
}$ }
Ġvol unte
) /
m ain
enc ing
N et
ann els
St ate
O C
Ġeval u
}{ *
Ġrepe ated
ĠC are
Ġprom ote
Ġmed ium
ĠD er
? âĢĿ
ĠH ard
achel or
Ġs ell
if ies
ĠH ou
m ad
Ġs un
Ġn ob
D av
igen ous
ter ed
Ġcoupl ing
ast y
_{ {\
Ġj ump
A B
en ess
c ow
ad ian
Ġdisc rim
ĠD ata
Ġint elligence
ail s
ĠO regon
Ġweap ons
Ġclust er
ers e
Ġrec onst
ĠSpr ing
Ġdatas et
L P
Ġp ieces
Sp ec
c ular
y al
Ġresearc hers
re ll
ffic ients
ĠH un
Ġper turb
y ard
al ysis
Ġag encies
Ġind eed
ol id
19 00
Ġass ign
193 4
Ġs ave
19 29
Ġpat ient
ĠSing apore
os a
al ion
Ġtalk ing
Ġexper iences
ĠD ar
ĠHol y
ĠM ilitary
Ġsatisf ies
d es
ition ally
Ġcorn er
Ġal t
Ġinf rastructure
Ġf an
ĠReg iment
ĠOffic er
Ġelectron ic
H L
ag ues
Ġv ot
Ġm ent
Ġopt ion
Ġg ap
Ġatt ribut
rop olitan
ĠV ice
iven ess
ĠMond ay
ivers ary
d t
ĠAss oci
Ġsup erv
le ts
n ame
Ġsol ar
ĠC zech
ĠLew is
ĠSt ock
Ġcl oud
_{ -
igh th
}~~ {
ĠOffic ial
Ġdep th
D isc
ĠInd ones
O L
ĠB att
ol es
Ġed ges
Ġre new
19 28
ĠI V
Ġtest s
Ġsuccessful ly
Ġd ig
Ġ: =
Ġpain ting
ĠM iller
as er
Ġe yes
Ġlook s
ĠTh rough
ĠD C
Ġ iron
Ġin tern
and y
Ġk ids
Ġc atal
iz er
ĠMed icine
Ġher self
Ġcorrespond s
II I
Ġoppos ite
ĠS av
Ġb odies
Ã© e
Ġse gment
Ġpar ish
def inition
l ah
Ġqu ad
c ious
Ġposs ibility
193 2
ĠMary land
ĠB ishop
Ġworld wide
Ġsy m
ro t
ĠAre a
Ġconcern ed
Ġtit led
ĠPr iv
Ġturn s
z z
Ġph one
Ġassist ance
Ġst orm
Ġsim ulations
ik a
U R
Ġor b
Ġnov els
Ġlett ers
urs day
ag an
ĠA thlet
ov en
ĠB all
Ġaff ect
ark s
ĠSwed ish
Ġexperi enced
Ġtrans formation
Ġpr ime
Ġat mosp
ĠP M
or gan
ĠA C
over ty
c ases
sp ect
Ġsub t
Ġmat hemat
Ġsee k
out heast
est abl
anc er
c alled
19 10
Ġk e
Ġattempt s
Ġw arm
Ġres id
ĠG er
Ġindic ates
ĠB ru
if ts
Ġan imal
Ñ Ģ
Ġg one
B I
ĠCap tain
Ġse vent
Ġsw im
s uch
P ersonal
b al
ĠMem orial
ĠR oss
m et
ĠS uch
ap es
ĠAd v
Ġp iano
Ġang le
Ġex ec
Ġprov inc
ĠA ud
Ġintro duction
ĠT ennessee
ut her
f ile
ask et
erv es
ric es
Ġcap tain
ĠGall ery
Ġc overs
ĠO cean
Ġe ye
uc cess
Ġv ent
Ġmechan ism
ĠIslam ic
' _
}} (\
Ġs ought
Ġinter actions
Ġob lig
Ġdet ection
et ies
ĠViet nam
g ers
Ġreg istered
out s
nes day
Ġprocess ing
Fig ure
Ġh all
Ġtown s
ĠMed al
ant ly
ĠP it
ĠAd am
Ġopp osed
Ġpass ing
Ġo vers
Ġgovern or
Ġstat ements
) _{
) ^{\
} %
Ġpresident ial
Ġmark ets
is d
ĠH al
In ternational
Ġcar bon
ĠH art
is a
al so
b in
H z
on al
Ġd ie
ag a
Ġab use
ic ide
lement ary
S m
Ġins urance
Ġexp atriate
ĠF inal
uz z
ow nt
ĠMar g
ĠMar ia
sh ift
Ġcall ing
Ġend ing
Ġag ents
Ġjournal ist
ĠB at
ues day
' \
Ġv eter
ĠH an
ĠM oh
um es
Ġc ab
c ase
Ġreg ulations
col on
Ġdep ending
Ġre action
Ġrelationship s
Ġy ards
hed ral
id en
ĠS at
Ġdeb ate
ever al
Ġocc asion
Ġhelp ing
R el
Ġp airs
,\ ,
Ġprep ared
ĠRet rieved
Ġp ush
ĠW inter
k es
os es
iam ond
Ġpo et
il ib
Ġvis ited
us al
ĠSer b
Ġdist ricts
}~~{ }$\
iv als
ĠAn th
Ġcon vent
Ġtre ated
; "
ĠOr ig
ĠAg ain
w atch
el lect
ri um
8 00
Ġn odes
g rad
ke ep
d y
Ġ Î
âĢ ħ
Ġt ick
ĠF ord
Ġch apter
Ġref uge
Ġreg ul
ĠSt ory
Ġsim ulation
ell o
Ġopt ions
O P
Ġw onder
ib r
u rop
Ġmod es
ĠP ass
W ork
Ġs oci
act er
Ġe c
om pl
itzer land
ĠAr k
Ġcour ts
ĠC as
Ġprogram me
abl ed
19 22
u v
** **
the w
Ġg all
Ġun less
ess ed
= -
Ġrank ed
f unction
Ch rist
Ġpersp ective
p ool
19 24
193 1
Ġus ual
ĠS em
ve x
ĠH o
Ġscient ists
ab ama
Ä ±
ist ant
ocr atic
am ely
ĠSt aff
ĠMod ern
Ġtechn ique
Ġpurch ase
E q
ĠAnd erson
anc hester
ĠAr thur
includ ing
ĠComm unic
Ġemploy ment
ian g
Ġsched uled
Ġm ort
ab ase
E P
ĠJ oh
Ġcorrel ation
for all
Ġconstraint s
Ġm obile
19 27
Ġc art
Ġvictim s
rupt ion
Ġadj ust
Ġl attice
Ġsu ff
enn a
n i
Ã £
ograp her
Ġvert ices
Ġdesign ated
Ġsee ing
* {
ang a
Ġperman ent
ĠAb b
esc ription
ord on
y ers
v o
Ġb ought
D S
Ġre in
Ġengine er
ĠIn s
Ġgu ard
Ġcur ves
Ġf estival
Ġj ourney
in als
Ġm orph
Ġacc eler
ĠE ric
ect ors
Ġad ult
Ġcollabor ation
b el
ĠK al
Ġcapt ure
ad ed
ac ent
Ġhot el
k ey
Ġgl ass
W omen
Ã ¸
eng ers
Ġre nt
ĠF ederation
we alth
els on
ĠF inally
ĠCast le
Ġthan k
In ter
Ġd iplom
}$ -
Ġcircumst ances
Ġlook ed
ĠUk raine
Ġgradu ate
Ġch airman
ĠRepresent atives
Ġref used
Ġcoe fficients
duc es
he rent
ĠOn ly
Ġdro pped
inc oln
\ '
ĠMount ain
Ġstand s
z ero
ĠO s
Ġarg ued
1 000
ĠAf ghan
Ġp ip
s ible
Ġse ats
Ġaff ili
Ġb right
ĠI owa
og ether
Ġcomp ris
Ġc old
Ġd rawn
ĠLe on
res hold
h r
I F
ĠN FL
Ġ _
Ġs ession
Ġbro ken
O M
Ġteac hers
ik i
ĠT a
an es
Ġcop ies
om ic
Ġad vent
ect ic
sub subsection
Ġsing ular
Ġr ugby
Ġcompos er
c i
Ġ+ \
ĠComm and
Ġwind ow
U T
ĠT ai
l ist
S te
= {
ric e
ĠAl f
Ġbal ance
Ġle ct
Ġd uty
Ġeffic iency
ĠL ev
av el
olog ists
ĠSur vey
um in
Ġhapp y
Ġso le
Ġwin ter
19 21
Ġch annels
ĠD or
ĠN orm
ĠB efore
opp ed
Ġacc ompl
Ġtransl ation
Ġexhib ition
Ġind ependence
Ġw rest
ys elf
ĠT urn
Ġreturn ing
ĠCol on
ĠFurther more
' .
Ġcomb at
Ġsp atial
Ġmon itor
Ġgood s
ĠH om
Ġphys ics
Ġcontroll ed
: \
or ne
us hed
on ents
Ġthe atre
Ġsh ock
ĠW in
M r
weg ian
ĠHol lywood
Ġwe ather
\| _{
t ers
pt ions
Ġs ampl
ipp i
ĠA ge
Ã ¢
19 25
Ġm atters
10 1
p ng
Ġv ide
Ġlist ing
Ġre tail
new command
D o
n ight
ĠHar ry
ut s
Ġl iqu
Ġden otes
it als
ĠP ier
Ġwhere as
B ar
r r
Ġsh ares
ĠTrans port
ĠMag azine
ĠM icro
ra it
aw n
Ġindic ated
Ġsupp osed
Ġcontribut ed
Ġgener ate
ib b
Ġc as
Ġref ers
ĠEnter tainment
ĠS af
ĠMos cow
19 12
Ġst rain
= (
19 23
Ġb ow
omorph ic
ap el
ĠC ost
Ġhigh light
ĠP eak
Ġmov ies
ĠDef ense
act s
.~ (\
Ġparticip ants
G erman
ĠPhilipp ines
) ^{-
Ġhum ans
st o
Ġemer gency
Ġdirect ors
19 16
w estern
Res ults
Ġstand ing
Ġbring ing
F rench
ic on
Ġfac ed
ĠB h
Ġown ers
ĠO ak
rib ed
Ġh ole
Ġvir us
lah oma
Ġra ise
---- ----
ĠW he
od ing
Ġport ray
Ġobserv ation
ĠV i
it i
iam i
Ġren amed
Ġpl us
Ġcon ven
Ġphot o
ĠB ush
ĠSen ior
ĠM un
ĠâĢ ¢
Ġeffect ively
ĠJ ordan
ĠE arl
19 26
ĠRout e
Ġw ing
ĠS ri
g ar
mer ce
Ġkill ing
pro fit
Ġpil ot
Ġcorpor ate
ro it
ĠC op
Ġoffer ing
f ound
Ġp ray
Ġalgorithm s
Ass ociation
ad s
Th us
Ġdepend ence
19 15
Ġlaw yer
ĠMex ican
Ġk id
Ġbl og
Ġopt ical
up s
let on
om ot
ĠC ab
ate ver
Ġeng aged
ile y
Ġdistribut ions
Ġsub stit
b rid
P res
Ġs end
ime q
Ġw ins
ro c
) {\
ĠO F
m outh
Ġobs erve
Ġacc ord
Ġto ol
Ġb an
Ġpen al
s imeq
Ġcomp ute
S I
st ood
Ġbur ied
Ġmeasure ment
Ġphot ograph
ĠN AS
ĠM P
Ġp apers
inem a
F ollowing
ig ious
ĠN ick
u i
Ġcon j
ĠA mb
Ġsat ell
S upp
Ġv ocal
Ġt ru
ĠL td
ĠAg ency
ĠS quad
Ġres on
Ġmod ified
ĠIsrael i
ud den
}{* }{
Ġcon clusion
Ġclin ical
Ġfem ales
b ell
ĠT ony
ess ions
! !
Ġgu est
ĠPr im
G l
h ard
Ġhyp othes
ipp ing
C ast
ou red
Ġbrother s
Ġn one
Ġprot ected
Ġexpl o
pm atrix
Ġ\ (
ĠB uilding
Ġper m
Ġdeb t
ĠA P
Ġf ant
Ġnomin ated
il er
ĠF ac
Ġsubs id
Ġ= \
ĠHou ston
Ġconf irm
Ġerr ors
| }
Ġfound ation
Ġz one
st ack
Ñ ģ
ĠK at
G A
ĠN ev
Ġobject ive
p c
en z
W est
so ft
Ġp ed
p ath
ĠEconom ic
i ations
ĠNor way
Ġaccount s
Ġdeliver ed
ef e
ĠB alt
Ġcateg ories
ĠL iter
iss ippi
Ġclass ic
Ġk ick
p ower
) }{\
ĠB ureau
Ġparticip ate
b r
Ġres c
Ġarbit rary
l an
$ ).
Ġcomp ens
ce ived
Ġbro ke
Ġcrit ics
i ot
M L
ĠT ig
er ick
ult ane
agon al
ĠB rian
Ch ar
ĠAl abama
ĠP ot
er ts
mod el
Ġsp ending
Ġsur g
Ġdis miss
ad ow
ĠB rand
S ection
Ġprov ision
Ġrac ing
ĠAm ong
t ure
ĠR oll
ph one
ĠO t
$ (
Ġs urn
Ġor th
ĠS ix
rehens ive
off s
Ġacc used
ĠF ood
ectic ut
r ine
ĠH op
ĠN on
Ġmarket ing
ĠC ase
ĠSim on
$ ^{-
Ġcr uc
Ġb ed
ĠJac ob
Ġjo ining
Ġcrow d
ĠTw itter
ĠL ag
c ar
Ġoff ices
D ist
c ing
Ġsc oring
ĠSh ort
uss ion
ĠF ront
Ġex ceed
secut ive
text sc
Bi ography
ĠL ow
ym ph
ple te
Ġext end
T wo
p ass
ra v
ĠC ode
Ġhor se
ortun ately
ĠTh ursday
ens ed
Ġconclud ed
Ġimplement ed
in th
) \\
Ġv o
um a
Ġm el
p resent
in ction
ĠG rant
ĠWed nesday
Ġfunction al
Ġshe ll
Ġscal ar
ĠR oy
ĠO bs
ĠTown ship
Ġcal c
Ġr is
N R
ĠM ir
ad i
Ġesc ape
Ġf ranch
Ġattempt ed
Ġold est
ĠReg ional
ĠHigh way
Ġw alls
Ġscen es
ust er
ĠDi ego
ĠR un
ĠN et
Ġretire ment
n eg
ĠSw itzerland
se ason
mid rule
in v
Ġincreasing ly
Ġh air
ĠMod el
$ $\
Ġw ish
Ġprov isions
h ab
l ik
rep rene
ĠH and
ĠA maz
Ġp ool
M M
Ġgovern ments
ĠSt one
Ġreturn s
CA A
' d
z h
Ġcent uries
Will iam
^{ +
Ġl it
ill ery
ĠG et
t ed
F e
Ġpartn ers
ĠT uesday
Ġm yself
ĠGree ce
Ġro yal
Ã º
i ability
ri p
Ġjur isd
Ġpro hib
ĠR ose
Ġoper ate
Ġconsist ing
Ġtens or
Ġcam era
ous es
omm od
Ġyield s
Ñ Ĥ
Ġadv ice
____ ____
ĠKh an
ĠM att
Ġcomp are
act or
Ġtheore tical
A dd
Ġinv ariant
The orem
Ġcre ative
ĠMal ays
Ġstri ke
- >
ĠCo oper
app ed
ĠG il
au x
rom e
Ġnecess arily
ĠH ur
19 13
Ġst ellar
ĠEx per
Ġt ail
op ic
on na
Ġmagn itude
ĠCon c
âĢ ĺ
st ract
Ġst orage
Ġre venue
P ublic
Ġ urg
e lect
gl as
Ġproduc ing
Ġdrug s
Ġde com
ol ar
Ġprem ier
Ġhundred s
ĠB ab
qu es
Ġpropos al
oy d
ĠKent ucky
L O
Ġpre ced
}} ^
Ġsymm etric
Ġunder t
Ġro ot
ĠBar on
ir ation
con n
g ener
Ġass ault
ĠE s
ĠAl bert
enn y
p et
ĠAl b
Ġmin imal
ict ional
ĠB ah
Ġc ash
Ġb anks
ĠA z
Ġprom otion
Ġprinc iples
ĠM anchester
Ġcover ing
Ã£ o
Ġg rid
Ġapp rec
ern el
Ġinteg rated
ĠF ame
Ġg ather
ĠL incoln
ĠT el
d on
Ġst ability
Ġres istance
B M
Ġreason able
Ġspect ra
E nd
t wo
# #
Ġk il
id ge
Ġconclud e
Ġmanag ers
ol ve
ish ment
}^ *
Ġabs ence
% .
he red
Ġsett led
ag h
Ġqual ified
Ġunivers ities
e h
M ost
ta h
ues e
or ig
Ġex clud
Ġdis k
Ġfeel ing
Ġsatisf y
com es
Ġann ounce
az a
ĠL ank
A ct
Ġmed icine
ĠAll en
( )
H er
ĠMel bourne
d x
ĠJan e
Ġde pos
O ut
Ġcharacter istics
S ong
N ext
f aces
f riend
ag en
Ġrec all
ĠDo ctor
Ġlink ed
Ġeval uation
Ġsp eaking
Ġhead quarters
Ġtrans mission
Ġinteg ration
form ance
it o
T rack
Ġhapp ens
Ġestablish ment
ĠOn ce
Ġeduc ated
ĠA T
Ġstre am
p ur
Ġinv ited
ĠFor ces
Ġte en
ĠInst ead
An other
Ġtem por
O lymp
Ġass ets
J apan
b ot
m ma
ĠW olf
Ġsol ve
ort ion
Ġt asks
st an
Ġheav ily
Ġpract ical
ĠT en
ĠE c
oc ese
M on
} )$.
Ġloc ally
el ve
Ġpattern s
ul ner
Ġexpl ore
ch a
ib ilities
F T
ap se
Ġsee king
iss ions
Ġsix th
ĠR a
lic ation
R I
ĠC all
ang el
ilib rium
Ġp overty
Ġcon secutive
in cess
ĠDe ath
Ġinter ior
yn asty
Ġconn ect
ĠS ky
a ire
Ġpolynom ial
ffic ial
Ġs ons
Ġphil osophy
S ing
Ġch urches
re tt
ĠP C
ĠM unic
Ġv oted
Ġfound ing
Ġch ose
ĠConn ecticut
à ¸
L L
in ian
Ġar c
the less
ĠJ am
ĠHar vard
Ġre ferences
Ġsec ure
G C
Ġgalax y
ene z
Ġstar ring
D C
Ġkeep ing
Ġaccur ate
ĠDis ney
ĠMo ore
Ġrough ly
Ġvill ages
ĠOk lahoma
ĠHe art
âĢ¦ âĢ¦
Ġf illed
ĠBase ball
Ġsp end
Ġlic ense
Ġmaintain ed
Ġaff ord
ĠN ative
Ġatt orney
h ost
Ġp seud
Ġimmedi ate
Ġpart ial
Ġpost ed
)$ -
ownt own
ple x
ĠD aily
Ġrel ief
st ic
ĠS ound
l iving
Ġthan ks
Can adian
19 11
Ġpric es
Ġco inc
ĠE P
h ow
ra ud
od ox
Ġch air
rem ark
Ġas ympt
r ity
I d
ĠMar c
C or
Ġdifferent ial
Ġfav our
Ġexerc ise
ĠAust ria
ĠB an
Ġn ations
ĠM ach
Ġto wer
Ġloc k
w ich
Ġsecond s
r Ã©
ubl in
C al
Ġoccup ied
Ġsub set
Ġappro val
ol i
en h
. âĢĻ
el and
Ġthe ories
B est
Ġsomew hat
Ġn amely
ĠPat rick
Ġj azz
sc ill
Ġsever e
Ġy ellow
Ġenem y
Ġliter ary
ĠD ark
ĠS quare
Ġtherm al
ĠMar ine
b lem
Ġair port
Ġtro ub
el le
ĠAn y
map sto
Ġhel ps
Ġen forcement
Ġen erg
Ġuncertain ty
Ġinterpret ation
Ġf ought
amb ig
Ġf rag
Ġacc ommod
ar on
Ġcap able
Ġlo op
Ġc ru
Ġass ert
Ġmat rices
rit ical
ĠĠĠĠ Ċ
Ġpass ion
ĠC ape
Ġex cess
Ġshoot ing
j e
Ġcoordin ates
wh ite
c r
g ments
Ġcaus ing
Ġsent ence
ĠD om
y les
ĠB arn
A wards
Ġemploy ee
bra ce
Ġconf idence
Ġf olk
Dav id
ĠMiss issippi
ĠCom put
Ġcl ients
Ġconfig uration
ĠJ unior
ĠF er
Ġcomput ed
all as
N S
ĠL ear
ĠC P
Ġd og
ex ual
ar ma
Ġar med
Ġcons ervation
A f
) _
Ġd ates
H ome
Ġre aching
18 0
is ition
Ġth reshold
ik h
Ġleg end
Ġb atter
Ġstre ets
ã ĥ
Ġly rics
ort heast
20 23
Ġag ed
Ġdep ict
ĠTh ird
Ġsp oke
Ġdivers e
Ġs oul
Ġspirit ual
~ $\
ĠG ram
ĠS C
ĠU sing
ĠHot el
Ġrad iation
Ã¼ r
Ġbl ocks
Ġtr ig
Ġl aid
ak ed
leg es
Ġseem ed
od ot
Ġmanufact uring
Ġcour ses
l ength
ĠMr s
ĠN ap
ĠL og
Ġmusic ian
Ġon going
ĠJ os
Ġinflu enced
ĠHar ris
M ich
Ġc ov
ĠN ich
Ġcor onavirus
uer to
ĠR yan
medi ate
Ġtra ins
C ar
Ġ< /
s he
ĠB urn
Ġext reme
ĠB os
agn etic
\\ \
Pl ay
ĠCh annel
Ġlay ers
Ġc atch
Ġ&= &
Ġformer ly
Ġregard ed
ĠM it
ĠN ever
ĠTok yo
Ġel ig
l ov
ĠL abour
Ġshort ly
Ġclos er
Ġ //
ĠSe ason
ĠT reat
Ġbrief ly
Ġt urb
u able
ĠT an
Ġg ar
re ct
ac her
ard o
ĠP rad
' (
ĠK itt
S M
: :
i em
Ġsu itable
ĠC ulture
Ġst ages
at in
Ġmay or
Ġmass es
Ġg od
aw are
L ife
le ments
ĠT rade
Ġcol le
pr ise
Ġc aught
ĠR eb
Ġconver gence
Ġcould n
c ur
Ġdimens ions
ĠM ethod
ĠS et
ag u
Ġd ust
ĠT rib
rag on
Ġint ellect
Olymp ic
Ġco aches
ĠM as
is ely
Ġad ults
ĠJ ay
un es
Ġgu ide
Ġro of
ĠL ocal
ĠF arm
ĠCap ital
ĠTurk ish
Ġbehavi our
Ġst uff
ĠC ook
ĠH ans
ĠCont rol
ĠM iami
Ġtechn ologies
Ġth row
Ġst opped
ĠB ible
Ġb ronze
Ġab und
ĠPe ace
cl op
ens is
A nt
id ay
Ġfavor ite
l ay
c raft
N orth
Ġ$ $
Ġt ack
Ġv oting
ĠAl i
ĠGa ussian
ar o
190 8
Ð¾ Ð
ĠL as
ĠHaw ai
is er
ĠP ope
w ick
Ġre ar
Ġsh ut
Ġst ores
Ġconvert ed
Ġr ig
Ġrem ove
Ġb ra
itar ian
ĠW y
Ġfac ilit
ÃŃ a
Ġinvestig ate
Ġcharacter istic
Ġex ception
H C
Ġsim ultane
ĠWh it
Ġunder lying
Ġground s
Ġb in
ĠCol omb
Ġcomm ander
ĠN ob
prop osition
ĠInd eed
Ġmedal ists
ĠD omin
Ġcomplex ity
Ġcerem ony
ro id
Ġpop ulations
ph ant
Ġint ent
ĠAnth ony
ĠM and
Ġunivers al
aud i
Ġeven ing
U K
asket ball
Ġfact s
Ġun cle
it ivity
Ġsu it
âĢ ¢
ie val
m atrix
ĠG ard
Ġrecover y
us cript
Ġunder stood
Ġtem ple
Ġess entially
Ġr ational
ĠMc G
ĠAuthor ity
ĠY outh
Ġsubject s
Ġpet ition
ĠWal ter
Ġa w
ĠSupp ort
n ers
Ġvide os
Ġs and
ars h
ĠG ab
Ġs elling
oc ument
ĠH u
Ġvari ation
ĠLouis iana
y stem
Ġad mitted
ĠI r
Ġexpl an
ib l
v ol
ĠEm peror
Ġm ob
ĠPro duct
ĠSil ver
Ġve ctors
arn er
Ġtra v
Ġpo etry
ĠP sych
Ġenc ounter
Ġknow s
ĠArm en
ir th
ĠE nt
ĠMat thew
Ġp ione
Ġb inary
ĠD igital
H ar
ĠD ick
p o
display style
ĠB ry
ug u
coh ol
Ġwill ing
Ġo scill
Ġland s
GB T
Ġregular ly
Ġsucceed ed
Ġv ast
O ct
m ont
c f
Ġstat istical
Ġsupport s
k h
Ġsign s
ĠDe ad
H O
p at
ĠS P
Ġtru ly
m i
Ġattack ed
Ġrac ial
Ġcont ribute
\ {\
Ġsub section
Ġunivers e
Ġne ither
ro ph
ĠTe levision
ĠK now
Ġexper ts
ĠA R
ten ance
F inally
B ook
Ġdeliver y
Ġmom ents
d am
Ġind uced
act ic
roll ed
T op
C E
C ent
Ġdoll ars
M c
Ġstudy ing
ĠCh all
are st
Ġcommit ment
ĠHer itage
Ġag greg
Ġgun s
O f
Ġcan on
Ġde leg
Ġinj ured
Ġdoub t
Ġparticip ation
is ations
uc ks
al ing
Ġvis ible
h igh
ener gy
Ġscen ario
Ġstrugg le
Ġl ov
w ord
Ph il
d im
P rop
ĠTem ple
Ġl oved
f r
ĠC ond
Ġsit uated
z y
Ġcl ar
Ġsepar ated
S L
Ġsumm ary
ym n
ĠS M
T ax
ĠCommon wealth
f irst
rain ian
ĠWh y
Ġconsequ ence
Post ed
Ġrul ed
Ġvers us
Ġfor th
Ġext ens
t w
aint iff
Ġacknow led
ĠB erg
ograph ical
ĠAb d
ed ition
Ġsc ope
Ä į
Ġpublic ations
ĠN a
ĠAn ne
ĠBelg ium
if ier
Ġa maz
| _{
Ġprote in
Ġinstrum ent
Ġdrum s
Ġcom fort
ĠV o
ang ed
er on
ot te
s ur
Ġhistor ian
Ġple ase
Ġb oys
G M
ĠD ue
J u
G o
Ġro ut
ĠR ight
Ġlow est
B ibliography
Ġcol our
Ġs udden
Ġloss es
ĠDet roit
ĠM ult
ĠD al
Ġshe l
Ġimpos sible
12 5
Ġb ran
Ġinter val
Ġmembers hip
im ore
Ġst ret
Ġ %
Ġconcern ing
m c
Ġreport ing
Ġs leep
it ative
Ġm ales
Ġbeh alf
c ong
Ġilleg al
r in
h om
p a
ĠCl inton
ĠE arly
$ ~
ĠM oon
f ather
H on
ĠBow l
Ġdr iven
ist ent
Ġfl uct
Ġte ach
Ġscal es
ĠBill board
Ġmay be
Ġdec or
ast e
ĠC ru
Ġtemper atures
Ġp m
. '
Ġadj acent
arch y
ĠN aval
ĠM A
ĠAl ber
ĠC atal
ĠRober ts
Ġ ri
d ata
Ġmeet ings
$ ;
t ri
C P
an ia
Ġsw itch
ĠZ h
ĠF all
Ġres ource
Ġpercent age
ĠCh airman
Ġeth nic
clus ions
che ll
Ġl ake
Ġsec retary
ĠE mer
Ġstrateg ies
ic ations
ĠTai wan
Ġg rade
ol ly
l ades
ĠC ov
Ġl ose
l ad
Ġcomput ation
Ġdr ivers
w orld
Ġann iversary
ĠB eng
Ġcont rad
Ġweek end
Ġd ry
t ik
ĠR ey
Ġtransport ation
c ount
Ġbelie ves
at on
t i
De ath
Sport speople
Ġlist en
pt y
Ġcarry ing
Ġequ ality
ell ows
ĠMc K
ĠLe ad
IN E
Ġdemonst rated
Ġinh abit
B O
}} ^{
Ġinvol ves
Ġpre gn
Ġbe am
ant e
Ġpay ment
Ġclust ers
ress ive
ĠK evin
m ers
ogene ous
ĠA ction
ĠQueens land
Bl ack
rid ges
Ġexpl os
Ġori ent
Ġnot ation
ate ur
Ġpass es
ĠPh ill
Ġin aug
Ġperiod s
ĠD NA
Ġcontinu ing
Ġoper a
u um
ĠKenn edy
ĠP age
Ġm ilit
Ġland scape
ĠCh ile
ĠF ri
Ġreject ed
ĠG ordon
ĠL yn
Ġprom pt
Ġc ited
Ġtest ed
) +\
level and
Ġvirt ual
Ġm ine
ĠK ey
? "
et al
Ġfind ings
S D
Ġdynam ic
Ġexcell ent
ĠTh ough
ell ip
B orn
Ġste el
Ġrestrict ions
190 5
Ġh its
) {
Ġrob ust
Ge ography
Ġsubstant ial
Con n
ean while
ro v
j u
Ġapp lying
st al
Back ground
Ġt all
ram a
ĠD ak
Ġdiscover y
Ġchart s
T ube
ĠBudd h
ant on
ĠDemocr ats
Ġfl ows
ĠS port
rac ks
od ge
Ġrapid ly
j ust
Ġwor st
Ġstrateg ic
Ġmin ute
Ġaband oned
J ust
189 0
ĠPh ot
Ġatt ached
ĠG ener
ĠC A
Ġarg uments
ĠSc ient
ĠDou glas
Ġvert ical
Ġmer ch
ĠF I
Ġdec ide
Ġcom ic
S w
Ġadapt ed
m ass
Ġbre aking
ct ic
ĠQue bec
Ġ ion
St ar
Ġpaint ings
ĠF ather
s ource
Ġv ulner
L em
int end
ĠMay or
\\ &
ĠPhil ip
ĠJud ge
Ġcent ers
ia h
Ġinters ection
Ġfl o
Ġimpro vement
Ġupd ate
Ġax is
Ġden ied
B N
d ale
Ġw aters
ĠB or
Ġun us
U C
ĠCon vention
l ock
ĠN E
Ġcommission ed
Ġpenal ty
Ġincorpor ated
ast s
b at
em pl
ap olis
Ġc ounsel
Ġvisit ors
Ġg ene
Ġpredict ed
u ction
A g
hold ers
Ġb arri
ĠKel ly
Ġst ood
) -\
ĠK u
val ues
iv a
Ġbo at
Ġenjoy ed
B el
Ġinfin ite
est yle
Ġdis cl
ĠR ab
ell i
ĠN atural
oc a
gress ive
Ġe mail
Ġinv ent
190 6
ĠC hem
Ġbr ings
Ġf ly
g raph
ĠHon or
Ġaccomp an
Ġcr imes
F M
Ġagric ultural
Ġf asc
ab et
eg as
Ġabsol ute
Ġinst alled
che ck
Ġro ots
1 15
Ġde ploy
Ġvot ers
ĠArgent ina
arg o
o a
Austral ian
Ġor bit
Ġocc as
ĠH amp
ĠGu ide
Ġl ab
Ġra in
ĠAtlant a
ist ration
\ _
Ġw ww
ĠAtt orney
- $
Ġfamil iar
on i
Ġentertain ment
tik z
ath y
iss ance
ts burgh
ail and
a uc
es ides
ĠR ick
a a
Pop ulated
est ed
Ġd ream
Ġfac ing
ĠWalk er
w ho
on ly
Ġscatter ing
ĠPl ace
V al
Ġsym pt
d ie
ĠY e
red it
Int roduction
Ġc ook
ĠT y
Ġsur ve
ail ed
ã ģ
Ġsh aring
U nder
ow ski
re qu
eli hood
ĠI mm
Ġr ival
Ġres idence
Ġgrow n
qu ir
ĠSt ew
ĠD ave
uild ings
Ġinteg er
Ar ch
ĠAl bum
ather ine
ĠAg ric
Ġspec ified
Ġs occer
str ong
els h
}( {\
ĠNor wegian
Ġdes ire
Ġpart ition
ĠDen mark
ĠInf antry
Ġcompet e
ĠS ign
Ġassess ment
ur i
Ġanc est
D ec
13 0
ĠVill age
ĠS ud
Ġmov es
b old
Ġd uties
ut ely
sequ ently
Ġdecl ine
b urn
ĠK y
ĠS in
Ġill ness
Ġh ired
ĠHamilton ian
M en
Ġpred iction
190 7
ĠBr un
n ie
p ot
Ġdemonst rate
c ks
M any
ĠP uerto
ĠN ext
h as
ne ver
for ward
Ġpres c
Ġrequire ment
L eg
om etric
Ġg ay
Ġfil ter
ĠR est
Ġpain ter
190 9
ist a
Ġl ists
Ġc raft
Ġroad s
Ġw at
F R
) },
id ance
ĠD ur
th a
hy thm
ĠD VD
ĠE ag
Ġsh op
ĠAl an
ĠRec ord
M arch
av or
ĠOrgan ization
ĠLa ure
ĠOr th
um m
ĠP as
Ġin ternet
Ġmod er
Ġre ign
Ġb und
ĠSquad ron
Ġrespect ive
Ġchild hood
ĠN ik
re ement
Ġconcent ration
ass ador
ĠArt icle
7 00
Å «
ĠLaw rence
E v
S er
} )$,
ĠG ib
p ed
Ġnot ion
Ġwh atever
ĠAnton io
} &
ĠOn line
R ober
&= &
ol ished
ret ion
Ġcompet itive
ic ular
z o
Ġn av
ĠSe attle
red ited
O p
Ġenh ance
ic ate
ed ing
Ġclass ified
Ġh idden
Ġpot entially
Ġa ired
The refore
im ents
ĠRes erve
Ġview ed
Ġm art
Ġsing ing
fl ow
ĠAfghan istan
ambig uation
h bar
Ġneigh bour
Ġd iversity
ĠB ou
ĠN CAA
ug ar
f inal
Ġm ac
ang ers
ĠD ublin
ĠG arden
ĠSy ria
il ty
Ġown ership
Ġconsider ation
Ġpl ate
.. /
Ġsum mar
Ġac id
Ġpriv acy
it udes
osp itals
Ġcomp rehensive
Ġpoint ed
erv ing
E urop
usal em
Ġmy th
Ġout er
ĠN ation
l ie
ĠAll iance
\ "
190 4
em en
Ġconsequ ences
Ġgu y
Ġcan cell
Ġw ait
Ġexpl ains
Ġsched ule
D R
Ġcons umer
ag g
ĠHistor ical
ĠP ed
Ġare n
ĠV in
S ources
ĠS oc
ĠPortug uese
Ġcalcul ations
G en
ĠR ow
ĠCro at
in burgh
Ġcruc ial
} }$.
Ġsing ers
Ġcommunic ations
Ġexc ited
% ,
m aking
Ġfranch ise
Ġwould n
end a
. ;
elf are
Ġrul ing
f ef
ĠEx t
Ġinstrum ents
Ġrot ation
Sec ond
P aul
Ġbul k
Ġman age
Ġrel ax
Ġrestaur ant
Ġent rance
Ġr ating
W rit
lic k
enez uel
Ġexp osure
ub er
Ġpres ents
ĠArk ansas
ur ers
Ġdesign s
ors es
S et
Ġmill ions
ĠS i
Ġapplic able
Ġcons ervative
Ġm oral
st ery
ĠT erm
ĠP a
Ġcalc ulation
cc cc
Ġreal ized
ann y
and ra
' }
Ġident ical
Ġm il
Ġwrit es
ĠApp le
ip e
ex ample
Ġliqu id
ĠU tah
M R
Ġst ating
Ġproced ures
Ġ$ |\
O b
d oor
}$ )
ĠTh ose
ĠSw iss
ĠK am
Ġt ennis
M in
c ut
ob by
ĠBul g
ĠT s
un ting
Ġgeom etry
ĠH ills
Ġdanger ous
z ed
Ġre nd
Ġsk in
Ġst adium
ĠLiber al
Ġask ing
Ġdepend ent
Ġmix ing
ĠK az
ĠAdd itionally
ĠL ore
) )$
Ġt ight
ymm etric
ab ad
ĠDe an
Ġf lex
Ġn urs
Ġrecomm ended
Ġtop ic
Ġput ting
[ (
} }$,
ed ge
Ġp od
Ġbi as
ĠIndones ia
ĠYear s
il st
Ġf lying
Ġsuffer ing
p ost
D ata
i Ã³n
Ġf ib
Ġst ead
ĠF le
ch ar
atur ally
Cl ass
1 14
Ã© s
Ġcompet itions
p icture
p op
Te levision
Ġconsist ed
Ġcrit eria
Ġvacc ine
Ġsk y
al ian
ĠF inn
Ġro oms
ĠFin ancial
ĠL am
ĠDep uty
Ġassoci ate
ol o
Ġconn ections
ur ities
ĠTer rit
ol y
Ġcon vex
Ġtop ics
ĠK arl
Ġcharacter ized
ĠN ash
Ġassum ptions
Ġsound s
ĠH oll
Ġcomplet ion
ĠPrad esh
Ġneut ral
Ġampl itude
Ġtransl ated
Ġjud ges
Ġf ill
ĠM ission
is cal
p res
Ġdes ired
ĠS el
ĠAmaz on
Ġexplicit ly
) }_{
c at
Ġhead s
ĠV ideo
ĠInd ependent
ĠJ un
Ġast ron
Ġph r
Ġw aves
onom y
fl oor
Ġprec isely
ĠC ow
Ġsub mitted
Ġpar agraph
Ġdomin ated
ul ating
pr ison
sy stem
Ġmin ing
p age
ĠCent ury
b u
Ġmov ements
ĠRes p
10 5
od er
ĠSystem s
Ġdomin ant
ip age
M ark
et ween
w en
Ġtal ent
Ġsufficient ly
ĠC emetery
Ġint ensity
or us
it ol
Ġsynt hes
Ġevalu ate
fef efe
ĠSar ah
Ġinc red
Ġtouch down
ap l
ific ial
ĠAnd re
ĠI T
Ġasp ect
ĠR ub
aw ay
J ames
ĠH ug
Ġs now
Ġchalleng ing
Ġinv asion
our se
Ġdecre ase
ĠD allas
min ipage
ĠS ite
1 12
ubl ished
ĠBatt alion
190 1
Ġpri ze
Ġeas ier
h us
Ġaccord ance
ĠCh ampions
Ġfall s
ot ten
ã Ĥ
ĠD a
Ġman uscript
ĠStud ios
ĠM ess
Ġsm art
Ġresident ial
Ġamount s
Ġsub group
Ġtra ject
ĠS n
Ġstr uck
ĠP y
Ġb irds
i at
Ġcirc uit
s upp
ĠK ings
Ġanal og
od ed
Ġrepresent atives
Ġj unior
Ġm al
Ġsatisf ying
Ġcritic ism
Ġrestrict ed
as p
Ġproduc ers
ĠI l
Ġsc ores
Ġpubl ishing
Ġaud io
E ducation
ĠW here
ĠN ag
ĠOr chestra
Ġwith draw
190 3
form ed
Ġupd ated
Ġoptim ization
ĠL in
a ired
Ġcomput ing
Ġtem porary
ĠAd vis
Ġcollect ive
ra ined
Ġmet res
bar a
J une
Ġaff airs
ĠF il
less sim
pos ed
ĠSam uel
f i
Ġexp on
ĠPortug al
Ġl ift
ĠI mp
Ab out
Ġrepresent ations
Ġpass enger
ĠCh amber
ĠYou Tube
Ġh ur
Ġarr ival
Ġcoordin ate
Ġconf ront
ĠE ss
A ugust
id al
T ype
Ġp ul
op ter
ĠF M
Ġher itage
................ ................
Ġread ers
ĠV iew
t es
Ġgener ic
sec ond
ind ex
re ams
Ġwe ar
Ġadapt ation
Ġconvers ation
Ġgrad ient
ĠAd ams
Ġdiv or
Ġdown load
Ġse es
dis ambiguation
Ġjurisd iction
Ġbe ar
ĠTra ining
ĠAust in
Ġpublic ly
$ ),
Ġsatisf ied
C he
ĠP rix
h box
ĠSchool s
Ġatmosp here
am an
Ġconv inc
script size
Ġdisc rete
ĠL ib
Ġin her
ĠL ang
l as
190 2
ĠE ver
Ġturn ing
ĠCol lection
Ġt ank
Ind ian
Ġent reprene
Ġis lands
ĠThom pson
~~ ~~
Ġbound aries
Ġsequ ences
Ġpro ud
c ode
}{ (
Ġdise ases
Ġben ch
ĠBru ce
== ==
A G
Ġhigh way
Ġw ire
Ġsignific ance
E lect
ĠH it
Ġgraph s
Ġem otional
Ġbound s
op es
ul us
Ġsy nd
ĠA le
Ġob st
ĠN elson
Ġa er
Ġcast le
Ġfact ory
G et
ĠP ay
Ġwa iting
Ġ( ,
Ġdet ected
os lav
um inos
Ġdis pl
ĠMor gan
Ġwor se
ri k
Ġrel ating
ig e
ĠNig eria
Ġread er
EN T
For mer
Ġf aster
ĠN S
Ġwatch ing
er ior
ĠB uck
" ).
e als
Ġtal ks
P ort
Wh y
or ous
N E
Ġsign als
em ed
i op
an ch
ear ing
Ġsurg ery
Ġcooper ation
ĠSen ator
Ġcl ient
Ġcoe fficient
Ġtw elve
ot ype
E very
ar ation
. :
ĠP ap
ĠB ull
ol ph
Ġout break
iver pool
18 80
Ġk ernel
Ġres erve
ĠCont in
Ġp ref
ĠA BC
ĠP rom
ĠMark et
Ġris ks
ic ians
ĠU C
le ans
Ġinter act
Ġint ention
Ġiniti ative
end ar
ĠÂ »
Ġb rown
he ight
ĠR ace
ĠAd vent
r ite
in ch
ĠJer usalem
ĠĠĠĠĠĠĠĠ ĠĠ
p arent
ve e
}{ |
Ġappear ing
Ġliber al
ĠBang lades
Ġent ering
Ġfor g
er k
ĠRuss ell
Ġpri est
Ġsurn ame
Ġwas te
Ġthe rapy
ater n
Ġjud gment
R ed
ĠB us
Ġre ct
Ġcross ing
Ġre ducing
Ġden oted
Ġg ate
Ġsatell ite
Ġ Ä
Ġg ift
ĠPal ace
E m
ch t
in stein
ĠExp ress
U p
Ġadvert ising
F l
az ines
ĠR ound
Ġpro jection
Ġexp ensive
et ary
ĠP eters
M us
) }}
ack s
ĠB art
R ail
Ġj et
urrent ly
ĠR y
i ac
P M
Ġexec ution
ĠPolit ical
ĠCommun ist
Ġcontrol s
ĠP ear
Ġappoint ment
ol as
Ġoper ates
Ġmain tenance
Ġsepar ation
ĠC leveland
h l
ĠC H
Ġ( ;
ĠN BA
Ġs ight
U sing
ow ed
Ġthous and
. $
f ront
Ġn ull
Ġse ed
u j
Ġtax es
H igh
Ġexecut ed
Ġapparent ly
d ers
ĠTh ailand
Ġm outh
Ġform ally
ĠRe ad
Ġrep utation
Ġlabel s
it ational
ĠW W
do i
Ġt elling
ro ke
is p
}\ ,\
ĠM L
ot he
u y
ĠChrist opher
Ġprison ers
ĠPri or
Ġearl iest
" ),
ĠEd inburgh
iffer ent
Ġd ies
Ġord inary
Ġinj uries
es is
ĠLem mon
k ov
ĠH as
Ġarch ae
ĠC art
Ġconc rete
M at
Ġsurv ived
Ġed ited
col umn
Ġsit uations
Ġdem ocracy
ĠBrazil ian
Ġaccompan ied
ĠP ur
bor ough
ick ing
ĠT ur
claim ed
ar se
ĠH ockey
ĠC ensus
m o
ch ild
ont in
Ġinhabit ants
Ġproduc es
Ġfin ance
ĠG ulf
: }
A E
Ġme ets
ĠN av
eop les
en berg
not es
_ -
Ġplatform s
Ã© t
Ġsu icide
Ġjournal ists
Ġc m
Ġstrong er
ĠW oman
v y
Ġg rass
ĠM aur
Ġfle et
Ġorgan isation
ĠB ox
ĠL anc
ĠStr ateg
Ġtarg ets
Ġin clusion
B efore
Ġd a
Ġemb edd
form ing
or ia
ateg ory
ĠAn na
Ġtri als
ĠBrook lyn
Ju ly
R ich
Ġphot os
or ption
ĠSpace watch
C M
ĠI ron
Ġfem in
om as
ĠP ub
St ud
Ġf aces
Ġflu id
ĠBe at
ĠM i
w all
Ġpass engers
Ġrec on
ĠOr leans
D M
ĠA G
ul i
ĠF uture
yp es
Ġathlet es
Ġinvest ors
}_{ {
Ġre ward
ĠIm perial
ĠBrig ade
ĠN ic
ĠStand ard
ĠProt ection
ject ive
ĠLie utenant
Ġequ ilibrium
ĠF ive
Ġfin ishing
Ġtri es
ĠB uff
b as
b ai
ect ure
ik ip
Ð º
ĠBalt imore
idel ines
ĠF ried
ish ops
Not able
Ġe at
ay an
Ġang ular
Ġconsum ption
âĢĻ ,
Q Q
w as
ah n
Ġconvent ional
ĠD ream
ĠS ac
Ġg iant
& $
os c
R et
z ing
Ġfocus es
ĠT rad
over y
Ġcolon ial
Ġg ang
Ġgen re
Ġreplace ment
Ġhypothes is
ĠEx pl
Ġdiscuss ions
Ġinvol vement
Ġnar rative
Ġf raud
ĠF ull
b es
ĠS audi
F ootball
Ġal cohol
se a
he astern
ĠC rown
ĠB oys
ĠMalays ia
Ġconsider able
ĠC ra
Ġc ards
M ilitary
l ocal
Jan uary
Ġreg ulation
}} }\
Ġle mma
Ġso il
is hers
ym p
em i
Ġen able
qu est
oth s
Ġthe ater
Ġrecord ings
1 17
l s
ĠT un
ĠI P
O D
n est
Ġposs ess
Ġst im
u its
A pril
ĠBrother s
ph an
Ġ& &
M al
Ġr ising
1 16
ĠT ax
ĠW right
Ġdat abase
Ġcalcul ate
Ġhor ror
Ġh am
reg ular
int eg
ĠJ ason
od a
Ġf ired
ĠN ar
Ġim prison
Ġcrick et
ĠJu an
Ġrepl acing
Ġem pty
Ġcollect ions
iss ue
pl ane
f all
ash i
om ing
v ia
ĠK er
Don ald
ĠG iven
Ġsupport ers
ul um
Ġout come
Ġrad ical
Ġmiss ed
C R
ĠPit tsburgh
ĠComm ander
Ġelectric ity
m illion
ĠSp irit
Ġmax im
ĠChrist ians
Ġd ating
in st
ou ver
z i
Ġm it
ic ious
B E
Ġkil om
ourn als
ĠM other
s ort
Ġt ropical
Ġdraw ing
ĠT ar
Ġro se
Ġcho ices
Ġpart ially
Ġ$ {
ĠW ard
s is
: =
ĠN eg
Ġve get
Ġpack age
Ġimm igration
ĠFred erick
Ġproper ly
T E
i ere
Ġdet ect
Ġent ropy
O rig
Ġoccup ation
ĠPubl ishing
ĠStew art
Ġcr ash
Ġc rown
ac on
ĠH old
Ġsens itive
Ġyour self
Ġkey board
T H
Ġdis establ
ter y
Ġb aby
ynam ic
ĠCar ter
ĠG un
ĠĠĠĠĠĠĠĠ ĠĠĠĠ
th rough
c ref
and o
] $.
Ġch ampions
Ġamaz ing
Ġceleb rated
Ġvis iting
Ġfeed back
ĠRog er
ĠM aine
Ġl es
ĠD anish
Ġj ury
Ġ\ ]
Ġfe els
ĠBet ween
e enth
Ġsympt oms
Ġtrad ing
ikip edia
Ġmerg ed
Ġapp lies
h av
ĠP ut
ir ical
Ġn ick
1 13
ĠFin land
Ġequ ipped
ĠN eb
10 2
ĠRob inson
Ġhead ed
ĠMur ray
Ġderiv ative
Ġd iam
al ia
Ġoff ensive
Ġaware ness
ĠK o
Ġcon vention
Ġsport speople
Ġart istic
Ġback ing
Ġar ray
R ad
B L
ii i
Ġhon est
Ġgreat ly
Ġmar ine
Ġcustom er
Ġd ress
Ġprot ests
ĠHung ary
n ik
Ġexp osed
Ġaddress ed
ĠF ern
Ġaccess ible
Ġsy mp
ĠSing h
189 8
ĠEnvironment al
j amin
t frac
Mich ael
Ġp itch
c ore
ĠLegisl ative
ok es
un ity
m n
Ġgu idance
b en
Ġp ictures
ĠM S
the re
ĠPat ri
Ġgu ilty
ĠĠĠĠĠĠĠĠ ĠĠĠĠĠ
Ġgrav ity
Ġt ied
ĠGirl s
ĠM embers
p read
m al
ĠK l
ĠEd ition
Ġth in
Ġlaw yers
ĠD ance
Ġhand le
Ġm apping
Ġanim ated
ĠA ug
t own
^* $
w inning
ĠL ab
Ġaim ed
math op
Ġencou rage
ont al
ĠS everal
G roup
gra duate
ĠMic hel
ĠDak ota
Pl ot
Ġhost s
Ġhealth care
D escription
ĠAss istant
E p
Ġpopular ity
Ġelig ible
c hers
Ġav o
per ty
ĠMarg aret
hat tan
Ġrecogn ize
Ġreve als
ĠMov ement
Ġident ification
Ġout standing
Ġeng ines
ĠLank a
g i
Ĥ ¬
big l
Ġdeal ing
V ill
ĠL GBT
ok ing
f ol
V ideo
Ġins ert
Ġsim ilarly
Ġpre fer
ĠCo le
R oman
Ġf ee
Ġrec re
Ġkn ock
Ġr u
Ġpresent ation
ij ing
ĠP A
st able
Ġg arden
ĠBroad way
Ġexhib it
ĠSec ret
Ġisol ated
ĠG ary
ĠWork s
ĠM es
and al
ĠP ho
Ġres ign
Ġacqu isition
ĠMon te
ĠO d
he nt
ĠJ enn
ĠGra ham
Ġdescrib ing
Ġw ides
Ġhealth y
ol t
Ġhy brid
Ġdirect ions
ĠC hen
ran ean
Ġweek ly
Ġfund ed
Ġdesign er
ĠC rim
Ġencourag ed
ĠKn ight
Ġh ier
Ä ĥ
Ġdest ruction
Ġmod ule
at hered
is ode
ĠFrank lin
Ġp ix
ĠH ell
ific ate
C ount
.. .,
Ġarg ue
Ġst ake
art ing
m akers
Ġdef ensive
Ġpr on
Ġsevent h
ĠF al
zer bai
Ġinform ed
ol ving
Ġsimultane ously
Ġdefin itely
Ġviol ent
Ġcons ent
ĠAm endment
m aker
Oct ober
ĠR ic
vious ly
itect ure
Ġ ]
ĠOrth odox
S ource
ou stic
) )\
ĠMarsh all
P at
Ġaim s
j oint
ĠFin ance
A p
ĠMont real
at ar
ĠFre edom
ĠF ight
ĠA qu
m ates
Ġf ruit
Ġwe ights
Ġillust rated
g r
or f
Ġn ice
Ġdep uty
Ġestim ation
ĠOper a
Ã ´
Ġre vers
$ _{
Ġperson ality
ĠStud y
ĠV enezuel
Ġval uable
ob i
Cl ub
ĠCirc uit
}} _{\
ĠMuslim s
y cl
Ġ ellip
Ġs itting
Ġd ens
ĠCamp bell
D espite
e lection
l ights
Ġactiv ist
ro se
ĠZ e
Ġin duct
Ġmet ers
ub ble
{ {
it ure
> <
Ġstay ed
R em
Ġgen etic
Ġdecom position
f lu
Ġpra ised
Ġinter face
ar iance
Ġent ries
s ong
Ġout l
Ġful fill
ir ates
Ġdis order
ouri er
Ġinnov ation
\ }$.
Ġres igned
10 4
16 0
Ġf est
ud a
Ġmole cular
ĠH end
amp s
Ġcomp at
Ġscal ing
Pro fess
ĠF A
Ġm es
S an
Ġad min
ĠT ype
Ġrec ru
Ġqu e
Ġne ural
az e
Ġab road
ĠV egas
ĠR ain
Ġbran ches
ĠPlay er
ĠUk rainian
ibb ean
Ġ( ),
N C
k ee
S eptember
equ ate
Ġsub sc
Ġdam aged
Ġcomm ut
ge b
18 70
Ac adem
o es
Ġtem pl
big r
ĠLe ban
ĠL iverpool
f are
ĠAl ice
em or
âĢĻ .
ort on
ĠCommunic ations
Ġoper ational
ant ine
) --
ro sc
Ġcomplic ated
c ient
B B
Ġint r
Ġkind s
Ġvari ations
s a
am er
Ġd ated
ĠPh D
ĠQ ual
Ġrail road
Ġactress es
189 9
ĠB iden
Ġpurs ue
irm ingham
a uthor
l arg
Ġ\ !
ĠVol ume
Ġd owntown
T R
Ġm ir
es ign
ĠK a
Ġent ity
g ow
Ġd ynasty
g reen
ĠMor ris
ĠF isher
Ġwhe el
ut r
Ġant icip
à ¥
Ġc rop
ĠB achelor
em n
apt ist
AT E
L ast
Ġst atic
ĠLim ited
ss on
Ġsampl ing
Ġnot ably
ĠV ik
Ġwork sh
Ġquant ities
Ġsustain able
ĠJ osh
b ach
Ġ ur
M D
189 6
d ied
ĠL ane
Ġwind ows
Ġbeaut y
fin als
Ġminor ity
Ġfe es
N ame
á »
Ġb id
ins ula
ren a
rib e
Ġit em
11 1
ĠHamp shire
ach ment
ĠSp eak
Ġarrang ed
Ġh aven
d em
Ġconstitution al
ĠN ature
Ġconcept s
Ġunus ual
anc ouver
Ġform ing
Ġmer ely
,\ ,\
ers et
De cember
ind s
ĠMar ie
Ġcut s
Ġ[ \
ch ing
Ġfarm ers
ff ee
ĠÃ ī
R ight
ĠMet ropolitan
A ng
ic ian
Ġind epend
Ġdimens ional
$ :
Ġ es
iction ary
ĠI R
Ġeng age
ir i
ĠCom ics
Ġdecl ined
ĠY et
ĠCh air
ĠC R
anc ell
Ġwides pread
Ġf urn
, $
Ġm or
d irect
nov ation
ĠR E
ĠB ey
Ġinv erse
ann on
Ġel der
clop edia
Ġcol leges
it is
ĠL uther
189 5
ĠH erm
Ġcl imb
t iny
Ġwalk ing
ĠR oc
Ġb on
12 8
p g
Ġprop ose
Ġpass age
Ġnewsp apers
V ol
ĠĠĠĠĠĠĠĠĠĠĠĠĠĠĠĠ ĠĠĠ
Ġinflu ential
ĠAr n
Sc ott
def ined
ĠW elsh
Ġcoll apse
ĠT O
Ġlegisl ative
Ġag es
cast ing
Ġro utes
Ġprofession als
iv an
] }
ĠF r
cul es
Ġcontract s
e ast
p erson
Ġactiv ists
] $,
ĠCh apter
Ġpan els
Ī Ĵ
ren cy
D I
Ġindust ries
Ġgu ys
ro ck
ric ane
um ption
ĠCommission er
ĠPh oto
Ġass embly
O h
Ġo cean
G iven
st s
par agraph
h or
Ġthreat ened
ĠJoh ann
verse as
Ġprof it
ĠN ep
Ġn aturally
b ed
Ġspok en
Ġre ven
Ġsurv ive
ĠApp endix
ater al
Ġdisplay ed
Ġconv icted
Ġrest ored
ab ric
Ġmagn et
F ran
Ä «
V I
ĠO ri
Ġemer ged
Ġcons cious
ĠR io
Ġre ception
Ġcon gress
Ġdiv isions
uk i
t est
Ġagric ulture
ĠNaz i
Ġpick ed
Ġmem or
ĠE ff
ĠD ie
U s
ĠRel ations
Ġb ishop
Ġtra ce
ĠL anguage
ĠF el
ĠAlf red
ĠM agn
och astic
oth y
ĠSt ev
M ajor
Ġm ile
Ġdifficult y
Ġt on
Ġbelong s
Ġleg it
Ġphotograph s
ĠUn it
Ġdesc end
Ġquant ity
}) }
Ġre cept
Rober t
ĠBanglades h
T able
Ġcon form
Ġloc omot
Ġimm igrants
ĠA I
l on
ĠM aj
F lor
Ġfew er
D ep
Ġneut r
10 3
Ġev il
Ġelse where
d ep
ens ing
ol ves
end ers
G L
ra ce
ag ged
Ġsurpr ising
P T
Ġdefend ant
um ps
Ġvol umes
Ġsett ings
rep resent
it ime
Ġl uminos
am ents
ĠVi enna
er ver
Ġman ip
Ġstruct ural
; "|
ĠT amil
Ġrecover ed
Ġcol ors
Ġprovinc ial
Ġdistingu ished
sc ar
Ġmess ages
H istor
Ġpath s
Ġrem ote
ĠRail road
Ġcan n
new s
ĠD ub
ill o
Ġthem es
189 7
ĠC NN
Ġem issions
g eneral
et ition
O s
C ap
ĠMan ager
ĠL l
an im
Ġconsum ers
ĠB aker
Ġorgan isations
Ġw ine
b ridge
Ġwe aring
Ġelect oral
l ink
Ġpriv ile
ĠSh ah
ĠPort land
Ġdiscrim ination
ĠP ad
app y
ĠS ev
un ctions
ĠThe ater
rack et
al ed
iter ranean
x imate
Ġintellect ual
ĠPr incess
i ors
14 0
ĠStan ley
ok ed
or ro
art he
h ai
ĠRoman ia
Ġmanag ing
Nov ember
ĠC ass
ge on
Ġder ive
r atic
Ġt ort
Ã ¥
Re ception
ation ally
ĠMan hattan
t em
over e
Ġf iles
" ;
ĠE le
v ature
Ġpredict ions
Ġcom ed
Ġh at
Ġwith d
Ġimpro ving
M art
Ġimpos ed
ĠWar ren
ĠS N
Ġbo ost
Ġinter mediate
Ġphot ography
Ġm ask
Ġenerg ies
Ġper mission
Ġsh arp
Ġh ill
ĠAl aska
en ix
Ġrank ing
][ ]{
cont in
Ġposs ession
ourn ament
Ġking dom
Ġsupp lies
ig er
Ġcolle agues
Al so
Ġabsol utely
ĠP un
au ra
Ġw ars
ĠSm all
ĠEv ans
Ġdatas ets
ĠInd ians
ĠL iving
ĠNev ada
Ġval ley
it ations
ist ing
Ġsh r
Ġr id
he w
ĠM C
D an
ar us
ĠC ultural
Ġann ually
erv oir
Ġad vers
ens on
if ting
Ġmatch ing
i u
ĠEconom ics
ort ed
on ian
Ġcount ies
it le
Ġcontrovers ial
Ġprep are
Ġm ig
ĠAust rian
Cons ider
ĠWe bsite
ys et
Ġviol ation
Ġretain ed
ĠT am
Ġmark s
ith uan
Ġnom ination
Ge orge
Ġslow ly
et on
Ġnorm ally
â Ĩ
ĠE sp
Ġmechan ical
ine a
ĠUp on
ĠA y
ĠW atch
ĠSt ars
Ġdem ands
inc orpor
Ġcompens ation
Ġmanif old
W A
}[ \
Ġneigh b
Ġinterview s
Ġs ed
s at
ĠG ill
ĠM D
Ġind igenous
Ġpo em
Ġassum ing
w right
et he
) })
ang ular
le e
Ġsurpr ise
v i
eng ths
R ussian
ĠGl as
Ġchar ity
Ġf ishing
m aster
ug oslav
ĠCons ider
ĠJim my
ĠC arn
ĠR ico
Ġcompet ing
Ġmechan isms
Ġrom antic
Ġtr ivial
Ġven ues
w ill
Ġsp r
ÃŃ n
ĠB ed
( "
ĠMount ains
Ġpl as
. ),
ĠK ir
d frac
Ġequ ally
th an
ĠP ract
F inal
Ġrequest ed
Ġprov en
ĠB eck
B ecause
g ov
Ġround s
] {\
Exp atriate
ĠMot or
Ġs ick
tern oon
long rightarrow
Ġexplan ation
Ġfall ing
Ġtown ship
Ġcounter part
u is
Pres ident
Ġconvers ion
ĠL ower
Ġh ospitals
le ased
Ġleg acy
10 6
ĠRes ources
ari os
Ġc ir
Ġw ider
ra ble
ĠN ad
Ġpl aintiff
ĠC rit
Ġen act
ob a
ĠIran ian
Ġsurround ed
Ġprepar ation
ĠB illy
Ġattribut ed
Ġdis ag
Ġsign ing
Ġimpro vements
ict ions
ĠJ azz
Ġpost s
ĠP il
ĠCharl ie
ĠCh ampion
ĠH il
Ġal ter
Ġpaint ed
Ġestabl ishing
Ġcoast al
m iral
( (
s ign
Ġal ive
Af ric
chi at
Ġpro secut
ĠChristian ity
ĠCap itol
ĠIndust ry
ĠCar ibbean
Ġc ous
ĠR ud
ĠStud ents
ĠProt est
ĠAN D
18 60
r ators
Ġcolumn s
Ġsac r
M E
Ġg olf
ĠC ry
Ġ ^{
Ġgu ess
ĠM ap
Ġs izes
st ory
Ġsusp ended
Ġdevelop ments
f ast
Ġexist ed
em in
ĠMar s
Song s
ĠEx change
clus ively
Ġconf ident
Ġb os
ĠSim ilarly
188 9
o an
O W
ĠE vent
Ġdo ctors
ver age
im p
Ġreal ize
Ġr ivers
c s
Ġelement ary
G S
Ġs we
Ġr ide
Ġdi agonal
}} .
empt yset
ug s
Ġmax imal
ĠA the
m ate
d ependent
Ġcomput ational
Ġvess els
Ġbi ological
Ġserious ly
ĠS D
ĠBe ijing
Ġclos ing
Ġext ends
Ġmonitor ing
ĠT ower
Ġgeneral ized
ĠRepublic ans
ĠR ugby
) "
Ġrele ases
ĠMit chell
ĠM eg
Ġcoupl ed
Ġschem es
ĠTe ch
Ġvac uum
Ġdeterm ination
ĠB enn
Ġw ounded
ĠG P
ĠUr ban
;\ ;\
Ġdeep ly
M B
ĠP R
Ġass ass
Ã ł
+ +
ucle ar
Ġdef ence
Ġcritic ized
f ortunately
ĠCh ange
ĠV I
Japan ese
osp el
ĠÂ ·
Ġdaugh ters
f ire
Ġex clusive
exp ected
ograph ics
Ġf oss
Ġdisapp oint
Ġorient ation
al gorithm
Ġfair ly
Ġb ath
Ġread s
Ã «
Ġâ Ĩ
Ã© n
Ġth irty
ĠA L
Ġv ital
ish ments
Ġinf ection
Ġclos ure
red uc
d el
un ning
writ ten
cal e
im ental
Ġcontrovers y
ĠGu y
ĠJon athan
. -
Ġann ounc
Ġcred its
Ġgener ating
Ġex port
ĠG on
Ġ( âĢľ
Ġout comes
ac re
Ġreg ister
Ġtext s
ess age
b oy
ĠM Ps
og a
l isted
T ime
Ġd ense
ĠHawai i
Ġdeterm in
her ic
ĠSt ill
Ġapart ment
ĠCons ervative
Ġstrict ly
ĠMad rid
Ġpay ments
Ġinvol ve
ĠHung arian
pro t
ĠWay ne
Ġf at
O fficial
ĠCr ime
Ġsign ature
189 2
Ġc odes
Ġregard less
ĠR and
3 50
Ġdiam eter
Ġsuper ior
miss ions
ĠS S
Ġgener ations
Ġph ases
at ics
Ġour selves
ĠCub a
ĠW as
sy chiat
Ġfrequ ent
Ġmount ains
Ġdisp ute
um ed
Ġab stract
Ġdev oted
189 3
ĠDel hi
Ġ{ $
Ġprec ise
Ġpremier ed
ator ial
, {\
A tt
ĠElect ric
\ ;
ĠB irmingham
ĠAlber ta
\\\\\\\\\\\\\\\\\\\\\\\\\\\\\\\\\\\\\\\\\\\\\\\\\\\\\\\\\\\\\\\\ \\\\\\\\\\\\\\\\\\\\\\\\\\\\\\\\\\\\\\\\\\\\\\\\\\\\\\\\\\\\\\\\
Ġmiss ions
B uildings
Ġdiv erg
Ġinvestig ated
ĠAnd y
}{*}{ $
{ |
ham mad
Ġan ch
Ġvess el
incorpor ated
ĠMet ro
ĠBern ard
189 4
Ġrad ial
Ġk it
ock et
Ġr anks
Ġbeg un
Ġgradu ally
Ġremain der
Ġtop ological
Ġcre ates
Ġun em
Ġconn ecting
Ġcult iv
ol utions
ĠHe b
ot ions
Ġfocus ing
Ġphenomen on
) }_
c re
M ain
h n
ed ed
Ġprom oting
c over
Ġpre v
ĠEgypt ian
O per
b ishop
ĠProfess ional
N on
Pro of
ĠM ack
ra ham
Ġanal ys
B R
Ġstri p
ĠOtt oman
al ph
Ġindepend ently
Ġs in
Ġsymb ols
( );
Ġrequ iring
Ġdis put
Ġconstitu ency
Ġh a
rop ic
G R
ĠH ad
im ir
Ġvary ing
st ep
act ory
Ġthough ts
M F
Ġb are
id ency
n an
Ġ }{
Ġat oms
ĠAnn ual
Ġhop es
Ġrespond ed
ymm etry
Ġpres erved
ĠS U
ch ron
It alian
ĠNew ton
Ġbelong ing
Ġbe ach
ri el
Ġhabit at
d in
ĠR ap
Ġn ortheast
Ġred shift
Ġregul atory
> </
ĠP ref
ĠOper ation
ĠB ron
A ut
og ram
viron ments
Ġb ars
H T
}} )
ov o
Ġlic ensed
g ate
i ota
Ġpre ferred
Ġreconst ruction
ĠBar bara
Ġs essions
ĠH um
10 8
l en
Ġdial ogue
Ġmerg er
Ġprint ed
ĠEn cy
ĠPark er
Ġcor ruption
ĠO bl
rick et
b ottom
ĠA zerbai
ĠN BC
ĠBl ood
Ġfirm s
Ġnon linear
Ġreg istration
F amily
Ġf erm
n ia
ĠĠĠĠĠĠĠĠ ĠĠĠĠĠĠ
ĠK an
Ġsupp ose
Ġun like
Ġhapp ening
Ġc od
Ġre ly
om etry
Ġeng agement
Ġre duces
10 7
ĠV ancouver
Col or
Ð »
Ġindic ating
r s
Ġatt ending
Ġup coming
Ġsur faces
Ġweap on
Ġc ul
p eople
ĠComm ons
ĠFri ends
Ġcoupl es
E qu
ex pl
ĠF ellow
ĠDef ence
ĠIn sp
er as
Ġhe lic
ĠL INE
res ults
Ġsystem atic
ĠC ou
ĠHis pan
189 1
Ġinnov ative
al gebra
P D
Ġre aches
H A
ĠS R
P al
Ġas c
h our
ĠO pp
Ġde emed
188 5
Ġe g
ul u
Ġforest s
Ġor g
ib et
ord inary
Ġemer ging
Ġsuccess or
ĠH ero
x x
ĠF ant
Ġphot on
ĠW rest
own ed
Ġl abour
Ġmed ieval
ak s
og an
ĠC BS
pro v
âĢ ĭ
Ġra ising
Ġabs orb
}) =
Ġwork er
ic ing
b n
Ġpay ing
ĠCl in
Ġtot ally
US A
Ġcanon ical
ĠT ob
Ġconst ants
Trans port
! "
Ġinst ruction
Ġt ie
Ġproceed ings
ĠG ran
is ons
Ġt ang
or o
Ġacc um
ĠColl ins
f old
Ġs ad
ĠU pper
k l
c ard
Ġcred ited
ch arge
ys ical
ĠNorm an
Ġis omorphism
H ence
Ġclaim ing
Ġautom atically
ĠDe ep
B ox
iss on
Ġland ing
Ġamong st
ĠBl ues
Ġs oph
ĠWith out
n amed
now led
iv ia
$ {\
onym ous
9 00
o ons
Ġw orship
Ġprot ocol
ĠTre as
ĠMicro soft
ĠSal v
L aw
188 8
ĠSo ft
Ġtra il
ĠN i
ĠInt elligence
ĠWind ows
as a
Ġasympt otic
lik ely
ĠJohn ny
Ġlif etime
Ġd ict
Ġelect rical
m und
18 65
B en
re ts
Ġus age
Polit ical
n ames
Ġr anging
ĠMov ie
Ġobvious ly
umb ent
ĠAg reement
b ow
Ġphysic ian
Lem ma
ist ence
our t
ĠU nd
f s
Ġpubl isher
Ġn aval
E ven
rist ol
hib ition
Ġl oyal
y ll
Ġbl ow
g un
ĠC ust
Ġreported ly
Ġev ident
ou b
form s
A lex
D T
L R
Ġsurv iv
cl osed
ĠR ural
f iction
Ġcomp ilation
ĠCat hedral
duc ational
Ġt el
Ġterrit ories
or er
ĠS E
Ġto ler
enc er
o at
Ġdef ines
ĠP ast
ult an
ue z
Ġremov al
Ġh ip
ĠBen jamin
Ġmarg in
ĠSoc orro
Ġwel come
an ion
Ġeval uated
Ġis ot
Ġcl ock
ĠB omb
Ġsent enced
ĠP S
par ison
ĠP ictures
let t
ibr aries
Ġent hus
Ġb ird
if le
Ġpres erve
Ġguitar ist
G E
ĠL ock
Ġnorth west
Ġarrang ement
ĠH orn
Ġfriend ly
ĠV erm
ane ous
Ġhol es
B ur
Ġpart ly
\ }\
ĠGr iff
Ġg ross
ĠS ymph
ur ations
Ġcompos ers
Ġm ail
Ġqu iet
Ġelect ro
Ġexpress ions
um ar
oc ent
Ġsur re
s per
Ġcitiz en
Ġrestaur ants
ĠHun ter
D i
Ġappro ximate
F orm
= .
cl ip
Ġauthor ized
Ġspeak er
ve ct
\ )
ĠO range
ĠQu est
back s
Ġparticip ating
ĠW ang
ĠP ack
}) ^
op al
Ġens emble
Ġrep orter
ĠBar ry
Ġinsp iration
ĠLINE AR
r aska
ĠMed ic
Ġinstrum ental
Ġf ault
Ġeconom ics
D et
Ġex empt
opy right
Europ ean
Ġg rants
Ġguarant ee
ak u
ĠFac ulty
v als
F S
Ġb orders
Ġdis aster
ĠStud ent
ĠC arm
Ġbelief s
as ant
Ġf iscal
ĠL ad
ynam ics
Ġprior ity
Ġelimin ated
ĠC her
pro cess
ul ous
ĠE mb
More over
Ġhol iday
Ġmag azines
Ġlong est
s u
Ġt ies
ĠI an
F ebruary
ot ton
Ġch amber
Ex t
ĠLear ning
Ġdist urb
ass y
ĠJos Ã©
Ġcorre ction
onom ous
ĠColon el
C onst
Ġexpl oration
ĠM all
ĠS aints
ve ctor
Ġw ings
ĠN umber
ĠAcc ount
Ġqual ifying
Ġattract ed
E FA
Ġbig ger
tikz picture
Ġrece ives
M T
ev a
ĠA rena
Ġschol ar
Ġh al
ĠP ant
Ġsub mar
ley ball
Ġnegot iations
ĠStud io
orig inal
w hel
ud son
s ince
Ġemb edding
nt il
Ġat tain
J ew
Ġact ed
Ġdo ct
Ġcompar able
geb ras
Ġexpand ing
cy cle
ĠU g
D en
ĠConf eder
Ġvar iance
b ad
Ġinst ances
Ġs ectors
im ony
ĠArab ia
ar ity
/ (
ĠAn alysis
enn ial
Ġo x
ĠâĢ ł
Ġwh ilst
] ;
Th rough
script style
Work s
t z
Ġref lected
ĠU se
Ġst abil
Ġfl owers
ĠD J
Ġsp ac
Ġmodel ing
an ne
arthe ta
18 50
Ġst em
^{ *
ĠAl ban
Ġvulner able
Ġd uration
ĠY es
Ġdep icted
ĠCarl os
ow ell
ĠChall enge
v artheta
ĠV iol
im port
bm atrix
Ġst ored
os ph
Ġthere by
Ġdef ault
ĠN ord
3 60
ĠI C
I ST
L ong
ed a
ĠM ind
ol ia
Ġdo ors
ĠFor um
ĠB asketball
Ġan om
ĠEd itor
Ġstar red
ĠTe le
Ġto m
}} ^{\
z es
ter ior
AT ION
Ġc inema
est one
Ġinter vention
ĠT ake
Ġtun nel
Ġrefuge es
ok a
es ian
Ġtarget ed
Ġr hythm
ĠIs a
Ġarr ive
ke ley
ap ing
ĠI D
is an
b ase
Ġc a
! âĢĿ
Ġt act
ĠH IV
ra ys
ĠArch ives
P E
ĠPolit ics
Ġprof iles
Ġut ility
ĠGlas gow
f ish
Ġd rew
ĠF ellows
f amily
Ġproport ional
ĠJ ama
n umber
ĠUnivers al
ĠA ld
Å Ł
o i
Ġrep air
}_{ -
Ġfeel ings
Ġex clusively
Ġqu asi
ix on
Ġannounce ment
T ra
in ated
Ġthreat s
ey er
il iation
h ill
Ġreconst ruct
ĠMed iterranean
D is
Ġmach ines
J ack
em ale
ĠFl ore
Ġfluct uations
$ };
ĠSte el
Ġ* /
Ġdifficult ies
Ġfant asy
Ġsol ving
Rail way
Ġaf ternoon
av an
g ather
Ġsc r
Ġde als
A V
ĠV ar
Ġcur vature
T oday
Ġc ogn
Ġk in
Ġper mitted
ĠSaf ety
Ġser ial
h arm
Ġbl ind
ĠPl ant
Med al
ĠSl ov
erson nel
Ġdep ression
10 9
ac le
ĠLiter ature
Ġqu ot
it ects
Ġscient ist
Ġen vironments
Ġf ictional
Ġre un
ĠTro phy
ĠJeff erson
ĠF ine
Ġ$ ,
: =\
s quare
Ġv ib
or ious
Ġven ue
Ġs oc
Ġb io
A rm
ĠE lementary
er en
rib le
au er
g ame
Ġent ities
E r
bor ne
Ġcas ual
be ing
erv ice
Ġmin istry
ier ra
\ }$,
y st
Ġw avel
ĠC hel
Ġf old
Ġd il
Ġsurv ival
column width
augh ter
Ġc yl
E ach
ĠW arner
Ġdebut ed
Ġhoriz ontal
Ġgrow s
ĠB ud
\ |\
S chool
Ġprov iders
Al bum
ut ing
ieg e
ĠThe ory
Ġmaintain ing
ab e
Ġvis its
n n
Ġb ases
Ġresc ue
p ublic
Ġvari ant
Ġtrad itions
Ġview ers
B r
W here
Ġp up
Ġmet all
188 7
ĠPer formance
S ports
Ġne arest
ĠTra il
Ġh orses
Ã¨ re
at iv
Ġprec ision
om ent
Ġperson ally
Ġdisc ontin
ĠT ak
ĠHar rison
Ġearth qu
Ġc able
af e
Ġf itted
j ud
Ġb ott
Ġas ks
ĠI ce
h al
ĠHind u
Â ©
Ġ\ (\
Ġrespons es
Ġrel iable
ĠCharl otte
Ġunder ground
ĠD og
ĠB ond
Vill ages
f ly
}} =
ine e
Ġpo ems
H om
aval ry
Ġinterpret ed
ĠJ erry
Ġc up
com plete
Ġess ay
ĠN am
U L
ĠG ray
in put
Ġs ending
ĠB urg
ri or
int ro
ĠShe l
d est
qu er
186 1
Ġto ugh
Ġb rick
ĠOper ations
Ġgeom etric
Ġgrav itational
ĠSerb ia
12 3
Ġart ificial
Ġf ract
186 4
. ).
Ġp ushed
ab out
Ġpred omin
op en
Ġequival ence
Ġrare ly
ĠSt even
ha ust
188 6
Ġelect rons
u ity
ak ia
Ġsurv iving
Ġdram atic
Ġsav ed
G reen
st at
comm unic
ĠC old
ĠTurn er
fol io
Ġp eoples
Ġrest oration
Ġproport ion
Ġh ref
ĠRich mond
Ġimp ressive
ĠF eb
ĠL P
Ġb rig
l arge
Ã³ w
Ġbrand s
Ġrecommend ations
ĠNAS A
Ġdet ector
Ġsk et
Ġmar ry
fin ite
L ou
ĠS oul
Ġperiod ic
R ob
Ġhistor ians
ĠAthlet ic
ĠMin or
ĠSt orm
Ġtr uck
Ġf itting
Ġd rag
Ġbatt les
Ġ$ .
Ġexcit ing
raz y
Ġemphas is
ĠTreat y
Ġdistingu ish
greg ation
Ġsold ier
Ġsound track
Ġtroub le
ĠMar vel
Ġdepart ure
Ġbund le
Ġdeg ener
Ġcopy right
ĠG R
l oc
Ġc ub
Ġstreng then
Ġf ur
$ ^{
Ġtravel ed
sl ash
ĠB ased
Ġw et
Ġpull ed
Ġw elfare
ĠF ab
Ġsouth west
Ġcoal ition
Ġknow ing
Ġinc idents
Ġremark able
Th omas
Ġpark s
al am
w ig
| }{
cel and
ĠMu hammad
or ient
Ġl aser
D irect
t re
V iew
Ġcampaign s
ĠL ud
Ġsp here
ic he
ĠM ong
Ġphil os
te enth
om on
ig ion
ne e
Ġwhe never
Ġg ard
Ġp ump
Ġcontribut ing
ĠCh ron
ab a
ag ers
om ed
ĠW or
ĠComput er
uss ia
ĠF alls
Ġs outheast
ĠD ays
ĠS even
Ġdem ocratic
am ous
Ġabs orption
Ġres emb
Ġfr ust
writ ing
Ġnot ing
Supp ose
ĠB aptist
b ian
ĠS ax
Ġtri ple
0 10
Ġadvent ure
Ġhard ware
Ġste am
ĠY ang
pt o
ER S
ĠEth iop
Ġaut o
Ġcarri er
Ġo xy
sh aped
ĠA S
ĠUl t
Ġper mit
rom agnetic
Ġswim ming
ĠUnivers e
min ute
ent ry
ĠSp eed
r ise
Ġoccasion ally
ric ulum
}} }$}
Ġthe at
et ics
ĠW ing
inc inn
on ing
^{ (\
Ġluminos ity
quir y
Ġcount s
H am
ĠPho enix
Ġdist ances
Ġdisc ip
Ġceleb rate
Ġ ^
Ġmonth ly
Ġuns uccess
ĠT ournament
Ġmin isters
ro d
ĠF itz
Ġass emb
og onal
Ġr anges
ĠGi ants
Ġimpact s
ĠK it
Ġpaint ers
Ġv ic
ail able
Q ue
Ġscholars hip
u art
s i
Ġadd s
Ġfor get
ro oms
-- -
Ġwonder ful
ush ing
Ġpre lim
Ġto x
Ġmarg inal
Ġsens itivity
iel der
Ġst ochastic
Ġpar ad
Ġ à¤
T T
S en
Ġagre ements
ĠYork shire
ĠRet urn
Ġrestrict ion
ĠJ ess
Ġbusiness man
Ġep id
Ġlog ic
Ġveter an
Ġb orrow
ent er
Ġre act
Ġexpert ise
ĠIndust rial
Ġhydro gen
ab is
} |\
Ġmin i
Ġthe rap
ĠRob in
ĠS O
Ġcan cel
erv atory
Ġgradu ating
Ġiniti atives
C L
Ġre verse
Ġpat ent
G P
Ġterm inal
con f
sub sec
Ġgl ob
anc he
Ġf iber
Ġgu ests
Ġprom ise
ĠW es
L ater
& =\
Ġmem orial
ĠNich olas
Ġat omic
ĠCor p
F I
ĠSt age
work s
ĠClass ic
ĠPer u
} ~
ta wa
incinn ati
ĠMil an
186 3
188 4
ĠG ot
Ġsw it
ĠFI FA
ĠH ope
Ġparliament ary
ĠS ep
Ġfin als
Ġsup ers
Ġdepart ments
ĠN icol
ĠB ranch
ĠT u
hem atic
ĠCo al
ĠColomb ia
Ġtrend s
W ell
P o
ĠR u
Ġfrequ encies
Å Ħ
Ġle af
ĠM ans
Ġexpect ations
iv ic
ĠGh ana
a very
ĠPol y
Ġinf lation
Ġscen arios
amp a
V P
neg ative
ĠM s
Ġbatter y
Ġmain stream
ĠF if
ĠMad ison
F rance
d iff
writ ers
Ġcrick eters
Ġj ournals
Ġneg lig
pl us
re v
Ġfl ower
ĠAn im
ĠY ugoslav
et ries
Ġrecip ient
ĠR acing
Ġportray ed
Ġdefin itions
Ġl ots
ĠCom merce
Pro duction
Ġcut ting
m ay
ĠE ug
R R
ĠW a
akes pe
ĠLeg al
Ġmunicipal ities
Ġpre st
Ġn an
ur u
we ek
Ġdef ining
v ari
ĠSong s
Ġmathemat ical
, \\
ĠS id
In st
E st
ili ary
ĠD M
ĠWith in
ĠCh art
Ġreview ed
ĠJ oy
ĠBelg ian
Ġcivil ian
Ġcomm emor
Ġcorre ctions
Ġemploy er
ot an
È Ļ
ĠM eanwhile
Ġexp enses
hol m
ĠN at
18 00
Ġdynam ical
ĠNeb raska
Ġdismiss ed
ĠK irk
Ġarrang ements
Ġp ian
Ġcompl aint
akespe are
ĠSy rian
y ou
point s
ĠL ov
Ġco aching
Ġwarn ing
Ġun ity
Ġw edding
Ġexam ine
Ġdon ated
Ġg ram
Ġsub div
ĠGre ater
Ġcl othing
Ġev olved
Ġarchitect ural
Ġd ashed
Ġviol in
Ġderiv atives
Ġcap abilities
A ir
ant i
Ġdeploy ed
Ġt ur
f il
Ġrun ner
ĠS r
ĠP rice
Ġlaws uit
ĠCra ig
Ġt um
Ġgall ery
r ust
Ġmag ic
Ġmathemat ics
ĠD at
on ies
ĠT rack
Ġdr ink
ĠBuff alo
w ave
+ (
ĠSt ra
Ġover whel
Ġstraight forward
Ġgener a
ĠS ay
Ġ ?
Ġsh opping
phant om
M ad
Ġ ic
Ġopp onents
188 2
ous ing
ĠO il
our g
Ġoccas ions
ed u
ĠM ason
ĠEu ro
m other
re z
Ġtransform ed
188 1
Ġsk ill
ĠH em
ĠV el
aster y
Ġconstant ly
hold er
W ho
ĠT ogether
Ġsil ent
med skip
we b
St ation
ac o
Ġphr ase
Ġexpon ential
Ġloc ality
im m
Ġimag ine
Ġhe ter
Ġb inding
Ġf ol
ĠMor oc
an throp
ĠNig er
Ġac oustic
f our
mon th
itte es
G a
ĠPier re
ur ring
ĠPalest inian
ĠIn n
Ġcompl iance
ĠP aper
ĠMar x
Ġfilm ed
Ġapprop ri
ĠS occer
Ġdist inction
ĠZ one
Ġins ight
Ġtour ism
est on
Ġper pet
H en
ĠS ad
ĠN eed
ĠAthlet ics
w hen
Ġmut ual
Ġst yles
ack ed
Ġequ ity
pi racy
arg et
ĠH unt
\% $
ab i
ĠAlex and
iv ate
le in
Ġ( {\
ou pl
ĠDemocr at
Ġsec ured
ivid ual
Ġcamp s
ĠSch ol
cent ral
R ef
ant um
M ult
Ġcir cles
Ġwood en
ancell or
ĠV eter
Ġinflu ences
Ġmanufact urers
Ġlimit ations
Ġe ighth
not ag
Ġhon our
186 2
p x
Ġcirc ular
an th
Ġch a
Ġdeterm ining
arn ing
ĠVictor ian
iz z
reduc ible
Ġenh anced
Ġ\ &
ĠM asters
S am
1 18
^* (
ID S
Ġcarri es
Ġcert ified
Ġun likely
ĠC S
ol en
ull ivan
Ġprov ider
Ġproject ed
ĠC ancer
S y
Ġcons iders
ĠL arry
Ġeigen values
ath on
Ġpred ecess
Ġact ively
Ġdel iber
ĠV ic
c ross
pro b
Ġo verseas
Ġp uls
Ġalgebra ic
h aw
ĠG round
ĠCol lect
Ġbirth day
Ġten ure
W S
ĠL en
Ch ina
ut ical
Ġg athered
Ġuncertain ties
ĠL ithuan
ĠSer ge
ĠL ost
Ġin g
ĠM erc
Ġgu idelines
ĠSh ang
Rich ard
Ġâ Ĥ¬
her ical
Ġcorrespond ence
Ġdefe ating
Ġop ens
Ġliter ally
iz ers
Ġtalk ed
ĠT ol
ĠFran ces
ĠL A
ĠP el
Ġintern ationally
Ġn eck
g ood
Ġcom ics
ĠMat hemat
lin ary
ĠR ank
ĠG ay
Ã¶ r
ĠSus an
ĠD id
ĠT ibet
ĠTechn ical
re ction
ĠBeng al
[ -
Ġcons olid
ust ain
Char les
Ġpl ain
Ġun p
ĠP ra
us k
Ġrele g
rupt ed
Ø §
ĠI van
Ġmanufact urer
ĠY ank
Ġvent ure
ik o
ĠC ricket
ĠStan ford
ĠNever theless
rac le
ĠRo om
" :
Ġpl astic
Ġrad i
Ġcult ures
ĠDen ver
ĠAnt i
G old
Ġdes ert
fig ures
u ce
ann ah
ov iÄĩ
Re v
ĠPer ry
Ġpers u
Ġp y
st ra
Ġanaly ze
ĠKen ya
ag ar
Ġform ulation
Ġansw ers
ĠK ath
Ġover t
ĠLe ader
ĠSymph ony
Ġj ail
Ġorig ins
Ġhoriz on
Ġpropos als
Ġl iv
F P
Ġyoung est
Ġalleg ations
ĠTra vel
L ike
Ġlast ed
Ġsubst ance
ĠNov a
ĠG arc
s lant
Ġlik elihood
Ġtrib es
A v
ĠOl iver
Ġor chestra
Ġto w
Ġpsych ology
Î ±
all ing
Ġsequ el
Ġexam ination
el ing
Ġh ung
Ġint ense
Ġbre ath
Ġlist ening
Ġnomin ations
um ing
Ġover come
ĠM ak
Ġinter ference
ĠG ate
Ġdesc ript
ĠR at
Ġres erved
ĠArt ist
ĠLe ft
Ã ª
ĠK r
d ate
ling ton
ĠLu ke
ĠB ristol
ch arg
ĠS now
e a
N or
ĠVin cent
Ġcoll ision
P eter
ĠC er
M ac
ĠRog ers
Ġvolunte ers
Ġimpl ications
ine ar
ĠBer keley
Ġfl ed
Re ad
Ġqual ify
Ġr it
o il
Ġim perial
re ck
Ġtravel ing
ĠV lad
Ġd x
ĠSupp ose
Ġs overe
Ġas ide
st ring
j ar
Ġth orough
Ġw al
Ġst range
ĠO cc
ster dam
Th ree
ĠMont ana
E ast
u ant
ĠPar ish
M ax
b one
equ ations
ĠBar cel
Ġ\ ,\
id ad
ĠMah ar
Ġhuman ity
ĠFinn ish
Ġexpect ation
ĠCl ay
Ġreflect s
=" #
ĠDel aware
olog ically
ĠConst ruction
Ġ âĢĻ
c ussion
ĠGu inea
iss a
Ġsole ly
ym e
Ġcorpor ation
Ġpark ing
ax is
Is rael
K ing
ur se
Ġra w
St at
Ġcho osing
Ġengine ers
b est
Ġinvest ments
B D
Ġiniti ated
M I
- (
yl er
tr ue
Ġst eep
ĠU pd
um s
ark ed
apt ers
Ġdom ains
Ġcont rary
Ġrepeated ly
Ġcomplet ing
ĠArab ic
Ġqu ark
Sp anish
ĠIn it
ĠHeb rew
Ġun iqu
Ġd iet
Ġcab inet
Ġleg s
ĠAd miral
Ġuniform ly
ĠE mm
Ġn a
w he
ul er
Ġcomp rom
uk a
Ġse gments
Or gan
st ers
ĠF un
ĠF BI
f und
Ġcal ib
uck er
Ġcous in
../ ../
ĠW ol
Ġtrans it
Ġorb ital
Ġlabor atory
un it
ĠKe ith
ĠTransport ation
^* \
Ġr um
K ey
New s
Ġdecre ases
Ġport rait
ot on
Ġjud icial
Ġant ib
Ġreg iment
Ġsepar ately
ĠJ oint
Ġpo ets
ent i
Ġmuseum s
ĠO scar
ĠF ro
Ġin fer
Ġbreak s
X i
Ġsp an
g rade
mod ule
Ġb le
ĠM ath
Ġfe as
Ġmanif est
Ġt ons
Ġprem iere
Ġpro sec
ĠDr ive
ĠâĨ Ĵ
oc y
25 6
Ġar ise
ri en
Ġhon ors
AR T
Ġmix ture
Ġdr inking
T own
ĠPrim ary
st age
Ġarg ues
Ġtrans c
ĠGra ce
cast le
arma ce
H D
ĠE ston
Ġp ole
ĠTig ers
ĠFle et
}\ |
Ġele ven
ĠTr inity
duc er
arri ors
ĠCl imate
Ġsudden ly
O V
Ġexp edition
ĠP oll
Ġfl ights
ber ry
mark s
Ġrefer ring
onom ic
Ġco ffee
ĠSpr ings
Ġsh ore
st ad
Ġstead y
Ġchampionship s
Ġorgan ic
ĠB orn
ĠR av
Ġspeak ers
Ġrob ot
is or
R L
h fill
ins ic
Ġaccount ing
ĠSh aw
Ġpsych ological
h ave
Ġf ighter
Ġspons ored
Ġcal endar
ĠWrest ling
Ġconj ug
ah o
188 3
ens or
ĠL ux
omm y
ina e
Ġl ingu
Ġh ate
Ġtrib e
Ġconven ient
Ġaver aged
L and
ĠH udson
ĠObl ast
ĠR ot
ĠT erry
Ġtrans action
rang ian
Ġex haust
Ġf er
Ġoxy gen
in ating
ig o
187 6
Ġtick et
ĠC atherine
it ro
Ġgrand father
ĠP ic
et o
ĠPhys ics
Ġstat ue
ĠCons ervation
ĠF ourier
S al
, âĢĻ
Ġser ver
ĠPl anning
ĠRepresent ative
Ġt y
ĠInt eg
An y
sc he
conn ected
l t
Ġ$\ {\
Ġend ors
ĠD ise
ject ure
Ġfest ivals
ĠSpeak er
N T
Ġpe er
qu arter
ĠCl are
Ġam ended
Ġam endment
ĠR angers
for ced
ĠCont emporary
cor ollary
Ġatt itude
ĠMunic ipality
Ġtempor al
ĠRes ults
ĠAcc ess
13 5
ĠB orough
ĠK os
ind ed
. ]
ĠR ing
Ġsmall est
alt ies
Ġprogress ive
ĠS eb
Ġsl ope
ĠD iamond
u in
Ġearn ing
W eb
Ġst ick
Ġconsist ently
Ġcond emn
lo op
ig m
ĠK ap
Ġref lection
Ġsuggest ing
s ite
ĠS ept
ĠQu arter
ant ed
Ġwealth y
Ġembedd ed
Ġsc iences
f n
Ġal ien
ist ani
ura ble
Ġb oss
as hes
m ill
Ġsoci eties
Ġaud iences
X X
ĠSh akespeare
Ġhand ling
âĢ ī
ĠSh a
Ġme at
Ġmed als
Ġcomp aring
Ġplas ma
ĠUn like
Ġac res
ol ition
Ġcancell ed
Ġcare fully
ĠHig gs
M ass
Ġh alo
187 8
ah l
ok er
Ġs alt
Ġg rey
Ġweight ed
av ed
et e
Ġaut hent
ig s
t age
Ġmy ster
armace utical
est im
ĠBarcel ona
ov ich
B oth
H y
> \
) (\
ĠT H
ĠCamp aign
Ġm ic
G all
ĠJ a
Ġt ribute
amil ies
ars on
Ġless ons
Ġex ch
ĠL ink
ĠG as
B re
ist ically
ĠAnt ar
Ġre actions
Ġeffect iveness
Ġpolar ization
ĠMur phy
l ast
k g
Ġadvoc ate
Ġbank rupt
Ġrequ ests
( -\
` `
ĠSud an
Ġsl ave
am o
ĠCost a
ĠD E
h um
cos ystem
ip er
Ġterror ist
Ġf its
cont ent
G overnment
t or
ĠC C
ĠSt ories
Ġam ateur
ĉĉ Ċ
Ġf a
186 7
v s
Ġattempt ing
b oth
ĠVenezuel a
Ġm os
Ġupd ates
as m
keep er
r als
ĠFl ight
St ep
ĠLl oyd
Ġphys ically
J o
ob b
Ph oto
u ke
Ġwar rant
as ia
~ (\
Ġwe bs
al ities
og ical
T im
Ġwat ched
ast rop
Ġam end
Ġcross ed
Ġprom ised
ĠAgric ulture
Ġw ake
Ġg host
ret urn
ĠB ird
Ġsubstit ute
Ġb anned
Ġsh orter
e lected
Ġachie vement
i ya
il ateral
ĠS or
00 00
{ (\
Ġdef ending
ĠGuard ian
oph one
! ]
row th
et ta
Ġdev iation
ĠAzerbai jan
Ġpeak ed
ĠMc L
Ġchem istry
ill iant
Ġfail s
k ar
Ġb old
ĠV as
ĠCru z
ill ance
K S
ux iliary
up t
Ġe q
Ġgovern ing
Ġtreat y
ĠN HL
Ġdest ination
ur l
in it
Ġsub mit
Ġprote ins
ĠScient ific
Ġsett lements
ĠM uch
Ġsol ved
M a
Ġintro ducing
Ġbas ically
Ġreal istic
Ġtop ology
Ġvo ices
Ġ ,\
ĠWork ers
Ġrev ised
th ree
) ^\
ĠPref ecture
ie v
ĠPro cess
F rank
Ġs isters
ra h
ĠPriv ate
Ġextens ively
ĠB und
Ġceleb ration
Ġbank ing
ou ch
o j
Ġcomment ed
Ġcontinu um
Ġcomput ers
Å ¾
n m
ĠR ule
Ġconfig urations
Ġcent ered
( $
Ġprelim inary
Ġt one
os exual
he ld
Ġper ceived
18 75
Ġvol unt
Ġs weet
ex per
ub s
Ġconc erts
p aren
umb le
ĠY ale
ĠC itiz
Ġtest imony
D B
ĠLabor atory
ĠS A
S ur
Ġnob le
ĠAb u
ĠTit le
eg al
ol ation
Ġlo ans
w au
ĠL LC
Ġm m
Ġbre ast
ew ay
Ġm igration
ĠN ear
Ġup grad
Ġext ending
ur st
Pre vious
Ġmoder ate
Ġperturb ation
Ġqu as
Ġreform s
Ġperform s
Ġdev ast
Ġtrack ing
ond a
ĠTh or
er ion
m essage
Ġafter wards
ĠM ust
ĠI celand
ĠP le
ograp hers
ĠEncy clopedia
spec ific
ĠH ave
Ġch ronic
ins ky
Ġcoll aps
om es
var rho
Ġb om
! \
Dem ographics
text up
ar ithm
P L
Ġb ull
ĠC row
ĠIm ages
ĠHit ler
Ġset up
\| _
Ñ ĥ
Ġinstall ation
m ir
Ġassign ment
f ull
Ġfail ing
Ġm arch
text normal
Ġimp ly
ĠW u
187 9
F in
ĠHig her
back slash
Ġhom ogeneous
ĠG rey
Ġshift ed
ĠS ide
Ġnot iced
Ġexpl ored
Ġplay offs
Ġobject ives
ĠF u
ĠL ate
ĠH aving
187 1
C AR
C amp
ĠY u
Christ ian
ĠW onder
Ġdiff usion
Ġopin ions
Ġpolynom ials
Ġg ent
ĠT ang
ĠP ul
ash a
ion ed
is ot
ĠCan al
q q
187 7
Al umni
ĠTerrit ory
ĠAl tern
ac co
Ġin duction
ĠInd ex
M iss
Ġinst ant
ĠM ater
ĠBl oom
ĠEd wards
ĠAb raham
Ġbi ography
p ay
ĠAl ong
ĠBe aut
m ag
Ġinter fer
ĠNe il
Ġun ions
Wh ite
ĠS z
. \\
Ġen orm
ĠS yn
Ġident ifying
Ġsubsid iary
qu is
act eria
ĠHispan ic
Ġcons ensus
Ġquad ratic
g om
ĠInd ependence
Ġappro ached
Ġev ac
Ġl iability
ĠD raft
ĠS outheast
d ays
ĠCh and
ĠW alt
Ġall ies
ĠSocial ist
ĠP ersonal
Ġch rom
Ġassist ed
ĠMon th
Un ivers
Ġsee ks
Ġaffili ated
ĠB right
m ade
ĠL an
ĠCrim inal
ĠVerm ont
Le ague
ĠSerb ian
Ġsust ained
el ian
Ġf abric
ĠAm sterdam
Ġbo ats
osoph ical
Ġvirt ually
Ġall iance
Ġb oot
Ġconflic ts
al ymp
Ġw ick
Ġd ip
P an
M ount
Ġd ogs
ĠM end
Ġtrans itions
g ets
O ld
Ġel abor
$. }
Ġg r
i ens
pl ot
ĠB og
Ġpro sp
l oss
ig ate
Ġsupp lement
Ġdelay ed
f eld
b p
Ġind irect
Ġspecial ized
ell ion
Ġr ub
R T
Ġst ere
Ġadopt ion
Ġmurder ed
ĠGon z
ut o
ĠS elf
ĠW ord
Ġart illery
id ity
ĠW el
ĠD O
H P
ĠCh ap
On ce
ĠAl t
ress es
G ood
ip art
Ġabund ance
Ġorgan ised
hab ilit
ĠL ion
Ġv oid
Ġend emic
ĠOt tawa
O ff
Ġh az
Afric an
j pg
186 8
Ġiter ation
ĠCh apel
Ġaccept ance
ĠP ath
f olk
ĠMun ich
Ġrece iver
ĠApp ro
wau kee
ĠP ent
vert ed
Ġf ert
ĠB rew
ĠAthe ns
ĠNash ville
ĠT on
ĠIm age
stack rel
ft en
pro duct
Ġchar ter
Ġany where
Ġmon ument
Ġlik ed
ail ing
id o
Ġmy stery
l ater
ĠC incinnati
Ġobtain ing
ĠD od
Ġlabel ed
m ean
N Y
r c
Ġcomp lement
Ġres olved
Ġke eps
ĠP od
ĠIn v
c oll
à ¦
ĠS ah
ro us
ĠH D
u ilt
Ġ( +
Ġy es
ĠFor mer
E conom
Ġprovinc es
ĠBl ock
ĠN C
ub a
ĠJ e
ĠS ean
) }.
h alf
2 20
Ġform ul
Ġunder graduate
ĠBuddh ist
ĠK rist
Ġch ains
Ġind ices
Ġdec ides
ĠGe V
le ading
Ġinvestig ations
Ġcomp ound
Ġopp onent
ĠC urt
ĠGerm ans
ĠAv iation
ig rant
Ġconvinc ed
Ġf ro
ĠT ed
ĠL ess
ĠWat son
ĠDe b
Ġevery where
esc ope
Ġemp irical
Ġstri king
Ġa qu
ĠC u
Ġstat ute
T om
fl ix
Ġenem ies
Ġdevelop ers
Ġtele phone
Ġemploy ers
ĠK il
ĠHoll and
S uper
A re
Ð ²
Ġin cent
Ġautom atic
Ġvar ied
l ia
Ġdu o
it ory
ĠLeban on
Ġphot ographer
Ġinstruct ions
Ġnormal ized
187 2
ĠO wn
Jew ish
18 40
Ġt ends
Ġhelp ful
ul ative
let ter
t ag
ĠY am
uch y
Ġc argo
Ġcap s
ĠK un
$ ^
Ġfun eral
ĠT ext
Ġfacilit ate
Ġcl im
Ġen ables
ect ives
Ġag enda
17 0
D el
Se ason
in ar
Ġwind s
ĠW ikipedia
AT O
Ġpray er
Ġun expected
Ġmole cules
L ondon
ĠMach ine
Ġaccomp any
Ġpl enty
Ġclos est
Ġalleged ly
Ġbroad er
Ġsurpr ised
Ġa ug
Ġwrest ling
ĠP att
C urrent
ĠB ass
r h
Ġavail ability
ibl ical
g rim
sh ot
ir ts
ĠTh ings
Ġdispl ays
ĠR idge
Ġprogram mes
th lete
ĠD ennis
Ġtrad ed
sp eed
L ocal
Ġpat rol
M or
Ġattend ance
S il
M s
187 3
ĠD est
ela ide
Ġ _{\
Ġb ridges
ĠR ivers
Ġfor cing
Ġw age
Ġj oy
Ġevery body
Ġout door
Ġs ax
Ġor al
Ġl ap
Ġspeak s
ĠC ert
Ġcomm une
ĠForm ula
Ġdoub les
Rep ublic
ester day
Ġhar ass
ĠL ic
| $
ĠAgain st
Ġret ro
c z
ĠG olf
| ^{
\! \
Album s
b ane
Ġmem ories
Ġcompat ible
âĢĿ )
ĠP ont
Ġm amm
B razil
ĠK on
ĠDe ut
int ers
uck land
g on
Ġir reducible
Ġfl ash
ric ks
F O
b us
Ġreson ance
C arl
J ose
lic an
ar an
ena issance
Ġdiplom atic
Ġt ables
ĠT alk
S om
Ġlegisl ature
omp ass
od ore
ĠD rag
ut ter
Ġcou p
187 4
am ination
Ġassoci ations
ĠMag ic
S k
ĠD ragon
ĠArch ive
M W
ens en
ĠRoman ian
Ġcol ony
ĠCarl o
ĠR AF
Ġan ime
ul ent
Ġneighb ors
Ġth read
vel t
ut ory
Ġ\ [
ĠJust in
ĠH ugh
Ġdeep er
h aus
Ġchalleng ed
Ġing red
Ġh unting
um i
ash tra
ĠHel en
ant a
art ed
Ġcatal og
Ġport folio
Ġprepar ing
ĠDirect ors
ĠOver all
ĠT oy
H el
fr ame
186 6
W ar
R oyal
Ġint ens
ĠArch itecture
Ġqu oted
Ġabs ent
rel ation
ĠV ict
] (
ĠF erm
ĠL ions
if ice
12 2
Ġm anga
iff s
Ġc rack
ost ic
Ġmetric s
w ind
ĠLu is
ho le
Ġput s
Ġextract ed
ĠHer bert
ĠA round
ĠL ett
st ud
Ġaff ects
ĠL is
Ġel ite
eb ox
ĠWork ing
Ġf ilt
ĠW orth
et own
inv ariant
oth ic
ĠPriv acy
em a
ĠD ra
il ia
Ġt ension
down arrow
ĠÂ ©
Ġl ad
7 50
Ġrecogn ised
Ġprom ising
Ġperfect ly
Ġto urs
ph al
Ġl augh
Ġl ux
B usiness
Ġcon clusions
Ġvolunte er
ounc ill
ĠAbb ey
Ġw ond
Ġsl aves
' _{
ĠB ris
Ġsynd rome
Ġtw in
Ġconduct ing
ugh t
Ġadm its
eth yl
Ġr iding
Ġt ill
ord ination
Ġsh ots
ĠM ann
Ġpure ly
vers ion
ĠP i
yl um
Ġbur den
g t
w oman
ĠC ad
ĠB ath
ĠV ent
ach t
F ree
G O
d ing
ĠPers ian
Ġres ort
ich i
cl ine
ĠAl gorithm
Ġmultip lic
ĠSp ect
Ġcool ing
Ġch ron
ard ed
per ties
b ie
ĠB ert
Ġdens ities
Ġdis ability
h op
Ġmart ial
ĠS ierra
ĠRe form
Ġsl avery
P ersonnel
L i
em p
mult line
ĠT ag
ĠLiber ty
om o
iem ann
Ġrec alled
ick en
Ġvar ies
Ġens uring
arm s
at ivity
Ġdecre asing
ĠF aith
ent e
Ġwebs ites
left arrow
ĠTh anks
Ġgener ator
ĠIn iti
Ġmeas uring
Ġg ro
Ġne uro
ĠM aced
} /\
ĠC redit
ab ul
ring ton
)} (\
ĠNep al
Ġpos it
ĠBy z
Ġab ortion
ĠStat istics
Ġt anks
ew ise
ĠP lease
ai ro
Ġfram es
Ġmod ules
Ġpat ron
ĠD eg
ĠL iga
is ch
s elling
he rence
Ġpod cast
Ġt ag
Ġcent res
Ġtrans mit
Ġult imate
Ġland ed
ingu ished
Ġlik es
end um
Ġfall en
ĠMunic ipal
Ġsh ops
ow ing
Ġpurs uant
ĠS ultan
Ġver ify
M oths
Ġaddress es
Ġp ace
Ġrandom ly
p ace
ĠS oci
ĠCong o
ĠM ort
com mon
bin om
ĠS hip
Ġcert ificate
Ġdeterm ines
Ġhigh lights
ro at
hel m
aj a
Â ·
he ro
ĠWild life
ĠR ou
ĠPhil osophy
ordin ate
Ġl ights
e ah
Ġrat ios
n um
ĠF err
ĠM orning
Ġconv olution
ĠB eth
H ung
ĠAdvis ory
An n
Ġacqu ire
Ġbroadcast ing
B ased
amb ers
Ġremov ing
Ġsp ots
Ġne ur
Ġextra ordinary
ĠCh i
Ġsusp ect
Ġdam ages
ĠPen insula
Ġj u
ind a
ĠW ells
l ag
Ġt issue
Ġstre aming
ĠR alph
] ^
ĠB uch
Ġsimpl icity
Ġinn ings
ĠB ald
S ocial
ĠU V
12 1
Ġst ops
Ġbas eline
im er
M ah
ro le
Ġat om
Ġorth ogonal
Ġpat ri
Ġneutr ino
ĠEag les
Ġrec ruit
ir s
Ġdivor ce
Ġ= >
Ġpract ition
Ġfarm ing
Ġth inks
ip her
Ġaggreg ate
)-- (
Ġsimilar ity
ĠM ick
Ġexam ined
Ġtraject ory
Ġattract ive
Ġsurve ys
gom ery
pr ises
Ġthe sis
agon ist
ĠU EFA
Ġen roll
amb urg
-------- --------
Ġcy cles
F ore
ĠS alt
ĠM oz
Ġres ervoir
Ġdem olished
Ġgovern ance
ĠM idd
ĠR osen
Ch inese
Ġagre es
Ġpre vention
Ġsusp ension
ĠInter view
ĠPro duction
ĠK ay
ĠH at
ĠPhill ips
Ġt ip
( '
ĠJ erem
Ġcl ick
ĠO pt
bl ock
Ġmerch ant
ĠC ox
Ġhistor ically
ĠS earch
en os
Ġunem ployment
f ive
is dom
ĠRe ading
Ġexhib its
ĠL ook
found er
Ġneighbor ing
Ġt rick
ĠL aura
Ġm emb
Ġsk i
Ġper cussion
Ġpip eline
uc c
ett i
ĠT ree
abl ing
Ġex it
ĠE T
ĠLeg end
Ã Ł
Ġfast est
Ġim aging
Ġl obby
leg iate
ĠArm ed
Ġem otion
Ġsculpt ure
ĠGl en
he v
Ġexclud ed
ĠS ox
$- $
Ġboard s
ĠA ber
Ġto ll
Ã ¦
Ġincred ible
ĠCroat ia
qu al
Ġdisp ersion
i ating
Ġinter vals
ĠM ix
ĠPhilipp ine
rag ue
Ġse ar
Ġpl ots
ĠBob by
Ġmount ed
ĠA er
am ep
Ġpre val
Ġcomb ining
D ou
ĠC IA
E F
Ġprot ecting
ES S
F our
ĠE state
ĠPro f
Ġhead ing
Ġdo i
ann i
186 9
ipp er
D ay
ra id
Ġrac ism
Ġs ugar
Ġsubstant ially
ĠPeters burg
Ġres erves
Ġbr ut
Ġass ists
book s
Ġinaug ural
Ġelev ation
M el
ed e
Ġlie utenant
ĠBut ler
os hi
i ology
B P
Ġb achelor
Ġcomp iled
Ġrep ublic
ĠH im
ĠSh ar
des ign
&= &\
ard ing
im age
at ra
ĠF a
S wed
*} [
Ġthr one
Ġin hib
ĠS uz
Ġgen es
Ġanaly zed
ĠV ari
ro b
ĠR an
Ġsim ulated
ĠFlore nce
Ġmeaning ful
$\ ,
Ġ !
Ġan throp
iz able
alax y
Ġl ying
Ġc um
Ġacknowled ged
Ġen rolled
Ġw eren
over ed
ĠIns urance
Ġab ilities
Ġexhib ited
bre aking
r us
Ġob sc
lect ic
Ġaccompl ished
f ielder
ĠS oph
Ġwalk ed
Ġmotiv ated
Ġexcept ional
C T
Ġbe ating
Ġres olve
Ġdiagram s
az i
Ġj unction
Ġp ill
ious ly
Ġbond s
m usic
Ġenc ompass
4 50
Ġtrans actions
B as
ĠPalest ine
ĠC ore
ĠAng lo
Ġn inet
Ġe cosystem
ĠCam eron
ĠC ir
18 30
ĠProv inc
Ġcur rency
ment ed
Ġoff ense
ĠProtest ant
Ġt ale
Ġcontest ed
Ġcompet itors
ĠH av
ĠM ake
Ġanaly tic
P e
ac a
it ic
Ġd war
ĠP av
Ġr ated
ĠHor se
ĠBulg aria
Academ ic
ĠAl ger
st ock
Ġn inth
up arrow
h in
Medal ists
od s
Ġscreen ing
ose velt
ĠBroad casting
Ġcur riculum
C ity
T or
Ġass et
ĠAn cient
Ġdocument ed
sh ort
Ġproduct ions
Ġmechan ics
ip ients
ĠHar old
ad ic
L ove
Ġt orn
Ġd ivid
at as
Ġorigin ated
W eek
Ġshe et
ĠSl oven
Ġsum mit
Ġrespons ibilities
Ġtrans verse
ie ve
h uman
am ation
em ark
Ġfoot age
18 48
Ġtradition ally
uc es
es y
ĠB ir
Ġcitizens hip
Ġbus y
Ġm as
ĠFour th
Ġpl acing
ĠSte in
Ġt rem
Ġpro sper
ĠDi ocese
ĠS eg
Ġer ected
Hon ours
int o
ĠBl u
Ġpal ace
M ont
Ġdiscrim in
Ġaltern ate
Ġb ills
ĠFilm s
ace ae
Ġe ating
ĠC elt
18 57
ĠHug hes
Ġpoll ution
te chn
Ġm ines
ĠB our
Ġsong writer
ask at
ĠJ en
bold math
rate ful
Ġpeak s
Ġpun ishment
Ġt ribut
Ġfight ers
ĠArmen ian
s ome
Ġdesign ation
ĠArn old
c ott
Ġf ate
D ue
ĠInd igenous
uss els
In f
}{ {\
Ġen abled
Ġcorrel ations
ĠGreg ory
ic i
Ġpropos ition
ativ istic
Ġveter ans
Ġdro ve
ĠR ules
Ġoccur ring
Ġexc av
Ġm i
th al
Ġch apel
ĠSt uart
qu ality
Ġfoss il
Ġcond itional
uth ored
ĠRe ed
Ġd reams
Ġb at
Ġpro l
Ġplay off
f a
Ġre nown
is i
U r
ĠK ate
Ġlim iting
S ir
Ġeg gs
ĠM ig
Sm ith
Ġin herent
ĠHe avy
Ġg ains
ĠRon ald
ĠE instein
Ġim per
Ġhas n
text color
Ġtransform ations
arm ac
Ġqu ery
ĠK ash
M o
ab we
Ġent ers
resp ect
Ġde ce
Ġtick ets
Ġhop ing
ĠAssoci ate
Ġstr ings
ĠE lection
M ary
Ġcorrect ly
f ilm
h ad
B ro
S em
Ġthere after
Ġrevolution ary
\ [\
ĠH ob
let ed
Ġrat ings
Ġsquad ron
ĠAdv anced
ĠUn fortunately
place ment
á º
ĠA x
Ġsal ary
ĠM ul
Ġelimin ate
E A
St ring
Ġfor b
Ġcomb ine
ĠGh ost
T urk
12 4
M ex
ĠD elta
ethe less
B o
Ġh urt
ĠTest ament
ĠN an
ia o
Ġcomment ary
iv ities
Ġbarri er
Ġachie ving
el ia
Ġwrit ings
P G
Ġhighlight ed
Ġcomfort able
k ind
J ac
Ġover view
Ġmanufact ured
Ch ild
ĠF ish
ĠWeek ly
Ġtour ist
ort ex
ĠBe ing
Ġm o
R ock
Ġprov es
Ġstrugg ling
Ġwor ry
ĠB aby
@ {
ch ain
Ġanim ation
ov sky
ĠAd elaide
Ġr ally
ĠP ick
Ġhe ating
port ed
Ġad equate
Ġachie vements
ĠGil bert
Ġoblig ations
Ġinf antry
Ġdo zen
Ġterror ism
ĠS ony
ĠApp eals
p iece
Ġreg ression
p ing
Ġed itions
Ġm ild
Ġmorph ism
Ġdrum mer
ĠK ur
ry s
part y
if iers
ĠWall ace
un s
J im
ĠHer z
ach i
Ġc attle
p ine
Ġpregn ant
ut ton
ĠHar vey
ĠD rama
Ġpost erior
S N
Ġfif teen
Disc ography
Ġc av
ĠA aron
u ition
G erm
Ġto uring
Ġb read
com put
Ġth ir
ĠLat ino
ĠC L
al in
Ġbu ying
) ).
z b
Ġin sc
Ġmiss ile
f act
iz on
Tax a
Ġexpl oring
Ġearthqu ake
ĠCor ollary
Ã¡ s
ment ation
ĠPsych ology
Ġexp ense
B ill
Ġ rib
row ing
ĠS F
Ġconf usion
ĠArt ists
sh ore
ic iary
Ġsec ular
b etween
G r
ĠMe chan
ĠVen ice
Ġl ens
os ity
imb abwe
ar ial
p ret
ĠLe o
ĠC eleb
ĠG rade
Ġfun ny
Pl ace
Ġm oth
Ġremark s
enti eth
Ġmil k
Ġbon us
Ġd ying
ant in
ĠM ol
Ġstation ary
Ġc ow
ĠRey n
ĠC T
Ġbelong ed
Ġspecial ist
Ġviol ations
V is
12 7
ĠK id
ĠA uckland
ĠN athan
Ġep och
Ġang les
Ġen z
12 6
Can ada
ĠSo on
ĠT odd
=\ {
ĠArt illery
Ġplan ets
art et
im its
ĠEd die
h ra
Ġ$ ^{
ĠAct or
Ġinstitution al
Ġb es
Ġcon ce
Ge V
ĠM oney
18 59
ij i
u ador
Ġl ung
it us
Ġuncle ar
v or
Ġdevelop er
Ġdraft ed
Ġdis orders
Flor a
S aint
s eries
Ġbi ology
ĠJ ar
P rior
Ġs hed
f ers
Ġremember ed
min ster
Ġdoct rine
n ol
U P
" /
art z
ish a
Profess ional
Further more
h ot
ĠSing les
Ġ\ |\
ĠLead ership
ĠH az
Ġbl ues
ĠD ol
pro pto
ĠClark e
Ġan ten
Ġtempor arily
Ġb ishops
bro ok
D D
Ġball ot
st ates
Ġcol span
Ġhand ed
Ġb one
Ġin cl
xi ety
iz a
Ġh unt
b uilding
d ash
Ġdefend ers
ĠO z
h istor
Ġdecre ased
Ġmake up
Ġad mit
aw s
Ġgather ing
S everal
dr iven
__ _
C le
Ġtack le
ĠV oice
ateg ories
e u
Ġcon vey
Ġburn ed
B H
Ġfollow ers
Ġrad ar
ĠG ene
in ery
Ġrepe at
M ag
B ase
Ex per
Ġnation wide
ĠWrit ing
Ġpri ests
intend o
Ġkid n
i ast
ĠE ld
Book s
ag ger
Ġsusp ected
ĠLeon ard
ov an
AN D
}. }
24 0
Ġgraph ic
ĠCo hen
M et
land o
ĠId ent
Ġfun ctor
Ġhom eless
J ud
Ġcorpor ations
ĠCh an
ĠInter est
st own
Ġsub space
Ġcivil ians
Ġbr illiant
ĠN ame
ĠInstit ution
Ġconstit ute
Ġenter prise
Ġc oc
ĠLag rangian
Ġarr iving
Ġper ception
Ġpubl ish
Ã± a
e or
ĠP resent
ĠD ame
ill es
Ġjournal ism
Ġeng aging
ĠSch w
Ġattract ions
Ġcontinu ity
Ġre nov
Ġdiagn osis
Ġacc retion
ĠSchol ars
orne ys
ĠB ach
ĠC ant
ĠF at
Ġpower ed
ĠD ocument
Ġir re
Ġav iation
ĠHe in
uls ion
ĠTr ue
Ġam id
Austral ia
Rad io
Ġaff air
Ġp or
Ġeditor ial
ph ase
N G
id i
Ġwild life
Ġmir ror
ĠCo ach
$ '
ĠR aid
Ġcons piracy
ĠCons ult
g overnment
Ġvari ants
Ġcateg or
cept ions
Ġh orn
d ensity
Ġh ang
ĠR equ
Ġun w
L ive
ac hers
á ¹
Ġg ran
li ers
ĠMus ical
Ġcust ody
Ġlegend ary
Ġbe ings
umb ai
ĠInvest ment
Ġdis pos
ĠShang hai
Ġanalys es
ĠR enaissance
He alth
ĠN ancy
Ġeth n
Ġra pe
w p
ĠAmb assador
Ġc emetery
Ġp uzz
Ġcare ful
h is
Mus ical
ĠF iction
Ġgener ators
the y
Ġcomm anded
mathbb m
angle ment
ellig ent
Ġign ored
d rop
Ġemp ower
ik es
2 30
ĠR oth
T ags
f ont
ĠT as
Ġillust rate
im s
Ġsc andal
ĠNorth west
Ġfore cast
ent o
Ġcontinu ously
c est
d istance
Ġd inner
Ġrest ore
Scott ish
ĠR uth
Ġconsult ant
Ap J
Ġis omorphic
Ġfif ty
Ġconcent rated
Ġprob e
Ġexhib itions
Am ong
ĠHen ri
ĠRo osevelt
Ġresearc her
Ġexplos ion
Ġfriends hip
Ġimm une
ĠL ot
ĠH ousing
Ġbox es
load s
oca ust
. $$
Re view
ĠArch bishop
ĠOak land
Ġenorm ous
Ġmem oir
Ġcom merc
p ack
________ ________
ĠLe vel
ĠProduct ions
Ġcompos itions
Ġentreprene ur
& &\
â ĪĴ
Ġhe ll
utr ition
ĠPr int
_{ +
ĠM ut
in ement
Ġch apters
Ġart if
Sh ort
O K
ĠIS BN
\ },
if old
Ġsett lers
ĠL isa
ces ter
Ġimp ression
ĠG az
Ġadmin istered
Ġquarter back
ĠLuc as
A thlet
Ġconv iction
ĠT ab
Ġpseud o
ver b
Ġinf ected
ord ered
ator ies
p in
o qu
Ġb its
\ }.
former ly
Ġinher ited
ard i
Ġph on
Ġcomp ly
ur red
ĠBenn ett
T our
ic z
el ly
un al
u h
omin ated
Ġdiscip line
ĠNor folk
Ġphot ons
ĠJenn ifer
Ġrel ocated
Ġemp ire
ra red
Ġt ape
ĠAm y
Pro v
Ind ia
Ġst rang
A uthor
Ġglob ally
om i
G rand
ĠAssoci ated
Ġvol tage
Ġspok es
ĠFil ip
k n
ĠHar bor
Ġsh ipping
op ing
Ġsh ield
ĠColumb us
am med
Ġcl ause
b c
U M
ĠHop kins
Ġthr iller
T w
Y es
Ġaddress ing
Ġprest igious
j ab
ĠB oe
ac ular
c aster
Ġs ang
Ġaccommod ate
ĠO m
Ġsupp lied
d al
Ã ī
Ġm oon
iv odes
ĠA w
ĠConfeder ate
ĠNob el
ĠIraq i
e i
Ġin ev
ĠSp encer
ound ing
, ...,
pr us
Ġtri angle
am y
com b
ĠE sc
Ġsurviv ors
Ġgradu ation
Ġcosm ological
Ġco herent
ĠF OR
n ecess
Ġl ibraries
Ġse eds
Ġrow s
Ġc inem
Ġin ject
Ġexecut ives
g al
ĠNet flix
17 5
en burg
Ġprint ing
v et
Ġimp ose
Def unct
Ġadvert is
Ġhard er
uch i
Ġa est
Ġar ising
av ier
ĠA B
Ġle ase
ĠD ig
Ġro ster
us er
he ll
Ġdist ant
Ġanaly tical
f ight
Ġr ings
ĠCom b
Ġpreced ing
Ġlocomot ives
ĠMil waukee
Ġinput s
bor o
Ġcry stal
Ġfilm ing
$ \\
Mod el
ĠCov id
ubb ed
ap est
ĠHil bert
re leased
Ġbut ter
Ġvari eties
field s
ra pped
Ġdistinct ive
1 19
W il
Ġp ounds
we ak
val ued
ac les
ot er
Ġconn ects
ĠMont gomery
E X
Ġlov es
Ġce ased
L y
ĠCon sequently
T ext
Ġt ub
ĠAll ied
Ġburn ing
Ġdes per
ĠGro ve
te am
Ġor chest
Ġpo ison
Ġte ch
) }$.
Ġmaintain s
Ġp sychiat
ĠPro blem
ĠS W
S um
Prop osition
Ġcommunic ate
Ġdisestabl ished
ĠBro s
el ines
Rec ipients
ĠP rison
i w
ĠEx cell
Ġb ay
Ġcam eras
Ġinteg rity
Ġan th
tr ivial
ah an
Im age
amep lay
Ġj ew
Ã© l
Ġlegit imate
ĠEr nest
Ġconf used
Ġplay wright
art a
Ġproceed s
iv ation
ok en
ĠB ened
ern ess
Ġcomp anion
ul ator
ĠS ett
Ġgra ve
Ġcontrad iction
ok o
ĠJ ava
Ġcomp ounds
Ġcollect ing
ĠS old
m itt
ĠTh under
id ation
* \
Ġconj unction
Ġdoll ar
fl oat
ĠM ade
ĠDr ug
ĠOrig inal
ĠAng lican
Ġpost p
ĠAir lines
Ġrel ate
ĠPark s
Ġattribut es
Ġt iny
omorph isms
res ult
ĠJo an
M ale
ĠN y
Ġdef ended
oc hem
Ġevery day
hem e
T ER
N P
art icle
ĠB ear
ĠO R
names e
ĠP DF
ĠSc reen
Ġneighbour hood
Ġl engths
EE E
Ġaff ecting
isc opal
Ġgard ens
ĠPal mer
v as
S l
ĠA ra
ĠHe aven
Ġf ame
He ad
15 00
cl ide
Ġin ad
Ġrenown ed
Ġspl itting
Ġcon ferences
ff ield
ĠF oster
ĠT R
18 58
Ġem peror
ĠS ource
ĠN urs
at en
math it
2 10
H ol
ĠE SP
ivodes hip
ĠM obile
circ le
Ġfor ty
Ġreb uilt
Ġg ear
Ġown s
ĠM ills
Ġphenomen a
Î ¿
Spec ial
Ġd iamond
Ġdel ight
Ġgold en
Ġleg ally
Ġunit ary
Ġsp herical
u ine
Ġfin ancing
ce il
leg raph
Ġhop ed
ment ioned
Ġtr ump
ĠS ullivan
ol ics
ĠY ellow
ĠFellows hip
trans lation
ops is
us c
oid al
Ġco ins
St and
EC T
14 4
ab olic
ĠD aw
Ġfl our
ĠV II
it ars
Ġgovern ed
ĠO w
child ren
Ġh ook
non ym
ell ers
Ġart work
ĠH ait
M ur
N L
ĠN A
j or
he res
h all
Ġcompris es
ro e
sen al
Ġ ),
Ġcop per
in us
ĠLe eds
Ġro cks
ĠRay mond
Ġsup ern
Ġorder ing
ĠG amb
p red
Ġle agues
ĠT otal
e ut
Ġrun ners
Ġsh ifts
pp e
re ach
Ġw ard
ĠArgent ine
ĠRh ode
Ġkin etic
) }$,
th ick
ber y
Ġin ference
Ġun ve
C oll
Ġhon ored
J ul
Ġoff set
Big g
18 54
on line
miss ible
ĠG ust
Ġs or
ar ians
Ġf inger
Ġfl av
n ell
ĠF ul
ira ble
ĠId aho
ĠM az
12 9
Ġform ations
z ens
ĠR ah
l ower
ĠC hester
ang ered
Ġto ured
Ġsynt hetic
}^{ +
ĠDo es
Ġwarn ed
Ġoverl ap
Ġsomew here
i ph
ĠIniti ative
W ashington
}) ^{
Ġcap ability
ĠTreas ury
Ġcl othes
Ġag gressive
ĠB ak
ic ism
ĠAr c
pro blem
im ination
b oys
ĠS askat
Ġorb its
ran o
Ġwitness es
ĠCh ang
Ġ\ {\
ĠBel arus
G reat
un ing
oc ate
sk a
ip linary
Ġed itors
ĠCamp us
sub equations
iv ated
ĠSt ef
emb ourg
Ġpul se
ene ath
Ġc iting
Ġple ased
Ġhous ed
Res earch
U E
h m
ur as
ĠTh ai
ĠPrinc eton
l m
Ġtourn aments
Ġhar vest
ĠCirc le
Ġfavour ite
ib n
math tt
Ġt ube
Ġaccur ately
w alk
Ġconsider ably
Ġb orough
18 55
ov ing
Ġfore ver
det erm
Ġcann abis
Ġimpl icit
Ġencounter ed
ĠSol ar
Ġsh adow
Ġpre t
ĠVo ivodeship
ĠLegisl ature
Ġinteg ers
b ank
ĠDer by
Ġf usion
D own
ĠZh ang
Ġa uction
27 0
Ġun stable
Ġf atal
Ġn ep
ĠMar io
ĠBrook s
vent ions
Ġr ice
ress ing
Ġpregn ancy
Ġor ange
ĠNew castle
Ġposs ibilities
cor respond
ĠS yl
ĠCar r
se p
Ġcry st
Ġacknow ledge
ys ics
ĠInst agram
Ġst yl
Ġsh aped
Ġnurs ing
C ase
ĠHar per
ĠK ill
) [
E nt
m ethod
ck nowled
Ġtrav elled
param eter
ĠB egin
ĠD ate
er os
ĠCh o
Ġhand led
Ġen velop
ĠT ommy
Se lected
Ġprevent ed
Ġlif estyle
Ġc ro
pl an
or ic
abet es
ĠD h
Ġth rown
Ġp ale
Ġ{ $\
ĠIsa ac
t ically
ĠS ic
om atic
eg u
Ġlog o
ec ca
Ġconduct or
ĠSt ring
K n
ĠEngine ers
K e
iz ard
l ass
ĠCab inet
ond o
ĠC ann
ans k
big cup
Ġmet ropolitan
yl an
Ġcross es
Ġexp end
ist le
g ie
ĠD rum
Ġcon e
R ound
ĠG T
Ġinst ability
ĠUg anda
B T
ur ated
ĠD ictionary
Ġguarant eed
Ġc ave
ĠR aw
ĠĠĠĠĠĠĠĠĠĠĠĠĠĠĠĠĠĠĠĠĠĠĠĠĠĠĠĠĠĠĠĠ ĠĠĠĠĠĠĠĠĠĠĠĠĠĠĠĠĠĠĠĠĠĠĠĠĠĠĠĠĠĠĠĠ
**** ****
ĠIn novation
13 2
Ñ ı
Ġdemonst rates
m un
s ized
st ructure
Ġd imin
Ġclass room
Ġen v
ĠR ams
um ann
Ġ ~\
ĠS H
Ġdiv ide
Ġsurve illance
am ine
Ġpione er
Ġ\ }
] )
Ġresign ation
el o
ĠBris bane
ĠB av
Ġdeg rad
Ġphil anthrop
m ary
14 5
small skip
Ġrel ay
ĠWood s
Ġsy nonym
Ġad mission
Ã¶ n
ĠE ight
Ġg ymn
Ġf isher
ĠR ange
ĠF ed
am pton
Ġmicro sc
ĠE C
Ġphysic ians
et ed
re ens
count ry
$ }}
}^ +
Ġintr insic
c ano
18 56
Ġafford able
paren cy
Dist ribution
Ġpresc ribed
sw ick
ĠCom edy
Ġt aste
M O
us ive
ĠCh a
D iv
n al
AS S
Ġrecommend ation
ĠTun is
Ġl iver
, '
h ou
out heastern
Ġm ad
ph abet
Ġprof its
Ġsent ences
ĠCommunic ation
ĠBey ond
ĠComp etition
Ġa thlete
ic us
Ġhonor ary
$ &
ĠS Ã£o
ĠLi u
p rec
erv ations
inn ed
Ġpres ervation
( [
Ġmist ake
th ood
ĠM BA
s om
{ .
ĠBl og
Ġlight ing
) _{\
ĠR af
ĠVal ent
P oint
Ġcount ing
Ġdec k
ĠRevolution ary
B er
ĠN ATO
Ġd ancing
Jose ph
heim er
Ġkeyboard s
song writer
Ġwithd rew
ĠP icture
l ate
ĠPro perty
Ġeigen value
Ġshel ter
ject s
oy age
Ġep ic
Ġst eal
ĠMethod ist
w ang
ĠC inema
ĠEqu ation
Ġ- --
ract ed
ĠCy cl
ĠS ang
im mer
Ġst olen
ĠGab riel
ĠS ey
ĠWars aw
% ),
h ind
ĠO g
ĠPro file
h art
Ġ ..
ĠIn g
angel ical
ĠSt ore
Ġnation ally
orient ed
Ġmod ification
ĠL amb
ĠBre ak
Ġdisapp ear
Ä Ł
Ġb ag
Ġtravel s
Ġdifferent ly
á ŀ
ĠCom ment
og g
ĠCa uc
s em
Ġjoint ly
less ly
Ġw ages
ĠGram my
Ġfle w
ĠFran co
h im
Re lease
Ġs us
ĠP L
ĠImp act
Ġcare ers
Ġval ued
Ġplan es
ĠAr ctic
Ġto uc
ad vant
18 51
Ġarr ives
p ress
ull ah
n b
Ġapprec iate
Ġdr ives
ĠL ex
M er
;\ ;
ĠD anny
18 52
Ġstret ch
deg ree
Ġstre ams
z ig
Ġdiagn osed
Ġcrop s
R ay
Ġcogn itive
ĠE ve
Ġsever ely
Ġhost ing
Ġh ide
ĠT rain
ĠRod rig
ĠPed ro
Ġswit ched
Ġimplement ing
C ritical
ĠMan uel
clide an
Ġin comp
Ġal gebras
Ġinc umbent
ĠF R
ĠJ ung
Gall ery
ĠC ome
ĠP ain
by ter
Ġsub urb
b ecause
ik ing
Ġtechn ological
Ġconscious ness
Ġann ot
Ð ´
O l
k ern
\ }_{
ĠĠĠĠĠĠĠĠĠĠĠĠĠĠĠĠ ĠĠĠĠĠĠĠ
Film ography
Ġanalog ous
C re
ĠN ak
Ġw orn
Ġsac red
w ent
et riz
Ġread ily
f urt
Ġar ises
Ġsoph istic
c urrent
gra v
L ittle
w rite
_{ [
? ?
Ġamb assador
Ġgra in
ting ham
Ġseem ingly
Ġspect rosc
ĠJul ian
per iod
foot notes
ll i
Ġdem anded
Ġcomb inations
Ġtri ps
intend ent
ĠB rid
ĠM umbai
Ġth rew
ĠSeb ast
Ġcart oon
Ġins ights
Ã¼ n
Ġge odes
Ġrefer endum
Ġvers e
Ġsens or
Ġstri kes
Ġman ages
ĠW ald
ĠJama ica
E s
ĠGra duate
Ġpl otted
Ġoblig ation
Ġencourag ing
s or
ER T
erv atives
isc her
ĠSpec ifically
h anded
Ġg al
Ġrel atives
Ġbarri ers
ie u
Ġprof ound
}) =\
Ġco at
ĠPar am
Ġpredomin antly
Ġup set
S ign
Ġlit igation
aur us
Ġdiss ip
anc k
ĠMark ov
Ġcl an
d or
Ġbomb ing
it an
con v
at ri
Ġbe ars
Ġf iring
Ġp ension
g ray
Ġun anim
Ġtreat ments
Ġpredecess or
ind ependent
emph is
Ġadvant ages
Ġbel t
ĠL ac
Ġdescend ants
Ġte a
Ġte eth
ĠZ imbabwe
U V
Ġhard ly
ĠPlan et
habilit ation
P ublished
Ġsearch ing
Ġt ut
ĠÃ ł
Ġlog arithm
Ġelev ated
ĠBi ography
Ġpropag ation
k ay
Ġkit chen
ĠAh med
im pl
ĠS ustain
Ġre organ
Ġinc ons
ĠP rest
Ġinstit ute
In s
Ġadv ised
13 3
ĠDef inition
ĠH amburg
av ia
man uel
at em
ĠSc ar
Lou is
Ġl os
as ive
Ġtim ber
Ġcosm ic
Ġdis abled
Ġcompl aints
ĠEmer gency
t itle
Ġbe er
Ġcul min
Ġgeneral ization
ĠPlay ers
ĠCl oud
P I
ĠSing le
Ġs ends
Ġrow span
ĠTr uth
F re
ĠGu ild
ĠVir t
ĠV e
Ġe ase
ur bs
Ġalign ment
13 6
} >
Ġcont ents
Ġdecor ated
Ġunsuccess ful
Ġcert ification
Ġsh apes
Ġw ishes
ess a
ĠN O
Ġcoll isions
ĠCard inals
lic ations
ĠN one
Te chn
Ġsyn chron
ĠEp isode
Hen ry
Ġadv ances
Col lege
Ġrenew ed
ĠP rague
ĠKn ights
ĠS ex
H R
Ġmet aph
St r
ĠC hes
ĠPet e
em e
Ġgrad es
Ġpit cher
Ġrecon c
f unctions
ĠM ik
Re al
Ġcrit erion
Ġdiscuss ing
l b
sp in
Pro t
Ġwe aken
Ġtim ing
W estern
I rish
Ġlay out
ĠK ids
ĠScot ia
Ġwal ks
C y
Ġsome how
pre ced
n ership
ĠFran Ã§
Ġmat hematic
)= (
ĠAp ost
footnotes ize
& -
add le
15 5
ĠAg es
ĠBl ake
ĠWell ington
ĠSoft ware
Ġch iral
16 5
Ġwar fare
Ġh itting
Ġpres idency
P ac
al is
Ġpra ise
ĠC urrent
g ender
Ġinvestig ating
Ġab oard
Ġinv al
Dan iel
Ġbe et
Ġv isc
umb ers
Ġs its
Ġg aining
ĠPar alymp
Ġaccept able
Ġple asure
Ġmort g
er ie
Ġstay ing
ĠK ra
re view
Ġrenew able
L D
S oviet
ah u
h orn
it ary
Ġconver ges
f ar
hav ior
Ġg raphics
ent on
Ġoverwhel ming
Ġz ones
ĠPar ad
Ġdraw s
ĠCre ative
ĠS ak
Ġpil ots
Ġflex ible
st ore
Ġ( ).
Ġcou rage
lim ited
Ġestim ator
ĠW inn
ĠStev ens
ĠJ ur
Ġadvoc acy
w yn
Ġesc aped
ĠMoroc co
ĠF ind
ber ger
Ġcontroll er
Ġcongress ional
Football ers
ĠDec ision
Ge org
Ġmon ot
Ġreven ues
Ġplace ment
ĠVlad imir
ri er
bre v
ĠC ork
_{ -\
mid t
] =
S F
ĠGl ass
Ġsett le
Ġsynthes is
d f
ĠBr ussels
ĠR ice
Ġstrugg les
ia z
Ġprohib ited
p her
Ġtrig ger
Ġnovel ist
ĠR ac
Ġconsist ency
Ġmind s
ĠRh odes
he ng
B etween
ow der
tt ar
Ġatt raction
Ġtra ff
Ġsav ings
ĠReyn olds
ĠG and
Ġwavel ength
Ġem otions
ĠEc uador
n ational
ĠKaz akh
Ġnon profit
Ġs aving
ĠF oot
ĠCub an
et ter
ĠR us
ub ert
Ġprot otype
Ġpix el
ĠK ol
Ġtal ented
Ġconsider ations
G od
Ġmod est
Ġman ual
ĠInd ies
T rump
cite alt
ĠNap ole
ĠOr d
Ġhier archy
Ġisol ation
isc he
G ener
s outh
Ġattack ing
13 4
Sp ace
Ġadvis or
Ġem igrants
Cent ral
ĠBat man
Ġprevent ing
ra its
Ġp ose
ĠEll is
ĠB io
Ġvalid ity
ĠPresident ial
Ġpat ch
Ġneut ron
N O
ĠMarc us
oll o
Ġann ex
ĠProgram me
che wan
p olit
Ġdis band
Ġtrans mitted
Ġpush ing
or rect
stan bul
Ġback ed
ĠC ec
ĠL akes
Ġinterview ed
Ġentreprene urs
ĠS ter
Ġbus es
unc redited
18 49
ĠNot ice
Ġhop eful
Le ft
hes is
ĠW als
Ġvol leyball
Ġsport ing
ĠHol mes
ĠP eng
U D
st ruct
Ġret reat
ok u
Ġprosec ution
Ġharm onic
d ev
ĠSe lect
Ġtour ists
Ġy ard
Ġg ates
3 20
Ġjo ins
ab ol
ĠR C
ec ution
ĠCy prus
Ġc ad
Ġaff irm
Ġconvers ations
Ġsubmar ine
Ġb acteria
inf o
ĠC raw
Th ough
Ġel dest
Ġrel ies
Ġext inction
Ġbar rel
Ġinvest ed
Ġex terior
in as
Ġfre ed
Or der
ul ates
Ġf iling
Ġhe m
Ġbehavi ors
ĠR ather
Ġsec urities
Ġpeace ful
R ivers
Ġl ib
Ġcontroll ing
I E
ĠG ov
amp ed
ĠT all
Ġrecip ients
Ġdig it
Ġdon ations
ĠL if
Ġfle e
F ar
^+ $
ĠP erson
om ers
ĠB irth
ch annel
igh bor
Ġkilom eters
C am
Ġscatter ed
u on
ĠFerm i
Ġm asks
ĠG ent
Ġinc hes
Ġpresent ing
rict ion
ĠJ in
Bl ue
enh agen
ash ing
Ġre ass
Ġfarm s
K K
ĠHer ald
Ġw ore
Ġg amb
ag i
Ġtherm od
ĠE is
Ġv ig
Ġwe igh
ĠSc hed
def n
ec onomic
âĢ¦âĢ¦ âĢ¦âĢ¦
Ġarchae ological
ob o
ĠPan ama
ĠArmen ia
Ġstand ings
Ġview ing
ak ov
ĠF ly
ĠThrough out
Ġpl ates
ac cess
Ġimprison ment
ĠSalv ador
V er
ath i
Ġhum or
ig g
H F
L ie
ig ue
Ġcan al
Ã© r
Ġrout ine
Ġair line
Ġt et
ĠD oll
as is
ĠAcadem ic
Ġs ung
as ures
os lov
ĠIss ue
ĠBrun swick
Ġdesign ers
}[ !
G al
ĠLet ter
Ġl akes
ol ine
ĠA chie
ĠEq s
ĠR achel
xim ity
V ar
Ġtra ged
( {
sp ot
ĠF ighter
ĠMark eting
ĠWil helm
ĠEag le
Ġr h
Ġd t
Ġproject ive
ing en
Ġsp ell
ĠA F
Ġfre ely
eff ective
ĠB od
bo at
ĠAr g
ĠAct ress
Ġdecl aration
ĠPear l
ĠB ody
ĠK eep
re b
ĠP os
arri or
Ġic onic
Ġin quiry
ĠB esides
Ġmon arch
S un
air y
at z
Ġ ĉ
ĠGl obe
Big l
Death s
Ġident ities
ish i
duct ive
D esign
Ġext raction
preced ented
ĠT ampa
Ġtra ct
ĠG ang
ill on
sc reen
ĠW i
) >
ĠP in
oc ols
Ġsp ir
ĠDur ham
per ature
Ġstud ios
ack ing
ere k
ĠIndones ian
ĠB ears
ĠGard ens
Ġan xiety
Ġreason ing
ĠP owell
Ġt une
ĠK as
| _
ĠMe eting
Ġbankrupt cy
Ġgl obe
Ġph osph
ĠPh ase
ĠCom plex
Ġcomm ittees
Ġaff ine
Ġg ray
ĠOr lando
N umber
Ġmon op
Ġc hest
D utch
Ġanticip ated
Ġmon astery
ev al
Ġnep hew
Big r
K O
it ud
Ġfound ers
Ġhuman itarian
osp here
sub stack
Ġactiv ation
ch air
Ġcollabor ated
Ġam big
ĠN uclear
Ġaf raid
ã Ģ
Ġh ub
Ġl oud
Ġprob abilities
Ġs le
ed o
Ġclust ering
ĠByz antine
Ġaut onomous
agn er
Ġbre ach
V A
Ġunder go
ess ing
d ou
Ġpoint ing
Ġsan ctions
Ġrul er
ort heastern
add y
13 8
F ield
l ooking
ĠS of
ĠOther s
Ġextens ions
ĠÅ ł
ĠBrad ley
Ġferm ion
ĠU ntil
Ġperman ently
Ġa uxiliary
anc ers
i ago
Ġo ct
Ġspac etime
ĠB ec
Ġm ere
Ġrom ance
Ġwire less
H M
Ġpoor ly
Ġg rateful
ĠDun can
Ġst roke
Ġathlet ic
s un
Ġcl ergy
Ġdemand ing
e ur
18 47
ĠGen eva
ĠEs sex
ĠB A
ĠRe id
ĠDise ase
Ġrock et
Ġswe ep
ĠI F
Ġund erm
Ġmid field
c ost
Ġtr unc
C ref
ĠT yler
Ġare na
Ġh ills
Ġh int
ĠSw an
text sf
is y
ool s
Ġnom inee
oy le
Ã Ĺ
Ġm ood
nt z
ĠSand ers
ĠT ask
Ġelder ly
Ġprem ises
Ġany more
Ġbatt alion
Ġche ss
Ġcomm enced
. /
ct uary
Ġinduct ed
Ġimp ressed
Ġimm un
Ġdemonst ration
ĠP ink
Ġal tered
Ġreason ably
B ul
Ġst uck
ass ion
ĠÃ ģ
c ule
pr ising
ĠR ut
empt y
im o
bl og
ĠSum mit
x it
Ġinsp ection
Rel ated
est ing
O bs
Ġacceler ation
ĠS ul
ĠIndian apolis
en eg
Ġb rew
t ar
ĠĠ čĊ
ĠK umar
Ar gent
d esc
ĠDes ert
Ġweak ly
ĠOrig inally
B F
Ġinter ven
ĠEthiop ia
}} ,\
ĠR iemann
Ġport ions
Ġred e
st atic
ĠV illa
duct ions
Ġdisapp eared
Ġcontrad ict
Ġwithdraw al
Ġperform ers
ĠM Ã©
Ġgod s
Ġb icy
S W
' $.
d ict
ĠTh an
k an
Ġde alt
ĠEm ily
ĠF erg
13 7
cond uct
Ġsuperv ision
ĠEm ma
Ġj ack
ĠLett ers
Ġinv ented
ĠJul ia
Ġneighborhood s
Ġn ut
ed uc
Ġen abling
ĠMahar ashtra
ĠN intendo
Ġsome body
B rien
ĠMot ors
Ġad op
oc ene
S i
leq slant
Ġsem if
\, {\
es ar
l at
Ġacadem y
ĠStock holm
Ġcrick eter
nol imits
Ġad s
E G
Ġcompris ing
m ake
Ġfor wards
Ġhom ot
Ġh alt
atin um
I reland
s uper
Ã ¯
Ġharm on
Ġen force
Sim ilarly
ĠA ires
Ġeth ics
ĠRev ival
ĠS L
ang les
ĠSom etimes
ä ¸
ĠL or
ĠPaul o
Ġs iege
j k
is o
Ġb ary
'' ,
ĠCh oice
Ġlearn s
ĠH aven
ibl ings
ĠT ong
ens ions
er i
ĠChel sea
ond e
Ġtrig g
ĠCoal ition
Ġm ature
ĠO S
ĠD R
L ee
rows er
Ġincorpor ate
ĠDist inguished
Ġd ign
Ġdis par
Ġdis joint
Ġbeat en
Ġpop ulated
od ic
du al
ĠCl aim
ĠCamb od
ari um
m ode
qu et
ĠFried rich
18 53
ĠYank ees
Ġstrugg led
ĠS weet
Ġch ore
Ġcompris ed
im en
) ),
H uman
ĠS ent
lev ard
ol an
9 78
el in
app rop
mod els
ĠESP N
iv o
ĠPract ice
Ġpen et
Ġinter change
Ġcont ra
enn ium
Ġmotiv ation
ĠNiger ian
ĠDec l
erv ous
ĠHol ocaust
ĠRel igion
Ġresid ual
Ġinf ections
ĠMan it
ĠT at
Ġanch or
Ġpolit ically
ath a
ĠF lem
Ġk ings
he nd
Ġdis abilities
ĠLaw s
Ġmyster ious
cl osure
Ġinh ab
so le
ĠAmeric as
Ġdisc ipl
Ġd iver
Ġent anglement
Ġintro duces
Â ®
C r
ĠN ine
a ude
asc ular
m ans
Ġfeas ible
ĠCath olics
ĠApp eal
ĠBa iley
ĠO wen
oy a
eck er
Ġd ish
Ġexpl aining
ĠDav ies
ount ed
ĠT error
Ġmin eral
Ġinter active
\, ,
im ages
c ounter
Ġdes k
Ġcommission er
ĠC F
el ong
Ġprison er
Ġgen uine
ĠStr ong
ĠH arm
ĠAn aly
à ¬
Ġvan ishes
Ġsubs ets
ĠGrand e
p es
om ical
ĠViet namese
Ġlux ury
Ġcry pt
Ġgu ided
K L
ĠCom mercial
13 1
T O
Ġemb rac
Ġs ake
ou x
ĠCom ments
ĠOut standing
ĠAst ron
Ġdefend ants
ec a
Ġiter ations
Ġind oor
Comp anies
ul ing
Ġdepart ed
Ġter rible
Ġbal anced
est rian
Ġurg ed
Ch ief
ĠSher iff
Ġp unk
}} =\
ĠG ospel
Ġrev ival
ĠPak istani
ĠPhys ical
display math
ĠArm strong
Ġmus cle
Ġdeliver ing
ĠUS D
Ġir regular
G N
oot s
g ary
ac ional
Ġhot els
ĠC ounsel
am as
ĠVeter ans
Ġfell ows
ĠHe ights
Ġgl ac
ĠK in
fl at
ĠEm ploy
W ater
ĠB anks
col m
ĠYe ah
Ġgener ates
Ġbas in
L uc
Ġp ap
or ate
Ġarch itects
ĠChem ical
ĠYugoslav ia
H a
ĠR ush
Ġland mark
ĠWest minster
Ġthe ology
Ġshould er
Ġaffili ate
s ay
Ġefficient ly
ĠN otes
Ġori ented
## ##
ĠShe ffield
Ġcho ir
Ġpian ist
Ġt enth
Ġprov ing
Ġimprison ed
ĠDiv is
ĠL oc
}) ;
Ġfaith ful
ĠAndrew s
Ġneg lect
not in
ĠMet al
ĠDem ocracy
d ashed
Ġm erc
Ġdo zens
ĠF lying
ĠS ales
Ġn urse
Ġevolution ary
ĠÃ Ĺ
Ġse p
Ġco in
d z
= -\
ĠPl us
g iven
Ġres ist
ĠM ine
Ġinter im
ĠJac ques
equ ival
w t
ou p
\| ^
ĠPart ners
T reat
ov ina
Ġcommun ist
m ember
Ġpro spect
lic t
Ġens ures
At lant
Ġpurs uit
Ġy esterday
ĠSim pson
ĠChar ter
arri er
atch ing
ĠSm art
Ġprotest ers
C all
Rec all
M edia
Ġste pped
Ġam plit
Ġinc orrect
ĠSt ri
ĠB R
part icle
Ch arts
vel ation
ĠF ast
ĠSol omon
ĠAng els
w ords
Ġdef ender
/ .
n av
ĠTre k
ĠCroat ian
il ian
ĠC urrently
ĠL ives
Ġvacc ines
Ġcloud s
Ġfin anc
ĠF L
art en
h ig
um en
ĠG or
Ġcy ber
ĠChe ck
ĠDou g
ab ove
ast ics
per t
lig a
ĠV ision
M ot
ĠPer haps
Ġs id
Ġworksh op
Ï Ħ
Ġrele asing
inf all
Ġanom al
yp ical
ĠH ass
ĠBulg arian
ĠGl enn
Ġworksh ops
re et
ars ity
Ġcirc ulation
Ġt ar
ĠAb original
ĠReg ulations
Ġkill er
Ġgu itars
S umm
ĠF DA
H ouse
ind uced
f requ
Ġfund ra
ne apolis
Ġe cho
Te am
Ġaccess ed
Ġwork force
ĠCh ase
Ġprem ium
ĠSus sex
on ial
ĠI v
Ġpropag anda
ov es
ĠNot able
Ġang ry
Ġtraject ories
ond s
stand ard
Ġarg uing
ĠPo etry
Ġp ist
zh ou
Ġtrem end
Ġfol ks
Ġto mb
Ġcorrel ated
Ġp orts
Right arrow
w al
Ġrel uct
Ġresp ected
Ġmort ality
b ird
Ġ{ };
L o
Ġpron ounced
Ġcasual ties
ĠM ull
Ġsp ite
st ation
iz ational
ĠGener ation
Ġconform al
"/ >
Mart in
p he
Ġe ar
th ird
I O
ĠC ell
Ġse ized
Ġtheat rical
Ġcreat or
ex ists
script scriptstyle
Ġqual ification
Ġany way
Ġk nee
Ġdisput es
A U
y d
ĠPo isson
ĠH alf
ĠBry an
T HE
Ġm isc
ĠK rish
Ġapp ell
ĠTas man
ĠFif th
ĠI BM
] ^{
o fficial
ĠS uff
b org
Ġhe aven
l ier
ot ypes
Ġf ake
ĠCard inal
ĠLeg ion
lev ant
Ġcol ours
ys on
Ġrel ates
Ġrem n
umber land
ĠRichard son
Ġphilos opher
ju ana
ers hire
22 5
ĠL it
Ġlo ops
Ġde ployment
ĠPal m
ĠQ CD
U k
Ġtrav elling
ĠSim ilar
Ġtrac es
b its
f ounded
Â §
ĠJ ak
st op
Ġarch ive
Ġn ights
ĠN as
ĠSh ould
ĠRoll ing
ar u
ph ib
Ġed iting
sh ow
ari juana
ĠRe ich
ĠPublic ations
us on
an mar
Ġmand ate
ĠJohann es
Ġconst rained
new line
Ġmand atory
und a
Ġpurs ued
Ġess ays
ĠMar ri
ĠP orter
Ġprec ip
ri ans
bol ic
Ġbench mark
or um
Ġmethod ology
Ġbre eding
ĠEvent ually
Ġcollabor ative
Ġs ew
v dots
sp eaking
On ly
ĠTh ank
a qu
ĠCal gary
Ġrecru ited
ĠKer ala
Ġqu ote
Ch ris
T P
ĠA ur
in j
ĠVol unte
Ġb alls
Ġliter acy
ĠL az
Ġpro ximity
L abel
n ai
Ġcon jecture
Ġspread ing
ĠLux embourg
IC E
Ġsustain ability
ĠL enn
ĠPrinc ipal
ĠFant asy
w ait
Ph ys
Ġeth ical
Ġche cks
ĠB ag
pr im
ĠMay be
Ġmob ility
ĠC risis
le arning
ĠL oss
Ġmat ched
Ġpr ince
ĠSp ot
Ġtrib al
Ġgu ards
Ġathlet ics
ats u
Ġacc us
ĠCol in
Ġsail ed
ĠAn a
ĠS aw
ĠObs ervatory
ern er
14 3
Ġguarant ees
ĠB ark
Ġminim ize
Col umb
ĠAG N
ĠPop ular
B bb
le en
ĠD uc
Ġr ifle
ĠA j
18 46
Ġcolon ies
ov anni
, [
B s
E U
be it
âĨ ĳ
ul o
Ġhy d
ĠC ut
ĠL ak
Ġre op
Ġcompos ite
ĠS ig
um ph
rol ogy
Ġun precedented
t ics
Ġd ancer
ron es
us a
arth y
Ġment ions
ĠS EC
ap a
Ġcheck ed
io let
ĠKenn eth
ĠMaur ice
Ġinv ention
ĠM iles
ĠHur ricane
c ock
es a
Ġb ell
ian ces
Ġall ocation
ĠEnter prise
Ġundert aken
Ġb eneath
Ġprim itive
ĠGib son
F ictional
ĠS ym
all ow
ĠLind a
Ġbox ing
N AS
ch ief
ĠBeat les
Ġbad ly
ĠBu enos
Ġamplit udes
Ġfound ations
t ree
ĠEv ents
c ity
Ġgrand mother
ĠG DP
Op en
m oment
B ob
on so
Ġpre ference
F i
ĠF ras
w hat
play ing
ĠB order
ĠSh i
ĠDev on
ĠBos nia
in formation
Ġdraw ings
) |\
Ġc ock
Ġlog ical
18 45
Ġexp onent
You ng
re asing
ĠB elf
Ġ icon
enc ia
G s
ĠDou ble
M il
Ġcontin ent
' )$
L ine
ĠSaskat chewan
ĠFe ature
p ers
communic ations
m ith
Ġlect ures
en o
Ġm ock
20 2
ĠG alaxy
Ġearn ings
oot ing
J ean
==== ====
Ġincred ibly
^* _
} <
ĠL ar
th on
ĠCh ad
Ġall ocated
cond ition
Sing les
Ġcon g
Ġcl ip
Play ers
V C
h s
ĠMax well
ĠBar ack
d eep
ĠPer th
ĠMal ay
ĠPlay Station
et res
Ġvict ories
param eters
velop ed
Ġst opping
Ġ$\ |
ĠMc Donald
ar ound
so ver
ĠArch ae
| =
J on
ĠN g
t x
Ġabsorb ed
Ġwitness ed
U pd
Ġsus cept
ĠEx hibition
Ġvic inity
Ġam bit
Ġbe aring
h ang
18 20
r ically
ĠC ob
Ġqu een
iff e
Ġellip tic
st ead
Ġfit ness
Ġpro c
Ġsuccess ion
ĠSp ider
aw i
im eter
orm an
Ġbackground s
Ġsure ly
Ġun ch
Ġevent ual
ĠO ber
ĠNad u
Ġopen ly
s chool
ĠSh ield
ĠA part
Ġreport ers
ĠInter ior
Î ½
ĠM onst
Ġflood ing
ĠMos es
Ġr amp
Ġdis placement
Ġwid ow
ĠG y
Ġutil ized
Ġprompt ed
S ched
Ġdet ention
~ (
Ġadvoc ates
Ġ }}
ab b
Y our
ĠTw enty
Ġmur ders
Ġcon qu
Ġsocial ist
Ġblock ed
Ġf ires
Ġcub ic
sh op
Ġdepos its
Ġcount ed
S H
Ġvolunt ary
Ġadminist rator
Ġprocess ed
Ġcap ita
Ġalt itude
Ġnick name
st art
Ġcap ac
ĠAbd ul
Ġtow ers
Ġas h
ount ain
ĠM emphis
ĠF olk
ĠY emen
ĠApp lied
Ġimportant ly
Ġnormal ization
Ġlast ing
ĠPer iod
F red
ĠDi rac
ĠM ead
ole an
h ome
i ott
ĠMal ta
ĠP red
Ġcov ariance
ĠIm pro
ĠTig er
Ġcontact s
Germ any
' $,
re a
ĠZ ion
Ġhom osexual
Ġf illing
Ġr ic
Ġpen alties
Ġf ru
ĠK urt
Ġsc ar
p y
Ġf u
Ġh ist
Ġbur ial
28 0
Ġdebut s
H aving
ram ework
atic an
Ar thur
Ġconven ience
ll a
ĠRe agan
Ġland sc
Ġaut obi
ol and
Ġcor ps
14 7
av ian
Ġv in
ol ith
Ġ }$
ĠH od
om eter
Ġrelax ation
Ġequ als
ÅĤ aw
est e
ĠDe al
Ġsw ing
ian e
Ġopp osing
Ġvocal ist
f red
ĠK aren
ĠM O
Ġconclud es
mark et
harm onic
ĠDisc overy
ĠE t
S ar
ĠC hern
ĠB ever
Ġfavor able
Ġhero es
Ġquestion ed
ĠOtt o
ĠC osm
E W
ĠB ras
spec ies
m ons
ĠK or
ĠEconom y
Ġstat utory
raph ic
Ġign ore
Ġrec urs
Ġres iding
Ġtra pped
Ġded uce
ut a
Ġun ited
Ġdr ift
necess ary
ĠH us
Ġac claimed
Ġmemb rane
ĠD oc
Ġinequ alities
Ġk inem
ĠNot tingham
Ġinf inity
Ġind uces
ari us
) |^
ĠD ylan
Ġsophistic ated
role um
byter ian
Ġdiss olved
Ġbare ly
} ~\
pl ant
Ġinj ection
ĠConc ert
ah a
Ġdram atically
Ġvalid ation
Ġdis advant
ĠJohn s
ari ate
ĠMer it
ĠReview s
Ù Ħ
Ġmod ifications
18 37
ĠGe off
Ġd rain
Ġl ady
com ed
Ġviol ated
k k
Ġcor p
Ġl ip
14 8
m ic
ĠV ers
ĠMig uel
A cknowled
T M
r ors
ograph ies
og o
b t
m us
ĠPart nership
Ġf ed
ps y
rest rial
ĠSom erset
ĠNot re
com plex
Ġtransport ed
Ġimag inary
Ġsp arse
Ġnorm s
is ive
ĠL iv
Ġsaf ely
Ġansw ered
Ġde formation
P ak
Ġelect romagnetic
Ġformul as
13 9
ĠBened ict
ĠProvinc ial
ĠMy anmar
Ġche ap
Ġtra iler
Ġdec ays
Ġpurs uing
Ġch ances
Ġline up
Ġtox ic
ĠI L
G ame
ad ier
Ġless er
Ġt weet
ĠB un
ĠCl if
Ġd y
Ġrep eal
ĠV ern
ĠCont ract
ĠDomin ican
Ġtre ating
Ġnon zero
M ap
Ġg aming
ĠG ren
ĠC oul
ĠComp anies
s n
S yn
ter bury
ph p
he alth
Ġprop ri
K im
Q ual
ĠAdd itional
ĠC N
ĠFran z
$ &$
Con f
Ġc razy
Ġd ad
T otal
Ġcol ored
ĠAn imal
Ġconsult ation
Ġt ent
18 38
Ġpriv ately
ĠC yr
Ġprom ises
ĠMathemat ics
W he
bel ow
Ġsacr ifice
Ġan isot
Ġstrong est
QQ QQ
r floor
Ã© g
Ġsqu ares
ig nt
ij a
sh arp
l floor
Ġ= =
Ġalign ed
ĠD ale
Ġroll ing
18 39
ĠSur v
Ġs a
ĠM ang
Ġap olog
C ities
ess ment
ĠS uccess
ĠClin ical
ĠV il
Ġg est
3 000
Summ ary
$ _{\
and ro
ĠV ery
Ġoutl ined
ĠEd mund
ĠIs le
Ġmain land
ĠLou ise
mont on
ĠHend erson
Ġcon gregation
ĠPop ulation
ĠCorn ell
ĠCop enhagen
Ġpr ide
Ġrend ered
ĠSecond ary
Ġperturb ations
ur an
C omb
M eanwhile
ĠK ind
ĠWe ather
Ġquot ient
tri angle
ĠD iana
t racks
Î ¹
Ġsm oke
ĠS V
Ġra infall
)} _{\
Ġreg ards
em por
val uation
| _{\
ĠM ail
im an
Ġst ones
Ġdevelop s
v iol
Ġfe ud
Ġs iblings
ipl oma
ĠG rim
out ube
ar re
Ġal arm
Ġrem ix
e fficient
ole cular
l ocation
Ġdiv ine
F ull
Ġadjust ed
ĠV a
alth ough
" (
d an
Ġwarm ing
ĠP and
Ġpotential s
ĠUS S
Ġbenef icial
ond uct
Ġcoupl ings
Ġb atch
I B
Ġgradu ates
Ġf ier
Ġexperi encing
ĠWrit ers
Ġbl ame
o que
}} )$
st ed
ĠA ub
Ġres umed
Ġterrit orial
D es
B rown
K A
ar in
P ower
ĠX I
Ġstruct ured
Ġwant ing
Ġavo ided
pro duced
Ġbrig ade
Ġmid fielder
ĠInvest ig
le igh
l ived
Ġsuccess ive
Ġadvis ory
ran es
Ġpix els
ĠLuther an
Ġc os
Ġpup ils
Ġfant astic
ĠJerem y
kins on
ĠP on
um ably
an z
R ugby
r ina
oc ide
Ġren ormal
Ġw are
ĠM ob
ĠUr ugu
ĠLore n
Ġprivile ge
18 12
Ġte aches
Ġsupp ressed
Ġthick ness
Ġmodel ed
Ġcard inal
g iving
L ead
ĠM TV
Ġl un
a que
Ġobs erver
u fficient
Ġatmosp heric
Ġcarri ers
Ġpartnership s
Ġaver aging
war z
Ġnav igation
ric ia
Ġgirl friend
Ġenact ed
S B
Ġab olished
Ġso ap
ĠInit ially
if iable
Ġtouchdown s
M arc
Ġd up
Ġs ke
Ġlock down
Ġfood s
Ġcomed ian
Ġwork place
Ġhelic opter
Ġdisp ers
ĠK i
iber al
ĠO N
ĠAut o
ur rection
Ġexpl ores
ĉĉĉĉ ĉ
C ross
id ays
Ġw isdom
Ġb apt
. }\
er als
W W
ĠBi ology
Ġshe ep
V ir
he y
Ġobserv ing
ib a
ĠS qu
14 6
ĠExcell ence
uis ine
ĠAnd rÃ©
' }\
v ation
Ġad verse
le man
itud inal
Ġafter math
25 5
v ance
ĠD j
Ġdet erior
Ġult ra
I ts
ĠGer ald
overs et
Ġapp eals
Ġassum es
ĠSl av
S up
te ch
Th ird
Ġm arijuana
15 2
ĠImm igration
Â »
Com put
Ġout lets
Ġdocument ation
Ġconsult ing
Ġpres erving
Ġb ike
at ta
aus es
Ġhom etown
Ġp icks
Ġlist ings
ĠLes lie
ĠJo el
Over view
Ind eed
ĠIll ust
Ġlat ent
Ġtra p
Ġtact ics
In it
rec ord
C ath
Ġsurre nder
ĠS ons
I CA
io x
And rew
Ġ" [
ĠCon vers
, .
} &\
M ike
e ach
ĠN R
Ġserv ant
se par
Ġun con
ĠL odge
yp ically
ĠH ost
ne um
ĠL ords
18 35
Ġint elligent
Ġaccommod ation
ĠGeorg ian
Ġgra ce
Ġt ier
Ġsens ors
er b
L M
14 1
Ġprot ocols
ad ows
ch itz
ĠL arge
Ġswitch ing
Ġres il
Comm on
18 44
Ġapplic ant
Ġaband on
ĠShort ly
op ed
Ġpre jud
ĠEu clidean
ĠL ok
ĠA id
ĠW ey
abl o
Ġdepict s
b racket
l ift
ĠManit oba
Writ ers
a ft
Ġdiff ers
Ġwor ried
ĠPot ter
ĠM is
ĠW arriors
Ġb ol
c hem
ĠSh adow
s ol
Ġdisc retion
ĠStrateg y
ĠG M
Ġuniqu ely
ĠO st
c ov
ĠWy oming
un ter
Ġinteg rate
Ġamend ments
ĠY uk
Ġun t
ch ant
Ġconstitu encies
Ġprot agonist
roll er
ĠHe at
d ue
p it
Ġto b
ĠJud a
Ġal ert
}) _{
Ġparticip ant
}_{ {\
ĠBaron et
any on
Ġvot er
bu ilt
v ens
Ġinf ring
Ġh arsh
k t
Ob ject
Ġd ressed
ut er
Ġfurn iture
Ġn ervous
Ġshall ow
Ġimm igrant
Ġcapital ism
Ð ¼
Ġcr imin
Dem ocratic
Ġartif acts
ĠM old
Ġsur pass
Ġdiscuss es
sim ilar
ĠM E
F oot
Ġmob il
sing le
ad ers
Ġint rig
ĠVis ual
Ġsuff ices
Ġfasc inating
Ġharass ment
l ive
u ate
ĠC av
Ġtend ency
t b
en za
Ġreb ounds
ĠUnd erg
ĠSant iago
im edia
mod ern
Ġambit ious
I ll
m f
Ġf ears
Ret urn
ĠCelt ic
Ġatt itudes
Ph ot
ĠPun jab
al og
Ġfre ight
ĠAgric ultural
ĠCour se
18 41
Ġf oster
C at
ĠFin als
as an
ĠA ri
ĠD A
Ġcounterpart s
18 36
Ġund ers
Ass ume
Ġm aj
Ġassemb led
Ġcomm od
to o
d ig
Ġbl ank
Mod ern
ing o
ĠE ducational
ĠIn side
ĠEd ge
Ġbut ton
ij k
appro xim
Ġan ger
Ġut ter
Ġdisestabl ishments
P O
Ġep it
Ġsket ch
Ġhol y
W ind
ens ation
Ġsampl ed
Ġret iring
ĠSec urities
ST ATE
ĠFl oyd
G D
Ġra pper
ar ag
Ġacadem ics
ĠN atal
ĠBer ry
Ġoccas ional
ĠAll an
Ġvirt ue
Ġline arly
ĠAss ume
ĠI stanbul
. (\
Ġ$ [\
Ġmyth ology
Ġd ot
ĠBou levard
Ġen larg
Ġshould n
14 2
15 6
Ġg aps
ĠD y
Is lam
lect ions
Ġm ath
Ġsw ord
ĠCurt is
anc ies
ib an
Ġpar as
Ġoccur rence
Ġe gg
Ġend e
Ġlic ence
Ġb out
e o
ĠGu atem
Ġgrand son
Ġlift ed
Ġgen res
ĠK yle
ĠAh mad
Ġreb ellion
quarter ed
W al
ĠG ates
ĠMor rison
ĠAl pha
Ġr iders
cont rolled
Through out
math ds
Ġtw ist
T ake
et z
ĠRe lease
Ġw ors
ol in
ort ium
Ġ ).
ĠTan z
ĠDev il
ĠM aking
ĠV ersion
ĠAn at
Ġtempl es
ĠG A
ĠMan ila
p ic
G reek
ĠB S
ignt y
Ġext inct
Ġv end
g rand
let te
ĠMin neapolis
b ib
Ġfemin ist
Ġint im
ĠC rist
Ġcondemn ed
Ġsl ot
ĠSh in
or p
Ġon wards
Ġhold er
Ġsum s
ĠAlbum s
ĠM I
Public ations
Ġcat hedral
en stein
eg ovina
Ġflex ibility
les h
ĠX X
enz ie
ĠBoe ing
Ġnucle us
Ġcom merce
AR S
Ġ| ___
Ġaccept ing
Ġb uck
M ethod
C V
all i
pro file
Ġreleg ated
Ġinn ocent
Rec ord
S ystem
et rical
ĠI de
ĠW aters
cc c
Ġra bb
ĠH off
eg er
Ġsp ont
s al
qu ot
Ġfeed ing
ĠLyn n
ĠEmm y
Ġag gress
ĠSh ore
ĠCitiz ens
ĠWes ley
ĠClass ical
Ġsummar ized
ĠC os
Ġveloc ities
m ina
Ġsp anning
Ġal phabet
Comm unes
en i
Ġsub mission
Ġl unch
Ġquant itative
Ġdescript ions
ĠB ore
Ġpe ers
Ġcr ashed
ĠT ales
ind ers
Ġimpl ied
ĠStrateg ic
Ġ$ $\
P lease
in ent
Ġcust oms
Ġpit ched
Ġfar mer
ĠMan ufact
s er
Ġtw entieth
Ġn ose
15 4
ven ile
O H
Ġstr at
ĠHe ath
B a
ĠCr us
Ġdial ect
}^{ (\
Ch arl
Â ½
Ġhand ful
ĠCh ancellor
L ocation
op hers
Ġc otton
Ġproceed ing
Ġt ram
Ġatt orneys
ĠPro gress
Ġweak ness
ĠD w
ĠPre vention
Ġtor ped
Ġcycl ing
ĠL t
rid or
Ġlett ing
P DF
Ġj ets
ĠWh ich
C ho
Transport ation
ul ence
on ne
Ġkill s
ĠEll en
ĠR F
ot ics
Ġco hom
Ġorgan izing
Ġ ^{\
Ġrit ual
Ġra id
ĠDep ression
the ory
ips chitz
ay ette
n st
Ġspeed s
B road
}{ }
H ouses
l ined
l iter
ĠV III
Ġshe ar
ĠW end
ĠTour ism
Ġspons or
c ats
C ur
Cal ifornia
\ /
ĠY an
Ġvo iced
ĠM illion
ing ers
ĠSc out
Ġphil osophical
IT Y
Ġcrit ically
b ounded
Ġout per
Ġconf ined
ĠChem istry
= (\
R out
Ġfor um
ĠCh uck
Ġh ire
ĠL E
Ġde pr
Ġc ooking
18 42
d b
Ġan onymous
ĠEngine er
N orthern
Ġv it
Ġshare holders
ly mouth
Ġb ats
Ġsem ic
Ġcontribut es
ĠF eder
ast ed
ash ire
20 5
Ġdies el
ĠM ean
ĠE ye
en ic
al ong
O U
aid en
r ar
s ix
ig rated
Ġepid emic
n is
Ġsur ge
Ġsubdiv ision
Ġg ifts
ar is
ĠSac ram
18 32
Ġnob ody
ĠF an
Ġlo ose
Ġeduc ator
g ement
y g
T D
ĠK iss
Ġbul let
ur ate
Ġun m
umer ical
ĠInt roduction
cont rol
Ġlect ure
O pt
Ġm arri
ĠW agner
Ġdis charge
Ġcav ity
, ~
Ġord in
ari at
ĠC ord
ĠI gn
ex cept
ato es
elect ric
Ġthe or
Ġenj oys
ĠG ross
ll er
an alysis
ĠC over
ĠCorn wall
ess es
Ġvari ability
Ġmultip lication
gl obal
Ġ }{\
Ġide ology
Ġexcept ions
Ġconsequ ently
Ġdiscl osure
ar am
Ġtri o
Ġemer ge
ĠWhe ther
le ys
ĠH ale
Ġper former
Ġsimpl ified
Ġcook ies
Ġmed ic
Ġp in
Ġorgan ize
eed s
Ġoutput s
Ġpract iced
ant om
ook s
h urst
ĠEug ene
ĠD in
Ġc ens
Swed ish
he tt
Ġmark ing
âĢ¦ ]
Ġwel comed
Ġtraged y
Ġapproach ing
ĠLuc y
Ġart ic
Ġp ending
Ġele g
Ġg ig
ĠGr ass
es ome
Ġ\, ,
v able
ĠNAS CAR
Ġsp iral
Ġnumber ed
it on
Ġtermin us
Ġpassion ate
As ian
Ġreven ge
18 43
ĠDub ai
ĠM orm
Ġce ase
J eff
ĠR isk
unt ed
ir ie
Gl obal
N ever
s it
M id
ann ers
Ġmanufact ure
ip ur
Ġr ivals
Ġk een
15 1
Ġb arg
ud ed
Ġperm its
utt le
I ran
k el
il ogy
ĠA ch
stitution al
pot ential
ĠAdvent ures
E vent
ent ric
26 0
Ġrefuge e
Ġun incorporated
16 6
Ġdece ased
Ġex ile
Ġinteract ing
ĠProgram s
ĠEvery thing
ĠCO N
Ġden omin
Ġc ant
F ort
u ctor
ĠT ell
Ġsculpt ures
is le
D ate
c ia
Ġthere of
ĠPl aza
ĠK arn
ae us
ĠJul ie
Ġflo ors
le z
Ġfin itely
ĠNS W
Ġac ute
ĠH ir
ĠStand ards
Ġd ubbed
ĠTrans it
ĠK end
16 8
' :
Ġtr im
m art
Ġsupp orter
ĠCar roll
ĠE aster
idel ity
Ġingred ients
W ood
Ġinf ect
ĠNew port
Ġpersp ectives
Ġsegment ation
C N
Ġp our
ild a
ĠFrank furt
ĠP apers
Ġke ys
sp ring
Ġfl avor
Ġdef icit
S a
Ġv ow
ĠSh ir
Ev ents
Ġb unch
Ġsubstit uted
ĠV atican
ĠD as
Ġodd s
Ġelabor ate
n ed
ig i
Ġneglig ible
ĠBarn es
il ion
ĠN GC
Ġatt ribute
ĠLithuan ia
Ġdirect ing
ĠC ash
m ile
âĢĶ âĢĶ
Ġreconstruct ed
is ible
G overn
Ġtob acco
ĠTr in
ĠCh in
ĠMichel le
inc ome
ĠPl ate
st orm
ĠDar win
ĠEv olution
Ġreb els
ĠLyn ch
ĠML B
Ġcollaps ed
Ġmon uments
ĠSch olar
ĠN othing
ĠD ow
Ġin clusive
Ġtra uma
b eck
Ġ$ <
Ġunder went
Ġfl ank
Ġjust ified
Ġl on
Ġa fore
ĠP rec
ĠBurn s
Ġab brev
Ġver ified
. },
E ff
L at
cer pt
3 30
á ¸
Ġinteg rals
Ġnumer ically
' }$
ĠCont est
Ġout s
Ġcurrent s
Ġindic ation
Ġexcell ence
c ourse
ap ur
Ġdrop s
Ġh anging
Ġpractition ers
c ot
Ġlong time
k u
in is
ĠA pr
Ġpast or
Ġc avalry
Ġreflect ing
Ġcomp elling
Ġco ached
Ġide als
ĠRem ark
m itting
head ed
Ġcomp ression
Ġco ordination
Ġins ufficient
Ġgot ten
C opyright
Ġneighbour ing
ĠP arent
ĠQual ity
ĠJ unction
Ġcha os
Ġsoc io
V an
ĠQ atar
Pac ific
Ġsuperv ised
ĠM IT
ĠBur ton
est y
Ġtra g
ĠGu ang
W alk
ĠT ennis
Ġtrans parency
l ated
ang led
om ar
L es
}. \
Ġh o
Ġc ouncill
charg ed
y on
od or
Ġstre ak
Ġadapt ive
M ill
D ev
ĠRel igious
ĠRoberts on
Ġemer gence
P N
ĠAd rian
v ideo
char acter
ĠâĢ Ŀ
L T
ĠG othic
B ad
pos itive
ĠF emale
ced es
Ġassess ed
ĠJ ake
Ġsil ence
Ġaccompany ing
Ġsk illed
P H
ĠB il
ific ant
Ġess ence
Ġhad n
14 9
ĠA way
Ġreg ulated
ĠR T
ĠSc he
Ġdisc overs
Ġins isted
c amp
iat ric
Ġgener ality
Americ a
ĠN J
It aly
Ġp ink
ĠS isters
)} =
V s
Ġrent al
osp ace
Ġd ose
Ġtort ure
Ġel astic
Ġpro ton
t v
15 7
ari ants
Ġmanuscript s
V ictor
ĠW ool
Ġrank ings
Ġlock ed
Ġre he
ph ones
Ġliber ty
Ġnecess ity
\, .
Ġthir teen
Ġproject ions
ero id
Ġl ar
15 3
Ġch orus
ĠH app
ĠHerz egovina
ul in
is ers
ay e
ĠL ik
k ers
}\ ;
ĠCl aud
ĠW ick
ĠConstitution al
ĠSt rat
15 8
Ġillust rates
ĠW ake
ĠMar in
ien ne
Ġb ones
}) )
que z
Ġdef ic
Ġqual ities
av i
pro duction
Ġsimilar ities
Ġreal m
Ġdel ays
ĠB ran
ĠEll iott
ĠCzech oslov
16 7
C ong
Ġd ys
Ġrec ycl
c hester
ĠArch ived
im od
Ġrepro duce
ĠInsp ector
und erset
16 3
50 1
ĠS hen
Ġden y
per turb
AL L
ST M
onna issance
ĠJam ie
Ġcomplic ations
ag ne
sl o
en ary
j s
ett es
Ġc ig
T ex
Ġas ylum
Ġrepl ied
ĠK lein
ĠMal colm
Ġacc idents
comp onent
Ġinvest or
ĠCongress ional
b ey
Ġaer ial
Ġdi abetes
5 000
T est
P et
ĠC M
Ġspokes man
ĠC ities
Polit ics
Ġperm utation
Ġf are
c u
ĠM otion
Ġmother s
ĠLore ntz
Ġforg otten
Ġm esh
oun s
Ġderiv ation
ĠC areer
Ġst ack
G G
ĠD raw
ĠG Ã¶
if ference
Pol ish
Ġcl ay
}= (
Val ue
M aster
oc o
L os
ĠĠĠĠĠĠĠĠĠĠĠĠĠĠĠĠ Ġ
Ġrelig ions
Ä ĩ
ry pt
Ġn aming
}) -
Ġw reck
Ġel imination
Ġal umin
{ [
ĠH R
sc ience
erv ised
ĠEp iscopal
Ġdeleg ation
âĢ¦ .
aj i
ĠJess ica
Sc ience
V E
Ġreal ization
ĠAdvent ure
Ġfilm maker
ĠTerm s
Ġh ull
n orth
ĠPatri ots
ur ally
Ġutil ize
19 2
Que en
Ġconcent rations
est ock
ĠJosh ua
power ed
Ġninet eenth
2 12
Ġqu arters
Ġcomprom ise
ĠHind i
Ġrot ating
ut ers
Ġanaly st
ĠC anyon
Ġtrans parent
K E
c in
ec hes
E ducational
Un incorporated
ĠPubl ishers
ĠE uler
) )$.
ĠLib ya
S at
ĠRom ans
Ġdesign ing
Ġpubl ishers
\ -
f actor
in ians
Ġtransl ations
Ġse al
Ġmod ify
ribut ions
20 8
Ġcle ared
Ġjust ify
y t
ĠC ort
Ġper f
ĠN u
ĠG ael
Ġph ones
Ġnever theless
ĠBas in
Ġrecre ational
v skip
ĠSt art
Ġapp rent
ĠLiber ation
n ut
let ion
Ġrevers ed
ES CO
Ġl ucky
P rim
ian i
Ã© m
b d
H and
Ġcharacter ization
Ġtarget ing
ffic iency
Ġro ok
H aw
ĠA IDS
Ġl uck
ĠMov ies
Ġsur f
Ġsymb olic
ĠT ru
Ġdiverg ence
ren ew
n ear
er am
ar r
Ï ģ
18 5
Ġaut umn
g ang
' =
sub float
Ġafore mentioned
Ġlimit ation
Ġemphas ize
ĠP iano
ĠForm ation
Ġmod ular
Ġp ec
R oad
ĠÂ «
l ore
eg ie
Ġdiplom at
Ġb il
L ear
Ġhe aling
ang o
Ġne u
ĠJes se
Ġbur st
\\\\\\\\\\\\\\\\\\\\\\\\\\\\\\\\\\\\\\\\\\\\\\\\\\\\\\\\\\\\\\\\\\\\\\\\\\\\\\\\\\\\\\\\\\\\\\\\\\\\\\\\\\\\\\\\\\\\\\\\\\\\\\\\ \\\\\\\\\\\\\\\\\\\\\\\\\\\\\\\\\\\\\\\\\\\\\\\\\\\\\\\\\\\\\\\\\\\\\\\\\\\\\\\\\\\\\\\\\\\\\\\\\\\\\\\\\\\\\\\\\\\\\\\\\\\\\\\\
it ance
U psilon
T s
ĠR oh
F ederal
Ġvir al
Ġconcept ual
Ġcomb ines
Ġvan ishing
act ing
dep th
l ayer
ĠL ip
ris k
en ue
Ġhier arch
ĠH i
az ar
Ã¤ r
}} }{
ap or
V R
ĠL omb
M u
at aka
ĠMin isters
Ġexcit ation
ĠW ant
Ġillust ration
R equ
S ervice
ĠGarc ia
" );
De velopment
Ġneg lected
amm ad
Ġrig id
20 3
ĠT rent
Ġph armaceutical
ĠContin ental
B ay
ĠCom plete
ĠH ack
com fort
ĠR ee
Ġsl opes
ogen ic
ĠFras er
ĠBur ke
Ġru ins
ĠKing ston
Republic an
Ġdro pping
ĠAr senal
Ġproof s
Ġfour teen
ĠCan terbury
ĠAndre a
Ġsatell ites
Ġtremend ous
ra ise
Ġreveal ing
Ġpersonal ities
te b
Ġmiss iles
S uch
Ġsimpl er
ĠGl ou
Ġtrans cript
Ġr het
Ġb otan
Polit icians
Ġk iss
ĠMar tha
ĠSuper ior
Ġv iable
Ġassass ination
Ġdivor ced
ĠHigh land
H or
Ġexcess ive
ĠElect ronic
Ġr ises
ins ki
Ġevalu ating
l it
Ġlaunch ing
Ġcab in
Ġovers ee
Ġt ab
ĠR overs
big skip
) &
Ġin coming
The ir
Ġunf air
ĠDat abase
ĠH ood
Ġdr unk
ĠPres byterian
Ġb ure
ĠH ab
ĠAnd ers
ĠF riend
Ġge ographical
ĠBar b
script ions
B ern
Ġo mitted
ĠB udget
AS T
ĠAp ollo
din and
is ure
ĠB rain
J oe
$ --
Ġp orn
21 1
Ġnovel ists
Ġautom ated
\ }}
abul ary
keep ing
Ġtraff icking
Ġinsert ed
Ġcontin uation
W in
ĠZ amb
ĠGre ens
if a
ĠB Y
Ġdefin ite
ĠBuddh ism
lu ence
clud ing
the m
ĠDivis iÃ³n
hy dro
D O
k ok
the ning
Ġqu it
ha o
Sc ript
ri o
da ugh
ĠAlexand ria
ĠC e
Ġbroadcast s
ĠGu itar
Ġgl ad
W C
t otal
ĠLiter ary
Ġdiscontin ued
ĠChe ss
H ot
t ot
Ġtr ucks
E th
Ġconv ince
Ġprot ective
are l
ag le
Ġdwar f
Ġhur ricane
ĠFern ando
ĠFor bes
ĠA bs
ĠB it
Ġg ameplay
Cont in
Ġcyl inder
j et
cc entric
d ifferent
ant le
Ġwe aker
Ġcalib ration
ĠRos a
ĠN ixon
20 6
iv ier
)\ ,\
ugg ed
Ġt ong
ĠColon ial
be at
ĠAnd roid
Ġcivil ization
rit ies
Ġc ivic
Ġex empl
ĠBelf ast
Ġsix teen
ĠV eh
Ġinter cept
Ġcourt esy
Ste ve
hy per
F K
ĠBet ter
ĠRep orts
Ġceleb rity
z one
il o
ĠIss ues
ĠI X
ĠRail ways
Art icles
Ġdisband ed
Ġh orm
\| _{\
Ġmist akes
Ġf ont
Ġp ig
ope z
F OR
Ġg odd
ount ers
Ġelectron ics
ĠK w
con c
ĠL av
ine es
rit z
iling ual
Ġb er
ĠRich ards
Ġserv ants
ĠSh op
Ġcorn ers
Ġcatal ogue
ort ing
D er
Ġ ions
P ier
Ġet ern
ĠSc ript
p end
Ġbelie ving
ĠMcC arthy
ĠLanc ashire
Ġlack ing
ĠC ool
Ġsen ators
epend ing
ĠPart icip
with out
Ġrac ist
Ġbos on
% ).
18 34
l ab
Ġ erg
6 50
Ġb ab
e very
ĠB H
ip eg
Ġun ified
ĠJeff rey
ĠGu ards
ĠSe oul
ĠIndust ries
ĠMc N
}( -
ĠExp edition
A I
Ġst aged
ĠR ica
) !
oc cup
ĠAchie vement
Ġthrow ing
ĠT ow
all a
dom ain
respect ively
spec ial
ĠC el
Ġal ike
nd ez
A h
... ]
Ġref use
Ġf ut
) }^
Ġsail ing
Ġexplo it
p en
Ġrecept or
$ (\
Ġdisc rep
Ġcl erk
Ġm eth
Bel g
ident ial
y u
th ouse
ĠSouth west
Ġfilt ers
Ñ ĭ
Ġstation ed
Sched ule
atter y
tra ined
ĠSte phan
un i
Ġfinal e
ĠPro ceed
ĠM atter
ric a
ruct ive
c op
ĠN OT
Ġann ih
Ġsem antic
ĠD awn
ĠSing er
Ġsculpt or
Ġrel ied
ĠWind sor
G ra
T er
ĠMe V
A mb
hard t
ĠLud wig
ï ¿
Ġen listed
5 50
A sh
Ġformal ism
18 15
! ,
ĠCarol ine
ĠEston ia
g ae
P rom
oci ated
Ġhyper bolic
ĠCorpor ate
ĠS it
ĠSp art
Ġh ind
ĠB E
othe rapy
ĠI g
ron ics
Ġinform al
ĠTo o
Ġpl ural
Ġdead ly
ĠTri ple
Ġmortg age
Ġmidfield ers
ass er
Ġm im
C rit
ĠBal let
ad r
Ġpl ed
Ġhomot opy
Ġindic ator
C a
Ġexp ans
aint ed
Ġmass acre
it Ã©
p ent
ĠM oss
ĠP am
ĠTrib une
ĠT D
ord e
ĠH ern
ad al
m el
w ald
. âĢĶ
ĠFl ag
Ġarch ives
ĠE X
Ġdec iding
s ets
Ġ },
Ġtest ified
ĠTechn ologies
Ġstake holders
ĠO K
Ġcontract ed
Ġch lor
P ub
à¤ ¾
Ġdead line
Ġinv itation
Ġident ifies
Å Ľ
ĠAg ent
ĠÃ ĸ
Ġes cal
f u
Ġcon ceived
ĠM ental
ram id
Ġadv ancing
ard y
ĠArm s
ĠDay ton
ĠL ed
Ġt err
}| ^
Ġthere in
e on
oc he
Ġprior ities
ĠSloven ia
ĠK ab
Ch icago
ĠAlb any
// //
n Ã©e
ĠTh r
ĠBl air
ou rable
ĠP or
Ġin complete
ĠE RA
Ġcycl ic
Ġsuggest ion
ĠDod gers
Com parison
ĠHug o
Ġb ubble
ĠM eyer
18 33
L og
ĠGal actic
f amilies
Ġcreat ures
Ã ½
^{ [
ev ent
Ġp ic
Ġlocal ized
Ġter rain
Ġsup rem
ĠP orts
ĠE g
Ġmission ary
Ġsacr ific
Ġwhe els
Ġra ises
Ġwithd rawn
ĠFight ing
h yp
Ġmole cule
Ġunve iled
ĠHead quarters
Add itional
if ax
ĠF actory
ain es
ĠIm port
if les
ĠChurch ill
ri pp
ĠL apl
Ġb ail
ĠW A
Ġb eds
ĠG W
$ ^\
ĠT ir
}} }$
ĠBelg rade
St an
16 2
Ġd otted
). }
Ġhe ir
Ġcreat ivity
Ġform ats
iod iversity
ĠL ay
ĠM am
ĠDecl aration
found land
ĠS tern
ĠM atch
ĠD um
Ġport raits
Ġenc ounters
ĠF act
Ġbatter ies
f un
ĠInter state
Brazil ian
ĠGi ovanni
c ence
Ġstreng ths
frequ ency
Ġimpact ed
D raw
Ġproceed ed
Ġa rose
arri e
ĠAnn iversary
ĠD ob
ĠKazakh stan
ĠP RO
Ġincorpor ating
Å Ļ
ĠM uk
ĠE R
Ġab elian
ĠSur rey
Ġ ibn
Ġf ights
up loads
Ġrefer ee
ĠChron icle
uc ci
Cl imate
ĠA ircraft
Ġimport ed
fin ished
sch ild
Ġd ock
Ġs ulf
ĉ Ġ
Ġg arn
ĠSt akes
ĠMont eneg
ĠReg ulation
Ġc uisine
ad ors
ĠApp lication
ĠFilip ino
ĠJuda ism
ĠBre xit
ĠT roy
Ġg onna
Ġrespond ents
ĠSt alin
gl ass
Ġwe ird
Ġactiv ated
Ġproduct ive
Th ose
ĠOcc up
c ritical
Ġdon ation
Ġthe aters
Ġlect urer
Ġspec ify
ĠChief s
ĠBas il
Ġtribut ary
ile e
K en
d ad
ĠRec all
ĠNew man
Ġconstruct ing
}\ }$
s olid
ĠP lymouth
reg ion
establ ished
L iter
n atural
Ġst int
R en
ed ar
Ġex clusion
ĠBul let
rell a
ĠHay es
Ġfunction ing
h ouses
ĠT ropical
Ġm eter
Ġb ore
ard e
] _{
Ġspec imens
Ġmotor cycle
ĠE k
eg an
18 31
Ġinstruct or
Spec ies
Ġm ouse
Ġover head
Ġcoinc ide
F il
p mb
Ġend angered
ne ys
Ġreg imes
ĠC airo
ĠCry stal
Ġhon ours
ĠEn s
Ġsen ator
ĠP irates
Ġtang ent
ĠTe h
ik er
ĠEd gar
own er
Ġb is
Ã© d
ĠStaff ord
Ġp unct
Ġfrag ments
Ġcast ing
S eries
ad h
ĠCom bat
ĠLe ave
el se
Ġon set
ploy ed
ĠE M
n etwork
stit u
Leg acy
ribut ed
Ġam mun
ov i
no ise
Ġdec ree
}}\ ,
Ġenthus i
ĠEd monton
ote chn
Ġhapp iness
cons ider
Ġenroll ment
Tax onomy
Ġrul ers
Ġmar itime
S u
z el
ĠCons umer
Ġcre am
Ġworld s
Ġcoordin ator
Ġgener als
Ġded ication
Ġint ensive
f ri
ĠIn ternal
Const ruction
t ures
Ġb ipart
ĠPut in
Ġancest ors
uk u
Ġg rat
ĠCont act
Ġprinc ip
S V
Ex ample
uf fer
ĠR ise
Ch apter
Ġca ution
ĠKh al
ĠBor is
sw orth
Def inition
ĠA ve
ĠL ah
Ġemphas ized
var pi
ro ve
Up on
Ġceleb rating
ely n
Ġobserv able
Ġbreak down
ĠS ou
}_ +
Ġindivid ually
Ġenc oding
ĠMon roe
Ġapp s
erm ark
Ã¡ r
Ġcolle ague
Ġcrimin als
t urn
un iform
Ġex ports
Ġbom bs
c ro
es se
Ġsex ually
ĠR egin
15 9
Ġproduct ivity
Ġdiscipl ines
ĠH appy
âĢ ł
Ñ Į
16 00
Ġsupp ression
ĠSw ift
au f
Ġthreat ening
ell ite
ĠUS SR
Ġrel iability
C I
Ġinvest ing
ï¿ ½
ĠD ynasty
Base ball
Ġge ographic
Ġb rowser
Ġst up
Ġf erry
n as
Ġc ere
ul se
ier i
Ġtens ions
Ġchemical s
Ġp iv
ĠAntar ctic
ĠFerg uson
it ated
es ch
de en
Ġoscill ations
Ġinf ant
Ġby pass
Ð¾Ð ²
Ġinsc ription
Ġrece ip
Ġaltern atives
ul atory
Ġlink ing
ĠM ilton
ĠAct s
ir ate
dist ribution
ĠC opyright
Ġe ccentric
Ġeduc ators
Ġdepict ing
Ġpre y
Ġload ed
def ine
ĠSlov akia
Ġupgrad ed
ĠP ine
ĠBen ef
ĠG aza
Ġorgan isms
Ġcal m
Ġhaz ard
ĠB end
Ġavo iding
Ġev olve
B al
ĠV A
Ġrep ly
ĠSup erman
oupl ing
res olution
Ġsovere ignty
ĠA sp
Ġtrad emark
me asure
ĠM ale
m d
Ġment or
com ment
D eb
ĠLy on
Ã¨ s
Ġb esides
ĠB ess
ĠZ ero
Ġsk ull
i ov
Ġbel oved
an ions
Ġsuggest ions
Ġnurs es
Ex pl
Ġammun ition
P ress
Ġan at
ĠT i
Ġfort une
Port ug
H op
ĠG ut
Ġhead quartered
Ġinv ariance
Z Z
Ġl as
Ġexerc ises
ĠNurs ing
ĠJ ob
Ġbre ed
Ġfe ver
Ġspace craft
v v
ch in
ĠH ann
Ġsm oking
om et
l ord
ĠP T
ĠT aking
ĠB alk
ow itz
ĠHill ary
ocol ate
ĠAnd hra
ĠRoc hester
ĠMar ion
ĠHard y
( |
Ġcharg ing
Ð ¹
Ph one
urg ery
ĠEx amples
Ġv oyage
Ġscr ut
ĠTh ink
sp ective
ĠCanad ians
Ġsh oes
Ġsingular ity
ĠB ot
Ġconnect ivity
ĠP ione
itt en
ĠH ull
ĠGriff ith
Ġ& $
ĠWals h
Ġm igrants
ĠD ew
ĠRaid ers
T ok
ĠConst antin
ĠWrit er
Ġhousehold er
lam m
Ġf o
Ġinteg rating
Ġf ores
Ġtermin ology
cess ion
Ġenc oded
stit ute
ic ion
em ia
ĠParliament ary
C zech
ĠC od
M ic
ĠEm irates
ub le
l r
ĠL af
in ate
ount s
ĠL il
Ġcar ved
ĠBC E
ĠFred er
17 2
Ġref uses
Ġcont amin
ĠA FC
ur ious
Ġmet als
Ġimm unity
Ġveget ation
N a
ĠM ing
Ġpost ing
C itations
N atural
Ġl over
T rad
Ġstory line
pher d
ĠC B
Ġtrans fers
he ss
Ġeconom ies
che t
IL L
ĠEx ample
Ġsign atures
on er
ĠK err
Ġenvelop e
histor ic
ors ion
Ġimag ination
ĠM W
P ark
Ġneur ons
it ism
ĠK erry
ĠPro of
ĠCharl eston
Ġm all
Ġfact ories
Ġcommut ative
ĠF est
us hes
ĠArt icles
Ġst ip
30 1
Art icle
Ġobserv ational
Ġant is
ON E
ĠJ al
atern al
Ġcontext s
f re
g as
ĠT rial
23 5
ĠR ever
os i
ĠV id
Ġdi ocese
): =\
Ġtel escope
22 2
C ivil
. </
an aly
ĠS ale
oc c
ĠEm ployment
A ud
Ġh iding
Ġpost er
Dist rict
an ium
20 4
ĠCour ts
ug a
ver gence
Ġexplo itation
Ġ ×
ĠM ales
ices ter
Ġillust rations
pp ers
Ġpos ed
Ġlocal ization
Ġflo ating
Pr inc
ĠN acional
ob ject
b uild
ĠP ars
oy e
ĠB rent
ĠK aw
Ġcell ular
ĠAr ist
Ġb ud
Ġpil grim
Ġcru ise
tain ing
Ġdomin ate
m atic
Ġn ont
vol ume
im i
ĠC ay
Ġcontact ed
ĠCard iff
Ġconstit utes
IV E
K h
ĠL eop
ĠMar l
ĠHun ting
Ġclin ic
Ġf el
ĠAl leg
j in
ins k
R esp
Ġvin yl
are a
Conn or
Ġdis rupt
ĠEth ics
Ġre ver
Ġcooper ative
Ġpostp oned
17 4
di ag
Ġp ub
OR E
g ements
ĠCon v
Ġdeleg ates
ly m
ĠK re
amp ire
ĠSpring field
ĠMy stery
D om
Ġtack les
op le
Ġ{ {\
or get
ĠProduct s
ch ard
ĠPro gressive
ĠU ttar
att y
Ġdoctor ate
approp riate
ob ic
un ion
Ġtempl ate
Ġless on
ĠMur der
U ST
ens itive
Ġl ith
Ġtri angular
Ġbroad ly
ĠJ up
Ġcor rupt
Ġtre as
ĠSebast ian
Ġun rest
Ġtoler ance
Ġst ance
Ġchar itable
rand om
Ġra ys
sh ine
Ġcaus al
G T
P ass
ĠJ ourney
Ġcorrect ed
ĠDeg ree
Ġri ot
17 7
ĠK urd
16 9
Ġimpro ves
st en
im it
Ġce iling
Ġt ips
Ġmod elling
Ġinter ventions
Ġachie ves
disc iplinary
Ġinhab ited
at ile
Ġcomplex es
Ġm eta
Ġw ound
Ġhost ile
Ġm a
Ġdecl are
Ġcapt uring
ĠB ren
ott i
G reg
by e
ĠLog an
16 1
ĠPrest on
ch urch
ced ure
Ġdemonst rations
Ġf ran
Ġadd iction
Ġsubt le
any a
Ġgovernment al
Ġcont ing
}} +\
Ġrele vance
. (
Ġtra ils
f its
Ġpresent er
Ġbreak through
Ġin duce
ĠV iv
sup ervised
Ġtor us
in ion
Ġplant ed
Ġrob ots
}, {\
K ar
ath am
ĠA A
Ġenter prises
R a
Ġor n
Ġdual ity
ĠO slo
I mp
Ġ$- $
Ġpres erves
}$ ).
' )\
Ġmater nal
Ġkilom etres
Ġsatisf action
Ġapplic ants
Ġdestroy ing
Ġout line
Ġâ ĪĴ
ĠR as
F ac
S pr
os ion
atern ity
Ġarm ies
ĠDor othy
g irl
Ġc ater
ros se
let cher
ma ils
16 4
Ġloc als
ih ad
Ġh iring
Ġaccording ly
am on
col span
C ond
R est
iss ues
Ġterm ination
Ġnav ig
ĠF O
Ġsurre nd
ĠCl ara
ĠN HS
ĠHait i
ir atory
an ing
ust ers
Ġconver ge
Ġsear ches
' (\
ĠGreat est
Ġheart s
Ġm akers
ĠWill ie
M arg
ĠC and
Ġrel ativistic
Ġord ained
Ġscal ed
Ġmemor able
Ġh ab
ĠKn ox
AC E
gener ation
Ġsymm etries
S ix
ĠCraw ford
B on
Ġins ects
Ġd ining
ba um
whe el
Ġunch anged
od ium
ĠMar itime
Ġcomplet es
Ġobserv ables
ĠD iet
ĠTim othy
Ġprom otional
y th
Ġb acter
ograph s
Ġ umb
ĠS ara
L ight
Ġteen ager
Ġdisc ret
the se
ĠRes ource
Ġpar ade
17 6
sat isf
ĠCal vin
asc ar
Ġrid ic
ĠEmb assy
ĠC ategory
mult ip
Ġre print
ĠF ut
ff bb
ĠRec re
ĠS ever
ĠBright on
Ġconvent ions
^ +\
Ġtom orrow
Ġdet ectors
\!\! \!\!
Ġup ris
ĠAnn ie
Ġcapt ures
- {\
Ġm ansion
Ġsur geon
Ġcancell ation
ĠMoh ammed
Ġle ver
R h
unic ipal
ĠBed ford
Ġcancel ed
ĠK ad
ĠB ac
Ġacceler ated
ĠQ ing
ĠNapole on
Ġst ressed
Ġpoll s
Ġadvers arial
ĠMerc ury
F W
can ic
R ussia
x ym
Ġcompar isons
Ġa u
ĠC ul
Par am
? )
Ġl aps
Ġlocomot ive
et itive
Ġminor ities
ore n
L U
Ġtransl ate
Ġn ic
x rightarrow
Ġmanif olds
Ġem brace
Ġaccount ed
Ġun necessary
v ity
et us
ru ce
Ġwrest ler
ĠBrad ford
Ġd ancers
ĠC apt
Ġinf lamm
re ason
Ġany body
ura i
Ġver dict
ĠF ile
Ġcontract or
ĠTe en
ĠRock y
tain ed
Ġd ra
Ġadvoc ated
Ġch ip
j ee
Ġo ught
ĠP ere
Ġsh ar
'' .
3 40
ĠPl at
ĠRef uge
ĠF ashion
ĠSil va
b ys
own ers
it ian
es que
eng ine
Ġd amp
à ®
d eb
Ġ( '
ĠMax im
ĠG em
Ġcoinc ides
ĠC avalry
ĠL O
bar rass
ĠLanc aster
ĠK ang
equ al
}_{ (
d oc
ĠFer dinand
ĠCarn egie
Ġbure auc
c ategory
Athlet es
ĠBra h
ĠExper ience
ĠD erek
arm acy
c ourt
ov ic
Ġexp ed
Ġbal let
ĠStat ement
sp aces
Ġfin est
Direct or
se en
ĠCh urches
Ġbass ist
18 29
ĠZ ag
ĠRe in
Ġsimpl est
ik k
ĠCambod ia
Ġant iqu
Ġexpress ing
ĠP ray
form al
Ġsent iment
Ġbet a
Ġto pped
Ġthe olog
b ay
ĠBas ic
Ġform ulated
Ġhol idays
m are
di agram
ĠKenn y
Ġassert ion
ĠK oh
comm ission
}$ $
Ġband width
ĠG rowth
art e
Ġsuper hero
F ollow
ĠH iro
urg ical
im ming
Ġcl er
Orig inal
ĠLouis ville
Ġmilit ia
el ic
Ġre novation
ul iar
ĠS leep
ĠNik ol
Ġdispl aced
Ġbut t
i ership
ĠField s
ip zig
Ġoff ence
and ers
ĠN in
ĠHe y
Ġsc reens
ograp hed
^- $
ym es
ĠD ir
Ġdeb ates
Ġendors ed
ĠNap les
Ġapp ar
L ink
ew ater
ĠBald win
Ġaest hetic
in qu
Ġfraction al
or ers
Ġreg ret
ĠC ly
Ġro oted
ogn ition
Ġmetall icity
Ġe ject
ĠB ent
ĠCom pl
Ã± o
Ġ Ø
tem perature
ĠCrit ics
Ġstory t
ĠBel t
Ġnucle i
Ġkick ed
ĠVict ory
Ġenz yme
Ġadvis er
p aper
Ġsubject ed
3 35
Ġinf o
= {\
ist ries
Ġcont empl
Ġcontin ental
ĠMe h
Ġmot if
Ġsurn ames
2 15
ĠD arl
20 7
os ures
ĠZ ar
Ġtw isted
D L
Ġmag ical
Ġfund ament
itt ers
Ġhol omorphic
ĠT ick
"> <
ĠG ul
Ġcontribut or
ĠWin ston
ĠD ifferent
tri ang
Ġmos que
ĠD ong
yl on
ĠTown s
Ġmach inery
18 14
amb a
Ġdet ective
24 5
ï ¼
Ġclimb ing
Ñģ ÑĤ
ĠB agh
E u
Ġup grade
Ġsp at
center line
Te ch
Ġ\ #
ĠNetwork s
ac cept
Ġp upp
Ġrec urring
Ġclar ity
rag ed
con fig
Ġsl ower
ih ar
How ard
Ġgeodes ic
daugh ter
ĠH els
stad t
Ġint act
Ġn est
Ġ/ **
as aki
ot ically
3 80
ĠGreen e
est imate
ore f
22 4
ig roup
esp erson
Ġdemonst rating
n ick
en es
Ġle ak
17 8
ĠReb ecca
ĠNe u
C F
Ġcru el
ist o
Ġfa una
rac use
ĠF o
ĠY ah
ĠBre nd
Ġclean ing
ĠH ond
ĠBrand on
ĠW on
Ġpl ug
ĠPro b
pos s
= |
Ġph armac
ĠSem inary
H ig
oc ity
Ġag ing
Ġd ent
Ġver b
Ġst er
Ġmod uli
ĠKash mir
P rem
ĠEst abl
Ġind ie
Pr ivate
ĠN iel
Ġsh ame
Ġsub urbs
} ]$
ĠAlger ia
ĠHel p
Ġc ord
ĠR id
ĠSol id
AC T
Ġra y
eut ic
ĠH ert
Ġworth y
ant o
Ġa xi
Ġsub urban
Music ians
d ens
dou ble
Ġsax ophone
5 12
ĠKu wait
ĠM om
s ect
comp act
Ġc oding
Ġapart ments
Ġseason al
Ġlength y
Ġdetermin istic
ĠGriff in
ĠMar ian
Ġround ed
ĠBry ant
Ï Ĥ
ĠH ook
ĠPro ducer
aff e
am oto
ĠE yes
Ġfre estyle
}) (
ĠN G
Ġpip e
ER E
Ġcohom ology
H o
Ġr am
Ġsu ited
17 75
oc es
18 28
itro gen
d l
Ġadd itive
Ġgram mar
Ġf t
ud er
ĠCast ro
med ia
Ġme al
A rab
ĠC lem
Ġpurch asing
ress ions
Ġs orts
Ġteen age
ĠHar bour
ĠR ib
ĠResp ons
P ath
Pop ulation
ĠGuatem ala
and i
18 24
Ġint imate
Ġn erve
anc a
ĠJ ets
Ġrev ision
Ġtrigg ered
ĠC AR
ĠIS O
G er
Ġpres umably
Ġalt ogether
ĠL ey
Ġnot orious
ĠH our
Ġbet ray
ĠD rew
Ġt ales
ĠG ol
Ġar row
ener ate
Ġappeal ed
M icro
17 90
Ġclass ifier
om ial
op rano
Q U
at uring
Ġlong itudinal
an ic
Ġg ospel
Ġrel ie
Al tern
an ian
}} +
Ġmon ster
ĠSand y
ĠB O
Ġeconom ist
Ġair ports
~~~~ ~~~~
l ar
W F
ĠR ican
Ġv anish
Not ice
on o
Ġign or
Ġsu ed
Ġimag ery
Ġcomp assion
is ors
Ġunder way
ĠRev enue
ĠCh arg
ĠBel le
Ġanaly zing
17 3
Th m
ĠC ould
ĠFl ash
v ae
Ġcomm ands
Ġloyal ty
ĠJul ius
C ultural
ĠW ire
opt imal
ĠSol utions
M Hz
r int
Î µ
18 25
Ġpass ive
Ġfail ures
Ġpoly mer
Ġoff shore
Ġbl ast
ĠQu int
Reg ular
play er
Ġmamm als
Ġgrad ed
ĠThom son
Ġdip ole
ĠCl aire
Ġcharacter ize
ĠTanz ania
ĠUn c
Ġmult ipl
ut z
d n
ĠInst rum
Ġposit ively
ĠIm ag
Ar ts
J ones
Ġec ological
Ġpol es
Ġbatt ing
Ġt ender
ĠS ed
Ġrep airs
Ġp ocket
ex act
ĠBrown s
Ġbright ness
Ġdes irable
Ġdisput ed
ĠG rad
ĠK ot
m ot
ĠFranÃ§ ois
mod ules
ĠMon ica
27 5
Ġtra its
Ġpar ity
cho ose
Ġd ots
ĠD esc
Ġest ates
ĠBud apest
Ġn il
Ġre per
ĠJ i
Ġscreen play
ia e
17 1
ĠV it
ĠTe legraph
ĠMaced onia
Hung arian
$ =
ĠT ul
Ġe ager
ĠN orton
.. ."
Ġbas ement
Ġbehavior al
ĠSacram ento
Ġlic ensing
as por
Ġan arch
Ġill umin
xym atrix
Ġover th
ighth ouse
Ġbo om
Cath olic
p air
Ġthe ft
Ġ( .
ĠMar co
Ġemb ry
Ġqual itative
Ġdevast ating
Ġs unk
Ġd ump
Ne ill
Ġcomput ations
ĠPubl ished
e eches
ĠB in
ĠNew foundland
and ez
l ook
Ġpack ages
vert ex
Ġselect ing
F ellows
ĠS ister
ĠBrad y
ĠBut ter
@ {}
ap i
ĠSt op
Ġend ings
ĠAd ult
Ġpresc ription
ĠSt arting
ĠWe bb
ĠWW E
Th anks
S ound
18 1
ne z
arch ive
Ġacc redited
ĠMer cedes
ĠStat istical
left rightarrow
sequ ence
Ġpath way
ĠAlban ia
Ġsoc ially
il is
Ġmo ist
ĠB row
Ad am
Ġrecre ation
y ang
Ġdef ects
Ġscreen writer
cl amation
Ġcollect ively
ĠSerge ant
ĠAv ailable
g reat
Ġre habilitation
and in
Ġsec uring
Ġaccident ally
ĠPant hers
Ġtim ely
Ġapprec iation
A z
ĠRab bi
ĠFre eman
Sp ain
J ournal
) /\
ĠT ank
Ġgoal keeper
E ll
}$ ;
ĠW ings
}}\ \
ĠWinn ipeg
Ġtrag ic
ĠRec ent
ol esc
ros sover
ĠTh ir
, (
ĠD und
Ġsurprising ly
A BC
ĠMorm on
29 0
S outhern
it ches
), (
Ġper ipher
Ġpre ferences
H I
' -
Ġn ons
Ġtrust ees
Ġsovere ign
ĠCase y
Ġprop he
Ġvac ant
fl ies
Ġwh olly
ĠFC R
Ġknock ed
ship s
ĠHero es
f ocus
design ated
Ġe y
Ġmac ro
F ix
r ivial
Ġnational ist
ĠInt el
ĠSal em
Ġi i
Ġhigh ways
Ġcheck ing
Ġd iving
ĠG ur
ĠU FC
ĠGard ner
Ġf Ã¼r
ct ica
U TC
Ġspect acular
ĠF ear
Ġport al
Israel i
s d
Ġmon etary
Ġev olving
ĠWhit ney
Ġle ather
ĠW ords
Ġl ig
Ġj oke
Ġexpon entially
ar cer
ĠM B
b les
s g
up le
Ġsubst ances
top rule
ĠCub s
ĠDe velop
ĠP owers
ĠD ud
âĢ ²
Ġal beit
Ġorg ans
Ġem barrass
Ġmot ions
ass adors
ĠPan el
ĠAdv ance
Ġemploy s
ĠE N
Ġspons orship
Ġtermin ated
it atively
Ġtal ents
Ġd orm
Ġinf rared
Ġsupposed ly
act ers
ident ified
M N
R oy
ĠResp onse
p enter
Ġmet abol
ĠLin ux
Ġpost hum
Ġin ert
lem en
ĠOffic ers
ĠChe ng
ĠJen kins
ĠGaz ette
Ġb iblical
Ġr idge
Ġshock ed
zb ek
Ġde cent
Ġreb el
ĠThe odore
g art
ĠB ronze
Ġteach ings
c am
ĠDra ke
Ġcommerc ially
Ġbow l
Ġunc ons
og h
udd y
Ġschol arly
cl air
Ġs ab
ob ia
we ets
Ġdoub led
Ġconfident ial
ĠNov el
ĠE y
Ġinvent ory
Ġconsolid ated
ĠH BO
ÑĢ Ð°
T ri
Ġcon quest
erv ille
ef in
ĠN L
se at
g b
op a
ĠAdminist rative
ĠUnivers ities
Ġpropos es
Ġsp y
T urn
ring e
Ġcerem onies
ĠB L
vent h
Ġconsum ed
ell ation
M useum
R on
ĠP Ã©
Econom y
m etric
ag ogue
ĠHonor ary
ĠW inner
Ġab st
Ġbu ffer
ĠC ertain
ĠM R
10 16
b il
work ing
ĠBet ty
r ong
Ġpair ing
ĠBol ivia
rat io
ĠTibet an
ĠLeg acy
st rap
Ġpers istent
Ġimpos ing
ĠBund es
Ġf ool
ĠNeg ro
om ore
Ġse iz
18 21
Profess or
Ġto y
Ġsh ifting
ĠC reat
ĠE ra
Ġcritic ised
Ġ\, .
ĠG an
Ġdest inations
20 9
ert ation
d escription
ad ia
Ġst ays
In c
Ġ[ âĢ¦]
Ġmeas urable
Ġac claim
Ġdet ained
Ġl i
Ġte lev
ĠMar cel
c ience
Ġmer it
Ġpar ishes
Ġorgan izational
Ġrein force
esp ecially
Ġcon sec
b os
Ġs her
ĠP itt
18 2
comm ittee
correspond ing
Ġv ault
Ġfl own
ĠAll ah
an ol
ĠCauc as
Ġobst acles
p q
Ġtrac ed
Ġhe ct
ĠH ank
ĠG av
sim ple
lect ric
Ġ[ ...]
Ġre jection
ĠSpec ies
Ġexp elled
Ġp enn
ĠR ole
ĠF ont
ĠAt las
ev o
ĠRes olution
s ample
Ã °
ĠLe one
ĠC i
ĠKnow ledge
u o
b is
Ġl oses
F r
Ġcouncil s
Ġg ly
ĠAss essment
Ġb ust
Ġemploy ing
h ook
Ġmission aries
I X
ĠW ade
Ġpress ures
ĠBay esian
18 10
Ġint ra
Ġtun ing
Ġdepos it
Ġrect angular
s ocial
Ġautom obile
on c
ĠA FL
Ġ\ }$
ĠR ash
ĠRec ording
as se
ĠChap man
}} ^{(
Ġeng ra
r arily
ĠH ours
in ia
ampl ing
Ġer upt
at um
lim it
Ġdign ity
_{ (\
ĠZ en
is se
Ġboard ing
ak k
Ġsn ap
] ^{\
Ġshell s
Ġpick ing
ĠMar ines
Ġsk ept
aut oref
ĠMult i
Fig ures
È Ľ
ĠB oh
Ġfinanc ially
}{ $
pro ject
ĠG ir
Ġback ward
Ġr ush
text style
Ġvol cano
Ġred esign
Ġtum or
Ġc ement
Ġenhance ment
F ive
m ix
ĠV isc
Ġexam ining
j ournal
Ġo wing
Ġfl ags
ĠQu artet
Ġflux es
an an
Nov els
Ġfresh man
ĠB eg
ĠBro ck
Ġsp ark
ĠVirt ual
B rian
N ick
ĠSpeed way
ĠH ear
ĠG O
Ġparam etriz
' ,\
Ġc af
ov al
ĠEv il
orget own
Ġflag ship
pres ident
th us
ĠEr nst
ĠCam ero
Sc ient
Ġhabit ats
f ried
ma jor
arg ument
Ġl ighter
pro port
S n
or bit
Ġl iable
Ġtransl ator
cles iast
d ynamic
Ġdown stream
d g
Ġgreen house
! )
ĠCh al
ott age
Ġbeet le
Ed ward
Ġs our
ĠC ock
Ġdeliber ately
18 26
33 3
Ġfro zen
Ġrival ry
b efore
E c
ĠL ines
}) }\
B asketball
he ed
ĠCom ic
Ġlocal ities
Ġinvestig ators
Ġt ap
empt ion
Ġdon or
Ġlater al
Ġcur ious
Sing le
Ġrecogn izes
ĠUN ESCO
Ġk g
T erm
d ia
ĠSant os
b ibliography
Ġattain ed
rel im
Ġb ot
Ġd im
Ġspec ification
ĠGand hi
y en
g ue
lyn n
Ġfru its
G AN
friend ly
ĠCow boys
Ġrad ii
Ġcalcul ating
Ġcontain er
os itory
ri ot
ra f
ĠD ee
ĠH aus
Ġsp ouse
Ġprom otes
ĠMidd les
ĠS ugar
Ġr ushing
ĠN ormal
Ġwrest lers
Ġprosp ects
ĠG ian
Ġinter rog
ĠParalymp ics
ĠV ale
h skip
Ġaut onomy
Ġobtain s
Ġam en
cest ershire
Ġw ished
Ġab olition
ĠMon ument
ĠB har
3 25
l ace
Ġpract ically
Ï ĥ
Ġsurg ical
Ġterror ists
Con c
Ag ain
Ġsymp lectic
ĠMater ials
1 200
h aul
Ġsp otted
] ]
on ation
ĠR A
ĠL on
Ġcost ume
Ad minist
Ġencourag es
is en
18 3
Ġs outheastern
ĠC lement
ĠInd o
Ġhold ers
ol er
Ġref ined
und ers
ĠC raft
ĠD ial
ĠX box
ĠB rief
s an
Ġdef ect
c ue
ĠUnderg round
ĠCom pos
renew command
ĠC arson
Ġdisc ourse
ĠBang kok
icular ly
E arl
Ġle verage
ĠCent ers
om ination
id ian
P ers
18 4
Ġdisappoint ed
}\ !
ĠTh ing
Ġlack ed
ĠCle an
ĠP erm
Ġferm ions
ĠH E
36 5
L ow
ĠS ag
k ed
Ġun e
the ir
ĠAg u
Ġd s
ĠN P
Ġtrain er
With in
Ġrook ie
Ġa uthored
ik s
Ġactiv ism
Ð½ Ð¸
red itation
[ {\
ĠK om
}] \
ĠSher man
R o
nt on
Ġdispos al
ma ha
Ġadvent ures
bra him
Ġanten na
ĠR az
A st
Alex ander
Ġemb od
ĠU t
int age
Ġteam mate
Child ren
Ġcont amination
Tex as
ĠT ucker
ĠN ortheast
Ġm asters
Ġcollect or
ĠB org
ĠL uck
ĠK ane
Ġbit ter
Ġbranch ing
ĠPers p
cf c
Ġpur ple
O x
ĠS uk
oint ed
di ocese
Ġparad igm
ĠCl aude
ĠV ij
load ed
ĠW id
Ġsp are
ĠPet erson
ch apter
Ġst ocks
p f
co ordinate
Ġsuper conduct
Ġa z
ĠJane iro
Ġanth ology
) <
Ġgl ory
Ñ ĩ
Ġ\ :
ĠM ell
ĠAssoci ates
sm ooth
ĠB P
l ich
ĠHal ifax
s ervice
Ġf action
in sp
Ġdis ks
Ġred sh
ph ot
}, \\
ĠF resh
ĠJohn ston
Ġprogress ion
r il
Nor wegian
run ning
Ġpres idents
iv ariate
Ġserv ers
icult ural
s ided
ĠS cal
ag ascar
ire ment
Ġdoctor al
M unicipal
En ergy
M att
in en
ag ain
ĠInd ividual
vert ible
Ġrub ber
ĠR ising
ĠUrugu ay
Ġcum ulative
F ire
u u
ĠE V
18 01
Ġmet eor
Ġsaf egu
Ġflow ing
ĠUC LA
ĠY a
ink i
ĠCole man
Ġsleep ing
ĠE z
ĠA u
ĠCom par
ĠPl anck
Ġqu eries
Ġpro long
sc ope
ĠProceed ings
ĠProv idence
8 50
Ġst air
ĠPr ide
Ġembedd ings
Ġprosecut or
F ound
ĠB j
const ant
Ġliv estock
Ġanom aly
ĠBegin ning
Ġhyp ers
Ġsupport ive
ĠEd win
ĠTal iban
Ġst ems
ram er
Ġvac ation
rop olis
s qu
Ġtr illion
G F
n or
ĠGen esis
Ġharm ful
ĠViol ence
Ġdes erve
ĠNY C
Ġin ability
Ġres ume
ĠM T
- ,
> >
olog ic
Ġintent ions
Ġm ud
Ġins urg
Ġnom inal
ill ary
ĠĠĠĠ ĠĊ
Ġexclud e
Ġtrust ed
ĠM N
Ġbrut al
ĠAsh ley
ĠBron x
U ntil
ĠPat ricia
Ġt ired
ast ings
Ġdis m
Ġbuild s
oper ative
abil istic
Ġreg ulate
Ġno isy
ĠJack ie
Ġpat ches
Ġnetwork ing
it he
Ġden ial
Th ank
Ġannounc es
cal cul
Ġob ey
fig s
Bur ials
ev ille
ĠAngel a
Ġsan ction
Ġspir its
Ġexec ute
t ex
Ġsu ite
Ġd Ã©
ĠD ust
Ġtim eline
roph ic
Ġacknowled ges
Ġn ortheastern
ĠElect oral
Ġharm ony
Ġdem ographic
st roke
Ġinval id
Ġoffer ings
ĠPhot ography
ĠL ap
me as
AR D
pol ar
Ġconfirm ation
17 9
Ġred und
cl ose
ĠOther wise
Ġre jo
ĠSch midt
m and
Ġdis asters
ĠVen us
Ġinfect ious
ĠSh annon
ĠMan or
ĠW ong
ac iÃ³n
roll ing
Ġh alls
Ġat he
Ġpack et
i q
Ġp ays
Ġd iox
n c
Ġcommand ing
Orig inally
Ġrev ived
Ġoccup y
Ã¸ r
ant es
Ġcur ved
Ġc ure
ĠR andy
Ġqu arant
f rag
Ġlandsc apes
head s
ĠHuman ities
om ach
ĠH annah
G I
Ġeight een
ĠSt yle
Un ion
ĠOr t
rew s
Ġdomin ance
Ġjump ing
Ham ilton
ĠBeaut y
Ġobserv ers
ĠTh ames
Ġcontest ants
ĠI o
ĠH erman
Ġqu bit
Ġvis itor
n h
Ġexp ects
Ġceleb rities
Ġdegener ate
ĠE D
Ġar rows
ĠL opez
ĠW inners
unn ers
ĠR S
C ard
ad ays
ĠH ers
ĠPl atform
ĠM ets
Ġhom omorphism
Ġ å
ĠP iet
ĠUlt imate
sh ould
Ġo st
Ġdecl ining
Ġgener ous
tra ining
Ġrem ed
Ġsk ew
Ġsit com
Ġregular ity
Ġly ric
Ġpreced ed
ĠMar athon
ĠCong reg
ĠAltern ative
Ġg amma
ey n
jar at
Ġn u
ast on
w ere
Ġal ly
ĠQu inn
aut s
Ġinsp ire
Ġwhe at
ĠBe a
Ġcrow ds
the l
Ġ$ -\
os o
p rom
y c
y i
ĠRh ine
ĠH ess
ĠW inc
Ġbicy cle
Ġshe ets
Ġcorrespond ent
ĠR um
Ġinc idence
Ġrig orous
S earch
art on
Ġt idal
Ġpione ering
et ically
2 14
ĠN W
ack er
ĠH undred
m ology
ĠTe aching
ĠRuss ians
Ġadop ting
S und
22 6
Ġretail ers
Ġspec ulation
Ġrun way
el man
ĠJan et
Ġdist ribute
Ġmon ks
ĠGram mar
F ace
ð Ł
ĠMem ory
ĠF ollow
w ear
ĠR iley
itor ium
ĠEv idence
Ġabund ant
Ġconcent rate
Ġm aker
Ġd rought
ĠColl abor
m ut
Ġplaintiff s
ab ases
idd ing
Ġfib ers
S ol
En ter
H ong
Ġcountry side
Con clusion
Ġlo os
cha ft
t rim
ĠRec ently
ĠPalest inians
Ġturb ulent
ĠStef an
Ġar ist
ĠTreat ment
h istory
ĠV oc
ĠRe ference
P a
Town s
ighbor hood
Ġd well
Ġcomp lementary
Ġenjoy ing
Ġgall eries
Ġdev iations
r ide
ĠAn throp
Ġdeal er
ns ic
ĠG ender
Ġre nder
ĠCle ar
Ġceleb rations
af a
h p
Ġ( #
b rand
Ġc eram
G i
ĠCle arly
in z
ĠMay a
R os
st ars
ĠN H
art ime
Ġro d
ĠSen ators
rie ve
Ġt uition
ĠRodrig uez
Ġin mates
Ġres ides
18 13
son ian
Che ck
ĠSustain able
Ġp neum
ĠSh im
ateg or
Ġmid st
she ll
Ġl ag
op us
18 18
] }\
F ind
Ġauthent ic
S ep
Ġproblem atic
Ġovert urn
Ġaccount ability
Ġcoordin ated
ĠMarri age
C amb
Ġvis a
ast ro
ĠLe ipzig
Ġconjug ate
ĠVar ious
it as
bottom rule
Ġst amp
i ator
NR AS
ĠSD SS
Ã¡ ndez
Ġbroad caster
Ġforb idden
ĠChrist ine
ias m
Columb ia
Ġpract icing
ĠSupport ing
ĠC anton
co e
isp here
3 75
\' {
Ġexch anges
ĠH ed
ĠArch itect
ĠHy dro
ĠV ick
Ġfort ress
Ġd rown
Ġwhere by
C ON
Ġth rows
ho e
Ġver ification
ĠBul ld
olith ic
at ched
ĠSer ie
t ensor
ĠSab ha
Ġpossess es
Ġassign ments
Ġre lic
Ġterm ed
ĠJup iter
Ġgovern ors
rel ax
Ġthorough ly
v c
Ġmed ication
eff ect
Fran c
ĠVik ings
H u
ĠRed s
ĠB rom
Ġutil izing
Ġtong ue
e ous
ant ics
ĠHold ings
Ġnot ions
ke ys
ogram s
Ġappro ve
Ġge ography
Ġnob ility
Ġair ing
Ġpec uliar
ĠP f
ĠBeaut iful
Ġcreat ure
L ord
ĠLe icester
Ġovers ight
R un
ĠK ick
Ġturb ulence
R ank
ĠB le
cent ric
Ġco arse
ĠFull er
an or
E astern
H ard
Ġc ris
ĠW H
Histor ic
g tr
ĠV augh
ĠBar rett
ĠAber deen
ĠW ave
ĠC ritical
Ġrect angle
ĠTe achers
Ġresc ued
Ġmetall ic
en ia
ĠE PA
pt ons
Ġprob able
}. $
ĠPat rol
hold ing
Ġres olutions
Ġnew er
En vironment
Ġsail ors
Ġsp o
un ts
big oplus
3 70
Ġin ception
ĠT ah
atter ing
Ġaccompl ish
ic ia
ook ie
00 5
p ark
Ġch icken
Ġpartner ed
app er
as so
Ġprosper ity
Ġsp ins
Ġg ras
ĠB ash
Ġdram at
Ġgar age
P Y
ĠP omp
T a
ine z
ĠLad ies
T ag
ĠRel ief
Ġassert ed
at ro
Ġto ken
âĢ ĥ
ce ans
ĠP ale
iffer ential
F s
I ce
Ġl ane
ĠS ach
Ġ\| _{
Pro gram
i ab
l brace
22 7
Ġgar rison
Ġcomm ence
ĠR w
So ft
ĠMes a
Ġconstit uted
ĠT her
ĠR andom
pend icular
z an
Ġdis hes
gra ve
Ġs aint
ak is
Ġvers es
ĠCP U
Ġtro phy
ĠC ave
Ġlack s
l is
ĠGust av
Ġm oll
ĠTeh ran
Sc ot
Ġunf ortunately
pos ium
Ġimp air
Ġfl aw
ĠIn tern
ĠWol ver
ĠH MS
ĠS ue
Ġmist aken
t ake
vent ional
ithm etic
ĠMar qu
ĠSh an
ĠK od
ox y
Ġrec k
ĠBo hem
Ġbl amed
ĠC V
Ġo kay
ĠMc Cl
): =
FF FF
st ellar
ĠEm il
Ġload ing
ĠT X
ĠEld er
Ġcon sole
Ġvill ain
W atch
ĠAd olf
u ably
Ġregular ization
ĠChile an
Ġover night
30 5
Ġmas cul
Ġfin ishes
pe z
u ating
m ud
ĠCont ent
Ġinsp iring
B ank
he e
ry n
Ġexempt ion
Ġsy ll
ĠS NR
ĠMalays ian
Ġlov ing
al ions
ĠSh aron
Ä Ļ
Ġlab elled
H H
o ine
23 4
+ |
ĠBow ie
ĠG L
Ġsupp ress
23 1
Ġpack ed
ĠHealth care
ĠT rum
ĠSh are
Ġlisten ers
ĠCo ordin
Ġhe x
18 22
ĠY uan
Ġopp ose
Ġmerch ants
ĠM VP
pol y
Ġtorped o
ĠGael ic
sh i
y outube
pl aced
Ġemb assy
c rit
Ġd w
Ġg ases
Ġcount less
ĠLis bon
g ins
ĠWe i
P age
con vex
Ġdisag ree
ĠT es
Phil ipp
Ġsubsc ription
ĠTasman ia
ĠF letcher
ĠSett lement
Mar ie
Ġri ots
rang er
ĠSuff olk
Ġtransform s
ight y
dist rict
Ġpro claimed
ĠCol ony
Ġhistor ies
Ġemb arked
Ġret riev
ĠR O
Go ogle
id an
ĠHein rich
}} -
Ġir rig
Ġadj oint
Ġcirc uits
ĠGib bs
Ġinev itable
Ġradi ative
Ġrecruit ment
ĠEvery one
ĠHol iday
Ġmar ble
c ies
as o
Ġaccept s
oph on
ĠT racy
ear chers
ĠParad ise
Ġen rich
Ġdel ivers
Vir gin
ĠE L
ĠKos ovo
ĠTit ans
Ġmaxim ize
Ġp ier
Ġsh irt
asc ade
is odes
year s
C ulture
ĠAl z
Ġassoci ates
Ġapprec iated
ĠC ult
ĠIs abel
B V
Ġwhere in
cy cl
Ġpen insula
Ġmathematic ian
Ġsh out
Ġap ost
ĠOpp ortun
Ġresemb les
Ġindic ators
atri ates
Ġtouc hed
3 10
Ġdark ness
S on
ĠS K
ĠW ould
ĠPear son
@ \
Ġd ictionary
Ġor phan
ĠD owntown
l oo
al an
St ill
Ġprocess or
Ġgamb ling
Ġspok esperson
Ġy eah
ĠConf uc
ace ous
Ġgen ome
ĠBoy d
ot ive
Ġposition ed
Ġsexual ity
ĠU T
On line
Ġa wa
Ġmerg ers
Ġpublic ity
IS E
Ġp av
ĠT ry
Ġalt ar
Ġsw ept
Ġm apped
Ġref usal
"> </
orth y
Ġre write
ĠD re
ĠF alk
he art
Ġbu ff
ĠChe v
ta iled
ĠS ally
ĠUpd ate
U se
Ġ\\ [
W ild
R od
ĠAm ateur
inos a
Ġpreval ence
Ġm arsh
av ailable
ĠShe ll
Âł Âł
Ind ividual
Ġinterpret ations
S hips
th in
ĠCh ambers
18 16
Ġme als
Un like
us ions
ĠSac red
Ġancest ry
moment um
Ġaddition ally
ĠPar agu
Ġviol ating
Ġjew el
Ġf als
ĠUs er
). $$
ĠMan aging
prot ect
Ġposs essed
17 00
Ġpers ecution
Ġpat ents
ĠBe hind
Ġmen u
ĠFel ix
Ġnont rivial
Ġdon ors
ĠLa ur
Ġincorpor ates
qu antum
ĠR NA
Ġappoint ments
otechn ology
C s
p ublished
ĠAlban ian
C ode
Ġp owder
Ġto ile
_{ {
Ġsp ans
ĠEl vis
Ġcomb in
ĠNaz is
Ġb ins
40 1
ĠD S
Ġbusiness people
Ġnews letter
ĠBav aria
N I
Ġn avy
ĠC inem
Ġsc an
pos itions
ĠCom ing
ĠW elfare
Ġcommit ments
ĠSy nd
Ġtransmit ter
Ġrenov ated
l ib
ĠSup erv
Ġboy friend
ĠCare y
ĠBalt ic
t el
ĠSc ots
ĠToy ota
Ġas ymmetry
Turk ish
Ġfundra ising
ĠH its
end ant
}} }{\
Ġfav ored
ĠCa esar
ĠP ok
Ġaud it
Ġke V
Ġcons erved
Sm all
P osition
cl iffe
Americ ans
Ġinaug urated
ĠG mina
f an
Ġst unning
Pro ject
f m
Ñģ Ðº
ir ling
D u
ST AR
& +
Ġentertain ing
Rec ent
C ost
man ifold
cur ve
Ġ\ \\
ĠK ann
rac ies
Ġpromin ence
Ġw ise
ĠH M
gl s
ĠL iz
Ġs el
Ġinc arcer
Step hen
w ould
Ġcompl ained
for cing
ĠBrun o
W R
ass ic
ass is
An th
P resent
sin h
Ġtorn ado
Ġfirm ly
represent ation
Ġrec alls
board s
Ġshort age
18 27
Ġsuccess es
col head
Ġstreng thening
Ġfe ared
ĠLeban ese
s ymmetric
ed it
m agn
led on
t arget
ĠJoy ce
Ġm ice
ĠScholars hip
ĠSof ia
) ~\
Ġsolid arity
2 13
Ġher b
C B
Ġbe aches
th y
eth oven
m arg
g io
r ational
Ġp aired
se arch
ĠZ ach
Ġh oney
add ing
ĠP u
ĠV ander
Ġsom etime
ĠA ce
c hel
ak o
Treat ies
Ġtrans gender
Ġswim mers
ĠInvest igation
ve ctors
Ex amples
23 2
ĠMe et
ĠRecre ation
Ġh i
Ġt ear
Ġhom ology
ĠBudd ha
Ġbe ams
Ġ' '
Ġisot ropic
Ġl od
ĠBe ast
at isf
Ġstat istic
con j
Ġbes ide
30 3
Sim ilar
old ing
Ġback up
ĠLank an
andid ates
g ap
pay ers
4 80
ip es
ĠEston ian
Ġmod ulation
l ap
ĠD reams
Ġsp elling
ew ard
Dep artment
Ġp el
Ġnick named
ĠL ep
Ġdiox ide
R og
Ġse as
ĠAd vert
ĠCon cer
ĠAut om
Count ry
ĠVern on
ard ment
ĠBe havior
B rad
form ations
Ġqu otes
22 3
en ko
ĠOri ental
Ġmanip ulation
m any
Ġestabl ishes
te in
Ġpar a
Ġwick ets
Ġinad equate
ĠGl ad
Ġdisc ou
rict ed
Ġincent ives
clud ed
Ġco res
Ġsubmar ines
Ġb racket
ĠD up
ĠM orton
Ġteam mates
Ġblock ing
) )=
qu in
Ġl anes
Ġanal ogy
ĠHum ph
Ġaud ition
system s
ht b
ĠF erry
uber cul
2 16
ĠL un
Ġincons istent
ĠMar ÃŃa
Ġpric ing
ĠSu ite
Ġinvent or
* {-
ĠD art
Ġc her
se lect
ĠAss umption
Ġen closed
class ical
W H
im ar
Ġinstruct ed
ĠW HO
process ing
iol a
Ä Ľ
AS E
Ġfre el
I l
Ġinj ust
ĠX V
ĠProp het
c p
In formation
Ġo ath
Ġoptim ized
Ġr ider
Ġacqu is
] _
Over all
plement ation
ĠSub sequently
Ġaccum ulated
se in
col one
onst ruction
Ġb rack
lym pi
Ġelig ibility
Ġd oses
ap o
Ġveget ables
ĠGu est
Ġphysic ist
bibliography style
ĠP O
Ġ )$
ĠHam mer
ĠK um
Ġb ush
ĠS eth
ĠBah rain
18 03
ys h
Ġt ears
Ġrot ational
Ġc arn
Ġrepro ductive
Ġde an
Ġurg ent
Ġdesper ate
Ġprofess ors
Ġreview ing
keep ers
Ġdiagn ostic
ful ness
Ġaccus ations
erm o
Comm un
Ġprev ents
ĠPer forming
ĠRem ember
G h
ĠTw in
ĠTunis ia
Ġw orm
ist on
ur rence
Ġch at
Ġfulfill ed
Ġeffic acy
ĠAntar ctica
Ġl ymph
Ġcolon el
Ġfu els
j ani
et ch
Ġcho oses
Ġenc oder
Ġsouth western
Ġdetermin ant
ĠM ile
Ġeconom ically
Ġadminist rators
ikh ail
In vest
ĠAr d
k al
v ine
ĠLev i
ĠL ands
'' '
inn ings
ards hip
Ġasp ir
Ġpreval ent
ĠR ifle
Ġtechn ically
Ġpull ing
Play ing
ĠBas el
aw k
ĠB uild
Ġout reach
gtr sim
k le
Ġred ist
ĠLat via
t alk
Ġsingular ities
}} _\
19 1
ĠC it
Ġsor ry
T I
Ġlingu istic
ear ly
A K
ĠW ins
Ã¼ ller
up h
* }\
ĠI b
L im
s yn
ex istence
M os
g rid
ht bp
Ġv ortex
ĠE van
Ġarbit rarily
r brace
ĠBur ma
Ġp ond
Ġst iff
ĠFor ward
uc a
Ġuncons cious
ĠPre viously
Ġder ives
ĠR iv
rel ations
ack nowled
b irds
ĠOrgan isation
im ag
ĠL al
M NRAS
Ġc ache
leg al
Ġsummar ize
Ġsub graph
4 10
Ġne o
Ġsecret ly
ĠL HC
ram s
Ep isode
W ang
hat t
> $
def ault
ĠSt rait
Ġdegrad ation
an us
Ġprofession ally
Ġpop ul
Ġmer ge
O k
ĠJournal ism
ĠF uj
Ġbott le
Ġra ids
Ġexp atriates
Ġfac ial
00 2
18 09
ĠAl most
ĠJoh an
al one
w ife
Ġpr incess
Ġex otic
Ġind efin
h ya
ĠB ast
H ey
iÄ į
unc iation
Ġover time
ĠNorth western
~ {\
Ð ·
S ty
Ġg i
ĠReg ular
18 06
ĠEurope ans
[ ]
Ġspec ially
ĠPl ains
ĠMad agascar
Ġcontract ors
Ġlegit im
18 17
AA F
Ġpro xy
w y
ĠR i
ill i
ĠRem ix
f orth
inter pret
clesiast ical
Ġexceed s
Ġtub es
Ġspec imen
M G
et erm
Ġbuy ers
ĠHy der
Ġgen ocide
Ã§ a
Ġcryst all
Ġrehe ars
ĠPorts mouth
Ġcomplet eness
set length
Ġdeb ris
ĠHam pton
ĠR up
ho ff
^ *}
ĠMid lands
Ġvis ibility
Ġimp e
Ġexplos ive
Ġphilos ophers
Ġnow here
Ġcycl ists
ĠNic arag
nd on
Ġo w
Ġfunction ality
arm ed
cl ub
oper ation
bb ed
CO VID
ĠAud io
ĠJackson ville
2 21
Ġp ine
st ated
ĠHand book
18 23
Ġnegot iate
qu ant
Ġdr inks
}. $$
Ġdis gu
Ġsimpl ify
Ġrelax ed
g ren
ĠS exual
pl es
ĠD ixon
Ġpl aus
Ø ±
ĠD ul
Ġtrust ee
Sim on
c as
Ġinv aded
Ġfront ier
ĠMid west
ĠEx tra
ĠPier ce
ĠVal ue
ib ia
law s
sec urity
Ġrespond ing
ĠM Äģ
Ġdiscl osed
]{ ./
clip se
at ible
Ġfilm makers
og ues
ans on
ĠMic he
ĠC ounter
ĠTrin idad
f ootball
C NN
a eda
n one
A k
b age
d ocument
Ġs inc
Qu est
ĠPri est
Ġtask ed
Ġcan c
ĠDet ective
ĠMedic are
ĠG ad
Ġtransl ates
Ġhe ated
Ġper pendicular
am ar
Ġh urd
ĠR it
P enn
Ġfe ather
Ġlogarithm ic
Ġsusp ects
ĠTri p
ĠAv iv
Ġphr ases
ĠH uss
ĠHor ror
Ġannounc ing
Ġmultiplic ity
Ġto oth
Ġall ied
ĠMy ers
Ġliber ation
ĠMon itor
Ġed it
Ġex cerpt
hor se
Ġsp eeches
Ġapp endix
ĠZ oo
p ayer
Ġpe as
e V
cos h
ĠDiv ine
f ixed
ot ta
ĠK och
ĠUS C
Ġd ella
Ġdem o
Ġwood s
ĠI TV
Ġsm ugg
ĠCy ber
m inton
Ġche er
Ġhear ings
ri que
Ù Ĭ
Ġimpro v
ĠR ao
}$ ),
Sw iss
ĠSt range
Ġrepro duction
s olution
ell es
18 19
G irl
Ġgen ius
Ã ®
Ġdiscover ies
Ġspons ors
d irection
Conn ell
T re
30 4
Ġreal izes
ĠDocument ary
ĠB erm
ific ent
B oston
ĠF ix
24 7
Ġnational ism
m inded
ĠSt a
U I
G raph
ĠF ol
Ġco herence
Ġrein forced
William s
Ġn aked
F ile
ĠEven ing
Ġvacc ination
ubb ard
ai res
AC K
ĠCol leges
ĠCD P
ĠK le
Ġtri umph
ĠT ate
Ġprec ious
c ultural
ĠH ul
ĠL und
ĠB oss
se v
ĠStre ets
17 98
Ġelimin ating
s ym
ast ically
ĠChrist ie
Ġassess ments
Ġorigin ating
Add itionally
ĠUl ster
ĠMon ter
Ġw ounds
Ġjump ed
ĠLithuan ian
ain er
ĠLaure n
res iz
Argent ine
Ġretain ing
ĠMedic aid
j oy
ĠH utch
ĠAtt ack
Ġen forced
Ġlif elong
ĠConstantin ople
ĠTe acher
Ġproc ure
Ġspecific ations
Ġin ferred
L in
ĠTre vor
] \\
ĠQuest ion
G re
ĠW er
Ġsm ile
ĠBron cos
Ġs ink
ĠN N
Ġrev olt
Ġinterp olation
Ġsec rets
Ġche ese
ĠCount ies
ĠW ere
eal ous
ut ations
big gl
ugg ing
resiz ebox
it ate
ĠH S
olog ne
ĠSom alia
Ġsubsc rib
** *
ĠT ill
ĠTel ugu
F E
Ġprint s
Ġapproxim ations
Ġprec urs
us ually
unn els
Ã©n Ã©
Ù ħ
Ġequival ently
Ġnar rator
ĠNo ah
ĠF ocus
Ġgra ins
Ġd ors
Ġun law
Ġexclud ing
ĠS ieg
Ġad equ
ĠP D
ĠHol ly
. _
ĠC ivic
Ġopt ional
Ġindirect ly
f g
Ġpray ers
ne ider
ĠFig ures
Ġremark ed
Ġse am
Ġrest ruct
y ards
ĠP all
ĠTerm inal
ge ois
22 8
ĠBo at
Ġroll ed
D igital
m iddle
r k
Ġanaly sts
C ycl
Ġstat ues
Ġsix ty
E ric
Ġten or
Ġob l
Ġref using
Ġblack s
B ang
ĠE du
sh ape
ber ra
Ġin land
Ġd os
ĠD ad
Ġqual ifications
ĠDeut sche
Ġtem pt
erv ices
Ġpuzz le
ĠF E
and an
AS H
Ġprol ific
Ġdiss olution
Ġkn ot
ĠÄ Į
Ġrem inded
bour g
T unes
Ġac ids
Ġsubst rate
ĠT ale
Ġkn ife
ĠM t
ĠL ipschitz
Ġhe d
bigg r
ĠF ur
Ġeduc ate
fill ed
ĠD ry
R om
Ġreview er
Ġhopeful ly
Ġj umps
Med ical
un ched
uv ian
att i
Fore ign
rac es
ĠAr lington
Ġe ars
b red
ĠMin i
Pr ince
Ġsn ake
ĠAct ing
Er ror
ĠTor res
âĢĿ ),
ood y
Ġbox er
cl ock
ĠAm anda
Ġdiss ent
ĠD ock
cor por
Ġfrag ment
l ang
Ġfl ora
Ġupris ing
D id
U B
Ġgu ilt
bound ary
ĠM ald
}$ ~
Ġmarri ages
Ġext rap
Ġmin erals
End emic
W el
n ar
Ġhab its
T aking
ĠV ish
Ġtr ilogy
Ġaff iliation
Ġlic enses
ĠT aj
Ġs lic
pr ivate
Ġter restrial
Don nell
Ġresid ency
Ġgrad ients
Ġprecip itation
ce ive
X T
Ġd ub
Ġrem ind
Ġsw orn
} '$
Ġscreen ed
Ġoverl ook
ĠH ew
Ġgodd ess
S ta
ore tical
Cap tain
Ġappeal ing
ur istic
Ġthermod ynamic
Ġball ots
Ġpal m
Ġcrown ed
Ġsp anned
Ġn od
erman ent
Ġse ating
Ġw rapped
Ġcomp uls
Ġlaw makers
^* (\
en heim
G H
17 94
Ġfix ing
ĠM use
ĠPl ain
t aking
Ġende av
ĠD uff
d ed
q ed
ah i
R am
Ġsum mon
ger ald
ĠMarsh al
ure n
Ġn it
Ġenthus iasm
ĠW ilm
Ġrem ake
at u
ĠI SS
h appy
ol ute
th irds
ĠHaw ks
Ġh aul
Ġstate wide
parent s
ĠEff ect
T en
C lick
)} =\
ĠSic ily
Ġad ul
pl anes
ht m
Ġdivid ing
Ġres ide
Ġte ens
Ġacqu iring
Ġsqu ee
n ext
ast ing
ĠB ard
ĠWe ber
co in
ĠBre tt
M ov
Ġbl u
Ġdec isive
17 89
set t
Ġacquis itions
Ġste ering
Ġwhere ver
Ġman eu
ĠPl aintiff
Ġl ac
ential s
Ġshow case
Ġinstall ations
ĠK ais
33 33
ĠKrish na
Ġenlarg ed
ĠWilliam son
ĠSid ney
ĠKarn ataka
Ġrhet oric
Ġr ushed
ĠW R
ĠW ander
Ġsubgroup s
c orn
un ivers
Ġimport s
p al
ĠB irds
ĠTh ous
Ġn itrogen
Ġsl ide
ales e
ĠR ip
23 8
ĠE ar
ĠAss istance
ĠNe uro
pi res
Ġreal ised
se q
Ġcost ly
w itz
ï »
ĠSc i
Ġphot ometric
Ġsimultane ous
ĠSh am
up ta
c ry
ĠM ey
23 6
t ry
Ġde er
Ġapproxim ated
iz za
Ch urch
Ġf aint
ĠS ard
Ġpain ful
Ġinnov ations
Ġcrew s
Ġprior it
Ġmut ually
ĠPap ua
e us
ĠP oss
ansk rit
Ġcar b
ĠW ine
Ġinter rupted
f ac
ok i
)} }\
Ġexperiment ally
ĠI CC
elf th
Histor ical
R NA
o ft
}$ :
itt y
ups ilon
P V
ust rial
Ġpri zes
ĠHawai ian
ĠBullet in
Ġconfirm s
Ġrecru iting
Ġdevelopment al
f air
ut ral
Ġgrand children
Ġresp iratory
Ġbreak fast
ĠAT P
iv ism
c n
Ġc ats
Ġasympt otically
Ġthe ological
ĠN em
Ġcapital ist
Ġautobi ography
ipp ers
ĠSch warz
Ġexplan ations
w on
em ann
olph ins
ĠI z
ĠMonteneg ro
) ~
ib i
Ġpetition er
Eng land
] _{\
Ġfair ness
Ġm ourn
Ġsh ipped
pos sible
ro ots
Ġres emble
Ġcr ust
) *
her ty
ĠWeb ster
Ġarg uably
Ġadmin ister
Ġre lying
et les
Ġrobust ness
Ġval uation
Ġnorth western
Ġfilter ing
Ġrespect s
ĠCh amp
ay ne
Ġsu its
ĠLe af
ĠU m
Ġqu arks
Ġresil ience
om al
ĠPoint s
ĠRaf ael
un ate
Ġexpect ing
Ġinfin itely
T aylor
com be
.... .
light en
per formance
ĠRober to
ĠOb ject
ĠCop a
Mex ico
ĠN I
aver age
Ġtrump et
ons ored
Ġinv ite
ĠSat urn
c yl
Ġf ond
p ract
ĠM ist
ĠO maha
) },\
Ġrail ways
, ...
cl er
Ġqu bits
Ġrenew al
rol ogical
Ġpref ix
ĠP H
ue bl
ĠRes cue
s il
ĠNew sp
ĠWey l
C ategory
Ġst omach
Ġad missible
Ġloc ate
Ġsupp liers
Ġspecial ty
ĠLic ense
ĠBore l
P ot
ĠDef ine
anc el
red its
Ġt urt
ĠSc andin
ĠSy racuse
Ġn m
Ġvol canic
Ġbom ber
B attle
Ġcompet itor
Ġaccompl ishments
um atic
Ġforth coming
Ġsurrend ered
he a
18 08
com pl
ĠCl ose
ĠAccording ly
ĠUpd ated
ep age
Ar g
ĠB uc
ĠE rd
Ġw itch
ĠU P
B rand
C t
Ġsym ph
Ġadjust ment
ĠS I
st re
Ġpubl ishes
equival ent
ĠSouth ampton
ĠStand ing
Ġreop ened
Ġcomment ator
4 40
ĠC SS
ĠP omer
ĠVolunte er
Ġi Phone
Pier re
John son
o ise
ĠB attery
Ġirre levant
under brace
Ġconqu ered
S us
ĠH yp
ĠMad onna
ĠC W
29 5
opt ers
ĠM ilit
Y eah
ĠG E
Ġs ne
ĠS Ã©
ip el
Ġle x
Ġdis qual
ĠBe au
ĠHeavy weight
Ġover d
ĠNew ark
C hen
ĠClin ic
ĠB ound
ï» ¿
Ġ um
ĠL ing
Ġsem ester
ĠN ou
}; \
P ut
Ġfl ies
24 8
ĠHart ford
F unction
Ġbr ass
it ably
ĠC ros
Ġch im
Ad v
d ong
B BC
Ġm ol
Ant i
al us
Ġcut off
Ġbl end
ĠMc D
ĠP E
l io
ĠP ool
}\, ,
al ore
ĠA U
Ġkid ney
à¥ į
Ġcle ver
ĠAnim ation
ĠDen is
ĠR ex
Ġcont raction
ĠHy per
az y
Ġc it
Ġb arn
ĠU AE
Ġsched uling
ĠRest aur
Ġpos es
Ġimm ers
Ġfire arms
opter a
Ġgu ides
ĠCorn er
Ġo ak
opt ion
ĠCor onavirus
J P
D eep
ĠDist ribution
+ {\
Ġab rupt
ĠG iant
w omen
Ġre ef
ĠF ork
Ġprem ise
ĠBra ves
ĠMatthew s
haus en
ĠK Ã¶
ĠR ig
Ġestim ating
Ġfellows hip
âĢĿ ).
) );
ĠS lam
Ġman or
in ely
Ġunder going
L ev
Ġn utrition
Ġwavel engths
Ġpro se
ĠQuarter ly
Pol ice
ĠU zbek
larg est
' ;
v ary
Ġm ate
ri ka
Ġtax i
al most
Ġbe ats
Ġcont our
Ġpath ways
ĠS ure
ĠGeorg es
Ġcamp uses
' ]
Ġf riction
Ġrese ar
^{ {\
F ood
v d
ou st
18 04
Ġspecial ists
Ġsemif inals
Ġstar ter
Ġcompar ative
18 05
t rad
Ġam alg
Ġconv oy
S ym
ĠGe orgetown
With out
Ġgrant ing
imb ledon
Ġlar vae
ĠV all
use ppe
ĠB ates
ne ath
}{ $\
ĠSh ak
Ġmeant ime
26 5
Ġcl ips
ĠCooper ation
ar at
oul os
Ġdat abases
ĠK atherine
Ġfoot print
Ġneutr inos
z on
Ġsh aft
Ġshare holder
c od
Ġde port
Ġopt ed
Ġmagn itudes
Ġtun ed
us ch
Ġv est
Ġdet er
P ad
Ġal lev
ĠG ott
ĠV inc
L arge
}= -
Ġpredict s
Ġaim ing
Ġche aper
ĠR s
Ġsen iors
ĠSt ones
ĠSp eech
Inst ead
ĠDaw son
ĠK ant
ĠJ obs
26 4
Ġguitar ists
Ġhierarch ical
ĠJ et
Ġbund les
Ġass ured
on ica
Ġmerg ing
K ore
20 30
ĠG am
Ġe V
ĠB urk
ĠElect ions
Ġteen agers
ĠNic ole
ĠA V
id y
ĠAC T
Ġcon greg
ĠBever ly
Ġview er
Ġrend ering
ide a
ĠEl is
C ert
ĠK ub
Ġaltern ating
Ġminim izing
ĠDavid son
ĠH ip
ĠE ST
)$ $
Ġappropri ately
+ }
17 93
K evin
Ġs aints
Ġapp l
Ġprof itable
init ial
ad v
ĠM ira
ee le
Ġadd itions
F und
H all
ĠS utton
Ġten ant
ĠTra vis
ĠWork shop
ĠConf ederation
Ġchrom os
Ġcorp us
Ġinv ariants
ĠR oma
Ġcar ing
ĠM anning
ĠIr ving
ĠT ian
ĠJ ub
ĠEd en
Ġdecl aring
\\ [
17 92
Ġten ants
ĠTrib unal
ĠBol ton
Ġdisag re
d og
ĠC otton
ĠR ough
ĠSh ane
ot yp
ĠS aid
ĠC I
ĠCar bon
ab ella
23 9
sum mary
Sh ow
Ġprosp ective
ĠConc ord
e eq
it ures
St age
erg arten
B all
cor rect
Ġsup reme
School s
ĠTon ight
ĠAlz heimer
Ġdepos ited
ĠDrag ons
ĠSched ule
Ġrem inis
ĠN ames
}) }{
Ġchar m
Ne il
Ġsett ling
ĠHam mond
r ÃŃ
ĠSix th
rit t
ĠProt ocol
le ad
ĠD ynam
Ġprosecut ors
ĠW E
Ġrecover ing
Ġbi om
L B
Ġuniqu eness
G Hz
er d
Ġreleg ation
Ġincent ive
C orn
ĠF ischer
18 02
23 7
Ġmet re
ĠL uk
Ġmin ers
Ġc and
av ers
+ $
ĠD uck
Ġsuff ers
k ens
Cont act
Ġflower ing
b illion
e ch
ĠRes istance
ĠWe iss
Ġd elta
ĠBuck ingham
à ´
ĠInt o
ĠO le
ro ot
ĠEn forcement
old er
Ġexceed ed
Ġc rossover
ĠC yp
M iddle
18 07
Count y
od us
IN T
Ġl ob
Ġexplo ited
Ġham let
m atch
ard on
Ġstorm s
L u
30 2
Ġre wards
iz arre
Ġanal ogue
Ġarbit ration
ow ment
ĠSoph ie
B esides
Ġdesc ended
ĠR ally
ĠMod els
r atives
st eps
ĠCon rad
Ġhung er
Ġbab ies
Ġf rig
k ip
ĠD ion
Ġ$\ |\
Ġsens ing
ĠPatt erson
ĠJ orge
ĠJac obs
ĠNob le
ĠR oland
oph yll
Ġviol ate
OR T
Ġscrut iny
N BA
28 8
ĠGo ing
B ey
Ġfact o
oub ted
Ġth roat
{ |\
Ġfold ed
Ġin acc
Ġassist ing
f alse
K al
ĠV on
Ġro de
Sum mer
ĠPr ussia
ĠWill is
c all
ĠB MW
Ġsl ip
ĠCa uchy
Ġexceed ing
17 76
Ġstat istically
' ),
Ġnegot iated
4 20
ad apt
23 3
m eter
ific ates
ĠB ee
M em
Al ong
Ġmut ation
N etwork
rib es
22 9
Atlant ic
ĠZ el
Ġint end
land ers
Ġlad ies
Uk rainian
f itting
ĠF unction
Ġar ithmetic
}} )\
Ġwh oles
ĠNe umann
Ġflood s
Ġstead ily
ĠHels inki
colone qq
Ġcontin ually
anc o
ĠL Ã©
) )$,
Ġmorph ology
25 4
Ġf ingers
as ium
ĠL ect
H arry
Ġback s
ĠH omer
sh aw
Ġrec ession
ĠHyder abad
Ġcr ude
ĠWe ap
Ġphot ographers
b und
ĠP eg
Ġsc out
ĠLenn on
ĠB ian
Ġcont empor
Ġentire ty
Ã¨ res
Ġappar atus
ĠW yn
per ture
T ony
rol og
Ġmar athon
Ġw ives
ig hed
ĠWor cester
ĠSim mons
ĠTe ams
ĠĠĠĠĠĠĠĠĠĠĠĠĠĠĠĠ ĠĠ
Ġout let
Mex ican
^{ *}
A ction
_{ |
Ġfert il
ĠO DI
omed ical
ud i
rov ision
ĉĉĉĉ ĉĉĉĉ
Ġd airy
ĠĠĠĠĠĠĠĠĠĠĠĠĠĠĠĠ ĠĠĠĠĠĠĠĠĠĠĠ
err ill
ĠBar r
comm ut
utt gart
ĠMethod s
ar b
Ġdeleg ate
ĠCert ificate
ĠS iber
w ara
18 11
Ġprot ections
n ull
Ġbeh ave
ĠChen nai
Ġpsych ologist
ĠSt ark
ĠColomb ian
ĠG os
em y
Ġacc ent
ĠPal omar
ĠCh ic
ogene ity
Ġsupern atural
Ġmoment a
ans en
ic ates
17 95
ĠH arri
24 2
Ġmarket ed
ar ra
ĠE rik
ĠChar acter
Ġm eg
Ġcommand ers
Ġprejud ice
Ã¢ te
ĠĠĠĠĠĠĠĠĠĠĠĠĠĠĠĠ ĠĠĠĠ
ĠFal con
Ġchar ities
ĠD iversity
Ġb ags
Ġrem edy
Ġl uc
Ġtre asure
Y et
d ated
Ġbi ased
ĠCzechoslov akia
ĠD unn
Ġtax ation
Ġlaun ches
ĠT ay
Ġt ended
ĠZ ur
Ġb if
Ġcultiv ation
ĠMonst er
\" {
}) ^{-
28 7
Ġspr int
do ctor
ĉ čĊ
Ġcontest ant
ix el
24 6
ĠClass ics
Ġamb ient
e ight
f ollowing
Ġreg iments
Ġconvolution al
ĠBel ow
Ġdelight ed
Ġab normal
ĠFront ier
Get ty
ag ara
ĠAbb ott
ĠSchw artz
ĠE S
O ffic
Ġsh ower
Ġhypothes es
F ish
Ġlim estone
Har vard
ĠThe ological
uls a
An im
ĠGarc ÃŃa
im pro
Ġmot ors
ĠCo ch
Ġt a
ring ing
Ġcompet ent
scal ebox
ist rate
Ġcan vas
Flor ida
Ġles bian
ĠSch r
2 17
ĠHel ena
ĠS ave
ĠP ablo
Ġtra vers
ĠHy de
Ġnut ri
ĠEu rovision
Ġw artime
Ġind ict
ĠBagh dad
D ave
gu ard
Ġplate au
Ġbreath ing
Ġ )\
imens ion
Ġtext ure
E gypt
Ġb anner
Ġsepar ating
Ġmid night
Europ e
Ġlik ewise
bur st
Ġhect ares
Ġfac ade
Ġportray al
ĠRap ids
ass ociated
c v
ĠM oor
ĠCh oir
ib les
Ġmetaph or
V ari
he id
L ew
}) :
Ġsur plus
Ġsk ating
Ġpriv at
Ġhar bour
ve ction
ric anes
ĠF ry
ar f
ĠF i
}) ^{\
W inners
f iles
ort e
ism an
ĠF ow
Ġ{ {
ĠN ass
Par is
Stat istics
e er
å ¤
( $\
ĠD anger
ĠMcC art
Ġhat red
ĠV and
Ġpress ing
ex isting
ĠBrit t
term s
Ġconf inement
p ole
Ġtri angles
ĠSupp ly
AT A
Ġremn ants
Ġl ord
Ġsl ice
rab ility
Spr ing
= }
Ġtherap eutic
N BC
S ax
Ġe mails
ĠMed ieval
Ġg ym
Ġjust ification
Ġlif ting
Ġs ect
Ġ( (
Ġvari ational
Ġstri pped
Rec ently
nb sp
Ġin ning
ĠSw itch
Ġnarrow ly
Ġbutter fly
ĠM are
}$ &
Ġsusp icious
17 99
Ġconclud ing
Ġsystem ic
Data Type
ruct ures
ĠAugust ine
Ġselect ive
O G
ĠC ars
Ġann oy
arn ation
ĠCatal ina
Elect ions
ĠL ooking
i ade
Ġconduct ivity
Ġb urg
Ġle ased
ĠValent ine
w iki
Â ²
ĠM iy
Ġdeb ts
ĠF CC
}{ !
Ġmet ro
ĠBe ethoven
ĠMoh ammad
at hetic
â Ħ
qu isition
ĠJ as
24 3
ĠEurop a
ĠOs aka
Ġju venile
- )
Ġpol o
Ġtact ical
f eed
ĠL ima
ad j
Ġcomp ares
ĠCan on
Ġsc orer
pot ent
Ġton ight
Ġsub species
Ġjud ged
od on
Ġnational ity
Ġton nes
ĠR B
direct ed
ĠH onda
ĠMong ol
C as
Ġch aired
ĠY osh
sh a
B and
d ynamics
Ġinv ersion
ĠFrances co
Ġcond ens
Ġsan ctuary
tw itter
ĠRep orter
)$ }
unning ham
Ġski ing
ith ub
ĠD iss
Ġpress ed
ad os
Ġhom eland
Ù Ĩ
Ġm elt
ost alg
r ath
ĠGu adal
ĠCoul omb
ĠO ften
eb ack
ĠBerg en
mar ine
N F
Ġexam ines
Foot notes
worth y
rad ius
17 96
ĠBu ilt
ĠLam bert
ĠRes ort
b order
h on
Ġdis ruption
ĠZ hu
fl ight
17 58
Ġc ra
Oper ation
af ia
Ġp ent
Ġclass rooms
art ments
nt hesis
B ra
ĠM und
ĠG OP
Ġsim ulate
fund ed
ĠR ust
Ġ );
bal ance
Ġplanet ary
Ġleg ends
ĠB uk
Ġsoph omore
ar ine
ge ons
ĠV ed
ener ation
ek a
ĠAlex andra
g one
à¤ °
Ġheav ier
relim inary
ĠPo ems
n l
ĠM its
ĠRever end
Ġen cl
Ġmed all
ill ian
ĠEns emble
Ġp sy
Ġreb uild
RO M
ĠPhil harmonic
Ġpack aging
ĠCon cept
to ire
Ġincre ment
b x
ĠW itt
St arting
3 45
ĠPer kins
Ġ Âł
Ġb rak
Ġmit igate
ĠSev enth
ĠFac ility
ĠShir ley
ĠL ars
ĠSom ething
ĠLaw yers
m our
v ian
Ġpr isons
il us
ĠI RS
Ġel ong
H al
Ġbro ker
ĠHall ow
ĠA CC
Ġhe ights
ĠP oor
ĠF iji
Ġun related
App ro
w ings
Ġdet ain
ank ar
ĠPatri arch
y ch
Ġstrengthen ed
ĠH ubble
Ġr ides
ĠClif ford
Ġse gregation
weight ed
ĠAle ks
Ġide ological
road s
ĠRen ew
C urrently
Ġaffili ates
Ġpup il
ĠS ind
ĠTrad itional
Ġsp ends
Ġdist ortion
or se
Ġpuls es
N D
ĠU TC
}, $
ĠTe V
Ġt ire
Ġmark ers
e astern
ĠLe igh
ĠJ ag
ĠX i
ĠSol o
R P
ur face
Ġf uck
le ases
Ġarchitect ures
ĠEnt reprene
Ġmark er
uther land
ĠLaure nt
ary a
Ġins ign
ĠAdminist rator
Ġ[ -
ĠSc heme
row ave
MS E
Ġun aware
Ġpurch ases
Ġc ass
ĠF ramework
Ġsc rap
Ġcor ridor
resp ons
Ġlog istics
Ind ex
ĠCher ry
st a
Ġdes erves
Ġetern al
ĠBulld ogs
Ġwh it
C ategories
S aturday
W E
nest y
ĠStri ke
Ġcomp rise
Ġsystem atically
Ġunanim ous
w u
ĠB enson
sur face
Ġepoch s
Ġcolumn ist
ĠSav age
Mat thew
28 5
Ġse aled
ĠSp in
Ġsqu ared
Ġdam aging
der iv
Ã¨ ne
in vest
out put
Art ists
ĠS B
ve z
pro gram
K er
Ġsub stitution
ĠS ikh
Ġjurisd ictions
), \\
ĠPent agon
ĠB ills
30 6
ĠKit chen
Comm unity
raise box
Ġexcit ement
Ġmisc onduct
' }(
Ã ²
Ġrecogn izing
Ġexpend iture
g re
Î »
Ġeconom ists
ĠAre as
T el
Ġdiscl ose
ĠC BC
a ic
Ġcon gest
Ġdep ths
Ġrecogn ise
)- (
Ġquestion ing
Ġtrans ient
Ġiss uing
ĠRoad s
ĠW itch
Ġch ambers
ĠF en
ĠL ub
Ġpart itions
Ġmel ody
ĠCamero on
Ġf right
Ġaver ages
Leg al
A bb
direct or
ĠHond uras
D a
ĠSt rip
urch ase
Label s
Ġfrust rated
ĠW et
ĠPort rait
$ }\
m em
ĠCan berra
ĠS ED
ĠĠĠĠĠĠĠĠ Ċ
Ġmarg ins
wh ose
ĠB ols
ĠB ug
f ollow
arn a
m r
ĠE duc
ĠMe asure
A round
Ġinc urred
ĠH ollow
ter ror
ec es
i ological
E V
b et
res a
pl ays
d h
Ġcounsel ing
ĠMaj esty
ĠP ond
ĠP BS
k j
Ġch ord
ould er
EN D
Ġen umer
ĠPar ade
ĠM ate
E lection
am ph
s z
B egin
ĠHom eland
ĠGet ty
d ark
Ġout rage
Un fortunately
Ġco h
ĠP ole
17 80
ĠPhill ip
ĠW is
Ġst ir
CO M
ĠExper imental
as than
Ġundert ake
ĠFitz gerald
ĠHe arts
Ġd ive
ĠF amilies
ĠÄ Ĳ
ich let
ĠConc ern
ĠHe ather
it ored
ĠCh rys
ae a
ĠO mar
Ġsequ ential
Ġmar ched
Ġmor ality
Ġmon archy
ĠClay ton
Ġcinem at
ĠC rom
ĠM ining
ĠG ore
ĠY ard
uc ing
Ġstim ulus
Ġstup id
R ace
Ġpl aque
do es
ĠCec il
is bury
Ġd ragon
3 90
ĠF ors
Ġdep ot
Ġstat utes
Ġsocial ism
Ġoptim ize
Ġconfront ed
ĠElect rical
ĠWinc hester
ĠGl ac
enn ess
ĠInf rastructure
et ian
R aj
m t
ac ian
het ics
ĠÅ ģ
Ġlay ing
Ġdiss ertation
at ility
ĠNE AT
Ġreun ited
ĠH uff
Ġtransform ing
w ana
ĠP GA
ĠK rak
oper ator
ĠT uc
im g
l ifting
Ġg riev
end e
ĠO sw
Ġprivile ges
Ġlist ened
[...]
