{"[UNK]":0,"!":1,"\"":2,"#":3,"$":4,"%":5,"&":6,"'":7,"(":8,")":9,"*":10,"+":11,",":12,"-":13,".":14,"/":15,"0":16,"1":17,"2":18,"3":19,"4":20,"5":21,"6":22,"7":23,"8":24,"9":25,":":26,";":27,"<":28,"=":29,">":30,"?":31,"@":32,"A":33,"B":34,"C":35,"D":36,"E":37,"F":38,"G":39,"H":40,"I":41,"J":42,"K":43,"L":44,"M":45,"N":46,"O":47,"P":48,"Q":49,"R":50,"S":51,"T":52,"U":53,"V":54,"W":55,"X":56,"Y":57,"Z":58,"[":59,"\\":60,"]":61,"^":62,"_":63,"`":64,"a":65,"b":66,"c":67,"d":68,"e":69,"f":70,"g":71,"h":72,"i":73,"j":74,"k":75,"l":76,"m":77,"n":78,"o":79,"p":80,"q":81,"r":82,"s":83,"t":84,"u":85,"v":86,"w":87,"x":88,"y":89,"z":90,"{":91,"|":92,"}":93,"~":94,"¡":95,"¢":96,"£":97,"¤":98,"¥":99,"¦":100,"§":101,"¨":102,"©":103,"ª":104,"«":105,"¬":106,"®":107,"¯":108,"°":109,"±":110,"²":111,"³":112,"´":113,"µ":114,"¶":115,"·":116,"¸":117,"¹":118,"º":119,"»":120,"¼":121,"½":122,"¾":123,"¿":124,"Â":125,"Ã":126,"Ä":127,"Å":128,"Æ":129,"Ç":130,"È":131,"É":132,"Ê":133,"Ë":134,"Ì":135,"Í":136,"Î":137,"Ï":138,"Ð":139,"Ñ":140,"Ò":141,"Ó":142,"Ô":143,"Õ":144,"Ö":145,"×":146,"Ø":147,"Ù":148,"Ú":149,"Û":150,"Ü":151,"Ý":152,"Þ":153,"ß":154,"à":155,"á":156,"â":157,"ã":158,"ä":159,"å":160,"æ":161,"ç":162,"è":163,"é":164,"ê":165,"ë":166,"ì":167,"í":168,"î":169,"ï":170,"ð":171,"ó":172,"ô":173,"Ā":174,"ā":175,"Ă":176,"ă":177,"Ą":178,"ą":179,"Ć":180,"ć":181,"Ĉ":182,"ĉ":183,"Ċ":184,"ċ":185,"Č":186,"č":187,"Ď":188,"ď":189,"Đ":190,"đ":191,"Ē":192,"ē":193,"Ĕ":194,"ĕ":195,"Ė":196,"ė":197,"Ę":198,"ę":199,"Ě":200,"ě":201,"Ĝ":202,"ĝ":203,"Ğ":204,"ğ":205,"Ġ":206,"ġ":207,"Ģ":208,"ģ":209,"Ĥ":210,"ĥ":211,"Ħ":212,"ħ":213,"Ĩ":214,"ĩ":215,"Ī":216,"ī":217,"Ĭ":218,"ĭ":219,"Į":220,"į":221,"İ":222,"ı":223,"Ĳ":224,"ĳ":225,"Ĵ":226,"ĵ":227,"Ķ":228,"ķ":229,"ĸ":230,"Ĺ":231,"ĺ":232,"Ļ":233,"ļ":234,"Ľ":235,"ľ":236,"Ŀ":237,"ŀ":238,"Ł":239,"ł":240,"Ń":241,"Ġt":242,"he":243,"in":244,"Ġa":245,"on":246,"er":247,"Ġthe":248,"re":249,"at":250,"Ġo":251,"en":252,"Ġs":253,"an":254,"or":255,"is":256,"al":257,"it":258,"Ġw":259,"es":260,"ed":261,"Ġc":262,"ar":263,"Ġof":264,"Ġf":265,"nd":266,"Ġin":267,"Ġp":268,"Ġb":269,"ion":270,"ing":271,"ic":272,"Ġand":273,"as":274,"ro":275,"le":276,"Ġto":277,"Ġm":278,"Ġd":279,"ou":280,"ent":281,"Ġh":282,"il":283,"el":284,"ĠS":285,"ct":286,"om":287,"Ġth":288,"st":289,"Ġre":290,"ĠC":291,"ĠT":292,"ĠA":293,"et":294,"am":295,"ol":296,"ig":297,"ĠĠ":298,"Ġl":299,"ation":300,"Ġn":301,"Ġe":302,"ra":303,"âĢ":304,"ot":305,"im":306,"Ġ\\":307,"Ġ(":308,"ĠM":309,"iv":310,"id":311,"Ġis":312,"ur":313,"ch":314,"ce":315,"Ġfor":316,"ĠI":317,"Ġ$":318,"ut":319,"Ġg":320,"ly":321,"us":322,"Ġon":323,"ĠB":324,"ers":325,"ĠP":326,"ad":327,"ow":328,"20":329,"Ġbe":330,"ir":331,"ay":332,"ith":333,"ĠH":334,"em":335,"ul":336,"Ġas":337,"Ġst":338,"Ġthat":339,"19":340,"ter":341,"ĠR":342,"un":343,"Ġwas":344,"ĠD":345,"Ġwith":346,"ĠF":347,"ist":348,"ver":349,"um":350,"her":351,"ĠL":352,"ĠThe":353,"os":354,"th":355,"Ġal":356,"Ġcon":357,"ĠW":358,"ab":359,"and":360,"ĠN":361,"Ġan":362,"ĠG":363,"ag":364,"Ġpro":365,"Ġby":366,"Ġwh":367,"if":368,"qu":369,"ve":370,"{\\":371,"op":372,"od":373,"ĠE":374,"est":375,"Ġat":376,"ri":377,"ac":378,"ity":379,"res":380,"rom":381,"Ġit":382,"ate":383,"Ġde":384,"Ġv":385,"ect":386,"ĠJ":387,"igh":388,"Ġcom":389,"end":390,"Ġhe":391,"ill":392,"pp":393,"oc":394,"ain":395,"ies":396,"art":397,"Ġfrom":398,"se":399,"ore":400,"Ġare":401,"ĠĠĠĠ":402,"Ġex":403,"ew":404,"ĠO":405,"Ġor":406,"ud":407,"ant":408,"ld":409,"ub":410,"ath":411,"ess":412,"all":413,"ort":414,"Ġse":415,"ĠĊ":416,"ment":417,"ak":418,"'s":419,"_{":420,"ight":421,"ive":422,"eg":423,"ial":424,"Ġy":425,"ure":426,"âĢĻ":427,"ber":428,"ĠU":429,"up":430,"ge":431,"ĠâĢ":432,"ard":433,"ap":434,"The":435,"ich":436,"Ġr":437,"ian":438,"201":439,"ine":440,"our":441,"ĠK":442,"ph":443,"Ġ$\\":444,"nt":445,"ia":446,"Ġwe":447,"Ġch":448,"ated":449,"und":450,"ust":451,"Ġpl":452,"ary":453,"ell":454,"og":455,"ions":456,"ip":457,"ear":458,"ical":459,"ave":460,"ĠSt":461,"Ġsh":462,"ep":463,"ĠIn":464,"Ġle":465,"math":466,"ec":467,"Ġnot":468,"Ġsp":469,"Ġhis":470,"Ġ\"":471,"ug":472,"ong":473,"ast":474,"fer":475,"200":476,"ex":477,"Ġcomp":478,"Ġthis":479,"Ġ&":480,"ran":481,"ost":482,"are":483,"iz":484,"ite":485,"Ġk":486,"Ġwhich":487,"cl":488,"ork":489,"ff":490,"ov":491,"ign":492,"ther":493,"ire":494,"Ġus":495,"Ġhave":496,"uc":497,"ĠV":498,"ord":499,"ĠCh":500,"ame":501,"}\\":502,"ult":503,"ere":504,"}$":505,"ue":506,"ations":507,"00":508,"so":509,"mer":510,"Ġhas":511,"ction":512,"av":513,"^{":514,"pl":515,"čĊ":516,"ish":517,"per":518,"ence":519,"ass":520,"Ġwhe":521,"ack":522,"),":523,"orm":524,"pt":525,"ous":526,"Ġres":527,"ens":528,"Ġab":529,"Ġun":530,"enc":531,"ome":532,"ok":533,"ft":534,"Ġcl":535,"rac":536,"age":537,"Ġwere":538,"ould":539,"Ġcont":540,"ide":541,"out":542,"ry":543,"ric":544,"ie":545,"ition":546,"18":547,"Ġalso":548,"Ġsu":549,"Ġint":550,"ime":551,"Ġcan":552,"Ġall":553,"Ġad":554,"ond":555,"ib":556,"act":557,"\\\\":558,"Ġj":559,"ice":560,"int":561,"ma":562,"ace":563,"ĠTh":564,"Ġim":565,"Ġar":566,"Ġapp":567,"ref":568,"ach":569,"ount":570,").":571,"Ġtheir":572,"ang":573,"cc":574,"irst":575,"Ġpart":576,"..":577,"ory":578,"Ġ-":579,"ik":580,"able":581,"over":582,"tern":583,"erv":584,"Ġone":585,"ta":586,"}}":587,"(\\":588,"ĠUn":589,"ild":590,"ĠHe":591,"rit":592,"Ġ|":593,"ext":594,"ally":595,"Ġbut":596,"own":597,"âĢĿ":598,"oll":599,"ates":600,"ase":601,"ents":602,"Ġwho":603,"Ġhad":604,"Ġper":605,"wo":606,"ru":607,"ĠY":608,"ind":609,"ree":610,"ound":611,"ors":612,"egin":613,"ely":614,"Ġits":615,"ĠIt":616,"Ġdis":617,"ational":618,"ance":619,"begin":620,"Ġro":621,"cal":622,"âĢĵ":623,"ark":624,"hed":625,"Ġfirst":626,"form":627,"10":628,"clud":629,"old":630,"Ġme":631,"ress":632,"ose":633,"any":634,"In":635,"erm":636,"Ġen":637,"Ġyear":638,")$":639,"Ġte":640,"Ġother":641,"Ġplay":642,"ĠâĢĵ":643,"Ġag":644,"Ġout":645,"Ġyou":646,"Ġthey":647,"199":648,"_{\\":649,"eop":650,"port":651,"fter":652,"one":653,"Ġrec":654,"Ġwork":655,"lic":656,"ile":657,"ugh":658,"amp":659,"aw":660,"Ġbeen":661,"ng":662,"ater":663,"du":664,"vel":665,"ks":666,"Ġev":667,"ne":668,"eople":669,"}{":670,"ll":671,"Ġwill":672,"Ġher":673,"Ġmore":674,"ob":675,"ĠâĢľ":676,"Ġtwo":677,"Ġ=":678,"Ġpre":679,"Ġbec":680,"ons":681,"right":682,"the":683,"rm":684,"we":685,"Ġdo":686,"ĠĠĠĠĠĠĠĠ":687,"Ġup":688,"ics":689,"Ġsc":690,"ĠĠĠ":691,"Ġqu":692,"te":693,"frac":694,"rib":695,"ings":696,"iss":697,"ss":698,"meric":699,"ivers":700,"land":701,"Ġover":702,"ited":703,"Ġ||":704,"ook":705,"lect":706,"ood":707,"Ġcomm":708,"gh":709,"Ġdes":710,"ection":711,"under":712,"orn":713,"ake":714,"Ġtime":715,"row":716,"ool":717,"ans":718,"ail":719,"ences":720,"les":721,"ener":722,"rad":723,"oy":724,"ied":725,"equ":726,"ember":727,"Ġnew":728,"Ġinclud":729,"Ġabout":730,"},":731,"ased":732,"Ġind":733,"eq":734,"Ġso":735,"Ġcons":736,"rans":737,"abel":738,"ram":739,"use":740,"very":741,"Ġwould":742,"als":743,"ward":744,"Ġinto":745,"rop":746,"Ġthere":747,"ular":748,"Ġne":749,"oint":750,"Ġunder":751,"olog":752,"Ġpeople":753,"uring":754,"Ġinter":755,"text":756,"Ġoff":757,"ĠNew":758,"Ġact":759,"Ġbet":760,"ĠCom":761,"Ġsy":762,"Ġmod":763,"ough":764,"ef":765,"mathb":766,"198":767,"Ġwhen":768,"ious":769,"Ġreg":770,"urn":771,"Ġthan":772,"Ġass":773,"Ġkn":774,"anc":775,"12":776,"ities":777,"Ġsub":778,"ont":779,"ays":780,"hip":781,"ative":782,"io":783,"Ġrel":784,"ilm":785,"red":786,"ollow":787,"Ġob":788,"Re":789,"orld":790,"Ġacc":791,"ict":792,"ution":793,"Ġwhere":794,"$,":795,"rough":796,"ident":797,"ĠAmeric":798,"Ġonly":799,"Ġafter":800,"sp":801,"cite":802,"Ġshe":803,"Ġsuch":804,"oth":805,"ĠMar":806,"ject":807,"aid":808,"imes":809,"17":810,"chool":811,"iel":812,"tain":813,"Ġpol":814,"15":815,"ual":816,"Ġsome":817,"cent":818,"label":819,"round":820,"$.":821,"ade":822,"ific":823,"ating":824,"ĠAl":825,"ike":826,"ys":827,",\\":828,"raph":829,"ix":830,"amb":831,"mathcal":832,"ee":833,"Ġany":834,"ferences":835,"ince":836,"left":837,"resent":838,"Ġdef":839,"Ġstud":840,"Ġexp":841,"ren":842,"Ġset":843,"ts":844,"Ġatt":845,"ps":846,"equation":847,"16":848,"Ġthem":849,"ann":850,"Ġdif":851,"Ġfollow":852,"ral":853,"ween":854,"Ġloc":855,"Ġform":856,"wn":857,"ublic":858,"pr":859,"Ġprov":860,"Ġsec":861,"197":862,"cess":863,"ĠThis":864,"oot":865,"ick":866,"Ġinv":867,"gan":868,"Ġco":869,"inal":870,"ily":871,"}.":872,"Ġif":873,"Ġour":874,"Ġnum":875,"Ġpr":876,"ists":877,"})":878,"roup":879,"reat":880,"ĠAr":881,"iversity":882,"der":883,"Ġmost":884,"Ġthen":885,"Ġtrans":886,"Ġyears":887,"com":888,"eth":889,"ision":890,"}(":891,"Ġbetween":892,"Ġph":893,"line":894,"Ġpos":895,"duc":896,"Ġdist":897,"ĠDe":898,"pro":899,"oh":900,"Ġserv":901,"Ġam":902,"ise":903,"stem":904,"Ġfl":905,"ield":906,"ock":907,"ement":908,"oci":909,"eta":910,"ife":911,"Ġno":912,"References":913,"~\\":914,"iew":915,"let":916,"arg":917,"Ġfe":918,"Ġman":919,"13":920,"ower":921,"}^":922,"ures":923,"ball":924,"Ġcol":925,"ason":926,"ished":927,"ey":928,"14":929,"ism":930,"Ġtra":931,"Ġhim":932,"Ġgo":933,"ah":934,"Ġthrough":935,"Ġsaid":936,"ax":937,"Ġinc":938,"Ġshow":939,"Ġfilm":940,"oun":941,"irect":942,"Ġrem":943,"}_":944,"hat":945,"ility":946,"ĠWe":947,"overn":948,"ments":949,"air":950,"fig":951,"ined":952,"Ġmay":953,"Ġem":954,"Ġgener":955,"its":956,"app":957,"21":958,"Ġest":959,"Ġac":960,"Ġbu":961,"pha":962,"ton":963,"man":964,"Ġthese":965,"ĠPro":966,"ause":967,"Ġra":968,"hes":969,"196":970,"itt":971,"Ġsupp":972,"ury":973,"ins":974,"ev":975,"Ġadd":976,"Ġagain":977,"tt":978,"velop":979,"\\\\\\\\":980,"ever":981,"uss":982,"da":983,"orth":984,"ines":985,"ues":986,"ier":987,"alpha":988,"outh":989,"hen":990,"Ġwell":991,"Ġbl":992,"ĠSh":993,"Ġresult":994,"ove":995,"Ġused":996,"Ġent":997,"yp":998,"11":999,"Ġspec":1000,"ata":1001,"ĠZ":1002,"ames":1003,"Ġcent":1004,"Ġdec":1005,"ĠAmerican":1006,"to":1007,"ract":1008,"ible":1009,"erson":1010,"abl":1011,"of":1012,"ars":1013,"Ġrep":1014,"Ġsim":1015,"ash":1016,"ĠInd":1017,"ĠLe":1018,"Ġed":1019,"ature":1020,"Ġeff":1021,"ĠUniversity":1022,"arn":1023,"ern":1024,"uch":1025,"Ġresp":1026,"ink":1027,"emb":1028,"Ġsystem":1029,"ient":1030,"Ġ[":1031,"Ġfound":1032,"ĠSp":1033,"Ġfam":1034,"Ġend":1035,"ĠAn":1036,")\\":1037,"ĠUnited":1038,"30":1039,"Ġhow":1040,"Ġconst":1041,"ĠFor":1042,"els":1043,"ari":1044,"Ġdiffer":1045,"ider":1046,"ouse":1047,"ray":1048,"way":1049,"Ġthree":1050,"Ġ+":1051,"elf":1052,"Ġduring":1053,"Ġart":1054,"ives":1055,"ĠSc":1056,"Ġser":1057,"Ġcount":1058,"elta":1059,"ten":1060,"part":1061,"Ġmany":1062,"ox":1063,"ruct":1064,"ized":1065,"ale":1066,"Ġmade":1067,"az":1068,"aj":1069,"con":1070,"inn":1071,"Ġlead":1072,"ambda":1073,"ĠAs":1074,"Ġfun":1075,"Ġsur":1076,"Ġbeing":1077,"Ġwhat":1078,"Ġdet":1079,"sc":1080,"lem":1081,"Ġsign":1082,"Ġinst":1083,"other":1084,"Ġcor":1085,"ional":1086,"22":1087,"$\\":1088,"Ġnumber":1089,"Ġeach":1090,"att":1091,"Ġsm":1092,"Ġequ":1093,"ĠCol":1094,"amma":1095,"ĠQ":1096,"ute":1097,"Ġback":1098,"Ġlike":1099,"Ġdisc":1100,"Ġteam":1101,"ĠCl":1102,"Ġext":1103,"erg":1104,"iving":1105,"ank":1106,"ather":1107,"cept":1108,"25":1109,"Ġcall":1110,"Ġgroup":1111,"mathbb":1112,"ina":1113,"ets":1114,"Ġpoint":1115,"arly":1116,"Ġjust":1117,"ots":1118,"ho":1119,"Ġhigh":1120,"ull":1121,"uth":1122,"194":1123,"ty":1124,".,":1125,"Ġboth":1126,"ices":1127,"Ex":1128,"usic":1129,"}_{":1130,"195":1131,"eb":1132,"ron":1133,"_\\":1134,"Ġdevelop":1135,"Ġsame":1136,"ange":1137,"Ġval":1138,"pos":1139,"Ġret":1140,"ural":1141,"arl":1142,"min":1143,"Ġsecond":1144,"mu":1145,"Ġstr":1146,"Ġfin":1147,"Ã©":1148,"ober":1149,"=\\":1150,"Ġstate":1151,"ology":1152,"Ġmat":1153,"Ġuse":1154,"Ġmed":1155,"000":1156,"Ġclass":1157,"Ġoper":1158,"fore":1159,"iven":1160,"Ġsing":1161,"Th":1162,"Ġpartic":1163,"igma":1164,"ym":1165,"ived":1166,"ants":1167,"ize":1168,"Ġmin":1169,"Ġdirect":1170,"ohn":1171,"Ġrele":1172,"rict":1173,"Ġcould":1174,"Ġcur":1175,"}^{":1176,"ĠIs":1177,"istory":1178,"Ġprob":1179,"ful":1180,"Ġcre":1181,"ĠComm":1182,"ega":1183,"Ġwhile":1184,"gram":1185,"ple":1186,"omen":1187,"aking":1188,"Ġ\\\\":1189,"ically":1190,"-\\":1191,"ĠShe":1192,"ĠStates":1193,".\"":1194,"Ġchar":1195,"enn":1196,"Ġown":1197,"ĠEng":1198,"iver":1199,"alth":1200,"sub":1201,"Ġmon":1202,"Ġbefore":1203,"ternal":1204,"eng":1205,"Ġwrit":1206,"Ġmov":1207,"Ġop":1208,"Ġschool":1209,"Ġpop":1210,"overnment":1211,"Ġbel":1212,"Ġdifferent":1213,"ley":1214,"Ġmy":1215,"ross":1216,"iam":1217,"phi":1218,"Ġright":1219,"sh":1220,"Ġbecause":1221,"ience":1222,"ĠCon":1223,"arch":1224,"Ġlong":1225,"Ġincluding":1226,"^{\\":1227,"duct":1228,"Ġsee":1229,"led":1230,"ept":1231,"ired":1232,"Ġnow":1233,"une":1234,"apt":1235,"ages":1236,"inc":1237,".âĢĿ":1238,"ootball":1239,"Ġpar":1240,"ization":1241,"ote":1242,"ator":1243,"Ġdid":1244,"Ġperform":1245,"rent":1246,"Ġsupport":1247,"Ġterm":1248,"Ġsol":1249,"Ġstart":1250,"ission":1251,"ounc":1252,"son":1253,"Ġappro":1254,"Ġworld":1255,"ital":1256,"Ġrecord":1257,"align":1258,"ved":1259,"24":1260,"par":1261,"Ġgu":1262,"chn":1263,"Ġneed":1264,"Ġcontin":1265,"ĠAnd":1266,"Ġevery":1267,"lambda":1268,"ulation":1269,"Ġagainst":1270,"ĠBl":1271,"ode":1272,"inks":1273,"ĠAd":1274,"Ġpublic":1275,"ert":1276,"Ġcommun":1277,"ĠJan":1278,"Ġfact":1279,"Ġinf":1280,"Ġrequ":1281,"Ġfour":1282,"Ġcare":1283,"Ġfollowing":1284,"Ġmain":1285,"We":1286,"Ġelect":1287,"Ġexper":1288,"irc":1289,"Ġcase":1290,"Ġ{\\":1291,"ĠMay":1292,"ality":1293,"ĠPh":1294,"Ġknown":1295,"arri":1296,"Ġ.":1297,"Ġlater":1298,"formation":1299,"yn":1300,"Ġvery":1301,"Ġorder":1302,"Ġdr":1303,"ually":1304,"Âł":1305,"ths":1306,"ared":1307,"ograph":1308,"ially":1309,"Ġget":1310,"Ġthose":1311,"iness":1312,"ases":1313,"ret":1314,"....":1315,"rid":1316,"ĠJohn":1317,"23":1318,"Ġconsider":1319,"Ġnon":1320,"Ġdesc":1321,"Ġpres":1322,"ternational":1323,"ety":1324,"bum":1325,"ĠFran":1326,"ĠOn":1327,"day":1328,"Ġsince":1329,"eter":1330,"ces":1331,"Ġdata":1332,"rist":1333,"ilon":1334,"Ġplayers":1335,"ting":1336,"Ġele":1337,"Ġline":1338,"by":1339,"Ġlife":1340,"pi":1341,"Ġeven":1342,"urch":1343,"ubl":1344,"itions":1345,"au":1346,"ĠNational":1347,"bf":1348,"Ġlaw":1349,"ĠCount":1350,"ven":1351,"ean":1352,"mathbf":1353,"ĠâĢĶ":1354,"2020":1355,"here":1356,"ected":1357,"Ġseason":1358,"ior":1359,"vent":1360,"Ġlinks":1361,"ister":1362,"50":1363,"ĠPl":1364,"Ġchild":1365,"Ġsmall":1366,"ĠHow":1367,"ively":1368,"ĠYork":1369,"for":1370,"ĠWorld":1371,"arm":1372,"Ġtr":1373,"Ġorig":1374,"Ġprogram":1375,"Ġfamily":1376,"ĉĉ":1377,"Ġknow":1378,"Ġbuild":1379,"ians":1380,"Ġpolit":1381,"ĠX":1382,"ris":1383,"Ġperson":1384,"sigma":1385,"Ġmodel":1386,"ĠCan":1387,"Ġhel":1388,"ency":1389,"ilde":1390,"illion":1391,"usiness":1392,"ird":1393,"Ġmake":1394,"^{-":1395,"ague":1396,"Ġann":1397,"Ġeffect":1398,"section":1399,"Ġestabl":1400,"Ġreport":1401,"ring":1402,"St":1403,"Ġseries":1404,"atic":1405,"Ġway":1406,"view":1407,"uary":1408,"Ġcour":1409,"arge":1410,"eps":1411,"Ġorgan":1412,"\".":1413,"Ġprof":1414,"ott":1415,"ĠNov":1416,"ining":1417,"Ġrece":1418,"ĠCent":1419,"ke":1420,"ration":1421,"External":1422,"}{\\":1423,"af":1424,"por":1425,"Ġsever":1426,"Ġdesign":1427,"ided":1428,"Ġgiven":1429,"ĠJu":1430,"Ġ(\\":1431,"Ġfield":1432,"ample":1433,"ĠAust":1434,"Ġopen":1435,"bar":1436,"193":1437,"rand":1438,"Ġlast":1439,"Ġbook":1440,"isc":1441,"Ġalbum":1442,"Ġbecame":1443,"ness":1444,"Ġexpl":1445,"Ġoffic":1446,"embers":1447,"vers":1448,"Ġusing":1449,"ai":1450,"work":1451,"ajor":1452,"2016":1453,"duction":1454,"2018":1455,"ĠOr":1456,"sum":1457,"Ġrun":1458,"beta":1459,"Ġpresent":1460,"28":1461,"ified":1462,"Ġbro":1463,"til":1464,"âĢľ":1465,"ains":1466,"Ġshould":1467,"ĠSchool":1468,"Ġincre":1469,"rem":1470,"ĠBrit":1471,"duced":1472,"26":1473,"2017":1474,"ĠEx":1475,"col":1476,"ĠAss":1477,"+\\":1478,"ugust":1479,"Ġmusic":1480,"Ġdoes":1481,"27":1482,"iqu":1483,"wid":1484,"ĠEu":1485,"ck":1486,"Ġmuch":1487,"mathrm":1488,"2015":1489,"gamma":1490,"2010":1491,"get":1492,"ĠOct":1493,"Ġgovernment":1494,"*}":1495,"2019":1496,"Ġyour":1497,"--":1498,"eptember":1499,"ĠWh":1500,"Ġdep":1501,"ĠRe":1502,"ised":1503,",âĢĿ":1504,"Ġfootball":1505,"ĠSouth":1506,"ĠThey":1507,"oss":1508,"2014":1509,"ĠWar":1510,"=\"":1511,"hem":1512,"ium":1513,"Ġaround":1514,"Ġtyp":1515,"Ġdeath":1516,"\",":1517,"ĠMarch":1518,"Ġcalled":1519,"Ġsl":1520,"Ġsuc":1521,"Ġmet":1522,"Ġbased":1523,"ival":1524,"ĠTe":1525,"Ġplace":1526,"cd":1527,"Ġfunction":1528,"Ġprocess":1529,"Ġgame":1530,"ffic":1531,"Ch":1532,"Ġstat":1533,"mber":1534,"Ġuntil":1535,"oard":1536,"Ġsong":1537,"Ġcap":1538,"ĠAt":1539,"pril":1540,"lex":1541,"bs":1542,"Ġname":1543,"Ġcharact":1544,"Ġposs":1545,"alk":1546,"ĠRep":1547,"Ġfind":1548,"Ġrepresent":1549,"ense":1550,"Ġlocal":1551,"uthor":1552,"ĠCounty":1553,"rho":1554,"reen":1555,"sec":1556,"Ġ{":1557,"med":1558,"ĠAll":1559,"Ġleg":1560,"rum":1561,"ane":1562,"2012":1563,"Ġpower":1564,"ĠJanuary":1565,"wards":1566,"ĠGerm":1567,"vert":1568,"Ġrest":1569,"Ġimport":1570,"ript":1571,"ately":1572,"2011":1573,"2013":1574,"lege":1575,"ves":1576,"mp":1577,"akes":1578,"Ġhelp":1579,"ĠUS":1580,"29":1581,"ĠAugust":1582,"ĠGe":1583,"ability":1584,"It":1585,"Ġ'":1586,"ĠSeptember":1587,"cember":1588,"Ġiss":1589,"Ġmark":1590,"ĠJune":1591,"vious":1592,"\\\\\\\\\\\\\\\\":1593,"Ġbir":1594,"ering":1595,"Ġread":1596,"Ġdown":1597,"ocial":1598,"Ġpass":1599,"ides":1600,"Ġdescrib":1601,"ek":1602,"Ġstill":1603,"Ġstand":1604,"ended":1605,"ĠState":1606,"Ġlist":1607,"^\\":1608,"aving":1609,"Ġarea":1610,"Ġcond":1611,"oman":1612,"Ġreturn":1613,"ĠJuly":1614,"set":1615,"Ġav":1616,"rol":1617,"Ġseveral":1618,"ĠOctober":1619,"read":1620,"Ġnear":1621,"istor":1622,"yle":1623,"leq":1624,"urther":1625,"]{":1626,"olds":1627,"amed":1628,"Ġbas":1629,"ĠPol":1630,"quad":1631,"theta":1632,"Ġconf":1633,"Ġprot":1634,"âĢĶ":1635,"ently":1636,"delta":1637,")}":1638,"array":1639,"Ġlarge":1640,"Ġx":1641,"ĠApril":1642,"ording":1643,"aim":1644,"Ġallow":1645,"Ġocc":1646,"ilit":1647,"uman":1648,"ĠĠĠĠĠĠĠ":1649,"conom":1650,"ĠEurop":1651,"//":1652,"Ġwithin":1653,"Ġdem":1654,"ploy":1655,"Ġreal":1656,"big":1657,"$-":1658,"urs":1659,"Ġhand":1660,"tau":1661,"Ġref":1662,"40":1663,"Ġtop":1664,"ĠPr":1665,"Ġtake":1666,"Ġi":1667,"ethod":1668,"This":1669,"side":1670,"ĠDecember":1671,"yl":1672,"Ġtrad":1673,"ued":1674,"mb":1675,"ĠMan":1676,"ergy":1677,"Ġday":1678,"ĠNovember":1679,"put":1680,"Ġtri":1681,"arrow":1682,"ĠAf":1683,"Ġadv":1684,"iod":1685,"Ġwomen":1686,"Ġhome":1687,"ĠRes":1688,"lev":1689,"rang":1690,"On":1691,"Ġalong":1692,"Ġearly":1693,"Ġinformation":1694,"Ġz":1695,"}$,":1696,"2009":1697,"Ġcity":1698,"stit":1699,"Ġland":1700,"100":1701,"ential":1702,"Ġgood":1703,"'t":1704,"Ġanal":1705,"ĠCity":1706,"Ġinterest":1707,"ery":1708,"Ġcurrent":1709,"}$.":1710,"Ġproper":1711,"rack":1712,"Ġhead":1713,"ĠNorth":1714,"osed":1715,"Ġformer":1716,"Ġthough":1717,"2008":1718,"less":1719,"ateg":1720,"Ġtechn":1721,"Ġmembers":1722,"Ġproblem":1723,"ĠChrist":1724,"Ġgl":1725,"ĠCo":1726,"Ġdue":1727,"Ġopp":1728,"times":1729,"ribut":1730,"olution":1731,"}(\\":1732,"Ġgeneral":1733,"Ġbusiness":1734,"ĠĠĠĠĠĠĠĠĠĠĠĠĠĠĠĠ":1735,"lish":1736,"ĠCal":1737,"figure":1738,"Ġvis":1739,"ĠBe":1740,"ertain":1741,"ĠGu":1742,"ody":1743,"Ġpat":1744,"Ġcompany":1745,"eqref":1746,"...":1747,"ĠBut":1748,"Ġmajor":1749,"Ġpubl":1750,"Ġaddition":1751,"ww":1752,"Ġleft":1753,"Ġbest":1754,"ĠEd":1755,"Ġgra":1756,"Ġlevel":1757,"Ġobs":1758,"agn":1759,"Ġproject":1760,"ĠCanad":1761,"angu":1762,"ebru":1763,"ney":1764,"ebruary":1765,"ilt":1766,"Ġlim":1767,"ene":1768,"aces":1769,"epend":1770,"Ġmeas":1771,"Ġeng":1772,"ĠAustral":1773,"Ġel":1774,"ampions":1775,"ĠHowever":1776,"Ġimp":1777,"Ġmult":1778,");":1779,"Ġvari":1780,"ĠYou":1781,"ination":1782,"2007":1783,"Ġrese":1784,"uck":1785,"Ġsom":1786,"Ġappear":1787,"Ġwon":1788,"Ġpost":1789,"etwork":1790,"Ġlook":1791,"Ġresults":1792,"Ġsuccess":1793,"ugg":1794,"Ġinvest":1795,"partial":1796,"raw":1797,"fty":1798,"ales":1799,"ĠSec":1800,"Ġplayed":1801,"eder":1802,"ĠII":1803,"Ġsingle":1804,"Ġthink":1805,"Ġmanag":1806,"Ġrad":1807,"tilde":1808,"Ġ,":1809,"Ġwant":1810,"aster":1811,"Ġanother":1812,"Ġaff":1813,"sk":1814,"ĠWill":1815,"ends":1816,"Ġident":1817,"infty":1818,"ĠCar":1819,"val":1820,"Ġrespect":1821,"itive":1822,"ained":1823,"umn":1824,"2006":1825,"Ġcar":1826,"err":1827,"Ġlarg":1828,"ĠFl":1829,"ling":1830,"Ġrefer":1831,"nu":1832,"ats":1833,"ries":1834,"Ġreleased":1835,"Ġstruct":1836,"ords":1837,"ner":1838,"ung":1839,"ison":1840,"ĠFebruary":1841,"item":1842,"augh":1843,"ourn":1844,"Ġcountry":1845,"ored":1846,"ĠBritish":1847,"mm":1848,"Ġconc":1849,"ief":1850,"Ġtest":1851,"Ġeduc":1852,"Ġbeh":1853,"leg":1854,"ories":1855,"pm":1856,"ivid":1857,"Ġevent":1858,"|-":1859,"ĠEn":1860,"Ġtit":1861,"Ġobtain":1862,"aus":1863,"Ġmust":1864,"osp":1865,"Ġold":1866,"Ġgreat":1867,"Ġsay":1868,"Ġhistory":1869,"ĠMed":1870,"eed":1871,"For":1872,"He":1873,"omega":1874,"ances":1875,"Ġfac":1876,"ĠMin":1877,"ae":1878,"Ġband":1879,"ify":1880,"ĠPart":1881,"ole":1882,"ĠReg":1883,"rt":1884,"ham":1885,"|\\":1886,"Ġcompet":1887,"rel":1888,"Ġperiod":1889,"ipp":1890,"resp":1891,"ilar":1892,"Ġvers":1893,"Ġcrit":1894,"eqn":1895,"Ġparticular":1896,"ĠKing":1897,"As":1898,"ĠMc":1899,"ĠThere":1900,"Ġmass":1901,"idd":1902,"apan":1903,"Ġmethod":1904,"Ġhere":1905,"ĠPres":1906,"Ġspace":1907,"ured":1908,"Ġauthor":1909,"Ġwithout":1910,"ography":1911,"Ġcr":1912,"Ġchildren":1913,"60":1914,"iron":1915,"ĠNo":1916,"where":1917,"Ġvar":1918,"hest":1919,"Ġmillion":1920,"Ġcareer":1921,"ental":1922,"reg":1923,"orem":1924,"aint":1925,"Ġdel":1926,"Ġve":1927,"born":1928,"ĠHis":1929,"Ġimportant":1930,"Ġprom":1931,"atch":1932,"Ġinit":1933,"oad":1934,"xi":1935,"Ġdon":1936,"Ġmember":1937,"ention":1938,"lection":1939,"org":1940,"not":1941,"ĠAct":1942,"ced":1943,"Ġtot":1944,"Ġfew":1945,"ribution":1946,"width":1947,"Ġsum":1948,"Ġfre":1949,"Ġshort":1950,"Ġinclude":1951,"Ġbound":1952,"ĠAfric":1953,"urg":1954,"rew":1955,"cit":1956,"ators":1957,"iter":1958,"Ġcharacter":1959,"190":1960,"Ġnational":1961,"Ġfinal":1962,"Ġgrow":1963,"ino":1964,"uper":1965,"ĠAb":1966,"Ġtook":1967,"Ġopt":1968,"Ġtem":1969,"though":1970,"Ġsk":1971,"Al":1972,"Ġnext":1973,"Ġbegan":1974,"aper":1975,"Ġprofess":1976,"Ġheld":1977,"oor":1978,"alf":1979,"Ġcle":1980,"ze":1981,"Ġhealth":1982,"Ġexample":1983,"ĠWest":1984,"ony":1985,"Ġchang":1986,"ways":1987,"Ġcamp":1988,"imate":1989,"lu":1990,"ĠHar":1991,"upp":1992,"stand":1993,"rix":1994,"var":1995,"ĠLeague":1996,"Delta":1997,"eak":1998,"://":1999,"ĠArm":2000,"ask":2001,"adem":2002,"Ġlearn":2003,"raft":2004,"icle":2005,"Ġturn":2006,"Ġactiv":2007,"Ġ<":2008,"Ġstudy":2009,"ĠIf":2010,"ĠAfter":2011,"rench":2012,"cdot":2013,"Ġtown":2014,"Ġinvol":2015,"Ġenergy":2016,"Ġdeb":2017,"\\,":2018,"ana":2019,"esp":2020,"2000":2021,"ume":2022,"hi":2023,"2005":2024,"ards":2025,"Ġ}":2026,"ampionship":2027,"ope":2028,"Ġstre":2029,"Ġdiv":2030,"Ġhouse":2031,"Ġsection":2032,"Ġhig":2033,"levision":2034,"ĠRuss":2035,"ruction":2036,"Ġobserv":2037,"ington":2038,"ĠBar":2039,"2021":2040,"ĠEl":2041,"ule":2042,"Ġcomplet":2043,"bm":2044,"ĠSe":2045,"Ġprevious":2046,"Ġfive":2047,"co":2048,"ald":2049,"omin":2050,"ead":2051,"ĠCor":2052,"ĠâĢĺ":2053,"Ġide":2054,"ches":2055,"ese":2056,"aul":2057,"ered":2058,"Ġcommunity":2059,"Ġpopulation":2060,"Ġeconom":2061,"Ġamong":2062,"Ġjo":2063,"arent":2064,"ctor":2065,"rag":2066,"space":2067,"Ġfilms":2068,"Americ":2069,"Ġage":2070,"Ġbeg":2071,"ondon":2072,"ociation":2073,"ĠEnglish":2074,"}}\\":2075,")$.":2076,"ler":2077,"ĠAm":2078,"Ġresearch":2079,"Ġless":2080,"uk":2081,"80":2082,"iet":2083,"See":2084,"ilitary":2085,"Ġproduct":2086,"ument":2087,"ford":2088,"lin":2089,"Ġoften":2090,"35":2091,"Ġconn":2092,"ĠPar":2093,"Ġsit":2094,"iol":2095,"ij":2096,"ero":2097,"Ġclaim":2098,"Ġreceived":2099,"ittle":2100,"Ġview":2101,"ouncil":2102,"ĠSw":2103,"ights":2104,"Ġabove":2105,"empt":2106,"Ġemploy":2107,"ĠDist":2108,"Ġsix":2109,"umb":2110,"ification":2111,"Ġfund":2112,"Ġintro":2113,"ĠCollege":2114,"ological":2115,"ource":2116,"ones":2117,"ĠJapan":2118,"Ġsocial":2119,"century":2120,"An":2121,"Ġcult":2122,"Ġnamed":2123,"anguage":2124,"Ġtimes":2125,"ociety":2126,"189":2127,"eal":2128,"Ġsimilar":2129,"Ġtotal":2130,"Ġdevelopment":2131,"Ġpract":2132,"Ġwater":2133,"}[":2134,"Ġindivid":2135,"ĠHouse":2136,"abor":2137,"2004":2138,"ĠDep":2139,"Ġla":2140,"Ġep":2141,"aff":2142,"Ġbirths":2143,"Ġestablished":2144,"Ġfull":2145,"31":2146,"Ġpublished":2147,"Ġgoing":2148,"be":2149,"idence":2150,"Ġgames":2151,"Ġmen":2152,"ĠRec":2153,"Ġbecome":2154,"$$":2155,"ĠAg":2156,"Ġcover":2157,"Ġservice":2158,"Ġthird":2159,"ources":2160,"Ġwar":2161,"Ġfore":2162,"Ġbre":2163,"Ġmean":2164,"Ġ$(":2165,"Ġden":2166,"ĠArt":2167,"ift":2168,"istic":2169,"ille":2170,"Ġdescribed":2171,"Ġdeg":2172,"45":2173,"omm":2174,"ably":2175,"Ġet":2176,"Ġvalue":2177,"Ġstory":2178,"iber":2179,"Ġ/":2180,"ĠDav":2181,"aken":2182,"wh":2183,"ising":2184,"ront":2185,"Ġyoung":2186,"respond":2187,"Ġexist":2188,"aced":2189,"ideo":2190,"ĠTo":2191,"ĠComp":2192,"orts":2193,"self":2194,"Ġquest":2195,"Ġstrong":2196,"Ġvol":2197,"Ġparam":2198,"lim":2199,"Ġclub":2200,"eneral":2201,"back":2202,"epsilon":2203,"Ġspecial":2204,"Om":2205,"ĠPark":2206,"Ġhuman":2207,"Ġlow":2208,"American":2209,"eqnarray":2210,"includ":2211,"Ġrole":2212,"oph":2213,"ĠBy":2214,"def":2215,"ocus":2216,"ĠLondon":2217,"sq":2218,"Ġoriginal":2219,"Ġdeterm":2220,"ground":2221,"viron":2222,"ush":2223,"Ġlocated":2224,"Ġnetwork":2225,"Ġcentury":2226,"ither":2227,"Ġstudents":2228,"ched":2229,"Ġins":2230,"Ġavail":2231,"ĠCour":2232,"Ġchange":2233,"ape":2234,"Ġlet":2235,"ending":2236,"33":2237,"Ġsat":2238,"Ġside":2239,"Ã¡":2240,"Ġpot":2241,"color":2242,"arried":2243,"Ġbuilding":2244,"atter":2245,"Ġair":2246,"urb":2247,"Ġcomb":2248,"Ġsignific":2249,"iction":2250,"ĠPresident":2251,"bl":2252,"ĠSy":2253,"inning":2254,"Ġfurther":2255,"AR":2256,"Ġrepl":2257,"hel":2258,"ĠWilliam":2259,"estern":2260,"ĠĠĊ":2261,"70":2262,"sequ":2263,"Ġnever":2264,"Ġphot":2265,"Ġshows":2266,"ogn":2267,"ournal":2268,"Ġdiscuss":2269,"Ġcal":2270,"Ġrelations":2271,"ĠInternational":2272,"Ġserved":2273,"rown":2274,"Ġpoints":2275,"ĠGl":2276,"icy":2277,"ĠAir":2278,"atures":2279,"Ġhaving":2280,"rest":2281,"Omega":2282,"rant":2283,"Ġbuilt":2284,"Ġcame":2285,"minist":2286,"Ġcontrol":2287,"Ġvill":2288,"ĠBro":2289,"aps":2290,"ĠFig":2291,"sim":2292,"Ġbelie":2293,"Ġcost":2294,"ials":2295,"ĠÂ":2296,"ĠHer":2297,"psilon":2298,"Ġpropos":2299,"ĠHigh":2300,"Ġinteg":2301,"Ġant":2302,"angle":2303,"ĠSch":2304,"Ġpolitical":2305,"Ġindust":2306,"rick":2307,"ivil":2308,"rain":2309,"Ġpri":2310,"Ġeas":2311,"ĠOne":2312,"Ġstates":2313,"itor":2314,"Ġdi":2315,"ĠAng":2316,"Ġcommon":2317,"ama":2318,"2003":2319,"uture":2320,"}_{\\":2321,"Ġborn":2322,"Ġphys":2323,"Ġregion":2324,"Ġincluded":2325,"Ġput":2326,"ĠAmerica":2327,"Ġterms":2328,"Ġ${\\":2329,",\"":2330,"ference":2331,"Ġpossible":2332,"rap":2333,"ients":2334,"ning":2335,"refore":2336,"ĠFrench":2337,"Ġcomput":2338,"Ġaver":2339,"ble":2340,"eep":2341,"Ġstation":2342,"Ġimpro":2343,")$,":2344,"Ġworking":2345,"Ġdays":2346,"ique":2347,"ĠSo":2348,"vare":2349,"ĠThese":2350,"Ġcho":2351,"Ġattack":2352,"Ġarch":2353,"90":2354,"Ġfri":2355,"rak":2356,"Ġcorrespond":2357,"imens":2358,"Ġfree":2359,"ours":2360,"duce":2361,"iforn":2362,"onst":2363,"^*":2364,"Ġkill":2365,"gether":2366,"Ġtogether":2367,"Ġpriv":2368,"uation":2369,"Ġavailable":2370,"psi":2371,"na":2372,"Ġscal":2373,"chi":2374,"Ġweek":2375,"lected":2376,"eters":2377,"obal":2378,"Ġvarious":2379,"ctions":2380,"sqrt":2381,"oper":2382,"Ġleast":2383,"iff":2384,"AS":2385,"umber":2386,"vironment":2387,"Ġmeet":2388,"ifornia":2389,"itte":2390,"Ġ:":2391,"âĢ¦":2392,"Ġobject":2393,"ger":2394,"2002":2395,"off":2396,"Ġfocus":2397,"rated":2398,"Ġhapp":2399,"varepsilon":2400,"Ġmot":2401,"acy":2402,"Ġacross":2403,"Ġder":2404,"ĠMich":2405,"Ġposition":2406,")=":2407,"Ġcou":2408,"__":2409,"ependent":2410,"ĠPhil":2411,"ER":2412,"Ġprovide":2413,"Gamma":2414,"Un":2415,"unic":2416,"Ġwritten":2417,"Ġservices":2418,"ops":2419,"ensure":2420,"ysis":2421,"esc":2422,"ĠSer":2423,"Ġreally":2424,"Pro":2425,"iles":2426,"Ġcoll":2427,"raphics":2428,"ĠĠĠĠĠ":2429,"Ġapplic":2430,"Ġhistor":2431,"osition":2432,"75":2433,"imal":2434,"Ġdev":2435,"utions":2436,"ĠPer":2437,"ĠItal":2438,"most":2439,"Ġhowever":2440,"Ġplan":2441,"ĠWhen":2442,"otes":2443,"Ġinternational":2444,"now":2445,"attle":2446,"alt":2447,"2001":2448,"bol":2449,"urity":2450,"useum":2451,"Ġsignificant":2452,"hib":2453,"ĠDistrict":2454,"Ġexpress":2455,"ude":2456,"Ġable":2457,"ampl":2458,"Ġport":2459,"Ġpred":2460,"Ġdied":2461,"Ġwent":2462,"chie":2463,"Ġmaking":2464,"atural":2465,"........":2466,"ounced":2467,"ĠGerman":2468,"Ġfeature":2469,"ĠRev":2470,"see":2471,"ership":2472,"ius":2473,"bor":2474,"Ġsw":2475,"clus":2476,"Ġshown":2477,"ett":2478,"oney":2479,"ĠSm":2480,"Ġgen":2481,"Ġtitle":2482,"Ġtoo":2483,"itted":2484,"ĠWith":2485,"Ġstarted":2486,"ĠCalifornia":2487,"Ġassoci":2488,"Ġ\\,":2489,"orge":2490,"field":2491,"Ġbetter":2492,"etic":2493,"Ġled":2494,"ĠRepublic":2495,"Ġaut":2496,"subsection":2497,"Ġtelevision":2498,"^{(":2499,"Ġconsidered":2500,"hers":2501,"ridge":2502,"Ġcome":2503,"ĠCourt":2504,"Ġsent":2505,"Ġworks":2506,"inally":2507,"irm":2508,"omb":2509,"Ġaction":2510,"Ġseen":2511,"ederal":2512,"ithm":2513,"Ġred":2514,"Ġtw":2515,"Ġspecies":2516,"Ġreview":2517,"Ġpay":2518,"ĠIndian":2519,"Ġoffer":2520,"ormal":2521,"Ġarg":2522,"ĠSan":2523,"36":2524,"asing":2525,"odes":2526,"Ġenc":2527,"Ġaccess":2528,"ements":2529,"Ġplayer":2530,"cast":2531,"ĠMe":2532,"Ġperformance":2533,"dom":2534,"Ġsays":2535,"ĠApp":2536,"center":2537,"textbf":2538,"ĠThat":2539,"ĠDr":2540,"Ġmater":2541,"sy":2542,"}=":2543,"34":2544,"Ġlight":2545,"ĠQu":2546,"ows":2547,"fl":2548,"Ġalways":2549,"Ġevents":2550,"Ġlik":2551,"aut":2552,"}^{\\":2553,"rightarrow":2554,"Ġprim":2555,"Ġcases":2556,"xim":2557,"ĠAc":2558,"Ġdiff":2559,"Ġhom":2560,"ilities":2561,"AT":2562,"Ġfollows":2563,"ID":2564,"Ġson":2565,"Ġothers":2566,"ĠEngland":2567,"ĠčĊ":2568,"ael":2569,"avy":2570,"Ġmeans":2571,"play":2572,"Ġparticip":2573,"Ġproduction":2574,"Ġsite":2575,"Ġwin":2576,"ensity":2577,"ĠLa":2578,"cul":2579,"irl":2580,"Ġmarket":2581,"ĠStre":2582,"Ġcirc":2583,"Ġfather":2584,"Ġbig":2585,"sel":2586,"Ġpast":2587,"ecess":2588,"):":2589,"Ġhard":2590,"non":2591,"ĠChampionship":2592,"Ġmight":2593,"Ġblack":2594,"188":2595,"ects":2596,"Ġnov":2597,"Ġgroups":2598,"aption":2599,"Ġpresident":2600,"ware":2601,"Ġaccount":2602,"emph":2603,"year":2604,"ĠIndia":2605,"rangle":2606,"face":2607,"includeg":2608,"ĠLaw":2609,"includegraphics":2610,"Ġviol":2611,"''":2612,"ecut":2613,"Ġlate":2614,"Ġagre":2615,"anies":2616,"ico":2617,"Ġeducation":2618,"Ġhalf":2619,"ĠEast":2620,"Ġfail":2621,"Ġspect":2622,"artment":2623,"era":2624,"lands":2625,"ishing":2626,"ĠCup":2627,"Ġfar":2628,"38":2629,"lymp":2630,"Ġseem":2631,"gor":2632,"Ġcertain":2633,"ara":2634,"ortun":2635,"iple":2636,"iting":2637,"ĠCanada":2638,"uel":2639,"ĠInstit":2640,"BC":2641,"ocr":2642,"IN":2643,"ĠChurch":2644,"ixed":2645,"ittee":2646,"rary":2647,"\\\\\\\\\\\\\\\\\\\\\\\\\\\\\\\\":2648,"oyal":2649,"Ġfuture":2650,"with":2651,"roll":2652,"Ġben":2653,"ĠStud":2654,"ĠEuropean":2655,"ĠChina":2656,"uggest":2657,"ges":2658,"cm":2659,"Ġcreated":2660,"rig":2661,"Ġbi":2662,"Ġalign":2663,"ica":2664,"ĠCouncil":2665,"ceed":2666,"iding":2667,"Ġvalues":2668,"varphi":2669,"Ġtaken":2670,"Ġaverage":2671,"Ġsold":2672,"oon":2673,"ĠMon":2674,"65":2675,"action":2676,"Ġstyle":2677,"1990":2678,"Ġnorth":2679,"ills":2680,"Ġaway":2681,"Ġversion":2682,"Ġask":2683,"ST":2684,"Ġindic":2685,"Ġcourt":2686,"Ġche":2687,"caption":2688,"oe":2689,"ĠAustralia":2690,"time":2691,"Ġtraining":2692,"48":2693,"ready":2694,"wide":2695,"Ġhost":2696,"32":2697,"aring":2698,"ving":2699,"aining":2700,"Ġcaus":2701,"Ġneg":2702,"Ġtre":2703,"ĠDiv":2704,"Ġworked":2705,"ething":2706,"Ġmilitary":2707,"de":2708,"hern":2709,"Ġtype":2710,"ĠAcc":2711,"gress":2712,"Ġstructure":2713,"Ġthings":2714,"Ġsuggest":2715,"ength":2716,"ĠRiver":2717,"ĠSen":2718,"Ġsystems":2719,"Ġgive":2720,"ux":2721,"iation":2722,"etry":2723,"Ġdefined":2724,"ached":2725,"Ġpo":2726,"Ġsepar":2727,"Ġarm":2728,"Ġstar":2729,"Ġmiss":2730,"Ġcomplex":2731,"ties":2732,"Ġannounced":2733,"Ġrange":2734,"ĠCenter":2735,"Ġdetail":2736,"oted":2737,"Ġquant":2738,"37":2739,"ibility":2740,"Ġdoc":2741,"Ġu":2742,"ells":2743,"ashington":2744,"Ġlittle":2745,"Ġaward":2746,"ĠDem":2747,"geq":2748,"rim":2749,"orph":2750,"Ġengine":2751,"ĠMy":2752,"proof":2753,"Ġground":2754,"ĠParty":2755,"che":2756,"Ġinflu":2757,"Ġrul":2758,"atives":2759,"Ġvideo":2760,"Ġmoved":2761,"isf":2762,"1999":2763,"Ġcross":2764,"arth":2765,"Ġrecogn":2766,"iddle":2767,"Ġlive":2768,"Ġestim":2769,"Ġround":2770,"atory":2771,"cy":2772,"ĠFrance":2773,"Ġmodels":2774,"Ġproduced":2775,"ii":2776,"Ġachie":2777,"ids":2778,"ster":2779,"Ġbecom":2780,"Ġdistrict":2781,"ander":2782,"ĠServ":2783,"rote":2784,"Ġareas":2785,"Ġbroad":2786,"Ġpur":2787,"Ġrate":2788,"thing":2789,"39":2790,"Ġreported":2791,"Ġrights":2792,"me":2793,"ĠDepartment":2794,"cer":2795,"bsite":2796,"uf":2797,"Sp":2798,"Ġmom":2799,"gorithm":2800,"Ġfem":2801,"Ã³":2802,"Ġeither":2803,"lement":2804,"Ġsize":2805,"cle":2806,"Ġmeasure":2807,"Ġpopular":2808,"opt":2809,"aries":2810,"Big":2811,"49":2812,"ĠAward":2813,"Ġalready":2814,"II":2815,"olic":2816,")^":2817,"Ġsouth":2818,"bit":2819,"ynam":2820,"Ġprovided":2821,"ened":2822,"Ġpotential":2823,"CA":2824,"Ġill":2825,"ĠPal":2826,"new":2827,"Ġtreat":2828,"Ġdistribution":2829,"Ġhigher":2830,"elling":2831,"Ġapproach":2832,"ĠGeneral":2833,"Ġunderstand":2834,"aign":2835,"itional":2836,"Ġpress":2837,"ĠTr":2838,"ĠPaul":2839,"Ġgot":2840,"ĠJames":2841,"ymbol":2842,"hood":2843,"Ġcontract":2844,".~\\":2845,"Ġpaper":2846,"Ġloss":2847,"error":2848,"]$":2849,"Ġsubject":2850,"Ġelection":2851,"Ġlot":2852,"Ġrespons":2853,"isl":2854,"earch":2855,"ĠFirst":2856,"ha":2857,"Ġconsist":2858,"Ġvillage":2859,"Ġlower":2860,"overline":2861,"ams":2862,"Ġtheory":2863,"tab":2864,"Let":2865,"Ġparty":2866,"Ġtax":2867,"&\\":2868,"1998":2869,"Ġself":2870,"based":2871,"itar":2872,"ĠCO":2873,"Ġattempt":2874,"hold":2875,"ĠAnt":2876,"ĠVal":2877,"utes":2878,"By":2879,"44":2880,"imum":2881,"Ġmonths":2882,"ĠBel":2883,"ĠRober":2884,"Ġinvestig":2885,"bra":2886,"no":2887,"ĠBlack":2888,"Ġwhether":2889,"Ġaccording":2890,"iment":2891,"ĠChar":2892,"Ġsomething":2893,"log":2894,"Ġsett":2895,"Ġreason":2896,"li":2897,"Ġabs":2898,"ament":2899,"ĠDavid":2900,"ĠHol":2901,"Ġshall":2902,"rate":2903,"ĠAssociation":2904,"ele":2905,"Ġonce":2906,"itz":2907,"Ġgradu":2908,"ĠThom":2909,"Ġhold":2910,"isk":2911,"order":2912,"Ġdest":2913,"ĠStreet":2914,")(":2915,"Ġtry":2916,"ĠCont":2917,"Ġhy":2918,"Ġdirector":2919,"Ġcompanies":2920,"ville":2921,"Ġconditions":2922,"Ġhon":2923,"Ġproduc":2924,"Ġcourse":2925,"Ġcountries":2926,"Ġpercent":2927,"ĠWashington":2928,"orthern":2929,"55":2930,"anish":2931,"Ã¼":2932,"Ġappoint":2933,"ĠThen":2934,"Ġclose":2935,"Ġfeatures":2936,"ĠEurope":2937,"ĠUK":2938,"Ġrev":2939,"lying":2940,"Ġkind":2941,"Ġconduct":2942,".}":2943,"Ġsequ":2944,"There":2945,"Ġanalysis":2946,"sw":2947,"Ġwrote":2948,"icles":2949,"frak":2950,"Ġbody":2951,"ĠArmy":2952,"ula":2953,"ĠGod":2954,"airs":2955,"ĠMor":2956,"Ġmagn":2957,"Ġrequire":2958,"Ġconcern":2959,"ÃŃ":2960,"People":2961,"Ġexperience":2962,"Ġrac":2963,"ĠGeorge":2964,"medi":2965,"Ġestablish":2966,"Ġkey":2967,"ĠPort":2968,"Ġmedia":2969,"ago":2970,"Ġdou":2971,"[\\":2972,"Ġwr":2973,"Ġoffice":2974,"oms":2975,"head":2976,"ĠRich":2977,"Ġmatch":2978,"ĠCong":2979,"inary":2980,"If":2981,"Ġlanguage":2982,"ĠRed":2983,"icult":2984,"Ġdeveloped":2985,"1980":2986,"outher":2987,"rab":2988,"Ġassum":2989,"itect":2990,"ĠMal":2991,"ancial":2992,"Ġjud":2993,"Ġcy":2994,"ĠMark":2995,"bolds":2996,"erve":2997,"},\\":2998,"ĠVol":2999,"Ġfig":3000,"}).":3001,"Ġdecl":3002,"omp":3003,"ged":3004,"lete":3005,"Ġentire":3006,"Ġenvironment":3007,"Ġdegree":3008,"Ġrather":3009,"Living":3010,"boldsymbol":3011,"ector":3012,"Ġregular":3013,"Ġepis":3014,"AN":3015,"Ġchall":3016,"Ġdeaths":3017,"outhern":3018,"186":3019,"Ġ--":3020,"Ġpers":3021,"Ġproperty":3022,"Ġvict":3023,"ensive":3024,"Ġapproxim":3025,"Ġnecess":3026,"Ġtoday":3027,"vec":3028,"ees":3029,"Ġfeel":3030,"Ġkeep":3031,"1996":3032,"ĠInstitute":3033,"Ġ*":3034,"Cl":3035,"Ġmale":3036,"ĠPat":3037,"ya":3038,"Ġadminist":3039,"Ġlost":3040,"Ġalmost":3041,"Ġclos":3042,"ĠLou":3043,"Ġjob":3044,"appa":3045,"ĠGermany":3046,"Ġdom":3047,"Ġstandard":3048,"Ġroad":3049,"ĠDon":3050,"hline":3051,"Ġbelow":3052,"Ġship":3053,"ES":3054,"ĠOlymp":3055,"Ġliter":3056,"rael":3057,"etric":3058,"47":3059,"))":3060,"ables":3061,"ulations":3062,"Ġrelated":3063,"asons":3064,"46":3065,"ĠEm":3066,"Ġsem":3067,"Ġquestion":3068,"Ġdefin":3069,"vey":3070,"Ġparent":3071,"Ġbase":3072,"1997":3073,"ĠCompany":3074,"Ġwhose":3075,"den":3076,"van":3077,"ida":3078,"mathfrak":3079,".)":3080,"ump":3081,"ĠRoman":3082,"Ġrequired":3083,"Ġlove":3084,"ades":3085,"ĠQue":3086,"och":3087,"Ġrelig":3088,"Ġfall":3089,"Ġmax":3090,"ĠUnion":3091,"Ġdeal":3092,"}}$":3093,"Ġupon":3094,"Ġsatisf":3095,"wood":3096,"umer":3097,"iance":3098,"Ġfrequ":3099,"To":3100,"ĠSim":3101,"Ġ#":3102,"berg":3103,"Ġtrack":3104,"Ġenough":3105,"ĠFrom":3106,"ĠGroup":3107,"ĠMr":3108,"Ġwebsite":3109,"Ġobtained":3110,"oid":3111,"ĠHall":3112,"arc":3113,"ldots":3114,"Ġever":3115,"alle":3116,"ores":3117,"chan":3118,"Ġassist":3119,"aching":3120,"Ġ`":3121,"05":3122,"Ġregard":3123,"Ġsound":3124,"01":3125,"aches":3126,"langle":3127,"99":3128,"Ġtext":3129,"ON":3130,"After":3131,"raz":3132,"ĠVir":3133,"Ġcompon":3134,"ecially":3135,"2022":3136,"ocal":3137,"band":3138,"Ġleading":3139,"rian":3140,"Ġmarried":3141,"mult":3142,"Ġissues":3143,"www":3144,"Ġliving":3145,"ospital":3146,"Ġge":3147,"Ġrelationship":3148,"aves":3149,"Ġlo":3150,"ites":3151,"Ġmother":3152,"Ġindustry":3153,"Ġprofessional":3154,"Ġchurch":3155,"Ġfamil":3156,"ĠMore":3157,"uff":3158,"Ġpolicy":3159,"187":3160,"Ġdebut":3161,"Ġdone":3162,"Ġindividual":3163,"Ġprinc":3164,"Con":3165,"History":3166,"Ġthus":3167,"Ġmem":3168,"ttps":3169,"Ġvia":3170,"Ġpositive":3171,"izing":3172,"Ġsuccessful":3173,"Ġbenef":3174,"andid":3175,"ston":3176,"Ġsuper":3177,"ĠLet":3178,"New":3179,"Ps":3180,"Sh":3181,"Ġrelease":3182,"Ġhimself":3183,"Ġcontinued":3184,"Ġnatural":3185,"ĠCons":3186,"amples":3187,"ĠMart":3188,"Ġimpact":3189,"ires":3190,"gy":3191,"Ġjoined":3192,"Ġsaf":3193,"IS":3194,"Ġmid":3195,"Ġmag":3196,"isions":3197,"Ġaud":3198,"ĠPress":3199,"Pl":3200,"ota":3201,"Wh":3202,"iences":3203,"Ġassociated":3204,"Ġcampaign":3205,"inese":3206,"Ġincludes":3207,"Ġmoney":3208,"Ġlaun":3209,"Ġprivate":3210,"Ġtaking":3211,"Ġten":3212,"Ġgovern":3213,"ĠIm":3214,"oul":3215,"Ġaccept":3216,"gin":3217,"1995":3218,"Ġconstruction":3219,"Ġcontribut":3220,"Ġtemper":3221,"ception":3222,"Ġesp":3223,"ĠHam":3224,"~~":3225,"Ġpolitic":3226,"dd":3227,"Ġsex":3228,"aur":3229,"arter":3230,"Ġimm":3231,"ĠDirect":3232,"eared":3233,"ype":3234,"ipal":3235,"itch":3236,"Ġfav":3237,"Ġpe":3238,"nown":3239,"Ġfront":3240,"ĠNe":3241,"Ġinstit":3242,"ĠMary":3243,"Ġmodern":3244,"ender":3245,"Ġcut":3246,"arily":3247,"Ġfunctions":3248,"Ġcontinu":3249,"Ġdifficult":3250,"Ġpersonal":3251,"ledge":3252,"reek":3253,"Ġfight":3254,"ky":3255,"Ġschools":3256,"Ġnumer":3257,"Ġwid":3258,"AC":3259,"Ġissue":3260,"plement":3261,"Ġarr":3262,"Ġamount":3263,"ises":3264,"ĠBer":3265,"ections":3266,"ĠSociety":3267,"Ġboard":3268,"rup":3269,"Ġdensity":3270,"Ġdepart":3271,"ĠRoyal":3272,"Ġsolution":3273,"istics":3274,"ĠJew":3275,"ĠDivision":3276,"Ġconstant":3277,"nder":3278,"Ġindependent":3279,"Ġwind":3280,"Ġinvolved":3281,"Lambda":3282,"inter":3283,"ĠHealth":3284,"Ġinj":3285,"ĠMusic":3286,"kappa":3287,"Ġlimit":3288,"ĠMex":3289,"Ġadded":3290,"racy":3291,"Ġsongs":3292,"sm":3293,"Ġpolice":3294,"1970":3295,"Phi":3296,"1994":3297,"Ġprior":3298,"ĠCap":3299,"Ġnovel":3300,"mon":3301,"ani":3302,"Ġthought":3303,"Ġrespectively":3304,"ĠArch":3305,"Ġcop":3306,"ivity":3307,"ĠTrans":3308,"ĠAfrica":3309,"ands":3310,"ĠAfrican":3311,"Ġaddress":3312,"Ġlay":3313,"que":3314,"aged":3315,"Ġproposed":3316,"Ġrace":3317,"Ġwife":3318,"ĠTV":3319,"\\|":3320,"Ġcondition":3321,"ĠAcadem":3322,"otimes":3323,"Ġdecision":3324,"At":3325,"Ġmakes":3326,"ellow":3327,"ulated":3328,"ras":3329,"ĠSum":3330,"itude":3331,"mod":3332,"citep":3333,"Ġglobal":3334,"Ġadditional":3335,"ĠSince":3336,"Ġrecent":3337,"Ġimpl":3338,"ounter":3339,"riate":3340,"Ġtarg":3341,"onse":3342,"Ġpath":3343,"ription":3344,"mbox":3345,"Ġbehav":3346,"Ġbrother":3347,"Ġrail":3348,"Ġtold":3349,"Ġstrateg":3350,"Ġvir":3351,"</":3352,"ĠGreen":3353,"used":3354,"Ġneigh":3355,"Ar":3356,"bert":3357,"iers":3358,"ream":3359,"ĠMount":3360,"Ġteams":3361,"Ġsource":3362,"ĠDo":3363,"Ġtrue":3364,"selves":3365,"ĠDuring":3366,"95":3367,"Ġhous":3368,"ĠJust":3369,"enced":3370,"Ġearl":3371,"ĠAngel":3372,"ĠChristian":3373,"ption":3374,"arliam":3375,"elt":3376,"Ġdaugh":3377,"lam":3378,"edy":3379,"Ġreturned":3380,"Ġincrease":3381,"Ġlines":3382,"1992":3383,"Ġfire":3384,"ĠJack":3385,"Ġcivil":3386,"Ġstage":3387,"Ġtalk":3388,"Ġthroughout":3389,"draw":3390,"nabl":3391,"ming":3392,"Ġbo":3393,"uit":3394,"Ġcentral":3395,"ĠWhile":3396,"Ġclear":3397,"ucle":3398,"Ġinitial":3399,"Ġchanges":3400,"fess":3401,"ault":3402,"**":3403,"Ġevidence":3404,"Ġoccur":3405,"Ġacqu":3406,"istry":3407,"ĠInter":3408,"Ġdefe":3409,"Ġnight":3410,"Ġgoal":3411,"Ġespecially":3412,"Ġalthough":3413,"ĠTex":3414,"Ġitself":3415,"ensuremath":3416,"rade":3417,"Ã¶":3418,"exp":3419,"ĠNot":3420,"eck":3421,"mark":3422,"Ġprop":3423,"Ġofficial":3424,"nabla":3425,"unt":3426,"rump":3427,"Ġopportun":3428,"arliament":3429,"subset":3430,"Ġplaying":3431,"Ġlargest":3432,"ĠSte":3433,"ĠAustralian":3434,"Ġconstit":3435,"Ġbooks":3436,"go":3437,"ttp":3438,"ĠGo":3439,"annel":3440,"Ġrank":3441,"Ġemb":3442,"ĠCath":3443,"ĠIsrael":3444,"urk":3445,"1993":3446,"anks":3447,"Ġnews":3448,"ĠDi":3449,"itting":3450,"idents":3451,"bb":3452,"Ġwhy":3453,"Ġopened":3454,"mar":3455,"Ġcandid":3456,"})$":3457,"How":3458,"ĠNews":3459,"Ġperformed":3460,"Ġalgorithm":3461,"Ġmoment":3462,"Ġfood":3463,"ket":3464,"ĠMiss":3465,"Ġtravel":3466,"opp":3467,"fficient":3468,"ĠCommission":3469,"textit":3470,"Ġgraph":3471,"ranch":3472,"Ġeconomic":3473,"usp":3474,"Ġqual":3475,"estival":3476,"pd":3477,"Ġdiscover":3478,"ĠTra":3479,"uals":3480,"OR":3481,"quare":3482,"Ġconstruct":3483,"ĠRoad":3484,"ecutive":3485,"Ġwhite":3486,"Ġcurrently":3487,"ension":3488,"circ":3489,"cor":3490,"mit":3491,"sf":3492,"rast":3493,"lied":3494,"Ġinstead":3495,"roy":3496,"ĠBay":3497,"Ġlikely":3498,"like":3499,"ĠMuseum":3500,"eleb":3501,"Ph":3502,"ducation":3503,"Ġter":3504,"acc":3505,"ĠCanadian":3506,"Ġspecific":3507,"gcolor":3508,"ĠWhite":3509,"Ġwords":3510,"Ġhor":3511,"ĠMad":3512,"500":3513,"Ġinsp":3514,"Ġstudies":3515,"rd":3516,"atal":3517,"Ġcust":3518,"Ġoutside":3519,"Ġcompleted":3520,"ought":3521,"\\[":3522,"Ġang":3523,"Ġ>":3524,"Ġwhole":3525,"Ġmap":3526,"anced":3527,"ĠClub":3528,"cont":3529,"ĠDay":3530,"ĠMichael":3531,"ĠNor":3532,"42":3533,"IC":3534,"ĠHen":3535,"66":3536,"Ġmatter":3537,"icro":3538,"Ġcapital":3539,"Ġrock":3540,"lor":3541,"Ġtransfer":3542,"Ġgave":3543,"Ġexpected":3544,"thm":3545,"Ġdam":3546,"Ġcannot":3547,"ĠScience":3548,".\\":3549,"ĠLeg":3550,"ĠResearch":3551,"merc":3552,"cell":3553,"uild":3554,"nonumber":3555,"Ġphase":3556,"Ġradio":3557,"iled":3558,"ordin":3559,"ĠSing":3560,"ĠYear":3561,"Ġcast":3562,"ĠOff":3563,"ĠGreat":3564,"ĠMinister":3565,"rought":3566,"ona":3567,"Ġforce":3568,"Ġstaff":3569,"ĠLem":3570,"Ġeight":3571,"Ġtour":3572,"ĠRobert":3573,"ĠIsland":3574,"Ġsup":3575,"}),":3576,"ective":3577,"Ġimplement":3578,"rey":3579,"bers":3580,"57":3581,"Ġintroduced":3582,"Ġrecorded":3583,"gen":3584,"ĠBook":3585,"izations":3586,"ibrary":3587,"nel":3588,"Ġactually":3589,"burg":3590,"Ġconv":3591,"ĠChinese":3592,"ĠSection":3593,"1991":3594,"Ġtro":3595,"}}{":3596,"Ġess":3597,"ĠDemocr":3598,"Ġlegal":3599,"Ġcomplete":3600,"reme":3601,"08":3602,"rec":3603,"Ġcollect":3604,"ĠCongress":3605,"ĠRussian":3606,"ĠÃ":3607,"irection":3608,"Ġsigned":3609,"Ġlog":3610,"06":3611,"ĠFranc":3612,"Ġdidn":3613,"Ġimage":3614,"Ġlength":3615,"which":3616,"Ġappeared":3617,"Ġbehind":3618,"igen":3619,"book":3620,"Ġdocument":3621,"down":3622,"Ġemer":3623,"retary":3624,"Ġcapt":3625,"ĠTexas":3626,"ĠSam":3627,"Ġscient":3628,"ening":3629,"Ġdeep":3630,"58":3631,"Ġprovides":3632,"ste":3633,"Ġbgcolor":3634,"Ġ)":3635,"Ġdesigned":3636,"Ġbring":3637,"Ġlarger":3638,"\\%":3639,"ports":3640,"Ġmonth":3641,"ĠAlex":3642,"etimes":3643,"1960":3644,"Ġfinancial":3645,"Ġproblems":3646,"Ġwriting":3647,"olit":3648,"Ġstudent":3649,"ĠBr":3650,"ĠKh":3651,"Ġcenter":3652,"Ġlearning":3653,"wise":3654,"uz":3655,"Ġequation":3656,"andom":3657,"Sc":3658,"ĠSl":3659,"Ġcred":3660,"ults":3661,"olf":3662,"ĠCentral":3663,"\\!":3664,"Ġdate":3665,"Ġarchitect":3666,"eff":3667,"Ġfollowed":3668,"Ġtechnology":3669,"43":3670,"ests":3671,"Ġdirected":3672,"Ġearn":3673,"Ġstri":3674,"anning":3675,"het":3676,"Sigma":3677,"Ġvert":3678,"Ġbirth":3679,"ĠDef":3680,"comm":3681,"ĠThomas":3682,"Ġbasis":3683,"And":3684,"Ġcalcul":3685,"Ġsaw":3686,"Ġbreak":3687,"ria":3688,"07":3689,"lant":3690,"Ind":3691,"Ġmatrix":3692,"more":3693,"ĠMus":3694,"ĠWestern":3695,"Ġmultiple":3696,"ares":3697,"ĠĠĠĠĠĠĠĠĠĠĠ":3698,"gl":3699,"ĠHistory":3700,"oke":3701,"Ġpresented":3702,"ĠKore":3703,"ĠCarol":3704,"Ġtransl":3705,"EN":3706,"Ġsurv":3707,"ĠBest":3708,"Ġarticle":3709,"Ġidea":3710,"56":3711,"Ġsurface":3712,"Ġformed":3713,"09":3714,"Ġparts":3715,"ĠKingdom":3716,"ini":3717,"ĠSal":3718,"Ġcreate":3719,"Ġyet":3720,"ĠBill":3721,"Ġcorre":3722,"ĠCommittee":3723,"ĠScott":3724,"allel":3725,"IT":3726,"ĠTown":3727,"41":3728,"}-":3729,"Fig":3730,"Ġonline":3731,"rish":3732,"nov":3733,"Ġeffects":3734,"ĠMont":3735,"ĠWil":3736,"Ġreve":3737,"Ġmanagement":3738,"Ġpain":3739,"ying":3740,"ĠProv":3741,"oring":3742,"Ġsen":3743,"ĠVirgin":3744,"Ġelements":3745,"Ġmove":3746,"ensus":3747,"erc":3748,"Ġelected":3749,"ura":3750,"ĠWhat":3751,"Ġjournal":3752,"Ġproof":3753,"ufact":3754,"Ġforces":3755,"Ġprec":3756,"Ġunit":3757,"alls":3758,"Ġcorresponding":3759,"ĠGovernment":3760,"Ġcateg":3761,"Ġparameters":3762,"ĠSome":3763,"known":3764,"Ġmethods":3765,"umni":3766,"ression":3767,"ny":3768,"ĠAcademy":3769,"oved":3770,"When":3771,"Ġund":3772,"style":3773,"ĠGold":3774,"Ġtakes":3775,"Ġrat":3776,"Ġfounded":3777,"1989":3778,"Ġshare":3779,"ĠLouis":3780,"aker":3781,"Ġpractice":3782,"78":3783,"Ġseven":3784,"Ġexhib":3785,"itiz":3786,"uge":3787,"ĠFound":3788,"asc":3789,"ĠPublic":3790,"box":3791,"dots":3792,"Ġcomes":3793,"istan":3794,"Ġmus":3795,"oice":3796,"US":3797,"atively":3798,"Ġcontinue":3799,"ĠMod":3800,"ĠFilm":3801,"azine":3802,"ĠOp":3803,"ka":3804,"ĠInc":3805,"vention":3806,"Ġclosed":3807,"Ġnormal":3808,"bul":3809,"Ġful":3810,"Ġresponse":3811,"EC":3812,"Ġdimens":3813,"widet":3814,"Ġdepend":3815,"Ġsimple":3816,"ffer":3817,"Ġmaintain":3818,"ĠFin":3819,"ĠJapanese":3820,"Ġthing":3821,"ĠBen":3822,"prop":3823,"Ġdoing":3824,"ios":3825,"ĠGrand":3826,"ala":3827,"ĠSmith":3828,"Ġbar":3829,"Ġculture":3830,"Ġtherefore":3831,"Ġpric":3832,"Ġfederal":3833,"ĠMag":3834,"Ġgas":3835,"02":3836,"ĠMat":3837,"oo":3838,"ply":3839,"ĠTrump":3840,"Ġface":3841,"Ġusually":3842,"Ġexact":3843,"ĠMet":3844,"reland":3845,"Ġscience":3846,"ada":3847,"atre":3848,"Ġfamilies":3849,"1988":3850,"dis":3851,"Ġplaces":3852,"Ġlabel":3853,"table":3854,"Ġappointed":3855,"igital":3856,"Ġmention":3857,"rial":3858,"astic":3859,"Ġmaterial":3860,"Ġeffective":3861,"ĠFlor":3862,"AL":3863,"rep":3864,"ĠBoard":3865,"inner":3866,"||":3867,"writ":3868,"ĠList":3869,"ols":3870,"sych":3871,"Ġsil":3872,"Ġincreasing":3873,"Ġdram":3874,"igned":3875,"ĠHistor":3876,"ictor":3877,"emic":3878,"rupt":3879,"/\\":3880,"Ġsens":3881,"Ġsense":3882,"ili":3883,"Ġprograms":3884,"Ġanaly":3885,"Ġdeliver":3886,"Ġcontains":3887,"Ġkilled":3888,"Ġmechan":3889,"Ġkm":3890,"ĠRad":3891,"\\]":3892,"03":3893,"onic":3894,"ĠMac":3895,"encies":3896,"Ġmedical":3897,"ĠWork":3898,"Ġdaughter":3899,"widetilde":3900,"Ġcommunic":3901,"ĠTechn":3902,"Ġpark":3903,"ĠCharles":3904,"ĠDan":3905,"Ġdemonst":3906,"Ġvisit":3907,"board":3908,"ĠGames":3909,"04":3910,"Ġgives":3911,"Ġunivers":3912,"Ġproperties":3913,"Ġtowards":3914,"Ġpan":3915,"Ġbrought":3916,"mitted":3917,"ĠFore":3918,"{-":3919,"ĠInt":3920,"Ġq":3921,"Ġstep":3922,"ĠLat":3923,"ros":3924,"Ġimmedi":3925,"ario":3926,"AM":3927,"Ġthemselves":3928,"add":3929,"ĠCommun":3930,"Ġsoft":3931,"Ġallowed":3932,"change":3933,"ena":3934,"Ġmar":3935,"Ġdynam":3936,"unk":3937,"Ġdraw":3938,"All":3939,"59":3940,"],":3941,"Ġtarget":3942,"AP":3943,"Ġsecurity":3944,"icago":3945,"omorph":3946,"Ġgrowth":3947,"alled":3948,"Ġfriends":3949,"Ġwoman":3950,"Ġactive":3951,"unction":3952,"Ge":3953,"Ġcollection":3954,"edd":3955,"cap":3956,"Ġforward":3957,"prime":3958,"pped":3959,"uty":3960,"ĠCatholic":3961,"Ġobserved":3962,"comp":3963,"Ġorganization":3964,"mercial":3965,"bour":3966,"ĠFrank":3967,"ously":3968,"Ġdise":3969,"raction":3970,"ĠChe":3971,"la":3972,"thlet":3973,"west":3974,"ano":3975,"88":3976,"Ġbelieve":3977,"mid":3978,"ĠJose":3979,"Ġinterview":3980,"Ġartists":3981,"Ġcompared":3982,"Ġcollege":3983,"cos":3984,"Ġleague":3985,"Ġneeds":3986,"Ġceleb":3987,"Ġoperations":3988,"Ġrisk":3989,"ĠLos":3990,"ĠSur":3991,"zeta":3992,"atrix":3993,"ht":3994,"CC":3995,"};":3996,"Ġalbums":3997,"ĠTheorem":3998,"ĠGeorg":3999,"owers":4000,"Ġmovement":4001,"Ġlonger":4002,"ĠZeal":4003,"Ġord":4004,"Ġnature":4005,"Ġtransport":4006,"Ġbank":4007,"Ġlives":4008,"Ġword":4009,"pe":4010,"Ġlack":4011,"Ġstated":4012,"Ġcharg":4013,"Ġbeginning":4014,"SS":4015,"scal":4016,"Ġremains":4017,"Ġbuildings":4018,"Ġphysical":4019,"Ġconcept":4020,"road":4021,"ĠAnn":4022,"Ġ``":4023,"Ġthreat":4024,"Ġdecided":4025,"Ġhours":4026,"Ġsoon":4027,"ĠSup":4028,"ĠDes":4029,"Ġdirectly":4030,"64":4031,"De":4032,"Ġveh":4033,"ĠRock":4034,"ĠZealand":4035,"Ġsociety":4036,"centering":4037,"\\{":4038,"Ġeval":4039,"well":4040,"Ġgirl":4041,"Ġdat":4042,"ĠRecords":4043,"Ġneeded":4044,"ĠRichard":4045,"Ġpreviously":4046,"Ġearlier":4047,"Ġlimited":4048,"Ġhit":4049,"Ġ($":4050,"Ġsusp":4051,"porary":4052,"Ġnation":4053,"Ġasked":4054,")=\\":4055,"1987":4056,"Ġsubsequ":4057,"ĠPeter":4058,"oma":4059,"isation":4060,"icit":4061,"Ġrecently":4062,"Ġinterp":4063,"1986":4064,"urt":4065,"ĠRob":4066,"Ġproducts":4067,"Ġbackground":4068,"ĠGra":4069,"ĠTor":4070,"Ġrandom":4071,"Ġunc":4072,"ĠItalian":4073,"Ġfemale":4074,"Ġguitar":4075,"tr":4076,"Ġtrade":4077,"ingu":4078,"rative":4079,"Ġdistance":4080,"Ġadopt":4081,"oz":4082,"atur":4083,"mission":4084,"Ġlinear":4085,"Ġcoach":4086,"oud":4087,"ĠMass":4088,"Ġwest":4089,"Ġcharacters":4090,"Ġeast":4091,"state":4092,"ircraft":4093,"ĠDel":4094,"astern":4095,"ye":4096,"Ġequival":4097,"bre":4098,"Ġfactor":4099,"Ġactivities":4100,"Ġdirection":4101,"alax":4102,"uments":4103,"ĠWomen":4104,"ether":4105,"Ġwanted":4106,"Ġbur":4107,"ĠParis":4108,"Ġadj":4109,"light":4110,"Ġplant":4111,"ils":4112,"my":4113,"ĠEv":4114,"ĠHill":4115,"Ġheart":4116,"Ġpredict":4117,"Ġsch":4118,"}+":4119,"velopment":4120,"ED":4121,"Ġexperim":4122,"Ġgre":4123,"Ġreb":4124,"irit":4125,"Ġpurch":4126,"Ġnumbers":4127,"Ġste":4128,"With":4129,"ĠCamp":4130,"rief":4131,"1984":4132,"oys":4133,"Ġscale":4134,"Ġprimary":4135,"Ġfriend":4136,"ĠPri":4137,"Ġfarm":4138,"Ġnecessary":4139,"98":4140,"Ġeventually":4141,"Ġepisode":4142,"Ġreading":4143,"Ġded":4144,"Ġrestrict":4145,"agement":4146,"Te":4147,"Ġincreased":4148,"pose":4149,"ĠService":4150,"Ġquick":4151,"Ġball":4152,"Ġartist":4153,"Ġknowledge":4154,"Le":4155,"Ġgrant":4156,"Ġparticularly":4157,"izes":4158,"aging":4159,"Ġelement":4160,"Ġlink":4161,"Ġleader":4162,"Ġanim":4163,"ĠOther":4164,"ĠIreland":4165,"Ġaltern":4166,"ĠAccording":4167,"Ġstars":4168,"Ġstay":4169,"Ġunique":4170,"oral":4171,"osing":4172,"BA":4173,"Ġremain":4174,"embly":4175,"Ġple":4176,"Ġblock":4177,"ado":4178,"ĠRail":4179,"Ġspeak":4180,"}=\\":4181,"ita":4182,"Ġprem":4183,"ien":4184,"atform":4185,"Ġexpect":4186,"Ġmeeting":4187,"ĠRussia":4188,"ĠOf":4189,"Ġlegisl":4190,")}\\":4191,"1985":4192,"52":4193,"verse":4194,"Col":4195,"tabular":4196,"Ġbr":4197,"Ġunits":4198,"Ġmanufact":4199,"overs":4200,"Ġexists":4201,"Ġoccup":4202,"ĠTw":4203,"Ġquality":4204,"Ġdistribut":4205,"ĠFlorida":4206,"VID":4207,"Ġsources":4208,")^{":4209,"Ġlaws":4210,"Ġchalleng":4211,"Ġnucle":4212,"ĠEq":4213,"Ġcoupl":4214,"ĠSuper":4215,"ĠEducation":4216,"What":4217,"ira":4218,"amily":4219,"Ġut":4220,"Ġcoming":4221,"77":4222,"inct":4223,"anned":4224,"erry":4225,"Ġsymm":4226,"Ġmess":4227,"erman":4228,"Ġcompar":4229,"Ġgrand":4230,"ems":4231,"Ġfinite":4232,"Ġuses":4233,"Ġver":4234,"Ġweight":4235,"Ġanti":4236,"ilton":4237,"Ġholds":4238,"Ġcontent":4239,"aily":4240,"ĠOffic":4241,"One":4242,"Ġmeaning":4243,"ĠPlay":4244,"ĠChicago":4245,"96":4246,"Ġtemperature":4247,"Ġmovie":4248,"ĠDirector":4249,"Ġmind":4250,"Ġnote":4251,"ĠSub":4252,"Ġcritical":4253,"Ġsimply":4254,"ession":4255,"anded":4256,"Ġeffic":4257,"Ġparents":4258,"ĠAngeles":4259,"Ġmount":4260,"ait":4261,"Ġsubst":4262,"Ġbox":4263,"Ġreached":4264,"osen":4265,"Ġbecomes":4266,"sing":4267,"Ġfirm":4268,"Ġlevels":4269,"ĠPenn":4270,"51":4271,"Ġchanged":4272,"Ġacadem":4273,"max":4274,"Ġgenerally":4275,"Ġrunning":4276,"ĠVirginia":4277,"clusion":4278,"ĠJournal":4279,"Acc":4280,"bon":4281,"Film":4282,"Ġparameter":4283,"ĠSecond":4284,"Ġ()":4285,"Ġhot":4286,"Ad":4287,"ulture":4288,"Ġcell":4289,"ĠSummer":4290,"54":4291,"Ġvector":4292,"ĠSpec":4293,"uct":4294,"Ġspent":4295,"',":4296,"icture":4297,"Ġcritic":4298,"ĠArts":4299,"igan":4300,"Ġcustom":4301,"But":4302,"ĠSpanish":4303,"ĠBrown":4304,"ĠMexico":4305,"point":4306,"ĠTom":4307,"Ġcontact":4308,"Ġdrug":4309,"force":4310,"{(":4311,"1950":4312,"ifying":4313,"Ġoriginally":4314,"Ġagreement":4315,"Ġadapt":4316,"upper":4317,"Ġtreatment":4318,"Ġwriter":4319,"=#":4320,"Ġteac":4321,";\\":4322,"arian":4323,"ĠMel":4324,"ĠProfess":4325,"Ġstreng":4326,"iform":4327,"top":4328,"Ġquite":4329,"68":4330,"Ġcommunities":4331,"Ġmunic":4332,"Ġhighest":4333,"Ġcomment":4334,"1983":4335,"ervation":4336,"Res":4337,"97":4338,"Ġmur":4339,"ipl":4340,"You":4341,"oviet":4342,"Ġforeign":4343,"ĠSun":4344,"razil":4345,"Ġgun":4346,"ĠFootball":4347,"ĠForce":4348,"Ġschem":4349,"olk":4350,"Ġfixed":4351,"Ġrule":4352,"eks":4353,"udd":4354,"Ġprison":4355,"FL":4356,"Ġfinished":4357,"ĠTimes":4358,"ĠThus":4359,"Ġcause":4360,"ansion":4361,"stein":4362,"edom":4363,"Ġenj":4364,"Ġdifference":4365,"Ġexcept":4366,"ĠĠĠĠĠĠ":4367,"ĠSant":4368,"Ġaim":4369,"yr":4370,"'re":4371,"ĠOut":4372,"Ġago":4373,"gebra":4374,"Ġdefine":4375,"orpor":4376,"ĠLake":4377,"aval":4378,"Ġfields":4379,"Ġgold":4380,"dot":4381,"Ġlocation":4382,"vest":4383,"Ġorigin":4384,"ĠOlympics":4385,"ĠPe":4386,"Ġwrite":4387,"Ġbit":4388,"iring":4389,"Ġsuffer":4390,"Ġcompetition":4391,"class":4392,"From":4393,"Ġtraditional":4394,"ih":4395,"ĠBank":4396,"Ġprogress":4397,"Ġindividuals":4398,"Ġzero":4399,"za":4400,"Ġnoted":4401,"53":4402,"foot":4403,"Ġmer":4404,"vement":4405,"Ġpair":4406,"ĠHenry":4407,"Ġfourth":4408,"Ġalumni":4409,"Ġsearch":4410,"Ġanc":4411,"Ġremained":4412,"Ġfootballers":4413,"Ġmajority":4414,"ĠOb":4415,"aught":4416,"Ġcitiz":4417,"Ġtourn":4418,"ĠVictor":4419,"1982":4420,"Ġcollabor":4421,"ging":4422,"ips":4423,"Ġ&=":4424,"Ġscen":4425,"Ġsupported":4426,"\\\\\\\\\\\\\\\\\\\\\\\\\\\\\\\\\\\\\\\\\\\\\\\\\\\\\\\\\\\\\\\\":4427,"Ġstudied":4428,"ĠSocial":4429,"Ġsequence":4430,"ĠDec":4431,"oto":4432,"enge":4433,"Ġequal":4434,"Ġspeed":4435,"Ã¤":4436,"ĠStar":4437,"ĠDis":4438,"Ġsometimes":4439,"Ġstations":4440,"acity":4441,"ĠClass":4442,"aud":4443,"ishop":4444,"Ġworkers":4445,"Ġlisted":4446,"Ġreveal":4447,"Ġpen":4448,"Ġscreen":4449,"Ġelectron":4450,"Ġsets":4451,"Ġnearly":4452,"ĠIll":4453,"level":4454,"Ġattention":4455,"anda":4456,"ecause":4457,"venue":4458,"bur":4459,"Ġplaced":4460,"Ġlic":4461,"ĠTurk":4462,"orial":4463,"fill":4464,"Ġimages":4465,"ĠItaly":4466,"Ġasp":4467,"ella":4468,"iece":4469,"Ġstatement":4470,"Ġminor":4471,"Ġweeks":4472,"ĠPost":4473,"hing":4474,"ĠSeries":4475,"1979":4476,"cup":4477,"Ġsituation":4478,"$)":4479,"ĠCarl":4480,"ĠBre":4481,"Ġcontext":4482,"agon":4483,"Ġcompos":4484,"CO":4485,"Since":4486,"67":4487,"Ġrepresented":4488,"Ġways":4489,"Ġawarded":4490,"Ġrules":4491,"shire":4492,"}^\\":4493,"Ġappears":4494,"Ġoverall":4495,"ship":4496,"Ġansw":4497,"Ġroom":4498,"script":4499,"Ġtrac":4500,"ollowing":4501,"widehat":4502,"ube":4503,"acing":4504,"Ġstories":4505,"Ġreplaced":4506,"ĠLand":4507,"ellig":4508,"ĠOur":4509,"MS":4510,"Ġelse":4511,"Ġsmaller":4512,"Ġconclud":4513,"nce":4514,"utch":4515,".[":4516,"eria":4517,".~":4518,"Ġreligious":4519,"Ġwide":4520,"ĠOffice":4521,"Ġsummer":4522,"Is":4523,"TV":4524,"rants":4525,"Ġapproximately":4526,"ĠAre":4527,"Ġsure":4528,"Ġdomin":4529,"ban":4530,"icol":4531,"otion":4532,"appro":4533,"ĠDen":4534,"Com":4535,"ĠAlthough":4536,"Ġincome":4537,"Ġsaying":4538,"Ġfram":4539,"cdots":4540,"Eng":4541,"ĠNow":4542,"Bl":4543,"Ġforms":4544,"Ġprobably":4545,"ĠMer":4546,"Ġmach":4547,"Ġprevent":4548,"ĠBo":4549,"Ġdoesn":4550,"Ġapplication":4551,"Ġlooking":4552,"Ġclust":4553,"Ġbad":4554,"Ġwor":4555,"ĠJud":4556,"Ġofficer":4557,"}\\,":4558,"Ġprojects":4559,"Ġpartn":4560,"actions":4561,"ĠScot":4562,"ĠLife":4563,"1981":4564,"Ġfeatured":4565,"iller":4566,"Ġpaint":4567,"fect":4568,"Ġaircraft":4569,"aith":4570,"Ġwalk":4571,"ĠMost":4572,"Ġrecover":4573,"nes":4574,"ĠIran":4575,"ĠProgram":4576,"Ġphil":4577,"ĠCarolina":4578,"aven":4579,"icated":4580,"Ġplans":4581,"ĠOh":4582,"ĠFoundation":4583,"Ġtypes":4584,"Ġdesp":4585,"Ġmission":4586,"Ġselected":4587,"She":4588,"Ġapplied":4589,"range":4590,"Ġbillion":4591,"Ġstarting":4592,"Ġcharge":4593,"Ġcaused":4594,"Ġwhom":4595,"ĠFigure":4596,"star":4597,"km":4598,"}}(":4599,"Ġstructures":4600,"vis":4601,"ancy":4602,"Rec":4603,"ĠStat":4604,"FA":4605,"arriage":4606,"lemma":4607,"Ġalleg":4608,"sl":4609,"ĠSwed":4610,"ĠArab":4611,"Ġvoc":4612,"Ġsolutions":4613,"Ġrecomm":4614,"Ġleave":4615,"Ġult":4616,"Ġprobability":4617,"Ġseems":4618,"Ġschol":4619,"ĠRet":4620,"ĠMo":4621,"Ġdark":4622,"lig":4623,"ĠPeople":4624,"PS":4625,"ĠIts":4626,"Ġ~":4627,"Ġplays":4628,"ĠEmp":4629,"Ġmix":4630,"Ġability":4631,"Ġdetermined":4632,"ĠSystem":4633,"Ġassume":4634,"king":4635,"Ass":4636,"hester":4637,"Ġchoice":4638,"Ġsports":4639,"abit":4640,"Ġhol":4641,"vant":4642,"Ġinput":4643,"ĠPan":4644,"azz":4645,"Ġerror":4646,"Ġannual":4647,"Ġchart":4648,"Ġgoals":4649,"OS":4650,"ette":4651,"ĠCast":4652,"ternet":4653,"Ġdestroy":4654,"ĠTwo":4655,"ĠCOVID":4656,"Ġhum":4657,"ĠSol":4658,"iana":4659,"Ġfif":4660,"Ġsinger":4661,"cel":4662,"Ġspl":4663,"Ġshot":4664,"Ġillust":4665,"Ġeth":4666,"ĠFestival":4667,"Ġcommercial":4668,"}_\\":4669,"ockey":4670,"Ġpack":4671,"Ġplatform":4672,"Ġdetails":4673,"ĠDu":4674,"1976":4675,"Ġir":4676,"ken":4677,"Ġruns":4678,"anger":4679,"Ġallows":4680,"ĠÐ":4681,"ican":4682,"hy":4683,"Ġproced":4684,"Ġvariety":4685,"Ġtable":4686,"1978":4687,"come":4688,"apter":4689,"cher":4690,"Ġsurround":4691,"----":4692,"Ġstatus":4693,"note":4694,"ki":4695,"1972":4696,"textwidth":4697,"Ġmedal":4698,"Ġflow":4699,"Ġcheck":4700,"ns":4701,"enth":4702,"Ġinfluence":4703,"load":4704,"Ġcolor":4705,"Ġ\\{":4706,"ĠRel":4707,"Ġpeak":4708,"Ġdefinition":4709,"ĠFre":4710,"ua":4711,"ĠBur":4712,"pdf":4713,"Ġpassed":4714,"Ġbelong":4715,"qquad":4716,"fin":4717,"ĠMartin":4718,"ĠSecretary":4719,"Ġchem":4720,"Ġexam":4721,"ĠPet":4722,"Ġens":4723,"usband":4724,"Ġbehavior":4725,"Ġupper":4726,"Ġparties":4727,"BS":4728,"Ġnames":4729,"Ġpage":4730,"Ġminutes":4731,"rich":4732,"Ġfigure":4733,"Ġquarter":4734,"ĠOrder":4735,"Ġhighly":4736,"edia":4737,"Ġtransform":4738,"Ġboundary":4739,"Ġended":4740,"ĠChief":4741,"}|":4742,"inem":4743,"Ġcoordin":4744,"&=":4745,"undred":4746,"ultural":4747,"ĠOper":4748,"Ġoperator":4749,"Ġedge":4750,"Ġgetting":4751,"Ġquantum":4752,"itation":4753,"agram":4754,"entially":4755,"300":4756,"ady":4757,"ĠCD":4758,"ao":4759,"oting":4760,"urrent":4761,"Ġpresence":4762,"ocks":4763,"})\\":4764,"Ġpoor":4765,"usion":4766,"ansas":4767,"Ġmiddle":4768,"Ġtrying":4769,"List":4770,"1974":4771,"à¤":4772,"Ġefforts":4773,"Ġsport":4774,"can":4775,"Ġinside":4776,"Ġpurs":4777,"house":4778,"1977":4779,"uration":4780,"esh":4781,"Ġvote":4782,"Ġpick":4783,"imin":4784,"Ġbasket":4785,"Ġtal":4786,"Ġtrain":4787,"Ġlatter":4788,"rat":4789,"Ġdead":4790,"bullet":4791,"ottom":4792,"Ġgalax":4793,"Ġspin":4794,"FC":4795,"Ġpatients":4796,"Ġorganizations":4797,"1975":4798,"}^{(":4799,"miss":4800,"Ġresources":4801,"Ġchief":4802,"Ġneighbor":4803,"Ġsched":4804,"Ġfavor":4805,"Ġinterpret":4806,"asion":4807,"ylvan":4808,"Ġsenior":4809,"raint":4810,"Ġregions":4811,"AA":4812,"Ġpurpose":4813,"ooth":4814,"otic":4815,"RE":4816,"ĠOver":4817,"enty":4818,"ĠParliament":4819,"riz":4820,"ĠUnder":4821,"eek":4822,"ĠAv":4823,"................":4824,"Ġdecre":4825,"ĠJoseph":4826,"Ġenjoy":4827,"apers":4828,"Ġbroadcast":4829,"Ġlived":4830,"do":4831,"Ġinstrum":4832,"Ġrequest":4833,"ĠPac":4834,"ror":4835,"Ġelectric":4836,"ĠLiber":4837,"Ġcode":4838,"ĠDevelopment":4839,"Ġresponsible":4840,"Ġupd":4841,"Ġmissing":4842,"Ġsample":4843,"ĠColumb":4844,")-":4845,"ĠIslam":4846,"Psi":4847,"Ġleaders":4848,"Ġmusical":4849,"term":4850,"Ġer":4851,"ĠSil":4852,"Ġhop":4853,"Ġserious":4854,"Ġstra":4855,"onom":4856,"Ġhelped":4857,"}]":4858,"war":4859,"Ġprove":4860,"Ġsetting":4861,"ĠMur":4862,"ĠAwards":4863,"Ġattract":4864,"Ġscore":4865,"Ġhospital":4866,"Ġconnected":4867,"Ġdu":4868,"tra":4869,"icine":4870,"ĠOl":4871,"Ġevolution":4872,"Ġfully":4873,"1968":4874,"ĠMos":4875,"Ã¨":4876,"ĠKn":4877,"Ġrelation":4878,"isco":4879,"Ġ@":4880,"____":4881,"ĠOld":4882,"ĠSaint":4883,"Ġextended":4884,"iano":4885,"ructure":4886,"Ġmaximum":4887,"ĠWood":4888,"ibly":4889,"Ġautom":4890,"Ġcarry":4891,"Ġcommission":4892,"Ġsomeone":4893,"1973":4894,"76":4895,"ĠEngine":4896,"Ġesc":4897,"^+":4898,"dro":4899,"Ġfr":4900,"yan":4901,"Ġoperation":4902,"NA":4903,"Ġopening":4904,"Äģ":4905,"Ġapprop":4906,"ĠAtlant":4907,"85":4908,"cles":4909,"ĠNavy":4910,"Ġdouble":4911,"Ġpattern":4912,"Ġbrief":4913,"Ġlat":4914,"ĠLove":4915,"Ġbrand":4916,"gment":4917,"inger":4918,"isher":4919,"Ġscored":4920,"ĠGovern":4921,"Ġwinning":4922,"ĠMil":4923,"ĠSund":4924,"Ġrap":4925,"{{\\":4926,"ĠIrish":4927,"ĠLemma":4928,"Ġrecords":4929,"Ġspread":4930,"Ġcounter":4931,"ylvania":4932,"itter":4933,"ĠUSA":4934,"ribute":4935,"mathsf":4936,"ato":4937,"ias":4938,"Ġbey":4939,"arp":4940,"that":4941,"ĠRo":4942,"Ġfinally":4943,"John":4944,"ĠBig":4945,"Ġapply":4946,"wed":4947,"Ġactivity":4948,"Ġcoast":4949,"Ġmanager":4950,"Ġdisease":4951,"ecting":4952,"Ġreach":4953,"ctors":4954,"Ġfair":4955,"Ġproduce":4956,"ca":4957,"osh":4958,"Ġpolitician":4959,"Ġdiss":4960,"stitution":4961,"Ġtransition":4962,"Ġwriters":4963,"ĠJim":4964,"ĠLee":4965,"Ġbeyond":4966,"Ġterrit":4967,"ĠBusiness":4968,"ĠSk":4969,"Ġconflic":4970,"ĠYoung":4971,"Ġarrest":4972,"Ġserve":4973,"idae":4974,"}\\\\":4975,"ĠChild":4976,"long":4977,"HE":4978,"Ġopportunity":4979,"ĠEconom":4980,"Ġquestions":4981,"Ġactor":4982,"Ġstop":4983,"ĠSoviet":4984,"Ġtournament":4985,"Ġking":4986,"ĠPre":4987,"Ġinteresting":4988,"ersey":4989,"dimens":4990,"Ġhusband":4991,"ework":4992,"Ġstudio":4993,"iro":4994,"Ġ$(\\":4995,"eline":4996,"ĠBrazil":4997,"Ġsymb":4998,"Ġgreater":4999,"Ġbasketball":5000,"Ġrow":5001,"ĠLord":5002,"Ġfit":5003,"eful":5004,"Ġturned":5005,"Ġchannel":5006,"Ġwave":5007,"ĠTour":5008,"obile":5009,"ĠHere":5010,"'$":5011,"iny":5012,"Ġrob":5013,"1971":5014,"1969":5015,"ĠCivil":5016,"ĠJes":5017,"ĠNorthern":5018,"eds":5019,"men":5020,"ĠFe":5021,"Ġnothing":5022,"ĠJewish":5023,"ishes":5024,"Ġencou":5025,"Ġtrial":5026,"Ġconver":5027,"Ġnewsp":5028,"Ġsignal":5029,"adium":5030,"Ġbal":5031,"osoph":5032,"ĠHaw":5033,"kins":5034,"ĠGen":5035,"Ġbecoming":5036,"airman":5037,"plit":5038,"Ġpressure":5039,"imb":5040,"ager":5041,"itable":5042,"Ġbattle":5043,"Ġoil":5044,"ĠAtt":5045,"Ġlaunched":5046,"Ġrespond":5047,"inf":5048,"Ġcorrect":5049,"ĠEarth":5050,"Ġdivision":5051,"Ġcolumn":5052,"Ġcorrel":5053,"scale":5054,"Ġraised":5055,"emporary":5056,"haps":5057,"illa":5058,"Ġreferred":5059,"ola":5060,"Ġestimated":5061,"ĠSpace":5062,"ouri":5063,"wa":5064,"orning":5065,"ĠSpain":5066,"Ġnumerous":5067,"Ġhistorical":5068,"Ġdepartment":5069,"Ġprint":5070,"1940":5071,"Ġmurder":5072,"Ġattended":5073,"Ġresulting":5074,"Ġadministration":5075,"ĠHuman":5076,"ĠPo":5077,",-":5078,"anner":5079,"gent":5080,"oston":5081,"ĠTer":5082,"Ġedition":5083,"Ġdespite":5084,"Ġweak":5085,"wan":5086,"Ġunion":5087,"Ġuniversity":5088,"citet":5089,"ĠHel":5090,"Ġiniti":5091,"ĠSpr":5092,"Ġdoub":5093,"Ġwatch":5094,"orter":5095,"Ġliterature":5096,"Ġbus":5097,"ĠSupp":5098,"Ġanything":5099,"ĠJo":5100,"Ġproviding":5101,"gypt":5102,"CD":5103,"ĠBritain":5104,"({\\":5105,"Ġpp":5106,"ĠMa":5107,"Early":5108,"\">":5109,"ĠAsia":5110,"ĠGall":5111,"ĠIII":5112,"maz":5113,"ĠProp":5114,"ressed":5115,"Ġfast":5116,"93":5117,"areer":5118,"ĠProt":5119,"Ġprep":5120,"Ġconsequ":5121,"94":5122,"Ġactress":5123,"RA":5124,"ĠReview":5125,"Ġthous":5126,"erved":5127,"Ġcities":5128,"Ġrepresentation":5129,"Ġmostly":5130,"iant":5131,"Ġreduced":5132,"Ġcultural":5133,"Ġcorpor":5134,"sylvania":5135,"Ġgiving":5136,"During":5137,"MA":5138,"87":5139,"illed":5140,"ugby":5141,"aly":5142,"ussian":5143,"ĠWales":5144,"iders":5145,"Ġequations":5146,"Ġgoes":5147,"ĠValley":5148,"1930":5149,"mas":5150,"Ġcarried":5151,"86":5152,"Ġproceed":5153,"Ġisland":5154,"Ġcomponents":5155,"1967":5156,"Ġimmediately":5157,"Ġshoot":5158,"heast":5159,"Ġolder":5160,"Ġeditor":5161,"Ġcompl":5162,"1945":5163,"ĠElect":5164,"}+\\":5165,"ĠTherefore":5166,"92":5167,"aine":5168,"ĠPak":5169,"body":5170,"ĠJul":5171,"Can":5172,"Ġcommand":5173,"Ġpeace":5174,"ĠBi":5175,"Ġcapacity":5176,"espite":5177,"Ġremaining":5178,"ĠInst":5179,"ogue":5180,"nam":5181,"ĠDou":5182,"ĠFederal":5183,"So":5184,"urance":5185,"equiv":5186,"Ġran":5187,"Ġforced":5188,"Ġreceive":5189,"Ġensure":5190,"eech":5191,"ulty":5192,"Ġdisplay":5193,"ĠGr":5194,"ĠUp":5195,"Ġ(\"":5196,"Ġseparate":5197,"Ġwood":5198,"Ġexisting":5199,"efore":5200,"small":5201,"ĠLu":5202,"ĠHot":5203,"aters":5204,"Ġmoving":5205,"Ġclasses":5206,"Ġvan":5207,"Ġmentioned":5208,"ĠEr":5209,"Ġidentified":5210,"xspace":5211,"Ġones":5212,"rence":5213,"Ġfelt":5214,"ancing":5215,"isms":5216,"Ġclassical":5217,"erem":5218,"ĠTre":5219,"Ġidentity":5220,"Ġfactors":5221,"Ġfamous":5222,"Ġcouple":5223,"ĠBob":5224,"Ġofficers":5225,"Ġdenote":5226,"ĠDemocratic":5227,"Ġarrang":5228,"Ġpolic":5229,"Ġ&\\":5230,"Ġconsists":5231,"ĠJohnson":5232,"Ġestablishments":5233,"lo":5234,"Ġcompletely":5235,"Ġquickly":5236,"ĠEmpire":5237,"ĠCE":5238,"Ġofficials":5239,"oration":5240,"gs":5241,"Ġeverything":5242,"ski":5243,"Ġâ":5244,"ĠTime":5245,"Ġeconomy":5246,"Ġriver":5247,"Ġoptim":5248,"'m":5249,"uan":5250,"Ġsafety":5251,"standing":5252,"Ġheavy":5253,"Ġcomponent":5254,"Ġimpos":5255,"Ġrot":5256,"elled":5257,"Ġcounty":5258,"Ġnegative":5259,"\")":5260,"https":5261,"Ġassess":5262,"Ġobjects":5263,"Ġsouthern":5264,"rule":5265,"ĠGeorgia":5266,"1964":5267,"Ġreference":5268,"Ġstrugg":5269,"opl":5270,"urban":5271,"Ġseasons":5272,"Ġinform":5273,"ĉĉĉĉ":5274,"Ġclimate":5275,"Ġmaster":5276,"Ġpsych":5277,"Ġsector":5278,"ĠSenate":5279,"Ġbeaut":5280,"Ġvel":5281,"ĠSouthern":5282,"Ġhttps":5283,"ĠLong":5284,"Ġcomputer":5285,"mond":5286,"Ġnorthern":5287,"Ġoffered":5288,"ounds":5289,"Ġcentre":5290,"Se":5291,"Ġgrowing":5292,"Ġfailed":5293,"Ġmeasures":5294,"ĠGood":5295,"Ġhundred":5296,"ati":5297,"trans":5298,"Ġharm":5299,"ipality":5300,"ora":5301,"Ġsufficient":5302,"Int":5303,"inet":5304,"Ġmulti":5305,"Ġjoint":5306,"ĠOx":5307,"Ġtrust":5308,"iques":5309,"ĠĠĠĠĠĠĠĠĠĠĠĠĠĠĠĠĠĠĠĠĠĠĠĠĠĠĠĠĠĠĠĠ":5310,"Ġproducer":5311,"Ġdefend":5312,"Ġowned":5313,"Ġsimpl":5314,"ĠAssembly":5315,"ĠChampionships":5316,"ĠFred":5317,"Ġmis":5318,"rete":5319,"ĠTeam":5320,"ĠÂ£":5321,"Ġcitizens":5322,"Ġtell":5323,"perp":5324,"Ġimprove":5325,"Ġeasy":5326,"ĠSir":5327,"Ġmarriage":5328,"Ġclaims":5329,"Ġcontroll":5330,"Ġappearance":5331,"sin":5332,")]":5333,"Ġ...":5334,"Ġtask":5335,"ĠTheir":5336,"Ġdisp":5337,"yer":5338,"1965":5339,"ĠPennsylvania":5340,"NN":5341,"ariant":5342,"ifically":5343,"Ġyield":5344,"Ġexecutive":5345,"ampion":5346,"neq":5347,"Ġletter":5348,"Ġgreen":5349,"72":5350,"Ġslow":5351,"ĠJustice":5352,"uls":5353,"Ã³n":5354,"Ġpaid":5355,"ĠJones":5356,"Ġneut":5357,"ĠFort":5358,"Ġsquare":5359,"ĠKe":5360,"Not":5361,"Ġbill":5362,"Ġmagazine":5363,"riev":5364,"Ġreflect":5365,"gu":5366,"risis":5367,"dimensional":5368,"inos":5369,"Ġequivalent":5370,"}:":5371,"ds":5372,"iable":5373,"No":5374,"oday":5375,"91":5376,"Ġnine":5377,"Ġchampionship":5378,"Ġscene":5379,"Ġissued":5380,"ET":5381,"ĠLibrary":5382,"uated":5383,"Ġchosen":5384,"Ġsal":5385,"Ġvoice":5386,"cean":5387,"ried":5388,")}{":5389,"ĠGreek":5390,"rage":5391,"PR":5392,"According":5393,"Ġnode":5394,"ĠUN":5395,"Ġvalid":5396,"ĠCross":5397,"ĠConn":5398,"istance":5399,"Ġshowed":5400,"aria":5401,"hspace":5402,"Ġconvers":5403,"ĠTim":5404,"Ġextra":5405,"IV":5406,"Ġcosts":5407,"ĠCentre":5408,"indent":5409,"Ġimplies":5410,"va":5411,"Ġgenerated":5412,"ĠDet":5413,"Ġreports":5414,"ĠHon":5415,"Ġvocals":5416,"Ġexpansion":5417,"Don":5418,"1966":5419,"ĠGal":5420,"Ġmagnetic":5421,"theorem":5422,"uries":5423,"Ġrates":5424,"Ġhyp":5425,"ĠTop":5426,"iÄ":5427,"iling":5428,"Ġworth":5429,"ĠMcC":5430,"Ġforest":5431,"Ġcandidate":5432,"Ġactions":5433,"ĠCamb":5434,"ĠSupreme":5435,"resh":5436,"Ġfoot":5437,"arden":5438,"onder":5439,"|^":5440,"itors":5441,"}-\\":5442,"ĠMany":5443,"Ġleadership":5444,"ĠAmericans":5445,"ĠCam":5446,"Ġentered":5447,"Ġpet":5448,"estic":5449,"Ġunderstanding":5450,"Ġtree":5451,"1920":5452,"ko":5453,"from":5454,"ĠMiddle":5455,"ĠConference":5456,"Ġconcent":5457,"ĠMichigan":5458,"}}{\\":5459,"greg":5460,"While":5461,"inois":5462,"ima":5463,"âĢĿ.":5464,"Ġbasic":5465,"isters":5466,"Ġcard":5467,"ĠUk":5468,"Ġdigital":5469,"IA":5470,"ĠIS":5471,"Ġleads":5472,"even":5473,"IR":5474,"ĠJersey":5475,"operat":5476,"Ġinstance":5477,"etts":5478,"Ġsea":5479,"ĠBas":5480,"Notes":5481,"place":5482,"Ġblood":5483,"Ġcontain":5484,"Ġrepe":5485,"irmed":5486,"Ġenter":5487,"Ġnorm":5488,"DA":5489,"Ġslight":5490,"Ġdetermine":5491,"itage":5492,"di":5493,"Ġetc":5494,"ĉĊ":5495,"Ġmotion":5496,"PA":5497,"position":5498,"English":5499,"Ġspirit":5500,"ĠAdd":5501,"span":5502,"ented":5503,"ĠUnivers":5504,"Ġmetric":5505,"Ġsexual":5506,"Ġbelieved":5507,"Ġvictim":5508,"operatorn":5509,"Ġresidents":5510,"Ġoffers":5511,"fully":5512,"Ġdro":5513,"uthors":5514,"Ġsales":5515,"Ġlif":5516,"arant":5517,"Ġvolume":5518,"ĠOhio":5519,"Ġelections":5520,"ĠJac":5521,"ĠPacific":5522,"Other":5523,"ĠCorpor":5524,"ĠWilliams":5525,"scr":5526,"ĠGa":5527,"ĠMov":5528,"Pr":5529,"ĠEgypt":5530,"operatorname":5531,"Ġestimate":5532,"Ġarmy":5533,"ali":5534,"Ġregional":5535,"Ġuser":5536,"Ġgeneration":5537,"igration":5538,"ĠBoston":5539,"hemat":5540,"Ġveloc":5541,"ĠAsian":5542,"Ġtim":5543,"Ġeasily":5544,"elligence":5545,"Ġconsum":5546,"Im":5547,"Ġclaimed":5548,"Ġopin":5549,"Ġthr":5550,"Or":5551,"skip":5552,"==":5553,"Ġuncertain":5554,"Ġdiscussed":5555,"ĠSar":5556,"ĠInf":5557,"orney":5558,"Ġeffort":5559,"Ġrelative":5560,"room":5561,"tical":5562,"Ġsust":5563,"Ġhope":5564,"ependence":5565,"ĠAff":5566,"bury":5567,"Ġmicro":5568,"uro":5569,"andemic":5570,"ĠHistoric":5571,"ĠMem":5572,"Ġinitially":5573,"Ġvictory":5574,"div":5575,"Ġren":5576,"olved":5577,"IL":5578,"Ġprofessor":5579,"ĠBattle":5580,"Ġvirt":5581,"secut":5582,"ĠTechnology":5583,"Ġleaving":5584,"ĠFrancisco":5585,"Ġsoftware":5586,"89":5587,"unior":5588,"63":5589,"ears":5590,"ĠLy":5591,"ker":5592,"udget":5593,"chest":5594,"Ġeveryone":5595,"Ġliber":5596,"Ġcorn":5597,"gra":5598,"ĠProject":5599,"]\\":5600,"Ġexc":5601,"Ġserving":5602,"ĠVer":5603,"ĠExp":5604,"umerate":5605,"ĠMuslim":5606,"Ġcoe":5607,"Ġcells":5608,"Ġspectrum":5609,"Ġreplace":5610,"Ġratio":5611,"Ġexistence":5612,"ador":5613,"Ġprice":5614,"ĠHamilton":5615,"win":5616,"Ġdomain":5617,"ĠCr":5618,"Ġsites":5619,"Ġstrategy":5620,"Ġreduce":5621,"Ġusers":5622,"Ġalgebra":5623,"Ġdrama":5624,"Ġsurpr":5625,"Ġexpression":5626,"ulate":5627,"Ġrequires":5628,"ĠFC":5629,"Ġ-\\":5630,"Ġuniform":5631,"Ġpil":5632,"Ġalone":5633,"ĠProvince":5634,"ĠMah":5635,"Ġgrad":5636,"ĠHome":5637,"ules":5638,"inners":5639,"Ġcancer":5640,"ograp":5641,"parallel":5642,"62":5643,"Ġconnection":5644,"Ġhttp":5645,"Ġreform":5646,"Ġextrem":5647,"rance":5648,"ĠTheatre":5649,"ĠPhilipp":5650,"ĠManagement":5651,"Ġdatas":5652,"ĠStep":5653,"Ġconstraint":5654,"Ġdemand":5655,"Ġapplications":5656,"ĠFurther":5657,"ersonal":5658,"Ġincorpor":5659,"Ġroute":5660,"Ġoutput":5661,"Ġsubs":5662,"Ġscheme":5663,"ĠScotland":5664,"Comm":5665,"ĠOpen":5666,"han":5667,"istered":5668,"icity":5669,"achus":5670,"alse":5671,"Ġformation":5672,"akers":5673,"ipment":5674,"alo":5675,"sup":5676,"ĠAlso":5677,"ĠRadio":5678,"400":5679,"FF":5680,"][":5681,"Ġblue":5682,"Ġtheorem":5683,"Ġconducted":5684,"ĠBow":5685,"Ġrailway":5686,"rison":5687,"Ab":5688,"enumerate":5689,"ĠOk":5690,"ĠQueen":5691,"icks":5692,"burgh":5693,"ĠHy":5694,"Ġborder":5695,"itness":5696,")}$":5697,"osm":5698,"\\,\\":5699,"ennis":5700,"een":5701,"Ġstraight":5702,"Åį":5703,"ĠNetwork":5704,"ĠMen":5705,"Ġmuseum":5706,"lies":5707,"Ġbul":5708,"Ġlabor":5709,"\"|":5710,"Ġreasons":5711,"iful":5712,"abeth":5713,"mann":5714,"Ġinstitutions":5715,"Ġmill":5716,"ading":5717,"Ġcategory":5718,"Ġcolon":5719,"Ġcovered":5720,"inition":5721,"Ġacademic":5722,"gest":5723,"ĠCharl":5724,"Ġdefeated":5725,"Ġjoin":5726,"Ġindex":5727,"Ġemployees":5728,"ĠSong":5729,"Ġmerg":5730,"eler":5731,"1963":5732,"ĠIllinois":5733,"ba":5734,"ĠTro":5735,"Ġcensus":5736,"aka":5737,"1962":5738,"Ġdistinct":5739,"ologies":5740,"Ġmatches":5741,"mail":5742,"ĠWay":5743,"ĠBelg":5744,"Ġnomin":5745,"str":5746,"ĠBet":5747,"Ġviolence":5748,"ĠSand":5749,"'ve":5750,"Ġcam":5751,"ĠSee":5752,"ĠTri":5753,"ĠProfessor":5754,"84":5755,"Ġdrum":5756,"achusetts":5757,"Ġcouncil":5758,"Ġotherwise":5759,"Ġperfect":5760,"Ġcontrast":5761,"ĠLuc":5762,"Ġweap":5763,"Further":5764,"approx":5765,"law":5766,"ĠRepublican":5767,"isted":5768,"Ġrelevant":5769,"ĠJr":5770,"fit":5771,"dag":5772,"atriate":5773,"Ġnuclear":5774,"opy":5775,"Ġmaterials":5776,"Ġ$-":5777,"Ġcert":5778,"Ġimag":5779,"Ð°":5780,"Ġmainly":5781,"uilding":5782,"Ġheard":5783,"Ġbatt":5784,"Ġsn":5785,"unc":5786,"rees":5787,"Be":5788,"gn":5789,"ashed":5790,"ĠVan":5791,"Ġcore":5792,"Ġpositions":5793,"raq":5794,"Ġapart":5795,"resents":5796,"adel":5797,"ĠBC":5798,"Ġyouth":5799,"Ġtens":5800,"Then":5801,"iy":5802,"Ġexamples":5803,"Ġconstructed":5804,"itemize":5805,"Career":5806,"ĠCommunity":5807,"Ġauthority":5808,"ĠKong":5809,"SP":5810,"Ġfeed":5811,"aylor":5812,"ĠMax":5813,"Ġchoose":5814,"$}":5815,"Ġfacilities":5816,"anguages":5817,"61":5818,"ĠSpecial":5819,"ĠEll":5820,"Ġdiscovered":5821,"71":5822,"EL":5823,"74":5824,"ja":5825,"ĠEdward":5826,"83":5827,"abs":5828,"ĠKorea":5829,"Ġfrequency":5830,"Ġcombined":5831,"Ġminimum":5832,"ĠDev":5833,"82":5834,"http":5835,"auge":5836,"iate":5837,"ĠWall":5838,"Ġcontinues":5839,"Ġrise":5840,"Ġast":5841,"Ġfans":5842,"ĠRos":5843,"iral":5844,"Ġadvant":5845,"noindent":5846,"Ġinequ":5847,"ounded":5848,"Ġrelatively":5849,"abilities":5850,"Ġderived":5851,"Ġice":5852,"Ġactors":5853,"ĠAdminist":5854,"ĠSom":5855,"Ġpiece":5856,"ĠBul":5857,"69":5858,"sen":5859,"eries":5860,"real":5861,"Ġpromin":5862,"Ð¾":5863,"Ġcontribution":5864,"Ġearned":5865,"language":5866,"Ġprocesses":5867,"ĠShow":5868,"rical":5869,"ĠCro":5870,"OT":5871,"ĠColumbia":5872,"MC":5873,"ĠWal":5874,"Ġarchitecture":5875,"Ġbegin":5876,"ĠCoast":5877,"ĠRepresent":5878,"ĠKent":5879,"ĠUr":5880,"ĠWater":5881,"aming":5882,"Ġpoll":5883,"unch":5884,"Ġmemory":5885,"ĠServices":5886,"bo":5887,"Ġideas":5888,"Ġgeom":5889,"Ġsolid":5890,"Ġprotection":5891,"poses":5892,"ĠStan":5893,"zer":5894,"Ġpolitics":5895,"ĠMu":5896,"ĠPrem":5897,"group":5898,"ĠEnter":5899,"Ġrecording":5900,"Ġwestern":5901,"ĠRam":5902,"ĠHospital":5903,"achel":5904,"ĠLie":5905,"ĠSunday":5906,"mathscr":5907,"ĠEastern":5908,")+":5909,"yes":5910,"ĠLine":5911,"Ġhands":5912,"79":5913,"Ġbranch":5914,"Ġrare":5915,"Ġfunding":5916,"Ġfreedom":5917,"Ġpandemic":5918,"odies":5919,"Our":5920,"73":5921,"ĠRh":5922,"However":5923,"Ġattend":5924,"Ġvs":5925,"Ġsister":5926,"Ġtypically":5927,"ĠTable":5928,"Ġexactly":5929,"arters":5930,"iency":5931,"ĠBern":5932,"Ġ\\|":5933,"1944":5934,"Now":5935,"Ġclin":5936,"eller":5937,"Ġoperating":5938,"inity":5939,"ĠRem":5940,"Ġavoid":5941,"81":5942,"Ġconference":5943,"1961":5944,"More":5945,"Ġpanel":5946,"ilarly":5947,"Am":5948,"GB":5949,"Ġshape":5950,"Ġarticles":5951,"rations":5952,"Ġemp":5953,"ĠJeff":5954,"ĠGovernor":5955,"Sec":5956,"Ġappropriate":5957,"Ġnetworks":5958,"rovers":5959,"My":5960,"ĠBoth":5961,"Ġenvironmental":5962,"ĠÂ§":5963,"ĠOrgan":5964,"Ġshift":5965,"Ġinvestment":5966,"~$":5967,"Ġframework":5968,"ĠMedical":5969,"Ġsurvey":5970,"ĠDutch":5971,"Ġfle":5972,"Ġseat":5973,"ĠMassachusetts":5974,"amin":5975,"Ġrepresents":5976,"etime":5977,"Ġcrime":5978,"ĠEnd":5979,"vspace":5980,"Note":5981,"Ġfell":5982,"Ed":5983,"uations":5984,"Ġremoved":5985,"ml":5986,"Man":5987,"App":5988,"ĠAp":5989,"Ġremark":5990,"AD":5991,"Ġregarding":5992,"ocation":5993,"Films":5994,"ĠPrince":5995,"Aust":5996,"ĠStudies":5997,"ĠField":5998,"Ġwa":5999,"uer":6000,"Ġadopted":6001,"ĠHor":6002,"ĠOxford":6003,"ogle":6004,"size":6005,"ashion":6006,"Cont":6007,"Ġstore":6008,"ymm":6009,"ĠJackson":6010,"ĠLatin":6011,"Ne":6012,"ĠGi":6013,"Ġpoliticians":6014,"\\}$":6015,"Ġselect":6016,"Ġrevealed":6017,"ucky":6018,"td":6019,"ela":6020,"ĠWind":6021,"Ġwild":6022,"Ġsingles":6023,"phy":6024,"Ġtouch":6025,"National":6026,"hens":6027,"Ġcontinuous":6028,"Ġpartner":6029,"ĠJoe":6030,"Ġintended":6031,"ĠHead":6032,"rates":6033,"ĠMid":6034,"&&":6035,"Ġfort":6036,"Ġax":6037,"ographic":6038,"Ġhousing":6039,"Ġrapid":6040,"bi":6041,"Ġfaith":6042,"ĠPoland":6043,"ĠAndrew":6044,"TS":6045,"}}_":6046,"enant":6047,"Ġshared":6048,"oir":6049,"Ġnative":6050,"ipped":6051,"cript":6052,"ĠPolice":6053,"ĠMajor":6054,"Ġdraft":6055,"Ã§":6056,"Ġmut":6057,"unn":6058,"Ġmanaged":6059,"ĠStr":6060,"Ġinnov":6061,"Ġdedicated":6062,"ĠGh":6063,"Ġsignificantly":6064,"Ġdiscussion":6065,"Ġclearly":6066,"Def":6067,"ĠMedia":6068,"abour":6069,"Ġinterested":6070,"Ġresolution":6071,"Ġoperated":6072,"ione":6073,"Ġvac":6074,"coming":6075,"Ġaware":6076,"Ġwrong":6077,"Ġretired":6078,"Ġequipment":6079,"icted":6080,"Ġprotect":6081,"Ġcomedy":6082,"Ġconsult":6083,"ĠCy":6084,"Ġexpressed":6085,"Ġimportance":6086,"ĠTem":6087,"That":6088,"tic":6089,"phas":6090,"First":6091,"ila":6092,"ĠBroad":6093,"cons":6094,"Ġtradition":6095,"Ġremember":6096,"ĠYour":6097,"onto":6098,"illy":6099,"Pi":6100,"ĠBrook":6101,"ĠNote":6102,"ĠSecurity":6103,"ynom":6104,"Ġagent":6105,"Ġvariables":6106,"Ġfeat":6107,"weight":6108,"Ġwasn":6109,"110":6110,"aya":6111,"ĠEp":6112,"ologist":6113,"ĠTest":6114,"Ġcrick":6115,"rating":6116,"ĠConst":6117,"1948":6118,"Ġancient":6119,"Ġdecades":6120,"Ġsmooth":6121,"ĠKenn":6122,"ĠRegister":6123,"Ġexchange":6124,"Ġplot":6125,"uing":6126,"1956":6127,"Ġplane":6128,"Ġscientific":6129,"ervative":6130,"related":6131,"Ġkept":6132,"En":6133,"IM":6134,"Vert":6135,"Ġtried":6136,"Ġauthors":6137,"Ġplanning":6138,"Ġcat":6139,"Ġalternative":6140,"ĠEven":6141,"ĠHung":6142,"ĠSea":6143,"speople":6144,"claim":6145,"Ġpowerful":6146,"Ġderiv":6147,"1959":6148,"Ġcreating":6149,"Ġbusinesses":6150,"Ġtoward":6151,"pper":6152,"underline":6153,"Ġgrew":6154,"itled":6155,"Ġrequirements":6156,"oned":6157,"lease":6158,"det":6159,"Ġtrib":6160,"1958":6161,"Ġgets":6162,"asy":6163,"teen":6164,"Ġargument":6165,"ĠEach":6166,"Ġcry":6167,"unte":6168,"Ġprimarily":6169,"Ġagreed":6170,"amm":6171,"Ġcontributions":6172,"ova":6173,"ĠBlue":6174,"Ġinteraction":6175,"ĠPortug":6176,"].":6177,"Post":6178,"Ġacting":6179,"awa":6180,"Ġtracks":6181,"ĠSciences":6182,"ĠRef":6183,"ĠFour":6184,"ĠNations":6185,"ĠKen":6186,"Ġmiles":6187,"Co":6188,"riday":6189,"Qu":6190,"ĠWild":6191,"othes":6192,"ĠRights":6193,"sky":6194,"Ġenh":6195,"ĠCard":6196,"}$\\":6197,"1942":6198,"izabeth":6199,"ibli":6200,"Ġawards":6201,"Ġobservations":6202,"Ġhence":6203,"value":6204,"node":6205,"Ġtherm":6206,"ĠColl":6207,"Ġpurposes":6208,"ĠPower":6209,"Ġarbit":6210,"ĠNight":6211,"life":6212,"Ġpolicies":6213,"Ġreality":6214,"âĢĿ,":6215,"ĠFar":6216,"Ġpersonnel":6217,"Ġsumm":6218,"going":6219,"ĠIraq":6220,"unct":6221,"Ġformal":6222,"imately":6223,"ĠHa":6224,"Ġcopy":6225,"Comp":6226,"Ġactual":6227,"1939":6228,"Ġcontest":6229,"Ġexplicit":6230,"Ġacquired":6231,"Ġunknown":6232,"Ġspeech":6233,"Ġhouses":6234,"Ġgrav":6235,"Ġordered":6236,"Ġera":6237,"ĠForm":6238,"Ġstock":6239,"(-":6240,"ester":6241,"Ġuseful":6242,"ĠHong":6243,"Ġhonor":6244,"CS":6245,"Ġdescribe":6246,"Ġadvoc":6247,"Ġknew":6248,"Ġdimension":6249,"track":6250,"irds":6251,"Ġbenefits":6252,"Ġattacks":6253,"Ġsucceed":6254,"aby":6255,"Ġachieved":6256,"LA":6257,"Ġfocused":6258,"Mar":6259,"Ġappeal":6260,"Ġsteps":6261,"Ġinternal":6262,"Ġconflict":6263,"Ġconfirmed":6264,"Ġexperiment":6265,"ĠBase":6266,"norm":6267,"ĠLi":6268,"Ġresearc":6269,"ez":6270,"Ġteacher":6271,"Ġeigen":6272,"Ġnotice":6273,"Ġearth":6274,"split":6275,"uced":6276,"Ġowner":6277,"ĠMinistry":6278,"Ġvelocity":6279,"ĠLittle":6280,"iÄĩ":6281,"Ġsquad":6282,"ĠRay":6283,"ĠOnt":6284,"ĠViet":6285,"Ġinters":6286,"1957":6287,"150":6288,"orough":6289,"ĠPolit":6290,"eaking":6291,"amental":6292,"uses":6293,"Ġbass":6294,"Ġboy":6295,"Ġdeveloping":6296,"eld":6297,"Ġisn":6298,"Ġcommittee":6299,"Ġcrisis":6300,"These":6301,"Ġmultip":6302,"Ġselection":6303,"ĠId":6304,"Ġsemi":6305,"Ġarrived":6306,"inson":6307,"Ġinvestigation":6308,"LE":6309,"hire":6310,"Ġhyper":6311,"Ġauthorities":6312,"Ġmeant":6313,"Ġnoise":6314,"spec":6315,"ags":6316,"Ġprofile":6317,"Ġships":6318,"ĠAut":6319,"ducing":6320,"Ġteaching":6321,"ĠPop":6322,"ĠBang":6323,"Ġcomposed":6324,"Ġmixed":6325,"fort":6326,"ĠDaniel":6327,"Ġcrim":6328,"Ġoperators":6329,"ĠBra":6330,"Ġstrength":6331,"map":6332,"Ġwidely":6333,"Ġdrive":6334,"itzer":6335,"ĠMot":6336,"Ġdaily":6337,"}}}":6338,"Ġchallenge":6339,"iced":6340,"Ġmanif":6341,"while":6342,"Ġscholars":6343,"kin":6344,"ighter":6345,"Ġstreet":6346,"Ġaudience":6347,"ĠEU":6348,"Ġvisual":6349,"ĠBal":6350,"agraph":6351,"Ġachieve":6352,"Ġminister":6353,"Ġmetal":6354,"Ġtroops":6355,"pton":6356,"turb":6357,"Ġlies":6358,"Ġnom":6359,"United":6360,"Ġsort":6361,"Ġconsistent":6362,"ĠMike":6363,"rawn":6364,"gence":6365,"Ġap":6366,"ĠConf":6367,"but":6368,"Ġmaps":6369,"Ġinh":6370,"1941":6371,"ĠGar":6372,"Ġlargely":6373,"tty":6374,"Ġgenus":6375,"Ġanyone":6376,"Ġ_{":6377,"Trans":6378,"Ġcombination":6379,"ĠGirl":6380,"Ġflu":6381,"textrm":6382,"wer":6383,"amber":6384,"Ġcircum":6385,"Ġtechnical":6386,"orship":6387,"Art":6388,"lines":6389,"Ġcreation":6390,"Ġvacc":6391,"then":6392,"Ġfine":6393,"Ġmorning":6394,"Ġonto":6395,"Ġfunds":6396,"ĠScottish":6397,"ava":6398,"ĠFund":6399,"Ġagency":6400,"ĠInformation":6401,"1946":6402,"Ġentry":6403,"Ġdisapp":6404,"iest":6405,"Ġcrew":6406,"aped":6407,"Ġvehicle":6408,"Ġaccepted":6409,"aturday":6410,"Ġtruth":6411,"ĠBecause":6412,"IP":6413,"Ġestate":6414,"Ġlearned":6415,"onia":6416,"Ġlaunch":6417,"Ġabsol":6418,"ĠĠĠĠĠĠĠĠĠĠĠĠĠĠĠ":6419,"Ġbenefit":6420,"ĠGre":6421,"Ġobvious":6422,"1943":6423,"dr":6424,"osis":6425,"Ġsoldiers":6426,"ĠĠĠĠĠĠĠĠĠ":6427,"Ġretain":6428,"stone":6429,"Ġsubsequently":6430,"Sub":6431,"ĠJean":6432,"1955":6433,"ĠPrime":6434,"ĠStand":6435,"Ġanswer":6436,"Brit":6437,"Ġdescription":6438,"ĠJon":6439,"1947":6440,"Rep":6441,"ĠPakistan":6442,"Ġsecret":6443,"Ġemphas":6444,"Ġcomparison":6445,"Ġrecognized":6446,"Ġagric":6447,"Ġacts":6448,"Here":6449,"Ġspaces":6450,"Ġstandards":6451,"Ġtend":6452,"Ġapparent":6453,"gency":6454,"ĠFamily":6455,"Ġformula":6456,"Ġcommunication":6457,"Ġneighborhood":6458,"Ġmachine":6459,"occer":6460,"Ġwall":6461,"Ġclubs":6462,"enger":6463,"Ġidentify":6464,"Ġsupply":6465,"Ġsuggested":6466,"SA":6467,"iar":6468,"Ġconfig":6469,"Ġmessage":6470,"ĠGuard":6471,"ĠLim":6472,"jection":6473,"ĠColor":6474,"iec":6475,"omer":6476,"Ġroll":6477,"akh":6478,"Ġextension":6479,"ederation":6480,"Ġlanguages":6481,"ĠNig":6482,"irus":6483,"Sim":6484,"Ġpull":6485,"Ġlett":6486,"CH":6487,"osure":6488,"Bi":6489,"Ġhar":6490,"Ġproved":6491,"osophy":6492,"Ġflat":6493,"1952":6494,"ĠAlexander":6495,"Ġslightly":6496,"Ġtechniques":6497,"Ġwinner":6498,"DF":6499,"EE":6500,"ricts":6501,"ĠGame":6502,"1954":6503,"ulf":6504,"ĠFace":6505,"^-":6506,"know":6507,"Ġnearby":6508,"Ġcompact":6509,"Ġcarri":6510,"Ġfeet":6511,"Ġroles":6512,"Ġsubstant":6513,"ji":6514,"Ġcriminal":6515,"ĠMinn":6516,"Ġexerc":6517,"ĠMaster":6518,"Ġfil":6519,"ennes":6520,"ellar":6521,"{}":6522,"ĠCorporation":6523,"}^{-":6524,"ĠCommon":6525,"Ġcars":6526,"Ġterror":6527,"ĠCa":6528,"ĠGlobal":6529,"ĠIndust":6530,"igation":6531,"Ġrural":6532,"Ġmode":6533,"uled":6534,"Ġchance":6535,"Ġbomb":6536,"ifications":6537,"ĠCorps":6538,"Ġflux":6539,"uracy":6540,"ĠSports":6541,"multicol":6542,"Ġserves":6543,"linear":6544,"dney":6545,"Ġcontained":6546,"Ġdamage":6547,"Ġengineering":6548,"Ġshowing":6549,"orb":6550,"ĠWilson":6551,"Ġcycl":6552,"Ġskills":6553,"Ġfloor":6554,"aug":6555,"Ġcommit":6556,"Ġgauge":6557,"Ġstring":6558,"ulpt":6559,"multicolumn":6560,"fe":6561,"sch":6562,"Ġbridge":6563,"apping":6564,"Ġmole":6565,"Ġfigures":6566,"Ġhappened":6567,"ĠEqu":6568,"Ġweb":6569,"Ġplanned":6570,"ĠBoy":6571,"idth":6572,"Ġregime":6573,"Ġorganized":6574,"Ġfacility":6575,"Ġcontaining":6576,"tail":6577,"ĠPubl":6578,"athan":6579,"minus":6580,"Ġresident":6581,"Ġchain":6582,"Ġprovince":6583,"this":6584,"Ġcurve":6585,"Ġinterests":6586,"Ġmarg":6587,"Ġ$\\{":6588,"thur":6589,"Ġperhaps":6590,"Ġmeasured":6591,"Ġphen":6592,"ms":6593,"ĠClark":6594,"Ġdifferences":6595,"subseteq":6596,"pre":6597,"ĠLew":6598,"Ġperman":6599,"Ð¸":6600,"ĠBerlin":6601,"Ġtesting":6602,"ĠBBC":6603,"adelph":6604,"Ġaffected":6605,"illing":6606,"rass":6607,"ĠCirc":6608,"1953":6609,"Ġdivided":6610,"Ġfootballer":6611,"Ġexperi":6612,"inton":6613,"Med":6614,"Ġsamples":6615,"{$":6616,"esota":6617,"Ġhear":6618,"antry":6619,"Ðµ":6620,"Ġurban":6621,"idel":6622,"Ġjustice":6623,"Ġnewspaper":6624,"type":6625,"Ġring":6626,"ĠRod":6627,"1949":6628,"Ġfifth":6629,"ĠOntario":6630,"Ġassociation":6631,"Ġ\\;":6632,"background":6633,"Ġindustrial":6634,"Ġnotes":6635,"active":6636,"ĠJesus":6637,"Ġpolynom":6638,"Ã±":6639,"ln":6640,"obs":6641,"xy":6642,"ĠBell":6643,"Ġexperiments":6644,"aren":6645,"Ġprote":6646,"rog":6647,"EM":6648,"Ġign":6649,"Ġpra":6650,"Ġallowing":6651,"ĠWell":6652,"ĠTaylor":6653,"idden":6654,"Ġuns":6655,"Ġheight":6656,"DP":6657,"Ġdrop":6658,"ais":6659,"Ġcontrovers":6660,"bec":6661,"Ġencourag":6662,"amil":6663,"asks":6664,"Ġbaseball":6665,"etherlands":6666,"ogs":6667,"Ġnar":6668,"water":6669,"weet":6670,"Ġexpand":6671,"zech":6672,"Ġcoal":6673,"itely":6674,"Ġincreases":6675,"adelphia":6676,"Ġfinding":6677,"nic":6678,"Ġhuge":6679,"<\\":6680,"Ġfailure":6681,"Ġhydro":6682,"ĠChris":6683,"IG":6684,"rastructure":6685,"Ġalongside":6686,"Ġsections":6687,"ĠĠĠĊ":6688,"ĠRevolution":6689,"Ġcandidates":6690,"ĠUl":6691,"RC":6692,"Ġoccurred":6693,"ĠMond":6694,"ĠPrize":6695,"ĠDisc":6696,"icial":6697,"Ġassistant":6698,"Ġemission":6699,"ĠPen":6700,"TC":6701,"Ġscatter":6702,"Ġbeat":6703,"omorphism":6704,"ĠStation":6705,"SC":6706,"Ġathlet":6707,"ION":6708,"Pop":6709,"ois":6710,"Ġbudget":6711,"Ġdoll":6712,"multi":6713,"Ġlayer":6714,"ĠNY":6715,"enses":6716,"ader":6717,"Ġcalls":6718,"atters":6719,"ĠBrad":6720,"Ġsplit":6721,"har":6722,"Ġstatistics":6723,"Ġfellow":6724,"ĠCat":6725,"Ġdistingu":6726,"Ġepisodes":6727,")|":6728,"They":6729,"rieved":6730,"Ġnor":6731,"una":6732,"Ġplants":6733,"Ġdefense":6734,"Ġassigned":6735,"Ġexecut":6736,"Ġwidth":6737,"RO":6738,"ĠUs":6739,"Theta":6740,"atically":6741,"Ġleaves":6742,"ĠIslands":6743,"Ġvariable":6744,"Ġrestaur":6745,"Ġviews":6746,"Ġexpert":6747,"Ġprotest":6748,"antic":6749,"urer":6750,"Ġtraffic":6751,"Ġdescent":6752,"Ġunf":6753,"Ġexplained":6754,"May":6755,"Ġpersp":6756,"1951":6757,"Ġrough":6758,"ĠFriday":6759,"ĠPolicy":6760,"ĠRailway":6761,"Ġclean":6762,"ĠRog":6763,"Ġpicture":6764,"}/":6765,"Ġprocedure":6766,"Ġgain":6767,"iary":6768,"ĠLater":6769,"ĠIss":6770,"}'":6771,"anging":6772,"Ġdual":6773,"Ġbottom":6774,"ounce":6775,"rank":6776,"ĠVictoria":6777,"edding":6778,"ĠWeek":6779,"ĠElizabeth":6780,"Ġjobs":6781,"holds":6782,"ĠCorn":6783,"ourney":6784,"Å¡":6785,"Ġenem":6786,"ĠConstitution":6787,"Ġhistoric":6788,"ĠEnergy":6789,"rons":6790,"Ġbounded":6791,"pan":6792,"ĠRome":6793,"lyn":6794,"arry":6795,"Ġgraduated":6796,"prod":6797,"rie":6798,"ĠAuthor":6799,"ĠVill":6800,"SU":6801,"asure":6802,"ego":6803,"Ġadvert":6804,"Ġmassive":6805,"vin":6806,"ĠBu":6807,"%)":6808,"Ġopinion":6809,"Ġbelief":6810,"_*":6811,"Ġchallenges":6812,"Ġdial":6813,"bigg":6814,"hu":6815,"sey":6816,"Ġdiagram":6817,"ĠKorean":6818,"eless":6819,"ĠToronto":6820,"ĠCub":6821,"oster":6822,"Ġflight":6823,"^{-\\":6824,"ĠPers":6825,"raine":6826,"Ġapproved":6827,"ĠEst":6828,"Ġsides":6829,"Ġchemical":6830,"Ġsynt":6831,"Ġven":6832,"ĠAsh":6833,"Ġdynamics":6834,"Ġjudge":6835,"iples":6836,"ruit":6837,"igrants":6838,"udes":6839,"ĠChristmas":6840,"ĠBa":6841,"Ġcool":6842,"ĠBol":6843,"ĠThree":6844,"Ġcycle":6845,"Ġhockey":6846,"Ġopportunities":6847,"Some":6848,"Ġdomestic":6849,"Ġeastern":6850,"Ġinstitution":6851,"ĠBand":6852,"Ġadministrative":6853,"Ġmotor":6854,"Ġvon":6855,"Ġid":6856,"ĠCreek":6857,"aver":6858,"Ġexperimental":6859,"care":6860,"ĠWho":6861,"ĠMoreover":6862,"Ġtransferred":6863,"ogen":6864,"Ġanimals":6865,"Ġcooper":6866,"seud":6867,"footnote":6868,"SE":6869,"ĠOlympic":6870,"ĠKar":6871,"Ġerr":6872,"Ġadvance":6873,"Ġ$|":6874,"owa":6875,"aph":6876,"oplus":6877,"odd":6878,"ĠArgent":6879,"ĠAvenue":6880,"Ġconvert":6881,"onsin":6882,"throp":6883,"urches":6884,"lywood":6885,"ewidth":6886,"command":6887,"Ġentertain":6888,"Ġbegins":6889,"DE":6890,"Will":6891,"Ġfeaturing":6892,"ĠSher":6893,"Ġassumed":6894,"Ġagree":6895,"Ġinspired":6896,"mes":6897,"roduction":6898,"Ġbuy":6899,"pol":6900,"ĠPolish":6901,"120":6902,"ĠEvery":6903,"1918":6904,"isconsin":6905,"Ġwitness":6906,"ĠAk":6907,"uted":6908,"Ġdance":6909,"perial":6910,"leep":6911,"AF":6912,"SO":6913,"ĠPlan":6914,"ĠAM":6915,"SR":6916,"ĠTrust":6917,"ferred":6918,"Ġreject":6919,"Ġcreat":6920,"Ġwealth":6921,"texttt":6922,"}}_{":6923,"Ġpoly":6924,"aska":6925,"ĠLabor":6926,"cond":6927,"dist":6928,"mat":6929,"ĠWalk":6930,"Ġpartnership":6931,"ĠInternet":6932,"Ġnegot":6933,"Ġdanger":6934,"Ġdivers":6935,"His":6936,"ĠFire":6937,"Ġparticles":6938,"El":6939,"ĠPhys":6940,"Ġtrained":6941,"ĉĉĉ":6942,"Ġprepar":6943,"writer":6944,"lers":6945,"Ġpowers":6946,"Ġadvantage":6947,"Ġrecip":6948,"Ġprincipal":6949,"Ġcommonly":6950,"ĠExecutive":6951,"Ġreligion":6952,"Ġlatest":6953,"ictures":6954,"Ġclassification":6955,"rics":6956,"Ġgranted":6957,"}~~":6958,"Ġcampus":6959,"yo":6960,"utt":6961,"ayer":6962,"opping":6963,"Ġbehavi":6964,"Ġprominent":6965,"ĠAst":6966,"ĠFair":6967,"Ġaccomp":6968,"ĠLight":6969,"ori":6970,"Ġ($\\":6971,"Ġinjury":6972,"ĠAnother":6973,"Ġil":6974,"setminus":6975,"ĠObama":6976,"Ġtrend":6977,"Ġtells":6978,"Ġwarn":6979,"alg":6980,"Ġappearances":6981,"Ġtypical":6982,"Ġcommitted":6983,"1936":6984,"Gu":6985,"apore":6986,"Ġcredit":6987,"Ġstable":6988,"lation":6989,"onent":6990,"ĠKim":6991,"ĠST":6992,"iplom":6993,"Ġfix":6994,"Ġtwice":6995,"Ġexcit":6996,"British":6997,"Ġtaught":6998,"ĠEngineering":6999,"Ġcontemporary":7000,"display":7001,"Ġalleged":7002,"peror":7003,"istical":7004,"inder":7005,"Ġpolar":7006,"Ġoccurs":7007,"Ġmunicipality":7008,"ĠSu":7009,"ĠâĢ¦":7010,"hol":7011,"Ġfundamental":7012,"ĠRom":7013,"Ġmanner":7014,"Ġconcerns":7015,"ĠSydney":7016,"Ġthousands":7017,"Ġvehicles":7018,"Mod":7019,"Ġsolo":7020,"forcement":7021,"ĠCEO":7022,"ĠReport":7023,"stream":7024,"ĠPlaces":7025,"chen":7026,"Ġspecifically":7027,"HS":7028,"rizona":7029,"Ġadm":7030,"attice":7031,"emeter":7032,"riend":7033,"Ġsyn":7034,"Ġorders":7035,"_{(":7036,"Ġsurrounding":7037,"hips":7038,"Ġpure":7039,"wedge":7040,"Ġjur":7041,"Ġ(-":7042,"UN":7043,"ĠSaturday":7044,"Ġhero":7045,"iner":7046,"Ġgalaxies":7047,"ĠBon":7048,"Ġaccur":7049,"Ġarts":7050,"Ġmental":7051,"ĠCambridge":7052,"endment":7053,"free":7054,"quarters":7055,"\\}":7056,"Ġpromoted":7057,"utenant":7058,"ocracy":7059,"Ġsymmetry":7060,"Ġconstitution":7061,"ĠKel":7062,"Ġrecommend":7063,"ĠSa":7064,"ĠAirport":7065,"Ġsomew":7066,"Ġdeclared":7067,"heim":7068,"sex":7069,"_+":7070,"Ġ$[":7071,"ogy":7072,"rapy":7073,"Ġlocations":7074,"ĠFree":7075,"ĠRout":7076,"Ġfaculty":7077,"ĠHig":7078,"Ġsettlement":7079,"lav":7080,"Ġvotes":7081,"Ġphysic":7082,"Ġvary":7083,"mosp":7084,"Ġguarant":7085,"opher":7086,"Ġinequality":7087,"ĠNetherlands":7088,"Ġspons":7089,"Ġapproaches":7090,"ĠIN":7091,"Ġsupporting":7092,"ĠMinnesota":7093,"asi":7094,"ĠTit":7095,"ĠDesign":7096,"Ġsafe":7097,"Ġfalse":7098,"Ġefficient":7099,"otted":7100,"Ġpit":7101,"ĠJews":7102,"scape":7103,"urd":7104,"Ġprogramming":7105,"anges":7106,"}},":7107,"atial":7108,"1938":7109,"Ġstrongly":7110,"pping":7111,"Ġincident":7112,"linewidth":7113,"Ġmusicians":7114,"Ġthinking":7115,"Ġcharged":7116,"Dr":7117,"Ġdevice":7118,"Ġdetailed":7119,"MP":7120,"olitan":7121,"Ġmarked":7122,"Ġcrow":7123,"Ġ~~\\":7124,"ieg":7125,"Ġdoctor":7126,"Ġreviews":7127,"Ġessential":7128,"Ġeducational":7129,"ĠDespite":7130,"ĠCre":7131,"Ġelimin":7132,"Ġbiggest":7133,"Year":7134,"ronic":7135,"Ġadvanced":7136,"ĠSteve":7137,"bound":7138,"anna":7139,"Ġdocuments":7140,"Ġdegrees":7141,"jo":7142,"net":7143,"asters":7144,"orders":7145,"ĠWars":7146,"chestra":7147,"ibliography":7148,"Ġretire":7149,"ĠAN":7150,"Ġbrain":7151,"Ġfiled":7152,"utation":7153,"cho":7154,"hand":7155,"ĠSanta":7156,"Ġahead":7157,"Ġthick":7158,"Ġspok":7159,"Ġfighting":7160,"textbullet":7161,"Pre":7162,"Ġnarrow":7163,"Ġcerem":7164,"ĠLike":7165,"Ġcharges":7166,"Ġmomentum":7167,"ĠMain":7168,"llap":7169,"Ġspot":7170,"University":7171,"olis":7172,"ieces":7173,"rene":7174,"Par":7175,"Per":7176,"ĠRen":7177,"ropical":7178,"ĠÅ":7179,"pson":7180,"eman":7181,"ĠKansas":7182,"zen":7183,"Ġrecognition":7184,"Ġfiction":7185,"ĠDun":7186,"iated":7187,"Ġhousehold":7188,"ivial":7189,"Ġprofession":7190,"ĠHence":7191,"ĠInvest":7192,"Tr":7193,"clusive":7194,"Ġcaptured":7195,"ĠVen":7196,"LC":7197,"bro":7198,"dec":7199,"ĠDavis":7200,"ĠMember":7201,"Ġhappen":7202,"ĠAffairs":7203,"Ġori":7204,"onav":7205,"Ġextremely":7206,"Ġpal":7207,"Ġpropag":7208,"Ġframe":7209,"ingly":7210,"ĠFox":7211,"')":7212,"ordan":7213,"Ġheav":7214,"Ġbeautiful":7215,"Ġpractices":7216,"TA":7217,"rows":7218,"Ġparticle":7219,"Ġspring":7220,"1937":7221,"ĠPhiladelphia":7222,"Ġinvolving":7223,"regon":7224,"ĠCur":7225,"Ġoppos":7226,"Ġsqu":7227,"Back":7228,"Ġintegral":7229,"ĠEth":7230,"ING":7231,"vard":7232,"ĠBeach":7233,"dagger":7234,"omy":7235,"Ġ;":7236,"Ġparallel":7237,"ĠBudd":7238,"ingham":7239,"ĠHay":7240,"ĠLo":7241,"Ġformat":7242,"General":7243,"disc":7244,"Ġtele":7245,"Ġsuggests":7246,"Ġestimates":7247,"Ġrich":7248,"Ġrepresentative":7249,"Ġlie":7250,"Ġhearing":7251,"Ġtermin":7252,"Ġreduction":7253,"Ġparticipated":7254,"Ġperformances":7255,"Ġsecondary":7256,"ga":7257,"irt":7258,"Ġofficially":7259,"Ġsuffered":7260,"Ġmunicipal":7261,"Ġsan":7262,"Ġsculpt":7263,"Ġdestroyed":7264,"ĠAnton":7265,"ĠWisconsin":7266,"ĠNaz":7267,"Ġutil":7268,"ÅĤ":7269,"ache":7270,"ĠForest":7271,"Dem":7272,"const":7273,"Ġresulted":7274,"orage":7275,"ĠHoward":7276,"ifer":7277,"Ġheat":7278,"PC":7279,"ersion":7280,"Ġtun":7281,"Ġlibrary":7282,"Ġtor":7283,"ĠPoint":7284,"Reg":7285,"ĠFollowing":7286,"rator":7287,"Ġload":7288,"break":7289,"Ġphenomen":7290,"eting":7291,"Ġimproved":7292,"Ġaccuracy":7293,"Ġplanet":7294,"Ġiter":7295,"run":7296,"Austral":7297,"Ġfuel":7298,"Ġly":7299,"Ġsilver":7300,"eral":7301,"Ġperforming":7302,"inding":7303,"Ġaband":7304,"Ġterritory":7305,"Ġpublication":7306,"Over":7307,"Ġdistributed":7308,"ses":7309,"bourne":7310,"rehens":7311,"Ġflag":7312,"Cons":7313,"Ġwants":7314,"ication":7315,"World":7316,"Ġcoverage":7317,"Ġpretty":7318,"Ġtrees":7319,"Ġisol":7320,"hetic":7321,"Ġfounder":7322,"Ġhomes":7323,"Ġacknow":7324,"Ġemployed":7325,"param":7326,"RS":7327,"Ġitems":7328,"evin":7329,"Ġsustain":7330,"Ġaccident":7331,"Ġfish":7332,"Ġdepends":7333,"Ã¡n":7334,"ĠLady":7335,"ubb":7336,"ĠWrit":7337,"ĠEnvironment":7338,"Ġpages":7339,"Ġcosm":7340,"Ġproport":7341,"South":7342,"VD":7343,"iga":7344,"Ġamb":7345,"\\\\\\\\\\\\\\\\\\\\\\\\\\\\\\\\\\\\\\\\\\\\\\\\\\\\\\\\\\\\\\\\\\\\\\\\\\\\\\\\\\\\\\\\\\\\\\\\\\\\\\\\\\\\\\\\\\\\\\\\\\\\\\\\":7346,"Ġreceiving":7347,"using":7348,"Ġbond":7349,"{$\\":7350,"Ġcompeted":7351,"arts":7352,"aints":7353,")\\,":7354,"ympt":7355,"Ġultimately":7356,"eli":7357,"ĠVis":7358,"Members":7359,"ollary":7360,"ami":7361,"onavirus":7362,"Ġminim":7363,"ĠStephen":7364,"Ġyounger":7365,"Ġcircumst":7366,"ĠAdministration":7367,"Ġexpanded":7368,"Ġsac":7369,"ĠTal":7370,"Ġcollected":7371,"Ġraces":7372,"worth":7373,"Ġconstitu":7374,"Ġopposition":7375,"wing":7376,"Ġhour":7377,"Ġcalculated":7378,"Ġhoriz":7379,"Ġcomments":7380,"Ġrepro":7381,"ooking":7382,"ĠChildren":7383,"Ġaspects":7384,"Ġassumption":7385,"Ġchampion":7386,"Ġlegislation":7387,"Ġresponsibility":7388,"Ġsail":7389,"Ġdriving":7390,"aret":7391,"),\\":7392,"Although":7393,"onym":7394,"Ġfashion":7395,"ilation":7396,"Ġsubsequent":7397,"Ġtitles":7398,"Ġaf":7399,"ĠTurkey":7400,"Ġnewly":7401,"1917":7402,"ĠColorado":7403,"Music":7404,"ĠGro":7405,"ĠWat":7406,"Ġstress":7407,"Ġmedian":7408,"ĠTok":7409,"ĠRon":7410,"ĠMic":7411,"001":7412,"Ġdescribes":7413,"ĠDonald":7414,"Ġremov":7415,"obe":7416,"Ġinstruct":7417,"Â°":7418,"Ġsale":7419,"Ġdecisions":7420,"Ġgirls":7421,"Ġnumerical":7422,"icip":7423,"Ġvess":7424,"Ġends":7425,"ĠForeign":7426,"$_":7427,"inking":7428,"deg":7429,"ĠDuke":7430,"ĠAbout":7431,"Ġintroduce":7432,"Ġ}\\":7433,"250":7434,"Ġmeasurements":7435,"Ġsav":7436,"limits":7437,"Ġpun":7438,"ĠQueens":7439,"Ġexcell":7440,"Ġexplain":7441,"La":7442,"Ġideal":7443,"Ġdelay":7444,"othing":7445,"Sport":7446,"ĠMill":7447,"Ġdocumentary":7448,"ghan":7449,"Sch":7450,"Ġgained":7451,"abil":7452,"ĠDown":7453,"Ġfile":7454,"ĠCle":7455,"Ġce":7456,"Ġcomposition":7457,"Ġburn":7458,"'ll":7459,"Ġscript":7460,"Ġportion":7461,"uties":7462,"ĠAtlantic":7463,"Ġvision":7464,"atus":7465,"Ġgender":7466,"ennessee":7467,"Ġoverl":7468,"ĠProposition":7469,"Ġentirely":7470,"Ġtwenty":7471,"ĠSon":7472,"ronze":7473,"Ġinner":7474,"Ġentitled":7475,"Ġprinciple":7476,"Ġconcert":7477,"Ġrom":7478,"Ġinn":7479,"ĠBad":7480,"Ac":7481,"irk":7482,"Ġfinds":7483,"ocol":7484,"tainment":7485,"1933":7486,"Nov":7487,"ĠPremier":7488,"Ġaid":7489,"Ġdecay":7490,"Ġstarts":7491,"black":7492,"Ġinfin":7493,"Exp":7494,"multirow":7495,"vements":7496,"ĠToday":7497,"ĠRegion":7498,"\\!\\!":7499,"Ġholding":7500,"600":7501,"Ġversions":7502,"Pol":7503,"Ġspectral":7504,"Ġtheore":7505,"1914":7506,"ĠAh":7507,"Ð½":7508,"ĠBooks":7509,"tan":7510,"ĠStadium":7511,"Ġarrested":7512,"ounsel":7513,"ĠBack":7514,"Ġvertex":7515,"Ġrepresenting":7516,"Ġclosely":7517,"Ġextensive":7518,"Ġloan":7519,"ĠHind":7520,"orrow":7521,"ĠRaj":7522,"print":7523,"Ġready":7524,"ĠJer":7525,"Ġmist":7526,"iffer":7527,"Ġrevolution":7528,"ĠLind":7529,"ĠMissouri":7530,"ĠLive":7531,"Ġdiagn":7532,"former":7533,"Ġmountain":7534,"ĠLegisl":7535,"ĠGree":7536,"aki":7537,"Ġpersons":7538,"Ġadvis":7539,"ĠFacebook":7540,"Ġmand":7541,"otional":7542,"Ġexternal":7543,"Ġhouseholds":7544,"Ġcauses":7545,"1935":7546,"Ġapproximation":7547,"Ġindicate":7548,"Ġoptimal":7549,"Ġodd":7550,"Ġfresh":7551,"duate":7552,"Ġdevices":7553,"ĠPrinc":7554,"Polit":7555,"Ġcertainly":7556,"ĠIndiana":7557,"áĥ":7558,"ĠSus":7559,"Ġelev":7560,"Ġparliament":7561,"ĠLes":7562,"ĠPalest":7563,"ĠGoogle":7564,"Ġnet":7565,"Ġcircle":7566,"endix":7567,"Ġpurchased":7568,"Part":7569,"1919":7570,"Ġnotable":7571,"normal":7572,"Ġhosted":7573,"coh":7574,"ĠArizona":7575,"Ġgreatest":7576,"ĠGolden":7577,"after":7578,"LS":7579,"ĠBrig":7580,"oln":7581,"Ġmotiv":7582,"Ġstrict":7583,"Ġdecade":7584,")}(":7585,":#":7586,"rane":7587,"ĠSweden":7588,"Ġpossibly":7589,"Ġradius":7590,"ĠCountry":7591,"low":7592,"Ġimplementation":7593,"Ġtools":7594,"PP":7595,"ĠAD":7596,"Ġunable":7597,"subfigure":7598,"ĠBrother":7599,"ĠFrancis":7600,"ĠSab":7601,"Me":7602,"Ġinstall":7603,"Ġtheme":7604,"emetery":7605,"ĠMarsh":7606,"ployment":7607,"Ġvice":7608,"Ġbands":7609,"Ġtrip":7610,"Ġadding":7611,"jan":7612,"html":7613,"ropy":7614,"oom":7615,"ĠBridge":7616,"ĠWed":7617,"Ġsymbol":7618,"Ġfinish":7619,"Ġfear":7620,"ĠTHE":7621,"emble":7622,"Ġdefeat":7623,"Ġhabit":7624,"inations":7625,"Ġwinners":7626,"ĠWeb":7627,"Ġconsidering":7628,"Ġilleg":7629,"Ġlosing":7630,"otal":7631,"ĠOtt":7632,"Ġfraction":7633,"uous":7634,"Ġdoor":7635,"irty":7636,"ĠReal":7637,"aligned":7638,"Ġwel":7639,"ĠDam":7640,"gg":7641,"ĠGreg":7642,"Ġfrequently":7643,"Ġextent":7644,"ĠLast":7645,"blue":7646,"ocated":7647,"Ġarms":7648,"Ġdriver":7649,"Ġchanging":7650,"Ġcustomers":7651,"Ġstone":7652,"Ġextract":7653,"Ġ|\\":7654,"weg":7655,"ureau":7656,"ogene":7657,"Ġflood":7658,"Ġampl":7659,"Ġcomplic":7660,"Jan":7661,"Ġlimits":7662,"}$}":7663,"Ġvolunte":7664,")/":7665,"main":7666,"encing":7667,"Net":7668,"annels":7669,"State":7670,"OC":7671,"Ġevalu":7672,"}{*":7673,"Ġrepeated":7674,"ĠCare":7675,"Ġpromote":7676,"Ġmedium":7677,"ĠDer":7678,"?âĢĿ":7679,"ĠHard":7680,"achelor":7681,"Ġsell":7682,"ifies":7683,"ĠHou":7684,"mad":7685,"Ġsun":7686,"Ġnob":7687,"Dav":7688,"igenous":7689,"tered":7690,"Ġcoupling":7691,"asty":7692,"_{{\\":7693,"Ġjump":7694,"AB":7695,"eness":7696,"cow":7697,"adian":7698,"Ġdiscrim":7699,"ĠData":7700,"Ġintelligence":7701,"ails":7702,"ĠOregon":7703,"Ġweapons":7704,"Ġcluster":7705,"erse":7706,"Ġreconst":7707,"ĠSpring":7708,"Ġdataset":7709,"LP":7710,"Ġpieces":7711,"Spec":7712,"cular":7713,"yal":7714,"Ġresearchers":7715,"rell":7716,"fficients":7717,"ĠHun":7718,"Ġperturb":7719,"yard":7720,"alysis":7721,"Ġagencies":7722,"Ġindeed":7723,"olid":7724,"1900":7725,"Ġassign":7726,"1934":7727,"Ġsave":7728,"1929":7729,"Ġpatient":7730,"ĠSingapore":7731,"osa":7732,"alion":7733,"Ġtalking":7734,"Ġexperiences":7735,"ĠDar":7736,"ĠHoly":7737,"ĠMilitary":7738,"Ġsatisfies":7739,"des":7740,"itionally":7741,"Ġcorner":7742,"Ġalt":7743,"Ġinfrastructure":7744,"Ġfan":7745,"ĠRegiment":7746,"ĠOfficer":7747,"Ġelectronic":7748,"HL":7749,"agues":7750,"Ġvot":7751,"Ġment":7752,"Ġoption":7753,"Ġgap":7754,"Ġattribut":7755,"ropolitan":7756,"ĠVice":7757,"iveness":7758,"ĠMonday":7759,"iversary":7760,"dt":7761,"ĠAssoci":7762,"Ġsuperv":7763,"lets":7764,"name":7765,"Ġsolar":7766,"ĠCzech":7767,"ĠLewis":7768,"ĠStock":7769,"Ġcloud":7770,"_{-":7771,"ighth":7772,"}~~{":7773,"ĠOfficial":7774,"Ġdepth":7775,"Disc":7776,"ĠIndones":7777,"OL":7778,"ĠBatt":7779,"oles":7780,"Ġedges":7781,"Ġrenew":7782,"1928":7783,"ĠIV":7784,"Ġtests":7785,"Ġsuccessfully":7786,"Ġdig":7787,"Ġ:=":7788,"Ġpainting":7789,"ĠMiller":7790,"aser":7791,"Ġeyes":7792,"Ġlooks":7793,"ĠThrough":7794,"ĠDC":7795,"Ġiron":7796,"Ġintern":7797,"andy":7798,"Ġkids":7799,"Ġcatal":7800,"izer":7801,"ĠMedicine":7802,"Ġherself":7803,"Ġcorresponds":7804,"III":7805,"Ġopposite":7806,"ĠSav":7807,"Ġbodies":7808,"Ã©e":7809,"Ġsegment":7810,"Ġparish":7811,"definition":7812,"lah":7813,"Ġquad":7814,"cious":7815,"Ġpossibility":7816,"1932":7817,"ĠMaryland":7818,"ĠBishop":7819,"Ġworldwide":7820,"Ġsym":7821,"rot":7822,"ĠArea":7823,"Ġconcerned":7824,"Ġtitled":7825,"ĠPriv":7826,"Ġturns":7827,"zz":7828,"Ġphone":7829,"Ġassistance":7830,"Ġstorm":7831,"Ġsimulations":7832,"ika":7833,"UR":7834,"Ġorb":7835,"Ġnovels":7836,"Ġletters":7837,"ursday":7838,"agan":7839,"ĠAthlet":7840,"oven":7841,"ĠBall":7842,"Ġaffect":7843,"arks":7844,"ĠSwedish":7845,"Ġexperienced":7846,"Ġtransformation":7847,"Ġprime":7848,"Ġatmosp":7849,"ĠPM":7850,"organ":7851,"ĠAC":7852,"overty":7853,"cases":7854,"spect":7855,"Ġsubt":7856,"Ġmathemat":7857,"Ġseek":7858,"outheast":7859,"establ":7860,"ancer":7861,"called":7862,"1910":7863,"Ġke":7864,"Ġattempts":7865,"Ġwarm":7866,"Ġresid":7867,"ĠGer":7868,"Ġindicates":7869,"ĠBru":7870,"ifts":7871,"Ġanimal":7872,"ÑĢ":7873,"Ġgone":7874,"BI":7875,"ĠCaptain":7876,"Ġsevent":7877,"Ġswim":7878,"such":7879,"Personal":7880,"bal":7881,"ĠMemorial":7882,"ĠRoss":7883,"met":7884,"ĠSuch":7885,"apes":7886,"ĠAdv":7887,"Ġpiano":7888,"Ġangle":7889,"Ġexec":7890,"Ġprovinc":7891,"ĠAud":7892,"Ġintroduction":7893,"ĠTennessee":7894,"uther":7895,"file":7896,"asket":7897,"erves":7898,"rices":7899,"Ġcaptain":7900,"ĠGallery":7901,"Ġcovers":7902,"ĠOcean":7903,"Ġeye":7904,"uccess":7905,"Ġvent":7906,"Ġmechanism":7907,"ĠIslamic":7908,"'_":7909,"}}(\\":7910,"Ġsought":7911,"Ġinteractions":7912,"Ġoblig":7913,"Ġdetection":7914,"eties":7915,"ĠVietnam":7916,"gers":7917,"Ġregistered":7918,"outs":7919,"nesday":7920,"Ġprocessing":7921,"Figure":7922,"Ġhall":7923,"Ġtowns":7924,"ĠMedal":7925,"antly":7926,"ĠPit":7927,"ĠAdam":7928,"Ġopposed":7929,"Ġpassing":7930,"Ġovers":7931,"Ġgovernor":7932,"Ġstatements":7933,")_{":7934,")^{\\":7935,"}%":7936,"Ġpresidential":7937,"Ġmarkets":7938,"isd":7939,"ĠHal":7940,"International":7941,"Ġcarbon":7942,"ĠHart":7943,"isa":7944,"also":7945,"bin":7946,"Hz":7947,"onal":7948,"Ġdie":7949,"aga":7950,"Ġabuse":7951,"icide":7952,"lementary":7953,"Sm":7954,"Ġinsurance":7955,"Ġexpatriate":7956,"ĠFinal":7957,"uzz":7958,"ownt":7959,"ĠMarg":7960,"ĠMaria":7961,"shift":7962,"Ġcalling":7963,"Ġending":7964,"Ġagents":7965,"Ġjournalist":7966,"ĠBat":7967,"uesday":7968,"'\\":7969,"Ġveter":7970,"ĠHan":7971,"ĠMoh":7972,"umes":7973,"Ġcab":7974,"case":7975,"Ġregulations":7976,"colon":7977,"Ġdepending":7978,"Ġreaction":7979,"Ġrelationships":7980,"Ġyards":7981,"hedral":7982,"iden":7983,"ĠSat":7984,"Ġdebate":7985,"everal":7986,"Ġoccasion":7987,"Ġhelping":7988,"Rel":7989,"Ġpairs":7990,",\\,":7991,"Ġprepared":7992,"ĠRetrieved":7993,"Ġpush":7994,"ĠWinter":7995,"kes":7996,"oses":7997,"iamond":7998,"Ġpoet":7999,"ilib":8000,"Ġvisited":8001,"usal":8002,"ĠSerb":8003,"Ġdistricts":8004,"}~~{}$\\":8005,"ivals":8006,"ĠAnth":8007,"Ġconvent":8008,"Ġtreated":8009,";\"":8010,"ĠOrig":8011,"ĠAgain":8012,"watch":8013,"ellect":8014,"rium":8015,"800":8016,"Ġnodes":8017,"grad":8018,"keep":8019,"dy":8020,"ĠÎ":8021,"âĢħ":8022,"Ġtick":8023,"ĠFord":8024,"Ġchapter":8025,"Ġrefuge":8026,"Ġregul":8027,"ĠStory":8028,"Ġsimulation":8029,"ello":8030,"Ġoptions":8031,"OP":8032,"Ġwonder":8033,"ibr":8034,"urop":8035,"Ġmodes":8036,"ĠPass":8037,"Work":8038,"Ġsoci":8039,"acter":8040,"Ġec":8041,"ompl":8042,"itzerland":8043,"ĠArk":8044,"Ġcourts":8045,"ĠCas":8046,"Ġprogramme":8047,"abled":8048,"1922":8049,"uv":8050,"****":8051,"thew":8052,"Ġgall":8053,"Ġunless":8054,"essed":8055,"=-":8056,"Ġranked":8057,"function":8058,"Christ":8059,"Ġperspective":8060,"pool":8061,"1924":8062,"1931":8063,"Ġusual":8064,"ĠSem":8065,"vex":8066,"ĠHo":8067,"Ġscientists":8068,"abama":8069,"Ä±":8070,"istant":8071,"ocratic":8072,"amely":8073,"ĠStaff":8074,"ĠModern":8075,"Ġtechnique":8076,"Ġpurchase":8077,"Eq":8078,"ĠAnderson":8079,"anchester":8080,"ĠArthur":8081,"including":8082,"ĠCommunic":8083,"Ġemployment":8084,"iang":8085,"Ġscheduled":8086,"Ġmort":8087,"abase":8088,"EP":8089,"ĠJoh":8090,"Ġcorrelation":8091,"forall":8092,"Ġconstraints":8093,"Ġmobile":8094,"1927":8095,"Ġcart":8096,"Ġvictims":8097,"ruption":8098,"Ġadjust":8099,"Ġlattice":8100,"Ġsuff":8101,"enna":8102,"ni":8103,"Ã£":8104,"ographer":8105,"Ġvertices":8106,"Ġdesignated":8107,"Ġseeing":8108,"*{":8109,"anga":8110,"Ġpermanent":8111,"ĠAbb":8112,"escription":8113,"ordon":8114,"yers":8115,"vo":8116,"Ġbought":8117,"DS":8118,"Ġrein":8119,"Ġengineer":8120,"ĠIns":8121,"Ġguard":8122,"Ġcurves":8123,"Ġfestival":8124,"Ġjourney":8125,"inals":8126,"Ġmorph":8127,"Ġacceler":8128,"ĠEric":8129,"ectors":8130,"Ġadult":8131,"Ġcollaboration":8132,"bel":8133,"ĠKal":8134,"Ġcapture":8135,"aded":8136,"acent":8137,"Ġhotel":8138,"key":8139,"Ġglass":8140,"Women":8141,"Ã¸":8142,"engers":8143,"Ġrent":8144,"ĠFederation":8145,"wealth":8146,"elson":8147,"ĠFinally":8148,"ĠCastle":8149,"Ġthank":8150,"Inter":8151,"Ġdiplom":8152,"}$-":8153,"Ġcircumstances":8154,"Ġlooked":8155,"ĠUkraine":8156,"Ġgraduate":8157,"Ġchairman":8158,"ĠRepresentatives":8159,"Ġrefused":8160,"Ġcoefficients":8161,"duces":8162,"herent":8163,"ĠOnly":8164,"Ġdropped":8165,"incoln":8166,"\\'":8167,"ĠMountain":8168,"Ġstands":8169,"zero":8170,"ĠOs":8171,"Ġargued":8172,"1000":8173,"ĠAfghan":8174,"Ġpip":8175,"sible":8176,"Ġseats":8177,"Ġaffili":8178,"Ġbright":8179,"ĠIowa":8180,"ogether":8181,"Ġcompris":8182,"Ġcold":8183,"Ġdrawn":8184,"ĠLeon":8185,"reshold":8186,"hr":8187,"IF":8188,"ĠNFL":8189,"Ġ_":8190,"Ġsession":8191,"Ġbroken":8192,"OM":8193,"Ġteachers":8194,"iki":8195,"ĠTa":8196,"anes":8197,"Ġcopies":8198,"omic":8199,"Ġadvent":8200,"ectic":8201,"subsubsection":8202,"Ġsingular":8203,"Ġrugby":8204,"Ġcomposer":8205,"ci":8206,"Ġ+\\":8207,"ĠCommand":8208,"Ġwindow":8209,"UT":8210,"ĠTai":8211,"list":8212,"Ste":8213,"={":8214,"rice":8215,"ĠAlf":8216,"Ġbalance":8217,"Ġlect":8218,"Ġduty":8219,"Ġefficiency":8220,"ĠLev":8221,"avel":8222,"ologists":8223,"ĠSurvey":8224,"umin":8225,"Ġhappy":8226,"Ġsole":8227,"Ġwinter":8228,"1921":8229,"Ġchannels":8230,"ĠDor":8231,"ĠNorm":8232,"ĠBefore":8233,"opped":8234,"Ġaccompl":8235,"Ġtranslation":8236,"Ġexhibition":8237,"Ġindependence":8238,"Ġwrest":8239,"yself":8240,"ĠTurn":8241,"Ġreturning":8242,"ĠColon":8243,"ĠFurthermore":8244,"'.":8245,"Ġcombat":8246,"Ġspatial":8247,"Ġmonitor":8248,"Ġgoods":8249,"ĠHom":8250,"Ġphysics":8251,"Ġcontrolled":8252,":\\":8253,"orne":8254,"ushed":8255,"onents":8256,"Ġtheatre":8257,"Ġshock":8258,"ĠWin":8259,"Mr":8260,"wegian":8261,"ĠHollywood":8262,"Ġweather":8263,"\\|_{":8264,"ters":8265,"ptions":8266,"Ġsampl":8267,"ippi":8268,"ĠAge":8269,"Ã¢":8270,"1925":8271,"Ġmatters":8272,"101":8273,"png":8274,"Ġvide":8275,"Ġlisting":8276,"Ġretail":8277,"newcommand":8278,"Do":8279,"night":8280,"ĠHarry":8281,"uts":8282,"Ġliqu":8283,"Ġdenotes":8284,"itals":8285,"ĠPier":8286,"Ġwhereas":8287,"Bar":8288,"rr":8289,"Ġshares":8290,"ĠTransport":8291,"ĠMagazine":8292,"ĠMicro":8293,"rait":8294,"awn":8295,"Ġindicated":8296,"Ġsupposed":8297,"Ġcontributed":8298,"Ġgenerate":8299,"ibb":8300,"Ġcas":8301,"Ġrefers":8302,"ĠEntertainment":8303,"ĠSaf":8304,"ĠMoscow":8305,"1912":8306,"Ġstrain":8307,"=(":8308,"1923":8309,"Ġbow":8310,"omorphic":8311,"apel":8312,"ĠCost":8313,"Ġhighlight":8314,"ĠPeak":8315,"Ġmovies":8316,"ĠDefense":8317,"acts":8318,".~(\\":8319,"Ġparticipants":8320,"German":8321,"ĠPhilippines":8322,")^{-":8323,"Ġhumans":8324,"sto":8325,"Ġemergency":8326,"Ġdirectors":8327,"1916":8328,"western":8329,"Results":8330,"Ġstanding":8331,"Ġbringing":8332,"French":8333,"icon":8334,"Ġfaced":8335,"ĠBh":8336,"Ġowners":8337,"ĠOak":8338,"ribed":8339,"Ġhole":8340,"Ġvirus":8341,"lahoma":8342,"Ġraise":8343,"--------":8344,"ĠWhe":8345,"oding":8346,"Ġportray":8347,"Ġobservation":8348,"ĠVi":8349,"iti":8350,"iami":8351,"Ġrenamed":8352,"Ġplus":8353,"Ġconven":8354,"Ġphoto":8355,"ĠBush":8356,"ĠSenior":8357,"ĠMun":8358,"ĠâĢ¢":8359,"Ġeffectively":8360,"ĠJordan":8361,"ĠEarl":8362,"1926":8363,"ĠRoute":8364,"Ġwing":8365,"ĠSri":8366,"gar":8367,"merce":8368,"Ġkilling":8369,"profit":8370,"Ġpilot":8371,"Ġcorporate":8372,"roit":8373,"ĠCop":8374,"Ġoffering":8375,"found":8376,"Ġpray":8377,"Ġalgorithms":8378,"Association":8379,"ads":8380,"Thus":8381,"Ġdependence":8382,"1915":8383,"Ġlawyer":8384,"ĠMexican":8385,"Ġkid":8386,"Ġblog":8387,"Ġoptical":8388,"ups":8389,"leton":8390,"omot":8391,"ĠCab":8392,"atever":8393,"Ġengaged":8394,"iley":8395,"Ġdistributions":8396,"Ġsubstit":8397,"brid":8398,"Pres":8399,"Ġsend":8400,"imeq":8401,"Ġwins":8402,"roc":8403,"){\\":8404,"ĠOF":8405,"mouth":8406,"Ġobserve":8407,"Ġaccord":8408,"Ġtool":8409,"Ġban":8410,"Ġpenal":8411,"simeq":8412,"Ġcompute":8413,"SI":8414,"stood":8415,"Ġburied":8416,"Ġmeasurement":8417,"Ġphotograph":8418,"ĠNAS":8419,"ĠMP":8420,"Ġpapers":8421,"inema":8422,"Following":8423,"igious":8424,"ĠNick":8425,"ui":8426,"Ġconj":8427,"ĠAmb":8428,"Ġsatell":8429,"Supp":8430,"Ġvocal":8431,"Ġtru":8432,"ĠLtd":8433,"ĠAgency":8434,"ĠSquad":8435,"Ġreson":8436,"Ġmodified":8437,"ĠIsraeli":8438,"udden":8439,"}{*}{":8440,"Ġconclusion":8441,"Ġclinical":8442,"Ġfemales":8443,"bell":8444,"ĠTony":8445,"essions":8446,"!!":8447,"Ġguest":8448,"ĠPrim":8449,"Gl":8450,"hard":8451,"Ġhypothes":8452,"ipping":8453,"Cast":8454,"oured":8455,"Ġbrothers":8456,"Ġnone":8457,"Ġprotected":8458,"Ġexplo":8459,"pmatrix":8460,"Ġ\\(":8461,"ĠBuilding":8462,"Ġperm":8463,"Ġdebt":8464,"ĠAP":8465,"Ġfant":8466,"Ġnominated":8467,"iler":8468,"ĠFac":8469,"Ġsubsid":8470,"Ġ=\\":8471,"ĠHouston":8472,"Ġconfirm":8473,"Ġerrors":8474,"|}":8475,"Ġfoundation":8476,"Ġzone":8477,"stack":8478,"Ñģ":8479,"ĠKat":8480,"GA":8481,"ĠNev":8482,"Ġobjective":8483,"pc":8484,"enz":8485,"West":8486,"soft":8487,"Ġped":8488,"path":8489,"ĠEconomic":8490,"iations":8491,"ĠNorway":8492,"Ġaccounts":8493,"Ġdelivered":8494,"efe":8495,"ĠBalt":8496,"Ġcategories":8497,"ĠLiter":8498,"issippi":8499,"Ġclassic":8500,"Ġkick":8501,"power":8502,")}{\\":8503,"ĠBureau":8504,"Ġparticipate":8505,"br":8506,"Ġresc":8507,"Ġarbitrary":8508,"lan":8509,"$).":8510,"Ġcompens":8511,"ceived":8512,"Ġbroke":8513,"Ġcritics":8514,"iot":8515,"ML":8516,"ĠTig":8517,"erick":8518,"ultane":8519,"agonal":8520,"ĠBrian":8521,"Char":8522,"ĠAlabama":8523,"ĠPot":8524,"erts":8525,"model":8526,"Ġspending":8527,"Ġsurg":8528,"Ġdismiss":8529,"adow":8530,"ĠBrand":8531,"Section":8532,"Ġprovision":8533,"Ġracing":8534,"ĠAmong":8535,"ture":8536,"ĠRoll":8537,"phone":8538,"ĠOt":8539,"$(":8540,"Ġsurn":8541,"Ġorth":8542,"ĠSix":8543,"rehensive":8544,"offs":8545,"Ġaccused":8546,"ĠFood":8547,"ecticut":8548,"rine":8549,"ĠHop":8550,"ĠNon":8551,"Ġmarketing":8552,"ĠCase":8553,"ĠSimon":8554,"$^{-":8555,"Ġcruc":8556,"Ġbed":8557,"ĠJacob":8558,"Ġjoining":8559,"Ġcrowd":8560,"ĠTwitter":8561,"ĠLag":8562,"car":8563,"Ġoffices":8564,"Dist":8565,"cing":8566,"Ġscoring":8567,"ĠShort":8568,"ussion":8569,"ĠFront":8570,"Ġexceed":8571,"secutive":8572,"textsc":8573,"Biography":8574,"ĠLow":8575,"ymph":8576,"plete":8577,"Ġextend":8578,"Two":8579,"pass":8580,"rav":8581,"ĠCode":8582,"Ġhorse":8583,"ortunately":8584,"ĠThursday":8585,"ensed":8586,"Ġconcluded":8587,"Ġimplemented":8588,"inth":8589,")\\\\":8590,"Ġvo":8591,"uma":8592,"Ġmel":8593,"present":8594,"inction":8595,"ĠGrant":8596,"ĠWednesday":8597,"Ġfunctional":8598,"Ġshell":8599,"Ġscalar":8600,"ĠRoy":8601,"ĠObs":8602,"ĠTownship":8603,"Ġcalc":8604,"Ġris":8605,"NR":8606,"ĠMir":8607,"adi":8608,"Ġescape":8609,"Ġfranch":8610,"Ġattempted":8611,"Ġoldest":8612,"ĠRegional":8613,"ĠHighway":8614,"Ġwalls":8615,"Ġscenes":8616,"uster":8617,"ĠDiego":8618,"ĠRun":8619,"ĠNet":8620,"Ġretirement":8621,"neg":8622,"ĠSwitzerland":8623,"season":8624,"midrule":8625,"inv":8626,"Ġincreasingly":8627,"Ġhair":8628,"ĠModel":8629,"$$\\":8630,"Ġwish":8631,"Ġprovisions":8632,"hab":8633,"lik":8634,"reprene":8635,"ĠHand":8636,"ĠAmaz":8637,"Ġpool":8638,"MM":8639,"Ġgovernments":8640,"ĠStone":8641,"Ġreturns":8642,"CAA":8643,"'d":8644,"zh":8645,"Ġcenturies":8646,"William":8647,"^{+":8648,"Ġlit":8649,"illery":8650,"ĠGet":8651,"ted":8652,"Fe":8653,"Ġpartners":8654,"ĠTuesday":8655,"Ġmyself":8656,"ĠGreece":8657,"Ġroyal":8658,"Ãº":8659,"iability":8660,"rip":8661,"Ġjurisd":8662,"Ġprohib":8663,"ĠRose":8664,"Ġoperate":8665,"Ġconsisting":8666,"Ġtensor":8667,"Ġcamera":8668,"ouses":8669,"ommod":8670,"Ġyields":8671,"ÑĤ":8672,"Ġadvice":8673,"________":8674,"ĠKhan":8675,"ĠMatt":8676,"Ġcompare":8677,"actor":8678,"Ġtheoretical":8679,"Add":8680,"Ġinvariant":8681,"Theorem":8682,"Ġcreative":8683,"ĠMalays":8684,"Ġstrike":8685,"->":8686,"ĠCooper":8687,"apped":8688,"ĠGil":8689,"aux":8690,"rome":8691,"Ġnecessarily":8692,"ĠHur":8693,"1913":8694,"Ġstellar":8695,"ĠExper":8696,"Ġtail":8697,"opic":8698,"onna":8699,"Ġmagnitude":8700,"ĠConc":8701,"âĢĺ":8702,"stract":8703,"Ġstorage":8704,"Ġrevenue":8705,"Public":8706,"Ġurg":8707,"elect":8708,"glas":8709,"Ġproducing":8710,"Ġdrugs":8711,"Ġdecom":8712,"olar":8713,"Ġpremier":8714,"Ġhundreds":8715,"ĠBab":8716,"ques":8717,"Ġproposal":8718,"oyd":8719,"ĠKentucky":8720,"LO":8721,"Ġpreced":8722,"}}^":8723,"Ġsymmetric":8724,"Ġundert":8725,"Ġroot":8726,"ĠBaron":8727,"iration":8728,"conn":8729,"gener":8730,"Ġassault":8731,"ĠEs":8732,"ĠAlbert":8733,"enny":8734,"pet":8735,"ĠAlb":8736,"Ġminimal":8737,"ictional":8738,"ĠBah":8739,"Ġcash":8740,"Ġbanks":8741,"ĠAz":8742,"Ġpromotion":8743,"Ġprinciples":8744,"ĠManchester":8745,"Ġcovering":8746,"Ã£o":8747,"Ġgrid":8748,"Ġapprec":8749,"ernel":8750,"Ġintegrated":8751,"ĠFame":8752,"Ġgather":8753,"ĠLincoln":8754,"ĠTel":8755,"don":8756,"Ġstability":8757,"Ġresistance":8758,"BM":8759,"Ġreasonable":8760,"Ġspectra":8761,"End":8762,"two":8763,"##":8764,"Ġkil":8765,"idge":8766,"Ġconclude":8767,"Ġmanagers":8768,"olve":8769,"ishment":8770,"}^*":8771,"Ġabsence":8772,"%.":8773,"hered":8774,"Ġsettled":8775,"agh":8776,"Ġqualified":8777,"Ġuniversities":8778,"eh":8779,"Most":8780,"tah":8781,"uese":8782,"orig":8783,"Ġexclud":8784,"Ġdisk":8785,"Ġfeeling":8786,"Ġsatisfy":8787,"comes":8788,"Ġannounce":8789,"aza":8790,"ĠLank":8791,"Act":8792,"Ġmedicine":8793,"ĠAllen":8794,"()":8795,"Her":8796,"ĠMelbourne":8797,"dx":8798,"ĠJane":8799,"Ġdepos":8800,"Out":8801,"Ġcharacteristics":8802,"Song":8803,"Next":8804,"faces":8805,"friend":8806,"agen":8807,"Ġrecall":8808,"ĠDoctor":8809,"Ġlinked":8810,"Ġevaluation":8811,"Ġspeaking":8812,"Ġheadquarters":8813,"Ġtransmission":8814,"Ġintegration":8815,"formance":8816,"ito":8817,"Track":8818,"Ġhappens":8819,"Ġestablishment":8820,"ĠOnce":8821,"Ġeducated":8822,"ĠAT":8823,"Ġstream":8824,"pur":8825,"Ġinvited":8826,"ĠForces":8827,"Ġteen":8828,"ĠInstead":8829,"Another":8830,"Ġtempor":8831,"Olymp":8832,"Ġassets":8833,"Japan":8834,"bot":8835,"mma":8836,"ĠWolf":8837,"Ġsolve":8838,"ortion":8839,"Ġtasks":8840,"stan":8841,"Ġheavily":8842,"Ġpractical":8843,"ĠTen":8844,"ĠEc":8845,"ocese":8846,"Mon":8847,"})$.":8848,"Ġlocally":8849,"elve":8850,"Ġpatterns":8851,"ulner":8852,"Ġexplore":8853,"cha":8854,"ibilities":8855,"FT":8856,"apse":8857,"Ġseeking":8858,"issions":8859,"Ġsixth":8860,"ĠRa":8861,"lication":8862,"RI":8863,"ĠCall":8864,"angel":8865,"ilibrium":8866,"Ġpoverty":8867,"Ġconsecutive":8868,"incess":8869,"ĠDeath":8870,"Ġinterior":8871,"ynasty":8872,"Ġconnect":8873,"ĠSky":8874,"aire":8875,"Ġpolynomial":8876,"fficial":8877,"Ġsons":8878,"Ġphilosophy":8879,"Sing":8880,"Ġchurches":8881,"rett":8882,"ĠPC":8883,"ĠMunic":8884,"Ġvoted":8885,"Ġfounding":8886,"Ġchose":8887,"ĠConnecticut":8888,"à¸":8889,"LL":8890,"inian":8891,"Ġarc":8892,"theless":8893,"ĠJam":8894,"ĠHarvard":8895,"Ġreferences":8896,"Ġsecure":8897,"GC":8898,"Ġgalaxy":8899,"enez":8900,"Ġstarring":8901,"DC":8902,"Ġkeeping":8903,"Ġaccurate":8904,"ĠDisney":8905,"ĠMoore":8906,"Ġroughly":8907,"Ġvillages":8908,"ĠOklahoma":8909,"ĠHeart":8910,"âĢ¦âĢ¦":8911,"Ġfilled":8912,"ĠBaseball":8913,"Ġspend":8914,"Ġlicense":8915,"Ġmaintained":8916,"Ġafford":8917,"ĠNative":8918,"Ġattorney":8919,"host":8920,"Ġpseud":8921,"Ġimmediate":8922,"Ġpartial":8923,"Ġposted":8924,")$-":8925,"owntown":8926,"plex":8927,"ĠDaily":8928,"Ġrelief":8929,"stic":8930,"ĠSound":8931,"living":8932,"Ġthanks":8933,"Canadian":8934,"1911":8935,"Ġprices":8936,"Ġcoinc":8937,"ĠEP":8938,"how":8939,"raud":8940,"odox":8941,"Ġchair":8942,"remark":8943,"Ġasympt":8944,"rity":8945,"Id":8946,"ĠMarc":8947,"Cor":8948,"Ġdifferential":8949,"Ġfavour":8950,"Ġexercise":8951,"ĠAustria":8952,"ĠBan":8953,"Ġnations":8954,"ĠMach":8955,"Ġtower":8956,"Ġlock":8957,"wich":8958,"Ġseconds":8959,"rÃ©":8960,"ublin":8961,"Cal":8962,"Ġoccupied":8963,"Ġsubset":8964,"Ġapproval":8965,"oli":8966,"enh":8967,".âĢĻ":8968,"eland":8969,"Ġtheories":8970,"Best":8971,"Ġsomewhat":8972,"Ġnamely":8973,"ĠPatrick":8974,"Ġjazz":8975,"scill":8976,"Ġsevere":8977,"Ġyellow":8978,"Ġenemy":8979,"Ġliterary":8980,"ĠDark":8981,"ĠSquare":8982,"Ġthermal":8983,"ĠMarine":8984,"blem":8985,"Ġairport":8986,"Ġtroub":8987,"elle":8988,"ĠAny":8989,"mapsto":8990,"Ġhelps":8991,"Ġenforcement":8992,"Ġenerg":8993,"Ġuncertainty":8994,"Ġinterpretation":8995,"Ġfought":8996,"ambig":8997,"Ġfrag":8998,"Ġaccommod":8999,"aron":9000,"Ġcapable":9001,"Ġloop":9002,"Ġcru":9003,"Ġassert":9004,"Ġmatrices":9005,"ritical":9006,"ĠĠĠĠĊ":9007,"Ġpassion":9008,"ĠCape":9009,"Ġexcess":9010,"Ġshooting":9011,"je":9012,"Ġcoordinates":9013,"white":9014,"cr":9015,"gments":9016,"Ġcausing":9017,"Ġsentence":9018,"ĠDom":9019,"yles":9020,"ĠBarn":9021,"Awards":9022,"Ġemployee":9023,"brace":9024,"Ġconfidence":9025,"Ġfolk":9026,"David":9027,"ĠMississippi":9028,"ĠComput":9029,"Ġclients":9030,"Ġconfiguration":9031,"ĠJunior":9032,"ĠFer":9033,"Ġcomputed":9034,"allas":9035,"NS":9036,"ĠLear":9037,"ĠCP":9038,"Ġdog":9039,"exual":9040,"arma":9041,"Ġarmed":9042,"Ġconservation":9043,"Af":9044,")_":9045,"Ġdates":9046,"Home":9047,"Ġreaching":9048,"180":9049,"isition":9050,"Ġthreshold":9051,"ikh":9052,"Ġlegend":9053,"Ġbatter":9054,"Ġstreets":9055,"ãĥ":9056,"Ġlyrics":9057,"ortheast":9058,"2023":9059,"Ġaged":9060,"Ġdepict":9061,"ĠThird":9062,"Ġspoke":9063,"Ġdiverse":9064,"Ġsoul":9065,"Ġspiritual":9066,"~$\\":9067,"ĠGram":9068,"ĠSC":9069,"ĠUsing":9070,"ĠHotel":9071,"Ġradiation":9072,"Ã¼r":9073,"Ġblocks":9074,"Ġtrig":9075,"Ġlaid":9076,"aked":9077,"leges":9078,"Ġseemed":9079,"odot":9080,"Ġmanufacturing":9081,"Ġcourses":9082,"length":9083,"ĠMrs":9084,"ĠNap":9085,"ĠLog":9086,"Ġmusician":9087,"Ġongoing":9088,"ĠJos":9089,"Ġinfluenced":9090,"ĠHarris":9091,"Mich":9092,"Ġcov":9093,"ĠNich":9094,"Ġcoronavirus":9095,"uerto":9096,"ĠRyan":9097,"mediate":9098,"Ġtrains":9099,"Car":9100,"Ġ</":9101,"she":9102,"ĠBurn":9103,"Ġextreme":9104,"ĠBos":9105,"agnetic":9106,"\\\\\\":9107,"Play":9108,"ĠChannel":9109,"Ġlayers":9110,"Ġcatch":9111,"Ġ&=&":9112,"Ġformerly":9113,"Ġregarded":9114,"ĠMit":9115,"ĠNever":9116,"ĠTokyo":9117,"Ġelig":9118,"lov":9119,"ĠLabour":9120,"Ġshortly":9121,"Ġcloser":9122,"Ġ//":9123,"ĠSeason":9124,"ĠTreat":9125,"Ġbriefly":9126,"Ġturb":9127,"uable":9128,"ĠTan":9129,"Ġgar":9130,"rect":9131,"acher":9132,"ardo":9133,"ĠPrad":9134,"'(":9135,"ĠKitt":9136,"SM":9137,"::":9138,"iem":9139,"Ġsuitable":9140,"ĠCulture":9141,"Ġstages":9142,"atin":9143,"Ġmayor":9144,"Ġmasses":9145,"Ġgod":9146,"aware":9147,"Life":9148,"lements":9149,"ĠTrade":9150,"Ġcolle":9151,"prise":9152,"Ġcaught":9153,"ĠReb":9154,"Ġconvergence":9155,"Ġcouldn":9156,"cur":9157,"Ġdimensions":9158,"ĠMethod":9159,"ĠSet":9160,"agu":9161,"Ġdust":9162,"ĠTrib":9163,"ragon":9164,"Ġintellect":9165,"Olympic":9166,"Ġcoaches":9167,"ĠMas":9168,"isely":9169,"Ġadults":9170,"ĠJay":9171,"unes":9172,"Ġguide":9173,"Ġroof":9174,"ĠLocal":9175,"ĠFarm":9176,"ĠCapital":9177,"ĠTurkish":9178,"Ġbehaviour":9179,"Ġstuff":9180,"ĠCook":9181,"ĠHans":9182,"ĠControl":9183,"ĠMiami":9184,"Ġtechnologies":9185,"Ġthrow":9186,"Ġstopped":9187,"ĠBible":9188,"Ġbronze":9189,"Ġabund":9190,"ĠPeace":9191,"clop":9192,"ensis":9193,"Ant":9194,"iday":9195,"Ġfavorite":9196,"lay":9197,"craft":9198,"North":9199,"Ġ$$":9200,"Ġtack":9201,"Ġvoting":9202,"ĠAli":9203,"ĠGaussian":9204,"aro":9205,"1908":9206,"Ð¾Ð":9207,"ĠLas":9208,"ĠHawai":9209,"iser":9210,"ĠPope":9211,"wick":9212,"Ġrear":9213,"Ġshut":9214,"Ġstores":9215,"Ġconverted":9216,"Ġrig":9217,"Ġremove":9218,"Ġbra":9219,"itarian":9220,"ĠWy":9221,"Ġfacilit":9222,"ÃŃa":9223,"Ġinvestigate":9224,"Ġcharacteristic":9225,"Ġexception":9226,"HC":9227,"Ġsimultane":9228,"ĠWhit":9229,"Ġunderlying":9230,"Ġgrounds":9231,"Ġbin":9232,"ĠColomb":9233,"Ġcommander":9234,"ĠNob":9235,"proposition":9236,"ĠIndeed":9237,"Ġmedalists":9238,"ĠDomin":9239,"Ġcomplexity":9240,"Ġceremony":9241,"roid":9242,"Ġpopulations":9243,"phant":9244,"Ġintent":9245,"ĠAnthony":9246,"ĠMand":9247,"Ġuniversal":9248,"audi":9249,"Ġevening":9250,"UK":9251,"asketball":9252,"Ġfacts":9253,"Ġuncle":9254,"itivity":9255,"Ġsuit":9256,"âĢ¢":9257,"ieval":9258,"matrix":9259,"ĠGard":9260,"Ġrecovery":9261,"uscript":9262,"Ġunderstood":9263,"Ġtemple":9264,"Ġessentially":9265,"Ġrational":9266,"ĠMcG":9267,"ĠAuthority":9268,"ĠYouth":9269,"Ġsubjects":9270,"Ġpetition":9271,"ĠWalter":9272,"Ġaw":9273,"ĠSupport":9274,"ners":9275,"Ġvideos":9276,"Ġsand":9277,"arsh":9278,"ĠGab":9279,"Ġselling":9280,"ocument":9281,"ĠHu":9282,"Ġvariation":9283,"ĠLouisiana":9284,"ystem":9285,"Ġadmitted":9286,"ĠIr":9287,"Ġexplan":9288,"ibl":9289,"vol":9290,"ĠEmperor":9291,"Ġmob":9292,"ĠProduct":9293,"ĠSilver":9294,"Ġvectors":9295,"arner":9296,"Ġtrav":9297,"Ġpoetry":9298,"ĠPsych":9299,"Ġencounter":9300,"Ġknows":9301,"ĠArmen":9302,"irth":9303,"ĠEnt":9304,"ĠMatthew":9305,"Ġpione":9306,"Ġbinary":9307,"ĠDigital":9308,"Har":9309,"ĠDick":9310,"po":9311,"displaystyle":9312,"ĠBry":9313,"ugu":9314,"cohol":9315,"Ġwilling":9316,"Ġoscill":9317,"Ġlands":9318,"GBT":9319,"Ġregularly":9320,"Ġsucceeded":9321,"Ġvast":9322,"Oct":9323,"mont":9324,"cf":9325,"Ġstatistical":9326,"Ġsupports":9327,"kh":9328,"Ġsigns":9329,"ĠDead":9330,"HO":9331,"pat":9332,"ĠSP":9333,"Ġtruly":9334,"mi":9335,"Ġattacked":9336,"Ġracial":9337,"Ġcontribute":9338,"\\{\\":9339,"Ġsubsection":9340,"Ġuniverse":9341,"Ġneither":9342,"roph":9343,"ĠTelevision":9344,"ĠKnow":9345,"Ġexperts":9346,"ĠAR":9347,"tenance":9348,"Finally":9349,"Book":9350,"Ġdelivery":9351,"Ġmoments":9352,"dam":9353,"Ġinduced":9354,"actic":9355,"rolled":9356,"Top":9357,"CE":9358,"Cent":9359,"Ġdollars":9360,"Mc":9361,"Ġstudying":9362,"ĠChall":9363,"arest":9364,"Ġcommitment":9365,"ĠHeritage":9366,"Ġaggreg":9367,"Ġguns":9368,"Of":9369,"Ġcanon":9370,"Ġdeleg":9371,"Ġinjured":9372,"Ġdoubt":9373,"Ġparticipation":9374,"isations":9375,"ucks":9376,"aling":9377,"Ġvisible":9378,"high":9379,"energy":9380,"Ġscenario":9381,"Ġstruggle":9382,"Ġlov":9383,"word":9384,"Phil":9385,"dim":9386,"Prop":9387,"ĠTemple":9388,"Ġloved":9389,"fr":9390,"ĠCond":9391,"Ġsituated":9392,"zy":9393,"Ġclar":9394,"Ġseparated":9395,"SL":9396,"Ġsummary":9397,"ymn":9398,"ĠSM":9399,"Tax":9400,"ĠCommonwealth":9401,"first":9402,"rainian":9403,"ĠWhy":9404,"Ġconsequence":9405,"Posted":9406,"Ġruled":9407,"Ġversus":9408,"Ġforth":9409,"Ġextens":9410,"tw":9411,"aintiff":9412,"Ġacknowled":9413,"ĠBerg":9414,"ographical":9415,"ĠAbd":9416,"edition":9417,"Ġscope":9418,"Äį":9419,"Ġpublications":9420,"ĠNa":9421,"ĠAnne":9422,"ĠBelgium":9423,"ifier":9424,"Ġamaz":9425,"|_{":9426,"Ġprotein":9427,"Ġinstrument":9428,"Ġdrums":9429,"Ġcomfort":9430,"ĠVo":9431,"anged":9432,"eron":9433,"otte":9434,"sur":9435,"Ġhistorian":9436,"Ġplease":9437,"Ġboys":9438,"GM":9439,"ĠDue":9440,"Ju":9441,"Go":9442,"Ġrout":9443,"ĠRight":9444,"Ġlowest":9445,"Bibliography":9446,"Ġcolour":9447,"Ġsudden":9448,"Ġlosses":9449,"ĠDetroit":9450,"ĠMult":9451,"ĠDal":9452,"Ġshel":9453,"Ġimpossible":9454,"125":9455,"Ġbran":9456,"Ġinterval":9457,"Ġmembership":9458,"imore":9459,"Ġstret":9460,"Ġ%":9461,"Ġconcerning":9462,"mc":9463,"Ġreporting":9464,"Ġsleep":9465,"itative":9466,"Ġmales":9467,"Ġbehalf":9468,"cong":9469,"Ġillegal":9470,"rin":9471,"hom":9472,"pa":9473,"ĠClinton":9474,"ĠEarly":9475,"$~":9476,"ĠMoon":9477,"father":9478,"Hon":9479,"ĠBowl":9480,"Ġdriven":9481,"istent":9482,"Ġfluct":9483,"Ġteach":9484,"Ġscales":9485,"ĠBillboard":9486,"Ġmaybe":9487,"Ġdecor":9488,"aste":9489,"ĠCru":9490,"Ġtemperatures":9491,"Ġpm":9492,".'":9493,"Ġadjacent":9494,"archy":9495,"ĠNaval":9496,"ĠMA":9497,"ĠAlber":9498,"ĠCatal":9499,"ĠRoberts":9500,"Ġri":9501,"data":9502,"Ġmeetings":9503,"$;":9504,"tri":9505,"CP":9506,"ania":9507,"Ġswitch":9508,"ĠZh":9509,"ĠFall":9510,"Ġresource":9511,"Ġpercentage":9512,"ĠChairman":9513,"Ġethnic":9514,"clusions":9515,"chell":9516,"Ġlake":9517,"Ġsecretary":9518,"ĠEmer":9519,"Ġstrategies":9520,"ications":9521,"ĠTaiwan":9522,"Ġgrade":9523,"olly":9524,"lades":9525,"ĠCov":9526,"Ġlose":9527,"lad":9528,"Ġcomputation":9529,"Ġdrivers":9530,"world":9531,"Ġanniversary":9532,"ĠBeng":9533,"Ġcontrad":9534,"Ġweekend":9535,"Ġdry":9536,"tik":9537,"ĠRey":9538,"Ġtransportation":9539,"count":9540,"Ġbelieves":9541,"aton":9542,"ti":9543,"Death":9544,"Sportspeople":9545,"Ġlisten":9546,"pty":9547,"Ġcarrying":9548,"Ġequality":9549,"ellows":9550,"ĠMcK":9551,"ĠLead":9552,"INE":9553,"Ġdemonstrated":9554,"Ġinhabit":9555,"BO":9556,"}}^{":9557,"Ġinvolves":9558,"Ġpregn":9559,"Ġbeam":9560,"ante":9561,"Ġpayment":9562,"Ġclusters":9563,"ressive":9564,"ĠKevin":9565,"mers":9566,"ogeneous":9567,"ĠAction":9568,"ĠQueensland":9569,"Black":9570,"ridges":9571,"Ġexplos":9572,"Ġorient":9573,"Ġnotation":9574,"ateur":9575,"Ġpasses":9576,"ĠPhill":9577,"Ġinaug":9578,"Ġperiods":9579,"ĠDNA":9580,"Ġcontinuing":9581,"Ġopera":9582,"uum":9583,"ĠKennedy":9584,"ĠPage":9585,"Ġmilit":9586,"Ġlandscape":9587,"ĠChile":9588,"ĠFri":9589,"Ġrejected":9590,"ĠGordon":9591,"ĠLyn":9592,"Ġprompt":9593,"Ġcited":9594,"Ġtested":9595,")+\\":9596,"leveland":9597,"Ġvirtual":9598,"Ġmine":9599,"ĠKey":9600,"?\"":9601,"etal":9602,"Ġfindings":9603,"SD":9604,"Ġdynamic":9605,"Ġexcellent":9606,"ĠThough":9607,"ellip":9608,"Born":9609,"Ġsteel":9610,"Ġrestrictions":9611,"1905":9612,"Ġhits":9613,"){":9614,"Ġrobust":9615,"Geography":9616,"Ġsubstantial":9617,"Conn":9618,"eanwhile":9619,"rov":9620,"ju":9621,"Ġapplying":9622,"stal":9623,"Background":9624,"Ġtall":9625,"rama":9626,"ĠDak":9627,"Ġdiscovery":9628,"Ġcharts":9629,"Tube":9630,"ĠBuddh":9631,"anton":9632,"ĠDemocrats":9633,"Ġflows":9634,"ĠSport":9635,"racks":9636,"odge":9637,"Ġrapidly":9638,"just":9639,"Ġworst":9640,"Ġstrategic":9641,"Ġminute":9642,"Ġabandoned":9643,"Just":9644,"1890":9645,"ĠPhot":9646,"Ġattached":9647,"ĠGener":9648,"ĠCA":9649,"Ġarguments":9650,"ĠScient":9651,"ĠDouglas":9652,"Ġvertical":9653,"Ġmerch":9654,"ĠFI":9655,"Ġdecide":9656,"Ġcomic":9657,"Sw":9658,"Ġadapted":9659,"mass":9660,"Ġbreaking":9661,"ctic":9662,"ĠQuebec":9663,"Ġion":9664,"Star":9665,"Ġpaintings":9666,"ĠFather":9667,"source":9668,"Ġvulner":9669,"Lem":9670,"intend":9671,"ĠMayor":9672,"\\\\&":9673,"ĠPhilip":9674,"ĠJudge":9675,"Ġcenters":9676,"iah":9677,"Ġintersection":9678,"Ġflo":9679,"Ġimprovement":9680,"Ġupdate":9681,"Ġaxis":9682,"Ġdenied":9683,"BN":9684,"dale":9685,"Ġwaters":9686,"ĠBor":9687,"Ġunus":9688,"UC":9689,"ĠConvention":9690,"lock":9691,"ĠNE":9692,"Ġcommissioned":9693,"Ġpenalty":9694,"Ġincorporated":9695,"asts":9696,"bat":9697,"empl":9698,"apolis":9699,"Ġcounsel":9700,"Ġvisitors":9701,"Ġgene":9702,"Ġpredicted":9703,"uction":9704,"Ag":9705,"holders":9706,"Ġbarri":9707,"ĠKelly":9708,"Ġstood":9709,")-\\":9710,"ĠKu":9711,"values":9712,"iva":9713,"Ġboat":9714,"Ġenjoyed":9715,"Bel":9716,"Ġinfinite":9717,"estyle":9718,"Ġdiscl":9719,"ĠRab":9720,"elli":9721,"ĠNatural":9722,"oca":9723,"gressive":9724,"Ġemail":9725,"Ġinvent":9726,"1906":9727,"ĠChem":9728,"Ġbrings":9729,"Ġfly":9730,"graph":9731,"ĠHonor":9732,"Ġaccompan":9733,"Ġcrimes":9734,"FM":9735,"Ġagricultural":9736,"Ġfasc":9737,"abet":9738,"egas":9739,"Ġabsolute":9740,"Ġinstalled":9741,"check":9742,"Ġroots":9743,"115":9744,"Ġdeploy":9745,"Ġvoters":9746,"ĠArgentina":9747,"argo":9748,"oa":9749,"Australian":9750,"Ġorbit":9751,"Ġoccas":9752,"ĠHamp":9753,"ĠGuide":9754,"Ġlab":9755,"Ġrain":9756,"ĠAtlanta":9757,"istration":9758,"\\_":9759,"Ġwww":9760,"ĠAttorney":9761,"-$":9762,"Ġfamiliar":9763,"oni":9764,"Ġentertainment":9765,"tikz":9766,"athy":9767,"issance":9768,"tsburgh":9769,"ailand":9770,"auc":9771,"esides":9772,"ĠRick":9773,"aa":9774,"Populated":9775,"ested":9776,"Ġdream":9777,"Ġfacing":9778,"ĠWalker":9779,"who":9780,"only":9781,"Ġscattering":9782,"ĠPlace":9783,"Val":9784,"Ġsympt":9785,"die":9786,"ĠYe":9787,"redit":9788,"Introduction":9789,"Ġcook":9790,"ĠTy":9791,"Ġsurve":9792,"ailed":9793,"ãģ":9794,"Ġsharing":9795,"Under":9796,"owski":9797,"requ":9798,"elihood":9799,"ĠImm":9800,"Ġrival":9801,"Ġresidence":9802,"Ġgrown":9803,"quir":9804,"ĠStew":9805,"ĠDave":9806,"uildings":9807,"Ġinteger":9808,"Arch":9809,"ĠAlbum":9810,"atherine":9811,"ĠAgric":9812,"Ġspecified":9813,"Ġsoccer":9814,"strong":9815,"elsh":9816,"}({\\":9817,"ĠNorwegian":9818,"Ġdesire":9819,"Ġpartition":9820,"ĠDenmark":9821,"ĠInfantry":9822,"Ġcompete":9823,"ĠSign":9824,"Ġassessment":9825,"uri":9826,"Ġancest":9827,"Dec":9828,"130":9829,"ĠVillage":9830,"ĠSud":9831,"Ġmoves":9832,"bold":9833,"Ġduties":9834,"utely":9835,"sequently":9836,"Ġdecline":9837,"burn":9838,"ĠKy":9839,"ĠSin":9840,"Ġillness":9841,"Ġhired":9842,"ĠHamiltonian":9843,"Men":9844,"Ġprediction":9845,"1907":9846,"ĠBrun":9847,"nie":9848,"pot":9849,"Ġdemonstrate":9850,"cks":9851,"Many":9852,"ĠPuerto":9853,"ĠNext":9854,"has":9855,"never":9856,"forward":9857,"Ġpresc":9858,"Ġrequirement":9859,"Leg":9860,"ometric":9861,"Ġgay":9862,"Ġfilter":9863,"ĠRest":9864,"Ġpainter":9865,"1909":9866,"ista":9867,"Ġlists":9868,"Ġcraft":9869,"Ġroads":9870,"Ġwat":9871,"FR":9872,")},":9873,"idance":9874,"ĠDur":9875,"tha":9876,"hythm":9877,"ĠDVD":9878,"ĠEag":9879,"Ġshop":9880,"ĠAlan":9881,"ĠRecord":9882,"March":9883,"avor":9884,"ĠOrganization":9885,"ĠLaure":9886,"ĠOrth":9887,"umm":9888,"ĠPas":9889,"Ġinternet":9890,"Ġmoder":9891,"Ġreign":9892,"Ġbund":9893,"ĠSquadron":9894,"Ġrespective":9895,"Ġchildhood":9896,"ĠNik":9897,"reement":9898,"Ġconcentration":9899,"assador":9900,"ĠArticle":9901,"700":9902,"Å«":9903,"ĠLawrence":9904,"Ev":9905,"Ser":9906,"})$,":9907,"ĠGib":9908,"ped":9909,"Ġnotion":9910,"Ġwhatever":9911,"ĠAntonio":9912,"}&":9913,"ĠOnline":9914,"Rober":9915,"&=&":9916,"olished":9917,"retion":9918,"Ġcompetitive":9919,"icular":9920,"zo":9921,"Ġnav":9922,"ĠSeattle":9923,"redited":9924,"Op":9925,"Ġenhance":9926,"icate":9927,"eding":9928,"Ġclassified":9929,"Ġhidden":9930,"Ġpotentially":9931,"Ġaired":9932,"Therefore":9933,"iments":9934,"ĠReserve":9935,"Ġviewed":9936,"Ġmart":9937,"Ġsinging":9938,"flow":9939,"ĠAfghanistan":9940,"ambiguation":9941,"hbar":9942,"Ġneighbour":9943,"Ġdiversity":9944,"ĠBou":9945,"ĠNCAA":9946,"ugar":9947,"final":9948,"Ġmac":9949,"angers":9950,"ĠDublin":9951,"ĠGarden":9952,"ĠSyria":9953,"ilty":9954,"Ġownership":9955,"Ġconsideration":9956,"Ġplate":9957,"../":9958,"Ġsummar":9959,"Ġacid":9960,"Ġprivacy":9961,"itudes":9962,"ospitals":9963,"Ġcomprehensive":9964,"Ġpointed":9965,"erving":9966,"Europ":9967,"usalem":9968,"Ġmyth":9969,"Ġouter":9970,"ĠNation":9971,"lie":9972,"ĠAlliance":9973,"\\\"":9974,"1904":9975,"emen":9976,"Ġconsequences":9977,"Ġguy":9978,"Ġcancell":9979,"Ġwait":9980,"Ġexplains":9981,"Ġschedule":9982,"DR":9983,"Ġconsumer":9984,"agg":9985,"ĠHistorical":9986,"ĠPed":9987,"Ġaren":9988,"ĠVin":9989,"Sources":9990,"ĠSoc":9991,"ĠPortuguese":9992,"Ġcalculations":9993,"Gen":9994,"ĠRow":9995,"ĠCroat":9996,"inburgh":9997,"Ġcrucial":9998,"}}$.":9999,"Ġsingers":10000,"Ġcommunications":10001,"Ġexcited":10002,"%,":10003,"making":10004,"Ġfranchise":10005,"Ġwouldn":10006,"enda":10007,".;":10008,"elfare":10009,"Ġruling":10010,"fef":10011,"ĠExt":10012,"Ġinstruments":10013,"Ġrotation":10014,"Second":10015,"Paul":10016,"Ġbulk":10017,"Ġmanage":10018,"Ġrelax":10019,"Ġrestaurant":10020,"Ġentrance":10021,"Ġrating":10022,"Writ":10023,"lick":10024,"enezuel":10025,"Ġexposure":10026,"uber":10027,"Ġpresents":10028,"ĠArkansas":10029,"urers":10030,"Ġdesigns":10031,"orses":10032,"Set":10033,"Ġmillions":10034,"ĠSi":10035,"Ġapplicable":10036,"Ġconservative":10037,"Ġmoral":10038,"stery":10039,"ĠTerm":10040,"ĠPa":10041,"Ġcalculation":10042,"cccc":10043,"Ġrealized":10044,"anny":10045,"andra":10046,"'}":10047,"Ġidentical":10048,"Ġmil":10049,"Ġwrites":10050,"ĠApple":10051,"ipe":10052,"example":10053,"Ġliquid":10054,"ĠUtah":10055,"MR":10056,"Ġstating":10057,"Ġprocedures":10058,"Ġ$|\\":10059,"Ob":10060,"door":10061,"}$)":10062,"ĠThose":10063,"ĠSwiss":10064,"ĠKam":10065,"Ġtennis":10066,"Min":10067,"cut":10068,"obby":10069,"ĠBulg":10070,"ĠTs":10071,"unting":10072,"Ġgeometry":10073,"ĠHills":10074,"Ġdangerous":10075,"zed":10076,"Ġrend":10077,"Ġskin":10078,"Ġstadium":10079,"ĠLiberal":10080,"Ġasking":10081,"Ġdependent":10082,"Ġmixing":10083,"ĠKaz":10084,"ĠAdditionally":10085,"ĠLore":10086,"))$":10087,"Ġtight":10088,"ymmetric":10089,"abad":10090,"ĠDean":10091,"Ġflex":10092,"Ġnurs":10093,"Ġrecommended":10094,"Ġtopic":10095,"Ġputting":10096,"[(":10097,"}}$,":10098,"edge":10099,"Ġpod":10100,"Ġbias":10101,"ĠIndonesia":10102,"ĠYears":10103,"ilst":10104,"Ġflying":10105,"Ġsuffering":10106,"post":10107,"Data":10108,"iÃ³n":10109,"Ġfib":10110,"Ġstead":10111,"ĠFle":10112,"char":10113,"aturally":10114,"Class":10115,"114":10116,"Ã©s":10117,"Ġcompetitions":10118,"picture":10119,"pop":10120,"Television":10121,"Ġconsisted":10122,"Ġcriteria":10123,"Ġvaccine":10124,"Ġsky":10125,"alian":10126,"ĠFinn":10127,"Ġrooms":10128,"ĠFinancial":10129,"ĠLam":10130,"ĠDeputy":10131,"Ġassociate":10132,"olo":10133,"Ġconnections":10134,"urities":10135,"ĠTerrit":10136,"oly":10137,"Ġconvex":10138,"Ġtopics":10139,"ĠKarl":10140,"Ġcharacterized":10141,"ĠNash":10142,"Ġassumptions":10143,"Ġsounds":10144,"ĠHoll":10145,"Ġcompletion":10146,"ĠPradesh":10147,"Ġneutral":10148,"Ġamplitude":10149,"Ġtranslated":10150,"Ġjudges":10151,"Ġfill":10152,"ĠMission":10153,"iscal":10154,"pres":10155,"Ġdesired":10156,"ĠSel":10157,"ĠAmazon":10158,"Ġexplicitly":10159,")}_{":10160,"cat":10161,"Ġheads":10162,"ĠVideo":10163,"ĠIndependent":10164,"ĠJun":10165,"Ġastron":10166,"Ġphr":10167,"Ġwaves":10168,"onomy":10169,"floor":10170,"Ġprecisely":10171,"ĠCow":10172,"Ġsubmitted":10173,"Ġparagraph":10174,"Ġdominated":10175,"ulating":10176,"prison":10177,"system":10178,"Ġmining":10179,"page":10180,"ĠCentury":10181,"bu":10182,"Ġmovements":10183,"ĠResp":10184,"105":10185,"oder":10186,"ĠSystems":10187,"Ġdominant":10188,"ipage":10189,"Mark":10190,"etween":10191,"wen":10192,"Ġtalent":10193,"Ġsufficiently":10194,"ĠCemetery":10195,"Ġintensity":10196,"orus":10197,"itol":10198,"Ġsynthes":10199,"Ġevaluate":10200,"fefefe":10201,"ĠSarah":10202,"Ġincred":10203,"Ġtouchdown":10204,"apl":10205,"ificial":10206,"ĠAndre":10207,"ĠIT":10208,"Ġaspect":10209,"ĠRub":10210,"away":10211,"James":10212,"ĠHug":10213,"Ġsnow":10214,"Ġchallenging":10215,"Ġinvasion":10216,"ourse":10217,"Ġdecrease":10218,"ĠDallas":10219,"minipage":10220,"ĠSite":10221,"112":10222,"ublished":10223,"ĠBattalion":10224,"1901":10225,"Ġprize":10226,"Ġeasier":10227,"hus":10228,"Ġaccordance":10229,"ĠChampions":10230,"Ġfalls":10231,"otten":10232,"ãĤ":10233,"ĠDa":10234,"Ġmanuscript":10235,"ĠStudios":10236,"ĠMess":10237,"Ġsmart":10238,"Ġresidential":10239,"Ġamounts":10240,"Ġsubgroup":10241,"Ġtraject":10242,"ĠSn":10243,"Ġstruck":10244,"ĠPy":10245,"Ġbirds":10246,"iat":10247,"Ġcircuit":10248,"supp":10249,"ĠKings":10250,"Ġanalog":10251,"oded":10252,"Ġrepresentatives":10253,"Ġjunior":10254,"Ġmal":10255,"Ġsatisfying":10256,"Ġcriticism":10257,"Ġrestricted":10258,"asp":10259,"Ġproducers":10260,"ĠIl":10261,"Ġscores":10262,"Ġpublishing":10263,"Ġaudio":10264,"Education":10265,"ĠWhere":10266,"ĠNag":10267,"ĠOrchestra":10268,"Ġwithdraw":10269,"1903":10270,"formed":10271,"Ġupdated":10272,"Ġoptimization":10273,"ĠLin":10274,"aired":10275,"Ġcomputing":10276,"Ġtemporary":10277,"ĠAdvis":10278,"Ġcollective":10279,"rained":10280,"Ġmetres":10281,"bara":10282,"June":10283,"Ġaffairs":10284,"ĠFil":10285,"lesssim":10286,"posed":10287,"ĠSamuel":10288,"fi":10289,"Ġexpon":10290,"ĠPortugal":10291,"Ġlift":10292,"ĠImp":10293,"About":10294,"Ġrepresentations":10295,"Ġpassenger":10296,"ĠChamber":10297,"ĠYouTube":10298,"Ġhur":10299,"Ġarrival":10300,"Ġcoordinate":10301,"Ġconfront":10302,"ĠEss":10303,"August":10304,"idal":10305,"Type":10306,"Ġpul":10307,"opter":10308,"ĠFM":10309,"Ġheritage":10310,"................................":10311,"Ġreaders":10312,"ĠView":10313,"tes":10314,"Ġgeneric":10315,"second":10316,"index":10317,"reams":10318,"Ġwear":10319,"Ġadaptation":10320,"Ġconversation":10321,"Ġgradient":10322,"ĠAdams":10323,"Ġdivor":10324,"Ġdownload":10325,"Ġsees":10326,"disambiguation":10327,"Ġjurisdiction":10328,"Ġbear":10329,"ĠTraining":10330,"ĠAustin":10331,"Ġpublicly":10332,"$),":10333,"Ġsatisfied":10334,"Che":10335,"ĠPrix":10336,"hbox":10337,"ĠSchools":10338,"Ġatmosphere":10339,"aman":10340,"Ġconvinc":10341,"scriptsize":10342,"Ġdiscrete":10343,"ĠLib":10344,"Ġinher":10345,"ĠLang":10346,"las":10347,"1902":10348,"ĠEver":10349,"Ġturning":10350,"ĠCollection":10351,"Ġtank":10352,"Indian":10353,"Ġentreprene":10354,"Ġislands":10355,"ĠThompson":10356,"~~~~":10357,"Ġboundaries":10358,"Ġsequences":10359,"Ġproud":10360,"code":10361,"}{(":10362,"Ġdiseases":10363,"Ġbench":10364,"ĠBruce":10365,"====":10366,"AG":10367,"Ġhighway":10368,"Ġwire":10369,"Ġsignificance":10370,"Elect":10371,"ĠHit":10372,"Ġgraphs":10373,"Ġemotional":10374,"Ġbounds":10375,"opes":10376,"ulus":10377,"Ġsynd":10378,"ĠAle":10379,"Ġobst":10380,"ĠNelson":10381,"Ġaer":10382,"Ġcastle":10383,"Ġfactory":10384,"Get":10385,"ĠPay":10386,"Ġwaiting":10387,"Ġ(,":10388,"Ġdetected":10389,"oslav":10390,"uminos":10391,"Ġdispl":10392,"ĠMorgan":10393,"Ġworse":10394,"rik":10395,"Ġrelating":10396,"ige":10397,"ĠNigeria":10398,"Ġreader":10399,"ENT":10400,"Former":10401,"Ġfaster":10402,"ĠNS":10403,"Ġwatching":10404,"erior":10405,"ĠBuck":10406,"\").":10407,"eals":10408,"Ġtalks":10409,"Port":10410,"Why":10411,"orous":10412,"NE":10413,"Ġsignals":10414,"emed":10415,"iop":10416,"anch":10417,"earing":10418,"Ġsurgery":10419,"Ġcooperation":10420,"ĠSenator":10421,"Ġclient":10422,"Ġcoefficient":10423,"Ġtwelve":10424,"otype":10425,"Every":10426,"aration":10427,".:":10428,"ĠPap":10429,"ĠBull":10430,"olph":10431,"Ġoutbreak":10432,"iverpool":10433,"1880":10434,"Ġkernel":10435,"Ġreserve":10436,"ĠContin":10437,"Ġpref":10438,"ĠABC":10439,"ĠProm":10440,"ĠMarket":10441,"Ġrisks":10442,"icians":10443,"ĠUC":10444,"leans":10445,"Ġinteract":10446,"Ġintention":10447,"Ġinitiative":10448,"endar":10449,"ĠÂ»":10450,"Ġbrown":10451,"height":10452,"ĠRace":10453,"ĠAdvent":10454,"rite":10455,"inch":10456,"ĠJerusalem":10457,"ĠĠĠĠĠĠĠĠĠĠ":10458,"parent":10459,"vee":10460,"}{|":10461,"Ġappearing":10462,"Ġliberal":10463,"ĠBanglades":10464,"Ġentering":10465,"Ġforg":10466,"erk":10467,"ĠRussell":10468,"Ġpriest":10469,"Ġsurname":10470,"Ġwaste":10471,"Ġtherapy":10472,"atern":10473,"Ġjudgment":10474,"Red":10475,"ĠBus":10476,"Ġrect":10477,"Ġcrossing":10478,"Ġreducing":10479,"Ġdenoted":10480,"Ġgate":10481,"Ġsatellite":10482,"ĠÄ":10483,"Ġgift":10484,"ĠPalace":10485,"Em":10486,"cht":10487,"instein":10488,"ĠExpress":10489,"Up":10490,"Ġadvertising":10491,"Fl":10492,"azines":10493,"ĠRound":10494,"Ġprojection":10495,"Ġexpensive":10496,"etary":10497,"ĠPeters":10498,"Mus":10499,")}}":10500,"acks":10501,"ĠBart":10502,"Rail":10503,"Ġjet":10504,"urrently":10505,"ĠRy":10506,"iac":10507,"PM":10508,"Ġexecution":10509,"ĠPolitical":10510,"ĠCommunist":10511,"Ġcontrols":10512,"ĠPear":10513,"Ġappointment":10514,"olas":10515,"Ġoperates":10516,"Ġmaintenance":10517,"Ġseparation":10518,"ĠCleveland":10519,"hl":10520,"ĠCH":10521,"Ġ(;":10522,"ĠNBA":10523,"Ġsight":10524,"Using":10525,"owed":10526,"Ġthousand":10527,".$":10528,"front":10529,"Ġnull":10530,"Ġseed":10531,"uj":10532,"Ġtaxes":10533,"High":10534,"Ġexecuted":10535,"Ġapparently":10536,"ders":10537,"ĠThailand":10538,"Ġmouth":10539,"Ġformally":10540,"ĠRead":10541,"Ġreputation":10542,"Ġlabels":10543,"itational":10544,"ĠWW":10545,"doi":10546,"Ġtelling":10547,"roke":10548,"isp":10549,"}\\,\\":10550,"ĠML":10551,"othe":10552,"uy":10553,"ĠChristopher":10554,"Ġprisoners":10555,"ĠPrior":10556,"Ġearliest":10557,"\"),":10558,"ĠEdinburgh":10559,"ifferent":10560,"Ġdies":10561,"Ġordinary":10562,"Ġinjuries":10563,"esis":10564,"ĠLemmon":10565,"kov":10566,"ĠHas":10567,"Ġarchae":10568,"ĠCart":10569,"Ġconcrete":10570,"Mat":10571,"Ġsurvived":10572,"Ġedited":10573,"column":10574,"Ġsituations":10575,"Ġdemocracy":10576,"ĠBrazilian":10577,"Ġaccompanied":10578,"ĠPur":10579,"borough":10580,"icking":10581,"ĠTur":10582,"claimed":10583,"arse":10584,"ĠHockey":10585,"ĠCensus":10586,"mo":10587,"child":10588,"ontin":10589,"Ġinhabitants":10590,"Ġproduces":10591,"Ġfinance":10592,"ĠGulf":10593,":}":10594,"AE":10595,"Ġmeets":10596,"ĠNav":10597,"eoples":10598,"enberg":10599,"notes":10600,"_-":10601,"Ġplatforms":10602,"Ã©t":10603,"Ġsuicide":10604,"Ġjournalists":10605,"Ġcm":10606,"Ġstronger":10607,"ĠWoman":10608,"vy":10609,"Ġgrass":10610,"ĠMaur":10611,"Ġfleet":10612,"Ġorganisation":10613,"ĠBox":10614,"ĠLanc":10615,"ĠStrateg":10616,"Ġtargets":10617,"Ġinclusion":10618,"Before":10619,"Ġda":10620,"Ġembedd":10621,"forming":10622,"oria":10623,"ategory":10624,"ĠAnna":10625,"Ġtrials":10626,"ĠBrooklyn":10627,"July":10628,"Rich":10629,"Ġphotos":10630,"orption":10631,"ĠSpacewatch":10632,"CM":10633,"ĠIron":10634,"Ġfemin":10635,"omas":10636,"ĠPub":10637,"Stud":10638,"Ġfaces":10639,"Ġfluid":10640,"ĠBeat":10641,"ĠMi":10642,"wall":10643,"Ġpassengers":10644,"Ġrecon":10645,"ĠOrleans":10646,"DM":10647,"ĠAG":10648,"uli":10649,"ĠFuture":10650,"ypes":10651,"Ġathletes":10652,"Ġinvestors":10653,"}_{{":10654,"Ġreward":10655,"ĠImperial":10656,"ĠBrigade":10657,"ĠNic":10658,"ĠStandard":10659,"ĠProtection":10660,"jective":10661,"ĠLieutenant":10662,"Ġequilibrium":10663,"ĠFive":10664,"Ġfinishing":10665,"Ġtries":10666,"ĠBuff":10667,"bas":10668,"bai":10669,"ecture":10670,"ikip":10671,"Ðº":10672,"ĠBaltimore":10673,"idelines":10674,"ĠFried":10675,"ishops":10676,"Notable":10677,"Ġeat":10678,"ayan":10679,"Ġangular":10680,"Ġconsumption":10681,"âĢĻ,":10682,"QQ":10683,"was":10684,"ahn":10685,"Ġconventional":10686,"ĠDream":10687,"ĠSac":10688,"Ġgiant":10689,"&$":10690,"osc":10691,"Ret":10692,"zing":10693,"Ġfocuses":10694,"ĠTrad":10695,"overy":10696,"Ġcolonial":10697,"Ġgang":10698,"Ġgenre":10699,"Ġreplacement":10700,"Ġhypothesis":10701,"ĠExpl":10702,"Ġdiscussions":10703,"Ġinvolvement":10704,"Ġnarrative":10705,"Ġfraud":10706,"ĠFull":10707,"bes":10708,"ĠSaudi":10709,"Football":10710,"Ġalcohol":10711,"sea":10712,"heastern":10713,"ĠCrown":10714,"ĠBoys":10715,"ĠMalaysia":10716,"Ġconsiderable":10717,"ĠCra":10718,"Ġcards":10719,"Military":10720,"local":10721,"January":10722,"Ġregulation":10723,"}}}\\":10724,"Ġlemma":10725,"Ġsoil":10726,"ishers":10727,"ymp":10728,"emi":10729,"Ġenable":10730,"quest":10731,"oths":10732,"Ġtheater":10733,"Ġrecordings":10734,"117":10735,"ls":10736,"ĠTun":10737,"ĠIP":10738,"OD":10739,"nest":10740,"Ġpossess":10741,"Ġstim":10742,"uits":10743,"April":10744,"ĠBrothers":10745,"phan":10746,"Ġ&&":10747,"Mal":10748,"Ġrising":10749,"116":10750,"ĠTax":10751,"ĠWright":10752,"Ġdatabase":10753,"Ġcalculate":10754,"Ġhorror":10755,"Ġham":10756,"regular":10757,"integ":10758,"ĠJason":10759,"oda":10760,"Ġfired":10761,"ĠNar":10762,"Ġimprison":10763,"Ġcricket":10764,"ĠJuan":10765,"Ġreplacing":10766,"Ġempty":10767,"Ġcollections":10768,"issue":10769,"plane":10770,"fall":10771,"ashi":10772,"oming":10773,"via":10774,"ĠKer":10775,"Donald":10776,"ĠGiven":10777,"Ġsupporters":10778,"ulum":10779,"Ġoutcome":10780,"Ġradical":10781,"Ġmissed":10782,"CR":10783,"ĠPittsburgh":10784,"ĠCommander":10785,"Ġelectricity":10786,"million":10787,"ĠSpirit":10788,"Ġmaxim":10789,"ĠChristians":10790,"Ġdating":10791,"inst":10792,"ouver":10793,"zi":10794,"Ġmit":10795,"icious":10796,"BE":10797,"Ġkilom":10798,"ournals":10799,"ĠMother":10800,"sort":10801,"Ġtropical":10802,"Ġdrawing":10803,"ĠTar":10804,"Ġrose":10805,"Ġchoices":10806,"Ġpartially":10807,"Ġ${":10808,"ĠWard":10809,"sis":10810,":=":10811,"ĠNeg":10812,"Ġveget":10813,"Ġpackage":10814,"Ġimmigration":10815,"ĠFrederick":10816,"Ġproperly":10817,"TE":10818,"iere":10819,"Ġdetect":10820,"Ġentropy":10821,"Orig":10822,"Ġoccupation":10823,"ĠPublishing":10824,"ĠStewart":10825,"Ġcrash":10826,"Ġcrown":10827,"acon":10828,"ĠHold":10829,"Ġsensitive":10830,"Ġyourself":10831,"Ġkeyboard":10832,"TH":10833,"Ġdisestabl":10834,"tery":10835,"Ġbaby":10836,"ynamic":10837,"ĠCarter":10838,"ĠGun":10839,"ĠĠĠĠĠĠĠĠĠĠĠĠ":10840,"through":10841,"cref":10842,"ando":10843,"]$.":10844,"Ġchampions":10845,"Ġamazing":10846,"Ġcelebrated":10847,"Ġvisiting":10848,"Ġfeedback":10849,"ĠRoger":10850,"ĠMaine":10851,"Ġles":10852,"ĠDanish":10853,"Ġjury":10854,"Ġ\\]":10855,"Ġfeels":10856,"ĠBetween":10857,"eenth":10858,"Ġsymptoms":10859,"Ġtrading":10860,"ikipedia":10861,"Ġmerged":10862,"Ġapplies":10863,"hav":10864,"ĠPut":10865,"irical":10866,"Ġnick":10867,"113":10868,"ĠFinland":10869,"Ġequipped":10870,"ĠNeb":10871,"102":10872,"ĠRobinson":10873,"Ġheaded":10874,"ĠMurray":10875,"Ġderivative":10876,"Ġdiam":10877,"alia":10878,"Ġoffensive":10879,"Ġawareness":10880,"ĠKo":10881,"Ġconvention":10882,"Ġsportspeople":10883,"Ġartistic":10884,"Ġbacking":10885,"Ġarray":10886,"Rad":10887,"BL":10888,"iii":10889,"Ġhonest":10890,"Ġgreatly":10891,"Ġmarine":10892,"Ġcustomer":10893,"Ġdress":10894,"Ġprotests":10895,"ĠHungary":10896,"nik":10897,"Ġexposed":10898,"Ġaddressed":10899,"ĠFern":10900,"Ġaccessible":10901,"Ġsymp":10902,"ĠSingh":10903,"1898":10904,"ĠEnvironmental":10905,"jamin":10906,"tfrac":10907,"Michael":10908,"Ġpitch":10909,"core":10910,"ĠLegislative":10911,"okes":10912,"unity":10913,"mn":10914,"Ġguidance":10915,"ben":10916,"Ġpictures":10917,"ĠMS":10918,"there":10919,"ĠPatri":10920,"Ġguilty":10921,"ĠĠĠĠĠĠĠĠĠĠĠĠĠ":10922,"Ġgravity":10923,"Ġtied":10924,"ĠGirls":10925,"ĠMembers":10926,"pread":10927,"mal":10928,"ĠKl":10929,"ĠEdition":10930,"Ġthin":10931,"Ġlawyers":10932,"ĠDance":10933,"Ġhandle":10934,"Ġmapping":10935,"Ġanimated":10936,"ĠAug":10937,"town":10938,"^*$":10939,"winning":10940,"ĠLab":10941,"Ġaimed":10942,"mathop":10943,"Ġencourage":10944,"ontal":10945,"ĠSeveral":10946,"Group":10947,"graduate":10948,"ĠMichel":10949,"ĠDakota":10950,"Plot":10951,"Ġhosts":10952,"Ġhealthcare":10953,"Description":10954,"ĠAssistant":10955,"Ep":10956,"Ġpopularity":10957,"Ġeligible":10958,"chers":10959,"Ġavo":10960,"perty":10961,"ĠMargaret":10962,"hattan":10963,"Ġrecognize":10964,"Ġreveals":10965,"ĠMovement":10966,"Ġidentification":10967,"Ġoutstanding":10968,"Ġengines":10969,"ĠLanka":10970,"gi":10971,"Ĥ¬":10972,"bigl":10973,"Ġdealing":10974,"Vill":10975,"ĠLGBT":10976,"oking":10977,"fol":10978,"Video":10979,"Ġinsert":10980,"Ġsimilarly":10981,"Ġprefer":10982,"ĠCole":10983,"Roman":10984,"Ġfee":10985,"Ġrecre":10986,"Ġknock":10987,"Ġru":10988,"Ġpresentation":10989,"ijing":10990,"ĠPA":10991,"stable":10992,"Ġgarden":10993,"ĠBroadway":10994,"Ġexhibit":10995,"ĠSecret":10996,"Ġisolated":10997,"ĠGary":10998,"ĠWorks":10999,"ĠMes":11000,"andal":11001,"ĠPho":11002,"Ġresign":11003,"Ġacquisition":11004,"ĠMonte":11005,"ĠOd":11006,"hent":11007,"ĠJenn":11008,"ĠGraham":11009,"Ġdescribing":11010,"Ġwides":11011,"Ġhealthy":11012,"olt":11013,"Ġhybrid":11014,"Ġdirections":11015,"ĠChen":11016,"ranean":11017,"Ġweekly":11018,"Ġfunded":11019,"Ġdesigner":11020,"ĠCrim":11021,"Ġencouraged":11022,"ĠKnight":11023,"Ġhier":11024,"Äĥ":11025,"Ġdestruction":11026,"Ġmodule":11027,"athered":11028,"isode":11029,"ĠFranklin":11030,"Ġpix":11031,"ĠHell":11032,"ificate":11033,"Count":11034,"...,":11035,"Ġargue":11036,"Ġstake":11037,"arting":11038,"makers":11039,"Ġdefensive":11040,"Ġpron":11041,"Ġseventh":11042,"ĠFal":11043,"zerbai":11044,"Ġinformed":11045,"olving":11046,"Ġsimultaneously":11047,"Ġdefinitely":11048,"Ġviolent":11049,"Ġconsent":11050,"ĠAmendment":11051,"maker":11052,"October":11053,"ĠRic":11054,"viously":11055,"itecture":11056,"Ġ]":11057,"ĠOrthodox":11058,"Source":11059,"oustic":11060,"))\\":11061,"ĠMarshall":11062,"Pat":11063,"Ġaims":11064,"joint":11065,"ĠFinance":11066,"Ap":11067,"ĠMontreal":11068,"atar":11069,"ĠFreedom":11070,"ĠFight":11071,"ĠAqu":11072,"mates":11073,"Ġfruit":11074,"Ġweights":11075,"Ġillustrated":11076,"gr":11077,"orf":11078,"Ġnice":11079,"Ġdeputy":11080,"Ġestimation":11081,"ĠOpera":11082,"Ã´":11083,"Ġrevers":11084,"$_{":11085,"Ġpersonality":11086,"ĠStudy":11087,"ĠVenezuel":11088,"Ġvaluable":11089,"obi":11090,"Club":11091,"ĠCircuit":11092,"}}_{\\":11093,"ĠMuslims":11094,"ycl":11095,"Ġellip":11096,"Ġsitting":11097,"Ġdens":11098,"ĠCampbell":11099,"Despite":11100,"election":11101,"lights":11102,"Ġactivist":11103,"rose":11104,"ĠZe":11105,"Ġinduct":11106,"Ġmeters":11107,"ubble":11108,"{{":11109,"iture":11110,"><":11111,"Ġstayed":11112,"Rem":11113,"Ġgenetic":11114,"Ġdecomposition":11115,"flu":11116,"Ġpraised":11117,"Ġinterface":11118,"ariance":11119,"Ġentries":11120,"song":11121,"Ġoutl":11122,"Ġfulfill":11123,"irates":11124,"Ġdisorder":11125,"ourier":11126,"Ġinnovation":11127,"\\}$.":11128,"Ġresigned":11129,"104":11130,"160":11131,"Ġfest":11132,"uda":11133,"Ġmolecular":11134,"ĠHend":11135,"amps":11136,"Ġcompat":11137,"Ġscaling":11138,"Profess":11139,"ĠFA":11140,"Ġmes":11141,"San":11142,"Ġadmin":11143,"ĠType":11144,"Ġrecru":11145,"Ġque":11146,"Ġneural":11147,"aze":11148,"Ġabroad":11149,"ĠVegas":11150,"ĠRain":11151,"Ġbranches":11152,"ĠPlayer":11153,"ĠUkrainian":11154,"ibbean":11155,"Ġ(),":11156,"NC":11157,"kee":11158,"September":11159,"equate":11160,"Ġsubsc":11161,"Ġdamaged":11162,"Ġcommut":11163,"geb":11164,"1870":11165,"Academ":11166,"oes":11167,"Ġtempl":11168,"bigr":11169,"ĠLeban":11170,"ĠLiverpool":11171,"fare":11172,"ĠAlice":11173,"emor":11174,"âĢĻ.":11175,"orton":11176,"ĠCommunications":11177,"Ġoperational":11178,"antine":11179,")--":11180,"rosc":11181,"Ġcomplicated":11182,"cient":11183,"BB":11184,"Ġintr":11185,"Ġkinds":11186,"Ġvariations":11187,"sa":11188,"amer":11189,"Ġdated":11190,"ĠPhD":11191,"ĠQual":11192,"Ġrailroad":11193,"Ġactresses":11194,"1899":11195,"ĠBiden":11196,"Ġpursue":11197,"irmingham":11198,"author":11199,"larg":11200,"Ġ\\!":11201,"ĠVolume":11202,"Ġdowntown":11203,"TR":11204,"Ġmir":11205,"esign":11206,"ĠKa":11207,"Ġentity":11208,"gow":11209,"Ġdynasty":11210,"green":11211,"ĠMorris":11212,"ĠFisher":11213,"Ġwheel":11214,"utr":11215,"Ġanticip":11216,"à¥":11217,"Ġcrop":11218,"ĠBachelor":11219,"emn":11220,"aptist":11221,"ATE":11222,"Last":11223,"Ġstatic":11224,"ĠLimited":11225,"sson":11226,"Ġsampling":11227,"Ġnotably":11228,"ĠVik":11229,"Ġworksh":11230,"Ġquantities":11231,"Ġsustainable":11232,"ĠJosh":11233,"bach":11234,"Ġur":11235,"MD":11236,"1896":11237,"died":11238,"ĠLane":11239,"Ġwindows":11240,"Ġbeauty":11241,"finals":11242,"Ġminority":11243,"Ġfees":11244,"Name":11245,"á»":11246,"Ġbid":11247,"insula":11248,"rena":11249,"ribe":11250,"Ġitem":11251,"111":11252,"ĠHampshire":11253,"achment":11254,"ĠSpeak":11255,"Ġarranged":11256,"Ġhaven":11257,"dem":11258,"Ġconstitutional":11259,"ĠNature":11260,"Ġconcepts":11261,"Ġunusual":11262,"ancouver":11263,"Ġforming":11264,"Ġmerely":11265,",\\,\\":11266,"erset":11267,"December":11268,"inds":11269,"ĠMarie":11270,"Ġcuts":11271,"Ġ[\\":11272,"ching":11273,"Ġfarmers":11274,"ffee":11275,"ĠÃī":11276,"Right":11277,"ĠMetropolitan":11278,"Ang":11279,"ician":11280,"Ġindepend":11281,"Ġdimensional":11282,"$:":11283,"Ġes":11284,"ictionary":11285,"ĠIR":11286,"Ġengage":11287,"iri":11288,"ĠComics":11289,"Ġdeclined":11290,"ĠYet":11291,"ĠChair":11292,"ĠCR":11293,"ancell":11294,"Ġwidespread":11295,"Ġfurn":11296,",$":11297,"Ġmor":11298,"direct":11299,"novation":11300,"ĠRE":11301,"ĠBey":11302,"Ġinverse":11303,"annon":11304,"Ġelder":11305,"clopedia":11306,"Ġcolleges":11307,"itis":11308,"ĠLuther":11309,"1895":11310,"ĠHerm":11311,"Ġclimb":11312,"tiny":11313,"Ġwalking":11314,"ĠRoc":11315,"Ġbon":11316,"128":11317,"pg":11318,"Ġpropose":11319,"Ġpassage":11320,"Ġnewspapers":11321,"Vol":11322,"ĠĠĠĠĠĠĠĠĠĠĠĠĠĠĠĠĠĠĠ":11323,"Ġinfluential":11324,"ĠArn":11325,"Scott":11326,"defined":11327,"ĠWelsh":11328,"Ġcollapse":11329,"ĠTO":11330,"Ġlegislative":11331,"Ġages":11332,"casting":11333,"Ġroutes":11334,"Ġprofessionals":11335,"ivan":11336,"]}":11337,"ĠFr":11338,"cules":11339,"Ġcontracts":11340,"east":11341,"person":11342,"Ġactivists":11343,"]$,":11344,"ĠChapter":11345,"Ġpanels":11346,"ĪĴ":11347,"rency":11348,"DI":11349,"Ġindustries":11350,"Ġguys":11351,"rock":11352,"ricane":11353,"umption":11354,"ĠCommissioner":11355,"ĠPhoto":11356,"Ġassembly":11357,"Oh":11358,"Ġocean":11359,"Given":11360,"sts":11361,"paragraph":11362,"hor":11363,"Ġthreatened":11364,"ĠJohann":11365,"verseas":11366,"Ġprofit":11367,"ĠNep":11368,"Ġnaturally":11369,"bed":11370,"Ġspoken":11371,"Ġreven":11372,"Ġsurvive":11373,"ĠAppendix":11374,"ateral":11375,"Ġdisplayed":11376,"Ġconvicted":11377,"Ġrestored":11378,"abric":11379,"Ġmagnet":11380,"Fran":11381,"Ä«":11382,"VI":11383,"ĠOri":11384,"Ġemerged":11385,"Ġconscious":11386,"ĠRio":11387,"Ġreception":11388,"Ġcongress":11389,"Ġdivisions":11390,"uki":11391,"test":11392,"Ġagriculture":11393,"ĠNazi":11394,"Ġpicked":11395,"Ġmemor":11396,"ĠEff":11397,"ĠDie":11398,"Us":11399,"ĠRelations":11400,"Ġbishop":11401,"Ġtrace":11402,"ĠLanguage":11403,"ĠFel":11404,"ĠAlfred":11405,"ĠMagn":11406,"ochastic":11407,"othy":11408,"ĠStev":11409,"Major":11410,"Ġmile":11411,"Ġdifficulty":11412,"Ġton":11413,"Ġbelongs":11414,"Ġlegit":11415,"Ġphotographs":11416,"ĠUnit":11417,"Ġdescend":11418,"Ġquantity":11419,"})}":11420,"Ġrecept":11421,"Robert":11422,"ĠBangladesh":11423,"Table":11424,"Ġconform":11425,"Ġlocomot":11426,"Ġimmigrants":11427,"ĠAI":11428,"lon":11429,"ĠMaj":11430,"Flor":11431,"Ġfewer":11432,"Dep":11433,"Ġneutr":11434,"103":11435,"Ġevil":11436,"Ġelsewhere":11437,"dep":11438,"ensing":11439,"olves":11440,"enders":11441,"GL":11442,"race":11443,"agged":11444,"Ġsurprising":11445,"PT":11446,"Ġdefendant":11447,"umps":11448,"Ġvolumes":11449,"Ġsettings":11450,"represent":11451,"itime":11452,"Ġluminos":11453,"aments":11454,"ĠVienna":11455,"erver":11456,"Ġmanip":11457,"Ġstructural":11458,";\"|":11459,"ĠTamil":11460,"Ġrecovered":11461,"Ġcolors":11462,"Ġprovincial":11463,"Ġdistinguished":11464,"scar":11465,"Ġmessages":11466,"Histor":11467,"Ġpaths":11468,"Ġremote":11469,"ĠRailroad":11470,"Ġcann":11471,"news":11472,"ĠDub":11473,"illo":11474,"Ġthemes":11475,"1897":11476,"ĠCNN":11477,"Ġemissions":11478,"general":11479,"etition":11480,"Os":11481,"Cap":11482,"ĠManager":11483,"ĠLl":11484,"anim":11485,"Ġconsumers":11486,"ĠBaker":11487,"Ġorganisations":11488,"Ġwine":11489,"bridge":11490,"Ġwearing":11491,"Ġelectoral":11492,"link":11493,"Ġprivile":11494,"ĠShah":11495,"ĠPortland":11496,"Ġdiscrimination":11497,"ĠPad":11498,"appy":11499,"ĠSev":11500,"unctions":11501,"ĠTheater":11502,"racket":11503,"aled":11504,"iterranean":11505,"ximate":11506,"Ġintellectual":11507,"ĠPrincess":11508,"iors":11509,"140":11510,"ĠStanley":11511,"oked":11512,"orro":11513,"arthe":11514,"hai":11515,"ĠRomania":11516,"Ġmanaging":11517,"November":11518,"ĠCass":11519,"geon":11520,"Ġderive":11521,"ratic":11522,"Ġtort":11523,"Ã¥":11524,"Reception":11525,"ationally":11526,"ĠManhattan":11527,"tem":11528,"overe":11529,"Ġfiles":11530,"\";":11531,"ĠEle":11532,"vature":11533,"Ġpredictions":11534,"Ġcomed":11535,"Ġhat":11536,"Ġwithd":11537,"Ġimproving":11538,"Mart":11539,"Ġimposed":11540,"ĠWarren":11541,"ĠSN":11542,"Ġboost":11543,"Ġintermediate":11544,"Ġphotography":11545,"Ġmask":11546,"Ġenergies":11547,"Ġpermission":11548,"Ġsharp":11549,"Ġhill":11550,"ĠAlaska":11551,"enix":11552,"Ġranking":11553,"][]{":11554,"contin":11555,"Ġpossession":11556,"ournament":11557,"Ġkingdom":11558,"Ġsupplies":11559,"iger":11560,"Ġcolleagues":11561,"Also":11562,"Ġabsolutely":11563,"ĠPun":11564,"aura":11565,"Ġwars":11566,"ĠSmall":11567,"ĠEvans":11568,"Ġdatasets":11569,"ĠIndians":11570,"ĠLiving":11571,"ĠNevada":11572,"Ġvalley":11573,"itations":11574,"isting":11575,"Ġshr":11576,"Ġrid":11577,"hew":11578,"ĠMC":11579,"Dan":11580,"arus":11581,"ĠCultural":11582,"Ġannually":11583,"ervoir":11584,"Ġadvers":11585,"enson":11586,"ifting":11587,"Ġmatching":11588,"iu":11589,"ĠEconomics":11590,"orted":11591,"onian":11592,"Ġcounties":11593,"itle":11594,"Ġcontroversial":11595,"Ġprepare":11596,"Ġmig":11597,"ĠAustrian":11598,"Consider":11599,"ĠWebsite":11600,"yset":11601,"Ġviolation":11602,"Ġretained":11603,"ĠTam":11604,"Ġmarks":11605,"ithuan":11606,"Ġnomination":11607,"George":11608,"Ġslowly":11609,"eton":11610,"Ġnormally":11611,"âĨ":11612,"ĠEsp":11613,"Ġmechanical":11614,"inea":11615,"ĠUpon":11616,"ĠAy":11617,"ĠWatch":11618,"ĠStars":11619,"Ġdemands":11620,"incorpor":11621,"Ġcompensation":11622,"Ġmanifold":11623,"WA":11624,"}[\\":11625,"Ġneighb":11626,"Ġinterviews":11627,"Ġsed":11628,"sat":11629,"ĠGill":11630,"ĠMD":11631,"Ġindigenous":11632,"Ġpoem":11633,"Ġassuming":11634,"wright":11635,"ethe":11636,")})":11637,"angular":11638,"lee":11639,"Ġsurprise":11640,"vi":11641,"engths":11642,"Russian":11643,"ĠGlas":11644,"Ġcharity":11645,"Ġfishing":11646,"master":11647,"ugoslav":11648,"ĠConsider":11649,"ĠJimmy":11650,"ĠCarn":11651,"ĠRico":11652,"Ġcompeting":11653,"Ġmechanisms":11654,"Ġromantic":11655,"Ġtrivial":11656,"Ġvenues":11657,"will":11658,"Ġspr":11659,"ÃŃn":11660,"ĠBed":11661,"(\"":11662,"ĠMountains":11663,"Ġplas":11664,".),":11665,"ĠKir":11666,"dfrac":11667,"Ġequally":11668,"than":11669,"ĠPract":11670,"Final":11671,"Ġrequested":11672,"Ġproven":11673,"ĠBeck":11674,"Because":11675,"gov":11676,"Ġrounds":11677,"]{\\":11678,"Expatriate":11679,"ĠMotor":11680,"Ġsick":11681,"ternoon":11682,"longrightarrow":11683,"Ġexplanation":11684,"Ġfalling":11685,"Ġtownship":11686,"Ġcounterpart":11687,"uis":11688,"President":11689,"Ġconversion":11690,"ĠLower":11691,"Ġhospitals":11692,"leased":11693,"Ġlegacy":11694,"106":11695,"ĠResources":11696,"arios":11697,"Ġcir":11698,"Ġwider":11699,"rable":11700,"ĠNad":11701,"Ġplaintiff":11702,"ĠCrit":11703,"Ġenact":11704,"oba":11705,"ĠIranian":11706,"Ġsurrounded":11707,"Ġpreparation":11708,"ĠBilly":11709,"Ġattributed":11710,"Ġdisag":11711,"Ġsigning":11712,"Ġimprovements":11713,"ictions":11714,"ĠJazz":11715,"Ġposts":11716,"ĠPil":11717,"ĠCharlie":11718,"ĠChampion":11719,"ĠHil":11720,"Ġalter":11721,"Ġpainted":11722,"Ġestablishing":11723,"Ġcoastal":11724,"miral":11725,"((":11726,"sign":11727,"Ġalive":11728,"Afric":11729,"chiat":11730,"Ġprosecut":11731,"ĠChristianity":11732,"ĠCapitol":11733,"ĠIndustry":11734,"ĠCaribbean":11735,"Ġcous":11736,"ĠRud":11737,"ĠStudents":11738,"ĠProtest":11739,"ĠAND":11740,"1860":11741,"rators":11742,"Ġcolumns":11743,"Ġsacr":11744,"ME":11745,"Ġgolf":11746,"ĠCry":11747,"Ġ^{":11748,"Ġguess":11749,"ĠMap":11750,"Ġsizes":11751,"story":11752,"Ġsuspended":11753,"Ġdevelopments":11754,"fast":11755,"Ġexisted":11756,"emin":11757,"ĠMars":11758,"Songs":11759,"ĠExchange":11760,"clusively":11761,"Ġconfident":11762,"Ġbos":11763,"ĠSimilarly":11764,"1889":11765,"oan":11766,"OW":11767,"ĠEvent":11768,"Ġdoctors":11769,"verage":11770,"imp":11771,"Ġrealize":11772,"Ġrivers":11773,"cs":11774,"Ġelementary":11775,"GS":11776,"Ġswe":11777,"Ġride":11778,"Ġdiagonal":11779,"}}.":11780,"emptyset":11781,"ugs":11782,"Ġmaximal":11783,"ĠAthe":11784,"mate":11785,"dependent":11786,"Ġcomputational":11787,"Ġvessels":11788,"Ġbiological":11789,"Ġseriously":11790,"ĠSD":11791,"ĠBeijing":11792,"Ġclosing":11793,"Ġextends":11794,"Ġmonitoring":11795,"ĠTower":11796,"Ġgeneralized":11797,"ĠRepublicans":11798,"ĠRugby":11799,")\"":11800,"Ġreleases":11801,"ĠMitchell":11802,"ĠMeg":11803,"Ġcoupled":11804,"Ġschemes":11805,"ĠTech":11806,"Ġvacuum":11807,"Ġdetermination":11808,"ĠBenn":11809,"Ġwounded":11810,"ĠGP":11811,"ĠUrban":11812,";\\;\\":11813,"Ġdeeply":11814,"MB":11815,"ĠPR":11816,"Ġassass":11817,"Ãł":11818,"++":11819,"uclear":11820,"Ġdefence":11821,"Ġcriticized":11822,"fortunately":11823,"ĠChange":11824,"ĠVI":11825,"Japanese":11826,"ospel":11827,"ĠÂ·":11828,"Ġdaughters":11829,"fire":11830,"Ġexclusive":11831,"expected":11832,"ographics":11833,"Ġfoss":11834,"Ġdisappoint":11835,"Ġorientation":11836,"algorithm":11837,"Ġfairly":11838,"Ġbath":11839,"Ġreads":11840,"Ã«":11841,"ĠâĨ":11842,"Ã©n":11843,"Ġthirty":11844,"ĠAL":11845,"Ġvital":11846,"ishments":11847,"Ġinfection":11848,"Ġclosure":11849,"reduc":11850,"del":11851,"unning":11852,"written":11853,"cale":11854,"imental":11855,"Ġcontroversy":11856,"ĠGuy":11857,"ĠJonathan":11858,".-":11859,"Ġannounc":11860,"Ġcredits":11861,"Ġgenerating":11862,"Ġexport":11863,"ĠGon":11864,"Ġ(âĢľ":11865,"Ġoutcomes":11866,"acre":11867,"Ġregister":11868,"Ġtexts":11869,"essage":11870,"boy":11871,"ĠMPs":11872,"oga":11873,"listed":11874,"Time":11875,"Ġdense":11876,"ĠHawaii":11877,"Ġdetermin":11878,"heric":11879,"ĠStill":11880,"Ġapartment":11881,"ĠConservative":11882,"Ġstrictly":11883,"ĠMadrid":11884,"Ġpayments":11885,"Ġinvolve":11886,"ĠHungarian":11887,"prot":11888,"ĠWayne":11889,"Ġfat":11890,"Official":11891,"ĠCrime":11892,"Ġsignature":11893,"1892":11894,"Ġcodes":11895,"Ġregardless":11896,"ĠRand":11897,"350":11898,"Ġdiameter":11899,"Ġsuperior":11900,"missions":11901,"ĠSS":11902,"Ġgenerations":11903,"Ġphases":11904,"atics":11905,"Ġourselves":11906,"ĠCuba":11907,"ĠWas":11908,"sychiat":11909,"Ġfrequent":11910,"Ġmountains":11911,"Ġdispute":11912,"umed":11913,"Ġabstract":11914,"Ġdevoted":11915,"1893":11916,"ĠDelhi":11917,"Ġ{$":11918,"Ġprecise":11919,"Ġpremiered":11920,"atorial":11921,",{\\":11922,"Att":11923,"ĠElectric":11924,"\\;":11925,"ĠBirmingham":11926,"ĠAlberta":11927,"\\\\\\\\\\\\\\\\\\\\\\\\\\\\\\\\\\\\\\\\\\\\\\\\\\\\\\\\\\\\\\\\\\\\\\\\\\\\\\\\\\\\\\\\\\\\\\\\\\\\\\\\\\\\\\\\\\\\\\\\\\\\\\\\\\\\\\\\\\\\\\\\\\\\\\\\\\\\\\\\\\\\\\\\\\\\\\\\\\\\\\\\\\\\\\\\\\\\\\\\\\\\\\\\\\\\\\\\\\\\\\\\\\\\\\\\\\\\\\\\\\\\\\\\\\\\\\\\":11928,"Ġmissions":11929,"Buildings":11930,"Ġdiverg":11931,"Ġinvestigated":11932,"ĠAndy":11933,"}{*}{$":11934,"{|":11935,"hammad":11936,"Ġanch":11937,"Ġvessel":11938,"incorporated":11939,"ĠMetro":11940,"ĠBernard":11941,"1894":11942,"Ġradial":11943,"Ġkit":11944,"ocket":11945,"Ġranks":11946,"Ġbegun":11947,"Ġgradually":11948,"Ġremainder":11949,"Ġtopological":11950,"Ġcreates":11951,"Ġunem":11952,"Ġconnecting":11953,"Ġcultiv":11954,"olutions":11955,"ĠHeb":11956,"otions":11957,"Ġfocusing":11958,"Ġphenomenon":11959,")}_":11960,"cre":11961,"Main":11962,"hn":11963,"eded":11964,"Ġpromoting":11965,"cover":11966,"Ġprev":11967,"ĠEgyptian":11968,"Oper":11969,"bishop":11970,"ĠProfessional":11971,"Non":11972,"Proof":11973,"ĠMack":11974,"raham":11975,"Ġanalys":11976,"BR":11977,"Ġstrip":11978,"ĠOttoman":11979,"alph":11980,"Ġindependently":11981,"Ġsin":11982,"Ġsymbols":11983,"();":11984,"Ġrequiring":11985,"Ġdisput":11986,"Ġconstituency":11987,"Ġha":11988,"ropic":11989,"GR":11990,"ĠHad":11991,"imir":11992,"Ġvarying":11993,"step":11994,"actory":11995,"Ġthoughts":11996,"MF":11997,"Ġbare":11998,"idency":11999,"nan":12000,"Ġ}{":12001,"Ġatoms":12002,"ĠAnnual":12003,"Ġhopes":12004,"Ġresponded":12005,"ymmetry":12006,"Ġpreserved":12007,"ĠSU":12008,"chron":12009,"Italian":12010,"ĠNewton":12011,"Ġbelonging":12012,"Ġbeach":12013,"riel":12014,"Ġhabitat":12015,"din":12016,"ĠRap":12017,"Ġnortheast":12018,"Ġredshift":12019,"Ġregulatory":12020,"></":12021,"ĠPref":12022,"ĠOperation":12023,"ĠBron":12024,"Aut":12025,"ogram":12026,"vironments":12027,"Ġbars":12028,"HT":12029,"}})":12030,"ovo":12031,"Ġlicensed":12032,"gate":12033,"iota":12034,"Ġpreferred":12035,"Ġreconstruction":12036,"ĠBarbara":12037,"Ġsessions":12038,"ĠHum":12039,"108":12040,"len":12041,"Ġdialogue":12042,"Ġmerger":12043,"Ġprinted":12044,"ĠEncy":12045,"ĠParker":12046,"Ġcorruption":12047,"ĠObl":12048,"ricket":12049,"bottom":12050,"ĠAzerbai":12051,"ĠNBC":12052,"ĠBlood":12053,"Ġfirms":12054,"Ġnonlinear":12055,"Ġregistration":12056,"Family":12057,"Ġferm":12058,"nia":12059,"ĠĠĠĠĠĠĠĠĠĠĠĠĠĠ":12060,"ĠKan":12061,"Ġsuppose":12062,"Ġunlike":12063,"Ġhappening":12064,"Ġcod":12065,"Ġrely":12066,"ometry":12067,"Ġengagement":12068,"Ġreduces":12069,"107":12070,"ĠVancouver":12071,"Color":12072,"Ð»":12073,"Ġindicating":12074,"rs":12075,"Ġattending":12076,"Ġupcoming":12077,"Ġsurfaces":12078,"Ġweapon":12079,"Ġcul":12080,"people":12081,"ĠCommons":12082,"ĠFriends":12083,"Ġcouples":12084,"Equ":12085,"expl":12086,"ĠFellow":12087,"ĠDefence":12088,"ĠInsp":12089,"eras":12090,"Ġhelic":12091,"ĠLINE":12092,"results":12093,"Ġsystematic":12094,"ĠCou":12095,"ĠHispan":12096,"1891":12097,"Ġinnovative":12098,"algebra":12099,"PD":12100,"Ġreaches":12101,"HA":12102,"ĠSR":12103,"Pal":12104,"Ġasc":12105,"hour":12106,"ĠOpp":12107,"Ġdeemed":12108,"1885":12109,"Ġeg":12110,"ulu":12111,"Ġforests":12112,"Ġorg":12113,"ibet":12114,"ordinary":12115,"Ġemerging":12116,"Ġsuccessor":12117,"ĠHero":12118,"xx":12119,"ĠFant":12120,"Ġphoton":12121,"ĠWrest":12122,"owned":12123,"Ġlabour":12124,"Ġmedieval":12125,"aks":12126,"ogan":12127,"ĠCBS":12128,"prov":12129,"âĢĭ":12130,"Ġraising":12131,"Ġabsorb":12132,"})=":12133,"Ġworker":12134,"icing":12135,"bn":12136,"Ġpaying":12137,"ĠClin":12138,"Ġtotally":12139,"USA":12140,"Ġcanonical":12141,"ĠTob":12142,"Ġconstants":12143,"Transport":12144,"!\"":12145,"Ġinstruction":12146,"Ġtie":12147,"Ġproceedings":12148,"ĠGran":12149,"isons":12150,"Ġtang":12151,"oro":12152,"Ġaccum":12153,"ĠCollins":12154,"fold":12155,"Ġsad":12156,"ĠUpper":12157,"kl":12158,"card":12159,"Ġcredited":12160,"charge":12161,"ysical":12162,"ĠNorman":12163,"Ġisomorphism":12164,"Hence":12165,"Ġclaiming":12166,"Ġautomatically":12167,"ĠDeep":12168,"Box":12169,"isson":12170,"Ġlanding":12171,"Ġamongst":12172,"ĠBlues":12173,"Ġsoph":12174,"ĠWithout":12175,"named":12176,"nowled":12177,"ivia":12178,"${\\":12179,"onymous":12180,"900":12181,"oons":12182,"Ġworship":12183,"Ġprotocol":12184,"ĠTreas":12185,"ĠMicrosoft":12186,"ĠSalv":12187,"Law":12188,"1888":12189,"ĠSoft":12190,"Ġtrail":12191,"ĠNi":12192,"ĠIntelligence":12193,"ĠWindows":12194,"asa":12195,"Ġasymptotic":12196,"likely":12197,"ĠJohnny":12198,"Ġlifetime":12199,"Ġdict":12200,"Ġelectrical":12201,"mund":12202,"1865":12203,"Ben":12204,"rets":12205,"Ġusage":12206,"Political":12207,"names":12208,"Ġranging":12209,"ĠMovie":12210,"Ġobviously":12211,"umbent":12212,"ĠAgreement":12213,"bow":12214,"Ġphysician":12215,"Lemma":12216,"istence":12217,"ourt":12218,"ĠUnd":12219,"fs":12220,"Ġpublisher":12221,"Ġnaval":12222,"Even":12223,"ristol":12224,"hibition":12225,"Ġloyal":12226,"yll":12227,"Ġblow":12228,"gun":12229,"ĠCust":12230,"Ġreportedly":12231,"Ġevident":12232,"oub":12233,"forms":12234,"Alex":12235,"DT":12236,"LR":12237,"Ġsurviv":12238,"closed":12239,"ĠRural":12240,"fiction":12241,"Ġcompilation":12242,"ĠCathedral":12243,"ducational":12244,"Ġtel":12245,"Ġterritories":12246,"orer":12247,"ĠSE":12248,"Ġtoler":12249,"encer":12250,"oat":12251,"Ġdefines":12252,"ĠPast":12253,"ultan":12254,"uez":12255,"Ġremoval":12256,"Ġhip":12257,"ĠBenjamin":12258,"Ġmargin":12259,"ĠSocorro":12260,"Ġwelcome":12261,"anion":12262,"Ġevaluated":12263,"Ġisot":12264,"Ġclock":12265,"ĠBomb":12266,"Ġsentenced":12267,"ĠPS":12268,"parison":12269,"ĠPictures":12270,"lett":12271,"ibraries":12272,"Ġenthus":12273,"Ġbird":12274,"ifle":12275,"Ġpreserve":12276,"Ġguitarist":12277,"GE":12278,"ĠLock":12279,"Ġnorthwest":12280,"Ġarrangement":12281,"ĠHorn":12282,"Ġfriendly":12283,"ĠVerm":12284,"aneous":12285,"Ġholes":12286,"Bur":12287,"Ġpartly":12288,"\\}\\":12289,"ĠGriff":12290,"Ġgross":12291,"ĠSymph":12292,"urations":12293,"Ġcomposers":12294,"Ġmail":12295,"Ġquiet":12296,"Ġelectro":12297,"Ġexpressions":12298,"umar":12299,"ocent":12300,"Ġsurre":12301,"sper":12302,"Ġcitizen":12303,"Ġrestaurants":12304,"ĠHunter":12305,"Di":12306,"Ġapproximate":12307,"Form":12308,"=.":12309,"clip":12310,"Ġauthorized":12311,"Ġspeaker":12312,"vect":12313,"\\)":12314,"ĠOrange":12315,"ĠQuest":12316,"backs":12317,"Ġparticipating":12318,"ĠWang":12319,"ĠPack":12320,"})^":12321,"opal":12322,"Ġensemble":12323,"Ġreporter":12324,"ĠBarry":12325,"Ġinspiration":12326,"ĠLINEAR":12327,"raska":12328,"ĠMedic":12329,"Ġinstrumental":12330,"Ġfault":12331,"Ġeconomics":12332,"Det":12333,"Ġexempt":12334,"opyright":12335,"European":12336,"Ġgrants":12337,"Ġguarantee":12338,"aku":12339,"ĠFaculty":12340,"vals":12341,"FS":12342,"Ġborders":12343,"Ġdisaster":12344,"ĠStudent":12345,"ĠCarm":12346,"Ġbeliefs":12347,"asant":12348,"Ġfiscal":12349,"ĠLad":12350,"ynamics":12351,"Ġpriority":12352,"Ġeliminated":12353,"ĠCher":12354,"process":12355,"ulous":12356,"ĠEmb":12357,"Moreover":12358,"Ġholiday":12359,"Ġmagazines":12360,"Ġlongest":12361,"su":12362,"Ġties":12363,"ĠIan":12364,"February":12365,"otton":12366,"Ġchamber":12367,"Ext":12368,"ĠLearning":12369,"Ġdisturb":12370,"assy":12371,"ĠJosÃ©":12372,"Ġcorrection":12373,"onomous":12374,"ĠColonel":12375,"Const":12376,"Ġexploration":12377,"ĠMall":12378,"ĠSaints":12379,"vector":12380,"Ġwings":12381,"ĠNumber":12382,"ĠAccount":12383,"Ġqualifying":12384,"Ġattracted":12385,"EFA":12386,"Ġbigger":12387,"tikzpicture":12388,"Ġreceives":12389,"MT":12390,"eva":12391,"ĠArena":12392,"Ġscholar":12393,"Ġhal":12394,"ĠPant":12395,"Ġsubmar":12396,"leyball":12397,"Ġnegotiations":12398,"ĠStudio":12399,"original":12400,"whel":12401,"udson":12402,"since":12403,"Ġembedding":12404,"ntil":12405,"Ġattain":12406,"Jew":12407,"Ġacted":12408,"Ġdoct":12409,"Ġcomparable":12410,"gebras":12411,"Ġexpanding":12412,"cycle":12413,"ĠUg":12414,"Den":12415,"ĠConfeder":12416,"Ġvariance":12417,"bad":12418,"Ġinstances":12419,"Ġsectors":12420,"imony":12421,"ĠArabia":12422,"arity":12423,"/(":12424,"ĠAnalysis":12425,"ennial":12426,"Ġox":12427,"ĠâĢł":12428,"Ġwhilst":12429,"];":12430,"Through":12431,"scriptstyle":12432,"Works":12433,"tz":12434,"Ġreflected":12435,"ĠUse":12436,"Ġstabil":12437,"Ġflowers":12438,"ĠDJ":12439,"Ġspac":12440,"Ġmodeling":12441,"anne":12442,"artheta":12443,"1850":12444,"Ġstem":12445,"^{*":12446,"ĠAlban":12447,"Ġvulnerable":12448,"Ġduration":12449,"ĠYes":12450,"Ġdepicted":12451,"ĠCarlos":12452,"owell":12453,"ĠChallenge":12454,"vartheta":12455,"ĠViol":12456,"import":12457,"bmatrix":12458,"Ġstored":12459,"osph":12460,"Ġthereby":12461,"Ġdefault":12462,"ĠNord":12463,"360":12464,"ĠIC":12465,"IST":12466,"Long":12467,"eda":12468,"ĠMind":12469,"olia":12470,"Ġdoors":12471,"ĠForum":12472,"ĠBasketball":12473,"Ġanom":12474,"ĠEditor":12475,"Ġstarred":12476,"ĠTele":12477,"Ġtom":12478,"}}^{\\":12479,"zes":12480,"terior":12481,"ATION":12482,"Ġcinema":12483,"estone":12484,"Ġintervention":12485,"ĠTake":12486,"Ġtunnel":12487,"Ġrefugees":12488,"oka":12489,"esian":12490,"Ġtargeted":12491,"Ġrhythm":12492,"ĠIsa":12493,"Ġarrive":12494,"keley":12495,"aping":12496,"ĠID":12497,"isan":12498,"base":12499,"Ġca":12500,"!âĢĿ":12501,"Ġtact":12502,"ĠHIV":12503,"rays":12504,"ĠArchives":12505,"PE":12506,"ĠPolitics":12507,"Ġprofiles":12508,"Ġutility":12509,"ĠGlasgow":12510,"fish":12511,"Ġdrew":12512,"ĠFellows":12513,"family":12514,"Ġproportional":12515,"ĠJama":12516,"number":12517,"ĠUniversal":12518,"ĠAld":12519,"ÅŁ":12520,"oi":12521,"Ġrepair":12522,"}_{-":12523,"Ġfeelings":12524,"Ġexclusively":12525,"Ġquasi":12526,"ixon":12527,"Ġannouncement":12528,"Tra":12529,"inated":12530,"Ġthreats":12531,"eyer":12532,"iliation":12533,"hill":12534,"Ġreconstruct":12535,"ĠMediterranean":12536,"Dis":12537,"Ġmachines":12538,"Jack":12539,"emale":12540,"ĠFlore":12541,"Ġfluctuations":12542,"$};":12543,"ĠSteel":12544,"Ġ*/":12545,"Ġdifficulties":12546,"Ġfantasy":12547,"Ġsolving":12548,"Railway":12549,"Ġafternoon":12550,"avan":12551,"gather":12552,"Ġscr":12553,"Ġdeals":12554,"AV":12555,"ĠVar":12556,"Ġcurvature":12557,"Today":12558,"Ġcogn":12559,"Ġkin":12560,"Ġpermitted":12561,"ĠSafety":12562,"Ġserial":12563,"harm":12564,"Ġblind":12565,"ĠPlant":12566,"Medal":12567,"ĠSlov":12568,"ersonnel":12569,"Ġdepression":12570,"109":12571,"acle":12572,"ĠLiterature":12573,"Ġquot":12574,"itects":12575,"Ġscientist":12576,"Ġenvironments":12577,"Ġfictional":12578,"Ġreun":12579,"ĠTrophy":12580,"ĠJefferson":12581,"ĠFine":12582,"Ġ$,":12583,":=\\":12584,"square":12585,"Ġvib":12586,"orious":12587,"Ġvenue":12588,"Ġsoc":12589,"Ġbio":12590,"Arm":12591,"ĠElementary":12592,"eren":12593,"rible":12594,"auer":12595,"game":12596,"Ġentities":12597,"Er":12598,"borne":12599,"Ġcasual":12600,"being":12601,"ervice":12602,"Ġministry":12603,"ierra":12604,"\\}$,":12605,"yst":12606,"Ġwavel":12607,"ĠChel":12608,"Ġfold":12609,"Ġdil":12610,"Ġsurvival":12611,"columnwidth":12612,"aughter":12613,"Ġcyl":12614,"Each":12615,"ĠWarner":12616,"Ġdebuted":12617,"Ġhorizontal":12618,"Ġgrows":12619,"ĠBud":12620,"\\|\\":12621,"School":12622,"Ġproviders":12623,"Album":12624,"uting":12625,"iege":12626,"ĠTheory":12627,"Ġmaintaining":12628,"abe":12629,"Ġvisits":12630,"nn":12631,"Ġbases":12632,"Ġrescue":12633,"public":12634,"Ġvariant":12635,"Ġtraditions":12636,"Ġviewers":12637,"Br":12638,"Where":12639,"Ġpup":12640,"Ġmetall":12641,"1887":12642,"ĠPerformance":12643,"Sports":12644,"Ġnearest":12645,"ĠTrail":12646,"Ġhorses":12647,"Ã¨re":12648,"ativ":12649,"Ġprecision":12650,"oment":12651,"Ġpersonally":12652,"Ġdiscontin":12653,"ĠTak":12654,"ĠHarrison":12655,"Ġearthqu":12656,"Ġcable":12657,"afe":12658,"Ġfitted":12659,"jud":12660,"Ġbott":12661,"Ġasks":12662,"ĠIce":12663,"hal":12664,"ĠHindu":12665,"Â©":12666,"Ġ\\(\\":12667,"Ġresponses":12668,"Ġreliable":12669,"ĠCharlotte":12670,"Ġunderground":12671,"ĠDog":12672,"ĠBond":12673,"Villages":12674,"fly":12675,"}}=":12676,"inee":12677,"Ġpoems":12678,"Hom":12679,"avalry":12680,"Ġinterpreted":12681,"ĠJerry":12682,"Ġcup":12683,"complete":12684,"Ġessay":12685,"ĠNam":12686,"UL":12687,"ĠGray":12688,"input":12689,"Ġsending":12690,"ĠBurg":12691,"rior":12692,"intro":12693,"ĠShel":12694,"dest":12695,"quer":12696,"1861":12697,"Ġtough":12698,"Ġbrick":12699,"ĠOperations":12700,"Ġgeometric":12701,"Ġgravitational":12702,"ĠSerbia":12703,"123":12704,"Ġartificial":12705,"Ġfract":12706,"1864":12707,".).":12708,"Ġpushed":12709,"about":12710,"Ġpredomin":12711,"open":12712,"Ġequivalence":12713,"Ġrarely":12714,"ĠSteven":12715,"haust":12716,"1886":12717,"Ġelectrons":12718,"uity":12719,"akia":12720,"Ġsurviving":12721,"Ġdramatic":12722,"Ġsaved":12723,"Green":12724,"stat":12725,"communic":12726,"ĠCold":12727,"ĠTurner":12728,"folio":12729,"Ġpeoples":12730,"Ġrestoration":12731,"Ġproportion":12732,"Ġhref":12733,"ĠRichmond":12734,"Ġimpressive":12735,"ĠFeb":12736,"ĠLP":12737,"Ġbrig":12738,"large":12739,"Ã³w":12740,"Ġbrands":12741,"Ġrecommendations":12742,"ĠNASA":12743,"Ġdetector":12744,"Ġsket":12745,"Ġmarry":12746,"finite":12747,"Lou":12748,"ĠSoul":12749,"Ġperiodic":12750,"Rob":12751,"Ġhistorians":12752,"ĠAthletic":12753,"ĠMinor":12754,"ĠStorm":12755,"Ġtruck":12756,"Ġfitting":12757,"Ġdrag":12758,"Ġbattles":12759,"Ġ$.":12760,"Ġexciting":12761,"razy":12762,"Ġemphasis":12763,"ĠTreaty":12764,"Ġdistinguish":12765,"gregation":12766,"Ġsoldier":12767,"Ġsoundtrack":12768,"Ġtrouble":12769,"ĠMarvel":12770,"Ġdeparture":12771,"Ġbundle":12772,"Ġdegener":12773,"Ġcopyright":12774,"ĠGR":12775,"loc":12776,"Ġcub":12777,"Ġstrengthen":12778,"Ġfur":12779,"$^{":12780,"Ġtraveled":12781,"slash":12782,"ĠBased":12783,"Ġwet":12784,"Ġpulled":12785,"Ġwelfare":12786,"ĠFab":12787,"Ġsouthwest":12788,"Ġcoalition":12789,"Ġknowing":12790,"Ġincidents":12791,"Ġremarkable":12792,"Thomas":12793,"Ġparks":12794,"alam":12795,"wig":12796,"|}{":12797,"celand":12798,"ĠMuhammad":12799,"orient":12800,"Ġlaser":12801,"Direct":12802,"tre":12803,"View":12804,"Ġcampaigns":12805,"ĠLud":12806,"Ġsphere":12807,"iche":12808,"ĠMong":12809,"Ġphilos":12810,"teenth":12811,"omon":12812,"igion":12813,"nee":12814,"Ġwhenever":12815,"Ġgard":12816,"Ġpump":12817,"Ġcontributing":12818,"ĠChron":12819,"aba":12820,"agers":12821,"omed":12822,"ĠWor":12823,"ĠComputer":12824,"ussia":12825,"ĠFalls":12826,"Ġsoutheast":12827,"ĠDays":12828,"ĠSeven":12829,"Ġdemocratic":12830,"amous":12831,"Ġabsorption":12832,"Ġresemb":12833,"Ġfrust":12834,"writing":12835,"Ġnoting":12836,"Suppose":12837,"ĠBaptist":12838,"bian":12839,"ĠSax":12840,"Ġtriple":12841,"010":12842,"Ġadventure":12843,"Ġhardware":12844,"Ġsteam":12845,"ĠYang":12846,"pto":12847,"ERS":12848,"ĠEthiop":12849,"Ġauto":12850,"Ġcarrier":12851,"Ġoxy":12852,"shaped":12853,"ĠAS":12854,"ĠUlt":12855,"Ġpermit":12856,"romagnetic":12857,"Ġswimming":12858,"ĠUniverse":12859,"minute":12860,"entry":12861,"ĠSpeed":12862,"rise":12863,"Ġoccasionally":12864,"riculum":12865,"}}}$}":12866,"Ġtheat":12867,"etics":12868,"ĠWing":12869,"incinn":12870,"oning":12871,"^{(\\":12872,"Ġluminosity":12873,"quiry":12874,"Ġcounts":12875,"Ham":12876,"ĠPhoenix":12877,"Ġdistances":12878,"Ġdiscip":12879,"Ġcelebrate":12880,"Ġ^":12881,"Ġmonthly":12882,"Ġunsuccess":12883,"ĠTournament":12884,"Ġministers":12885,"rod":12886,"ĠFitz":12887,"Ġassemb":12888,"ogonal":12889,"Ġranges":12890,"ĠGiants":12891,"Ġimpacts":12892,"ĠKit":12893,"Ġpainters":12894,"Ġvic":12895,"ailable":12896,"Que":12897,"Ġscholarship":12898,"uart":12899,"si":12900,"Ġadds":12901,"Ġforget":12902,"rooms":12903,"---":12904,"Ġwonderful":12905,"ushing":12906,"Ġprelim":12907,"Ġtox":12908,"Ġmarginal":12909,"Ġsensitivity":12910,"ielder":12911,"Ġstochastic":12912,"Ġparad":12913,"Ġà¤":12914,"TT":12915,"Sen":12916,"Ġagreements":12917,"ĠYorkshire":12918,"ĠReturn":12919,"Ġrestriction":12920,"ĠJess":12921,"Ġbusinessman":12922,"Ġepid":12923,"Ġlogic":12924,"Ġveteran":12925,"Ġborrow":12926,"enter":12927,"Ġreact":12928,"Ġexpertise":12929,"ĠIndustrial":12930,"Ġhydrogen":12931,"abis":12932,"}|\\":12933,"Ġmini":12934,"Ġtherap":12935,"ĠRobin":12936,"ĠSO":12937,"Ġcancel":12938,"ervatory":12939,"Ġgraduating":12940,"Ġinitiatives":12941,"CL":12942,"Ġreverse":12943,"Ġpatent":12944,"GP":12945,"Ġterminal":12946,"conf":12947,"subsec":12948,"Ġglob":12949,"anche":12950,"Ġfiber":12951,"Ġguests":12952,"Ġpromise":12953,"ĠWes":12954,"Later":12955,"&=\\":12956,"Ġmemorial":12957,"ĠNicholas":12958,"Ġatomic":12959,"ĠCorp":12960,"FI":12961,"ĠStage":12962,"works":12963,"ĠClassic":12964,"ĠPeru":12965,"}~":12966,"tawa":12967,"incinnati":12968,"ĠMilan":12969,"1863":12970,"1884":12971,"ĠGot":12972,"Ġswit":12973,"ĠFIFA":12974,"ĠHope":12975,"Ġparliamentary":12976,"ĠSep":12977,"Ġfinals":12978,"Ġsupers":12979,"Ġdepartments":12980,"ĠNicol":12981,"ĠBranch":12982,"ĠTu":12983,"hematic":12984,"ĠCoal":12985,"ĠColombia":12986,"Ġtrends":12987,"Well":12988,"Po":12989,"ĠRu":12990,"Ġfrequencies":12991,"ÅĦ":12992,"Ġleaf":12993,"ĠMans":12994,"Ġexpectations":12995,"ivic":12996,"ĠGhana":12997,"avery":12998,"ĠPoly":12999,"Ġinflation":13000,"Ġscenarios":13001,"ampa":13002,"VP":13003,"negative":13004,"ĠMs":13005,"Ġbattery":13006,"Ġmainstream":13007,"ĠFif":13008,"ĠMadison":13009,"France":13010,"diff":13011,"writers":13012,"Ġcricketers":13013,"Ġjournals":13014,"Ġneglig":13015,"plus":13016,"rev":13017,"Ġflower":13018,"ĠAnim":13019,"ĠYugoslav":13020,"etries":13021,"Ġrecipient":13022,"ĠRacing":13023,"Ġportrayed":13024,"Ġdefinitions":13025,"Ġlots":13026,"ĠCommerce":13027,"Production":13028,"Ġcutting":13029,"may":13030,"ĠEug":13031,"RR":13032,"ĠWa":13033,"akespe":13034,"ĠLegal":13035,"Ġmunicipalities":13036,"Ġprest":13037,"Ġnan":13038,"uru":13039,"week":13040,"Ġdefining":13041,"vari":13042,"ĠSongs":13043,"Ġmathematical":13044,",\\\\":13045,"ĠSid":13046,"Inst":13047,"Est":13048,"iliary":13049,"ĠDM":13050,"ĠWithin":13051,"ĠChart":13052,"Ġreviewed":13053,"ĠJoy":13054,"ĠBelgian":13055,"Ġcivilian":13056,"Ġcommemor":13057,"Ġcorrections":13058,"Ġemployer":13059,"otan":13060,"ÈĻ":13061,"ĠMeanwhile":13062,"Ġexpenses":13063,"holm":13064,"ĠNat":13065,"1800":13066,"Ġdynamical":13067,"ĠNebraska":13068,"Ġdismissed":13069,"ĠKirk":13070,"Ġarrangements":13071,"Ġpian":13072,"Ġcomplaint":13073,"akespeare":13074,"ĠSyrian":13075,"you":13076,"points":13077,"ĠLov":13078,"Ġcoaching":13079,"Ġwarning":13080,"Ġunity":13081,"Ġwedding":13082,"Ġexamine":13083,"Ġdonated":13084,"Ġgram":13085,"Ġsubdiv":13086,"ĠGreater":13087,"Ġclothing":13088,"Ġevolved":13089,"Ġarchitectural":13090,"Ġdashed":13091,"Ġviolin":13092,"Ġderivatives":13093,"Ġcapabilities":13094,"Air":13095,"anti":13096,"Ġdeployed":13097,"Ġtur":13098,"fil":13099,"Ġrunner":13100,"ĠSr":13101,"ĠPrice":13102,"Ġlawsuit":13103,"ĠCraig":13104,"Ġtum":13105,"Ġgallery":13106,"rust":13107,"Ġmagic":13108,"Ġmathematics":13109,"ĠDat":13110,"onies":13111,"ĠTrack":13112,"Ġdrink":13113,"ĠBuffalo":13114,"wave":13115,"+(":13116,"ĠStra":13117,"Ġoverwhel":13118,"Ġstraightforward":13119,"Ġgenera":13120,"ĠSay":13121,"Ġ?":13122,"Ġshopping":13123,"phantom":13124,"Mad":13125,"Ġic":13126,"Ġopponents":13127,"1882":13128,"ousing":13129,"ĠOil":13130,"ourg":13131,"Ġoccasions":13132,"edu":13133,"ĠMason":13134,"ĠEuro":13135,"mother":13136,"rez":13137,"Ġtransformed":13138,"1881":13139,"Ġskill":13140,"ĠHem":13141,"ĠVel":13142,"astery":13143,"Ġconstantly":13144,"holder":13145,"Who":13146,"ĠTogether":13147,"Ġsilent":13148,"medskip":13149,"web":13150,"Station":13151,"aco":13152,"Ġphrase":13153,"Ġexponential":13154,"Ġlocality":13155,"imm":13156,"Ġimagine":13157,"Ġheter":13158,"Ġbinding":13159,"Ġfol":13160,"ĠMoroc":13161,"anthrop":13162,"ĠNiger":13163,"Ġacoustic":13164,"four":13165,"month":13166,"ittees":13167,"Ga":13168,"ĠPierre":13169,"urring":13170,"ĠPalestinian":13171,"ĠInn":13172,"Ġcompliance":13173,"ĠPaper":13174,"ĠMarx":13175,"Ġfilmed":13176,"Ġappropri":13177,"ĠSoccer":13178,"Ġdistinction":13179,"ĠZone":13180,"Ġinsight":13181,"Ġtourism":13182,"eston":13183,"Ġperpet":13184,"Hen":13185,"ĠSad":13186,"ĠNeed":13187,"ĠAthletics":13188,"when":13189,"Ġmutual":13190,"Ġstyles":13191,"acked":13192,"Ġequity":13193,"piracy":13194,"arget":13195,"ĠHunt":13196,"\\%$":13197,"abi":13198,"ĠAlexand":13199,"ivate":13200,"lein":13201,"Ġ({\\":13202,"oupl":13203,"ĠDemocrat":13204,"Ġsecured":13205,"ividual":13206,"Ġcamps":13207,"ĠSchol":13208,"central":13209,"Ref":13210,"antum":13211,"Mult":13212,"Ġcircles":13213,"Ġwooden":13214,"ancellor":13215,"ĠVeter":13216,"Ġinfluences":13217,"Ġmanufacturers":13218,"Ġlimitations":13219,"Ġeighth":13220,"notag":13221,"Ġhonour":13222,"1862":13223,"px":13224,"Ġcircular":13225,"anth":13226,"Ġcha":13227,"Ġdetermining":13228,"arning":13229,"ĠVictorian":13230,"izz":13231,"reducible":13232,"Ġenhanced":13233,"Ġ\\&":13234,"ĠMasters":13235,"Sam":13236,"118":13237,"^*(":13238,"IDS":13239,"Ġcarries":13240,"Ġcertified":13241,"Ġunlikely":13242,"ĠCS":13243,"olen":13244,"ullivan":13245,"Ġprovider":13246,"Ġprojected":13247,"ĠCancer":13248,"Sy":13249,"Ġconsiders":13250,"ĠLarry":13251,"Ġeigenvalues":13252,"athon":13253,"Ġpredecess":13254,"Ġactively":13255,"Ġdeliber":13256,"ĠVic":13257,"cross":13258,"prob":13259,"Ġoverseas":13260,"Ġpuls":13261,"Ġalgebraic":13262,"haw":13263,"ĠGround":13264,"ĠCollect":13265,"Ġbirthday":13266,"Ġtenure":13267,"WS":13268,"ĠLen":13269,"China":13270,"utical":13271,"Ġgathered":13272,"Ġuncertainties":13273,"ĠLithuan":13274,"ĠSerge":13275,"ĠLost":13276,"Ġing":13277,"ĠMerc":13278,"Ġguidelines":13279,"ĠShang":13280,"Richard":13281,"ĠâĤ¬":13282,"herical":13283,"Ġcorrespondence":13284,"Ġdefeating":13285,"Ġopens":13286,"Ġliterally":13287,"izers":13288,"Ġtalked":13289,"ĠTol":13290,"ĠFrances":13291,"ĠLA":13292,"ĠPel":13293,"Ġinternationally":13294,"Ġneck":13295,"good":13296,"Ġcomics":13297,"ĠMathemat":13298,"linary":13299,"ĠRank":13300,"ĠGay":13301,"Ã¶r":13302,"ĠSusan":13303,"ĠDid":13304,"ĠTibet":13305,"ĠTechnical":13306,"rection":13307,"ĠBengal":13308,"[-":13309,"Ġconsolid":13310,"ustain":13311,"Charles":13312,"Ġplain":13313,"Ġunp":13314,"ĠPra":13315,"usk":13316,"Ġreleg":13317,"rupted":13318,"Ø§":13319,"ĠIvan":13320,"Ġmanufacturer":13321,"ĠYank":13322,"Ġventure":13323,"iko":13324,"ĠCricket":13325,"ĠStanford":13326,"ĠNevertheless":13327,"racle":13328,"ĠRoom":13329,"\":":13330,"Ġplastic":13331,"Ġradi":13332,"Ġcultures":13333,"ĠDenver":13334,"ĠAnti":13335,"Gold":13336,"Ġdesert":13337,"figures":13338,"uce":13339,"annah":13340,"oviÄĩ":13341,"Rev":13342,"ĠPerry":13343,"Ġpersu":13344,"Ġpy":13345,"stra":13346,"Ġanalyze":13347,"ĠKenya":13348,"agar":13349,"Ġformulation":13350,"Ġanswers":13351,"ĠKath":13352,"Ġovert":13353,"ĠLeader":13354,"ĠSymphony":13355,"Ġjail":13356,"Ġorigins":13357,"Ġhorizon":13358,"Ġproposals":13359,"Ġliv":13360,"FP":13361,"Ġyoungest":13362,"Ġallegations":13363,"ĠTravel":13364,"Like":13365,"Ġlasted":13366,"Ġsubstance":13367,"ĠNova":13368,"ĠGarc":13369,"slant":13370,"Ġlikelihood":13371,"Ġtribes":13372,"Av":13373,"ĠOliver":13374,"Ġorchestra":13375,"Ġtow":13376,"Ġpsychology":13377,"Î±":13378,"alling":13379,"Ġsequel":13380,"Ġexamination":13381,"eling":13382,"Ġhung":13383,"Ġintense":13384,"Ġbreath":13385,"Ġlistening":13386,"Ġnominations":13387,"uming":13388,"Ġovercome":13389,"ĠMak":13390,"Ġinterference":13391,"ĠGate":13392,"Ġdescript":13393,"ĠRat":13394,"Ġreserved":13395,"ĠArtist":13396,"ĠLeft":13397,"Ãª":13398,"ĠKr":13399,"date":13400,"lington":13401,"ĠLuke":13402,"ĠBristol":13403,"charg":13404,"ĠSnow":13405,"ea":13406,"Nor":13407,"ĠVincent":13408,"Ġcollision":13409,"Peter":13410,"ĠCer":13411,"Mac":13412,"ĠRogers":13413,"Ġvolunteers":13414,"Ġimplications":13415,"inear":13416,"ĠBerkeley":13417,"Ġfled":13418,"Read":13419,"Ġqualify":13420,"Ġrit":13421,"oil":13422,"Ġimperial":13423,"reck":13424,"Ġtraveling":13425,"ĠVlad":13426,"Ġdx":13427,"ĠSuppose":13428,"Ġsovere":13429,"Ġaside":13430,"string":13431,"jar":13432,"Ġthorough":13433,"Ġwal":13434,"Ġstrange":13435,"ĠOcc":13436,"sterdam":13437,"Three":13438,"ĠMontana":13439,"East":13440,"uant":13441,"ĠParish":13442,"Max":13443,"bone":13444,"equations":13445,"ĠBarcel":13446,"Ġ\\,\\":13447,"idad":13448,"ĠMahar":13449,"Ġhumanity":13450,"ĠFinnish":13451,"Ġexpectation":13452,"ĠClay":13453,"Ġreflects":13454,"=\"#":13455,"ĠDelaware":13456,"ologically":13457,"ĠConstruction":13458,"ĠâĢĻ":13459,"cussion":13460,"ĠGuinea":13461,"issa":13462,"Ġsolely":13463,"yme":13464,"Ġcorporation":13465,"Ġparking":13466,"axis":13467,"Israel":13468,"King":13469,"urse":13470,"Ġraw":13471,"Stat":13472,"Ġchoosing":13473,"Ġengineers":13474,"best":13475,"Ġinvestments":13476,"BD":13477,"Ġinitiated":13478,"MI":13479,"-(":13480,"yler":13481,"true":13482,"Ġsteep":13483,"ĠUpd":13484,"ums":13485,"arked":13486,"apters":13487,"Ġdomains":13488,"Ġcontrary":13489,"Ġrepeatedly":13490,"Ġcompleting":13491,"ĠArabic":13492,"Ġquark":13493,"Spanish":13494,"ĠInit":13495,"ĠHebrew":13496,"Ġuniqu":13497,"Ġdiet":13498,"Ġcabinet":13499,"Ġlegs":13500,"ĠAdmiral":13501,"Ġuniformly":13502,"ĠEmm":13503,"Ġna":13504,"whe":13505,"uler":13506,"Ġcomprom":13507,"uka":13508,"Ġsegments":13509,"Organ":13510,"sters":13511,"ĠFun":13512,"ĠFBI":13513,"fund":13514,"Ġcalib":13515,"ucker":13516,"Ġcousin":13517,"../../":13518,"ĠWol":13519,"Ġtransit":13520,"Ġorbital":13521,"Ġlaboratory":13522,"unit":13523,"ĠKeith":13524,"ĠTransportation":13525,"^*\\":13526,"Ġrum":13527,"Key":13528,"News":13529,"Ġdecreases":13530,"Ġportrait":13531,"oton":13532,"Ġjudicial":13533,"Ġantib":13534,"Ġregiment":13535,"Ġseparately":13536,"ĠJoint":13537,"Ġpoets":13538,"enti":13539,"Ġmuseums":13540,"ĠOscar":13541,"ĠFro":13542,"Ġinfer":13543,"Ġbreaks":13544,"Xi":13545,"Ġspan":13546,"grade":13547,"module":13548,"Ġble":13549,"ĠMath":13550,"Ġfeas":13551,"Ġmanifest":13552,"Ġtons":13553,"Ġpremiere":13554,"Ġprosec":13555,"ĠDrive":13556,"ĠâĨĴ":13557,"ocy":13558,"256":13559,"Ġarise":13560,"rien":13561,"Ġhonors":13562,"ART":13563,"Ġmixture":13564,"Ġdrinking":13565,"Town":13566,"ĠPrimary":13567,"stage":13568,"Ġargues":13569,"Ġtransc":13570,"ĠGrace":13571,"castle":13572,"armace":13573,"HD":13574,"ĠEston":13575,"Ġpole":13576,"ĠTigers":13577,"ĠFleet":13578,"}\\|":13579,"Ġeleven":13580,"ĠTrinity":13581,"ducer":13582,"arriors":13583,"ĠClimate":13584,"Ġsuddenly":13585,"OV":13586,"Ġexpedition":13587,"ĠPoll":13588,"Ġflights":13589,"berry":13590,"marks":13591,"Ġreferring":13592,"onomic":13593,"Ġcoffee":13594,"ĠSprings":13595,"Ġshore":13596,"stad":13597,"Ġsteady":13598,"Ġchampionships":13599,"Ġorganic":13600,"ĠBorn":13601,"ĠRav":13602,"Ġspeakers":13603,"Ġrobot":13604,"isor":13605,"RL":13606,"hfill":13607,"insic":13608,"Ġaccounting":13609,"ĠShaw":13610,"Ġpsychological":13611,"have":13612,"Ġfighter":13613,"Ġsponsored":13614,"Ġcalendar":13615,"ĠWrestling":13616,"Ġconjug":13617,"aho":13618,"1883":13619,"ensor":13620,"ĠLux":13621,"ommy":13622,"inae":13623,"Ġlingu":13624,"Ġhate":13625,"Ġtribe":13626,"Ġconvenient":13627,"Ġaveraged":13628,"Land":13629,"ĠHudson":13630,"ĠOblast":13631,"ĠRot":13632,"ĠTerry":13633,"Ġtransaction":13634,"rangian":13635,"Ġexhaust":13636,"Ġfer":13637,"Ġoxygen":13638,"inating":13639,"igo":13640,"1876":13641,"Ġticket":13642,"ĠCatherine":13643,"itro":13644,"Ġgrandfather":13645,"ĠPic":13646,"eto":13647,"ĠPhysics":13648,"Ġstatue":13649,"ĠConservation":13650,"ĠFourier":13651,"Sal":13652,",âĢĻ":13653,"Ġserver":13654,"ĠPlanning":13655,"ĠRepresentative":13656,"Ġty":13657,"ĠInteg":13658,"Any":13659,"sche":13660,"connected":13661,"lt":13662,"Ġ$\\{\\":13663,"Ġendors":13664,"ĠDise":13665,"jecture":13666,"Ġfestivals":13667,"ĠSpeaker":13668,"NT":13669,"Ġpeer":13670,"quarter":13671,"ĠClare":13672,"Ġamended":13673,"Ġamendment":13674,"ĠRangers":13675,"forced":13676,"ĠContemporary":13677,"corollary":13678,"Ġattitude":13679,"ĠMunicipality":13680,"Ġtemporal":13681,"ĠResults":13682,"ĠAccess":13683,"135":13684,"ĠBorough":13685,"ĠKos":13686,"inded":13687,".]":13688,"ĠRing":13689,"Ġsmallest":13690,"alties":13691,"Ġprogressive":13692,"ĠSeb":13693,"Ġslope":13694,"ĠDiamond":13695,"uin":13696,"Ġearning":13697,"Web":13698,"Ġstick":13699,"Ġconsistently":13700,"Ġcondemn":13701,"loop":13702,"igm":13703,"ĠKap":13704,"Ġreflection":13705,"Ġsuggesting":13706,"site":13707,"ĠSept":13708,"ĠQuarter":13709,"anted":13710,"Ġwealthy":13711,"Ġembedded":13712,"Ġsciences":13713,"fn":13714,"Ġalien":13715,"istani":13716,"urable":13717,"Ġboss":13718,"ashes":13719,"mill":13720,"Ġsocieties":13721,"Ġaudiences":13722,"XX":13723,"ĠShakespeare":13724,"Ġhandling":13725,"âĢī":13726,"ĠSha":13727,"Ġmeat":13728,"Ġmedals":13729,"Ġcomparing":13730,"Ġplasma":13731,"ĠUnlike":13732,"Ġacres":13733,"olition":13734,"Ġcancelled":13735,"Ġcarefully":13736,"ĠHiggs":13737,"Mass":13738,"Ġhalo":13739,"1878":13740,"ahl":13741,"oker":13742,"Ġsalt":13743,"Ġgrey":13744,"Ġweighted":13745,"aved":13746,"ete":13747,"Ġauthent":13748,"igs":13749,"tage":13750,"Ġmyster":13751,"armaceutical":13752,"estim":13753,"ĠBarcelona":13754,"ovich":13755,"Both":13756,"Hy":13757,">\\":13758,")(\\":13759,"ĠTH":13760,"ĠCampaign":13761,"Ġmic":13762,"Gall":13763,"ĠJa":13764,"Ġtribute":13765,"amilies":13766,"arson":13767,"Ġlessons":13768,"Ġexch":13769,"ĠLink":13770,"ĠGas":13771,"Bre":13772,"istically":13773,"ĠAntar":13774,"Ġreactions":13775,"Ġeffectiveness":13776,"Ġpolarization":13777,"ĠMurphy":13778,"last":13779,"kg":13780,"Ġadvocate":13781,"Ġbankrupt":13782,"Ġrequests":13783,"(-\\":13784,"``":13785,"ĠSudan":13786,"Ġslave":13787,"amo":13788,"ĠCosta":13789,"ĠDE":13790,"hum":13791,"cosystem":13792,"iper":13793,"Ġterrorist":13794,"Ġfits":13795,"content":13796,"Government":13797,"tor":13798,"ĠCC":13799,"ĠStories":13800,"Ġamateur":13801,"ĉĉĊ":13802,"Ġfa":13803,"1867":13804,"vs":13805,"Ġattempting":13806,"both":13807,"ĠVenezuela":13808,"Ġmos":13809,"Ġupdates":13810,"asm":13811,"keeper":13812,"rals":13813,"ĠFlight":13814,"Step":13815,"ĠLloyd":13816,"Ġphysically":13817,"Jo":13818,"obb":13819,"Photo":13820,"uke":13821,"Ġwarrant":13822,"asia":13823,"~(\\":13824,"Ġwebs":13825,"alities":13826,"ogical":13827,"Tim":13828,"Ġwatched":13829,"astrop":13830,"Ġamend":13831,"Ġcrossed":13832,"Ġpromised":13833,"ĠAgriculture":13834,"Ġwake":13835,"Ġghost":13836,"return":13837,"ĠBird":13838,"Ġsubstitute":13839,"Ġbanned":13840,"Ġshorter":13841,"elected":13842,"Ġachievement":13843,"iya":13844,"ilateral":13845,"ĠSor":13846,"0000":13847,"{(\\":13848,"Ġdefending":13849,"ĠGuardian":13850,"ophone":13851,"!]":13852,"rowth":13853,"etta":13854,"Ġdeviation":13855,"ĠAzerbaijan":13856,"Ġpeaked":13857,"ĠMcL":13858,"Ġchemistry":13859,"illiant":13860,"Ġfails":13861,"kar":13862,"Ġbold":13863,"ĠVas":13864,"ĠCruz":13865,"illance":13866,"KS":13867,"uxiliary":13868,"upt":13869,"Ġeq":13870,"Ġgoverning":13871,"Ġtreaty":13872,"ĠNHL":13873,"Ġdestination":13874,"url":13875,"init":13876,"Ġsubmit":13877,"Ġproteins":13878,"ĠScientific":13879,"Ġsettlements":13880,"ĠMuch":13881,"Ġsolved":13882,"Ma":13883,"Ġintroducing":13884,"Ġbasically":13885,"Ġrealistic":13886,"Ġtopology":13887,"Ġvoices":13888,"Ġ,\\":13889,"ĠWorkers":13890,"Ġrevised":13891,"three":13892,")^\\":13893,"ĠPrefecture":13894,"iev":13895,"ĠProcess":13896,"Frank":13897,"Ġsisters":13898,"rah":13899,"ĠPrivate":13900,"Ġextensively":13901,"ĠBund":13902,"Ġcelebration":13903,"Ġbanking":13904,"ouch":13905,"oj":13906,"Ġcommented":13907,"Ġcontinuum":13908,"Ġcomputers":13909,"Å¾":13910,"nm":13911,"ĠRule":13912,"Ġconfigurations":13913,"Ġcentered":13914,"($":13915,"Ġpreliminary":13916,"Ġtone":13917,"osexual":13918,"held":13919,"Ġperceived":13920,"1875":13921,"Ġvolunt":13922,"Ġsweet":13923,"exper":13924,"ubs":13925,"Ġconcerts":13926,"paren":13927,"umble":13928,"ĠYale":13929,"ĠCitiz":13930,"Ġtestimony":13931,"DB":13932,"ĠLaboratory":13933,"ĠSA":13934,"Sur":13935,"Ġnoble":13936,"ĠAbu":13937,"ĠTitle":13938,"egal":13939,"olation":13940,"Ġloans":13941,"wau":13942,"ĠLLC":13943,"Ġmm":13944,"Ġbreast":13945,"eway":13946,"Ġmigration":13947,"ĠNear":13948,"Ġupgrad":13949,"Ġextending":13950,"urst":13951,"Previous":13952,"Ġmoderate":13953,"Ġperturbation":13954,"Ġquas":13955,"Ġreforms":13956,"Ġperforms":13957,"Ġdevast":13958,"Ġtracking":13959,"onda":13960,"ĠThor":13961,"erion":13962,"message":13963,"Ġafterwards":13964,"ĠMust":13965,"ĠIceland":13966,"ĠPle":13967,"ographers":13968,"ĠEncyclopedia":13969,"specific":13970,"ĠHave":13971,"Ġchronic":13972,"insky":13973,"Ġcollaps":13974,"omes":13975,"varrho":13976,"Ġbom":13977,"!\\":13978,"Demographics":13979,"textup":13980,"arithm":13981,"PL":13982,"Ġbull":13983,"ĠCrow":13984,"ĠImages":13985,"ĠHitler":13986,"Ġsetup":13987,"\\|_":13988,"Ñĥ":13989,"Ġinstallation":13990,"mir":13991,"Ġassignment":13992,"full":13993,"Ġfailing":13994,"Ġmarch":13995,"textnormal":13996,"Ġimply":13997,"ĠWu":13998,"1879":13999,"Fin":14000,"ĠHigher":14001,"backslash":14002,"Ġhomogeneous":14003,"ĠGrey":14004,"Ġshifted":14005,"ĠSide":14006,"Ġnoticed":14007,"Ġexplored":14008,"Ġplayoffs":14009,"Ġobjectives":14010,"ĠFu":14011,"ĠLate":14012,"ĠHaving":14013,"1871":14014,"CAR":14015,"Camp":14016,"ĠYu":14017,"Christian":14018,"ĠWonder":14019,"Ġdiffusion":14020,"Ġopinions":14021,"Ġpolynomials":14022,"Ġgent":14023,"ĠTang":14024,"ĠPul":14025,"asha":14026,"ioned":14027,"isot":14028,"ĠCanal":14029,"qq":14030,"1877":14031,"Alumni":14032,"ĠTerritory":14033,"ĠAltern":14034,"acco":14035,"Ġinduction":14036,"ĠIndex":14037,"Miss":14038,"Ġinstant":14039,"ĠMater":14040,"ĠBloom":14041,"ĠEdwards":14042,"ĠAbraham":14043,"Ġbiography":14044,"pay":14045,"ĠAlong":14046,"ĠBeaut":14047,"mag":14048,"Ġinterfer":14049,"ĠNeil":14050,"Ġunions":14051,"White":14052,"ĠSz":14053,".\\\\":14054,"Ġenorm":14055,"ĠSyn":14056,"Ġidentifying":14057,"Ġsubsidiary":14058,"quis":14059,"acteria":14060,"ĠHispanic":14061,"Ġconsensus":14062,"Ġquadratic":14063,"gom":14064,"ĠIndependence":14065,"Ġapproached":14066,"Ġevac":14067,"Ġliability":14068,"ĠDraft":14069,"ĠSoutheast":14070,"days":14071,"ĠChand":14072,"ĠWalt":14073,"Ġallies":14074,"ĠSocialist":14075,"ĠPersonal":14076,"Ġchrom":14077,"Ġassisted":14078,"ĠMonth":14079,"Univers":14080,"Ġseeks":14081,"Ġaffiliated":14082,"ĠBright":14083,"made":14084,"ĠLan":14085,"ĠCriminal":14086,"ĠVermont":14087,"League":14088,"ĠSerbian":14089,"Ġsustained":14090,"elian":14091,"Ġfabric":14092,"ĠAmsterdam":14093,"Ġboats":14094,"osophical":14095,"Ġvirtually":14096,"Ġalliance":14097,"Ġboot":14098,"Ġconflicts":14099,"alymp":14100,"Ġwick":14101,"Ġdip":14102,"Pan":14103,"Mount":14104,"Ġdogs":14105,"ĠMend":14106,"Ġtransitions":14107,"gets":14108,"Old":14109,"Ġelabor":14110,"$.}":14111,"Ġgr":14112,"iens":14113,"plot":14114,"ĠBog":14115,"Ġprosp":14116,"loss":14117,"igate":14118,"Ġsupplement":14119,"Ġdelayed":14120,"feld":14121,"bp":14122,"Ġindirect":14123,"Ġspecialized":14124,"ellion":14125,"Ġrub":14126,"RT":14127,"Ġstere":14128,"Ġadoption":14129,"Ġmurdered":14130,"ĠGonz":14131,"uto":14132,"ĠSelf":14133,"ĠWord":14134,"Ġartillery":14135,"idity":14136,"ĠWel":14137,"ĠDO":14138,"HP":14139,"ĠChap":14140,"Once":14141,"ĠAlt":14142,"resses":14143,"Good":14144,"ipart":14145,"Ġabundance":14146,"Ġorganised":14147,"habilit":14148,"ĠLion":14149,"Ġvoid":14150,"Ġendemic":14151,"ĠOttawa":14152,"Off":14153,"Ġhaz":14154,"African":14155,"jpg":14156,"1868":14157,"Ġiteration":14158,"ĠChapel":14159,"Ġacceptance":14160,"ĠPath":14161,"folk":14162,"ĠMunich":14163,"Ġreceiver":14164,"ĠAppro":14165,"waukee":14166,"ĠPent":14167,"verted":14168,"Ġfert":14169,"ĠBrew":14170,"ĠAthens":14171,"ĠNashville":14172,"ĠTon":14173,"ĠImage":14174,"stackrel":14175,"ften":14176,"product":14177,"Ġcharter":14178,"Ġanywhere":14179,"Ġmonument":14180,"Ġliked":14181,"ailing":14182,"ido":14183,"Ġmystery":14184,"later":14185,"ĠCincinnati":14186,"Ġobtaining":14187,"ĠDod":14188,"Ġlabeled":14189,"mean":14190,"NY":14191,"rc":14192,"Ġcomplement":14193,"Ġresolved":14194,"Ġkeeps":14195,"ĠPod":14196,"ĠInv":14197,"coll":14198,"à¦":14199,"ĠSah":14200,"rous":14201,"ĠHD":14202,"uilt":14203,"Ġ(+":14204,"Ġyes":14205,"ĠFormer":14206,"Econom":14207,"Ġprovinces":14208,"ĠBlock":14209,"ĠNC":14210,"uba":14211,"ĠJe":14212,"ĠSean":14213,")}.":14214,"half":14215,"220":14216,"Ġformul":14217,"Ġundergraduate":14218,"ĠBuddhist":14219,"ĠKrist":14220,"Ġchains":14221,"Ġindices":14222,"Ġdecides":14223,"ĠGeV":14224,"leading":14225,"Ġinvestigations":14226,"Ġcompound":14227,"Ġopponent":14228,"ĠCurt":14229,"ĠGermans":14230,"ĠAviation":14231,"igrant":14232,"Ġconvinced":14233,"Ġfro":14234,"ĠTed":14235,"ĠLess":14236,"ĠWatson":14237,"ĠDeb":14238,"Ġeverywhere":14239,"escope":14240,"Ġempirical":14241,"Ġstriking":14242,"Ġaqu":14243,"ĠCu":14244,"Ġstatute":14245,"Tom":14246,"flix":14247,"Ġenemies":14248,"Ġdevelopers":14249,"Ġtelephone":14250,"Ġemployers":14251,"ĠKil":14252,"ĠHolland":14253,"Super":14254,"Are":14255,"Ð²":14256,"Ġincent":14257,"Ġautomatic":14258,"Ġvaried":14259,"lia":14260,"Ġduo":14261,"itory":14262,"ĠLebanon":14263,"Ġphotographer":14264,"Ġinstructions":14265,"Ġnormalized":14266,"1872":14267,"ĠOwn":14268,"Jewish":14269,"1840":14270,"Ġtends":14271,"Ġhelpful":14272,"ulative":14273,"letter":14274,"tag":14275,"ĠYam":14276,"uchy":14277,"Ġcargo":14278,"Ġcaps":14279,"ĠKun":14280,"$^":14281,"Ġfuneral":14282,"ĠText":14283,"Ġfacilitate":14284,"Ġclim":14285,"Ġenables":14286,"ectives":14287,"Ġagenda":14288,"170":14289,"Del":14290,"Season":14291,"inar":14292,"Ġwinds":14293,"ĠWikipedia":14294,"ATO":14295,"Ġprayer":14296,"Ġunexpected":14297,"Ġmolecules":14298,"London":14299,"ĠMachine":14300,"Ġaccompany":14301,"Ġplenty":14302,"Ġclosest":14303,"Ġallegedly":14304,"Ġbroader":14305,"Ġsurprised":14306,"Ġaug":14307,"Ġwrestling":14308,"ĠPatt":14309,"Current":14310,"ĠBass":14311,"rh":14312,"Ġavailability":14313,"iblical":14314,"grim":14315,"shot":14316,"irts":14317,"ĠThings":14318,"Ġdisplays":14319,"ĠRidge":14320,"Ġprogrammes":14321,"thlete":14322,"ĠDennis":14323,"Ġtraded":14324,"speed":14325,"Local":14326,"Ġpatrol":14327,"Mor":14328,"Ġattendance":14329,"Sil":14330,"Ms":14331,"1873":14332,"ĠDest":14333,"elaide":14334,"Ġ_{\\":14335,"Ġbridges":14336,"ĠRivers":14337,"Ġforcing":14338,"Ġwage":14339,"Ġjoy":14340,"Ġeverybody":14341,"Ġoutdoor":14342,"Ġsax":14343,"Ġoral":14344,"Ġlap":14345,"Ġspeaks":14346,"ĠCert":14347,"Ġcommune":14348,"ĠFormula":14349,"Ġdoubles":14350,"Republic":14351,
[...]
