#version: 0.2
Ġ Ġ
ĠĠ ĠĠ
i n
o n
e r
t h
ĠĠ Ġ
r e
ĠĠĠĠ ĠĠĠĠ
a t
e n
a n
s t
o r
a l
Ġ th
i on
l e
a r
Ġ c
s e
Ġth e
d e
i t
c t
m e
ĠĠĠĠ ĠĠĠ
Ġ t
i s
Ġ a
r o
Ġ f
in g
i c
Ġ p
s s
Ġ =
Ġ o
Ġ s
ĉ ĉ
g e
en t
c e
< /
u r
e d
l a
Ġ b
Ġ in
Ġ w
= "
) ;
Ġ $
Ġ \
Ġ n
Ġ {
Ġ re
u n
- -
Ġ <
an d
u t
Ġ (
at ion
i g
m a
l o
r a
Ġo f
e s
m p
č Ċ
e x
ĠĠĠĠĠĠĠĠ ĠĠĠ
i d
e l
i l
u l
/ /
i f
c h
Ġ *
o l
Ġ d
Ġt o
e t
Ġ h
p e
i v
o t
a me
t r
Ġ v
Ġ }
q u
at e
Ġ and
" >
Ġ m
ct ion
c o
a d
l i
u m
c k
p t
ĠĠĠĠĠĠĠĠ ĠĠĠĠĠĠĠĠ
Ġ is
Ġ T
Ġ S
t er
ĠĠĠĠ Ġ
h t
la ss
Ġ st
( )
a s
u e
a b
s p
Ġ "
* *
u b
en d
_ {
u s
h e
Ġc on
I n
r i
Ġf or
ge t
ex t
Ġ C
ur n
Ġ e
a ge
v er
Ġ de
a m
Ġ se
y pe
Ġ A
e w
e ct
e st
-- --
= =
u p
t urn
o de
al l
i th
Ġc lass
e m
or t
a v
Ġ &
re f
Ġc o
Ġ '
in e
c on
o d
. .
i st
t a
Ġ g
{ \
o w
Ġ if
a p
i z
Ġb e
t o
m ent
ĠĠĠĠĠĠĠĠ ĠĠĠĠĠĠĠ
o ur
ul t
l ic
i r
Ġ on
a se
in t
Ġ l
ab le
p er
- >
Ġ$ \
u re
Ġth is
pt ion
0 0
R e
Ġ //
i le
l y
i m
at a
Ġp ro
Ġth at
ig ht
p h
ar t
al ue
: :
Ġ </
Ġre turn
Ġ P
ĉĉ ĉĉ
Ġ M
er s
an s
Ġ Ċ
.. /
our ce
ma th
i mp
it y
Ġw ith
Ġ F
d er
Ġ I
Ġ an
t ext
un ction
k e
Ġw h
i me
or m
Ġ ex
j ect
C on
Ġ D
g in
p ro
Ġ @
it e
c al
se t
Ġ N
Ġ or
ro m
Ġ L
a ck
Ġ -
i al
Ġ B
o m
Ġ +
st r
} \
Ġ [
b e
ss age
( "
f f
^ {
} $
Ġa s
Ġ E
( );
m l
o re
" ,
ub lic
o s
u se
Ġb y
Ġ ma
iv e
Ġ /
re s
f t
Ġw e
Ġ it
f a
p ar
er e
t e
Ġ me
> </
d iv
s c
sp an
Ġ G
tr ing
p s
Ġ r
) .
Ġ H
s er
ĠT he
i b
iz e
' ,
o o
l u
) ,
---- ----
m b
f ig
a ch
n ame
v e
un d
ig n
l f
Ġt r
o c
Ġ R
it ion
> <
an t
Ġa re
** **
in d
Ġ al
ar y
S t
p a
i es
Ġ* /
../ ../
Ġn ame
ul l
la b
} }
Ġ W
re n
E x
b ject
Ġn ew
p ut
2 0
s ource
an ce
Ġ O
N ame
i re
d d
ro w
Ġf unction
( \
lo w
f ra
o ut
imp ort
ĉĉ ĉ
== ==
a ct
er t
h o
ra y
Ġ :
at ed
ĠĠĠĠĠĠĠĠ ĠĠĠĠĠĠĠĠĠĠĠ
Ġf rom
( '
ĠĠĠĠĠĠĠĠ Ġ
r or
) )
Ġ at
Ġn ot
en ce
p p
f orm
be gin
ht ml
a g
th is
an g
Ġ .
me ssage
Ġ i
} ,
Ġ un
Ġh ref
el d
ic e
a y
Ġp ublic
o id
P ro
en s
t y
l ation
en er
co de
Ġc h
i eld
co m
o p
v ent
Ġst r
T ype
E R
_{ \
le ment
et a
tr ans
i de
Ġ _
i p
la y
il l
Ġ y
) $
or y
lab el
Ġ lo
Ġre s
ode l
S tring
e qu
c ol
Ġt ype
O N
i ew
Ġv ar
Ġco mp
at or
I d
f in
Ġ le
r ight
b er
t d
de x
al se
} {
Ġ #
un t
re turn
th er
Ġ j
or d
Ġ U
d i
s h
Ġ= >
Ġ ar
ce ss
p ort
sc ri
Ġse t
av e
u ct
I N
Ġ In
/ >
Ġv alue
ren t
on e
Ġc an
D e
par am
a mp
qu est
ta in
l ine
fra c
e q
or k
re ss
ke y
Ġ |
an ge
b o
at ic
l l
in k
1 0
t ype
" />
C o
at ch
on g
Ġ get
# #
ic h
el l
Ġ !
p o
Ġcon st
th od
f er
T he
v ar
u g
a re
y st
ro up
f o
R E
Ġin t
o me
trans lation
c ite
E n
Ġ li
T o
Ġ use
ar d
m o
ation s
lo ck
lo c
pe ct
Ġs h
Ġ V
u le
le ft
ĠT h
v al
u st
il d
le ct
R es
Ġse lf
yst em
s o
Ġ= =
r iv
Ġ us
Ġl ine
i x
v ice
t ent
c lu
s um
Ġd o
_ _
ss ert
L ist
Ġd ata
1 9
S T
ce ption
a th
c re
um ber
ad d
Ġn ull
fa ult
id th
Ġ `
y n
a k
Ġv oid
en g
ow n
$ .
i o
um ent
r m
a ce
} )
â Ģ
: //
all y
$ ,
math b
Ġ id
ter n
"> <
a st
ul d
c lass
A T
, \
n e
d a
ic al
re e
y le
er y
w e
av a
Ġ k
lo g
o g
t p
ut e
o f
Ġwh ich
S e
Ġ el
Ġb o
ma ge
) );
pe c
Ġp ar
str ing
Ġ er
} .
a c
m in
it le
equ ation
ĠĠĠĠĠĠĠĠĠĠĠĠĠĠĠĠ ĠĠĠĠĠĠĠĠĠĠĠĠĠĠĠĠ
Ġ J
s ub
1 2
ĠĠĠĠĠĠĠĠ ĠĠĠĠĠ
clu de
O R
Ġh ave
**** ****
T h
L E
Ġco m
Ġ >
de f
" );
Ġres ult
Ġf alse
g er
Ġp o
math cal
ut ion
// //
b ar
-------- --------
c ur
ach e
p end
C h
ame ter
g s
d ata
ad er
Ġ all
ir st
Ġh as
tr ib
D ata
A r
m it
I D
V alue
Ġtr ue
e mp
sp ace
p i
Ġ )
is h
Ġw as
se s
se d
o u
Ġ x
m s
t ro
riv ate
} (
) :
ĠĠĠĠ ĠĠ
m ary
eng th
n b
in al
n ot
de d
ph a
it em
se lf
t il
ption s
st ance
A R
ĠĠĠĠĠĠĠĠĠĠĠĠĠĠĠĠ ĠĠĠĠĠĠĠ
g a
le t
f ile
v alue
Ġv al
Ġn e
Ġstr ing
li ent
at es
co mp
r y
E N
Ġc ol
amp le
Ġw ill
Ġ/ **
d u
p re
} ^
if i
nb sp
b ack
j s
1 6
~ \
Ġ qu
Ġc ase
S er
Ġo ut
g ra
Ġel se
Ġd is
C ol
loc ation
S et
per ty
ar k
Ġ en
al pha
c ri
A L
ic s
M e
} _
Ġ Re
t ime
ar ch
e y
sp on
u al
Ġ --
u ff
th e
( $
e c
r ror
==== ====
Ex ception
Ġ& &
re ad
ar get
o b
" )
d ot
S S
Ġt ime
ch e
p x
] ;
f or
Ġ end
Ġ K
on ent
' s
u ch
u es
at ure
d ate
on t
Ġo b
s ion
ol d
if ic
Ġa dd
Ġst atic
o st
O bject
qu ire
' )
m u
P ar
Ġa c
Ġt est
Ġh e
t on
T est
Ġ! =
scri pt
w ork
or g
D E
os ition
Ġ// /
c a
ro id
Co mp
ĠS tring
i a
n ew
Ġ up
Ġde f
t ing
Ġf ile
) \
1 1
A n
s ize
() .
Ġon e
u th
fa ce
p r
$ \
o ver
Ġ %
Ġin ter
t est
u d
E rror
C T
() );
2 00
Ġp re
od ule
le d
Ġ ro
as k
am ma
Ġp art
Ġor g
at ive
Ġp er
' ]
ĠTh is
r it
r c
ul ar
G et
Ġm odel
id er
U n
ap p
a ction
l ink
o und
= \
g le
3 2
S E
. </
Ġc ur
K ey
at us
Ġtr ans
ar ray
1 5
um n
Ġs ub
c ent
v el
_ \
le ction
re am
. _
w o
se ction
p ublic
w h
Ġ\ \
Ġex p
ĉĉĉĉ ĉ
f unction
he ck
" ;
l ang
Ġp rivate
le an
I T
qu al
re ate
li st
V iew
m and
F ile
T r
ĠĠĠĠ Ċ
M E
w idth
sum mary
n av
i se
p lay
[ '
il ter
ion s
Ġs up
b r
res ent
ho uld
ut il
con d
ire ct
Ġa b
f ore
i e
I t
ol low
Ġo bject
Ġs o
} _{
in dex
"> </
ig ma
} ^{
Ġ| |
str uct
' );
Ġo ver
Ġme thod
C O
W e
l er
to p
Ġfor m
v iew
od y
A t
t able
Ġa pp
mathb b
Ġwh en
Ġs er
T ime
y s
tern al
Ġf inal
k en
ig h
E vent
Ġ ext
ack age
1 8
in clude
d is
Ġ imp
- \
en c
() ,
Ġp a
ib le
or der
m on
ĠW e
Ġ/ >
con st
la mb
ph i
ht tp
an n
p art
^ {\
ect or
N ode
lamb da
ind ow
Ġer ror
1 4
Ġan y
A N
=" ../../
or re
Ġn o
l ate
cri pt
B y
uff er
U L
1 3
Ġg ener
u c
Ġon ly
g roup
ers ion
Ġ key
ĠC on
r ite
Ġ{ \
u il
Ġb ut
in ter
! --
Ġf ollow
Ġf ield
Ġch ar
] ,
w w
ur l
Ġn umber
=" +
as h
oc ument
Ġy ou
b f
Ġd if
Ġal so
ma in
lo ad
ro und
qu ot
e p
t ra
a x
el y
if y
tr y
ic k
al ign
Ġre g
re d
Ġo ther
la ce
Q u
2 5
Ġuse d
Ġa p
d ing
Ġs pec
u ild
fer ence
un c
le te
n o
le m
pa th
1 00
p y
Ġ u
R O
Ġm o
Re quest
ur ation
t ps
C lass
Ġ );
us er
v ed
St ate
co unt
F or
Ġli st
v oid
fin ed
\ \
` `
Ġt wo
Ġ la
" :
T ext
iz ed
p en
ug h
/ *
In fo
ra me
il ity
Ġre p
L o
ri de
n ing
Ġ ra
E lement
Ġa ssert
/ **
T E
Ġf irst
i an
Ġ ?
Ġa ss
Ġth en
I ON
oo lean
P E
P ath
c ord
Ġt ra
m d
il on
n ode
' :
T R
at er
at ing
} ;
g ument
L A
iv en
Ġd ist
c l
ag er
b eta
or s
Ġwh ere
() )
iz ation
ic es
] .
ps ilon
s on
de l
P I
Con fig
Ġth ere
st yle
f ield
ic on
In dex
h at
Ġus ing
Con text
f ter
l ength
It em
ut ton
ot e
M ap
oo k
" "
n et
Ġb ase
Ġst ate
1 7
n er
Ġ( \
M an
trib ute
con fig
F ield
mathb f
C ode
H e
s igma
s ses
s k
ra p
A dd
d o
Ġj ava
S h
Ġth row
Ġm ore
C om
Ar ray
Ġ X
s ign
ap i
^{ -
Ġ( !
ra w
Ġs ize
Ġn ode
tro l
it s
6 4
Ġt itle
tain er
ment s
Ġar ray
it ial
ĠĠĠĠĠĠĠĠĠĠĠĠĠĠĠĠ ĠĠĠĠĠĠĠĠĠĠĠ
til de
b ase
//// ////
ap ache
Ġ/ *
d t
Ġpar ameter
ĠS t
} {\
lo b
m all
uil der
le s
ens ion
Ġe ach
Ġc orre
Ġc all
Ġs uch
cal e
t s
Ġb ack
ish ed
y p
E qual
Ġ z
w ord
Ġcon s
ifi ed
Ġ-- >
oo gle
Ġb et
ĠE x
o k
******** ********
col or
ma p
g round
res ult
g amma
ĠS e
m odel
ect ed
fig ure
## ##
ĠD e
A C
i ent
[ ]
' ;
Me ssage
tr ue
re ak
ol ution
re g
Ġ} );
Ġ Y
ĠĠ Ċ
Ġsh ow
Ġo per
ĠI f
in ce
Ġe vent
Ġs ome
Ġex pect
Ġo ur
Ġ} ,
ĠP ro
Ġe lement
u me
del ta
O ver
A s
t itle
Ser vice
a ssert
Ġde fault
+ \
Ġre l
st er
o bject
spon se
p on
= '
Ġw ork
F orm
o x
Ġre quest
b lock
Ġpo int
Ġp h
in put
Ġs hould
ut o
per t
Ġf a
th eta
S ize
er ror
Ġ ent
g r
ht tps
b y
P o
* }
u i
math rm
ss ion
val id
Ġc al
us h
yn c
Ġre quire
Res ult
Ġcur rent
ra ph
en se
W ith
l d
bo x
Ġth an
y mb
Ġg iven
) }
U R
l an
we en
Ġs ystem
Ġs p
l t
ate g
^ \
er m
j ava
Ġit s
cre ate
y m
Ġin to
du ce
Ġa d
ymb ol
and ler
Ġm an
="../../ ../../
at ri
Ġma y
n g
; &
Ġh t
lo se
ver t
ĠC o
pa ce
ne ction
con tent
I C
r ho
f rom
Ġn on
L e
et urn
ma x
Ġ: =
ri b
to m
+ +
Ġer r
D es
ta u
Ġst art
lo at
ce pt
de fault
Ġpro v
atri x
ver sion
Ġa ct
e ature
Ġcon tent
um er
time s
mb er
L O
i able
O n
b ig
g t
ff ect
O f
i mage
Ġun der
pert ies
enc y
def ine
> &
lic ation
a ss
le q
en u
scri ption
$ -
ĠG et
F F
Ġt arget
ĠC h
fer ent
ar row
mo ve
t ab
it ies
b ody
Ġstr uct
Ġin stance
dot s
O r
co re
3 3
Ġval ues
V al
a in
Ġ_ _
qu e
Ġus er
p ackage
io us
N ot
in fo
Ġe qu
Ġ$ (
Ġ= ==
Ġc ode
U T
able d
Ġs rc
po int
form ation
.. .
] {
U p
}$ ,
v en
ress ion
D el
p m
Ġor der
gra ph
Ġin put
A D
}$ .
Ġpro b
Ġbet ween
ĠF or
n ext
âĢ Ļ
M odel
Ġbe en
and roid
st art
Qu ery
pon se
l at
la sses
te mp
ar s
al s
lu gin
and le
ĠA n
n u
r t
l it
} (\
M L
d ition
I G
b ug
UL L
T able
---------------- ----------------
co pe
st ate
le ar
cent er
s q
3 0
tro ll
B e
ĉĉĉĉ ĉĉ
ĠI t
Ġthe se
A pp
5 0
part ial
t in
Ġ Q
con text
=" ../
ff set
e vent
2 2
ĠU n
Ġ} ;
Ġt ext
Ġ import
ting s
T D
S ystem
c ss
ĠĠĠĠĠĠĠĠ ĠĠĠĠ
Ġs ame
o us
O ut
Man ager
s up
IN G
lab le
Ġthe ir
a w
ser v
Ġc heck
A l
Ġm in
m an
Ġcon fig
t n
Ġs ign
f alse
Col or
Ġin st
ra ct
se arch
Ġs ource
eq n
it or
U ser
s ing
ub le
Ġn il
M A
Ġg roup
orm al
Ġdif ferent
t ot
Ġp ath
Pro perty
eq ref
le x
ust om
Ġin dex
c all
p ri
Del ta
ang le
C lient
I s
ome ga
Ġma x
Ġt emp
A c
E D
Ġfollow ing
Ġcon text
Ġlo g
r on
ĠĠĠĠĠĠĠĠ ĠĠ
ist s
o ck
A B
Res ponse
a ke
me thod
Ġw ere
ar ge
a i
E T
ann el
che ck
ft y
C H
2 4
troll er
G roup
d uct
in fty
In ter
Ġme ssage
il s
m is
\ ,
ifi er
======== ========
ith ub
Ġ âĢ
Ġch ange
ĠS ystem
d b
; </
Ġh igh
Ġ čĊ
=" #
am s
D O
we b
o ption
Ġresult s
Ġs c
et work
p os
ir c
L og
Ġbo ol
w ith
Over ride
de pend
P h
ir t
se e
ist er
M P
ot tom
name space
c c
> (
Ġap pro
st atic
m odule
Ġst d
d oc
Th is
se lect
us ing
Ġof f
if t
ch o
fin ition
ific ation
se c
ĠS et
| \
Ġb lock
g oogle
Ġre ad
m od
Ġr un
uc cess
00 00
ut es
Ġin v
g ithub
) </
lob al
' t
Ġcon tain
Ġl ong
Co unt
li b
he ad
t ected
m er
yp es
Ġi mage
Ġc reate
a f
w ay
Me thod
il y
ar gin
] (
mp ty
ction s
F rom
U N
B uilder
l ing
Ġst yle
Tr ans
d own
D I
w it
wh ere
f unc
EN T
ĠA r
che ma
qu ad
C all
Ġp r
in s
Ġs im
Ġthe y
< !--
Ġo ptions
o se
Ġf act
Ġs pace
ĠĠĠĠĠĠĠĠĠĠĠĠĠĠĠĠ ĠĠĠĠĠĠĠĠĠĠĠĠĠĠĠ
o v
ref er
ver y
O T
p age
St ream
u f
Ġit em
A ME
m ark
er n
ra g
ro p
] )
Ġand roid
U til
le ase
F act
cur rent
t t
x i
end s
Re g
Ġb reak
D is
D ate
Ġdo es
Ġrep resent
is ion
d ir
$ $
C ell
Ġle t
In stance
t es
Ġy our
4 0
Ġ ed
qu ery
u age
Ġwh ile
o ptions
9 9
Ġob tain
it er
irt ual
In put
Ġv ersion
C E
port s
ON T
c lient
old s
Ġe st
Ġp ol
Ġd irect
eqn array
in es
Ġg o
n ull
ex p
ile d
Ġdist rib
Res ource
w ard
as ure
( (
Ġ< <
e ver
Ġr ight
Ġa fter
uth or
fra me
me mber
te ger
Ġpart ic
Ġ( $
Ġw idth
Ġprov ide
fin ished
B ase
re quest
b utton
I mage
Comp onent
ĠN ULL
ww w
In t
Ġ ,
Ġne ed
Con tent
Ġm atch
B ar
c dot
a it
Ġm ust
T H
St atus
j o
er o
a u
ĠĠĠĠĠĠĠĠĠĠĠĠĠĠĠĠ Ġ
a pe
Ð °
pr int
m m
ore m
ix ed
ph p
} }\
n own
ow er
Ġlo cal
Ġma p
} [
en e
ent ial
g y
id d
Ġm ult
b it
ser ver
lic k
un finished
Y PE
ps i
an el
p osition
~ ~
at s
Ġcons ider
Ġ Z
Ġb oolean
B lock
Ð ¾
Re f
Ġ ->
Ex p
Ġse e
I L
e psilon
ĠE n
Ġout put
Ġm od
Ġf ind
are d
ĉ Ċ
Ġpro cess
ro ugh
i k
ar gs
A ll
en ame
Par ameter
Ġex ample
To ken
la st
at ab
er r
lay er
t en
n on
le ss
RE F
oc i
ation al
c ase
Ġt e
end er
)$ .
imp le
I mp
ab ility
Ġd i
2 1
Ġcol or
ĠA s
iv ely
h as
2 3
ĠT r
A S
F rame
) {
iv ity
ca ption
( {
rit er
Ġback ground
En d
Ġf ound
ant s
Ġ low
f ul
S ub
s im
St yle
Ġin clude
Ġbo und
00 0
ap pend
he ight
Ġw o
me ga
A ction
I S
ar ning
Ġt able
ma il
e lement
t x
Ġ" ""
per i
Ġ( )
ing s
at ter
d l
E S
Ġo pt
} _{\
I P
Ġtr y
Ġbo th
add ing
L ine
N av
T ra
8 0
Ġe ffect
Ġre source
and om
Ġde fined
le g
pa rent
de fined
O mega
L ay
Ġcon dition
und le
d ic
u mp
t arget
H andler
E X
in st
el p
s i
g or
Ġab out
B uffer
Ġan al
Ġs ing
ro ll
ut ed
O ptions
Ġf in
he ader
Ġde pend
me d
Ġal low
Ġre sponse
G ener
el per
N S
Ġle ft
lay out
6 6
n ow
^ *
G amma
ĠĠĠĠĠĠĠĠ ĠĠĠĠĠĠ
js on
S ource
N ew
m y
Ġse cond
me di
ve lo
p tr
c ul
[ "
atab ase
r id
S tr
Ġin itial
c m
w ide
l ight
he et
n s
x y
Ġwo uld
Ġp osition
tr ic
v ious
Ġd ocument
Ch ange
x ml
Ġli mit
act er
Ġsup port
Ð µ
at tern
Ġ+ =
ĠĠĠĠĠĠĠĠ Ċ
im g
Ġpro perty
U S
sq rt
Ġb order
Ġse lect
ĠF ig
g ener
C K
e e
Ġh is
di o
ad ata
Ġla st
id get
6 0
graph ics
p lace
v ider
wit ch
b tn
g o
ab el
gor ith
* /
Ġin formation
ĠL ist
F unction
in it
Ġ Ð
d s
An d
b ra
At tribute
Ġcomp onent
Ġcorre spon
Ġr ange
yn am
s ide
Ġs ol
lo cal
pro perty
O per
g n
P a
M em
ck et
LA SS
Ġval id
ol der
o ther
d f
dis play
ow ever
w are
sign ed
De fault
' '
E d
Fact ory
Ġma ke
G L
a pt
Ġlo c
E L
Ġparameter s
pro to
nav bar
Ġs mall
Ġsup er
mis sion
Ġid ent
ch ed
im ation
or age
)$ ,
A ct
sub section
O P
Ġn ow
Ġw ell
f low
e ar
Ġar gument
c or
m ult
ener gy
V ersion
ĠA l
Ġn ext
Se lect
F ilter
Ġv iew
ure s
ar g
} =
b uild
i er
Ġf il
r l
im um
E E
ch ild
s rc
im al
Ġc re
o ot
as on
S P
Ġimp lement
w rite
Ġl arge
o per
Ġm ost
Com mand
ĠĠĠĠĠĠĠĠ ĠĠĠĠĊ
text bf
r an
v es
refer ence
id ent
ĠR es
Ġ$ {\
h er
me ta
Ġ q
re quire
N o
s g
P age
Ġbe fore
f ilter
b m
W indow
^{ (
row s
Ġs ur
L ink
ĠO bject
Ġto p
St art
Ġth rough
ĠG L
v are
act ive
b ottom
ic y
Ġt er
Ġ{ @
} );
U E
Ġp age
) (
j av
im ension
T ask
am b
la gs
Ġ\ ,
Ġc ent
Ġp resent
Ġre f
ch ar
vare psilon
g re
Tr ue
iz er
$ {
7 5
Ġp ri
Ġc lient
ĠT o
Ġle vel
iv es
H T
0 1
ateg ory
ff ic
f irst
AT E
p ush
// /
D o
s pec
ial og
19 9
ro ss
F ONT
st atus
trib utes
ra int
end if
qu ence
is m
Ġme asure
um b
N ull
right arrow
i que
}^ {\
Con st
n ect
Ġa ction
" ]
Ġcon tin
ca use
T O
N umber
C ur
p rivate
A G
3 4
p c
Po int
il ar
Ġma in
op y
ch ange
ic ally
r angle
l in
Ġthrow s
ur ing
R ow
) =
O L
//////// ////////
op en
Ġl ink
Ġl ength
and ard
F I
Ġthe m
Ġm odule
Ġv is
c ast
p ng
it ive
Ġht tp
Ġvar iable
Ġde scri
ĉĉĉĉ ĉĉĉĉ
ĠR eturn
ens ure
fo ot
S C
ater ial
bo ve
ve c
lo t
Ġres pect
str ong
Ġf eature
tot ype
ĠCo mp
ĠT est
C reate
de scription
Ġor ig
lo ud
Ġexpect ed
Equal s
ator s
include graphics
P RO
B ig
Ġn etwork
ĠN one
Ġde c
5 5
Ġ label
t al
ang uage
ser t
se mb
Ġs olution
C heck
ĠM e
Ġ( (
N O
Ġ` `
L oc
s ol
2 7
it ed
V ER
c y
s mall
s w
( &
w n
form at
ic ense
Form at
v ai
row ser
Ġa bove
an sp
res ource
f ont
in stance
Ġma ss
Ġp e
AB LE
th ing
. ,
r un
o ugh
cur ity
p lugin
as cript
Ġf rame
Ġpro tected
2 8
s heet
Ð ¸
a il
f ind
pro ject
A P
var phi
Col umn
I f
ob j
R eturn
Ġpo ss
. ~\
Ġex ist
po st
Ġper form
Ġh ere
S ON
Ġcol umn
} ).
Ġpa ss
t tp
M O
ri ct
com mon
p ol
co me
iv ed
Ġ url
L abel
str u
ĠI N
ĠH REF
oc us
c lose
V ar
B utton
st d
Ġbe cause
ĠH e
Out put
Ġm ode
param s
Ġdistrib ution
Ġgener al
con tainer
read y
P re
de v
Ġs ince
P art
Ġre al
an y
ir on
Con troller
Ġadd ress
re sponse
Ġm argin
Ġst ud
c ap
c i
F A
B U
m enu
if act
b uf
ĠS h
List ener
T ag
Ġ energy
s or
Ñ Ĥ
up date
Ġext ends
ge q
c an
ex pect
IN T
ol ume
m atch
Ġ ]
l en
ĠC LASS
ho st
at tr
ens ity
Ġe very
Ġdis play
Ġwh o
r al
Ġp os
q l
du ction
st ream
Ġcom mand
M ode
Ġa uto
Ġde ta
ens or
ent ry
M et
Ġrequire d
so le
ser vice
Ġg ra
[ \
m t
Ġco unt
ch i
ref ix
or ld
Ġmodel s
gorith m
ta g
Ġm y
L ength
gra m
Ġli ke
Ġhe ight
jav ascript
i or
la ck
unt ime
Ġ< !--
T YPE
9 0
par ameter
al let
g ress
c er
< ?
CO L
res h
emp h
ol s
o ve
iv er
ys is
S pec
over line
n um
t ed
l s
ĉ ĠĠĠ
ĠN ew
Ġpro ject
UR L
Ġpa rent
col umn
Ġs ample
Ġv ector
Re ad
Col lection
g ing
vai lable
I M
Ġb uild
ĠO n
pp ing
Val id
ul ation
Ġs um
2 6
" ).
. }
re move
il er
par se
_ .
d raw
. \
ta ck
r ic
val u
Ch ild
struct or
Ġt ask
`` `
st ract
comp onent
" ),
t ity
out put
U I
b l
ver age
pro of
h av
4 5
B ox
c irc
Ġse ction
r u
ic ro
3 5
var i
Ġd en
Ġqu ant
S up
: </
Re ference
U M
ĠĠĠĠĠĠĠĠĠĠĠĠĠĠĠĠ ĠĠĠĠĠĠĠĠĠĠĠĠĠĠĠĠĠĠĠ
amb da
& \
duce d
0 5
ym me
on y
Ġin cre
Ġbase d
v iron
ad ing
ip le
ĠS er
ER R
Ġh ad
We b
v is
O b
r ing
la g
b ed
Ġsing le
Ġo pen
} ),
Ġspec ified
Ġfunction s
ge st
lu ster
it u
Ġex ec
B undle
ĠA dd
}, \
Ġj ust
Ġcal led
cri ption
ĠC ol
n umber
Ġ[ ]
Ser ver
ge s
O ffset
Ġup date
Ġs at
u int
L ambda
ib ility
Ġser ver
ĠA PI
in ed
I Z
Ġth ree
Ġch ild
Ġdis c
sh ow
ĠW h
p ack
T emp
Ġco uld
an k
Ġcal cul
com mand
) ^
L ast
U rl
2 9
el se
P O
ap er
C ON
o pt
b olds
pro totype
Ġw ay
h line
ig ger
Ġm on
**************** ****************
Ġs pect
3 9
Ġv ert
C ache
Lay out
Ġm atrix
' ).
un ter
Ġsh own
bolds ymbol
D i
A A
Ġ! ==
Ġ et
e ps
o ffset
N AME
F irst
ap pa
Ġcall back
ime s
Ġf ilter
Ð ½
Ch ar
in ing
s m
Ġh and
or ph
ex ample
set s
ĠL icense
un it
log y
ver se
w ise
sk ip
idd en
Up date
Ã ©
> >
return s
H E
Ġde ter
s f
Pro vider
Ġass oci
++ )
lang le
po se
Ġbe ing
ĠE X
L et
ER T
j e
Ġex peri
un k
k appa
ar n
art ifact
Ġadd ition
in ary
A b
Ġg raph
ith er
ne ss
A d
at t
Ġw indow
not ation
Ġinter face
ct or
am ily
S p
D B
mb ox
I O
Ġo ption
Ġc atch
Ġc ell
} }$
ot o
pro cess
a z
equ al
c s
T P
W idth
lo y
Add ress
ĠAr ray
fra k
R un
Ph i
Ġfollow s
CO DE
Ġpro perties
ic le
Ġpr int
util s
lat form
l ish
Ġprob lem
ur al
C ase
co ding
u ally
ig ation
f e
Ġmethod s
Ġre ference
Ġin te
P ol
Ġform at
oo p
rap per
Ġest im
Ex t
Ġqu ery
r ation
t ask
s d
Ġwith out
#### ####
Ġac cess
M odule
w indow
T arget
ide o
() ->
li p
Un it
( _
k it
li mit
depend ent
} /
="../../../../ ../
in c
i ally
l dots
Inter face
b ook
on s
ex ec
) ]
ĠA pp
g ment
C C
A PI
Ġh ow
Ġd er
Ġu int
temp late
. $
Ġe v
Ġto tal
lic it
Ġf ont
Ġre st
=" -
re l
f loat
W h
R ange
ry pt
T ypes
pp ed
A M
g en
c lasses
in ation
at ase
Ġa ga
g ent
Ġt ak
Ġstruct ure
ĉĉĉĉ ĉĉĉ
ĠH T
: "
to ken
ce d
e ad
ĠC om
stru ction
En try
Ġser vice
En tity
an e
ance l
Ġpre vious
la p
Ġco py
Ġp lay
ire ction
Ġc a
Ġvar i
ur ther
P er
n ab
Ñ Ģ
di ct
or ies
s cope
Ġp ort
4 4
Ġelement s
Ġse arch
le vel
math frak
bo ol
Ġl en
Ġre ce
. /
Ġar g
Ġre n
Ġt ag
Ġe qual
style sheet
Ġm ark
B ack
o ke
7 0
] );
s cale
as ic
Config uration
ĠI D
Ġcon trol
Ġ ss
emp ty
Ġwith in
is f
so ft
Le vel
Ġfield s
Ġsim ilar
sup port
Ġdo uble
ĠT ype
Ġcon nection
Ġe ven
T ree
b ind
{ {
iv al
Ġre lation
ĠL e
nab la
Ġman y
mo unt
u id
Ġw rit
3 6
li ed
Ġs cal
pa ss
l ong
Ġst atus
Ġposs ible
i i
Ġ* *
Ġter ms
( [
Ġw rite
s l
S c
am l
Ġv ery
S to
b uffer
Ġar gs
on ly
Ġp lace
i j
ens ions
Con tainer
semb ly
cite p
Ac cess
d ist
Ð¾ Ð
Ġin ternal
da pt
Con trol
use d
Ġro ot
Ġpoint s
or iz
He ader
ord in
d ocument
ro ot
P osition
ĠF ile
velo p
Util s
s hould
8 8
L I
M ax
f s
non umber
Ġa vailable
viron ment
he ther
UL T
. "
v ing
V is
Ġn ormal
W rite
Se arch
g g
Ġob j
pre c
Ġb uffer
ot imes
Ġf loat
p es
ĠP ar
iv ers
' ),
ĠN ame
t ree
N D
ĉ Ġ
c at
text it
Call back
m un
Ġs uccess
Ġn one
N ext
v ices
con trol
He ight
ct x
Ġfile s
O pen
âĢ Ŀ
ist ory
} )$
Con nection
cl us
ad ers
Ex ec
c ache
c ing
sub set
Ġin dic
p atch
ser ved
Ġ{ }
Ġd own
ĠReturn s
it ory
o le
P C
ce s
IG N
Ġdef ine
o use
Ġpartic ular
Ġx ml
="../../../../ ../../
val ues
Ġconst ant
4 8
R em
a uth
3 7
S igma
ra m
COL OR
st rap
0 8
sp lit
ut ure
Ġcorrespon ding
H ash
ĠâĢ ĵ
ĠTh en
Ġit er
e k
Ġappro ach
Ġse quence
way s
d irect
\ %
di us
g l
Ġal ready
P r
M atch
Ġph ase
Ġchar acter
M od
ge d
re qu
Ġr andom
ĠB y
p th
ce ll
ay s
IZ E
% %
Ġd ue
Q L
fin al
ta ct
ensure math
Ġfil ename
Ġh y
li es
H ttp
ist ic
Pro cess
v i
em ent
action s
Ġ* )
ĠĠĠĠĠĠĠĠĠĠĠĠĠĠĠĠ ĠĠĠĠĠ
K E
3 8
bo ard
" ))
u k
Ġass ume
Ġ row
Ġreg ion
\ [
inter face
end ing
Ġv er
Ġin it
re t
Ġp op
Ġoper ator
ĠTh ere
r ange
ac y
] [
0 2
ed ia
to col
20 15
bo ot
r ule
cord ing
\ |
E mpty
Ñ ģ
Ġf ull
se cond
con f
ut able
Ġsat isf
AT ION
Par ams
Ġw ant
Ġ ge
âĢ ĵ
en v
ar m
st ack
i od
ĠO F
c d
de vice
Ġline ar
ĠA ssert
Ġwh at
ire d
ST R
S cript
l us
artifact Id
Ġcon f
V AL
s ystem
H O
D ocument
Ġpa ir
Ġt ri
Th read
Ġst ore
et ch
re en
Ar gument
U P
riv er
M in
7 7
ol ve
Ġa ut
Ġs ide
Ġreturn s
Ġe lect
Ġoff set
> ,
de bug
Ġob serv
e f
Set tings
i as
Ġover ride
P tr
Ġspec ific
me m
h ash
0 4
A V
ĠC reate
Loc ation
pro p
Ġe ither
/ \
V ert
T op
expect ed
Ġd ensity
Ġr ule
M S
J son
ers on
Ġd uring
Ġs cale
Ġme m
a uthor
Ġ> =
Ġs k
b a
}} {
is s
th on
Ġc lear
E CT
Ġinte gr
" .
: (
ge bra
w ait
S chema
c it
is on
N one
() :
6 7
Pro perties
% ;
l n
H elper
=" _
Ġv irtual
Id ent
Ġth ose
Ġn av
{ -
Ġassoci ated
me t
un der
Ġz ero
3 1
g gle
T I
Ġap pe
Ġequ ation
In teger
Ġst ream
in ternal
st ore
Ġobtain ed
if f
Ġcontain s
ffic ient
Ġg lobal
group Id
u x
Ġex ists
} -
ta x
PE CT
b order
ft ware
ĠD ata
Ġch annel
ĠH owever
r s
che me
clu ding
at ely
pri me
model s
co py
Ġh er
m ode
o ff
c cur
ix el
Ġshow s
Ġpo st
Se ssion
Des cription
O S
ã ģ
d rop
Ġp ot
Ġc lo
Lo cal
tra ct
" ));
Ġpar ams
de ta
c p
( -
ĉĉ Ċ
0 6
Nav Bar
tain s
wide tilde
Ġc lose
Ġh ost
20 17
op le
b b
image s
ĠD o
Ġp adding
mod al
Ser ial
en ded
O ption
Exp ression
Ġ ~
{ }
be fore
Ġlo ok
Ġre t
20 16
; ->
F ont
Imp l
a ded
Ġat tribute
DI R
w s
a j
Ġp ower
ĠA t
\ "
al t
A uth
Ġ& =
As ync
AC K
Ġt ypes
Ġre move
Ġ es
C D
Ġconfig uration
D irect
Ġcomp ut
Ġhas h
ĠB G
F ig
; \
Ġst ates
C opy
E Q
Ġde finition
doc s
a uto
Ġac count
file s
Ġ ::
f oo
ren der
al le
ma ke
Ġl anguage
Q ue
C L
de lete
Re cord
Ġcomp lex
Par ser
Ġf lu
Ġtemp late
Ġme an
Ġp res
Ġren der
ĠN S
Ġoper ation
Ġv e
R L
X X
st amp
ĠEx ception
Ġco mb
& &
\ ]
ad s
Ġobject s
i um
ĠL et
l and
d at
D ir
af e
oper ator
imp l
U B
in ner
po sed
W ork
re at
Ġpro duct
Ġf ree
Ġst andard
0 9
lic e
ent ic
center ing
R ender
M enu
b in
T ER
AL L
ĠE q
Ġappro x
Sto re
Ġe mpty
O p
Ġprovide d
er ature
Ġargument s
Pro ject
Ġfa il
Ġthe ory
Ġd ynam
Ġwe ight
g net
Ġal ign
ver s
ĠG ener
atase t
Ġmo ve
ĠY ou
Ġo ld
\ !
k nown
Ġint ro
M M
Ġs yn
P ort
Ġent ry
v ector
Ġapp lication
P os
Cur rent
S D
R ule
I ter
ĠC lass
Ġlow er
Ġb ody
Ġk now
Ġme di
C ore
Ġc ustom
cre t
ĠĠĠĠĠĠĠĠĠĠĠĠĠĠĠĠ ĠĠĠĠ
ly ing
Ġinst all
r r
m ar
Ġdi ag
let ed
ĠBG COLOR
k ind
R out
Ġname space
ar gument
OR T
Ġre main
Ġw hether
Ġ[ '
s v
ist ry
Oper ation
ms g
ERR OR
= {
( :
u dio
Ġde scription
Parameter s
ĠEX PECT
de s
Ġorig inal
Ġun it
b s
enc ies
b reak
Ġd ate
De vice
Ġt erm
oriz ont
' >
I F
tab ular
Ġbe low
$ (
Ġw ord
0 3
================ ================
6 5
Ġro le
AR T
Ġs imple
ist ent
z on
ĠI s
S H
V ector
Ġ ...
Ġj o
Ġanal ysis
ty pes
C P
im er
Ġh andle
& #
l ished
a h
ĠA c
to String
ar i
Ġp lan
ern el
de st
Ġme t
H andle
equ iv
al k
H ost
ach ed
S O
ĠL o
et s
Ġd iv
ansp ort
B O
re q
Ġr ate
Temp late
s end
Ġpro of
Ġal gorithm
up le
di ent
Ġun defined
Ġl ines
ĠS o
Ġp aper
co der
z e
20 18
ex port
not e
z eta
Ġt ake
un ded
y c
C al
Ġv ia
K ind
Ġc ho
Ġn um
Ġde st
S ign
eng ine
orizont al
'] ,
wh ich
Ġ ;
d ay
Ġst ill
Ġk nown
Ġgener ated
set tings
n ap
co s
re m
\ {
Ġbe hav
ĠU p
Le ft
n i
} +
0 7
le v
Ġtrans form
v m
20 14
ĠN o
Ġevent s
In valid
equ als
4 9
Ġf e
jo in
Ġstr ong
em ma
ex ports
Ġse par
Ġloc ation
P si
Ġto ken
w idget
Ġd one
Or der
Ġcontin u
Ġrespect ively
je ction
AT A
Ġsh ort
Ġdeter min
Ġ" \
f ill
R ight
ome try
leg ate
` .
Ġht tps
, -
c lick
I I
to ol
ur i
ĠO R
pen ame
O ne
R ect
Ġtrans ition
Ġpar se
F O
Ġde velop
n ormal
Ġcondition s
a a
F alse
Ġex ception
Ġstud y
pos itory
} ]
or n
-- -
trans form
) =\
Ġcre ated
ĠA ll
p anel
Ġcon trib
ro y
Ġd on
$ )
at al
c lear
A ssert
Ġh elp
br ary
c ard
se ssion
boot strap
## #
Ġf ixed
4 7
4 2
at io
} =\
Ġre cord
ign ore
ction ary
Ġincre ase
U s
foot er
A pi
i res
d ated
Val ues
iz es
Ġs cope
Ġf ore
=" /
8 5
U se
Ġs ymme
back ground
ĠRe g
ho ver
web kit
Met adata
De bug
icro soft
s cal
Ġdist ance
25 5
en um
Ġ ke
by te
ĠO r
? :
bo und
Ġs witch
d im
Ġp ackage
T itle
( *
c f
Ġin fo
ind ent
Ġ} )
ĠL og
Ġperform ance
r ary
or th
al ax
Ġo ccur
N et
Ġt ree
f il
al y
ã ĥ
ĠĠĠĠĠĠĠĠĠĠĠĠĠĠĠĠĠĠĠĠĠĠĠĠĠĠĠĠĠĠĠĠ ĠĠĠĠĠĠĠ
Ġe as
ĠC heck
vari ant
Ġset s
ĠN ot
re place
Ġc ar
ck er
m id
="../../ ../
D D
add ress
m ut
G ET
Ġst ep
) }\
Ġo p
co in
ĠT O
al ity
> ();
OR M
ĠD E
Ġre port
Ex ternal
Ġconst raint
it es
h andle
Ġf our
ad ow
A ss
Ġinst ead
Name s
R I
o ps
ĠD es
D own
Ġbe come
lem ma
D eta
icon s
Ġcan not
Ġc ache
ĠThe orem
ta ch
m aterial
a ma
ĠâĢ ľ
C lasses
n ected
ä ¸
m i
Ġma de
Ġo wn
la sh
c ustom
Re ader
Ġcent er
ex ception
ĠN ote
9 5
Ġan other
I con
C an
ap pro
de sc
SE T
x is
e ded
Ġal ong
Ġpot ential
S tack
AN D
Ġdo main
res sed
Ġma k
) ^{
M ult
Ġn umer
Ġc luster
al e
Ġby te
Ġrel ative
Ġselect ed
Ġsol id
if orm
Ġcorre ct
Ġde lete
age ment
s chema
P ass
dis abled
for med
. ~
Ġfin ite
In st
ac cess
Ġm uch
Ġe valu
g lobal
medi a
~~ ~~
p df
20 13
ĠSe e
Ġg ame
P ri
Ġcase s
Ġcomp ar
p op
Ġun signed
th m
ĠM ap
Des cript
> .
Ar gs
Ġe cho
Ġle ast
-- >
Ġlo ad
Ġnode s
b oolean
h ad
20 19
f n
ir d
th en
_ ;
ĠSe ction
App lication
g ative
frame work
pe ed
we ight
or ity
OR D
er a
Ġa uth
if e
ĠJ SON
ĠA d
Ġb ro
Ġre mo
-------------------------------- --------------------------------
on d
ur b
Ġinter est
iz ing
6 8
Ġdif f
T ab
Ġfeature s
Ġte ch
Ġsur face
ut or
p adding
Ġhe ader
Ġs m
Ġre d
Ġl ight
ick er
Ġexp ression
Ġre lease
code d
cre en
} "
Par am
re p
Ġcon tainer
S L
ump t
Ġrep lace
Ġin cluding
or ig
20 20
c r
e v
Ġqu e
ct ure
Ġde vice
De finition
R oot
ĠAn d
; <
}_ \
oo st
Ġb est
ug gest
Ġd imension
e ars
Ġse ver
do uble
c dots
S k
Ġfact or
Ġreturn ed
ed ge
} |
Ġmult iple
D raw
Ġal ways
IN E
I R
over n
P ackage
ĠR em
S ION
__ (
prec ated
ĠĠĠĠĠĠĠĠĠĠĠĠĠĠĠĠ ĠĠ
B oolean
Ġcol lection
Ġper iod
c la
Ġme ans
at ist
f ony
W riter
mer ic
{ (
ym fony
d x
ĠTr ans
ri es
ateg y
ĠĠĠĠĠĠ Ċ
U RE
Ġa pi
Ġo s
Ġre ason
B ody
Ġc ap
Ġro t
Ġc l
ĠC ON
By tes
Ġph ys
Ġm er
Ġse lection
Ġinv oke
Ġar ound
ĠP h
mo ck
P i
Ġa verage
loc ity
Ġg l
depend ency
Ġ art
Ġvariable s
De f
^ +
Ġ+ +
ch an
Ġgo od
sol ute
Ġex cept
M on
Pa rent
Test s
Ġequ ival
Ð° Ð
ã Ĥ
H as
AT H
ĠTr ue
Ġhigh er
}\ ,
Ġdeta ils
8 7
v irtual
al th
By te
id ual
En abled
ĠS T
}) \
M ock
sh ot
Ġanal y
Ġby tes
u ide
q quad
call back
ch ron
ĠB e
M eta
Ġtemp erature
s uccess
r um
am il
Ġ( '
Ġerror s
o h
}^ \
key word
TE ST
Ġtime s
Ġs a
Ġc irc
De lete
8 9
L ong
Ġpos itive
c ategory
G e
ĠT able
A SS
Ġchange s
N um
f ocus
x x
ix t
Ġa m
th at
L IC
u ss
Ġact ive
Ġdirect ory
v as
Ch annel
Ġis s
ĠP o
un g
ir m
Ġin line
ĠĠĠĠĠĠĠĠĠĠĠĠĠĠĠĠ ĠĠĠĠĠĠĠĠĠ
Ġle ss
Ġj son
Ġsystem s
Re p
' ))
Pol icy
D F
B ind
av es
Ġ$ {
N on
r ont
Ġ im
` ,
s in
con nect
text width
as ing
V E
ĠE rror
& =
field s
Ġaddition al
wide hat
ot ion
H P
8 6
Ġ< =
Ġ' /
ĠN OT
4 6
A re
ĠThe se
ĠWh en
G raph
ĠI O
Ġsign ific
reg ister
Ġdif ference
ip el
block List
Ġimport ant
Ġf low
log ical
ad min
a fter
Field s
Ġass ign
u cket
ol l
sh ip
Ġset ting
F eature
d om
D ialog
Ġg r
Ġs he
Ġin teger
Ġb it
is sion
Ġse ssion
c pp
F a
f ree
in sert
ĠD is
St orage
Ġmax imum
to ggle
c loud
Ġbe gin
"" "
oo th
dapt er
Ġde l
com ment
Ġtrans action
20 11
} :
Ġtra ck
Ġd id
Ġ\ {
Ġs end
Ġc ross
Ġe ar
Ġset tings
Ġad ded
sup er
) /
p ub
P T
, "
S A
W E
con nection
ĠD ate
e fficient
end ar
g ree
FA ULT
EX T
Ġex act
sh ort
p g
Ġmo ment
CT ION
Lo ad
O M
oo se
app lication
100 0
V er
n one
Ġco up
plugin s
Mem ber
ĠM ath
Ġd atabase
Ġf urther
ĠHT ML
Ġth read
li ke
Ġcon struct
f ull
rag ment
idd le
Ġcom mon
sq l
om orph
Ġbo x
A p
d r
Ġimp ro
M sg
}^{ (
Ġg alax
D L
st ar
Ġlink s
at tribute
co ver
Ġob served
had oop
Ġm sg
y mp
Ġprob ability
gnet ic
umb ers
Ed it
N e
w rap
Ġe mp
Ġ" /
Ġf requ
AG E
Ġmem ory
av ing
d imension
s ort
Ġp as
ĠFig ure
Ġassert Equals
an notation
Descript or
Ġco ordin
Ġrepresent ation
ĠL O
R el
m argin
Ġne ar
G E
co q
em ber
u it
Ġser ies
Ġf it
Ġp attern
h igh
J ECT
ĉĉĉ Ċ
Ġth us
; /
item s
f lu
o om
Ġc la
Ġpe ople
20 12
ĠV alue
Que ue
Change d
li m
sh ape
RO M
Ġi de
Ġcontin ue
c up
Ġed ge
me s
] ]
ch or
Ġcomponent s
J ob
ed it
re st
Ġ( "
5 7
ch annel
line ar
F T
}} (
h s
ut er
B uild
c ity
aw s
F in
n d
c md
ĠS ub
al f
X ml
ent er
HT ML
C lick
ab il
ser ial
O K
it al
De cl
fa ct
om ic
ran ch
8 4
ab s
cond ition
Ġquant um
TE D
in itial
en umer
Ġfa iled
nap shot
ĠR E
en ch
wh ite
C ustom
Ob j
pass word
Ġl ater
D atabase
KE Y
F ound
Ġa mount
st ep
ĠL emma
and s
Ġy ears
Ġjava x
9 6
itu de
B ound
Ġcon ver
J SON
ĠS ince
EN D
lang uage
ar ies
Ġp ay
Ġs imp
Ġnot e
ĠS up
mo st
Ġp ub
ub e
module s
ĠC al
Â ł
C S
Var iable
s ite
reg ion
un signed
Dis play
st o
Time out
yn tax
ar ger
B o
Th at
Ġd b
Ġht ml
base d
N etwork
FI LE
Ġs uff
int e
Ġ$ (\
k s
mb ed
Ġreg ister
E M
Ġapp lic
Ġ( *
s ample
{ {\
Ġsupport ed
Ġbound ary
n ost
j ust
t i
P lugin
Result s
Ġal t
Ġt urn
Ġexperi ment
P RE
Ġun til
ast er
ent ity
im ate
) -
C re
Ġsever al
e mail
N ote
ar p
Ġtra ining
M ark
cit et
ched ule
S end
Ġsp in
}\ \
I X
ri ef
Ġrel ated
la s
lap se
ĠU ser
on al
ĠĠĠĠĠĠĠĠĠĠĠĠĠĠĠĠ ĠĠĠĠĠĠĠĠ
c orre
appro x
W idget
Ġconsider ed
e ch
ipel ine
ĠDe fault
in line
R A
t ex
Ġcomp lete
re cord
Ġal gebra
mb ers
Ġch ain
let ion
add r
ĠA L
5 6
Ġdescri bed
D oc
id s
ĠWe b
Act ive
in o
_ ->
Ġcom mun
Ġw allet
n a
key s
ĠE vent
E ach
Ã ¡
Ġc ref
D U
li de
Ġapp ly
b le
S te
x space
Ġbut ton
R ed
Ġun ique
Ġsignific ant
Ġitem s
sc roll
ĠU RL
CH E
à ¤
z z
| ^
//////////////// ////////////////
9 7
h space
inst all
Ġ layer
il li
Ġ{ };
M D
Ġh app
Ġsup p
Ġm ight
ol ved
am era
ĠI S
ig en
. *
)) )
per s
TE X
( !
p loy
P ost
P attern
Ġp ur
Ġ& \
con trib
Ġb el
Trans action
F lags
Ġy ield
m ore
} '
Ext ension
f eature
Ġinstance of
] $
Ġequ ations
Ġspec ial
result s
Ġsim ul
Th ere
IT Y
20 10
print f
") ]
@ "
Ġare a
ter s
ge x
Ġne cess
t ect
" `
n umer
ag ger
S cope
Lo ck
Sh ow
==== ==
Ac count
S ER
iv ing
pro perties
Ġin dependent
To ol
Re quire
Ġj ob
Ġimage s
as is
Ġp ut
In ternal
t le
ra dius
ivers ity
Ġin d
Ġh andler
c rypt
qu are
is sing
i ed
ock et
Ġname s
Ġact ual
Ġst ack
[ :
C A
lic ense
( {\
al loc
h r
T ABLE
al low
() {
gr id
ĠT ra
ly ph
Ġaga in
Ġt yp
pro duct
C R
que ue
ĠB ase
Ġ quest
ra ction
m ine
n t
ĠP y
ri p
Ġexp licit
point s
ĠG e
Ġd oc
om ial
\ '
g it
her it
S IZE
t ip
() ));
lan k
=" @
drop down
do main
In itial
P AR
Ġpro gram
th read
ĠĠĠĠĠĠĠĠĠĠĠĠĠĠĠĠ ĠĠĠĠĠĠ
ut f
Ġcontrib ution
}} {\
Ġopt im
Act ivity
M app
In it
ĠC an
proto buf
Item s
Ġmo ck
VER SION
Ġy ear
Ġs ort
type def
co p
Ġf ew
Ġv olume
Ġother wise
Ġs cript
j query
Ġ ),
Ġra ise
sc r
Ġn et
On ly
S ymbol
Ġst ar
F loat
Ġf unc
Ġt y
ĠV al
* )
P R
Ġp y
Ġpro posed
type of
a ut
s ave
Ġl arger
Ġst rict
Ġs ymbol
Ġb tn
} +\
Ġd raw
L java
ug ht
Ġac cept
ĠT ime
ĠA b
"> &
Ġ% }
ub y
Ġdescri be
Ġd irection
. __
un try
ra ft
e ach
c lo
ĠN ode
assert Equals
_ ,
ot on
ĠU se
= (
Ġac cur
U ID
)) );
Ġ- \
ro me
tr ies
LO G
5 9
F R
assert Equal
Ġaga inst
ynam ic
Ġp anel
Log ger
h older
() ).
Ġdistrib uted
Direct ory
AD D
G rid
event s
sh ift
no indent
ru pt
math sf
4 3
ts d
tx t
Ġbet ter
A fter
ĠIn ter
n eq
te ction
et ime
c ar
ĠF alse
Ø §
om in
\ ,\
Ġe lem
Ġs ent
st ats
ic ol
Lo ader
v ision
Not Null
ar io
B R
as sets
alle l
f lags
con troller
Se curity
Ġext ension
f l
Ġ[ ];
Po ol
Ġden ote
Ġgener ate
t mp
r ate
in v
5 00
A uto
Ġw orld
resh old
ann er
entic ation
25 6
apt ure
ch ie
c b
ĠĠĠ Ċ
ho me
i ps
Ġcon sole
Ġc lasses
om atic
=" ">
Iter ator
8 2
la in
Ġs ite
ward s
Ġde sign
gg reg
P S
By Id
Str uct
sp ring
ol ver
MA X
th rows
cho ol
Ġwe b
ĠC O
ĠTh us
} -\
ĠIn st
AC E
re al
Ġpo inter
AR Y
Ġre cent
ge ther
H ER
select ed
Ġg ive
N N
igh b
Ġreg ular
) ),
B it
Ġb lack
Ġ$ .
un ch
T S
ab ly
Ġappe ar
se quence
4 1
p l
NavBar Cell
Ð »
Select or
] \
pri mary
h elp
ĠM an
An y
Ġsa id
qu ires
Ġwe ak
P erm
Ġrun ning
rit ical
] :
) +
mit ted
man ager
Ġbehav ior
= -
Ġsign al
ĠV AL
import ant
fer red
-> _
! [
par a
Ġso ftware
and id
Ġa uthor
Ex pr
Ġon ce
li er
pro file
Ġdirect ly
Ġkey s
Ġto o
J ava
Ġco efficient
et ic
O D
Ġp l
p k
Ġallow s
Pro xy
v a
st and
ĠA meric
last ic
age d
) ">
' $
div idual
Ġb ind
ĠC opy
P ATH
sum er
Sup port
) }{
Ġs ure
enumer ate
M ENT
k er
Ġc or
Ġen vironment
Ġwrit ten
the orem
Ġn at
j ob
am ent
item ize
P anel
L ib
Mem ory
Ġequival ent
k a
Ġsh ape
re mark
S um
Ġimplement ation
Ġtest s
Window s
web pack
Event s
pa g
) ).
Ġs uggest
l ines
L S
Ġup per
ang o
Ġpre c
ar r
Ġ _{
N ow
Ġse en
J o
de finition
++ ;
ĠM ore
Ġexp ress
Ñ ĥ
ĠW ith
Element s
Re ce
Ġle arning
Ġg ives
Ġs cheme
clus ion
net work
Ġuse s
Ġorig in
Ġgroup s
Ġne eded
I B
ot a
Ġser ial
Ã ¤
A dapter
{ $
[ $
R et
Ġlo ss
Des c
Ġb l
En um
16 0
M ain
operator name
to ols
form s
ĠĠĠĠĠĠĠĠĠĠĠĠĠĠĠĠĠĠĠĠĠĠĠĠĠĠĠĠĠĠĠĠ ĠĠĠĠĠĠĠĠĠĠĠ
ST AT
get Name
P ORT
Ġapp lied
Ġcontain ing
s witch
Ġmult ip
h andler
Ġimp lies
ine ss
ul lable
X ML
S ymfony
} </
d ialog
D ist
Ġ ignore
leg al
ç ļ
ĠTO DO
umpt ion
En g
et y
tot al
Ġre spon
Ġ{ '
çļ Ħ
C lose
e cho
B A
f it
b ot
ĠA ct
o logy
To String
fin ite
At tributes
ul er
S QL
a o
v space
'] )
s ure
Ġden ot
M edia
200 9
) }$
######## ########
w ner
ack et
Ġexist ing
G S
) "
dimension al
ur face
l g
Ġh im
component s
ĠC re
s pect
o od
20 21
Ġn g
if ies
h idden
Gener ic
Ġclo sed
th ough
S U
: \
=" "
Pro tocol
co gn
ĠO pen
Ġf uture
Ġs w
S ince
200 0
pa city
Ġat tr
Ġat tributes
_ (
Ġi o
ag ing
In v
Ġinv est
Ġal loc
Ġar ch
5 8
Ġcon v
og raph
iter ator
id ence
a ir
Ġpas sed
ang ular
Ġke ep
Ġf amily
ph er
Ġsuccess ful
Th en
ĠT ext
Ed itor
Ġw ait
b all
Ġme tric
a de
N G
Ġve locity
if est
Ar g
Par se
ĠF unction
config uration
Ġmedi a
M atrix
BU G
CHE CK
Ġb uilder
al ance
19 7
uil t
pa y
use s
z ero
ĠA ss
Ġb ar
LE CT
Ġcon vert
5 1
u ary
ĠK ey
Ġh olds
con tains
app ly
Ġsolution s
ĠO ption
Con f
Ġinter val
Ġ" "
Reg ister
F unc
se qu
Ġthere fore
Ġa chie
mult icol
T e
Ġa gre
h elper
ac count
R est
$ /
sc reen
al ysis
' .
i sed
ĠM odel
N ULL
col lection
multicol umn
Ġen coding
se l
ĠD i
Ġdoes n
Ġcon nect
ert ific
Ġh o
", "
ĠĠĠĠĠĠĠĠĠĠĠĠĠĠĠĠ ĠĠĠĠĠĠĠĠĠĠĠĠĠ
W S
Ġc er
Ġcon tra
IP T
Sc roll
ï ¼
fa il
by tes
con s
N E
ĠRe act
9 8
ed itor
tr igger
Ġprovide s
log ger
not ations
b ul
Ġpro ce
UT F
ut ing
h and
Ġw ave
k w
Ġvar ious
com m
a rent
Ġimplement s
Ġre q
Po inter
Lay er
R AN
u di
Ġin valid
able s
h orizontal
p ress
Ġd ataset
tab s
se curity
^ -
par ser
Ġf n
d p
Ġxml ns
S ing
ma ster
ĠN e
ce l
Ġlo op
red ential
u a
Ġ( _
Ġeffect s
', '
ĠĠĠĠĠĠĠĠĠĠĠĠĠĠĠĠĠĠĠĠĠĠĠĠĠĠĠĠĠĠĠĠ ĠĠĠĠĠĠĠĠĠĠĠĠĠĠĠĠĠĠĠĠĠĠĠĠĠĠĠĠĠĠĠĠ
pro d
ĠM ar
act ers
al led
Ġ= ========
ex ternal
Ġst ars
ĠV ersion
SC R
ĠL android
Ġl iter
Ġelect ron
Ġ[ [
st op
Ġeffect ive
Ġp lugin
Ġ util
Ġpro ve
ĠMe thod
Pro file
$ }
5 4
W arning
mission s
Ġco st
ixt ure
ĠIO Exception
ident ifier
led ge
ase s
Ġ" <
TR Y
var iable
m atrix
ro s
Fa iled
are a
Ġla w
cre te
B rowser
s ymbol
Ġas ync
S o
Key s
Ġsub ject
Ġde bug
equ ence
ĠP re
ĠEn d
Ġmult i
Ġsp lit
il la
Ġpar am
Ġext ra
s ive
ist ration
le ms
I MP
b rowser
d ash
Ã ³
met adata
ĠCon fig
=" ${
ur se
Ġspect rum
$ _
r ift
Ġcomp ute
res ses
ĠN O
oc ial
rom ise
Ġcoup ling
4 00
Ġa wait
Ġan gle
Ġpro file
ĠI P
Trans form
Const raint
est ed
Ġwork s
parameter s
S ocket
ic ient
Ġallow ed
spec ial
D uration
F e
Ġinclude d
D et
Ġchild ren
Ident ifier
bl ue
R untime
h ide
Ġus ers
Ġma gnetic
ex ists
\ }$
Ġme chan
< \
Pr int
ĠS p
}} }
yc le
P L
g ence
Ġwh ose
Ġli brary
pa re
k ens
Ġf ace
Re pository
S cale
Ġh owever
Ġne ut
Ġe mbed
ĠĠĠĠĠĠĠĠĠĠĠĠĠĠĠĠ ĠĠĠĠĠĠĠĠĠĠ
id x
W rapper
M B
ex pr
Ġto ol
th es
}} ,
S Y
3 00
Ġb inary
ĠIn t
> :
in a
File s
Ġli k
Tra ck
200 8
Ġr atio
Ġd im
w er
Ġd ir
F ail
fil ename
ĠB o
st orage
ĠI mp
Ġent ity
scri be
~ $
Ġestim ate
Ġp erson
duce s
mult i
Ġfor ce
Ġ" ,
Se ction
Ġab le
ĠGet s
v ance
Wh en
Ġvert ex
Ġt ab
f amily
ĠC ode
ĠSt ate
b lack
ter m
Ġen ough
h y
Ġn umbers
pe at
Ġ il
ON E
ren cy
At tr
pro ps
ma sk
w in
5 2
ur y
n il
L P
w rapper
w rit
__ __
Ã Ń
I E
Const ants
ĠM on
co very
Mapp ing
gra d
el li
S ync
con n
ĠMe ssage
Ġac cording
under line
ax is
proto col
re set
c u
6 9
%% %%
ĠE ng
co unter
p refix
Do uble
Ġa mp
Ġd ay
ser ve
Be fore
De pend
M y
Ġest ab
Ġtype of
Ġde s
Ġb ottom
ĠThere fore
us ic
um in
min us
5 3
200 6
) |
}} _
P ay
Ġ\ |
D est
yn omial
Ab stract
Ġlo ck
ĠA N
Rem ove
Th eta
Ġme mber
Char acter
N OT
Rout e
Pro ps
ide s
d ates
Ġf ig
Ġb ook
um an
F IG
l or
pre t
Ġty pename
pro vider
Ġd a
S uccess
Name space
-------- ----
E l
ĠA p
or ter
m at
Ġfor mu
Imp ort
Ġb and
ĠUp date
v s
P refix
ĠO ne
Ġid x
Ġoption al
Node s
C RE
Ġh ard
33 33
ĠF ROM
pro tected
ra in
D S
ag nost
a ther
Ð º
ĠN AME
( __
ĠC ar
ĠF orm
Ġpol icy
Ġneed s
Ġin dividual
Ġ\ ;
ot al
Ġh ome
at ible
Ġc tx
ĉ ĠĠĠĠĠ
O UT
the me
8 3
Ġpart ition
Ġs ay
Pro to
ent ion
G B
f ly
Ġsize of
IN D
Con dition
nav List
Ġc r
ac ity
au ge
Ġcon structor
ĠT ask
S pace
Ġpre dict
Ġ icon
Ġev olution
Ġr g
) ->
sh adow
ĉĉĉĉ ĉĉĉĉĉ
C I
ĠIn teger
Ġm atter
Ġen abled
sv g
j ar
Ġe q
ĠThe y
Ġext ract
Ġset up
e ffect
State ment
Ġj Query
Ġto gether
ou th
Ex pect
">< !--
le y
at tributes
TEX T
Ġre quires
AL SE
p icker
atist ics
limit s
om en
serv ices
Ġcomp ared
ĠS tr
= >
Ġdis k
200 7
Ġorg an
Ġpre di
Ġ( -
Se cond
Ġ Qu
Ġsmall er
Ġmin imum
j ango
T C
g an
p lan
c ut
at ively
Collection s
Ġk ind
j unit
av ed
} %
el lo
v o
Ġframe work
r f
Ġh om
Ġt ensor
G lobal
un e
Ġsource s
Ġa xis
n orm
name s
Ġcorre lation
ul ly
Ġab solute
RE AD
20 22
Deta ils
ĠS pec
Ġsatisf y
Ġ= ======
tr ics
ĠA ND
Ġf lag
medi ate
S imple
c ame
6 3
Ġcer tain
Se lection
t body
ition al
a ff
if def
h ib
> ::
Ġex ternal
iv ation
Ġtak en
Ġco re
head ers
D A
L im
Ġra dius
v ement
200 5
ed s
os ite
pa ir
Ġf ix
Reg ion
Ġv i
exec ute
ent s
Ġy et
}^{ -
Ġm at
b ad
ch art
Ġar bit
j or
ta gs
Ġg re
r andom
foot note
f d
Ġoper ations
tr ie
SCR IPT
Com mon
F LA
ĠRes ource
Ġapp end
comp lete
b on
Ġa gent
8 1
all classes
h a
S ample
ĠS k
Comp ar
Ġ$ |
y es
gener ated
Ġin ner
child ren
comp iler
Ġa void
Ste p
V M
Gener ator
Ġflu x
u ro
Ġ[ ],
ĠO ut
Ġ" -
ĠP er
ĠUn iversity
ve y
un ique
ar ation
d one
J S
Eng ine
Ġrece ived
text tt
. ");
z one
C ap
Ġp ixel
F ull
A gent
Tra ce
DU LE
ent ly
b ers
Ġm aterial
() </
Ġin sert
b rief
con struct
tr m
j d
p latform
' ));
Ġpass word
c v
He aders
ĠH ash
Ġnecess ary
pre v
em atic
N T
Ġv ers
Frame work
Ġse m
P ACK
Ġg en
Ġspec ify
{ %
us iness
b uilder
iz able
Ġt x
Ġ? >
math scr
O B
ĠSer vice
col Last
ĠP r
Ġc ancel
re spon
ĠG oogle
tex trm
ans ion
Pro p
ĠĠĠĠĠĠĠĠĠĠĠĠĠĠĠĠ ĠĠĠĠĠĠĠĠĠĠĠĠ
Ġsample s
A RE
Ġfrequ ency
12 8
HT TP
ama zon
Ġcon nected
for ce
Ġcomp are
ĠRe quest
FF FF
se ct
Do main
Ġcurrent ly
i os
ced ure
ch ine
ĠRe f
O pt
? >
u ck
Ġ{ {
L anguage
Ġg u
P y
Ġg rid
P op
Pass word
Ġg as
Ġin side
col lapse
Ġpar ser
U SE
Ġchange d
ĠE d
lo or
pe ak
O ST
Reg istry
con tin
P ER
å ı
CE SS
(' .
Ġ' <
u ite
ho od
Ġuse ful
Ġ{ "
p attern
an ish
T x
Ġde fin
Ġ ],
ansp arent
A X
w ild
rib ution
Ġst op
Ġthe orem
Y ou
Ġb asis
col First
j pg
Ġne gative
Ġpart ial
al es
lo gin
TI ME
' \
Ġde cre
ĠF e
Ġque ue
Ġa ff
ex tern
Ġsc en
Date Time
S R
au ss
Ġexp lo
our s
oh n
amil ton
Ġra ther
l ates
Ġpro per
Ġver ify
Ġ$\ {
deta ils
Ġ( $\
Ġh idden
U ri
a e
6 2
Ġde gree
Ġw aves
so cket
aj ax
Ġg row
Pro duct
Ġre m
Ġde sc
ide d
Style ID
Ġoper ators
Ġcomp let
sh ared
UR I
lo ader
M C
Ġdepend s
tra ck
Ġnull ptr
Ġpartic le
D C
ĠI E
ic ult
lay ers
Ġco ver
it ect
=" $
P e
t ml
ĠF ield
Ġcontinu ous
ta int
F ORM
Ġv ideo
Ġs ens
Ġent er
G ra
ĠM in
gener ate
AR N
Ġ â
Ġf ar
ul ate
Pa ir
ass ign
ew idth
id ing
Ġ ensure
A uthor
Ġconstraint s
< !
Ġb ranch
f ixed
d agger
Reference s
pro gress
in valid
Ġlog ger
Ġcur ve
Ġp refix
St ats
ĠJ ava
x s
z er
ĠS c
H R
po ol
Ġac ross
Ġo pp
Ġphys ical
user name
Select ed
n def
riter ia
_{ (
ĠB O
script or
Ġt mp
side bar
Ġhe ad
Ñ ı
Ġf ocus
Ġme mbers
lit u
Ġword s
Ġen um
Ġpresent ed
Ġra di
atal og
I ST
ma ven
E rr
ff ff
ra se
Ġinter action
7 9
f x
ĠR un
ri end
ĠM y
Ġe igen
ĠO per
ĠP ol
clu ster
error s
subset eq
ĠH ttp
TR UE
^{ -\
( @
at ial
test s
apt er
_ +
Ġmet adata
Ġgalax ies
ch ain
B AR
ĠIn itial
E q
Ġpro tocol
lo op
p u
Ġpart s
Ġfore ach
Ġr ank
Ġcomp act
Ġit self
C luster
Ġ[ "
G ER
ĠV iew
an ded
abil ities
st ers
EE EE
re lease
resource s
ir it
struct ure
g ments
ĠĠĠĠĠĠĠĠĠĠĠĠĠĠĠĠ Ċ
Ġdeter mine
require d
Vis ible
IT E
ertific ate
Ġc ategory
Text ure
ext ension
w arning
ĠLO G
Ġhe aders
view s
Ġp i
' re
il ation
S equence
Ex ample
Ġscal ar
w ik
s ys
l legal
ĠHT TP
M o
Ġl ang
wit ter
Ġat temp
Ġmessage s
ĠCopy right
Ġval ign
Ġst orage
art icle
G R
Ġvis ible
Ġh istory
deta il
Ġsymme try
r b
Ġcho ice
Ġma ps
Ġne ver
is ing
wh en
LO CK
v c
Ġte am
Ġh old
R ad
Ġblock s
(' #
' }
t c
; }
Ġsh ift
Com ment
Ġv ol
g ers
Ġbecome s
Ġaut omatic
Ġmon th
de p
Ġ Ã
Ġf lags
oc ation
RE S
ĠT HE
Ġs ave
Ġmak es
check box
Ġsign ature
Ġremo ved
i ke
200 4
Ġhy per
Di ctionary
Ġtak es
Ġco unter
* {
age s
Ġc lean
ateg ories
O F
Se e
index Of
Ġg auge
Ġne ighb
wh ile
7 2
A CT
Ġreg ions
lic en
l arge
Ġab stract
á ĥ
200 1
EN SE
Ġnat ural
en able
if ndef
Ġu i
f ix
spring framework
p resent
Ġh ar
l ers
Ġrepresent s
IN FO
Ġof ten
Ġex it
on es
trans ition
C ategory
De c
Ġb rowser
Pro gress
node s
de ed
L INE
Ġex port
ro t
ate way
h ref
Ġquest ion
\ }
s ince
Name d
h ip
Ġprob lems
De legate
Ġ" $
Sh ape
s afe
mo use
Ġ$ -
os en
M ore
Ġchar set
ific ations
ĠS ome
g ame
ĠM ay
Ġresource s
b oost
Ġre search
Ġco q
Ġcol lect
ĠC EL
Ġse gment
Ad min
EN TRY
Ġcompar ison
Ġder ived
SE LECT
}} _{
Ġpol ynomial
Ġdetermin ed
Ġn p
ĠB ut
b its
en abled
Ġtime out
Ġnav igation
Ġp ers
ĠRe ad
ID TH
lev ant
ĠM od
Ġk ernel
inc ip
Ġper formed
as ync
ST ATE
Ġc md
Ġobserv ations
Ġp ert
C F
O ff
ang er
I m
Gener ated
er ies
ier arch
b um
W ord
Ġcons istent
ĠU I
ĠO b
us form
numer usform
Ġno ise
Ġup dated
.. ..
ĠS O
Ġgra v
Ġrequest s
.. .</
EEEE FF
ĠI d
9 1
(' /
Ġun iform
ĠArray List
Perm ission
Ġchar acters
W N
gra de
. '
g lyph
on ical
y ear
v olume
us ion
f i
sign ature
ĠC all
th row
lin ewidth
il i
Ġvert ical
P P
ma c
gre en
an a
d ers
w ar
Resource s
W R
Ġrule s
Ġmatch ing
Ġe mission
mo z
w edge
Ġth ird
p id
Ġin s
ma s
Ġ Î
Ġli b
PO ST
op lus
pi cture
Ġl att
Ġg round
ĠM o
H elp
en ers
Ġcom ment
; ">
DE FAULT
7 6
d y
HER E
Ġd at
ce ler
ĠA R
Ġformu la
ĠF irst
Ġpri mary
ĠJ an
ud o
us ers
Ġs creen
ĠI mage
S w
; )
omorph ism
r uby
ans wer
et er
Ġle g
Ġ$ [
el f
du c
set minus
un defined
CT YPE
Ġre ct
group s
er al
Ġme ta
Ġre fer
r and
Or ig
Ġinclude s
wild fly
ob ile
sw arm
W allet
" /
as sembly
ar ing
Mult i
Ġtr igger
ic ip
se ss
Ġt w
S im
Return s
ro py
Ġstring s
Ġh aving
Inter val
time out
ile vel
mit ive
u ed
Ġp ract
align ed
Ġwrit ing
ĠS te
Ġresult ing
M ath
Ġb uf
L en
Ġcomp uted
Ġh ence
Ġam ong
RE Q
. <
ĠA SS
En umer
IC E
ic o
ĠF rom
Ġcon troller
ell ar
Ġpartic les
Ġb asic
gorith ms
Id s
^ ^
9 4
ĠN umber
ĠV ector
VAL UE
c lean
() ))
pro b
NavBar Font
MO DULE
Ġent ire
x html
V olume
R ole
ĠAmeric an
Ġsm ooth
ag raph
Ġsc atter
ĠR ed
py thon
Ġde pth
k et
g ular
sub figure
Ġapprox imation
test ing
Ġ ir
com mit
B E
Vert ex
Ġstate ment
Ġpro m
Ġpro xy
Ġcent ral
cd n
Ġs chema
Ġrg ba
Ġs peed
A ut
Ġsuff icient
ult ure
ĠS IZE
in f
st able
ĠR o
7 8
Ġto po
ĠEx p
L android
ĠH ere
ic les
I VE
low er
ĠT e
ct r
ĠAL IGN
G en
Not ification
Ġ} \
oc aml
Ġen able
DO CTYPE
Ġp ress
Be gin
End point
d iff
print ln
ĠIn dex
mo b
Ġexp onent
sh all
t w
ac ing
f g
ard s
. )
ĠM ark
Ġm enu
get Element
iv ial
Ġin variant
Ġear ly
ĠF in
ĠB uild
Ġun less
ad a
Ġre ader
Ġf ill
Ġp latform
r untime
CO MP
check ed
Ġarbit rary
f lat
ang ing
Ġcolumn s
,\ ,
ap is
{ "
Ġap ilevel
Ġc ritical
Ġin equal
EL D
ĠW indow
B B
tra ce
Ġn ative
M ask
Ġre trie
th ers
| |
Ġc are
Ġ ];
Ġbo unded
Ġp ush
DE BUG
it tle
ist ing
Sing le
and ra
IT ION
ĠP art
P layer
Ġpro p
F S
US ER
ces sed
Ġh alf
Ġ ).
Ġpri or
Ġun cer
Ġd rop
Ġma sk
ul ated
lu str
Ġl ate
Ġpe ak
Ġdisc us
Re v
******************************** ********************************
Ġcall s
ĠS ource
Ġsimp ly
Back ground
com ing
P U
Ġ ^
let on
An imation
6 1
ance s
VAL ID
de pth
Ġnumer ical
S ort
Sum mary
ĠĠĠĠĠĠĠĠĠĠĠĠĠĠĠĠ ĠĠĠĠĠĠĠĠĠĠĠĠĠĠ
Inst all
Ser vices
S cal
Ġ| \
_ *
velo per
circ le
ĠUn ited
PRO JECT
t k
Ġf und
ĠB oolean
n p
Ġf oot
Ġra w
Ġsatisf ies
Ġet c
id ers
t ical
lo ts
D T
her ited
pro xy
Re port
H ere
ME TH
RE G
ched uler
Require d
p or
Ġassert That
ifi ers
Ġp layer
Ġstart ing
par ator
9 3
p lot
n ob
Ġcorrespon ds
Ġpop ulation
g i
ion al
b atch
Ġpro gress
Ġvert ices
Ġmoment um
sing le
Exec ution
bul let
Ġd r
Ġdisc uss
T otal
Ġf raction
ĉ ĠĠĠĠĠĠĠ
'] ['
Ġ layout
Ġle ading
ĠVal id
v ideo
de c
M ar
IG HT
Ġch oose
Be an
con sole
ro le
mon str
ook s
G oogle
Ġtrans late
Ġma gn
Ġre ach
is k
ĠS QL
d atabase
Ġed itor
INT ER
L L
Ġn uc
, $
ĠIn put
D b
ĠASS ERT
Ġsh ared
ĠAN Y
Ġdeta il
f lag
E V
ph one
Ġwh ite
' ];
Ġma pping
S yntax
9 2
OR TED
Ġopt imal
word s
Ġident ity
Ġph ot
r d
get Value
select or
u la
Ġed ges
Ġamp litu
rid ge
ĠC ur
em s
Ġm d
ĠEx ample
Con s
yn chron
n n
F low
M icrosoft
Ġat tack
> \
auss ian
D ATA
=\ "
ty pename
Sk ip
Ġ( [
at ory
Ġbound s
ure d
Ġn orm
ome tric
Ġt re
" ],
P lan
f c
Ġ engine
tr i
H istory
r ices
fact ory
b lank
end or
Are a
_{ -
k ing
Ġm ut
Ġf all
(" /
Ġo k
la x
M ouse
Ġm otion
t wo
Ġname d
ro ute
ĠP ath
ĠC or
z y
P UT
Ġun known
NS String
U sing
I gn
Ġtask s
Ġcalcul ated
' _
Ġres olution
common s
Ġappro pri
es ian
mm utable
Ġ rows
s imple
# {
ĠE ND
Ġsc roll
up load
Ġf lat
r ong
ag ent
Ġexample s
Ġiss ue
F ragment
en a
h ere
le ep
Test Case
Ġent ries
Ġright s
b old
an te
Ġ@ "
ĠSt art
g u
object s
. ",
ĠRes ult
Ġw on
ĠT R
M T
: `
Ġde tection
Ġe mail
å Ī
con structor
st it
for ward
Ñ Į
), \
M ake
ap os
refer red
Ġc ut
Ġunder stand
s ync
B atch
m ic
ĠX ML
G ame
oll ary
Ġplan e
f lex
_{ {\
ca pe
is ation
ĠU S
m c
Ġpair s
cy c
Ðµ Ð
lu g
Ġlong er
Ġb atch
i us
LE TE
Ġcoordin ates
F lag
AA AA
ĠS ch
d ro
res olve
amilton ian
ren g
Ġsimul ations
st at
) }(
Ġcon struction
Ġder iv
p ull
ul k
LO C
re port
ign ment
7 4
s ome
Ġdynam ics
S I
Ġ" ",
Ġdiscus sed
Ġde monstr
R PC
App end
B C
Ġall Classes
ĠG roup
In d
METH OD
E C
Ġ\ "
Ġfin ally
Ġs b
Ġchar ge
F ind
d c
Ġ$ $
AN G
Ġwe ek
in ct
mer ge
ext ra
Ġtest ing
ĠN AV
option al
big g
ĠallClasses Link
comp ile
AP P
l int
)\ ,
Ġc andid
ä »
Ġlatt ice
P H
Ġintro duced
ĠS im
Ġact ually
Ġs ho
Ġ&= &
st e
Ġspect ral
Ar t
R R
Ġapprox im
Lim it
ĠW ork
Ġal tern
t f
Ġmod ified
Ġlist ener
Ġter min
) [
up lic
ĠO ther
in herit
ï »
ã Ģ
s lice
Ġpro duction
h i
H and
) {\
z ure
row n
o sed
Ġdec ay
C la
o ss
re act
Î ¿
Ġde ep
Ġemp loy
g oto
Const ant
ri ed
Method s
200 3
L in
WE B
MO DE
Ġst eps
M er
Ñ ĭ
tern ational
Ġg overn
Ġ> >
Ġd omin
amp ling
S K
ous ly
un ty
ï» ¿
case s
Ġexperi ments
ĠA fter
Ġpert urb
Con structor
tent ion
) _
f r
la v
Ġen v
DE F
Ġed it
Ġgra dient
Ġclass ical
Ġin f
ĠPro position
Ġincre asing
Ġsum mary
}} (\
Ġc he
ad cast
um my
ed back
S M
C ALL
at omic
N ative
Ġal most
re sp
qu es
t or
valid ate
b d
Ġ' \
Ġf ully
ctr ine
set up
en ing
function s
Ġg ot
Ġexec ute
7 3
Ġm issing
Ġcon figure
Ġ+ \
Ġread only
Ġuncer taint
STR ING
Event Listener
IN S
ĠCol lection
Argument Exception
Ġf mt
IO Exception
Ġre set
b g
Ġc lick
li brary
ver ter
Ġaccur acy
Ġspace s
" ].
fo und
Ġpro ps
Ġb uilt
Ġexec ution
Oper ator
I LE
at ives
.~ (\
al o
ĠV er
Ġp lot
Ġw in
Ġcoefficient s
s a
ext end
Ġmeasure d
Ġcorrespon d
b i
Ġ ×
C ancel
Ġac c
r ics
vis ible
all en
Ġmatch es
Ġde comp
Ġs itu
s ime
ĠNAV BAR
$ ^{-
oo g
orig in
e ff
iss ues
Ġ ..
ĠCh ar
SS L
support ed
Ġcol l
Ġb in
ad o
br id
ĠW orld
âĢ ľ
ge o
Ġan gular
Valid ation
redential s
Ġle arn
sime q
19 99
ur ch
it o
down load
Ġfail ure
Ġ" ";
C lear
is Empty
own er
Ġcur sor
Ġl ife
Ġ" %
O wn
Ġinstance s
ok ie
Ġt sd
ASS ERT
Object s
12 3
c ip
G C
Ġmak ing
V ideo
lement ation
Al low
ĉ ĠĠ
lo aded
pro v
DO M
/ _
er ve
to uch
pol icy
b es
Ġm ot
ĠH ence
F E
a use
j a
Ġpol ar
text sc
Ġun its
ĠM ake
Ġexact ly
Cur sor
d en
) _{
Ġinvest ig
P ub
ex it
Serial izer
H igh
Ġle ad
}$ -
ri st
Ġopt s
w p
kw args
ence s
ter min
Ġa ctions
En ter
Ġ' ';
act iv
Child ren
Ġa ge
Ġapplic ations
la re
P od
elli j
d river
Ġdevelop ment
L ower
ri e
ic ity
sub subsection
Ġro ute
D river
ant i
j Query
ymp tot
Ġch osen
Ġman ager
Ġ\ (
ĠAp ache
ma zon
N UM
Input Stream
Ġpo ol
Q U
over view
() ),
ĠA S
Ġl at
b c
OR Y
Ġp at
Ġf un
l ated
ue st
re ct
Ġc apture
Ġpro cedure
int ellij
ĠP RO
Ã §
dest roy
ĠC lient
ĠL com
M IN
an imation
Ex tra
: [
ĠOption al
con v
lip se
ĠSt ates
ð Ł
ic ode
is set
Ġdocument ation
Ġexperiment al
ig ration
2 13
per p
_ );
h om
Ġvis it
N V
Ġde lay
P ublic
Ġproce sses
Ġautomatic ally
c ial
En v
Ġ_ ,
dis able
ist or
C l
ĠAs sembly
Ġwho le
y y
E ST
al ert
Us age
Ġlabel s
w d
/ "
de g
M ove
ong s
ĠD ocument
inte ger
Ġst o
Ġth ough
S ave
="../../../../../../ ../
( .
Ġeas y
Ġexp ansion
E mail
em on
Ġw ide
ĠW rite
Ġb ig
ĠPro ject
CH AR
C loud
ĠO ur
St atic
ran k
od ot
ant ic
y g
ĠÐ ¿
Ġfact ory
d uration
C ONT
Ġs ense
b re
di ag
ĠAl so
h am
ĠN ational
ava i
ORD ER
STAT US
lo ok
$ ).
T er
Ġcom mit
Comp iler
s b
licen ses
Ġsim ulation
z ip
Ġsp an
col on
In tro
iz ations
Ġext ended
Ġre levant
grad le
" },
i et
u sp
: @"
Ġinst alled
P HP
) ^{\
trans action
Ġwork ing
quot e
C LASS
Ġcon tact
m k
ro ke
Ġreport ed
Ġtra ce
Comp at
Re lease
Ġ} }
se q
Ġdiff icult
Ġor bit
Ġdis abled
Ġcon n
> )
Ġstart ed
opt s
Ã ¼
cal led
for Each
ry ption
A ST
Sh ort
Ġde cl
1 20
Ġgo ing
second s
'] );
Render er
Ġs ql
Ġt reat
\! \!
W ait
S ql
Ðµ Ð½
% "
li ct
ens ive
Ġtrans fer
for all
ick et
ile s
ĠA ction
Di agnost
Ġtr ansport
Ġtak ing
Ġbl ue
Ġselect or
Ġmod ify
Ġass umption
Ġfig ure
Ġstore d
Ġident ify
Un known
om s
thes is
Ġintegr al
F n
str ument
C G
Ġvalid ate
ĠS D
Ġpro pag
Ġse ason
b al
Ġfor ward
Ġth ink
~ $\
C lo
on ce
Ġdepend encies
U D
Ġt or
Ġ' ',
æ ľ
f ire
Ġtech n
Î ±
Ident ity
ĠJ ohn
cre d
Ġ' ./
not es
con vert
ent ially
Ġil lustr
cl one
Ġtr ansparent
AN T
mem ory
Res olver
W ORD
b asic
Ġpre vent
d if
ĠW IDTH
ĠT H
Se gment
Ġsyn chron
th rift
7 1
ĠJ o
Ġsh all
Nav igation
Ġindic ates
Ġc lu
Ġca use
ĠW AR
Ġmeasure ments
reng th
const ant
ĠCon st
ĠN ow
Ġappropri ate
Ġstr ategy
ach ine
Ġmin im
Ġtemp or
Map per
ac c
A li
sp acing
tr l
ac cept
Ġ Ø
Ġlik ely
assert True
ist ence
L a
Ġrem ote
ĠEx ec
Ġeas ily
ĠS to
high light
lab or
Ġd ays
Ġpath s
getElement ById
Ġnetwork s
e lem
comp are
Ġst age
Ġ' '
R aw
method s
200 2
Process or
ma g
Ġd ot
Ġad min
ss l
Ġa dapt
Bind ing
Ġsome thing
Ġle ads
Ġre duced
Form s
h ave
/ {
aly t
act ivity
il ib
Ġmode s
Not Found
Ġpres ence
Ch ain
or ing
FI ELD
Deta il
ench mark
if old
message s
NO DE
le c
[] {
ph ys
ca de
^{ +
Fig ure
sub mit
re ce
The me
Ġcalcul ate
Ġdi ct
~~~~ ~~~~
Ġth reshold
Rem ote
We ight
ct u
is ms
Ġth erm
t ensor
ĉ čĊ
ra dio
Ġout side
ark s
udi ed
ad r
Ġres olve
An notation
B l
Ġm ention
Ġdistribution s
Ġcur ves
Ġthe ore
ĠP ublic
Ġvalid ation
Ġro und
Ġw arning
Ġre sp
Ġser vices
Ġm ix
k o
UM M
T T
\ _
Str ategy
Ġd uration
. """
) ^{-
col lect
Ġ_ .
ĠL ong
Set ting
cri be
ĠWAR RAN
< <
ĠI m
Ob server
Ġstruct ures
Ġcla im
ri ction
du cer
Valid ator
Sign ature
N ET
ĠSet s
ĠReg ister
c mp
v let
Ġtag s
ack son
argument s
O ur
Sp an
Ġg ap
ĠPar ameter
> "
AN CE
S top
N ullable
Ġ license
{ $\
Ġel if
incip al
S creen
nob r
Ġinequal ity
Ġse curity
de precated
Ġal gorithms
glyph icon
Ġsecond s
Ġper missions
En vironment
nav igation
Ġ= \
Ġstud ies
po ch
Ġremain ing
f etch
Ġsub set
l ush
ill ion
Ed ge
F C
. âĢĿ
tr im
Ġre view
ĠĠĠĠĠĠĠĠ ĠĠĊ
u y
a res
ĠB it
w all
Pro gram
Ġe ss
Ġso cket
Ġfil m
tach ment
cre ated
jo int
ĠPro perty
Tag s
P A
Ġma jor
Ġw riter
Ġspect ra
b and
ĠI llegal
c atch
t ar
Th row
$ $\
Ġan imation
urther more
Ġ" .
ic ation
face book
[ (
p an
H tml
Ġon es
Ġrece ive
pk g
co mb
Ġco urse
B inary
ma ss
urn al
P latform
M I
it ch
R ate
Ġb ad
Ġlevel s
Mem bers
Ġ> >>
Ġ ul
og ene
ĠM ax
Ġcontent s
ĠSo ftware
ĠĠĠĠĠĠĠĠĠĠĠĠĠĠĠĠĠĠĠĠĠĠĠĠĠĠĠĠĠĠĠĠ Ġ
Ġmat rices
il ing
res ize
Ġdim ensions
Ġf ive
ca ss
N ormal
ï¼ Į
display Name
ĠD B
orig inal
ĠO ver
play er
66 66
CON FIG
FF ER
Ġd ual
Add r
ho p
Ġcomput ation
Ġd ark
Al loc
mp t
ore d
Ġpro to
cal endar
ĠM et
Ġc loud
H ub
Lo gin
F UN
Ġcon clude
ĠSt atus
Fail ure
Con n
Ġp ast
re ed
itect ure
Con nect
Ġr untime
sp irit
Ġident ifier
Jo in
e lastic
Con tact
æ ĸ
ĠD ec
Ġdenot es
) },
Ġj s
get Id
bo se
Ġsing ular
Ġfor ms
change d
Us ers
n ative
Ġprov ider
; "
Ġsymme tric
ma pping
cop ed
D rop
T A
Ġde v
ON G
al gebra
Group s
F older
Ġtrans formation
lo ur
vert ical
ploy ment
P lay
Ġf ast
sh al
log o
- $
Ġdepend ence
li ance
corre ct
Ġs ys
em it
b ut
f mt
Ġg reat
ç Ķ
ĠB lock
scal a
Ġact ivity
gin ation
content s
Ġ' %
r pc
Ġch unk
er ing
G ui
Û Į
re ader
En coding
Pro v
i ans
B asic
ĠMore over
i qu
ĠĠĠĠĠĠĠĠĠĠĠĠĠĠĠĠĠĠĠĠĠĠĠĠĠĠĠĠĠĠĠĠ ĠĠĠĠĠĠĠĠĠĠĠĠĠĠĠ
Ġrest rict
Ġh uman
S hould
V AR
Ġinterest ing
ur ations
de t
ient ation
b p
Ġgre ater
Ġde t
Ġpro duced
c ancel
Ġma chine
Ġb r
en n
Ġ' .
el low
F N
r g
ĠI I
Ġgener ic
Ġrot ation
y l
A udio
ĠS w
direct ory
: #
ir th
k t
atase ts
ĠW IT
ĠâĢ Ķ
Ġprocess ing
Ġs ix
Part ition
ĠJan uary
Ġinput s
Ġe p
ĠP ri
ĠF ound
se lection
pe ar
(" #
Ð° Ð½
] ))
pm atrix
Ġa do
u uid
Ï Ħ
- (
al ias
Ġprec ise
Ġ Â
Ġre duce
g uide
Ġdynam ic
) }{\
Ġtype def
S V
Ġconst ants
Co unter
Ð ²
ĠPro cess
Ġqu as
UR CE
Ġnav bar
H owever
ĠJ ul
ar ily
Y Y
Ġimplement ed
m al
Ġst udied
Ã ¶
Con sumer
Ġs core
to Be
t l
po inter
/ ">
load ing
Ġact iv
ĠW HERE
medi ately
}} ^
Y ear
HE AD
Ġrelease d
av y
AT OR
Ġqu al
D iv
Ġco me
\ /
new command
element s
mon th
Ġb undle
one y
Ġd ig
LI ST
d k
ĠEx t
0000 0000
Ġrep os
P lace
peri ment
ĠRem ove
Ġp ul
Ġa way
reference s
$ ~
ra c
å Ĳ
ut down
Ġmer ge
IL D
s ig
ĠM em
gra dient
ĠH amiltonian
)$ -
exp ression
Ġsp atial
Ġf ragment
Ġ{ },
s n
i ence
} )$.
F ocus
fa ke
Comp lete
Ġo cc
du cing
ĠT emp
Ġref lect
A mount
C md
ct o
Ġst ellar
Ġge ometry
re et
Ġw ater
Ġclass Name
ff f
ĠH igh
os er
e ss
Error s
Ġvector s
ing er
rel ated
uff ers
ĠM ult
ĠM ock
Ġus ually
= $
L ook
h l
V ID
AT TR
v g
ĠDE FAULT
re pository
con tact
cor ded
en code
B ook
er ved
ĠDes cription
Th us
ierarch y
Se c
> ;
Ġind ices
Ġl atter
15 0
Ġm ar
ĠAb stract
Ġcon cept
h ance
Column s
Depend ency
En coded
ĠAn y
es h
P Y
ase d
Ġs ync
Ġimp act
Row s
To uch
Ġf lex
Bound s
Ġgo al
Ġper cent
W IN
MA P
Ġ ----------------------------------------------------------------
A UT
B order
Ex port
ĠM icrosoft
ol ate
im ated
Con sole
Ġloc ated
Ġapplic able
' (
Ġfact ors
In sert
Ġform ation
Ġcoordin ate
å ®
Ġcons ists
Ġo pacity
Message s
LO W
Ġw x
A xis
T imer
ĠP age
UMM ARY
Ġst ation
avai lable
ĉĉĉĉ ĉĉĉĉĉĉ
Ġus age
ĠRes ponse
b ert
Ġf ac
D ATE
st rip
oci ation
ad oc
ĠLo cal
Ġlo aded
j i
Ġpre v
.* ;
Pre v
f p
uro pe
ber g
Re act
P rivate
N R
ĠTh at
Ġrelation s
Ġcon duct
Ġde al
C ar
ĠB ar
F L
ĠCol or
sub ject
Ġyield s
ĠG ra
Ġra dio
âĢ Ķ
Ġre ally
Content s
Ġunder lying
ene ss
Ġ Query
ĠS he
fa ctor
Ġintro duce
e a
ĠE lement
V ec
Ġconnection s
om an
rel ative
OP T
ar ante
sk i
Ġassume d
valid ation
Ġpro gra
p b
ist og
P ers
Ġ ri
o ice
Re al
Ġbuild ing
time stamp
Ġex ports
O ther
s y
; |
F ree
in i
ĠG aussian
ma ps
Group Name
Ġo wner
Ġplay ers
Ġb i
string s
hav ior
i ency
Error f
= [
o ung
iver se
"> (
à ¸
M R
RA Y
Ġform er
ĠA ug
EN V
Ġe ff
Ġe mit
ĠAc cording
ĠD OM
ĠN ov
Ġdevelop ed
00 1
Ġst able
serv able
ĠU sing
Ġdiag ram
con tain
Ġmeasure ment
vari ance
ph rase
c ert
i ses
I V
Ġma c
Ġtime stamp
ymme tric
re v
S ta
\| _{
Ġ math
um ing
mob ile
el s
sc ss
lib s
m ma
Ġd ash
oper ation
Ġd river
et te
The orem
r ant
ĠE ach
class Name
Draw ing
Ġremain s
, '
s yn
Ġinter actions
Ġvis ual
ĠConfig uration
ck now
Ġm icro
UN D
int ro
Ġf ront
Ġo sc
)\ \
ĠD ist
ĠCom mand
ĠL java
Ġsk ip
BU FFER
u ous
__ )
Ġoff ic
map sto
ĠOn ly
us r
$ ;
ph an
Ġnot ice
= %
}} ^{
Ġl ittle
ul ator
C ard
Ġto uch
patch er
ir ror
}^ *
Time stamp
can vas
qu ant
ilib ri
Ġra d
rag ma
Ġ ">
Ġb its
cre ment
] }
ĠCh ange
E ffect
ort un
V ICE
Ver ify
uc ce
ĠVAL IGN
_ )
Ġgalax y
Ġc ity
w orld
Ð ¼
ick s
Ġt d
ĠDe lete
ann ing
Ġreg ard
Frame s
Ġexplicit ly
Ġas ymptot
al g
iter al
Ġre cogn
: '
Ġde tect
H older
ĠD O
os ity
In ner
ab c
int s
Ġincrease s
ĠP ost
ĠY ork
b x
S G
Ġin flu
exec ution
Ġagre ement
H ome
Ġprevious ly
et ing
/* !
ĠP ub
re me
he st
/ .
ill s
on ic
j et
} ))
s r
d jango
Ġcre ating
IN ST
ject ed
Ġs quare
Ø ±
B Y
Ġm iddle
% ,
In formation
ĠJ son
AT CH
form ance
f old
) ",
cf g
Ġreplace d
Ġre served
ver ify
Ġpro duce
Ġend point
p ower
lation Token
Ġno thing
stru ctions
S ame
ĠC l
Ġp ack
ra pped
Con tains
Ñģ ÑĤ
ĠS UMMARY
&= &
12 7
n os
view port
Ġinitial ize
Ġdes ired
b ur
Tr ansport
Ġg oogle
overn or
Ġm ixed
Lib rary
F uture
RES ULT
Î µ
CD ATA
ĠC SS
ight s
( ()
pe ated
Ġd riv
Ac cept
Ġnot ation
Ġgr ant
Ph ys
de sign
Ġ img
h box
L oop
at ar
Ġh elper
Ġcontra st
T ile
Ġf i
w br
(" %
pro position
ĠAnd roid
F ace
Ġpar allel
DE X
b ro
Ġext end
exp and
;| &
an o
\ {\
I AL
art esian
get Instance
D R
B ottom
es ome
Ġoccur s
ir med
ĠSer ver
Ġadd resses
The se
Ġe fficient
ĠP a
Ġup on
comp lex
C B
ser ies
ĠCre ates
ĠC G
remark s
f ol
am o
> ()
Array List
G o
Table Row
Ġestim ated
clus ive
ag ue
Î ¹
Over view
Ġexist ence
Ġob serve
A SE
C M
column s
Ġ< -
Ġpay load
C enter
Ġmechan ism
p aper
Ġpub lished
Ġre cur
w atch
ir al
head ing
ĠComp onent
**** **
Ġma ster
v ol
Ġembed ding
ĠC ustom
WEB PACK
ĠIn di
comp ute
top ic
Ġs light
ol ic
Ġp od
ĠL ink
Ġp atch
Re set
Ġo thers
ĠAr gument
b log
create Element
> '
mis s
Ġma sses
ab out
Ġindic ate
Ġtrans lation
ri er
T Y
ĠTh read
v ant
al gorithm
[ -
S ome
LIC ENSE
å ħ
display style
Ġcomp any
ĠG o
part ment
ck s
Ñ ĩ
ĠW ar
Ġ$ _
R T
Ġ` ``
in er
b lob
ĠS E
Ġappe ars
Bo ol
Argument s
Ġar r
vance d
Ġme trics
S witch
Ġqu ality
Sp lit
cur sor
Ġgener ation
ub er
d ark
S W
sp in
Ġcell s
ĠOut put
Ġdeta iled
ĠW est
IMP ORTED
D rag
gener ator
ap es
Ġco s
Ex ists
Ġ ðŁ
lo ating
PO S
ĠSe arch
ĠF ind
Ġcalcul ation
Ġestim ates
! !
log ging
ĠCon tent
} &
w t
se udo
Ġapproach es
m n
Ġcontain ed
str al
re po
( ['
Ġado pt
se m
Run ner
T AG
Ġm usic
Ġ uri
gre es
Ġde tected
Ġv anish
Ġsup ports
f ect
Ġf etch
Task s
lap sed
cc cc
k i
H z
CO MM
Ġm is
el i
Ġclass ification
Ġassert True
Ġscatter ing
Ġre comm
de cor
un n
ĠApp lication
P ixel
(' <
Option al
ĠWindow s
Ġw atch
Point s
st ates
De precated
ur a
Ġs izes
Ġr ates
Ġoptim ization
an i
Ġlog ging
g z
Sh ared
Z one
A ggreg
AC H
Con verter
b ust
Ġcommand s
Ġ-- ></
sol r
ĠS imple
Ġ layers
St ub
sd k
Ġhar mon
De pth
k m
Ġbel ie
Ġp ure
Ġweight s
ĠOr ig
Ġl and
Ġde vi
page s
const raint
Ġanal og
ĠV is
rem ote
Sh ader
Ġa udio
Ġhapp en
Ġmod al
ĠD irect
V irtual
Ġan t
Ġim mediately
ĠS ci
de cl
w arn
serial ize
Ġsignificant ly
Ġdis able
ph ase
amp a
Ġal bum
Ġiss ues
er ial
ing u
s ent
AT ED
Ġmin imal
Ġa ggreg
en sed
R UN
Ġo l
Ġar ia
gener al
ĠI ter
Ġst ats
Met rics
Ġa ffect
j ax
amazon aws
Ġlimit ed
Ġclu sters
Ġget s
L icense
Ġin finite
Expect ed
Ġf ib
Ġ{ %
St andard
Ġjo in
st andard
inte gr
TI ES
Ġm orph
ip age
ĠApp end
Ġv m
alt Color
d irection
Ġmodule s
ĉĉ ĠĠĠ
18 0
Ġrun s
ur able
ĠL a
ill ing
M aterial
Ġconver gence
ĠCon text
L ight
au dio
ĠĠĠĠĠĠĠĠĠĠĠĠĠĠĠĠĠĠĠĠĠĠĠĠĠĠĠĠĠĠĠĠ ĠĠ
Ġrepresent ed
Ġal ias
ilibri um
C aml
T wo
an chor
199 8
t ik
Ġdest ination
up s
0000 00
cass andra
HO ME
Ġst ra
Ġout er
Ġcontribution s
Output Stream
Ar ch
ic ate
s ur
ra d
Ġadd ing
ĠF rame
Ġcomp leted
an ch
Var i
P REF
ĠO p
Ġcomp atible
B IT
D M
ĉĉĉĉ Ċ
ĠU N
S ite
Ġth ings
R andom
mo ment
F il
Ġide a
Ġpress ure
ĠWARRAN TIES
Ġscal ing
is ions
Ġamplitu de
Ġhe alth
inter val
Re ason
Ġ| =
è ¯
Ġf rag
Ġmo use
Ġlo ading
Ġi p
N A
Ġcall ing
as y
Ð¾Ð ²
Be en
Ġ' "
ĠĠĠĠĠĠĠĠĠĠĠĠĠĠĠĠ ĠĠĠĠĊ
tool tip
m f
ĠL ib
erm an
Ġgu arante
Ġp ull
P resent
Ġsuccessful ly
Co in
Ġbe came
Ġsh are
P romise
> %
h pp
ĠPar se
et ween
re peat
de ep
w allet
Decl aration
Ġcalcul ations
G O
Ġinv ol
u ge
Ġst rength
ĠS um
R o
Ġexp and
] +
) }_{
Ġf s
( /
C or
ĠC OL
F ore
alyt ics
Ġp ie
n ers
T F
Ġrequest ed
Ġk in
Ġpar sed
Ġa ir
Ġs chool
Trans ition
h bar
Ġcomb ination
Ġb alance
ãĢ Ĥ
Ġvers ions
code c
z a
Ġof fer
ĠGener al
ĠA uth
( --
T uple
En able
b ing
pend ing
12 5
Ġon line
Ġ answer
Ġw idget
RE E
And roid
S napshot
w riter
get Type
12 34
te gr
r is
im ing
h ar
T y
Ġc b
U ST
Ġs low
ĠL ine
Ġd ialog
Ġauth ors
ĠCo q
Ġl umin
ig hest
Ġchannel s
D ay
Ġon to
Ġopt ical
Dec imal
om y
ĠWh ile
}{ |
DE LETE
ot s
ä ½
H S
Ġqu ick
ib ly
il it
}$ )
M ac
Ġdifferent ial
ĠS chool
SP AN
M ut
CO UN
Ign ore
SO URCE
Ġpredi ction
c li
Ġpro jection
Intro duction
10 24
% "><
c ached
f av
de lay
ĠB uilder
ot t
label s
Ġgener ator
, .
Q ual
Ġplace holder
Ġa x
Ġr ing
_ -
$ ),
Ġknow ledge
U ES
ĠĠĠĠĠĠĠĠĠĠĠĠĠĠĠĠĠĠĠĠĠĠĠĠĠĠĠĠĠĠĠĠ ĠĠĠĠ
B its
ĠG ame
ode s
Ġp ick
Ġp acket
min ipage
oc used
ĠR out
Ġco mes
ivers al
Ġbehav i
rule s
u stral
it ivity
Ġch art
Ġmagn itude
G IN
ap s
} }$,
ĠST ART
B ro
F OR
IM IT
Ġpage s
AR D
1 10
Po jo
Ġform al
Ġident ified
Ġestab lished
g if
Ġc ast
Ġun ion
W atch
Ġrepos itory
Ġde scriptor
get Message
w ell
Ġt ell
ist r
. ',
ni ques
Auth entication
LE MENT
Ġiter ator
: =
Ġrepresent ing
Ġwh y
ĠCo unty
C ho
Ġscen ario
Ġb oost
XX XX
Ġi get
u el
ĠN etwork
Ġc ached
ol ation
fa st
Id x
ĠB uffer
Ġcirc le
p riv
rt l
Ġevalu ate
ament al
ĠĠĠĠĠĠĠĠĠĠĠĠĠĠĠĠĠĠĠĠĠĠĠĠĠĠĠĠĠĠĠĠ ĠĠĠĠĠ
} )$,
ĠRe ference
s lash
} }$.
Ġh el
De lay
Ġdest roy
Ġen umer
l ider
Ġg oto
Ġtop ic
s quare
Ġex change
n l
F ALSE
Ġcomp iler
Î ½
Ð ´
ĠA ws
UE ST
P erson
Ġhy po
u ssion
il le
æ ķ
) +\
ĠF OR
i ma
ro uter
Ġdist inct
Ġse ctions
late st
Ext ensions
Ġdel ta
Ġmo lec
Lo cale
e ven
con nected
ph oton
Ġg ain
Mon th
Ġd st
Col lect
s uch
ampa ign
Exec utor
ĠIn c
e g
Ġdisc ussion
ARN ING
N C
om ite
ĠBO OST
ĠBy te
Con vert
Ġh ouse
ref s
T erm
Ġgener ally
k ernel
Ġne g
Ġpartic ip
Ġf o
s un
m ix
p ot
Control s
Ġover flow
PRO C
(" \
omite mpty
D irection
W A
Ġf av
no logy
c ryption
ot ed
Ġab sor
sequ ently
ĠA rt
R C
der r
em bed
ex clude
serv ation
Ġcommun ity
ĠS outh
not ify
dat etime
Ġad just
PRO P
Ġw alk
ord s
F ixed
ogene ous
As set
TR AN
ĠC ity
du mp
Ġdepend ing
Ġ- =
ĠLo ad
ys ql
" ];
RE CT
pec ially
Ġhigh light
Ġ{ $
Ġqu adr
lin ux
Ġres on
B ucket
link s
get String
ir ing
ĠM O
par agraph
Exec ute
en coding
ĠU RI
z en
Diagnost ics
Ġin verse
ĠR ob
Ġf older
C CESS
Ġprint f
ĠB rit
Ġestab lish
Ġb ra
G P
tain ed
C ast
Ġobserv ation
un lock
} ",
================================ ================================
ĠĠ čĊ
ul ations
Ġover all
get Class
lo ss
bind ing
Ġa apt
act ual
Ġ( %
< >();
Ġcre ation
: }
A ctions
dic ate
Ġcheck ed
uplic ate
Ġl ive
sh ell
Line ar
t ic
f b
Ġf ire
s urface
c lip
b inary
M aster
Ġv ary
ĠU til
att le
Ġal though
atist ical
ec ause
}{ (
de cla
j ackson
Ġe m
re lation
S m
ch unk
f older
ä º
Ġv s
Ġinv ok
Ġcomplet ely
ĠÐ ²
TableRow Color
vert ex
) -\
Ġ" '
pre vious
Ġ ion
al og
D om
example s
Ġ und
h ook
ĠC lasses
Ġneut r
vent ion
ag g
fore ach
trans late
u v
w ill
ther n
cl s
Ġd x
t witter
ĠPy thon
Ġ[ \
ig gs
Ser vlet
Ġconstruct ed
Ġsepar ate
k in
Ġdet ector
d anger
Ġproduct s
Ġ' ''
6 00
}( {\
Ġtra in
IL ITY
Ġreference s
Ġas k
Ġs uit
| _{
ient s
AV E
tik z
EN ABLE
google apis
Com mit
co res
D P
p ragma
Ġco untry
Ġintegr ation
Ġex clude
BA SE
ri al
pro gram
iv ery
y e
ĠSt ream
M issing
Ġal ert
>< !--
clus ions
ra ms
me tric
Ġposition s
Ġ$ |\
Ġexp lan
ĠRe cord
Copy right
Ġflu ctu
UB LIC
Ġgraph s
U ses
ĠA mazon
FLA G
Ġb ug
m ms
HO UT
Support ed
L Y
d st
Ġlimit s
ĠO S
Ġthe me
Ġqu ite
ĠM ain
Ġrecord s
String Builder
ĠA pr
Ġassign ed
Ġe ffic
L at
ĠV ar
id a
Ġpol it
Ġimpro ve
g overnor
ĠH andle
Ġart icle
D TD
Ġh ole
$ _{
File Name
W orld
pe ech
Ġcon sequence
LA Y
G EN
Ġs ocial
E mit
con g
Ġread ing
a ui
ach ing
M s
R ot
è ¿
fra gment
Re place
ĠP ort
B S
TE GER
ar c
per son
ollow ing
istog ram
ĠFound ation
IN VALID
p res
E Y
ĠM c
Man agement
O wner
Ġ' #
av el
Ã³ n
ac le
Ġc ard
ist ed
Ch unk
/ (
ĠCon s
ub ble
ĠLog ger
ĠE urope
Ġlarge st
Ã £
sw ing
Ġexperi ence
ĠR untime
Cal endar
ĠB ack
Ä ±
ĉ ĠĠĠĠ
Ġto ols
ed u
con cat
Ġde ath
pr ing
Ġconf irm
%%%% %%%%
ĠSe lect
Fin ally
Ġfunction al
Ġ& #
) }}
ĠC H
Ġd t
Ġcol span
âĢ ¦
Ġuser name
Ġ-- -
Ï ĥ
Ġs impl
Ġmean ing
e val
å Ĭ
Ġin duced
our ier
le ge
f ront
ta ched
requ ency
g oog
Ġw rapper
b ucket
an notations
pt ember
Ġs chedule
Ġto wards
ĠS ec
ill is
d ig
Ġd rag
BU ILD
are t
spec ific
Hash Map
fl ush
P acket
Ġt en
Ġbind ing
quire d
Ġbe am
c ross
th umb
$ :
Ġn or
Ġstrong ly
Ġc ycle
y ond
Ġevalu ation
Ġh it
S N
ong o
Ġfa ils
c ref
m ann
Ġexpress ions
Ġp ipeline
ten ded
ĠF ALSE
"/ ></
ph ere
Ġfollow ed
There fore
BO OL
b undle
Ġc m
ta il
Ġv ac
External Task
ĠV irtual
ĠB ig
Ġimp lied
A vailable
ĠC HE
wh at
Ġscal es
org an
Match er
Ġ' @
ot es
Lo ading
Ġtech niques
ĠDe f
per cent
, âĢĿ
â Ķ
ĠJ S
Z ero
r ich
big l
Ġrecent ly
Ġat tention
Ġ' _
Ġtrans actions
Ġgrow th
k es
bra ce
ĠAc cess
ĠS M
W rit
Ch art
>( <
pro t
ĠO N
ĠP ackage
me an
feature s
Ġ ener
ro om
Ġcl one
ver b
an cy
un ce
peri od
ĠI mmutable
^* $
Ġstra ight
C ook
ExternalTask Pojo
me asure
Ġcomplex ity
Ġas sembly
Ġman agement
s lide
ic ies
Ġle mma
Ġin c
im s
Ġattemp t
Ġpixel s
G N
Ġs aved
Ġ ^{
cto ber
ĠFin ally
cur rency
ĠP romise
Ġs ound
ul i
ĠâĢ ĺ
K it
Ph one
D iff
Ġ# {
}\ ,\
Ġcon c
)) $
ĠE l
Ġcan onical
s at
po i
LO AD
Ù Ĩ
Ġspec ies
Ġexp la
Ġsh ell
re gex
= &
ock er
Ġnuc le
Per iod
Ġn s
ĠL ic
00 5
ĠN orth
p lus
con current
D ER
A F
Ġde vices
× ķ
Ġent ropy
AR RAY
uil tin
@ {
Un der
pt o
Ġb usiness
be an
Ġp riv
Ġcell padding
C UR
L IN
u um
sh are
Do ctrine
RE SS
g ies
mult ip
av en
d ynamic
Ġb ene
D ynamic
ADD ING
ĠE V
Rule s
ĠR et
Ġdis crete
Ġ" ${
10 1
Ġtra ject
De v
FORM AT
Ġn ature
Ġcon version
ĠT ho
X Y
list ener
Up load
ig r
G iven
Ġre duction
cover ed
Ġd atasets
Ser ies
tr ins
Name Link
L iteral
Ġs afe
ĠU s
Ġsign ed
}} )
add Class
ĠPo int
e b
ne y
par allel
ty p
de code
ĠS ign
z h
ĠM odule
Ġo dd
t imer
RE D
Form atter
S ch
Ð ¿
25 0
Sh arp
no frame
ve al
ĠSh ow
ĠS end
Ġst at
Ġtyp ically
Ġc yc
-------- --
SP AC
sc ape
Ġliter al
Un ique
TO M
Ġup dates
Can not
Ġm id
Ġdecomp osition
Ġc ls
OR K
log ies
Mark er
Ġf oo
ĠCHE CK
! \
less sim
In struction
Cre ated
cal cul
Ġgovern ment
lish er
Ġ Ñģ
p od
Ġreg ime
Ġcon tract
\ ;
CRE ATE
Ġqu eries
": "
Ġpur pose
h istory
ĠI R
Ge ometry
ĠK EY
__ ,
Ġtheore tical
å ¤
ref resh
link ed
99 99
ĠSer ial
Ġcell spacing
big r
**************************************************************** ********
o ught
umpt ions
Ġc e
D at
Ġdefin es
M achine
] ->
ĠM arch
uff ix
m iddle
Ġcomp et
Ġb ucket
Ġlimit ations
lic ations
' ll
h d
Ġse c
E qu
ĠE qu
include s
Ġ\ &
Ã£ o
! </
Ġgame s
Ġes pecially
d rag
Ġprob ably
An alysis
Pri ority
Ġcap acity
æ ĺ
Ġshow ing
al an
ec lipse
Ġcomb ined
all ery
Ġc amera
c n
Ġen code
Ali as
form al
ot ing
Ġslight ly
me mbers
tr ansport
Ġfin ish
== =
local host
i lo
ĠĠĠĠĠĠĠĠĠĠĠĠĠĠĠĠĠĠĠĠĠĠĠĠĠĠĠĠĠĠĠĠ ĠĠĠĠĠĠ
T L
]( #
Det ector
ordin ate
Ġb ias
Code c
v endor
lo cale
Ġimp licit
Ġprec ision
a ver
Ġc ame
p ixel
Ġide al
ce mber
Ġb os
ĠStr uct
ixt ures
vi sed
i ct
Ġsitu ation
ĠWIT HOUT
Man y
match es
Ġde legate
In tent
Feature s
TER N
java x
Ġso ft
gra v
Ġin struction
Ass ign
Ġ' -
O FF
bs ite
Ġiter ation
amo unt
e ep
m x
t bl
Ġp lease
h ind
Ġqu ark
do cker
B L
Ġbegin ning
Ġmention ed
() ">
Ġcon ven
Down load
ren ce
ĠIt em
unk nown
os ing
View Controller
EV ENT
Ġliter ature
part s
] </
Mod ifier
Ġtyp ical
Enumer able
an alysis
Ġst atistics
Con tract
s ass
l r
Ġlo gin
P ush
ĠF ix
` )
, {\
Ð° ÑĤ
Orig in
c line
ct ree
process or
Ġprom ise
INS ERT
ist ency
Ġs ampling
am ing
re c
Ġsol ve
elastic search
(' ./
As sembly
av id
to ur
Ġdifference s
ĠB ORDER
Ġ\ ]
Ġtherm al
P ane
ch a
Ġf erm
Ġtext ure
draw able
Named Cell
Sh ift
I p
Ġto kens
Ġpro port
,\ ,\
') ->
S core
Ġcorrect ly
Ġdenot ed
Ġco p
Ġconv ex
en omen
dist ribution
F etch
di ction
M utable
serv let
ĠGener ated
de fer
Ġread y
lic ity
ca pt
fa iled
im ize
Ġfin ished
Ø ¯
ilar ly
in der
Ġear lier
Ġfa ke
Ġf riend
SP ACE
ĠEng lish
at ibility
In s
v ature
Pri mary
ĠOrig inal
çĶ ¨
Ġ. =
Ġro om
Ġs napshot
Ġis n
Ġex hib
Ġg reen
Compar ison
allen ge
B ACK
St at
ĠS H
s z
ĠP e
D em
ĠS an
u lo
Ġse ems
b us
Ġw ind
ĠG raph
Ġcandid ate
th etic
end point
Ġt uple
ĠC ore
ab stract
bound s
Ġdown load
over ride
ĠL ay
AR G
SPAC ING
be ans
arch ive
Ġd ie
s core
$ {\
ne gative
Ġrespon s
ĠA uto
ĠD r
Ġex cit
Filter Database
P M
ĠA ustral
V O
Ġst ory
ST ART
Rece ived
Ġto ok
tin y
Ġb ulk
s With
Ġignore d
ast ic
dis patch
ĠC ent
up per
Ġuncertaint y
fa ster
vent ory
ĠJ une
ĠK IND
Ġdis patch
Ġlet ter
contin ue
in ject
yg on
S F
br and
ĠT ag
up dated
Ġrel atively
wik i
ĠAug ust
ymme try
u zz
ĠCon vert
e lect
filter s
C apture
Ġ======= =
ĠR el
ens itive
ĠC loud
ĠÐ ½
ĠDe bug
ni pp
ĠIn valid
ĠHash Map
____ ____
p in
m ime
Bit map
Ġrelation ship
ĠT ABLE
N ONE
Ï ģ
ld s
B uf
> {
red irect
UR N
k y
Wh ile
Ġh ighest
ĠIllegal ArgumentException
Ġse ed
" ])
ĠAdd ress
Ġz one
) })
Ġl if
Ġrot ate
Ġadd r
;\ ;\
Qu ant
tom ic
Ġcon j
Ġbe yond
Look up
stats models
Ġext ensions
ĠCEL L
Ġac celer
i pped
Ġcon cent
part ition
Ġagre ed
x f
lo od
Oper and
rupt ed
Ġ ĉ
=" {{
ĠP HP
D ITION
h ard
ge ms
M ed
cp u
M ust
Ġnormal ized
\ )
ĠO Caml
> ${
Pro of
Ġk w
) *
Ġh ot
\ }$.
Ġtri p
P ut
Has Been
+ (
Ġcom ments
i ra
ĠS ing
ic a
> [
S elf
ĠCon sole
Ġis instance
not ification
de scribe
×ķ ×
mu x
ĠE RR
p ad
__ _
Sup press
ident ity
Ġev idence
199 7
Vis ual
a co
Ġe c
Ġpro ved
inc iple
Change s
On ce
] $.
il ities
PAR AM
decla re
P ack
ren ch
Class Name
W hat
ĠD on
re ason
j ac
Ġc lip
Ġen hance
Ġth ick
Rel ation
mo us
long rightarrow
ar ith
* >(
E st
Own Property
P red
Tr igger
task s
OT TOM
ĠCol umn
get Attribute
Serial ization
Ġde signed
199 6
Ġan chor
Ġex am
Ġsum mar
> `
SS AGE
par k
__ ["
pay load
ĠR ender
Ġd ro
ĠĠĠĠ čĊ
clo sed
y r
Ġg it
pr ite
T w
ĠDo uble
s ch
Ġexp ressed
Work er
S urface
ĠSe ptember
sl ider
MP L
ĠP ass
Ġt f
G it
Ġsatisf ied
ID E
it z
value Of
LP ADDING
v an
t ile
ĠF ilter
,\ \
Ġan no
Data Type
Ġinter pret
Ġphys ics
go ing
ĠJul y
he el
g p
'] .
Tra cker
pre pare
ud it
ĠD CHECK
DI S
ĠCELL SPACING
ĠCEL LPADDING
################ ################
h an
dist ance
ĠG iven
h icle
Ġse mi
it ely
ĠNS String
Menu Item
Ġneighb or
ĠH er
ĠTR UE
! (
Ġme d
Ġs ending
ra ise
velop ment
S cheme
Ġfilter s
C amera
se p
Ġre direct
Ġexplan ation
po ses
Ġg over
th ere
te le
text ure
u ce
Ġde leted
al i
" ?>
Ġmeasure s
or se
ĠM ed
STR U
Ġde grees
Ġsc ene
Ġsatisfy ing
riter ion
Ġpri ority
Model s
db c
ĠS m
ext ensions
ĠL ag
è ®
second ary
ĠF urthermore
Ġas pect
t frac
Ġper mission
(" .
Run ning
Ġc lock
Constraint s
Ġ" #
ĠOr der
Ġequal s
br anch
) }_
ĠT op
Ġ} ).
HasBeen Set
ĠT OP
}} .
ĠP si
ĠK ing
ĠCon trol
D Y
ĠM er
: -
l p
Mod ified
lab ility
Ġw rong
B reak
n es
ĠSup port
Ġinflu ence
) &
SU CCESS
ib ling
go od
N ECT
Ġ" _
app le
we ak
Ġre mark
Ġclear ly
mm ing
ĠT YPE
Ġaltern ative
Ġre pro
D id
script s
Ġfund amental
schema s
Ġno vel
Sup er
Ġgrav it
M at
Ġdefault s
ann ed
d td
Ġrepresent ations
Trans lation
Pop up
}[ \
ĠB er
Ġcomput er
Ġro bust
Di ct
arg v
Ġd ense
G ateway
ol ar
frame s
F atal
Ġindic ating
ĠApr il
lement ed
de legate
/ )
depend encies
Ġsur vey
fol io
ist ers
Ġ" );
tr ivial
Fact or
Met ric
d frac
8 00
Ġ* ,
ĠO ctober
Ġany thing
came l
Ġs qu
Ġmon itor
t od
Ġc y
Ġ' ,
faster xml
Ġlo t
] ['
C trl
Ġre call
K ernel
DE D
Text View
h ot
Ġ$ ('#
m ing
p n
ĠLic ensed
EX PORT
IT LE
ĠGL int
Ġplay ed
In dic
sk y
sp here
sel ves
ĠM AX
ĠM ac
ari os
* ,
in x
E valu
Ðµ ÑĢ
Check ed
ĠP R
Ġp ending
ĠJ ust
Ġconsider ing
ĠIN TO
ouse l
fra g
ĠL L
Ġhigh ly
ĠB ro
E P
s u
Ġapp lying
sub Nav
man ifest
aw esome
ĠR est
ony mous
Ġdefinition s
Ġex ce
Ġdiag onal
Ġest imation
Ġg uide
ĠD et
Dis k
Lin q
Ġ< ?
An chor
Ġmax imal
/** */
F ixture
REQ UEST
U A
d ataset
Ġex pr
Ġs u
Ġstart s
N umer
F amily
Set up
B ridge
ens ities
D one
S UB
b t
aa aa
Ġare as
Ġregister ed
F ix
] $,
Ġcomp an
b ib
C a
y a
AR B
ĠUn it
var s
Ġad vant
' },
}} _{\
Ġf amil
Ġm s
Ġpattern s
F inal
Ġel li
PREF IX
Ġloc ally
ĠH ar
P ower
condition s
Are Equal
Se cret
T ri
Ġd om
g lob
i ota
Ġ mp
Ex it
Ġs ender
ograph y
g h
RO W
Ġgo es
empty set
Ġs ays
Ġin ject
time line
Ġin herit
SD K
st one
IN DEX
f ric
red it
Ġderiv ative
Ġph oton
55 5
}) }
F P
ar se
set Text
ist ics
Ġcomp liance
C SS
br aries
pi pe
r v
Ġcomp letion
An im
ĠP lease
Ġsequence s
Ġpop ular
source s
co okie
SS ION
ĠL ie
ro l
Le g
k g
Ġtra dition
me trics
Ġh orizontal
table block
ut ive
Ġus ual
Ġdo ing
ol id
Ġpredi ctions
Ġ/* !
ch astic
C N
Ġext reme
Pay load
OB JECT
max cdn
r ink
C orre
Ġgover ning
Ġequ ilibrium
âĶ Ģ
pa gination
Ġinter section
S ide
Ġeffic iency
æ Ī
P ipeline
Ġr isk
sh ips
ol er
Array s
act ic
pop up
æķ °
LA PI
Ġstud ents
ĠDate Time
pro c
Ġdec ision
B ad
W ARE
B ER
Ġal pha
In clude
Ġvari ety
ĠCom mon
Ġen coded
Con tain
T l
Ð ·
T ensor
Ġ" )
ov a
Ġvari ation
set ting
FN GL
it ute
mut ex
Ġoutput s
Ġab s
li k
plan e
Ġred shift
medi um
Ġmo ving
Ġm en
Ġne ural
Ġs il
Ġjo int
ĠB E
Access or
Ġdi ctionary
Ġlate st
ĉĉ Ġ
Ġi ma
Ġg lob
F ill
Component s
ĠAppend ix
> .</
ĠEn tity
Ġmark et
Ġex c
' =>
MA GE
Ġpr ice
M F
S rc
Ġpar a
aj or
ĠĠĠĠĠĠĠĠĠĠĠĠĠĠĠĠĠĠĠĠĠĠĠĠĠĠĠĠĠĠĠĠ ĠĠĠĠĠĠĠĠĠĠĠĠĠĠĠĠĠĠĠ
Ġarch itecture
WR ITE
Scal ar
ĠDe cember
} "/>
h base
rib uted
R B
w a
)) \
ent ries
Ġquant ity
the ad
ĠCh rist
Ġb us
Al ert
ub ic
dis k
FA IL
AR GET
ĠInitial ize
Ġst atistical
co ur
ĠL anguage
AS H
Function s
h old
out er
Ġpri me
Ġtr ivial
tern et
Ġmass ive
trins ic
Ġan notation
N ON
Ġin fin
Ù Ħ
sub string
Ġend if
Ġph enomen
char acter
Ġlog ic
Ġmo ved
5 12
resent ation
op am
Ġman ifold
tool bar
Ġ" ;
Ġexec uted
: &
D a
U AL
pr ice
Ġframe s
look up
fe ed
r ang
Ġh eld
Ġachie ve
Ġproper ly
Status Code
L emma
U UID
}_{ -
Ġd ire
t ty
ĠTo ken
ĠN ext
A zure
M esh
Ġview s
i pher
attr s
ma gnetic
Ġsufficient ly
to ctree
Ġpract ice
ar a
CO M
Ù ħ
Path s
project s
E LEMENT
W rap
Ġlo st
Test ing
L ines
Ġre verse
Ġcomp osition
At trib
se parator
gener ic
; %
Ġf reed
Ġtreat ment
stylesheet s
package s
} ~
Ġinter pre
Ġb irth
ful ly
= .
il lation
T yp
append Child
Mon itor
Ġmark ed
RO UP
P ending
l ator
ra ined
Ġtra ined
Sup p
I ss
Dist ance
Ġimpro vement
'] ))
Ġway s
Lower Case
Ġb right
Ġoccur red
br uary
Ġdisplay ed
es cape
ud ent
Ġan ti
Ġpredict ed
de mo
- ">
az ure
ĠM edia
Write Line
S chedule
="../ _
ĠOther wise
uber net
i pping
Ġasymptot ic
oriz on
Å ¡
at o
="@ +
se gment
Ġt s
de scriptor
a ur
mod ifier
Can vas
> ../
ubernet es
S afe
ĠH ow
str y
ind ices
T ry
ĠĠĠĠĠ Ċ
) >
Ï Ģ
Ġsuit able
sample s
50 9
}} ^{\
ĉĉĉĉĉĉĉĉ ĉĉĉ
all s
A I
Gener al
Ġener gies
RO OT
cor por
Ġir re
Label s
t an
In jection
Struct ure
ME M
velo pers
temp t
act or
flu id
D en
Ġder ive
U V
pro m
ra sh
ym er
Ġsyn tax
S yn
Ġmo v
Ġle ave
EN CE
ĠSci ence
Ġcheck s
Ġper fect
$ &
v ation
N a
ĠT ree
eli hood
run ner
Ġcode s
at tach
respon d
math op
ĠA ir
Ġch anging
+ "
Ġd ust
Ġlist ed
ĠB ay
ĠVAL UES
ĠT ech
man agement
Ġor d
semb le
ĠNov ember
ĠC R
ul p
, ...
st ub
Ġthrow n
ĠSt andard
ch at
Ġdec lare
c py
Ġm illion
C MD
}) =
! =
Ġdo ub
ĠS SL
H AND
ex cept
Ġst ri
figure s
re w
ĠG u
M ag
Ġ[ {
pear ance
g ov
ad apter
Ġind ent
s cheme
A meric
ĠCur rent
File Path
name d
T X
parent Node
To ols
ĠRe search
ĠAt tribute
ĠW hat
Ġf ee
ĠAct ive
: %
omorph ic
RE T
bm atrix
sp i
Top ic
ve e
it a
Ġ\ !
]] ></
Ġgrav ity
Ġhy dro
Ġdepend ent
let s
ĠC la
Ġdepend ency
Ġle d
Ġhapp y
Ġd u
set Attribute
Ġsupp lied
IN IT
Base d
A MP
ĠC ache
ĠB Y
sc an
Mer ge
x sd
ĉĉĉĉĉĉ Ċ
199 5
Ðµ ÑĤ
SER VER
Ġapproxim ately
ge ometry
M ix
Ġretrie ve
( `
ĠM atch
Set s
Ġcommun ication
Al ign
7 00
Un iform
U int
over flow
st age
STRU CT
Rad ius
H C
let ter
40 4
render er
Ġwhere as
troll ers
Ġlumin osity
C ulture
Ġca used
Ġst and
ank s
] =
pro duction
ext ract
Ġrad ial
icip ant
Wh ere
Pe er
ĠM ag
ne ut
Ġf ine
I ME
LA B
initial ize
Ġor ders
Se parator
ĠL in
Ġab ility
Ġtechn ique
Ġdash ed
| }{
con struction
ĠDe finition
mun ity
à ¥
^{ (\
Ġincrease d
lit eral
w ave
iss ue
ĠH iggs
Ġ} ),
Ġnot ification
ak ing
M illis
ri a
D ot
Ð¾Ð »
ĠExp ression
as er
Que st
de veloper
Ġquest ions
rypt o
Ġvari ance
Part y
Ġass umptions
Ġcharacter istic
Ġlo cale
FUN CTION
Rel ative
order ed
Ġconfig urations
ĠString Builder
Ġob server
t v
ĠĠĠĠĠĠĠĠĠĠĠĠĠĠĠĠĠĠĠĠĠĠĠĠĠĠĠĠĠĠĠĠ ĠĠĠĠĠĠĠĠ
Ġs pher
Stack Trace
} >
Ġse cret
FR AME
D ao
' ):
Ġaccur ate
D im
multi row
$ };
Ġh ours
Pro b
ĠP UBLIC
Ġre ached
Ab out
ame s
Ġhand ling
Me asure
ri ent
Valid ate
-------------------------------- ----------------
Ġwe bsite
P G
ĠH o
Ġevalu ated
e valu
Ġachie ved
ĠB AS
Lo aded
Ġsub stit
path s
Ġpr inciple
Ġget ting
ĠQ ue
shall er
reg ular
Ġbehavi our
respon sive
S em
Ġd s
Dest roy
P adding
iz ers
Ġs peak
S eq
i pe
V I
ĠP res
Ġlook up
Ġe ase
A IN
Ġinv olved
pol y
Ġr hs
Ġelect ric
Ġat t
Ġh ide
ĠE ar
| }
Ġcan vas
Ġcre ates
Ġcur vature
ĠI L
Ġob vious
ME SSAGE
Ġa mb
ĠD im
sign al
Ġre li
}} }\
ib ration
Al pha
Block ly
Ġdescri bes
Comp letion
Ġ} {
Ġ$ ,
H ow
P l
sequ ent
h alf
Ġ å
Ġw rap
met ic
p d
ern ate
Ġs lice
ĠC lear
Ġmin utes
s lds
Ġlook ing
Ġdynam ical
p ipeline
m icrosoft
cri min
Rout er
t uple
co up
ak es
× Ļ
Ter min
Read y
ĠMod al
Ġen crypt
Sc ene
En tries
ĠN av
Ġhe avy
Ġinter pol
Ġcorre ctions
() [
Ġshow ed
^^ ^^
0000 000
Ġto String
Ġnon linear
Ġname ly
row Color
script size
Ġche m
Ġr ational
ach es
Oper ations
illi seconds
ĠIn it
R ob
W ORK
C ertificate
Ġab und
Ġor th
W in
ç »
nos cript
M IT
st rict
V e
Ġup load
quest ion
Ġs lo
... )
S ig
ref lect
Ġ( `
0 10
Ġident ical
Ġe poch
pre view
Ġd iver
Vis itor
Ġc ategories
Graph ics
Data Source
to Equal
' +
Ġmatch ed
Ġres olved
cs v
Ġequal ity
dir name
Re gex
back end
ret ch
avel ength
Ġdist ingu
la ve
ĠM ich
}) ^
Ġquas i
ĠS ize
as c
ĠGL enum
* \
amp ion
per sion
ĠBrit ish
scri ptions
Ġb g
Ġfor med
ĠG reen
Ġa st
Block s
m ong
Ġw ar
ĠSe cond
Ġattr s
column width
COUN T
ĠB OTTOM
Ġp in
ens us
NG TH
cyc le
Ġcomput ing
Ġn a
igh ter
An notations
CH AN
Ġsub st
ĠMethod s
] ).
ond on
d n
ing ton
gr pc
ap ps
Ref lection
IE W
lav or
ane ous
? (
P lease
tra in
Ġc li
Warning s
or a
ĠA re
ĠW hether
Ġp en
Ġthrough out
Ġeff ort
Ġh alo
ne g
=- =-
v n
Ġth ing
Ġrequire ments
re ens
W ill
ĠGe V
Cons ider
ĠO P
d ag
Found ation
aw t
' ve
Ġcol ors
Back end
ar ded
In tegr
ĠJ ap
Ġdimension al
Ġre v
Ġco inc
o pacity
In f
( []
th ree
ĠĠĠĠĠĠĠĠĠĠĠĠĠĠĠĠĠĠĠĠĠĠĠĠĠĠĠĠĠĠĠĠ ĠĠĠĠĠĠĠĠĠ
Ġs af
o logical
Ġlist ing
Ġn ested
Java Script
æ Ĺ
B LOCK
Ġst ability
Î ·
` :
vis it
se cret
ites pace
Ref resh
w est
Ġsort ed
ud y
ĠPub lished
Ġcos mo
//////////////////////////////// ////////////////////////////////
c x
al so
ol ated
ed er
ĠR O
Des cribe
ab ric
Ġpackage s
Ġ( {\
\ }\
sub scribe
Ġto wn
hash Code
Ġradi ation
lic a
size of
" }
de termin
ig ate
Q t
}} =
s ym
V C
Ġt imer
Al ignment
ĠL I
s napshot
ĠPr int
over lay
ĉĉ čĊ
h ello
k l
pre ad
Ġconc ern
St mt
S UP
style s
writ ten
ret val
| -
f uture
. $$
Ġmo unt
Cook ie
ĠM atrix
first row
ĠH is
Ġb rief
API ENTRY
File System
ch rome
ĠCON DITION
Ġsymbol s
Ġ// -->
FLA GS
s ame
if ts
g ray
Ġtopo logical
en o
H ence
M ov
un ing
S heet
Ġgeneral ized
n ail
ĠUn less
S can
ĠC enter
st eps
process ing
config ure
lement s
Ġbo ot
n ed
Error Code
input s
AB ILITY
d ensity
ĠF ace
ad ded
ri ends
to LowerCase
S PE
ol t
Ġj ump
Ġinter mediate
ĠU P
er c
co urse
a int
ore st
B us
L R
m orph
v in
TEXT URE
Ġpub lish
Ġsub group
ĠP ark
sl ant
Ġpy thon
Ġtarget s
Ġtable s
H ello
size i
ĉ ĠĠĠĠĠĠĠĠĠĠĠ
Ġpol y
D ry
pack et
\ }$,
] ),
ĠC he
Ġed uc
Ġco ur
__ .
List eners
Ġbe hind
Ġth ought
code s
] {\
Ġ ens
od d
Second s
co untry
Ġma g
ĠBAS IS
at ile
Ġpro files
T ip
Per cent
Ġfoot ball
Ġse ctor
ss ible
fav icon
f iler
Ġbel ong
default s
Ġprov iding
la cing
duc ible
ĠParameter s
an cial
ĠG lobal
n able
B lob
ĠO ptions
FFFF FF
ĠS hould
en vironment
Ġinter act
Ġorder ed
Ġfind ing
ĠIn ternal
\% $
phan tom
Cal cul
' d
comp ar
un iform
reg istry
ĠT EST
Meta Data
N I
if rame
ĠI F
et c
Ġw omen
Ġmedi um
Ġ ult
H y
ify ing
ĠCONDITION S
og onal
Pay ment
Ġin deed
G u
B r
Ġra pid
Sub scription
FT WARE
" </
Ġremo ves
n y
ĠAl though
ak er
] []{
==== =
D if
Vis ibility
Ġj et
to c
block s
Open Tl
b as
p ur
Z oom
C irc
ĠP FNGL
) --
Ġpi cture
la m
part icle
He ad
un ced
Ġcorre ction
Ġevery thing
Ġa v
Vari ant
ĠDe vice
} |\
[ <
r ance
Ġgener ating
Ġass uming
Ġp lus
g ui
te am
H ook
Ġan im
ĠA fric
Ġneutr ino
ĠIn deed
us age
Ġto day
L com
at ype
Ġapprox imate
G LAPI
App Compat
it ution
ec ycle
En coder
Ġes cape
Dest ination
Ġre gex
af ka
ĠH AL
Ġloc ations
S lot
De coder
ate st
^{ *
z oom
ĠO ff
A E
ĠC F
ĠPro v
d m
Ġcop ies
D imension
Ġs pa
h n
Ġs lot
x l
Ġr m
. ")
Ġme sh
Con tin
equ ations
Ġdat etime
Ġquant ities
Ġe ver
sup p
Com b
Ġsc an
C redentials
med skip
helper s
and box
Ġobject ive
th rough
19 2
M AC
Ġbro ad
com ments
LE V
ĠE ast
Ġconv olution
D er
sub sec
cop ic
In ject
it ative
ag o
sh a
in ations
199 4
Ġp seudo
Ġbro adcast
fe ssion
j sp
C tx
199 0
ext ype
Ġcomp ile
il bert
Ġinitial ized
, </
Ġ\ (\
ĠRem arks
ĠA uthor
y al
mark er
Conn ector
Ñ ĸ
MA SK
AUT H
Ñ Ĩ
e per
Ġsign als
in ity
S peed
h u
Key word
}$ }
="# "
non atomic
place ment
s olution
y aml
M ail
Ġ"- //
OPT ION
is o
st or
Al gorithm
s peed
? </
M argin
m en
Ġc atalog
rop ic
ud get
_ [
is ot
Ġstyle s
Ġfluctu ations
Ġprecise ly
rang ian
Ġexp lain
Re q
Ġor ientation
sc reens
pect ive
Ø ª
in verse
S ent
Ġre lax
ĠG al
é Ģ
Ġflu id
as set
ĠG it
ops is
stream ing
b ench
ĠCh annel
ĠFe bruary
. ');
ĠVer ify
place holder
s ender
Gener ate
Ġsepar ated
sub scription
ĠJ ob
Ġsystem atic
De fined
Ġe con
Ġis omorphism
Ġconvert ed
Ġa g
Reg istration
ĠT er
Ġparticular ly
ĠS ET
Ġsub space
ĠG uide
is son
Ġcomput ational
Ġthe ories
Ġconfigure d
Ġin strument
rit ory
ĠRes pon
n pm
Ġbase line
) }.
part y
Ġsynchron ized
Te am
Ġ' ')
ĠÐ ¸
Ġproject s
Ġrest riction
Ġcon t
ĠH ouse
Ret ry
Ġs ong
TO OL
Sup pose
Back up
ĠS P
<? >
Ġla unch
inv oke
B est
Event Args
> ()</
Ġbe gan
ĠA T
Pri mitive
ir ation
ĠB lack
are st
c raft
ma y
H ave
Ġma gnet
Table s
Ġauth entication
å ľ
X i
ren d
App ly
T ex
With out
tri angle
AME TER
L ite
ss aging
Ġs ucce
ce il
am i
AC CE
ĠÐ ´
> $
Ġpro pose
Ġequival ence
Ġb enchmark
ĠG rid
ĠÐ º
Ġpe er
Ġ// !
\ ":
u er
lu et
ĠJava Script
p ref
Comp are
Ġ" +
ĠS V
Ġassign ment
m utable
run ning
Ġ\ ,\
OR S
ĠP l
t b
Ġ(! (
Ġout come
e in
ma ml
ĠSup er
ĠW il
GL enum
ra b
ER S
Ġint ensity
Conf irm
Ġacc um
Ġh istor
text area
Ġj av
P ress
Character Offset
te ch
LE S
11 1
Up per
Ġhe at
Ġr c
Exp ress
ĠA rm
ĠC P
Str ip
LO AT
z ed
Ġexp anded
="# ">
li min
Ù ĩ
ĠH as
Ġcom mut
var theta
ĠPro p
prec ision
Ġarray s
Over lay
Ġembed ded
---- ---
Ġhypo thesis
ĠS ymfony
ĠM IT
ĠCon nection
Ġref resh
F ROM
Ġfe ed
Ġg lu
: =\
' m
Ġv o
Ġt alk
Ġon click
or al
Ġcopy right
ĠM ember
q q
Ġ ut
Ġplace d
Ġaut om
dif ferent
Ġocc up
Ġvac uum
ĠAr ch
und les
100 00
{ },
Ġfe edback
Ġl l
ĠR ad
Ġwork er
std lib
. \\
luet ooth
C lean
ĠIn v
velo pe
ĠT ry
Ġrece iver
ĠC a
local s
An gle
LO B
G G
sp ark
h ex
A lt
Ġelect ro
ĠS uch
f un
comp act
Ġc ss
ĠB asic
xy gen
her ent
AT URE
ar ter
LI ENT
per mission
w as
ord ers
LIC ATION
cr umb
ust ed
In line
ĠP lan
dest ination
ct rl
Pr ice
or ient
ĠPro gram
Ġs parse
w i
ri an
LIN K
Ġnew s
ĉĉĉĉĉ Ċ
Co uld
g c
Pre vious
Ġpa int
pri ority
Be havior
Ġdocument s
Ġe mer
cip ient
Ġexponent ial
cept or
Ġmonth s
amp ler
ĠCon struct
t one
al ette
lic ated
ig ator
R GB
Ġ# #
Ġhapp ens
ĠF ree
BY TE
P ASS
ĠIm Gui
Ġpar ame
C LA
Ġfe el
:: $
Ġre try
i em
Ġcontrol s
w x
prob lem
c aret
Ġmix ing
U Int
Ġs ites
ĠC ase
Ġman ifest
O k
phys ical
R IGHT
Ġtry ing
el come
variable s
end region
to kens
r x
re verse
B ut
in y
Rece ive
i Ã³n
Ġmark er
member NameLink
P icker
ga in
F oo
ĠB ra
Ġpass ing
Ġeigen values
sh arp
cu ssion
s chedule
ĠT wo
Ġinterest ed
Ġperturb ation
B ra
o int
C V
Ġk m
co st
ĠG r
nipp et
not ag
Ġinte gers
C ity
Ex cel
Ġopen ed
W I
ĠS U
\ |\
ĠW illi
LEV EL
Ġcent ury
Ġpro cessed
df s
MS G
Sh adow
p f
~ (\
ĠPro perties
HO ST
Ġfreed om
Ġkw args
Up dated
Ġd y
Ġlist s
Ġfor ces
Mod al
Fil ename
Ġt ax
be led
Comp leted
Ġvis ibility
Ġro ugh
St age
Ġ" [
00 2
Ġtopo logy
n at
è ¡
ĠOper ation
ĠL abel
">( </
ateg or
unc il
ĠC ont
ga ther
custom er
LE NGTH
! "
å Ń
! ]
Res pon
Equal To
Des erial
ĠD eta
Ġvari ant
Rep ly
F IL
sp her
Ġlow est
/ '
m ust
Ġtr unc
pa red
S lice
Ġat omic
qu o
pri se
> )</
ĠT arget
a el
T K
script style
ule s
Ġ æ
A U
Ġ$\ {\
To ggle
mis sing
ii i
if orn
Ġc riteria
Ġsp ent
get Text
ph y
Ġsecond ary
Ġt ail
and er
}{ *
S IGN
Ġ ,\
Ġ' $
Ġunderstand ing
Ġro uter
Ġp an
Ġbel ongs
Ġtransition s
Ġreason s
la w
ĠInter face
Ġm obile
v ect
Ġbo ard
ar ity
we et
> /
Ġphase s
H AL
Ġde precated
in variant
0 100
n m
Ġat om
c ategories
Indic ator
{ |
Ġpass phrase
ĠSO FTWARE
ĠR PC
Ġdiag nost
st derr
get Key
Ġde ad
Ġn orth
T ITLE
Ġge ometric
S pa
state ment
graph y
TO DO
Ġw ent
../../ ../
ater n
AR CH
it ation
b orn
ĠS W
Co ins
Ù Ī
Ġ' </
ĠU sed
has OwnProperty
remove Class
scri ber
M ay
L i
ĠIn formation
D ump
Ġac comp
allow ed
Ġconf lict
Ġre veal
viron ments
L ike
Ġ/ ><
S ink
at om
199 3
so ck
decor ation
Author ization
Ġapp lies
stack rel
ĠN or
S uite
I A
Ä į
ap ers
mit s
valid ator
Ġ. /
Ġinvestig ate
cret ion
> ');
ĠĠĠĠĠĠĠĠĠĠĠĠĠĠĠĠĠĠĠĠĠĠĠĠĠĠĠĠĠĠĠĠ ĠĠĠĠĠĠĠĠĠĠ
------------ -
Å ¾
Ġw ish
D r
// ----------------------------------------------------------------
pe ction
y ml
ĠB ecause
or ange
Request s
s leep
En t
tikz picture
L ONG
Ġso on
Ġtra de
Allow ed
i ro
Ġread s
Ġb old
ĠDef ine
unn el
^* (
mult iple
uc ial
GL uint
; ,
bit coin
MA IN
F ake
Ġph oto
at able
Variable s
ĠS ur
Ġs al
iforn ia
Ġthread s
or ary
Ġturn s
ĠU SE
Ġf aster
Ġy oung
Ġdid n
p ic
periment al
] <
Ġt ile
Ġro bot
oot strap
ateg ies
with out
DO CK
b or
il led
Ġla ck
Style s
Check er
Ġ à¤
: @
ĠCon tainer
Ġ/ ></
lev ision
PROP ERT
âĶĢ âĶĢ
Ġgravit ational
b one
ĠM ET
Di ag
He ap
Ġar c
Ġaccept ed
chart s
Dis patcher
post s
Ġco ol
User name
G r
Î »
and o
in herited
> ';
ĠCon structor
d ating
add EventListener
control s
Ġr s
More over
ĠD em
ĠN ull
Ġd jango
c amera
Un able
mod ified
Ġallow ing
3 60
back slash
bo ss
ĠSe ssion
Ġinvok ed
&= &\
Trans fer
B ranch
Ġre po
Ġnot ed
temp lates
pi ct
Ġextract ed
ĠRe port
/ #
Ġimpro ved
Any Ref
i per
Ġ" ./
Ġx si
) ^\
Pro totype
st mt
version s
Ġs on
n c
; -
N ested
Ġb io
N EL
Ġcare er
ĠS yn
ĠGL uint
em y
Re c
I ES
hy per
(" -
Ġoffic ial
ĠN et
Ġar riv
NotFound Exception
ĠL ondon
P atch
( -\
G uid
ĠCons ider
Ġpart y
math it
Ġat oms
i ation
ĠR uss
S cheduler
c lock
Ge V
ĠPh ys
par sed
Ġde ploy
Or gan
. ";
Ġ" ")
ch er
ĠS ty
f w
Ġco verage
ĠB ind
bold math
Dis abled
imp lementation
Ġalign ment
mac ro
Ġm k
C ss
$- $
ĠF eature
comp ress
Ġde mand
Ġsol ar
sc ene
g iven
Ġp tr
Ġsim ult
Ġdevi ation
Tag Name
He ading
a ils
Ġdis persion
Ġc fg
se ed
el t
L ow
the less
ĠLe ague
U sed
Ġsub sequent
Ġin correct
TH ER
| $
agg reg
Ġcho ices
C atalog
ĠD A
ĠIN TEGER
M AN
channel s
Ġse qu
Ġ( );
inter pret
^* \
T IM
ang les
Ġco ins
Sub ject
Ġep is
Ġmain tain
l b
Ġv ec
Ġri se
Instance s
Ġenter ed
For ce
Ġadvant age
b alance
: /
Ġre ject
Des ign
ĠCre ated
aly zer
ĠR ow
Co untry
Ġm m
V ote
ĠB r
Part icipant
Ġperiod ic
d v
ĠAd ded
NO SCRIPT
Ġat tach
text color
Ġat tached
pre d
read crumb
ĠEn able
Ġre peated
ordin ates
Ġnot ify
=" //
D ig
"> &#
Ġd raft
Ġproce ed
O ld
ĠIn ternational
Ġf lush
A WS
W ARNING
DI RECT
f ord
ow ers
ĠC our
ĠA WS
Ġst e
ĠForm at
199 2
th ick
Orig inal
Ġ/*! <
Ġcom ing
con t
1 16
] *
table s
Cal led
bad ge
1 12
Ġpr incipal
ĠNew s
Ð¸ ÑĤ
ĠV AR
pre vent
Ġ{ ?
ĠSum mary
Ġposs ibility
y arn
Ġ(! $
Ġn ational
me ter
$. }
Rece iver
Ġ utils
Art ifact
ĠSup pose
String s
cond uct
R S
' _{
Custom er
short cut
dim en
co ut
ĠP op
Ġsto chastic
W H
ĠS cal
Ġthan k
brid ge
cc c
Ġfa ir
Ġtest ed
LI B
}/ \
af ari
G ROUP
Ġsub scription
Ġc s
r atio
b etween
co pes
Ġre corded
R atio
ynchron ous
. &
ho le
window s
Ġw est
ĠG ET
ĠTrans itional
P RI
ĠZ end
Ġd ip
Ġcol lapse
wo od
APIENTRY P
ĠM P
new s
andid ate
ĠB l
Ġ} .
Ġstate ments
ut ors
ĠQ String
ai ses
Draw able
down arrow
ĠLag rangian
F it
vis ibility
cknow ledge
du stry
ĉĉĉĉĉĉĉĉ ĉĉĉĉ
ĠIn stance
() `
ist ant
command s
Ġre start
B T
ĠSt orage
s ocial
un tries
Ġhash Code
Ġrespons ible
foot notes
Pa int
; ]
Ġco lour
Ġen counter
Ġc ertificate
Ġ ans
A CTION
Ġse gments
ar ia
| ^{
F D
Ġquadr atic
Log ging
on ed
Ġsubst ant
z ing
H ide
Ġspec ifies
Ġtra vel
m r
ĠDis play
lear ning
O G
Ġs ymp
b j
Ġscen arios
iv ot
re es
et al
s lot
Filter s
Mult iple
no logies
PAR AMETER
ĠCol lege
Ġexpla ined
| _
Ġg iving
Module s
Ġnear ly
Link ed
Ġcon d
u dd
h w
ke ep
se par
Ġexpect ation
K EN
res olved
ĠAPI ENTRY
H D
Ġinitial ization
> -
****** /
Emit ter
Ġcheck ing
DO WN
å ¯
conf irm
ĠF rench
Act or
Ġplan et
ĠA ut
ig ible
Ġrange s
Ġ& $
Ġcar ry
hav i
Ġpur poses
ĠD atabase
Ġc redentials
Ġst ub
ch arge
row se
work er
ĠAl low
Ġ{ })
---- -
Con struct
Ġb ot
10 2
all back
Ġincre ment
ĠLe g
ast e
ĠIN T
ĠCON FIG
MA KE
Th reshold
ume d
ĠĠĠĠĠĠĠĠĠĠĠĠĠĠĠĠĠĠĠĠĠĠĠĠĠĠĠĠĠĠĠĠ ĠĠĠĠĠĠĠĠĠĠĠĠĠĠĠĠĠĠĠĠĠĠĠ
O rient
Ġs it
Ġlo ader
ĠS N
ffic ial
ĠGener ate
Ġneut ron
D ataset
Ġd ensities
ĠL ife
vers al
Ġcall er
f its
Ġel im
ĠY our
Pred icate
Ġp ref
Ġman aged
Ġc c
Man aged
Ġre duces
ĠD ATA
cor ollary
Ġin corpor
t ick
ĠRe quired
Ġmain ly
font s
pro pto
PT ION
Ñ ħ
Ġ' {
ĠCal cul
re ports
ĠDi ctionary
Th an
c as
text normal
Ġposs ibly
( @"
ut ation
By Name
oci ety
ste in
P riv
Ġcl ub
14 0
ĠF ourier
Ġuniform ly
il ine
St d
ĠImp ort
13 0
at ios
Ġcandid ates
car ousel
Ġ' ../
est ing
h ow
Ġs outh
Ġsome times
ĠS ymbol
Ġal location
20 23
Image s
Ġdefin ing
F i
Ġs ensor
Ġ lambda
sess ment
Debug ger
con c
Ġcondition al
(" <
ĠF ixed
Ġorgan ization
ĠC C
alle st
) (\
å Ľ
Ġnuc lear
) '
I BU
Ð¾ ÑĢ
Ġpie ce
ĠI gn
j k
rep ly
l ive
in to
ffff ff
Ġcoup led
Ġg lyph
A IL
Cap acity
ĠBo th
Ï ħ
ur st
ĠG erman
or ge
Mo unt
W IT
Ġcon sumer
I mmutable
ĠVal ues
5 000
Ġabsor ption
x e
ane ously
Ġtemperature s
ug ment
ĠN on
is er
ph ony
ynam ics
Ġpre pare
ĠNO TE
ĠB ook
ĠD M
)} (\
man y
Ġw avelength
ilit ary
te e
Ch at
C lip
ur ally
sw ap
d ays
J s
az y
Ġmaterial s
Ġro ll
p et
ĠS un
Ġ ../
ho use
Ġst ated
Type Name
Thread ing
cred ential
T ick
an im
S printf
E lem
Ġuncertaint ies
Ġcoll ision
a ult
Americ an
Ġsuggest s
Ġmo vement
ĠTo ol
Ġro ut
en ario
ant ics
ind ic
v p
check er
d atab
qu is
Ph ase
au x
ĠO f
ers hip
Ġreg istry
ĠTest s
bal ena
ĠD el
(" ,
ĠGL sizei
Ġe lection
INST ANCE
l ar
jac ent
Ġre c
Ġ\ [
ĠCOL SPAN
leg end
Ġnecess arily
Ġcontinu um
o log
B ag
Ġd f
ĠD own
ĠB ound
grav ity
Ġtre ated
APP LICATION
ĠS chema
erm i
Ass ignment
Ġan om
Part ial
g ate
Ġco okie
get Property
Ġcar ried
ĠN E
Ġmin or
res olution
ĠCh rome
n ol
s lf
Ġgener ates
ue ss
date picker
thread s
an alytics
Ġpolar ization
$ '
button s
A ff
Ġevent ually
spect or
B g
$ ^
B D
{ (\
UM N
Ġact s
Act iv
Spec ial
å ¼
ĠH ome
ILE D
ĠN um
ĠRe present
Ġweight ed
Ġlo ve
ĠMem ory
V IEW
ĠInst all
De cor
Ġtrans verse
=" <?
ST RE
utor ial
F ire
ĠO THER
Ġdire ctions
T ARGET
Ġsho ck
Inv oke
ĠSto re
Ġindic ated
Ġde code
Ġsens itive
ur er
& &\
First Name
S mall
comp iled
ĠS yntax
ens ors
ic ular
R M
C s
/ $
UN K
++ ++
Ġneighbor hood
for ge
is Array
un ct
ĠI sl
Part s
cat alog
Ġun iqu
sh iv
ĠMult i
E r
Ge o
h fill
Ġw orth
ĠEng ine
Ġb ands
enc il
Ġre peat
R G
Ġres idual
Ġde cor
Ġs n
H int
ĠA UT
footnotes ize
fail ure
Ġaff ected
Ġchem ical
] >
St atistics
Ġorbit al
] -->
p referred
g ot
b el
Un mar
ĠTh row
Ġopp osite
Ġconj ug
Ġser ved
Ġarg v
14 4
ĠL IC
tab End
Ġm ind
t cp
ĠH y
iv istic
P K
ime d
Ġa go
ang ent
field set
Ġinit ially
Ñ Ī
>: ]<
on omy
trans fer
Ġquick ly
Ġexception s
ĠG en
Ġd ise
ĠSer ies
ĠValid ate
sol id
T M
ĠF ILE
Ġsup pose
He alth
ĠCal ifornia
ext ends
N ER
Ġdecre ase
section s
.... ....
in dependent
Ġmod ern
ĠM al
AC HE
Ar r
Ġmath ematic
(" [
the mes
Ġli es
exception s
For ward
copy right
Ind ices
pos al
vai lability
ĠF oot
G UI
Ġproport ional
ject ure
ma chine
H idden
u an
j boss
---- --
Instance Of
Ġtradition al
Ġc apt
$\ ,
RE NT
ma jor
du al
inner HTML
Ġt body
Ġsur v
Ġrender ed
Ġthem selves
n io
Ġpar sing
un its
ĠUn der
Tw ig
ĠB rowser
depend ence
LE D
Th rows
Read Only
Ġperson al
Y our
Ġan n
Ġp p
Ġhom ogeneous
IBU TE
qu ick
ĠF loat
I MAGE
se y
b est
Icon Error
Ġosc illation
uc lide
get Default
Ġcur l
Ġun iversal
Ġe ast
ĠVar iable
f loor
Ġlink ed
Ġsuff ix
job s
L arge
H ex
new line
L D
Ġfav or
Ġre cover
type param
Ġas set
Ġfit ting
ĠTrans action
A K
Ġs phere
Last Name
V IS
Ġ( {
go al
CL U
Ã ¨
lo tt
Co st
ĠĠĠĠĠĠĠĠĠĠĠĠĠĠĠĠĠĠĠĠĠĠĠĠĠĠĠĠĠĠĠĠ ĠĠĠĠĠĠĠĠĠĠĠĠ
mem Item
* .
ĠEx pect
Ġis ot
Serial izable
B M
Ġ _{\
Event Handler
Ad ded
ĠGener ic
Ġin fra
bo unded
md c
Ġnot ion
ĠĠĠĠĠĠĠĠ čĊ
H om
Ġrest ore
ĠM ost
ĠCo unt
sk top
ĠSet tings
sub str
ch est
MP TY
Ġ- &
Ġback end
Un its
Ġout line
ul us
Sh are
ĠValue Error
Ġdomain s
Ġend s
left arrow
ĠR ange
ik i
ĠAl gorithm
Initial ize
gu ard
$\ \
or ientation
Ġ" --
Ġse em
ĠM or
Ġin ference
Ġid s
Ġh ook
x ref
numer ic
ion ic
st ra
Ġsepar ation
Ġst ress
Ġlocal ized
Ġsuggest ed
19 70
Ġreg ression
Ġaccess key
Ġab ort
li des
g ap
Ġ/ .
IconError Encoded
get Elements
Ġ ì
Process ing
la ps
ĠD raw
Ġpolynomial s
Cre ation
Ġp index
*} [
Ġprogra ms
Quest ion
Ġw or
mo v
H orizontal
Ġcontrol led
Un lock
s qu
od b
Ġh ex
ĠC PU
Input s
ĠIP v
DE P
: **
Ġs coped
S uch
Ġr ig
H I
> ("
Ġma pped
×Ļ ×
ĠAs ync
ĠD iv
l ision
ree k
le af
ĠSe curity
OP EN
Ġbro ken
Ġmost ly
ĠD ay
Ġperform ing
We ek
ĠX ml
Ġma j
ĠU V
E O
La unch
=" {
ĠTemp late
ĠLIC ENSE
ab solute
Ġd ump
Ġinter rupt
Ð¾Ð ´
Ġtransform ations
i en
Ġanaly ze
Dependency Injection
Ġin herited
ĠD IS
st ri
ad apt
desc r
s ap
Ġderiv atives
ul ing
Red irect
Ġdirect ed
; =
Ġp c
. (
s ip
ãģ ®
ir ical
Ġwait ing
Ġimport ance
N il
Ġstraight forward
f requency
Ġs ig
{ .
w ind
it ing
ĠL ast
FO RE
Ġstud ent
Command s
uclide an
Time s
tra ining
Ġtrans mission
Suppress Warnings
col ors
Ġw ire
Ġb ring
cknow led
ĠM at
Ġto ggle
ĠAc count
Ġorder ing
Sign al
Imp lementation
Ġrep ly
Ġlist eners
const ants
Ġbreak ing
Ġpay ment
ab e
r atch
Ġlanguage s
Ġf em
scal ar
th an
Ġl in
ä¸ Ń
Par cel
inst ein
n r
R oom
Ġs in
ĠR andom
Ġdif fer
u ma
Rout ing
}^{ +
Ġdemonstr ate
[ _
Comp lex
corre spon
* >
Ġagent s
rg b
log ic
re cur
Ġtre es
ok ies
V S
Ġm anner
Ġadd s
($ _
peak er
Ñ İ
mm ar
Ġconf idence
Ġh orizon
Ġfamil ies
not ated
Ġplace s
C ref
ãĥ ¼
ring tone
Ġtri m
Ġor ient
ĠE mp
Ap pearance
ut s
Vert ical
Ġint ent
Ġsk y
Ġvari ations
F IN
AAAA AAAA
Ġn arrow
M LE
}. }
[] )
Ġelectron s
Ġiter ations
Ġc as
Ġcorrelation s
[ ];
Collect or
Permission s
re view
F LOAT
Cla use
mult line
or acle
CK ET
s izing
capt ure
pay ment
pt ic
Ġstrict ly
Cl one
Ġclient s
An sw
me l
Ġrece iving
Ġfrequ encies
] ^
PO INT
m ysql
Fe ed
b ian
USE D
up arrow
im its
Ġvi ol
å º
Ġl t
ver bose
Ġrespon ses
Ġsens itivity
Ġre ferred
}{ }
ĠIndi a
Ġsub mit
\! \
tr ight
Ġper mut
Ġtempor al
Ġpo ster
std out
Ġt ro
per form
r ust
Ġform ulation
\ -
ie f
DOCK ED
F ee
() ]
Ġrestrict ed
Ġess entially
get Data
Over flow
Json Property
ĠD ocker
Ġ/** <
Ġchar ged
ĠRout e
bo th
ĠL i
ĠR ich
Y S
Ġb all
ch rom
Record s
di an
mer ce
Ġdec la
Ġre ports
Ġfil ms
ĠO UT
K L
Ġsol ving
ĠEurope an
text up
ĠĠĠĠĠĠĠĠĠĠĠĠĠĠ Ċ
Ġcon vent
p at
] ];
Ġ ray
Ġsup ers
De ep
ĠF act
ä¸ Ģ
Co ord
S ender
ĠP rivate
Ġen coder
Ġhand led
Ġalgebra ic
ĠAd min
ĠTr igger
prom ise
Link s
ĠPro duct
Ġf its
= }
}$ \
var rho
Ġsh adow
19 80
aw a
ĠAmeric a
Ġa ux
[ ],
ro te
el m
ĠRespon d
oc r
ĠD avid
Prov ince
Ġt ick
mon itor
Ġ ing
Byte Array
Ġn ight
Ġanaly tic
Ġpres er
ĠInst itute
/ %
0000 0
( <
m icro
le e
C AP
ct l
w so
Ġtech nology
Ġ( <
St ates
ĠP lay
Ġdistingu ish
Ġdiag rams
Ġc p
in os
Ġorth ogonal
Ab solute
oci ated
C ENT
me sh
u da
ĠĠĠĠ ĉ
ID ENT
& =\
Ġappear ance
Ġc rit
rot ate
CC CC
cent ury
pi ed
")) );
Ġ! (
Ġi i
In to
Ġcomp ilation
Ġac cretion
u ation
ar ma
ter ms
DE VICE
ro tt
L C
_{ +
Ġopp ortun
Ġc ubic
Ġcon cat
text sf
ĠF IX
an it
Ġopen ing
pers istence
æ ī
re store
as m
Loc ator
ĠSte p
Ġme as
Ġosc ill
** *
h p
Ġtrack ing
Ġpri mitive
opt im
ak a
5 67
Ġin structions
-- ;
199 1
d w
Ġqu ot
' }),
PRO TO
Ġcr yst
En code
Ġint ended
Ġ} ));
Red uce
iem ann
Ġcount s
ĠB utton
ip edia
n it
be low
Ġen cryption
pe er
d ater
Ġhand lers
Ġca uses
pi e
CON F
en ance
tensor flow
$ ^{
Ġv an
ist ance
ism atch
Ġsimul ated
h int
Ġwhen ever
assert False
Ġrender er
\ [\
th ird
Ġent ities
Ġcollect ed
Ġpre dicate
Î ¼
Ġw all
Ġserial ized
F ront
T i
Ġmedi an
á »
ĠLib rary
en k
NAME SPACE
Is Null
,... ,
Ġmet all
Ġmac ro
AR K
ob server
Ġme et
h al
>< ![
ĠUn ion
Ġ$ ^{
PI O
Ġdescri bing
Typ ed
Ġrandom ly
Ġh our
ĠStruct ure
ĠCan ada
u fact
Ġse ll
Ġess ential
P TED
Re vision
datab ind
Ġc ampaign
}^ +
ĠP DF
------------ --
ĠERR OR
ÐµÐ½ Ð¸
Ġdecre ases
Ġ$ ("#
"> ,</
AS K
ĠÂ ©
Operation Exception
Ġle af
LE N
ĠS at
=\ {
open api
ç ½
change s
do es
ane se
Ġreturn ing
Ġz oom
sm art
Ġpro duces
Ġhe art
get C
Ġd type
ĠRet rie
Ġin sp
Ġb as
av atar
la unch
iz ard
}) ^{
Ġho pe
Man ifest
z ier
Ð¾ ÑĤ
Ġinit i
10 5
æĺ ¯
ni h
Cho ice
Res olve
ĠC artesian
CON NECT
ĠC S
ĠA D
Http Request
Ġ= ================================================================
tright arrow
MO D
ĠEng land
cho ols
Ġdiff usion
Ġp referred
ĠNo thing
NUM BER
Ġ" :
Ġp la
Ġplugin s
contain ers
ex isting
S ound
interface s
(' ../
F rag
Ġref lection
19 88
q view
(( (
Alloc ator
Ġfil led
Ġser ve
Page s
Ġse ven
ab ove
i q
NO WN
ĠD en
Ï Ĥ
Mult ip
Ex tended
get Time
t ol
m v
Ġin clusion
ĠN a
Ġvary ing
we ek
d type
Ġintegr ated
Ġll vm
ĠS ave
ĠAr gs
pe g
Ġinterval s
get Current
ell ig
Ġlog ical
ĠP O
cite alt
Ġtr uth
) ?
De code
string ify
Ġcallback s
Ġpre tty
d h
Ġscheme s
list ing
> ',
Ġdiv is
ĠE N
Ġmod ification
Ġ ~\
ĠDocument ation
Ġset Up
d z
B tn
ĠRe al
Re cogn
form er
az el
U INT
\, {\
Ġren ormal
s id
ĠL IMIT
Key board
Ġp las
Ġpo or
illa ge
sp h
ĠC L
Ġeas ier
ĠH all
en ed
// !
let es
Fore ign
ĠA C
ĠT V
Sw ift
T V
b at
Ġadopt ed
re duce
{ })
map per
Ġtra ffic
Ġdistance s
Default s
Not ify
est ure
') ).
Ã ½
M Search
ĠH ost
"> "
ĠT IM
nav Bar
ition s
High light
ĠFace book
ĠZ e
CON ST
Ġcom m
ÑĢ Ð°Ð
ĠR iver
C AL
Ġb ary
Pro position
ĠFor ce
Ġpro be
UP DATE
w b
Ġma il
ick y
Ġ[ #
set Value
Ġrecomm ended
D AT
pag ation
Ġf d
Ã ¥
Ġdist rict
Component Model
ĠP lugin
Ġhand les
ĠHe alth
V oid
Ġs ch
d ummy
def n
c id
Ø§ Ø
Ġmax im
Ġw rapped
Pro c
To kens
inter action
get Logger
P references
ab it
Wh ite
Ġinterpret ation
Ġdecl aration
Ġca ref
main ing
Ġplay ing
XML Schema
ve locity
Ġcustom er
Con version
S el
U i
print StackTrace
h aps
Re cent
ĠV k
Ġad vance
Ġin coming
mid rule
lu a
ĠOb servable
iven ess
v r
IN PUT
Ġa dapter
Ġ! !
Ġb lob
work s
am er
sec ure
Ġf ood
A g
| _{\
Ġdis crimin
enc rypt
Ġch iral
Ġpanel s
ĠF ran
(' \
lott ed
Ġslo pe
}{ {\
= </
MA G
Ġent ang
> ";
ĠS ql
w alk
\ },
Ġgr pc
Ġde sp
ib r
char set
Ġcover ed
l m
um ul
uto ff
Ġinst anti
Ġmolec ular
Ġnew ly
ĠEn ter
Ġestim ator
Ġfunction ality
ĠDe partment
ra di
Ġregard ing
cons istent
Ġs i
Comp ute
"> '
ph oto
ran e
ĠM S
ĠCor ollary
Ġph one
ograph ic
a verage
GEN ER
Ġar m
Sh ell
Pers istent
ĠE C
Ġext ent
2 20
** :
ĠM C
Ġobserv able
CP U
Ġe ight
cur r
pol ymer
Ġcor ner
LE FT
oler ance
Ġrequire ment
getElements By
cur l
, (
L ang
" +
UM ENT
stand ing
RET URN
Ġar ith
Ġlog arith
ĠS witch
ĠH E
ĠCh ina
res pect
re cv
N EXT
Ġ" ");
Ġde p
Ġmay be
define Property
o ved
urb ul
Ġhard ware
s aved
ell ing
tele phony
æĸ ĩ
Ġbelie ve
activ ate
ĠS cript
de ploy
f ollow
ci pe
Ġf ocused
comp atible
ĠS TR
Ġ[ ])
ĠE mber
ĠDes cribe
ĠE rr
HEAD ER
[ [
Match es
ĠSt reet
small skip
ĠA pi
å Į
Ġirre ducible
Sub mit
"> {
View s
le f
ĠU K
ĠM ust
Big g
ĠP ut
Ġinvol ving
Ġrender ing
ĠC lose
ot ic
M obile
G T
Un til
O IN
Iss ue
atter y
st roke
p lain
Ġdomin ant
Ġfun ctor
ĠC ap
ĠI MP
Ġr atios
ac ion
ab br
C LIENT
ĠP ress
Ġmaj ority
Ġinit With
ĠRe public
t m
× ª
24 0
Ġcompan ies
Ġis set
ev t
Ġcosmo logical
Ġclo sure
Ġlook s
Ġrel at
Orient ation
Ġrect angle
Ġmodel ing
Fin der
ĠEq s
h ed
on to
as List
ĠQ CD
Clo sed
request s
} `
an imate
ex ist
Ġman ip
y ing
ĠT ab
U TE
=" ./
ta ke
Ġalgebra s
ĠD est
Ġpolit ical
Ġf ol
Ġalloc ated
Ġ[ -
Py thon
ex act
External Project
ĠLay out
TR ACT
P ref
iv il
co ins
Ġh on
ĠCh ild
ĠH ilbert
oc ab
class path
"> Â
Ġb lank
ĠV K
bar s
ĠComp ute
\| _
space s
Ġcol labor
ĠRE G
Ġz ip
temp erature
Res ize
Ġdetermin es
ind u
el ian
pub lish
Ġs heet
pi res
uff le
ss ions
Ġap parent
Com bo
ri ctions
ĠId ent
Ġ eng
Con v
ĠRe set
ari ant
Ġoper and
Dis able
ĠD I
if ecycle
list s
ĠEn um
ine se
Ġcomp ression
R ank
Ġtrack s
Ġol der
Ġdel iver
al a
ĠIter ator
Ġin vert
ĠĠĠĠĠĠĠĠĠĠĠĠĠĠĠĠĠĠĠĠĠĠĠĠĠĠĠĠĠĠĠĠ ĠĠĠĠĠĠĠĠĠĠĠĠĠĠ
fession al
s yntax
F ast
ĠSD K
navBar Cell
Throw able
ĠInst ead
Initial ized
ĠC A
j b
file Name
ĠP osition
Ġto t
INTER N
Ġcon tour
url s
vers ation
æ į
Ġtraject ory
play back
ä» ¶
Ġcompar ing
O ccur
y an
un used
ĠCom mit
Ġs pread
s lug
Ġst ay
P in
U C
e le
IF T
Ġm oney
ĠAss ume
-------- ---
ĠAustral ia
. (\
ĠC WE
Block Index
Ġs cores
M iddle
d riv
Ġs l
Ġs us
itu ency
ACCE PTED
Ġ\ {\
Ġlik elihood
PROPERT Y
al ink
Ġwork ed
V T
F B
land s
al ed
ide os
r ans
En crypt
Ġpol icies
Ġsol ved
wall paper
æ ł
Ġtemp lates
F lush
g mail
Ġ* */
Ġli e
ĠD uring
umin ate
ĠDE BUG
) ',
Source s
An other
dim s
N orm
Ġcoupling s
ĠI ts
bin om
Ġinst ant
ĠQ t
Ġar row
ron ic
Ġtempor ary
P reference
int ent
Ġeffect ively
Ġcons istency
qu id
Re corded
Ġcons isting
Get Type
ĠT or
N P
ĠL aw
At tachment
Ġsm allest
Inv ocation
Ġutil ity
k ubernetes
/ ******/
Ġneut ral
Ġa im
ĠA zure
fin ish
L ER
lin ed
Ġ artifact
list en
car bon
ig gers
I o
T ING
Ġcon formal
ĠL ab
O C
< >(
so und
read only
qual ity
ĠO K
Ġ" (
Proto s
Ġun iverse
Ġrecomm end
ĠĠĠĠĠĠĠĠĠĠĠĠĠĠĠĠĠĠĠĠĠĠĠĠĠĠĠĠĠĠĠĠ ĠĠĠĠĠĠĠĠĠĠĠĠĠ
}[ !
Ġat mo
Ġsimilar ly
ĠT F
is Valid
Ġre lying
ĠCon dition
)) {
i la
Rel ated
ĠEqu ation
At tach
p ick
Ġh ierarchy
Ġover lap
ch ant
Ġw arn
Ġc ert
ĠST AT
Ġnormal ization
Ġb lo
Ġsurface s
ub b
Ġgener ators
ĠCollection s
Ġra ce
\ }.
ĠM enu
Ġse q
x ff
i ar
Ġde pict
pro j
Dis patch
Ġ< ![
Ġangle s
? ?
f ee
Ġdecla red
os h
p le
Ġphot ons
widget s
f m
W alk
D ash
ĠReg ion
Def ine
Ġbound aries
ĠP ower
}) (
the ory
TH READ
back up
Ġsimp licity
Ġreason able
] ));
Ġo c
Ġcon clusion
v ille
x t
Ġconven ient
Bl ue
Ġsem antic
ct ors
) _{\
B AD
Dist ribution
E v
q a
Ġt end
if olds
Tra its
ĠRuntime Exception
Ġimp ly
Ġreplace ment
Im g
Ġin dustry
O ps
TR ACE
o auth
De ployment
Ġth in
Ġjob s
load s
un def
ORM AL
Get ter
prevent Default
dash ed
10 4
B in
Ġtw ice
ĠM a
Ġb orn
I llegal
) }$.
in crement
screens aver
Ġdr ive
Re po
F oot
ADD R
ä¸ ª
× Ķ
ĠN ative
() "
Ġme tal
) ");
sw ift
B I
Ġsent ence
col s
Ġcancel lationToken
HAND LE
33 3
Ġcomp atibility
Ġspec ification
Ġcharacter istics
Ġact ivation
sup ports
11 4
CONT RO
Ġscript s
ĠBO OL
A ws
å® ļ
al tern
Ġcomp osed
Ġf loating
Image View
it t
Get String
m q
C ert
ĠS pace
ĠM art
Ġemp has
ĠSpec ial
-------- -
A v
ĠSim ilarly
n ight
DE V
ĠEn sure
Ġ" </
Pre view
agnost ic
ĠL ook
Ġexp lor
cho ice
Ġexplo re
Ġharmon y
sp ot
Ġelim in
Q UE
ke leton
D MA
port folio
) ";
Ġinter sect
Ġstr ategies
alan cer
ĠWh ite
Ġtri angle
Ġreg istration
Ġamplitu des
S ur
Ġtr ansp
se ud
da c
ĠLe vel
d yn
Comp osite
+ '
G M
ĠP erson
Ġro ad
Ġg fx
ient ific
Ex change
j q
Ġcon tribute
pp ings
\ }_{
ENABLE D
ĠRe lease
Ġkey word
Y P
! ");
Ġdraw n
ĠP at
S lider
Ġjo ined
ĠC ancel
ĠP al
NE W
u z
g uid
FA ILED
Ġside s
] ",
en coded
O RE
he ap
Ġf old
}) =\
$ }}
math tt
M X
ST EM
min imum
ven ue
Ġfour th
ĠSer vices
ter ritory
Ġp s
C LO
ĠS top
Ġfilter ed
Ġu uid
~~~~~~~~ ~~~~~~~~
B lack
B alance
Ġre action
m g
Numer ic
Ġmorph ism
At tempt
ĠCo uncil
K G
N U
i h
"> @
Ġact or
use um
99 9
Ġabs ence
el n
ĠF ermi
STRE AM
) <
id o
ob s
10 7
lect ric
add on
SH A
F s
F W
entic ated
ĠO pt
co verage
Ġe val
ĠP AR
Ġarith metic
ĠCal led
Ġc ri
ĠB ad
ON LY
Ġs uite
b io
en coder
Ġn om
ĠV i
conf irmed
Ð ¹
sto od
Ġcomp lement
und red
ll uminate
al d
Ġf ra
ĠP ay
Ġvers us
ĠL at
query Selector
ival ent
ATTR IBUTE
é ĩ
Ġ\ }
ĠV M
B P
get Context
V A
serv ative
as ide
} <
IF Y
æ İ
igr ations
ĠH elper
Ġra ised
DIS ABLE
R aises
r w
ip ment
C riteria
Ġwindow s
C lock
Ġch allenge
add itional
th reshold
Render ing
Ġjo urnal
ar b
Ġman ually
linked ExternalProject
-> {
' })
ĠR T
eng er
iner gi
h ol
Ġmo ves
Browser Detector
Max imum
log ue
Ġparse Int
Linear Layout
y ou
Ġver ification
ĠR ect
Ġeigen value
r int
ĠH istory
u ity
Sm art
Ġmer ged
ou thern
BO DY
Ñ Ħ
Ġprob abilities
ĠS C
Ġdiv ided
crypt o
Ġw rote
dash board
get s
math ds
Ġ$ <
~ {\
le ave
Ġdefault Value
ĠAdd s
Ne gative
sub title
Ġex cess
Ġdec imal
Ġl iving
ĠJ ames
NO TE
EX P
ĠA li
Ġpro ton
linkedExternalProject Path
l c
Ġturn ed
g able
F ACE
Ġlearn ed
Ġtechn ical
EE E
Ġ) :
ĠIn d
(" ")]
ĠA lex
ĠApp le
SE CON
dic ates
C redential
lock ed
er os
Type Def
Ġv ort
S ol
ĠPres ident
Ġst roke
OFF SET
R pc
lo s
ĠS ort
Imp lemented
Ġa gree
Ġoper ating
vis or
11 5
in cluding
T LS
ĠW ait
ID s
Ġpropag ation
Gra dient
Ġm us
Ġprogra mming
e es
v able
d on
19 89
AS C
Ġanno unced
Fin ished
overn ment
H ASH
Pe ople
Ġperform s
Ġattack s
cla im
Ġro les
s uite
Ġconst expr
Ind ent
Ġbra cket
Ġremo ving
Ġro utes
ĠF rance
Ġs aw
ac l
Ġlist ening
ĠHe ader
Ġemploy ed
Rot ation
Ġconf irmed
ud ge
Doc s
ĠA tomic
Ġpat ients
val s
}} ,\
RO P
Ġback up
Compar ator
S B
scri bed
re mo
ĠÐ ·
ST M
ge om
sub equations
re try
loc ities
c g
ĠL ock
Perm alink
pro x
Ġreson ance
TIME OUT
ĠW rit
Tool bar
ĠEd itor
f lash
STAT IC
ç ±
ĠÃ ł
w ater
ĠM eta
Spec ific
Ġpot entially
ĠD a
la c
lu c
rows ers
ĠType Error
Ġcirc ular
hl js
Ass ociation
Ġan isot
Ġte levision
OP ER
ĠC luster
Ð¾Ð ¼
no ise
Ġ" {
on line
ent ities
Start ed
II I
b en
L T
Ġ{ !
\ .
lo red
Ġco untries
Ġ{ $\
in formation
ĠW allet
Ġrespect ive
ĠB el
ĠC OM
li e
ĠW H
ĠRob ert
1 32
p as
Ð¾Ð ±
Ġpart ially
Ġfind s
Ġassoci ation
w ire
M Q
Ġm u
pol l
=" '
Ġde ployment
ill er
oper ations
Ġpro position
Ġen ables
ĠI II
Ġin ternational
ut ter
S prite
Op code
la d
=' #
000 1
sh ader
clo sure
SD L
jav adoc
Ġal one
ĠSh ort
P at
Pa ired
man aged
x r
Ġto ur
ĠS ample
New ton
f v
erm any
f our
Al though
Ġin trinsic
ĠEV ENT
for um
Ġn ullable
ci i
ĠLin ux
Ġ\ |\
n P
Ġorigin ally
12 4
Word s
Ġfa ther
INTERN AL
Answ er
lo morph
TR A
Ġ) {
ĠAl loc
P N
fa de
Config ure
valu ed
ĠLink ed
ĠC D
Ġle aves
Ġdef ect
c xx
Ġkin etic
Ġroot s
Ġcontinu ed
de comp
Ġsplit ting
lo ose
}{* }{
ad just
B bb
Rad io
) }$,
og en
P lot
se g
Re call
Ġst rip
M ULT
Th umb
jav ase
H H
ell er
s il
ĠF uture
} ~\
9 00
Ġ ÑĤ
ĠOn ce
Cur ve
= -\
al ty
LE AN
> #
l st
;\ ;
Ġdebug ging
C ached
Ġc amp
Ġstation ary
AC CESS
Ġsimilar ity
ref ox
Ġcapture d
pa que
et o
end l
Util ities
Ġp t
Ġdi ed
Ġinc ident
Ġfore ign
g ulp
ce sses
tra ction
big cup
je ctions
Ġin duction
no va
Ġassert False
n ested
IT ER
Opt s
Ob servable
Ġwh om
Ġcluster ing
Ġprocess or
Hand lers
h our
ition ally
leq slant
ce stor
Ġs lide
Ġh align
ĠGL float
pot ential
Ġgeneral ization
ç± »
s ymp
id al
product s
Z end
( %
We ak
ĠRE AD
ph ab
Ġup grade
Ġcirc uit
Ġde ferred
Ġspher ical
Ġre tain
log s
fin es
Ġmot iv
c is
Example s
UL AR
Ġmo ments
integr ation
Ġg ave
Ġre construction
Ġl ens
J ust
Ġs usp
Direct ive
ph en
Al so
div ider
ĠRe p
cal c
EX CE
ĠCall back
ver ity
Th rough
Ġad jacent
Ġconver ges
Cal lable
cur ve
Ġad res
C od
Ġimp l
work space
Up dates
="../../../../../../ ../../
Helper s
å °
Re cur
De cla
ä ¿
0 77
b readcrumb
ash ington
L ive
ĠC OP
B IND
ĠS en
ĠL ocation
Ġr ich
la h
Ġf ul
ĠResult s
C ross
ol f
* (
Ġp b
Ġref ers
ir y
Ġflow s
H o
\, ,
Ġsc ience
inherit Doc
get User
Ġen vironments
M igration
s en
ĠR ight
Ġplay s
Ġappe ared
Ġoff ers
Sta mp
Ġm ale
assert Raises
/ ************************************************************************
ĠH ol
Ġat tract
^+ $
Ġinterface s
h h
}} </
Sample s
S olution
ĠDes ign
ch en
Ġspecific ally
x c
lo v
ĠSet ting
ĠF R
p us
P B
P res
ĠC atalog
vari ants
Ġ/// <
V ars
E mp
qu ark
3 000
V i
loc ations
re dis
Ġli braries
Ġnat urally
ili ary
Ġfib er
N ay
Un expected
then Return
re h
is l
ĠT ex
cat Desc
][ <
F X
re y
block quote
exp ress
P D
ifi able
ĠE ven
COL UMN
;& #
Dem o
Ġdomin ated
Ġharmon ic
IN LINE
or i
Ġposter ior
n an
Ġm al
19 87
in et
sk in
limit er
od ies
Na N
Ġsm art
Ġw ild
Table Name
Ġop am
b ash
Ġvol atile
11 7
omorph isms
neut ral
Ġrough ly
Ġra re
Ġa ws
ĠDist rict
S at
ĉĉĉ ĠĠĠ
ul ating
on om
Ġcur r
DEF IN
TO KEN
ĠF ull
Ġpro tect
Callback s
Ġpro te
Ġla beled
nol imits
CO PY
> ",
ore s
Ġto ward
lat t
ĠSet up
Ġunit ary
Ġcompar able
Ġp ad
rep resent
pa ren
ĠEn vironment
Ġ Ã©
ĠEar th
> @
Ġre jected
Ġ( ((
param ref
Ġ* **
mk dir
un stable
Ġad vers
ne ed
pos itive
at i
Ġpro totype
hib ernate
DE SC
ump y
mark s
Ġar range
ead y
ĠMan agement
SQL ite
OL DER
Ġdecre asing
"> #
at on
ĠS ER
Ġsec ure
16 9
ĠComp any
F urthermore
Null Exception
ĠComp ar
Ġgra du
g ro
ment ion
> =
Ã§ Ã£o
G reen
Ġsimult aneously
lo mb
Ex ist
ion e
inherit doc
ĠG old
ĠR oman
to po
10 3
Ġpur ch
Ð Ł
B ot
Ġle pt
\| ^
Ġke pt
Ġover view
P AGE
ched uling
Ġp lotted
auth entication
ĠD ep
' ><
View ById
h ls
Supp lier
J ohn
Ġâ ĸ
S uffix
$ _{\
h dr
document ation
Ġsyn thetic
Arch ive
Ġre member
Non Null
ĠPo isson
^* _
n f
cu da
Ġtr ust
ir l
Sh ard
ser if
+ -
ed eral
co v
Mut ex
Ġis omorphic
h skip
de tect
V ers
pret ty
Ġst uff
Work space
Ġda mage
F ac
ĠG C
H ard
Ġf ixture
out line
Ġcr ucial
E mbed
rece ive
Attr s
Ġencrypt ed
16 8
FIL TER
Ġfile Name
Depend encies
ĠÐ ±
Ġset Timeout
B IN
D to
Ġsepar ately
b id
duc ation
Ġen semble
ĠExt ension
con ver
Ġident ification
ay lor
R ST
ot or
Ġdig ital
Ġhel ps
Res olution
Ġjav adoc
æ ³
Ġcap ital
ĠL y
LOC AL
k n
Ġcomp iled
Ġarg c
å į
} ")
F H
resource GroupName
Const ituency
in ction
Ġcomp licated
BE GIN
ortun ately
ĠF a
Ġan notations
form ula
call s
s ho
ADD RESS
Ġal ter
CL UD
Ġinterpre ted
Y ea
' ></
ĠCh urch
Ġarch itect
Ġte ach
ĠC up
Ġte ams
ĠA GN
ĠTe am
up les
Ġs ink
ĠDi rac
ĠAre a
c nt
t age
Ġs leep
CLUD ING
iz z
ro bot
se ll
Ar row
ç Ľ
credential s
ĠM E
design er
f riend
_{ [
Work flow
Ġman age
"> )</
ĠS tack
Ġc ulture
_{ -\
Ġ] );
ĠAss ociation
un ion
ĠM ajor
Ġfin ancial
) ];
us al
al one
om b
l ating
er ry
R ound
Ph oto
Ac c
SER VICE
Recorded Vote
13 5
Ġc riterion
æľ ī
ĠB rown
Ġstore s
^ (
å ĩ
get Parent
ĠA ng
ly mp
d id
Ġ' [
Ap J
ĠL ore
ĠS y
Ġinvestig ated
now ledge
Ġbutton s
EQ UAL
P OL
Ġdo cker
Ġdirect ive
erc ise
Ġm it
Text Field
Ġev t
S i
Ġa ugment
ĠW ill
Ġspace time
re ach
match er
Ġho les
Ġpract ical
Ġco variance
User Agent
getElementsBy TagName
Con nected
be at
">< ![
ĠDe v
OUT PUT
Ġ ))
' $.
Ġbound ing
Ġin set
ĠPart y
b ower
B F
r ating
Ġc rash
SE SSION
Exp and
Ġ( #
cap s
Ġdemonstr ated
node Type
ĠV ert
r er
Com ments
ĠH RESULT
Ġdoc s
ĠU TC
Number Of
ad ian
Ġde coder
Ġcharacter ized
Ġcommon ly
ĠH and
hom ology
ash ion
ĠP attern
Ġb ank
Ġim mediate
Ġc f
b an
}} =\
Ġaff ine
I FI
sm ic
el v
Ac cording
St ar
Qu ote
Ġnot es
ĠY ES
l on
W rong
>{ @
Ġserver s
LOB AL
Ġask ed
Ġwide ly
ĠPol icy
Ġide as
ĠR iemann
Ġkin ematic
Ġcomp osite
dis c
Col ors
Ġm irror
Ġver bose
Ġinsert ed
Ġp id
ask et
Ġge odes
Å Ł
Ġso ck
fe edback
ĠĠĠĠĠĠĠ Ċ
div ision
C r
Ġvanish es
Mix in
COMM AND
Ġwant ed
normal ize
CONT ENT
Ġb uy
Ġoff ice
W W
' "
State Exception
s ar
c art
g b
ff ee
] /
Reg ular
Cre ator
Ġextreme ly
to k
ER Y
f ixture
ĠCon nect
Ġsur round
Ġneg lect
Ġpercent age
ĠF I
p edia
D X
Ar n
Ġcheck sum
Ġtermin al
Ġinvol ves
Ġat trib
Transform er
Click Listener
v skip
Ġillustr ated
pa int
S lide
Ġp lots
ĠL and
Ġcoll isions
Ġdiv ision
ch oose
comp letion
Ġens ures
is c
ĠB est
Ġcyc les
Ġp or
Request ed
Ġcent re
12 1
Ġspecify ing
pro tect
19 0
ct ype
Ġeduc ation
Ġse x
dom in
mer cial
LOC ATION
exp anded
IT S
ĠValid ation
V R
am ond
H it
Comp ilation
Ġre construct
system s
es is
as ible
27 0
ĠSing le
ig er
M ost
Ġlo ops
b uilt
er g
Ġor bits
ĠW in
A W
Ġt il
atern ion
( |
+ $
Ġtraject ories
3 20
WIT H
P ad
ĠMon te
ĠSpec ific
Ġl ift
Big l
access or
Ġp refer
Ġ$ ('.
s imp
ĠS eq
tod o
v dots
ĠB inary
Ġdec ays
ST D
Ġact ing
Prob lem
({ },
source forge
Ġ ));
host name
Code s
current Time
Ġnon zero
c riteria
fra ction
ĠP et
flu x
ig rate
Ġassert ion
ell ite
Id le
AT IVE
ap k
en ant
Not es
fil led
Ġfoot er
ge l
un ix
lomorph ic
iv o
Ġsegment ation
FAIL URE
ĠP lace
E B
le et
ra s
Ú ©
T ON
Ġdiver gence
Ġnormal ize
Ġle s
Ð°Ð »
S ys
| =
Ġunder stood
~ (
ot er
%%%%%%%% %%%%%%%%
ä¸ į
Content Type
let ing
unit Pattern
' </
() }
we ather
allen ges
Ġb ridge
"> :
Ġcomb ine
not in
ab y
j dbc
Ġwork ers
G esture
ĠĠĠĠĠĠĠĠ ĠĊ
Ġiter ate
Q A
V D
ĠConst ant
Ġindividual s
ĠD NS
ĠG O
it an
Ġclean up
% );
Ġperturb ations
Ġlist en
u ction
Ġ ill
Ġcho fer
spec ified
s amp
lic es
="../ ..
Pi cture
ĠH a
border ed
output s
Ġpers pective
Ch rome
k k
)} _{\
F M
Ġrun ner
RE SOURCE
aw ait
List s
Ġ[] *
pe ople
Ph aser
record s
Ġrep lacing
Ġparent s
Ġve hicle
Pro ducer
class v
Ġg old
Cur rency
Ġplas ma
Ġt urbul
Ġguarante e
NE SS
sub stack
P TR
sim ilar
ĠS Y
Serial ize
b olic
ĠP ers
lim ate
Byte String
Ġattemp ts
r n
ĠP erm
max imum
ta p
\' {
ĠF ire
Ġin fer
ĠT ensor
form ing
Ġap ps
Ġleg al
MPL ATE
depend s
Ġme son
EN S
Ġaccount s
ĠWilli am
sp ital
ĠA no
Ġd ummy
Pub Key
ĠT witter
Ġlo gs
Ġemp irical
Ġgrant ed
entic ate
)-- (
ap ed
Ġactiv ities
Ġco uple
c ritical
" <
Ġc at
ĠCheck s
Get Value
ĠC ONT
> *
ĠB ox
de leted
MLE lement
ĠAct ivity
instance s
read able
Ap is
. ')
ĠF il
. },
æ ŀ
Match ers
Al location
Util ity
Ġpres erve
Pos itive
k top
Log ical
keyword s
Ġâ Ĺ
at z
ĠD oc
O VER
direct ive
hand lers
ĠCOP Y
N ORMAL
ution s
Min imum
Right arrow
ĠM ove
k ern
") ).
Ġpul se
Ġst aff
ĠP latform
Ġm ission
Ġla ws
ĠA udio
ĠSt ar
n v
re ject
ad or
C ACHE
E ar
C at
CA SE
O s
ol ving
Ġve locities
Ġsp irit
ĠW ord
Out come
Ġq view
Ġbg color
On Search
Big r
Ġset t
Ġ' )
ĠCon troller
Ġst abil
Ġg ate
ĠM il
as p
Ġch ance
s uffix
ĠPa ul
ĠF ont
Ġarch ive
q r
tr on
ride s
Ġr v
Ġdot ted
3 50
has Next
str ategy
Ġaspect s
q s
g res
æĹ ¶
Ġun set
11 8
Ġnumer ic
bound ary
Ġcon e
s uggest
Ġl hs
Ġabund ance
luc ene
ĠO k
Ġne arest
åľ ¨
Ġparame tr
REQ UI
ĠC ategory
ĠTho mas
be havior
ĠM ov
:// $
Print f
Ġle ader
ĠDe pend
Heading Color
Ġclass ifier
12 2
Ġa w
Ġstart up
Ġexec utor
ĠP M
rot ation
it el
ĠM obile
Ġtrans mit
Ġinter ior
tri ang
Ġex tern
form atter
f ar
Ġ* _
R F
writ eln
corre lation
T CP
ĠM I
Ġâĸ º
contrib s
}\ ;
Ġindependent ly
10 6
Ġtrigger ed
DI O
Comp ile
Ġobtain ing
L U
m os
av g
ĠArray s
Assert ion
ĠMark ov
] ^{
WIN DO
Ġsaf ety
ĠP ART
child node
ar ound
For Key
ĠDefault s
re vision
ĠE st
ĠDe ep
conn ector
Ġin tern
b n
Ã º
19 86
R ew
script scriptstyle
Ġver ified
q t
' ',
fin ement
; ;
ĠHash Set
par s
Ġcal c
Ġ{ :
v ia
SY S
v v
Ġconst rained
ĠF LA
ĠÐ¿ ÑĢ
Bo ard
ĠâĹ ¼
= (\
ĠU INT
"> .</
rupted Exception
Rect angle
an es
Ġcost s
ĠA P
Ġhy brid
F lat
ĠAno ther
Ġad vanced
ugh ter
ĠA ST
ĠB en
} ',
] ):
Ġf la
nt z
Ġle x
ros copic
B G
d up
Ġb id
char At
AR GS
Ġsp ot
Ġreference d
gl igible
b az
pp le
Z ip
). </
T ax
weight s
Ass ume
Ġbook s
In spector
ĠC ast
ar ial
Ġse p
Ġstrong er
Ġco pied
At Index
bra cket
Rep resentation
Ġh um
Ġpower ful
Organ ization
Symbol s
D TO
Ġdis covery
Or g
ĠT om
11 11
g al
EN C
ç½ ®
l v
10 8
j as
pt s
ss h
app ing
ĠG ermany
Ġ" \"
Ġdirect or
Vis it
Ġretrie ved
Mar shal
& $
co ordinate
ĠS IL
Ġnumer us
Thread s
h c
EN SION
and atory
ex c
vis ual
0 200
Ġ* =
Ġweak ly
z o
Ġport ion
PO SE
Âł Âł
Ġintro duction
Ġt ight
l its
im ately
ĠR ule
'' '
6666 66
R X
List View
Ignore Case
% ">
ĠB SD
Ġwork space
Mod ify
no v
Ġconnect ing
ĠPro tocol
VAR I
Target s
ĠE v
ex e
ĠD ir
itor ies
. }\
ĠExec ute
Ġinfin ity
Ġc d
ĠL ou
or bit
IC ATION
le ading
be cause
e asy
? .
de gree
e ction
oper ating
ĠG ood
Ġ ^{\
A Y
Ġsub str
Ġh undred
Ġtab index
ĠS i
Ad just
Ġp apers
Ġst ock
Ġm illiseconds
oss ible
he alth
ĠU ri
c le
Ã ±
initial ized
g allery
ĠGe orge
Î ¯
ĠS DL
ĠUtil s
Ġdis joint
Ġlength s
( ',
app ed
US B
Ġ ].
å Ĩ
}} )$
ic ing
enc ing
real m
Ġre covery
'] [
MO VE
di gest
Ġun able
As String
Ġcontra diction
S PI
Ġpeak s
Ġmov ie
at tachment
Comp atible
ĠCh ampion
Ġima gin
over set
ĠV ideo
P ie
ĠA ward
G A
20 1
on ym
Ġ{? }
AL LOW
N Unit
Ġo mitted
Ġdesp ite
u j
ul se
ĠT yp
ĠN GC
her its
"> $
ext ended
node Name
30 4
$ --
Ġman ual
ĠObject s
================ ========
19 85
war ded
n uc
Ġ' --
ĠM usic
ĠBit coin
. {
Ġp lain
cent ric
de ps
Ġsw ap
al ways
Ġtrans formed
Ġdiscuss ions
Ġes cap
ĠF i
proto c
Ġre ward
K nown
å ½
IC AL
Ġelectron ic
19 84
Ġrecogn ition
ĠMET HO
) |^
o ol
Ġsome what
etic a
Ġcal ibration
Code Attribute
ĠCh inese
ĠPro b
ĠV ir
user Id
Writ able
w ho
Ġ@ {
Ġconcent ration
ĠH AVE
Ġb uffers
Ġleg acy
æ Ķ
un icip
Ġelse if
Ġperiod s
ĠAn alysis
h ang
el le
ist an
Ġpas ses
sm ooth
re lax
ĠP en
Lay ers
Ġhim self
S dk
ĠThe ir
ĠPro file
Ent ities
i ment
Ġboot strap
' ",
M icro
s cheduler
es lint
cons ider
H EL
' )$
Ġindic ator
SH OT
Ġrepresent ative
Å Ĥ
requ ires
ĠExample s
Ġpro ducer
Ġclose ly
P DF
F un
) |\
ĠSh ared
è ¦
Ġun stable
ĠVis ual
ĠRo ad
ãĤ Ĵ
Ġ} {\
unt u
Ġm ilitary
Pol y
Ġla zy
type Name
t ls
ss or
Ġmechan isms
Ġc av
é ¡
E OF
es ides
M N
T OP
Ġappear ing
ĠF low
ĠEn try
jo y
pre dict
ĠE uclidean
1 19
OL D
P LA
go als
on a
Ġmultip lication
ver al
Pro jection
cap acity
bra ins
CLU DE
æį ®
UB LE
ME DI
CUR RENT
Ġim m
rest rict
U psilon
)) :
Ġpol l
Ġclo ser
ed ges
Ġregard less
Ġp owers
d al
Ġpriv acy
Button s
ĠG PU
BU F
Ġdis covered
ĠE very
Ġsub sets
Qu ick
' }\
ĠÐ ¼
Ġp ng
ĠInitial izes
L F
UNK NOWN
itu des
C ent
Ġf printf
Ġr pc
ĠSE LECT
limit ed
" \
Ġtool tip
/ :
uff icient
ĠNew ton
d ns
v k
Ġfall back
Ġsub section
work flow
Ġla ser
Ġ um
ro utes
ĠĠĠĠĠĠĠĠĠĠĠĠĠĠĠĠĠĠĠĠĠĠĠĠĠĠĠĠĠĠĠĠ ĠĠĠĠĠĠĠĠĠĠĠĠĠĠĠĠ
mal ink
E MPTY
res olver
- %
al ian
Ġs peech
' $,
)= (
13 6
Ġmatch er
alloc ate
Ġis o
Ġlinear ly
ĠTH IS
Ġwarning s
11 3
L IMIT
group ed
H W
FO UND
Ġpre par
Dis pose
Ġentire ly
w ers
:: ~
in cre
pro port
graph ic
start ed
AT T
ĠSm ith
H ar
CO RE
elect ron
Art icle
ĠPar ser
peri ments
pa use
Ġm igration
ĠB UT
Ġma ch
Ġpro mpt
D on
ent al
Or Empty
r hs
ĠSt atic
A mazon
mit em
Ġs ends
Ġis olated
Ġproject ive
Connection s
K S
Ġo ps
tr ansparent
80 80
LI ED
Ġfa ult
D NS
Ġcould n
XXXX XXXX
cess ary
Ġes lint
3333 3333
ĠMich ael
"> =</
Î º
sing leton
g ateway
Ð½ Ñĭ
ĠW ARNING
p ane
2 64
Ġaggreg ate
am ar
åı ĸ
, ~
b uffers
{ [
Ġd war
00 3
est im
Ġ{ {\
Out Of
is en
ĠW ashington
ĠJ aco
Ġt ip
), (
ne ighb
sec utive
Ġt old
GR AM
Ġs cheduler
- }
Ġce le
Ġpro c
omin ator
Ġsh apes
Key words
serial ized
ĠM L
B H
Ġpresent s
Opt im
Ġse g
Ġanalog ous
Project s
Map s
sp arse
Ġcover ing
Ġintegr als
ph ot
Ġh al
10 9
" ):
o ma
FUN C
Fatal f
is y
ar ian
ĠT i
Ġfor ced
Ġsubstant ial
e very
k h
d g
ĠB ob
LE X
n x
ĠF urther
Ġresource GroupName
CP P
oo thing
30 1
ĠC ard
Ġpri mar
Ġaccess ible
Ġalign ed
Ġbirth s
man ual
Not ice
Ã ł
ĠIndi an
& -
ĠT ur
C XX
ver sed
list eners
Ġimplement ations
cord ion
View Model
tt ify
compar ison
) ](
Hash Set
Pi pe
Ġn an
Ġde mo
Ġscal ed
Ġwork flow
% .
pre ter
ĠI C
pro logue
}, {\
ï¼ ļ
qu iring
ch ars
tw ig
ĠT w
Ġg a
ac cur
ro les
}) _{
Ex tract
Ġb rowsers
D ays
; "><
ĠC orre
Ġstream s
bur g
Ġs en
US Y
auth ors
mit ives
ro ut
Ġe lastic
Plugin s
super vised
Ġvi ct
constraint s
Ex tent
ierarch ical
Ġ[ (
u is
Ġin spect
Ġcirc um
h ill
loy ee
Ġformat ted
SN AP
as i
Aggreg ate
Ġ@ @
if er
Ġinstall ation
View er
Ġne ither
Sort ed
Ġcollection s
Ġhe ap
ĠD er
pre dicate
Ġg oog
Z Z
expect s
0 12
M U
v t
}) -
The y
Ġbrief ly
mock ito
Ch ars
ĠC NN
Ġv illage
ĠN ormal
can onical
Ġs po
ĠS ite
~~ ~
Ġoptim ized
ĠT ypes
Ġde velopers
In crement
Ġre ly
C AT
od a
me mitem
Ġcomb inations
sp lice
ke eper
> }
pub lisher
Ġcenter ed
pr inter
se en
re load
get Node
ĠMan ager
Descript ors
ĠS G
PRE SS
}\ |
ab ort
ĠCour t
ĠS al
ular ity
Ġf lavor
View port
è §
z i
Ġform ats
El se
organ ization
v b
Ġg ray
En cryption
Ġsome one
A dapt
Add itional
Ġsample d
Ġar ise
ĠT ri
Ġbos on
14 7
center line
h ub
respect ively
Ñ ī
g ol
Ġup dating
Per formance
Hash Code
Ġc le
Ġanaly tical
script ors
ab ling
ĠP layer
list item
Ġn umpy
Git Hub
urn ament
ĠY oung
P ull
Ġli quid
parse Int
Ġcomplet es
P lus
p ure
Dis covery
coup ling
Ġt angent
ĠRe v
B uffers
ĠJap an
Comp any
Ġcla use
An alyzer
am in
Char Field
per missions
Ġb on
ĠIn tent
Ġx hr
ĠFact ory
Exp licit
jet brains
p ow
ss on
b z
Ġconven ience
M AT
Circ le
Q T
ĠA m
Y es
is ons
Phys ical
h en
ĠL ight
per m
Ġd uplicate
cent ral
M gr
Ġb ul
ro zen
Ġsuper conduct
Ġobserv ables
an c
Ġput s
s ites
In ventory
Ġcirc les
Ġkey board
U uid
ĠU UID
Ġte le
Ġorgan ized
g pu
Ġch rome
serial izer
C he
W M
Ġchar ges
S pring
lic as
my Item
Ġrespon d
ĠSty le
ĠC r
SE D
De leted
Ġdec ided
b uiltin
iline ar
p ip
i y
od o
Ġsh arp
ib ilities
ä¸ º
les cope
Ġepis ode
p ite
h it
un tain
y ield
pop over
Ġdriv ing
ĠS em
m ne
ĠN ever
ĠQ uest
as ource
un ched
ĠE mpty
ĠH H
7 68
Ġe mb
ge m
Ġf riends
Ġf lash
rece iver
Ġinter ference
Fin ish
lu x
Ġend points
ĠPo inter
Ġ" *
- "
get Path
Ġcal endar
Î ³
mathbb m
Ð½ Ð¾
f h
ĠJ ose
Ġlet ters
host s
Ġhom ot
ĠĠ ĉ
D uring
oid al
Ġdis sip
20 2
ĠL E
con sumer
ren a
T ech
g ency
Ø ³
Ġinf lation
PHP Excel
p is
Ġref id
O Auth
ĠM D
eng ing
Ġro uting
> ");
c ms
Ġg i
Ġconvent ional
Ġ{} ",
m ixed
Ġdriv en
Ġle aders
}_{ (
M a
ch itz
Ġb al
C op
Ġexhib it
Ġfraction al
> ")
be am
G ed
Ġsh utdown
ACT IVE
wik ipedia
ĠUS B
Initial izer
VER TEX
\, .
Trans actions
ĠJ er
Ġsupp ly
Sh utdown
Action Bar
to Array
So ftware
Ġrepro duce
ut ch
Ġs chools
Ġb log
Ġhost s
ĠM ass
}} }{
ow ski
Ġmon o
Ġde formation
ap on
? "
ĠB a
licen sed
t ically
ĠEx pr
Ġthan ks
ic ed
is olate
Rest ore
er vation
de sktop
ĠA M
Ġquot ient
Ġ$\ |
DE CL
Ġwrit es
Ġ\ #
E scape
ol ves
Ġco smic
Ġnumer ically
S uggest
Ðµ Ñģ
Phys ics
Ġassume s
Tool tip
par ame
her ence
Ġplatform s
Ġstruct ural
Ġalloc ate
sc atter
Ð¾Ð º
Ġres ize
Ġfilter ing
UT C
Ġamount s
add le
Ġserial ize
x a
Conf lict
g ls
lect ic
ĠA DD
Ġun lock
Ġcorrespond ence
est ival
ate ver
V ol
Inf os
B alancer
sp y
ĠV e
^- $
ĠEd it
ar ations
tra cker
Ġsc ratch
y ellow
ĠMe V
is EqualTo
Ġen cour
u pt
Ġde duce
math comp
Ġmed ical
Ġle aving
Ġc ro
W IDTH
ĠI Enumerable
Ġanaly zed
Imp licit
Ġschedule d
Serial ized
} ],
moz illa
Ġc red
C our
Rem oved
Ġcorre lated
Ab s
ÐµÐ ´
Ġ' ');
ĠReg Exp
Ġexc ited
ne ar
ĠL ap
) `
do or
h ooks
Ġs printf
Ġdi ameter
Clo sure
ĠF ake
rf loor
Ġv oice
ĠW idget
ĠAn ge
it ud
ĠArm y
ĠP OST
ĠLe ft
Ġ labor
)) $.
ins pect
om ation
Ġpresent ation
Lin ux
ertific ates
S ibling
Ġb ars
Ġsymme tries
am an
AUT O
ir q
sort ed
udi ence
Ġcho osing
Ġqu ote
n om
p ing
is a
sh utdown
Ġ[ `
Ġ$ [\
alax y
Ġget Name
x FF
calcul ate
K eep
Ġend l
ĠIn sert
S n
un s
Ġ= =====
ĠS PI
}. \
)} =
HP P
SET TING
Ġst eady
Ġpoint ed
Ġfig ures
S IG
Package s
re comm
Un ion
ĠG uid
Ġacceler ation
ĠS R
Ġpi pe
li ers
') [
Ġsee k
Ġpe ers
Ġgrow ing
start sWith
Tab s
S ens
b ias
r ss
Ġglyph icon
Ġo w
}$ ).
H ierarchy
h olds
ver ts
SY STEM
mid i
syn opsis
Ġf oc
ellig ence
Ġb re
e th
) !
get Int
19 83
Spec ification
re ater
> {{
"> {{
Ġse d
L uc
}| ^
ĠIn clude
Ġ} }</
elv etica
r ical
lf loor
the ses
Ġbene fit
Ġdetermin istic
Vers ions
Ġcol d
Ġexcit ation
op enc
Ġinterpol ation
Job s
IN X
Ġn k
y er
ĠM any
ĠU TF
RE C
ma ph
ĠCon f
R a
set Name
ĠG T
start s
al ter
DEF INE
A ge
P an
Ġss l
Ġcancel lation
p q
Ġcla zz
ME TA
Ġun safe
Ġpre ce
ro uting
per malink
Ġw ants
Foreign Key
under set
ĠDe velopment
Ġbe an
ãģ Ļ
: ",
fold ing
Ġpie ces
ĠApp ly
Get s
ĠB H
un icode
ĠĠĠĠĠĠĠĠĠĠĠĠĠĠĠĠĠĠĠĠĠĠĠĠĠĠĠĠĠĠĠĠ ĠĠĠĠĠĠĠĠĠĠĠĠĠĠĠĠĠ
Ġd ra
sat isf
Un defined
Ġlog ged
Ġch all
scal atest
ĠSQL Exception
$ (\
bur st
ĠThrow able
reg istration
Q R
ĠUs age
lo ut
k u
F ixtures
t z
ĠD ue
ĠS il
Ġrece ives
S ensor
m otion
EN UM
Ġindex ed
User Id
Re view
ĠAfric a
æ Ŀ
Ġview port
Ġ<!-- [
chrom ium
A ds
ĠH en
mis c
est imate
Sim ilarly
Ġ'/ '
Ġnear by
t re
add All
ator ial
ig uous
Ð°Ð º
====== =
Ġt rend
Ġr t
Ġpop up
Ġpartition s
++ ]
min or
Ġcap abilities
m ation
Channel s
ĠIsl and
r te
Ġsuff ices
pert urb
y o
azel cast
ĠCO MM
Ġc line
dic ated
Ġre write
ĠA V
Ġl n
Ġ` --
}_{ {\
CHAN NEL
' =
ĠS afari
u ing
To Array
ĠD ialog
id ad
ĠM ode
ĠRe place
Pro pagation
ĠDirect ory
% )
Ġ" __
Ġexp os
Ġdro pped
cell designer
pol ar
G uide
Ġformal ism
Buffer ed
z illa
\ ",
Ġ$ $\
callback s
ĠF ast
cre ens
lear n
ul ner
**************** ********
f ortunately
Ġult ra
Range s
ok ed
Ġstr len
spher ic
Ø§ ÙĦ
ĠH elp
: ]
Ġcool ing
ĠBl ue
al ing
Ġin duces
user Agent
=" .
G LOBAL
Ġcon vention
Ġax es
Ġdis ap
bib li
Ġf re
Ġchain s
CENT ER
ĠC lo
im it
r idden
on o
ame l
n ullable
as cii
reate st
l hs
st ation
ĠCent ral
ĠM ER
ĠWil son
ĉĉĉ Ġ
el if
Ġst ages
Ġtri al
IL L
Ġder ivation
P s
Spec ify
ĠB ody
Ġkeep ing
Ġt abs
Ġd w
Ġdise ase
In herited
Ġon Click
http Request
dev ices
Ġord inary
SNAP SHOT
n ic
Ġf loor
ĠC ath
Ðµ Ð»
[ @
ĠG od
exec utor
con j
L ANG
ust ain
ĉ ĠĊ
Web View
Pr incipal
ĠV ol
end ant
Ġ[ &
Ġmo ther
Ġr ating
Y ES
li braries
assert That
ance led
\ +
ced ures
ĠOff ice
Ġc v
}} -
SP H
}} }$
pos able
Integr ation
Tree Node
D K
ĠB ur
Ġ} $
ĠS mall
ow l
com mun
So ft
Ġs un
set Property
d ue
ĠM B
}= (
Ġb urst
app y
Ġth umb
Ġf ight
ĠA cade
ru it
Ġres id
17 0
Ġ\, ,
Ðº Ð°
Ġro ck
On line
n am
Ġch urch
Non null
Data Set
er gy
f ork
' }$
ent y
irc raft
ren ew
Ġpat ient
Ġcon servation
Ġlock ed
ĠA DC
DE SCRIPT
Ġentang lement
ĠR ES
= _
sh ake
ĠSV G
Event Type
________ ________
Ġlocal ization
r p
") ),
Ġdestroy ed
CCCC FF
Ged mo
Ġsh ard
phab et
u ke
IT EM
ĠRes erved
Require ment
G rant
E val
Ġsh ip
Ġra il
B ecause
ĠW ay
Re peat
ital ic
Ġf if
ĠD rop
Ġrecur sive
Ġcar bon
Ġcon crete
ips chitz
db pedia
ro unded
Ġin variance
od ay
Ġb s
ĠPerm ission
Ġex posed
la zy
ĠC ross
ĠU int
Ġc ult
it ter
ĠLIMIT ED
ĠGit Hub
Ġapp oint
prov ided
Ð ±
ip art
A tomic
ma ch
ĠF oo
ĠD ES
Ġ"/ "
pub lished
Ġ ----------------
writ ing
Ap ache
TH ON
Ġv on
Ġexclude d
Ġvanish ing
Mac ro
lef trightarrow
[ ^
ĠSpec ifies
Å ¿
UR POSE
comp any
Ġ' ;
n el
ĠT imes
ĠA ff
up edia
display math
ĠS uccess
pro mpt
Ġpar agraph
DE C
ra ck
> ]
Ġv a
Ġ\ :
ĠLore ntz
Ch oose
f re
evalu ate
as ion
dec imal
cell s
dif ference
t ow
< '
comp atibility
pr ising
Ġclose st
Ġconduct ed
c am
Key Value
onal d
CT RL
default Value
Ro les
ĉ ĠĠĠĠĠĠĠĠĠĠĠĠĠĠĠ
ĠRe ce
). }
D ocker
Ġg uid
Ġgr and
Out er
Ġleg end
ma ker
DI V
}( -
ten ant
1234 567
ee ded
M ajor
Ġas sets
Ġco herent
Ġpotential s
N s
Ġband width
ĠM achine
Ġreal istic
} &\
DI F
Ġb eta
typ ed
Al tern
fore ign
Bro adcast
ial ect
Grid View
Ġsto pped
Ġb udget
Ġclo sing
Ġ lab
ĠUn supported
Install ation
usp end
Ġrelax ation
>> >
ĠSh ape
/* .
iv ari
ĠI V
S ym
US H
SE C
ĠI r
Ġm ysql
uc c
ab i
:: _
IC K
v irt
ag ers
Ã ¸
phys ics
Ġpl ant
Ġpro fessional
Bound ing
IG H
exp onent
Sec ure
ĠG R
Ġweek s
ident s
h icles
ĠCar lo
j vm
ĠE instein
ll vm
Ġinv ocation
Ġab c
K HR
Add resses
ĠBe fore
Enumer ator
y our
oid s
ce an
Ġsh ader
19 82
Ġfa de
ĉĉĉĉĉĉĉĉ ĉĉĉĉĉ
Pr inter
Ġne ur
LE ASE
ul y
op eng
contin uous
Ġbro ught
p mb
Ġvar char
ĠIn fo
or row
Diagnost ic
Ġs uffer
') \
Ġb b
ĠC UR
Inter action
Ġproject ed
bl ur
ĠNot ice
opt imal
de coder
ex change
Ġcon jecture
Ġdef e
= {\
Ã ª
Ġdrop down
FE ATURE
Ġc lin
Ġf ired
x hr
é Ĺ
IN TEGER
Al ready
out ube
Ġsh a
Ġget ter
Ġtherm od
ĠFrame work
moment um
T W
lik ely
x si
Ġaverage d
ĠM IN
S CHE
\| _{\
Ġitem Members
Ġillustr ate
M ime
ĠC ell
St roke
S ING
Ġlat ent
Ġthe ad
@ {}
Ġf irm
Me an
et ched
Aggreg ation
Ġb ins
Ed m
ib er
fin ity
ome ter
Ġelement ary
T ASK
Or d
Ġfore st
f ish
ĠVAL UE
Ġgo als
Ġ$- $
S inergi
ĠDi agnostic
Ġd yn
ĠPy Object
G lob
ĠW IN
Ġun expected
M irror
Str ict
H er
Dir ty
Ġ? ></
213 077
ĠRecord s
quant um
P F
Ġnorm ally
p w
TERN AL
Ġre interpret
' ^
ER ENCE
ma ils
ĠM ary
der iv
root Scope
ÐµÐ ¼
00 4
ĠE uler
ov es
k b
ĠP ush
ĠExec ution
Ġal le
Un supported
IS O
Ġp late
S HO
ĠO ld
× ¨
Ġover lay
correspon ding
Ġpost s
Ġh ooks
ĠSc ott
Ġpack ets
L ab
ĠĠĠĠĠĠĠĠĠĠĠĠĠĠĠĠ ĠĠĠĠĠĠĠĠĊ
SUP P
Ġwh itespace
inal ity
er ase
AR M
spec ies
Ġco vers
com merce
U tf
ĠT E
Ġi put
Ġe th
Ġco in
J NI
Pol ygon
20 4
Evalu ation
Ġdis cret
ĠProp Types
ĠF unc
at trib
ĠDis able
L azy
in vert
Ġindex es
un ed
Instance State
G ood
O O
collection s
Ġview ed
Ġdiagnost ic
é Ļ
Ġr id
}} +
Ġinvest igation
Ð¸ Ñģ
Ġmin ute
ad ic
Field Value
level s
Î ®
Ġper mit
rece ived
pres erve
Contain ers
g as
b idden
Ġ ------------------------------------------------
big gr
(" ./
see k
get Item
Ġchall enging
Ġ licensed
Ġbreak s
di a
}\ }$
Rep orter
Q Name
ĠTH REE
Ġp m
ĠS TD
Ġcomb ining
g un
× ľ
Ġ( &
Ġoff sets
(" {
14 3
st atistics
Ġre vision
ĠP C
Ġproof s
Ġconcat en
link col
Ġ' *
Ġsearch Box
ic ago
ĉĉĉ čĊ
Ġp itch
Mar shaller
miss ible
ign ite
status Code
ĠE ner
b anner
es sel
comp ressed
CH ANT
prov iders
OB J
ĠO ffset
clean up
da o
ra ises
CK S
ĠRE ST
comp uter
Ġmod ifications
Ġmathematic al
co cos
Ġown ed
get All
Ġun icode
Ġserial izer
i ate
ĠE D
match ed
Interface s
æ Į
Ġe le
' (\
W ire
Index Of
Ġst mt
Tri m
ĠLine ar
ĠD WORD
Co verage
Ġprimar ily
ig a
util ity
T or
ÏĦ Î¿
havi ors
CON TEXT
ĠQu ant
ĠP i
}}\ ,
Loc ations
gra ded
filter ed
$ "
and a
PR INT
B etween
W arn
re pos
Import s
L ex
Decla red
Ġv ote
' -
ĠAustral ian
ĠI ss
ov y
ĠC lean
Ġlif etime
Object Type
3 75
Ġm i
Qu ota
Ġtable Name
Ġp ip
ĠH aw
l ife
ctx t
Ä ĥ
Ġdr ug
Ġhyper bolic
Part icle
Ġguarante ed
re start
T ho
Ġbegin s
Ġco homology
big skip
tr unc
ĠD R
Ġdist ort
Ġmap per
one percent
Act ual
ĠMETHO D
con tract
Ġs z
Ġfit ted
Ġc utoff
ĠM aterial
us b
ĠRem ote
thumb nail
Ġrout ine
Ġs pend
ĠT EXT
Up grade
w ant
urch ase
bit map
ĠID s
($ \
Ġreli able
B and
Ù ģ
ĠR ights
tra its
ĠRem ark
Ġgeneral ity
ER O
Ġal i
AD ER
Ġg ateway
ĠP an
s ively
on gest
P referred
F old
ĠM us
Ġdel ivery
r k
t u
ad os
ĠO lymp
Ġ\\ [
Fa ult
19 60
ĠS ociety
(' -
Ġge o
L M
un checked
Ġcyc lic
)\ ,\
at ivity
] _{
ĠB U
Track ing
Ġe ig
ĠM ex
ĠG reat
RA W
b v
b rowse
ĠDe veloper
Ġsitu ations
Ġb ench
o ct
od al
B usiness
Ġ ic
ic ian
ĠOpen SSL
In ternational
id i
Ġk o
V P
key board
E very
}} /
ĠT own
Definition s
err no
Ð½ Ð¸
ĠV ER
mark down
ĠRe call
Ġenhance d
ĠF ore
ĠB C
ĠCon tact
Ġmar ried
^ +\
Ġ Ñĥ
Ġs ans
ĠTrans form
2 30
ĠFIX ME
ĠT aylor
ox y
Access ibility
ĠU SA
big gl
ĠT itle
Ġ" ]
Ġdraw ing
Quant ity
Ġpers istent
ĠConst ants
Ġch allenges
g ms
Byte Buffer
ĠFunction s
F ollowing
Ġper haps
umul ative
k le
por ation
ĠAc cept
/ ><
Ġpro tection
M otion
V ED
min i
am ous
Ġpl anning
Ġne gligible
Ġradi i
Ġmetall icity
ĠTex as
W T
Ġ" @
home page
Ġpol ice
15 2
/ ',
act ivation
LA ST
, %
å Ģ
k v
Ġc pu
Ġch at
Ġinst ability
BU FR
SV G
aw n
Ġsub tract
server s
ĠD at
SH ORT
Ġclip board
per formance
ĠCO VID
ON ENT
Ġimagin ary
Ġre sc
Ġtranslate X
ĠDo es
ĠSk ip
Ġin j
assert Same
Ġpermut ation
17 5
Ġbranch es
ÑĨ Ð¸
Bo th
ĠD C
Ġad vert
QU ERY
the ast
Ret rie
ĠO fficial
Ġshe ar
it ors
//////// ////
æķ° æį®
" })
Ġg amma
Ġvalid ity
fe ssor
Object Meta
Ġa pt
Ġw ife
Ġreach es
ĠP URPOSE
book s
f link
2 11
user content
ĠT uple
env ector
Ġad mits
Ġvis itor
i el
gre y
Ġrelat ivistic
Ġcomp ress
Http Servlet
Ð°Ð½ Ð¸
Value Type
auto ref
vert ices
YY YY
f ort
Ġ{ *}
PE G
Ġvari ants
Ġsingular ity
h ist
ĠMet adata
Ġexam ine
AN Y
Ġ' ../../
Ġsh ot
it ness
19 81
Sc anner
sub menu
Sw ap
CLA RE
Ġf usion
Ġqual ified
}^{ (\
ĠCO MP
40 1
A ML
Ġart icles
et ter
Pre c
ĠBo ard
Ġen ded
Ġc redit
Ġt a
V m
Ġas ynchronous
j p
uit ar
C ycle
Tra cing
> ?
Ġtranslate Y
ex clusion
Ġg uess
Ġcomput ations
4 000
symbol s
indic ator
IT NESS
Y LE
ĠD MA
Call er
ĠDiv ision
M ARK
class List
Ġbox es
ĠB ug
Le ss
IM ARY
PT S
k r
mon o
Ġoscillation s
la pping
ĠD if
Ġu v
Ġn ice
pair s
d ip
ĠCl ub
Ġp seud
Ġre use
ĠJap anese
Ġsurround ing
S coped
T rip
ĠR ock
Temp lates
Ġqu arks
Ġrelation ships
ĠK e
(" _
K ER
Ġhe av
Ġassert NotNull
Is Valid
Ġcontain ers
Ġf ashion
ĠA F
draw er
er ate
ver aging
20 3
aaaa aaaa
Ġremain der
Corre ct
ordin ator
Ġauthor ization
Ġle ak
Par allel
qu et
Ġo prot
Ĺ ãģ
col l
16 5
Ġs f
p v
stream s
M ATCH
col One
ou ch
Ġaux iliary
G ap
fin der
Condition al
Ġanom al
Ġbit map
maph ore
d ense
st ellar
>: <
Ġcross ing
Ġuniqu ely
A tom
Ġreg isters
il ly
Ġ\ '
fa c
ĠK eep
ost ream
MA IL
Ġcryst al
ĠBe gin
Ġf light
Ġaccept s
S parse
ĠIn ternet
V K
Display Name
Ġse a
dis crete
C redit
RE SP
ĠSpecific ally
}$ $
f ixtures
CharacterOffset End
CharacterOffset Begin
Ġface s
Trans late
Ġformu las
COM PI
v id
Ġ ice
:: __
Ġstd out
l ighter
Ġh istogram
sh rink
DA O
sh ard
Ġback ward
Ġr b
List Item
è¦ ģ
comp at
ĠG NU
ĠRo yal
Ġferm ion
ĠWIT H
inger print
4 50
Ġin ferred
Ġ" ../
null ptr
UN IT
ĠR EQ
Result Set
s ynchron
Ġ' :
Ġare n
Th ree
Ġdetermin ing
Ġtop ics
ĠP A
W D
Ġl ives
MEM ORY
Co ordinate
Exception s
Ġs ongs
Ġ' __
Ġdirect ories
tp l
Ġn ic
ĠBase d
ĠD ig
Ġat tachment
Un icode
Ġsepar ator
air s
ì Ŀ
ag ram
Cla im
ĠJ OIN
ãĥ ³
Level s
pr ule
PO M
ĠOr gan
Cap abilities
SR C
Ġferm ions
i pt
sub net
C artesian
v y
Ex act
align ment
Ġt ar
ĠD ynamic
Ar c
with in
tra ined
Ġp kg
Ġd il
ĠChrist ian
est er
ä ¼
LE T
Ġparticip ants
FORE ACH
Ġexce ed
Ġimp ossible
Do es
min al
åĬ ł
Ġtell s
k ube
Ġg ather
art s
Ä ĩ
ĠSe cret
G RE
>& #
graph s
Ġmargin al
Ġho lomorphic
Ġ( .
B inder
be zier
IC ULAR
Ġform atter
P ART
Ġ( __
+ |
2 32
A verage
ĠKing dom
`` .
Property Name
Ġvar s
N p
Ġde m
Set ter
xx x
net ty
ĠEvent s
Ġinteract ing
Ġvi olation
12 6
co ord
Ġh or
Match ing
Ð°Ð ´
Ġde dicated
Ġmark up
Ġst ands
æ Ń
ĠAuth ors
sh im
Ã© e
ĠAUT H
= */
Ġmon oton
Di gest
ĠS a
G AN
li ament
St udio
CHANT ABILITY
Ġvalid ator
ex emp
ĠI con
Ġpro x
ĠRe view
( _.
=-=- =-=-
H over
æ Ģ
ur s
spec s
Ġ" #{
AB C
s ymmetric
arb age
account s
re cogn
Ġconsider ation
B N
(' _
cor ner
diag ram
}{ $
ĠIllegal StateException
Ä ģ
st ic
Ġclaim s
cer ning
w g
TE MPLATE
r ig
æ ģ
Ġm or
d ll
at ural
Ġinst itution
Ġcon secutive
Ġc trl
ĠP L
ĠH ill
cre ation
ĠC M
ivari ate
ĠS ta
12 9
') ),
Ġsupport ing
+ }
rep resentation
rac le
Ġn d
Inter pol
f ic
dir ty
x p
ĠS equence
ĠM ad
render ing
Ġembedding s
Ġtri ed
sql ite
6 55
Ġmod uli
t iming
Ã µ
Ġsem antics
INST ALL
A wait
ant ly
Rep lication
Ġe mitted
ĠRuss ian
Call s
Bind ings
w ifi
up grade
to prule
we ep
>. <
L G
ĠC as
Ġcele br
a con
x b
ĠR ay
model Version
fl ater
IS H
V tbl
ĠJ ew
197 9
Ġtra iling
st retch
Ġme eting
R V
ĠAPI s
ĠY ear
dim ensions
ĠJo urnal
14 5
}} ^{(
ĠO B
Ġ ur
sh ire
Ġpure ly
) /\
e ast
Field Name
Ġme ant
/ ?
ĠB i
Ġpart ners
Ġpres ident
= ${
ra ce
ĠF S
ST AMP
IB LE
Ġdi gest
get Resource
Ve locity
"> [
the se
Ġar ises
Ġcur rency
Ac celer
Ġpo se
ĠC ong
Ġse l
---------------------------------------------------------------- ----------
F urther
count s
cyc ler
ĠR ole
ĠA SC
ve ys
Ġin come
P en
e eq
im ers
ç ī
Ġt c
Ġk illed
Ġepoch s
or ough
comp uted
AL IGN
ED IT
Ġrest rictions
effect s
to s
s ink
Ġdistrib ute
Ã© s
d ma
2 10
SPH INX
M r
ĠE valu
ĠA I
Ġon mouse
O pacity
g m
Ġab elian
Ġa xi
def s
BO X
ĠTech nology
IC S
| .
ĠP H
14 6
Ġp our
Ġreal ized
Ġcond ens
E F
Ġfin itely
ä ¹
cell ent
Ġqu arter
force ment
bootstrap cdn
Ġoptim ize
/ </
ĠThe me
send coins
f an
2 60
L int
g id
Ġeffort s
Start ing
file system
Ġth er
ĠP eter
Field Type
ĠF UN
\\ \
n or
Ġsh aring
Ġ* (
sub float
ĠF rank
O LEAN
] _
Extra ctor
Express ions
LO T
ĳ ¼
ere f
ĠS pring
Ġconcept s
Ġv tk
S he
Ġc it
F ollow
Command Line
Ġelli ptic
Ġhelp ful
CONTRO L
que e
Iter able
Ġd ol
serv ations
B UT
f name
Ġrapid ly
ĠEner gy
F requency
ĠTra ck
d ra
] ],
class ification
Lock ed
ĠAR M
Ġneighb ors
a ho
ĠB atch
urn ey
ĠØ ¨
ĠD rag
ur t
, &
Ġdisplay s
Eng lish
j it
. #
ar ner
ĠS K
ĠOper and
Ġ= &
Ġt unnel
ĠIn tegr
ht bp
Ġco res
Ġw oman
T s
ĠCON TRACT
Vertex Attrib
Ġnumer ous
effect ive
Ġr an
author ization
Ġvol tage
PRO CESS
ex perimental
æĪ Ĳ
g tr
Le af
Ġin form
un a
f loating
contains Key
) ~
amp ing
ĠĠĠĠĠĠĠĠĠĠĠĠĠĠĠĠĠĠĠĠĠĠĠĠĠĠĠĠĠĠĠĠ ĠĠĠĠĠĠĠĠĠĠĠĠĠĠĠĠĠĠ
am ber
Ġun used
Ġlimit ing
ĉ ĠĠĠĠĠĠĠĠĠ
Ġsimpl ified
å ¾
Ġdig its
Ġaggreg ation
Ð ³
ĠCon figure
clo sing
Ġext raction
Ġregular ization
Ġminim ize
ĠCom mun
h el
ĠAfric an
SO CKET
Ġfe asible
Index es
h ive
target s
Ġmin i
PI X
Ġ_ ("
] ])
\ ">
ĠR ET
B i
DO C
ĠAdd itionally
ide l
ãĤ ¹
ur bed
os cal
ĠH D
bul k
Ġprov es
Ġun ity
ĠS am
Ġp d
Ġpre pared
An alytics
Ġh a
V k
inter pol
M al
Ġ$ ('
un wrap
Ġequal To
Scal ing
Ġg uest
ĠE S
mit ian
DI SP
ĠT CP
Ġde b
soft ware
R oll
Ġa z
prec ation
;-> <
Ġcheck point
'] :
Ġge ome
Ġ` $
Plan e
ĠB an
semb ler
ĠF ollowing
ĠMER CHANTABILITY
imp licit
ha us
Ġefficient ly
#### #
up al
J av
Stream ing
o y
Ġtrans ient
Mark up
Ġz eros
\ }}
p index
Ġh older
Ġcount ing
ey l
Icon Success
R ay
prob ability
ĠWest ern
ed y
ĠIMP LIED
EX EC
ps z
Ġ% (
Ġrig id
C LE
Ġp ump
c rit
Ġth ous
me ssaging
Ġopportun ity
temp orary
è¡ ¨
< >
dev tools
f lare
ĠS ync
BO OST
dist ributed
IAL IZ
Ġcon clusions
Ġu id
Ġdeath s
B luetooth
Ġlarge ly
Ġj e
__ );
ĠSTAT US
set State
Ġend ing
Ġhost name
hard ware
Account s
Ġdis ks
MAG ES
Ġ* );
Ġb ubble
Ġgeodes ic
github usercontent
ĠCan adian
encrypt ed
Ġre cording
Ġown ership
ĠN UM
Gener ation
Ġhold ing
Ð» Ð¸
an aly
un safe
Ġneighb our
latt ice
ĠA B
Ġport s
B log
Ġh uge
Ġvis bl
Ġk ill
id en
Ġecon omic
gener ation
ĠImmutable List
Con current
U IT
b ank
ĠP S
T IP
f req
Ġ( ;
Ġsol ver
Ġintro ducing
Ġfore cast
u h
Ġre ducing
Ġcontin ues
Ġpos it
Ġclass ified
Ġfind ings
Comp uter
ĠCom ment
th in
è¡ Į
uch y
sp rint
Ġsimul ate
Te le
Ġun a
Ġassoci ate
ĠP arent
D J
serial ization
ab a
}} ;
ĠQue ue
pro cessed
Ā Ā
Ġtx t
es ium
ĠB ootstrap
e V
ho u
Ġser ious
lin der
R W
trans lated
in el
Ġtrip le
Ġcaref ul
Dim ensions
M ass
Watch er
am big
a ac
Ġcom mercial
C art
Ġlimit ation
ĠName s
In strument
BUILD DIR
f ollowing
Ġd ates
exp licit
) }^
o la
Ġn m
ĠAl ert
CL K
Ġbright ness
B lank
h dfs
st ory
ĠE qual
}} +\
b ell
Ġl ua
/ @
Ġs old
Ġst ations
Ġpro min
ic ations
Ġplace ment
ĠGal actic
Ġgen us
D uplicate
e poch
al and
Ġval u
New s
Spa cing
De vices
Ġ? ?
Ġch a
æĸ °
S peaker
ĠðŁ ĳ¼
ĠB usiness
}$ ;
ĠðŁĳ¼ </
ĠM aster
Ġrel ig
Ġw arm
ĠR a
Element Type
erm ine
do xygen
4 80
å¯ ¹
Sub stit
tag Name
Ġidentify ing
fig s
Ġt p
Ġif rame
List en
ĠÐ½ Ð°
Ġreveal ed
Ġvolume s
n umbers
ĠComp are
2 25
Ġ' \\
Ġgradient s
un set
mode s
Ġin jection
Q String
Y M
p la
ĠPART ICULAR
\ @
Ġout flow
å ¸
Ġbe aut
ĠRad io
C OR
D ue
Ġmonitor ing
Ġcour t
. ">
à¤ ¾
Ġcut s
ĠNot ification
Ġ ])
Ġs ports
D ark
Ġnew Value
'=> '
f ocused
Ġi OS
Ġ[ _
Text Box
lab s
Del im
Ġobserv ational
Ġfrag ments
ru ption
String Utils
be q
Inter ceptor
Ġpop ulations
S al
Tra it
mar shall
^^^^ ^^^^
ĠDeta ils
ĠĠĠĠĠĠĠĠĠĠĠĠĠĠĠĠĠĠĠĠĠĠĠĠĠĠĠĠĠĠĠĠ ĠĠĠĠĠĠĠĠĠĠĠĠĠĠĠĠĠĠĠĠĠĠĠĠĠĠĠ
Ġyour self
C rypt
al go
Position s
tol ua
} ">
Dif ference
ic ast
search Box
ĠL os
å ·
im o
l bl
ĠComp iler
Ġcompet ition
ch r
has Class
Ġvis ited
Ġsh orter
Ġ' &
lo de
Ab ort
38 4
Ġcommun ities
13 4
Ġspa cing
á º
agent o
Ġmolec ules
/ ${
F ar
Stream s
Ġart ist
u ario
Ġdec ide
(" ");
Ver ification
Ġinte gra
Ġadapt ed
C li
Ġcomp ressed
Ġ ĉĉ
Non User
de ployment
Ġhappy Shift
M ongo
Ġis olate
x d
IconSuccess Encoded
ĠS elf
Ġconcent r
ĠTr ansport
ĠR GB
Ġmk dir
is abs
ĠP NG
Ġexp ensive
G I
å Ŀ
Inter op
Ġhydro gen
len ium
subNav List
Ġop in
Ġ< >
D N
Config s
D ummy
com mut
Le ave
con cept
tr ip
Start Time
WA IT
M vc
l w
{ }{
R IDE
col head
Ġsimpl ify
ul ary
æ³ ķ
z il
Ġsupp ressed
Ġinequal ities
li a
I CT
ĠCalcul ate
Th m
H AS
ĠL ake
Ġreport ing
In variant
Ġgu ard
Ġexce eds
normal ized
Ġcomp ound
macro def
rel and
ST OP
Des ktop
Full Name
="# !"
Ġe ye
æģ ¯
ĠCar ol
Ġima ging
re lat
ap ro
Ġtensor flow
Ġb link
ĠM iss
= $(
und ant
edit able
IST S
con trollers
# /
Ġph p
OPTION S
Foot er
te en
f lip
Ġh int
ĠRich ard
s ampling
14 9
Ġaut orest
15 5
assign ment
] ^{\
ĠB ank
ile ge
Ġpl ans
ĠLay er
w rapped
Ch an
ps um
Ġdesc ent
}) :
}\ !
N an
co ords
key frames
Ġflat ten
Ġt ends
re cent
Ġas sess
conv ex
eq z
Te X
Ġsay ing
Ġl d
ific ial
Ġres olver
F ULL
raw ler
* {-
ĠWh ere
m alloc
Ġpoint ing
se to
gest ure
Check point
16 6
Ø§ ÛĮ
ĠText ure
Ġb rand
Ġhistor ical
Ġf resh
n oc
LA S
Ġ )$
ĠB io
ra ils
ĠFran cis
[ {\
Ġv ideos
**** *
Ġtor us
ASC II
ĠG overnment
pro jection
po ssible
Ġo ct
UR ATION
19 77
vo ice
H istogram
cre pan
M c
at im
_ "
IST ER
CHAN GE
text style
Bound ary
ĠPh one
ä½ ¿
j ump
ON SE
Ġnumber Of
FA CT
N d
Sub scriber
åĲ į
Sing leton
R U
ĠE m
f und
Ġan nih
ch em
em q
rott le
. %
Ġst ories
Ġda ily
> ".
W ER
197 8
ĠModel s
Ġfem ale
ĠS UB
Ï Į
Ġ" &
Ġchar s
Code Dom
Ð° ÑĢ
cip ients
SUPP ORTED
}] $
Ġed u
can not
Con str
nu mp
N L
make box
d og
st ro
valid ators
Version UID
ig o
ĠM r
Ġp reference
oper and
sin h
Ġw a
00 7
pro files
r df
C rypto
le ad
L ifecycle
ĠW ed
M usic
Mon o
} ";
Ġse aled
ĠH ard
LAB LE
ĠH ot
RE L
22 4
if s
s ens
ĠAL L
s hop
ĠK ore
the o
symp ad
man age
b usiness
ent ropy
Ġj ets
indu ced
sh ifts
bottom rule
ĠDo main
^{ [
Ġman ifolds
Prov iders
Ġh eter
: !
ĠI M
set length
Ġpre view
RE ST
Ġh op
& +
B er
n k
ra it
ĠField s
TRAN S
U AGE
"/> .
Ġf p
æĸ ¹
of ill
B ug
port let
Debugger NonUser
Ġcla imed
gtr sim
$/ .
P ick
Ġ\| _{
; ",
Ġvari ability
sing ular
table View
Ġsw iper
P lain
Ġbar rier
ĠJ un
ro ad
Ġsub net
ĠCatalog ue
H ot
et ition
Ġb low
ap id
', \
ca des
Ġf er
Sta ff
Ġwe ather
ĠEx ternal
DO UBLE
g ue
Ġsqu ares
Fig ures
Qual ifier
ĠVAR CHAR
ĠS pa
insert ion
di ctionary
mix ins
SE PAR
sw agger
St udent
IP v
ĠE ffect
DEFIN ED
Un ity
m irror
Ġn b
acc um
-- )
}{ $\
Call ing
PRE V
har mon
TH E
Newton soft
o on
ĠPRO VID
"] :
ak i
Ġwor st
F lash
Second ary
ĠConst raint
ĠDem ocr
de m
Ġan imated
st ock
ĠC I
ĠS NR
IP S
Ġshift ed
ĠW R
st udent
Ġcontext s
ĠCal endar
Ġg ene
Ġch apter
}}\ \
Ġexec utable
Ġcap able
K B
c z
Ter ms
Ġconver ge
N eeded
Ġde coding
Ġla unched
ĠS ocket
is Null
pa ger
it on
P IN
j peg
comp leted
Ġstream ing
13 9
Ġpart ner
Ġinsp ired
ĠC irc
ft p
temp ts
Ġcon ference
Ġ# ##
ĠPass word
åı ¯
C AN
ĠE mit
x rightarrow
ĠCont in
ĠSim ilar
olt z
ĠChar les
type col
Ġprov iders
author ized
Ġsignific ance
Ġuser Id
ĠFile s
Ġconn ector
bas ename
u u
] }\
Can onical
ym orph
197 6
$ =
) ~\
N umbers
Ġf an
ad y
init With
Ġsh ifts
Ġac cessed
ĠC MD
ol i
id le
g md
sp read
x C
Ġ\ }$
Ġan onymous
pre duce
ab b
gol ang
ĠB ill
è ¾
F G
Start up
driv en
ĠF A
ĠF ail
I EEE
Ġcol on
o un
/ ",
R ich
able View
et ies
Ġflux es
test ng
& )
ĠG rand
ĠE ducation
Ġguarante es
C apt
Ex clude
so lete
ĠVir gin
Reg Exp
ĠR oot
è ½
Ġv el
Ġdata Type
(' %
ĠBy tes
orient ed
Rout es
as pect
activ emq
at re
Diag ram
ĠAuth entication
: $
WI SE
Ġcomp ens
Ġco ding
ĠM ont
er ed
Ġext ensive
Ġdip ole
G aussian
Ġt iming
Ġm utable
ga z
ĠLou is
Fe edback
table Name
Ġp un
ĠS ocial
ĠL ee
Order ed
D ROP
C as
G PU
str cmp
Ġm ismatch
Ġwas n
S IL
Ġda ughter
Ġfac ilit
e u
P ressed
b os
ma pped
ck o
): =\
Ġfrequ ently
] "
Ġe u
get State
Ġtyp ed
Ġm ixture
ib ernate
SECON DS
Un ary
ĠT otal
Ġg c
A ware
: _
k ip
Ġif f
Ġlogarith mic
ma gn
co sh
ĠEd ge
Ã ¢
ass andra
L ng
Comp osition
Ġcons umption
ur istic
op ens
Ġpo le
Ð» Ñı
Pub lish
ĠA CTION
Ġ( @
Ġbene fits
Ġme mo
ĠX XX
Ġf lav
Date Format
execution s
Ġser ves
n ik
ck e
H ooks
Ġper mitted
ĠGe o
Ġhomot opy
Ġadmin istr
Å Ļ
os c
j om
ust ic
Ġ{ (
gra mming
ish ing
connection s
Ġdevelop ing
Ð¾Ð ³
Ġten ant
ĠPro of
Ġb undles
Ġdis cover
Service Client
Res erved
Ġin direct
cred it
ĠC ulture
l ng
ĠG P
Con clusion
00 6
sph inx
+- +-
l brace
renew command
Ġpar ity
AD O
Ġencounter ed
Ġ\, .
Ġsk in
ĠC T
ist a
IN F
Jo int
ĠE mail
Ġhad ron
FILE S
el rte
entic ator
s ensor
Ġcomp reh
Comp act
Ġa cknowled
ENT IAL
Ġstudy ing
is Function
ĠF re
for ma
SA MP
ĠF ITNESS
-- ">
Ġde generate
Ġh ack
Ġnot ifications
} ");
FI X
] \\
is Set
Log ic
w ang
G F
dec ay
f k
Ġdivis or
19 3
Index ed
. ;
Ø ¨
Ġsub class
ĠF lor
ĠO h
Ġshould n
skip Nav
de ad
OP TS
full comment
Ġphenomen on
Ġimprovement s
Ġh its
ĠC ho
AC L
\!\! \!\!
Ġpro posal
Runtime Exception
field Name
it atively
Ph p
und ay
arg c
T mp
Ġret val
ĠMer ge
ĠV an
å ī
ul um
ĠD b
PLA CE
"] ["
ĠS L
Ġbuild s
Ġquant ization
ĠA gent
åĪ °
ĠIt alian
Ġdifficult y
NS Mutable
... "
A cl
En ergy
Ġenumer ate
Ġsign ing
Tra de
rg ba
ĠRO W
Bro ker
è® ¾
j ena
CF G
ĠG rant
Ġk not
Ġen joy
PRE C
: {
ĠL ow
ĠEx tract
TYPE S
Ġan ten
Ġy es
currentTime Millis
ga uge
E ven
Ġinv olve
release s
Ġconjug ate
Ġ{ &
Un grouped
ym atrix
Ġsimp ler
Ġa met
verb atim
Ġ} ];
Col lision
). __
Ġre lies
Ġsp ins
Ġachie ves
Ġp name
Type Id
ĠCon sequently
Ġcon current
Ġcode c
Ġfix es
Ġv en
s andbox
Ġdynam ically
Ġanaly ses
ãĢ ģ
Qu eries
A sc
C ategories
d ynamics
ĠA v
Ġst ride
ĠExpect ed
Ġas ymmetry
ä¸ ĭ
co red
ĠSur vey
A udit
Ġd p
ur ity
ĠSh im
). \
Ġ================================================================= ========
com munity
++ ){
'' .
oll ar
Ġv ision
ĠG W
Ġsign s
æİ ¥
Ġ` .
Ġ ign
contain ing
R ing
Ġma ppings
Ġph on
al ib
Contin ue
match ing
Ġen velope
bre vi
15 1
me th
Ġtri es
Document ation
Ġac quired
Xml Element
ocab ulary
) ")
re maining
Ġ/ ^
Ġenumer able
P AT
}$ ),
ĠAcade my
re dient
_{ (\
Ġdual ity
Ġre act
ĠN N
ĠResource s
Ġde fer
ĠO Auth
ar x
end a
ĠH op
Ġqu bit
^{ {\
ĠAl tern
g f
get Content
ãĤ ĭ
ch apter
ĠPro gress
rib ute
k ia
Ġselect ing
Ġeig envector
Ġ( []
ee per
Ġcloud s
form ats
ĠTh ree
ĠM UST
ĠT LS
T ake
Ġh over
(' :
P END
ĠF etch
pro filer
is p
sp ro
------------ ---
n th
Ġreg arded
Ġcomb in
Ġinter cept
sp atial
et t
ĠT ake
dis miss
S ynchron
ĠBay esian
22 2
Ġw ra
Ġl p
Termin al
R D
Ġtransform s
Ġmoment a
ç ¤
diag onal
ĠDec l
Ġbase s
ĠLo gin
flat ten
ĠY ii
Ġ} (
cos ity
Ġb are
ite mp
}] \
åħ ¥
Ä ħ
}; \
Ġc i
13 7
tra it
re pr
li ms
en ium
mux er
45 6
et ary
ĠT y
Ðº Ð¸
ĠRepresent s
ĠZe aland
Ġre quiring
b ow
ĠSe lection
ĠSp anish
EXCE PTION
b is
termin al
b w
ĠI o
Un install
Ġco okies
pack aging
ject ive
Document s
ma preduce
Ġer g
INTER FACE
man ifold
ĠURL s
Ġca ption
ĠNot es
ĠAb out
De ad
Ġun changed
Block ing
Ġdepict ed
f allback
PRI V
Ġfact s
>: ][<
ps is
ore l
yst yle
ĠJ e
lat ex
>? [<
am d
re name
initial izer
Ġpres erved
oo per
Ġ$ -\
ĠAt tributes
è ¨
ĠF inal
I Enumerable
Se ek
Combo Box
X Path
ĠAr g
Ġdec rypt
Ġglu on
Ġman ufact
T oo
ĠPro to
ide a
itud inal
t icket
urn ame
ĠCor poration
' /
Re cv
art icles
Ġp sz
666666 67
l ift
Ġdiagnost ics
+ =
ht b
ĠT erm
Ġcrit ic
ard en
s ensitive
resize box
de fin
Ġb igger
Ġrecogn ized
ĠPl ant
Ġtrans lated
open ssl
r aries
ĠG UI
- {\
und o
M EN
(" ",
Ġevery one
r st
ist ribution
Ġoper ate
alle y
Ð°ÑĤ ÑĮ
ĠRe vision
enk ins
bind ings
ĠLOG GER
Ġcav ity
b enchmark
ĠInput Stream
Ġ{ });
Ġv irt
ord an
Int Ptr
so ap
197 4
DebuggerNonUser CodeAttribute
Ġcontinu ity
Ġke V
ins ide
Ġcap ability
cre ts
}) }\
on load
ra ble
ig an
EN ER
Ġcalcul ating
]{ ./
IFI ER
t id
Real m
Ġnucle i
sum ers
Ref s
Ġperturb ative
ble ms
var pi
AT FORM
ĠChar acter
ug ar
Return Type
ĠBE GIN
Ġ(* .
CA ST
ĠMart in
ag a
ĠBig Decimal
ĠW atch
ma k
an imated
x ymatrix
strict Equal
Ġimport ed
pattern s
Ġcommut ative
J MS
B ootstrap
As sets
class Frame
Ġsimple st
Ġfund s
view er
Ġexec uting
Ġre cipient
ĠL P
ĠAdd itional
Ġes c
p md
Ġre dis
Ġre load
Dif ferent
Ġremain ed
Ġpro cedures
}. $
abil istic
he at
ir s
19 75
hold ers
Ġ utf
ĠI T
b u
Ġcons ume
UN T
ĠFa iled
pan ic
ĠL ength
if ul
sprint f
lev ation
/ ,
b mp
w m
Check Box
memItem Left
Ġdis connect
ĠG URL
IS ING
Ġsummar ized
A O
ST ACK
Ġremo val
b asis
Ġradi ative
ilo so
ĠS ide
exemp lar
v dash
x path
ri th
ĠCom b
Ġsingular ities
Ġkind s
Ġelectro magnetic
doc utils
Ġo mit
\\ [
mine craft
Ġadapt ive
Ġ" ).
A rm
g d
ASS IGN
Ġsearch es
mon d
g row
ĠL uc
ĠGame s
P x
Ġprov ision
Ġb ond
Ġde coded
key Code
ĠMin ister
de velopment
ĠAn n
Ap pro
photon ui
AL LOC
del ivery
Local ized
ĠH andler
Ġcal lable
8 75
mb f
Ġi prot
PH A
orange hill
memItem Right
ĠPro xy
orangehill dev
ust rial
Ġx s
ĠBind ing
Ġapproxim ations
full screen
register ed
Ġpro ducing
imp ro
is is
Return Value
ne cessary
ok er
ĠVis it
Pro be
Ġcom ma
In deed
ul ates
up port
Ġisot ropic
r at
EXT ENSION
ĠPackage s
Click ed
Ġlat ency
sp rite
ĠR aw
base line
}} }{\
k ill
et ics
Ġbe coming
alloc ator
Anim ator
8 000
part icles
ot ype
Ġv endor
ĠP anel
Ġpr incip
Ġc ategor
c are
197 3
Ġvar ies
Qual ity
ĉĉ ĠĠ
Ġexpos ure
get File
Ġex cellent
ĠC V
Ġequ ipped
ĠNot Implemented
F lex
return Value
h ab
W ater
ĠSt ud
ub es
ĠW alk
Se gments
No Error
Ġsymp lectic
Ġs pi
or er
ä½¿ çĶ¨
W ild
H L
Ġb attle
ĠO MIT
Equ ation
2 80
Ġlo sses
text Color
C fg
k ar
Ġve hicles
i ator
| ,
Ġs y
P ARE
Ġin duct
Ġbind ings
Pointer Exception
bibli ograph
)$ $
Ġorient ed
weight ed
string u
Ġpop ulated
Mock ito
condition al
Ġhom omorphism
C atch
di e
Ġst retch
B ulk
ren ds
get S
B LE
Ġt ol
P ur
ĠB S
ĠLe arning
Ġb urn
Res ume
Ġso le
client s
py test
$& $
Ġmot or
ĠLO CK
c andidate
ĠB ern
Ġse ssions
Ġm ob
ref lection
D WORD
Ġlo s
Ġpair ing
Ġbefore Each
bibliograph ystyle
gin es
à ¹
({ "
rid ay
}} )\
Leg acy
Ġside Weight
) },\
ac cordion
ĠFR AME
Form ats
R x
http Response
Ġserial ization
col group
ĠA PP
å ¹
oper ators
ĠRun nable
({ '
Ġdetector s
p ix
dir s
B a
Ġfo unded
L and
Ġo be
Col s
Ġco ord
ne eds
Ġprotocol s
ç §
st on
remo ved
ĠC amp
Ġneutr inos
Ġs lider
w c
in str
ab atic
r ub
tr an
period ic
Ġb lood
un i
Ġr u
Ġsupp ress
cor r
Ġaffect s
Http Client
Ġ) \
ä» ¥
ĠLI ABILITY
Ġth reat
Ġm unicip
get Column
co vers
Ex isting
ĠCl one
ĠV olume
war z
ĠG a
Ġexponent ially
Ġinfra structure
RO UND
De ploy
Aut ow
in ria
FI RST
ic an
ĠC ou
reg ression
Ġelect ed
Off ice
Ð ¡
U G
ĠMax imum
ĠH tml
big oplus
co ordinates
Ġsum mer
Ġp sy
Cell s
" &
Ġover head
ĠRetrie ve
b la
sh own
ac ific
table t
Pre pare
End points
jsp x
SCHE MA
G a
K V
RE LEASE
Ġn ine
PE D
ĠC ook
Ġside bar
scal ing
n od
Ġd Ã©
pend icular
tra ctor
n as
Ġs q
gra ms
Error Message
insert Before
¦ Ĥ
User Name
Ġ iron
SY NC
ĠDeta il
Ġsk ew
DO MAIN
ĠPar is
get Parameter
A cknowledge
ĠF ar
Ġpers ons
FH IR
ass ociated
Se ed
ĠR M
Ġsub sequently
Ġ iv
C andidate
Dist ributed
gin x
pre sto
Vert ices
V L
ĠR ail
Ġtool bar
thes ize
ĠCom Visible
se x
}} }}
work ing
Ġcoinc ides
Ġh r
no thing
Ġwin ning
ams ung
Ġca ught
ĠS S
ĠQ ual
Ġarbit r
ĠT S
Ġimplement ing
to gether
AD C
Ġmultip lic
Ġqu ota
Ġdetermin ation
uil la
xy z
LAB EL
do jo
Ð Ĵ
Ġr and
Ġiss ued
Ġg al
java c
Ġ========= ==
Count s
13 3
d ynam
t utorial
Ġd c
me try
Ġre views
Ð¾ Ð½
cast le
ĠP od
Ġtra cker
w heel
Log s
TRAN SL
Ġconfig urable
itel ist
Ġcustom ers
scal ed
S leep
Ġsearch ing
Schedule d
Ġin variants
+ {\
BUT TON
C nt
s lick
Ġreal ity
lement ary
ir us
ĠCH AR
ĠIn dicates
Ġadvers arial
[ ![
S pect
get Child
algebra s
Ġdol or
Ġn pm
Ġm ime
W ell
// -->
Sim ilar
ĠS IGN
RE SET
Br ush
Ġn ation
w ml
al bum
Ġis land
has is
n h
J ar
ãģ Ĺãģ
m ul
Del ivery
IO S
ch es
ĠCo unter
Group Id
ĠSH ALL
ç¤ º
Ġpart ies
Pro filer
Ġarg ue
in fra
_{ {
Ġa head
ĠL ike
ich let
ĠMon o
ĠNav igation
c ube
ĠM useum
tr ansp
Ġfor k
ĠMe an
first Child
r brace
Ġb ag
Ġex clusive
Ġsat ellite
Time line
Ðµ Ðº
Ġformat ting
Pixel s
ĠNew Page
olid ay
k afka
Ġserial VersionUID
SPE C
Edit able
ĠG PIO
, }
Class Loader
de mic
Ġm iss
Ġmod ifier
Ġdiff ers
ĠM iddle
gr ant
Ġcorrect ed
Ġreal m
RESP ONSE
A INT
os a
position s
Ġw s
Ġch ampion
ĠĠĠĠĠĠĠĠĠĠĠĠĠĠĠĠĠĠĠĠĠĠĠĠĠĠĠĠĠĠĠĠ ĠĠĠĠĠĠĠĠĠĠĠĠĠĠĠĠĠĠĠĠ
Ġde part
{- }
Im mediate
Ġexit ing
v ik
Ġpatch es
( /\
^ *}
| {\
Ġco arse
OnSearch Select
For Testing
custom ize
Face t
( ...
ĠCh icago
l k
Ġc rypt
sub scriptions
PASS WORD
re trie
inst alled
ST YLE
13 8
Ġthick ness
W P
col one
Sp in
Ġhappen ed
ĠK ar
prov ide
w y
Ġhelper s
Ġmag ic
l ater
20 5
ps oid
Ġsup posed
Ġb odies
Ġtrans ferred
Ġb la
namespace s
ĠVi ctor
name of
Run nable
th ey
ĠMay be
~ &
Place holder
19 1
Sc enario
um ann
ĠS chedule
Draw er
E AR
b h
Bit coin
ĠM ouse
">< ?
Pa ren
Ġad joint
Î Ń
cloud flare
^* (\
Product s
SH IFT
[] []
Ġ' +
Change Listener
ĠO ct
Ġda emon
Ġswitch ing
Ġscal a
S ock
L ag
spect rum
Ġt m
exclude s
Ġc mp
Ġre written
con tra
Ġblock ing
get Bytes
comp ilation
Ġtest Get
Con cept
U X
Ġmark s
Ġwh atever
' }}
Ġ' );
Ġ` <
Ġp x
Ġg rows
ĠD S
Ġd rift
N LS
and as
ĠK o
Port s
ĠPh il
Ġde gener
áĥ Ĳ
P rom
Ġsub mitted
A x
ĠIs ra
Ġre lay
ĠO VER
ä ¾
jo urnal
Î ¬
Ġmass less
Ġcol s
ĠUn icode
EX PECT
de serialize
13 1
Ġdis crepan
Ð ¶
if etime
ly n
x en
19 50
Ġobtain s
Ġrenormal ization
qu eries
over rightarrow
ĠUn ity
ĠM ur
Hand ling
? )
be haviors
Ġresc ue
Ġa vailability
ĠA ust
Condition s
ł ģ
ĠP tr
new Builder
ĠM el
Com mun
Ġmach ines
i ri
^{ *}
40 3
Ġover write
ĠCom mission
d or
}$ :
e igen
Ġh ls
scroll Top
ĠIN CLUDING
Mapp ings
hom ogeneous
ri age
ani el
lp Vtbl
G al
Ġvo cal
Ġin ser
ĠL oc
ib us
subscription Id
May be
"] );
stri pe
EN O
Offset s
Place ment
ĠM T
' }(
Ġ ----------
ers core
Ġfull Comment
r q
co lour
Con trib
Ġfew er
Ġnow rap
Ġoffer ed
ĠR TC
file path
ĠĠĠĠĠĠĠĠĠĠĠĠ čĊ
cdn js
Ġprote in
st udy
197 2
ĠH amilton
Ġtr iggers
quis ition
T ube
WR AP
oo led
Ġdig it
ĉ ĠĠĠĠĠĠĠĠ
Ï ī
li z
ST ORE
Clean up
Ġ ë
ĠV ec
ĠT urn
ĠJose ph
ĠT RAN
Ġtot ally
Cap ability
et ype
ĠTra ce
L ife
Ġle ague
Ġa ircraft
")) )
T urn
Ġprov en
From String
T iming
Ġs ight
CRE X
quant ity
pixel s
Co ordinates
contrib uted
Ġarchitect ures
Ġarr ive
r ick
Ġshort cut
Ġexplo red
}, \\
Ġbranch ing
Ġb a
al p
Der ived
h ss
ĠH ad
ST OR
ĠD eter
15 7
Autow ired
Ġid le
top ics
pro be
Ġsh allow
DB C
ĠOper ator
Ġf abric
Ġcan cer
A m
O m
uplic ates
Re ach
Ġc art
ili ation
ĠH istor
Tool Strip
ĠIn tro
Ġde partment
). $$
Ġin jected
Ġsum s
ĠCOPY RIGHT
CT L
Pub lisher
Hy per
Ġs lave
Ï Ĩ
Ġapp ended
bro adcast
Ġsqu ared
itemp rop
( ["
j j
SEPAR ATOR
}) ^{-
ĠEx port
G reater
W i
lo on
* }\
ig roup
lo re
}{ !
aggreg ate
ĠDA MAGES
pre ttify
assert Is
]( /
g lu
) ])
Ġmechan ics
C MAKE
ĠL ive
Ġvari ational
Ġt ex
Ġk ube
deta ch
J an
type NameLink
Ġext ending
="@ {
ĥ ½
Ġs ustain
ĠPar am
ĠTe V
Ġbin aries
17 6
ĠW ell
q i
tra vis
d raft
ex periment
ĠB on
C ut
Ġg ran
log out
jd k
ĠDown load
SC A
Ġplan ets
ĠS afe
int enance
u de
ãĢĤ </
ĠT imer
WINDO W
ĠU SER
Ġint u
ĠComp ile
2 33
Ġde leg
GP KG
BIND ING
Ġtra cing
% =
Ġde veloper
Ġphot ometric
ri ers
ip v
; :
it i
IN CLUDE
dis cussion
Ġpointer s
mar shal
"> ()</
)) ))
O ID
Ed ges
S py
Ġsc ientific
Ġkey words
Ġtrunc ated
ĠPROVID ED
âĢĵ âĢĵ
Middle ware
{ |\
Ġident ities
)} =\
c ient
Ġa cknowledge
Ġdeal ing
Ġan cestor
set Enabled
limin ary
Ġget Value
Ġdiv ide
Ġrot ating
Web Kit
ĠAnge les
}_ +
ĠNever theless
Par sed
Bl end
Ġc rypto
up pet
Ġex pert
Ġin fe
Upper Case
ath an
A ck
un te
q ed
ĠComp lex
COMP ONENT
Ġreflect ed
Ġdevi ations
Ġaccess or
Ġsequ ential
spon sor
Token izer
Ġre covered
" '
Ste ps
is i
C ube
}{ %
åĽ ŀ
s an
AB ASE
Not ifications
W heel
Ġk ing
UI Color
Ġun e
Ġpre m
Ġart ists
p refs
Ġsur prising
Register ed
ET HER
Ġpy test
ĠHttp Response
H M
Ġv ulner
av is
I lluminate
Ġ" ."
ç Ĳ
v anish
ĠA gain
ci ence
Ġpop ulate
Ġfail ures
ĠDo ctrine
Ġconcern s
- $\
ĠName space
Ġca using
ĠSup p
f li
Or Default
é ¢
\" {
SE ARCH
Function al
Ġcertain ly
Ġfall s
è İ
@ ",
ĠP ur
Work ing
T OT
Ġsens ors
Ġpublic ation
B el
ru id
"> :</
Type Info
Ġy ellow
Ġform ally
Ġequivalent ly
ipher al
DE CLARE
Rec order
Ġre name
Ġmeas uring
f all
mem name
sk a
}\ )
De ferred
mark up
cord ova
Ġa f
l ite
de velopers
ĠI reland
** /
ir k
Ġoutcome s
ee k
Rot ate
p reference
Ġs ales
Ġcancel led
ir ms
ĠC Wallet
Ġ\\ \
ur is
ĠDeter min
Comp ound
Pers istence
Ġsummar ize
i am
0 75
Ġcon tr
Ġdis order
ĠBuffer ed
Ġno except
ass oci
mi ses
ĠSerial izable
Ġproto buf
g wt
sv c
comp oser
c ertificate
Ġs vg
recur sive
In Progress
res ume
Ã¡ n
mod ify
ir ds
Ġser ving
ĠUn iverse
Ġlog o
ĠArgument NullException
min imal
exemplar City
pos it
Ġper man
Ð¾Ð» ÑĮ
il inx
$ }\
ĠArgument s
urb an
Ġ*/ ,
scale box
Ġf arm
get Last
Ġrg b
ĠUP nP
Ġf lip
hand led
Ġtri angles
Type Error
ĠSw ift
R DF
number Of
ãģ «
uilla ume
s udo
Ġalbum s
Code d
2 12
Ġh i
Ret ention
Det ection
23 4
andid ates
min ute
w an
ĠS ound
comp ose
Ġaccur ately
y outube
Ġphenomen a
M aker
ĠMe asure
Ġbos ons
sp lus
Ġst derr
P NG
å ±
Ġ= "
Deserial izer
S izes
Ġg uitar
Cour se
H a
Ġv ice
; (
ĠL ists
ter ior
ĠJ ack
C Y
Re verse
($ (
Ġ itemprop
dis connect
MB OL
| }{\
struct ures
PACK AGE
b uff
Table Model
parent s
åŃ Ĺ
Z ERO
Re covery
Ġmultip licity
po graphy
14 8
header link
S peech
Ap ps
altern ate
ĠF E
Ø ´
Ġac ade
Ġfeature d
Code Analysis
Check s
). $
ĠC E
ĠSm art
q p
inter op
ĠCol lect
co okies
Comp uted
=" __
ĠDet ermine
ĠBo ol
Gra d
Ġgovern ed
to o
Ġa part
ĠF und
Ġco ach
Top ology
> ().
ãĥ Ī
ĠM age
00 8
20 8
h or
)$ }
17 2
ĠE M
': '
Ġget Default
Unmar shal
NS Dictionary
wait For
s al
se lenium
Ġf amous
omatic ally
other wise
ĉĉĉĉ Ġ
D ie
ĠVert ex
F raction
H our
`` ,
Ġout going
Ñ į
Trans lator
Generated Message
ĠId entity
mail er
ĠByte Buffer
B ank
F av
Ġc ities
Unmar shaller
VARI ABLE
lo om
property Name
s is
s nap
Ġpol ygon
v oc
(' [
S equ
end ers
Ġar rows
Ġexplor ation
de crypt
Ġ[ :
ĠL HC
Url s
Sign ed
NR AS
Ġc ube
v d
dr ive
j an
ĠG ro
file Path
nuc le
colone qq
14 2
ĠL ipschitz
Ġimpro ves
em an
Ġco ords
ĠCommit tee
}= -
col lapsed
ĠC lick
}. $$
Http Response
Ġconfirm ations
H i
dis pose
cell color
Ġc ivil
\, $
sol ut
Ġmem cpy
Drop down
¶ </
orn ers
E sc
ĠD ie
cre st
15 9
H IGH
ĠC am
ĠĠĠĠĠĠĠĠĠĠĠĠĠĠĠĠĠĠĠĠĠĠĠĠĠĠĠĠĠĠĠĠ ĠĠĠĠĠĠĠĠĠĠĠĠĠĠĠĠĠĠĠĠĠĠĠĠ
Is olate
66 6
Ġdec isions
@ @
el ia
ĠSc roll
ĠH uman
ren ces
ematic s
Ġcol lege
UST OM
Ġget attr
}/ {
om er
Ġlo se
W ave
ac iÃ³n
ĠI SO
Ġar ising
Table HeadingColor
Ġd d
get Object
ĠN P
zer os
c rop
14 1
DIRECT ORY
P as
SING LE
F K
I J
60 1
ĠCancel lationToken
` ;
Ġequ ally
PRO GRAM
D H
at ers
Ġadjust ed
Ġauthor ity
Ġr x
S aved
ĠA ggreg
ar er
ĠF lag
ri x
Decor ator
Or Builder
ĠCent re
TOOL TIP
mo ving
nump y
19 69
pur ple
Ġopp osed
Ġf atal
× ©
al ic
m uted
ĠR uby
& ,
Test er
Ġasymptot ically
Ca ption
Ġsubject s
top Nav
Ġs lots
ĠUs ers
b undles
ĠRe pository
reg ions
Ġw p
Ġkernel s
Ġann ual
ĠD ET
19 68
Ġp g
pe m
Buffer Size
A jax
Ġco unty
dot net
p alette
h istogram
Ġin cl
p ent
Per f
bottom Nav
Ġproport ion
get First
Ġregular ity
or ation
Ġmode led
Ġimplicit ly
Relation ship
H ours
Ġset ter
Ġgraph ics
Fact ories
ĠQuest ion
, ,
_{ |
çĲ Ĩ
ot i
unt il
ENT S
ĠFig s
Ġrobust ness
ÏĢ Î¿
12 00
Ġas c
Ġ========= =
Pie ce
in struction
ĠEx press
web site
Ġevalu ating
N i
Ġsur veys
assign ed
Ġapproxim ated
_ '
T G
not ice
Equal ity
ĠC y
N ear
AV A
è ´
Ġb ill
ĠĠĠĠĠĠĠĠĠĠĠĠĠĠĠĠĠĠĠĠĠĠĠĠĠĠĠĠĠĠĠĠ ĠĠĠĠĠĠĠĠĠĠĠĠĠĠĠĠĠĠĠĠĠ
ĠData Type
Comb ine
Ġf l
ĠB ell
R ename
ME T
F LOW
Ġel s
ĠS PE
Ġnon trivial
Sem antic
k ra
ĠL ove
P t
open source
Wait For
HEL P
}$ ~
ĠP P
W est
ĠH am
Ġcoinc ide
Ġe V
get Mock
Ð°Ð ²
j l
Ġchunk s
ot one
id ential
READ Y
ian o
Ġmechan ical
Bl ur
gr p
Ġenhance ment
W ay
18 7
n ick
15 4
v l
ĠRe cent
de generate
Ġch rom
inv ocation
Ġglob ally
ç Ĥ
ĠUnsupported OperationException
] ',
Ġext inction
spect ral
asket ball
ĠM en
comp osition
D st
Ġa ware
ĠP atch
U id
Tr ust
tod ay
ĠB undle
Ġc row
NS Array
sequ ential
ĠCath olic
ĠT ok
pro g
Ġbro ther
range s
in ode
Ġla s
Assert ions
Ġt ensors
}) );
ĠProb lem
H A
Ġhe ating
Mouse Event
amar in
Ġs ap
ĠPe ople
ar Down
En dian
e ur
dot ted
p ressed
Ġpa id
Ġmod ular
z u
main tainer
proport ion
H alf
ev olution
Ġform ing
Al ive
tain ment
$ ('#
tr ical
}) ^{\
ht m
}} _\
ä¸ Ĭ
P ager
g ar
nat ural
Ġs pring
lo ver
Ġm ur
28 8
Ġquant itative
__( /*!
assert NotNull
RI X
el er
Des cri
Ġj ud
Comp ression
As pect
30 2
key down
us ive
Ġfa ith
ĠH el
Ġj q
start ing
R TC
AG ES
Ġgra de
k an
++++ ++++
Ġexpand ing
Short cut
Ġpri m
ĠRect angle
$ ^{\
Ġfactor ization
D s
ĠAR ISING
): =
render ed
ĠCou lomb
Ġg ender
bre w
de lim
dd d
Ġj int
Ad vanced
up iter
th us
Pro vision
. (*
ion es
ent e
C Sharp
ut r
B oot
Ġpair wise
Ġm v
Ġdis placement
ĠGener ator
st ride
ĠMO DULE
ĠC Tx
Ġcompar isons
multip ly
dis patcher
Up dater
Dr ive
schema Location
ĠRem oves
pie ce
ti ps
Ġorgan izations
per f
e h
ĠA rab
time zone
ink s
Par sing
t own
A sp
Char acters
n orth
Ġcons ist
Ġintern ally
Ġgra ded
SHO W
pp y
de cre
Ġarbitr arily
ç łģ
ĠPro vider
ĠMem bers
R P
b illing
Ġ` ${
` );
TA IL
du ctions
Check sum
AL PHA
pri mitive
Ġoverride s
Ġdemonstr ates
Ġdot s
FRAME S
Ġrot ational
Rest art
N aming
o i
get Source
Media Type
ĠFi refox
ĠLI ABLE
Contact s
F riend
Ġ& -
ĠS park
append ix
G lyph
Ġstart Time
DA Y
Ġin ert
Me V
Ġpat ent
× Ĳ
S END
Ġev ident
Ġedit ing
ĠDirect or
w l
T icks
IF ICATION
ĠST ATE
d os
il io
Pol icies
F lu
user model
Ġdisplay Name
Ġsucce eded
16 7
Ø§ Ø±
equals IgnoreCase
not ifications
Ġst im
class ical
co uld
ĠSp lit
= ['
PI PE
Ġbuild ings
ĠH lo
Ġin dependence
ut y
Ġspeak ing
A ir
Ġd anger
card s
W L
Ġm b
)) =
Pa use
T icket
Ne g
ĠIter able
Ġdwar f
m igration
)) ]
ĠT IME
RAN GE
data Type
ob served
Ġaltern ate
gs ql
I mm
Ġhelp ed
D G
T ap
Ġt i
get Num
quot ed
member Of
ĠMark et
mention ed
p al
Pattern s
Qual ified
Ġget Type
Ġobserv ing
Ġbro ker
ĠWe ek
ĠM i
ND ER
Ġa vg
ĠT AG
Ġca usal
}\, ,
Ġexhib its
ĠCon trib
s izes
g host
Ġt iny
dd ot
ĠCurrent ly
c us
}} ^\
integr al
Ġ ist
Ġw orse
ud p
AS A
Ġs ibling
15 6
CO S
un pack
ĠW ater
Icon s
bro ker
: .
y ii
ost on
ĠCom munity
co ck
)) $,
ĠWith out
sur vey
Ġvort ex
C b
} ')
gr icult
ĉĉĉĉĉĉĉĉ ĉĉĉĉĉĉ
Ġbary on
ĠS olution
Ġeffect iveness
lin eno
ĠE lect
Ġabund ances
h azelcast
check s
en viron
st raction
p lots
Ù Ĭ
Ġfiles ystem
ĠH O
15 8
Ã ¦
ĠEX PRESS
Ġr ings
Ġconvolution al
D ock
Ġfore ground
ĠU rl
Ð¾ Ñģ
yy yy
Ġconstruct ing
ĠIt aly
ĠCON NECT
">Â ¶</
K e
py mel
RO LL
L upedia
cached Lupedia
cachedLupedia Data
) ],
Check box
ĠS td
iter ation
26 3
Ġc aching
Read able
inherit ance
ĠT X
()) {
UT ION
IC ES
se gments
Ð°Ð ·
Ġin str
mp eg
starts with
Ġslow ly
ot ent
BIN ARY
ĠSystem s
ĠHe ad
Ġ... ,
ĠChange s
umn i
Pri m
w f
By Key
Re fer
ĠM ail
SE QU
ĠIdent ifier
Ġconver ter
alloc ated
Ġf r
NET WORK
ĠN umer
ĠName d
ĠPer form
ĠCONT ENT
Ġ× Ķ
anit ize
Ġc t
up dates
ik a
Ġpreser ves
ĠL ANG
i ot
Ġs py
us ual
Z E
Re peated
set On
Ġsignature s
% $
Ġext rap
r us
Im Gui
Ġvis cosity
MEDI A
ĠVirgin ia
clu sters
w char
ç ¼
Ġpro jections
Ġc limate
ĠHen ry
"/ ><
Ġimp osed
0 22
ĠFI ELD
vis ited
Ġdatabase s
Ġde scriptors
Dis cussion
Ġor ange
ĠG RB
em is
ad vanced
K K
Spec ified
ph ra
Ġno isy
Ġcomplet eness
Ġappend ix
Ġt t
ä¸Ģ ä¸ª
an cing
v x
f ab
ĠY ang
Tab Index
ĠÎ ±
con verter
lu splus
ĠQ R
aw ay
Unit Test
Ġresearch ers
* -
Ġp al
start Time
In side
tr uth
ĠE FI
Web API
Ġconcern ed
_ %
port al
åŃ ĺ
ĠAn imation
ĠFlor ida
class name
15 00
CI AL
CONNECT ION
ĠC amera
be c
Ġst rain
Ġadd itive
new Instance
Ġprom ote
) ((
Ġtop Level
Ġi psum
track ing
0 25
g dx
g fx
success ful
ymorph ic
Con clusions
Ex ports
Of Type
Ġsql ite
N M
ch ip
sp inner
x sl
ĠW ood
Co ver
Ġengine ering
{ #
Ġenvironment al
50 1
may be
function al
iv a
G U
Ġcon cerning
topo logy
ĠS ol
Access Token
With in
Ġ[ $
ĠM A
Ġpr ices
ĠM ask
DB LP
U K
find ViewById
ĠF ormal
oo keeper
o j
Ġg ithub
ak ed
Ġcomp ri
ab olic
Ġ Ïĥ
pe ating
ap y
regex p
N ever
Ġanom aly
entry Set
Ġmet av
MODE L
\ `
CT X
Ġwrit ers
LE CTION
L B
art beat
Ġpay ments
Ð½ Ð°
ĠJSON Object
Act ivation
PORT S
ĠC art
ĠJ ones
ĠSw ed
Ł ¥
Ġm igrations
Ġsh rink
separ ated
m gr
r h
h ort
Ġminim izing
Res p
h ours
ĠP os
19 8
Ġke eps
Ġ// $
S CO
IC ON
Ġmagn itudes
d to
me mp
ĠN i
pe ek
Ġed ition
Ġexpect s
Ġab sl
Build ing
ĠP ack
Ġaccomp any
in n
Ġ/ \
ipel ines
De leg
STR AINT
åĩ º
ĉĉ ĠĠĠĠ
Ġco variant
ĠState ment
Ne ed
ĠCong ress
ĠD ark
Ġpar k
ve als
ĠM ongo
Ġsort ing
P al
Ġfac ility
åĬ ¨
16 4
15 3
Ġre in
z end
algorithm ic
OG LE
Ġbelong ing
Ġgi ant
() (
Ġtor sion
| <
T ail
Ġpa use
Ġfe at
verse ly
W ifi
or ial
Ġident ifies
Ġv acc
resh olds
R ating
: <
et ra
Ġh abit
Ġmicro s
Ġsaf ely
ĠS IG
Mut ation
Con d
Ġs aving
R AD
Ġst reet
geq slant
get Field
Ġi e
Ear ly
K ube
Ġun like
ug o
Message Box
cre ator
E s
to ms
equ ivalent
end ants
ĠC riteria
reach able
m ot
build ing
semb les
Ġamp l
Ġwon der
L V
we ets
ron o
Ġd ram
iz en
Ġy aml
Ġcons ult
D EN
è¯ ·
ch k
Ġb t
face t
}) }{
mag ic
class method
lic ial
ST ER
for ced
typeName Label
Ġsh ut
Ġnav igate
BO OLEAN
Ġpropag ator
int ext
ĠW eyl
To List
ĠC over
Ġdoc utils
19 5
ĠRe quire
an onymous
Ġoper ated
ĠLL VM
ĠS A
ĠAssert ion
ĠInter ruptedException
s low
po ss
Ġmin us
Ġintro duces
Ġcheck box
Ġany one
Ġmut ual
ĠB ranch
Ġextension Registry
Ġun ivers
Glob als
To k
OR ITY
Ġpromin ent
Ġcharacter ization
se mi
pers ist
Ġatmo sphere
ĠCol umb
M NRAS
ĠWARRAN TY
ts a
Ġrep lication
eder ation
ĠRuss ia
exp ansion
Ġtra p
Ġmod ulo
ad vert
Ġreal ization
lan e
Ġans wers
Ġsubstit ution
Ġ($ (
Cho oser
s he
ĠA lice
ĠN ON
Ġprece ding
ĠRed istribution
Ġmer ger
Ġinter view
Ġb rain
Ġend block
18 8
com mod
Ġp ion
Ġpen alty
or o
Ġob st
Ġper pendicular
Ġund o
ĠAng ular
Ġre serv
ĠTh rough
Ġ" \\
Gu ard
M V
= &#
no kia
F OS
ĠDif ferent
Ġjust ify
Ġsh ares
Ġprint ed
Ġrep lica
Cre ating
Print ln
:: ::
Ġhand s
lic ate
Ġprov ing
Ġdescri ptions
In c
mem Separator
Ġsto pping
Co lour
64 0
close st
Ġf id
] }$
y z
Ġfor get
TE MP
{\ "
ij k
ĠC RE
block ing
Ġear th
Ġin compatibility
ĠUp dates
={ '
b ay
In verse
Pol l
an not
Ġinsert ion
G UID
sign ific
K o
ĠJ im
get Request
Ġs an
Ġs outhern
ĠJ on
>< ?
0 30
24 5
L iving
ĠDE LETE
ĠSc ot
Ġcent ers
Dump er
ĠE con
Next Token
Ġsk etch
mark et
al lax
Ġpa ren
comb o
y d
Ġt uning
Ġacc ident
Leg end
Node Id
SIGN ED
ä¿ ¡
Ä Ļ
control cap
Ġp k
P ot
Ġhe ading
ht able
Ġclass ic
Ġali ases
Ġget Class
PY THON
= <
x z
DF S
197 1
Ġknow s
Ġâ Ķ
get Status
ĠDET AIL
definition s
under brace
Ġaccept able
Ġin clusive
Mod ifiers
Ġt uples
Ġpro mis
ĠC reek
Ġan imate
Web Contents
ĠW al
leg acy
T enant
Ġadd ressed
Port al
ĠC B
unit test
LI BR
Enumer ation
} --
Ġext ens
comp ression
Ġsk ipped
IsNull OrEmpty
wallet Main
ĠS ie
× ŀ
ĠF un
Ġcompan ion
ĠIgn ore
@{ }}
File Info
Qu ad
ĠTra its
Con ver
om ics
r ceil
Ġa ims
Ä Ľ
L atest
im uth
C U
loy ment
S an
Ġtrans ak
Ġtra ces
Ġoccur rence
Ġover ridden
Ġins ight
aint enance
embed ded
ĠFeature s
Ġa jax
ĠC AN
Min utes
Ġtr ick
process ors
Ġdetermin ant
L ie
Ġv ch
art z
Ġreach ing
V B
Ġt icket
v tk
ma pred
Web Socket
uint ptr
Ġs prite
Lo ss
as io
ING S
b uck
Ġread able
Ġbehavi ors
pers istent
Ġa veraging
sc all
Frame buffer
Ġout per
Ġbuffer ed
Ġlept on
ĠIN VALID
str len
Ġexperiment ally
un less
Ġde cades
Ġg lass
ir ls
Ġer a
ĠMar shal
Ġanisot ropy
Ġpar ad
AL TER
out s
xx xx
åī į
CR IPT
ĠScal a
no vation
a head
im ity
Ġb ash
c wd
Ġst udio
Ġget All
Ġreconstruct ed
catch all
BYTE S
equ e
ĠY es
ĠSource s
Ġclin ical
imp lements
Ġport ions
M IL
ĠT our
Ġexcit ations
ro magnetic
Ġoff line
vious ly
Ð ŀ
emp hasis
Layout Params
found ation
Un signed
Ver bose
Ġad ult
Ġmotiv ated
'] ),
Con vention
b k
M Y
Ġcontinu ation
Ġfund ing
é Ŀ
Sp ot
Man age
Co ords
Ġintegr ating
æĸĩ ä»¶
åı ĳ
ma gnet
:: -
Ġs r
format ted
Rem ark
ĠChampion ship
Ġ|| =
ĠGe org
Ġbelie ved
f abric
ish er
ĠB re
)$ )
Ġlong itudinal
Ġbl k
Ġdir ty
Ġt v
Ġcurrent s
V OL
j u
Ġo il
ATE G
Ġdriv ers
L IGHT
Ġintegr ate
al ready
Ġe g
s ymmetry
Ġconst rain
FR AG
å¼ ı
S ampler
| }\
ic ious
ĠRout er
mp s
Ġred shifts
h uman
get ter
v ac
ian a
m art
(" ../
Ġmembers hip
am on
con version
v ity
Ġcon servative
ĉĉĉĉ ĠĠĠ
ĠPhys ics
Ġord inal
Ð¸ ÑĢ
le w
Ġthere by
^* _{
Ġ* >
ĠEn umer
ĠWH ETHER
Ġt foot
ist e
Ġescap ed
ber ry
glob als
ield s
il de
}, $
GL int
ced ence
è®¾ ç½®
solut ely
sup set
Ġstring With
ĠG i
pos ing
Char set
DESCRIPT ION
17 9
Ġcontrib utors
Ð Ŀ
s ucce
ref ptr
set ter
Ġdo or
rol led
equ ilibrium
Ġfile path
Context Menu
Ġgoogle api
Ġcollabor ation
P ing
Ġinfra red
C NN
ç ´
F allback
Ġt olerance
Framework Bundle
An aly
duc ers
= /
ĠRe fs
ĠNor thern
compare To
Script s
Ġc uda
Ġteach er
Ġhom ology
Ġf elt
l ceil
}} "
Ð¾Ð ¹
Ġnor thern
Ġde letion
No thing
ĠV alley
ĠActive Record
V s
el ly
imp lies
18 5
User Data
az z
ĠT ORT
PROTO COL
Ġ= ================
d an
ĠTo ols
Class ification
ct ures
igh th
Ġstructure d
ĠCG Rect
AIN ER
ĠOTHER WISE
ĠV ari
Ġcho se
or ters
O gre
Ġactiv ate
izz le
text Content
Se par
Ð°Ð ¿
Ġar ms
Ĩ Ĵ
èİ ·
ĠTag s
Ġnot ing
ĠB B
ass umption
è Ģ
Tra ining
QUE UE
Ġinput Stream
æŀ ľ
ma king
w r
st ors
Ġsucce ed
bug s
ĠTime Unit
el la
res izable
Ġi mag
small er
Ġhas attr
Un do
ĠF our
ĠL arge
vis itor
Ġ} ]
s ay
im ator
Ġtitle s
IMP LE
u its
ke V
Ġmain tained
Ð¾Ð ¿
ub les
atic ally
Ġqu bits
Ġfill ing
}}{ (
Ġcontinuous ly
and y
Ġcons iders
Ġ ../../
Re ports
Min or
Ġh ist
ch tml
the ore
ĠImp lementation
Ġfac ilities
key Set
G ate
í ķ
ur day
19 67
B on
if ting
Ġco ast
Ġgra d
network s
mong odb
Ġlo ads
Ġadapt ation
ATTR IB
26 2
sv n
W ARN
? ,
tr ust
Ġ --------------------------------
Cal c
Ġcor rupt
Ġb ed
Ġr iver
Ġqu oted
child Nodes
Ġturbul ence
X HR
Ġb ath
ĠR ails
Ġdif fe
ĠMex ico
Dat um
Compiler Services
SE L
åĪ Ĩ
Log o
us cript
io let
ĠCon tains
Ġf ederal
aur ant
ĠP red
}) ();
ON Y
d uplicate
T B
Ġad mit
Sol r
Ġb ubb
ĠInst alled
Ġartifact s
B oost
B id
Ġm ist
cons istency
{ };
ĠM AC
re ci
Ġregion al
Ġconsequence s
Ġsp lits
Ġs d
de tection
aw are
ad i
Mapp ed
D ll
ph inx
Configure Await
! ",
s coped
sub division
bl k
M id
Ġing redient
res erve
Ġmer ging
ĠJohn son
ĠB reak
VAL UES
Ġme mb
ous ing
; //
Ġpro g
Ġoption ally
}} -\
Ġa u
ĠB al
re peated
Ġinter active
Pod s
in fin
ĠFUN CTION
Ġcharacter ize
amil ies
R uby
Ġplan ar
lev ance
t ario
Ġde finite
Default Value
ĠF C
Ġst ops
Ġec centric
L atch
oc cur
Wh itespace
Dec ision
Ġresult ed
f la
Ġs lash
ĠAr ts
bitcoin strings
Ġk pc
aa a
ĠMult iple
Ġmeas urable
Ġtw isted
gin ator
fer m
^* ,
PL ATFORM
SS ING
ĠK ind
ĠAd S
REG ISTER
rout ine
shall ing
JSON Object
ĠH on
ĠAT TR
ĠE lastic
ĠLab or
ĠFRAME S
Ġt ur
Prec ision
NO OP
ĠN an
ĠSe gment
ĠG uillaume
VAR CHAR
Ġ ions
è ĩ
( **
P LAY
Ġobvious ly
Q CD
Ġflex ible
ĠIgn ite
Ġh ierarchical
ĠCon ference
23 5
Ġfair ly
to UpperCase
Al ways
× §
â ĸ
De veloper
ĠEqual s
pro ducer
Ġa ward
pre pend
Ġurl s
Ġarg ued
g w
cho ices
Big Integer
SY MBOL
c make
Ġ= ================================
Ġb illion
ĠS ame
conf lict
uzz y
ĠFoot ball
St ation
Ġs alt
16 3
âĶĢâĶĢ âĶĢâĶĢ
/ ~
cp lusplus
, +
rest riction
v codec
G uest
H op
!! !!
( ::
P UBLIC
param type
D W
fil ing
ĠFrame s
E lastic
af ety
Ġver b
de scribed
SS M
hook rightarrow
Ð° Ñģ
Ġma gaz
Ġs ym
im ode
RE SH
Se verity
J O
. ]
Ġin complete
áĥ ĺ
\% ,
Ġe arn
Ġillustr ates
Ġc ars
Ġany where
net beans
Ġful fill
S LO
( (\
ad vance
ub untu
Ð¸ Ð¼
Recogn izer
access ibility
s lo
Ġweak er
Track s
Nd Ex
Ð¾Ð ¶
file set
U ART
S phere
> ());
b abel
Î ¸
Ġre actions
Ġs ociety
N om
Ġalloc ator
}) +
google ads
hav ing
Ġopin ion
Ġde but
ĠO l
Ġm ong
P aste
Ġsk ills
ãĤ ¤
Ġimport s
Ġsee ing
accur acy
ĠL oop
30 3
Ġplan es
Logger Factory
DEP TH
p ig
de sh
Ġcontra dict
hand les
z c
Ġ$\ |\
Ġwo od
XX X
s ched
a udit
Ġappoint ed
S il
ĠP ot
Lat ency
Embed ded
Ġclick ed
Ġuniqu eness
st ars
ac celer
Namespace s
ch emy
Ġmeaning ful
Pro mpt
scr atch
Calcul ator
ĠF ort
Ġb is
lac ian
' });
ĠProv ides
Ġt al
19 64
ĠK en
ĠX X
% {
S Q
ĠGo String
ĠD river
ĉĉĉ ĠĠ
20 6
19 4
k ov
param name
; .
:" -
ĠÎ ¼
ĠR G
Ġlook ed
VO ID
Or Update
ĠB la
ma sh
ĠRe ader
Ġback wards
ĠAss umption
Ġmut ation
ĠPRO P
){ $
AA A
ĠS F
Ġas sessment
IR Q
ĠP ATH
Ä Ł
ing roup
), \\
scal es
.\ ,\
ĠC ost
Inst anti
^+ _
w izard
AD MIN
Ġ Ä
Ġc n
g ery
Ex perimental
Aut omation
Ġsing leton
ĠCa uchy
">Â «
7 50
at tack
auto complete
at is
Ġf uel
pk t
havi our
U Integer
k ie
order ing
4 32
mail to
çĤ ¹
u w
get Max
Ġres ume
Ġres istance
()); </
Ġintegra ble
ĠPub lish
23 7
b ill
ĠT x
ĠR F
Ġinitial izer
] ="
en ix
St encil
ch t
RG BA
W HERE
() )));
ĠR ic
ĠDe fines
ĠF O
Ġr is
from Now
Ġ' ~
ĠV ariant
pr incipal
Ġw er
respon ses
ld ap
fit ting
mo jom
Ġwidth s
TRANSL ATE
Prototype Of
)} }\
Al bum
C WE
ç Ń
ST AR
ĠD ataset
ĠPh ase
Ġle verage
unknown Fields
M en
ha ust
dig it
P ic
Ġqual itative
ener ated
O US
Ã «
quot a
Ġelli pt
ĠJ av
unc y
Ġf ly
à¥ ĩ
Ġthermod ynamic
ĠR L
pack ed
` ](
Ļ ¨
Ġis Equal
IB ILITY
Con t
Key Event
Reg ions
ĠSyn opsis
ĠByte Array
Ġfamil iar
ĠX HTML
ĠS ect
next Token
config s
u o
Node Type
N F
Ġblock ed
ci pher
æľ ¬
background Color
Off line
h ero
s ors
ĠNe ed
Ġfra ctions
Ġmus ical
alyt ic
ĠDig ital
ĠA g
Ġdecl arations
Illegal ArgumentException
@ {\
Request Id
] -
TIME STAMP
ĠUn known
.\ ]
ur ance
19 65
per ts
Per formed
ĠDes pite
Sel enium
con e
the ir
Ġnucle us
Ġcom mitted
Line Number
Ġw alls
Ġre veals
ut c
Ġprov ince
ĠSpec ify
ĠG reek
Ġour selves
jet ty
Edit ing
ĠSci ences
........ ........
å Ļ¨
ĠR ot
interop Require
W all
Cancel lationToken
Ġm x
Q C
Ġnon atomic
G Hz
in ja
Ġgre y
Ġanim ations
ĠTr ump
ĠPlan ck
M agento
der ived
ĠL ittle
Ġgreat ly
(' ');
B s
do ctrine
al ive
Ġsuggest ing
T AB
17 8
Ġ; ;
Ġrecur sively
ĠDepend ency
b ag
ĠE asy
on i
16 2
RE NDER
che v
ham crest
Y ARN
[] >
Ġd iverse
S vg
17 7
m atter
ĠF amily
R ol
re search
Com ma
Text Appearance
Method Name
Ġinvert ible
Ġs igma
at ially
ock ey
: ',
ud son
PI C
b link
ĠT re
Ġgroup ed
Ġp lug
ĠFile System
s lave
ob tained
raise box
18 2
h m
Con trollers
ĠS pect
Sub net
Ġb an
ĉĉ ĠĠĠĠĠĠĠ
ĠTest Case
ĠS unday
do ctype
ĠRET URN
list Of
ad v
Ġp references
C riterion
Ġg ulp
CH O
{ ``
Ġin version
ad joint
Ġread ers
8 90
nav igator
un expected
ee e
TH IS
) _\
Ġs cheduling
append To
Ġvalid ated
ĠR FC
/ [
A vailability
ĠCon verts
ass oc
Table View
Ġdelay ed
Ñģ Ñı
Ġw ww
Ġoscill ator
ĠAl ways
ĠDec imal
Ġfield Name
sess ions
B ul
Ġf ans
ĠBit map
ĠOb j
set Up
Ġcomp utes
Ġa udience
Ġconsider ations
Require ments
ĠSk y
ĠS aint
Ġun translated
Ġmod ulus
middle ware
); </
Public Key
s peech
am lf
Ġexpect ations
Ġexpla ins
S u
Ġp df
Ġcomp oser
IMP ORT
Inject or
sp ath
Ġany way
pro vision
ĠCla ret
th y
ĠSe a
Ð¸ÑĤ ÑĮ
READ ME
Ġtranslation s
S nippet
iv y
ĠI DE
ĠDI RECT
D ns
Ï į
op ic
Ġattemp ted
Ġse es
L ater
OR IZ
ĠC BlockIndex
_{\ {
get Application
16 1
add resses
Cre ative
Ġuint ptr
- &
Ġconsistent ly
Ġanomal ous
he mer
ult y
ĠN C
Ġme dic
st orm
}= -\
Ð°Ð ¹
é Ķ
ĠS FR
od ge
Ch apter
th ink
pers urface
Ġbracket s
k d
UB E
$ ~\
B uilt
y t
Ġbe at
E G
b urn
Ġsub graph
ĠL iteral
Ġerr no
... ");
Value Error
' }{
end o
ans as
sh apes
Ġph rase
ĠPo ssible
I ce
################################ ################################
ĠÎ µ
A cknowled
in son
================================================================ ========
Ġv it
control led
Ġover come
st ab
Ġ* >(
ag ain
Ġstandard s
Ġdro ps
D ex
== '
Sk in
l x
Ġj unction
/ &
36 5
17 3
ri o
read Int
sd ay
ãĤ ¯
C pp
W elcome
20 9
Sub scribe
f id
iv ar
Pro tected
Present ation
so uth
Ġcontour s
- '
sc enario
Evalu ator
| \,
Present er
Ġactiv ated
B IG
Ġdimension less
Ġrecur sion
Cod er
Ġg t
ĠĠĠĠĠĠĠĠĠĠĠĠĠĠĠĠĠĠĠĠĠĠĠĠĠĠĠĠĠĠĠĠ ĠĠĠĠĠĠĠĠĠĠĠĠĠĠĠĠĠĠĠĠĠĠĠĠĠĠĠĠĠĠĠ
åĮ ħ
Mode s
[ {
s ms
Ġse ss
bad logic
ĠM ut
Ġli ber
}' $
ĠL D
Ch anging
ĠTest ing
hy dro
list ed
Cor ollary
Ġext rem
Ġh aven
le in
AM D
Ġenter ing
Ġs park
HE IGHT
um bo
zh ang
K M
m illi
ĠĠĠ čĊ
To Int
raw l
F loating
Ï ĩ
Ġex ercise
Ġtrans it
' />
ĠOR DER
Ġfor Key
Append ix
checker ed
ip y
Ġdeliver ed
dis p
ĠHe ap
decl aration
const rained
Ġface t
ĠDO C
19 6
W as
Ġ$ ^
CALL TYPE
ĠĠĠĠ ĉĉ
Ġaccompany ing
ĠD imension
Ġmodel ling
Ġsub mission
ĠSD SS
AI LABLE
ĠB attle
Ġequ ipment
App lications
g old
Ġimp ose
Th elia
ĠF ront
ĠCh ain
Å ¥
an other
(" :
writ able
st a
ĠI NS
b right
Ġrep orter
ect l
Load Balancer
Ġsent ences
cxx Function
me ans
ĠSt an
B io
Ġc ipher
Ġdeploy ed
Ġ( +
Ġreason ing
ĠR S
Sp inner
ĠROW SPAN
N ov
Ġde ps
ard own
ĠEX ISTS
. ][]{
w orth
ĠPr ince
Ïĥ Î·
STRUCT OR
VER T
E A
Ġs nippet
ĠB ul
Ġsus cept
ce ed
Property Changed
em er
Ali ases
ĠC hat
new Value
Http Kernel
co efficient
ss enger
`` ``
P ID
ĠSIGN AL
Re quires
ĠM R
ĠĠĠĠĠĠĠĠĠĠĠĠĠĠĠĠĠĠĠĠĠĠĠĠĠĠĠĠĠĠĠĠ ĠĠĠĠĠĠĠĠĠĠĠĠĠĠĠĠĠĠĠĠĠĠ
Ġpr inter
il lo
Ġm andatory
ĠTime stamp
:"- "`
Ġc ensus
ĠD al
Ġposs ibilities
Ġ([ #
- {
}{ {
index es
bra ck
Output s
fa re
Ġmark ers
B enchmark
Effect s
P ivot
Proto buf
In flater
Ġ` /
Ġ} }"
E m
ord on
=' "
Ġaut omorphism
coup led
ah ler
Ġj ar
AX B
Ġfif th
`. `
40 5
amlf ind
ĠNot ify
Ġa di
Ġcollect ive
Ġconnect ivity
Ġr anging
Ġt ension
Ġd iversity
Ġtermin ate
Ġfi la
lit er
)- (
al most
Get Instance
Absolute Path
M ismatch
.. "><
Acc um
ss er
Ġde limiter
collect or
Hard ware
f ive
19 66
sent ence
w oo
ĠIn struction
Ġsat ur
B en
ĠD AG
="../../../../ .."><
Ex periment
V o
Ġres cal
CL R
G l
Ġ= ~
SE CTION
Service Provider
ĠLo cale
ĠD om
bo unce
Ġprevent s
Ġre cv
lo m
ĠM PI
Ord inal
Ġv ast
remove Child
Play list
Ġa id
17 1
4 28
] ["
C ED
Ġho spital
Ġimp lications
Ġpost ed
Ġsat uration
PAT TERN
CLO SE
inc ar
Ġaccording ly
h b
DE S
enc ia
ic ians
Ġs cored
un iversal
Ġprob abilistic
e z
Ġ*/ ;
Ġpurch ase
Ġmod ulation
co ders
au di
v nd
to Have
ĠCarol ina
) }^{
ad ium
I de
Ġdissip ation
co ustic
ĠClear ly
Ġlocal s
Access ible
Ġoccup ied
p late
in strument
Ġmon omial
Recogn ition
RO LE
Dis connect
present ation
è ĥ½
o pp
}{ .
Ġpromis ing
Ġt idal
h ass
if ace
arc sec
ĠC esium
Med ium
Ġpre d
Ġcl ar
Add ing
un install
Ġen c
Ġintegr ity
t ier
ile ges
t ion
first Name
Primary Key
Ġart ificial
ĠPR IMARY
j ack
m usic
ĠCo untry
Ġg one
Pro files
Column Name
G W
ds l
O Caml
k p
Ġ" ../../
Th rift
troll ing
ĠSt age
77 7
IC Y
ĠS cale
NS Integer
ĠI ll
Ġtra it
ĠRe gex
Ġform ulated
Ġc umulative
TR IG
ĠR EL
post gres
Ġw heel
C y
ĠD L
un ge
Ġinject ive
Ġint ra
k ins
inter rupt
="../.. ">
p ed
| $.
quest ions
Ġd amping
Ġrelease s
METHOD CALLTYPE
Partition s
em o
col lision
Ġlat itude
E t
Ġc ru
off line
)$ ;
Pub lished
Ġt ill
relat ivistic
SA FE
8 64
ine q
Ġfix ing
åľ °
Occur s
' <
//////////////////////////////////////////////////////////////// ////////////////
Ġpreser ving
UN I
approx imation
ĠEx it
C ritical
al location
ĠI lluminate
ĠString Utils
ili pp
t ens
LE G
Ġst y
ub ectl
ok u
serv ing
V V
ro bo
Ġpres sed
neighb or
de ferred
y u
ol is
3333 33
Ġ' .'
Ġph iloso
show s
Red uc
M is
ere o
Ġre named
ay a
no ck
st an
ĠC U
ĠEx change
Let ter
J ump
ob tain
Ġac quire
J J
Ġpr ison
ĠImp ro
Ġattrib uted
ma d
19 20
ĠT ro
Ġop ens
Ġconstruct ors
aut orest
qu iet
Ġno va
strip ed
s lots
ĠC MB
ĠP air
ĠThe ory
Ġto urnament
ĠU Int
RO ID
v ary
Ġd l
P ix
Un safe
A H
Me ssaging
Ġact ors
ĠH OLDER
f ers
Ġhost ed
off s
Ġbl ur
Ġpod s
Fore ground
., ][]{
Ġrank ing
Ġcompreh ensive
co ffee
ĠT im
ĠL ater
Ġch mod
Ġf ish
ĠP Y
}\, .
ĠSTR ING
il ers
set Timeout
We ather
B SD
n of
Ã ´
determin ed
, $$
FOR CE
Ġp le
Ġel it
dis covery
ve ction
ss ian
T witter
ç ¬
Ġqu ad
Ġun likely
ĠCG Float
i at
Ġhas n
ival ence
ĠCON F
computer output
Ġnot ations
ĠDir ichlet
=" "/>
yl van
Ġdis connected
big array
Ġcon served
Ġtech nologies
ĠIN DEX
own ed
peri ence
St udy
Ġphot ometry
ups ilon
'' $
Ġad missible
z A
Ġt id
no align
- .
Ġheav ily
find utils
request ed
Ġelse where
e en
Ġ} _{
Ġde leting
}$ &
Ġread ily
Initial ization
Ġgap s
Ġe yes
ĠInt el
ĠAct iv
ĠP ra
ĠW i
22 6
Group Layout
Ġgeneral ize
Ġphys ically
Ġint ention
ĠD NA
ĠH W
Al g
press ure
ost er
si rable
us band
r type
Ġfind utils
Ġevery where
uzz le
AAAAAAAA AAAAAAAA
domain s
ros sed
ĠP ipeline
25 4
cycler View
Ġcopy ing
N orth
}, {"
stance s
ĠC LI
upload s
33 0
Ġpush ed
ĠCon current
44 3
ur ies
ĠRiemann ian
g uest
Ġarriv al
a rency
Ġc ards
ib li
ia o
UN USED
v ote
ĠS I
t rees
Ġo u
Ġstr ug
IDENT IFIER
Ġdisc ard
H AVE
ĠM id
ĠF ill
S sl
BIT S
v f
ĠComp uter
as InstanceOf
Ġchain ed
Ġ# [
Ġwrit able
ĠHe aders
Ġperformance s
Ġthere in
ov iet
ĠZ one
De ps
c ab
× ¢
ĠE ric
Face book
A st
li est
Ġpl anned
v iz
26 5
ĠB orel
PO INTER
ĠB oston
res erved
Ġtrans mitted
Not Supported
prov ides
ĠPar liament
Ġsupp ression
ĠE L
ag re
ĠDes cript
ĠInt Ptr
COMP RESS
Dot Net
df p
æ Ľ
ĠZ ero
}/ ${
Ġutil ize
P alette
g am
ext ent
ens ing
ne ver
Ġtri ang
Ġast ro
ĠAUT O
ç ¨
Ġf urn
ĠF L
Ġepis odes
B ay
ul la
ah oo
sr v
ĠM M
comb ined
S ocial
Ġge m
class ifier
Ġy oun
inter sect
Ġd ans
ĠC e
face s
Ġestim ating
ĠU LONG
TR IB
idel ity
ĠT RI
Ð°Ð ¼
Ġdis contin
}), \
Pro x
ĠO FF
ĠL ang
0 11
get Response
Ġc tor
ĠSt ation
g ender
="../.. ">Â«
{ }\
Server s
Ġo xygen
Mark et
Event Data
Percent age
] '
Ġr uby
}: \
S ucce
Ġcontrib uted
(' ../../
æĪ ·
ĠD uration
M g
Ġturn ing
2 75
Ġsp iral
H s
# [
dal vik
J P
M oney
ï ¸
Ġtime scale
in herits
B ubble
recomm ended
gs on
rect angle
Ġult imately
Ġle ts
åĢ ¼
d ap
l is
ENT ITY
o e
ĠCon v
ri pple
Ġvalu able
Ġmot ions
ĠY O
ĠNS Mutable
Compar er
Res olved
List Result
user id
Ġocc asion
col sep
ĠAd am
be en
ĠBra zil
R en
=" %
ĠS creen
add Action
30 5
n ical
Ġex pires
thes ized
acion es
k j
ĠAn notation
Ġo m
ĠM ix
20 7
ell s
h et
Ġtw ist
REQUI RED
med y
form ations
Aggreg ator
cm id
Respon der
Î ´
Fin ite
Interop Services
en queue
\ ).
re aded
ann a
Ġde serialize
With Error
Â °
Ġk ick
Inter preter
Ġsing let
-> __
Ġ' ?
Ġon going
ĠEx pl
ctu ation
at tention
Ġcapt ures
Ġcon trollers
laps ible
perturb ative
lor er
= ="
ĠIss ue
K P
un bind
Ġst oring
Pro cedure
Or ders
ĠOper a
">( <
Ġparame tric
Recur sive
! }
Ġmultip lier
ĠF riday
Off er
ĠJ eff
w esome
get Width
br ane
B uiltin
am ination
20 48
AP H
>( </
ĠTra ining
ĠE ither
multi put
Ġ> ::
chest er
re gs
ĠRE F
os itor
(" --
Ġcal ibr
NS URL
C Q
Ġun iversity
Ġt ack
Ġn l
EX IT
Ġco herence
HttpServlet Request
get Entity
Re comm
ĠB and
Ġfor cing
ãĥ¼ ãĥ
test case
Inter rupt
Ġrest ored
ĠIr ish
)) ^
SS H
Ġ Ú©
ther mal
Ġstat istic
Ab a
Ver b
math ord
="# "><
G D
33 7
ä½ į
****** *
Dig it
ĠGL double
Ġdiscrepan cy
ame d
lat itude
Ġhe ard
Tr unc
Ġiter ative
32 5
ĠAss ign
ĠImp lements
Author ity
ME MB
}$ \\
Un ited
S un
Ġnew er
f u
Ġc x
<!-- [
Ġimpro ving
Visual Studio
Th ird
vis ions
ann o
ob servation
pro cedure
n z
ĠI B
Ġmut ex
Ġal phabet
ĠG B
Ġch ip
Ġdifferent ly
" }}
rt c
æł ĩ
ro g
Ġto k
Per form
de cess
de limiter
ĠS on
') {
ĠF estival
ali ases
is Debug
ĠP as
De fs
ĠK a
ĠTime out
f lavor
Ġin ternet
Ġ" :"
ĠF ragment
V endor
istog rams
] _{\
}} |
Ġse at
check mark
5 37
Ġget Id
Py Object
PRIV ATE
ĠSt udio
Http Foundation
la beled
Ġagre es
AL I
ax es
IN C
ãĥ ĥ
Activ ate
Ġy ii
Ġtheore ms
ĠED IT
xf ord
ĉ ĠĠĠĠĠĠ
v out
Ġ -------
lu sters
) };
Page Token
ĠR ED
Fetch er
In herit
ĠD one
4 16
Ġmin ing
Ġ! $
Ġus b
ĠS outhern
Ġo x
Ġmount ed
get Connection
es cap
Ġ' (
w al
Ġan notated
tx fee
W ar
TR ACK
language s
S quare
G PIO
or ite
Ġprepar ation
Enum s
ĠMo zilla
Ġmor ning
B RE
uk awa
File system
unc er
Ġab solutely
$ ("#
G old
Dis posable
Cre ates
\ ;\
ĠP acific
Ġestim ators
Ġover lapping
ĠD ar
! /
z k
ĠC ro
CH ANG
ĠBlock ly
' ')
us able
DL L
aff ected
Un ix
onom ous
Ġsyn thesis
Ġ(! _
Ġneglect ed
Ġex emp
ĠDetermin es
Scal a
Ġ[ %
)\ |_{
Ġh ass
G s
Volume Source
Ġemploy ees
OPER ATION
ĠThe ore
Ġj a
Ġsuggest ions
B eta
R m
intro duction
o S
VIS IBLE
act ing
rans late
Ġconver ts
loc ator
^* $.
ï¸ ı
Ġcol lapsed
v ch
H old
ph on
div id
eler ik
}} }(
UI View
< _
contact s
CG Rect
Ġfi ction
Ġopportun ities
sw iper
Ġen force
ag on
ĠWh y
Ġconduct ivity
N AM
yn man
Attribute Value
R aster
get X
Ġ... )
AU DIO
Ġ* ************************************************************************
Ġ- (
Ġreflect s
final ize
ĠREQ UI
ĠP riv
ĠComp lete
ĠLeg end
ĠConstruct s
Ġ licenses
SU FF
Ġ icons
Ġin ventory
S qu
ps frag
clip board
5 50
88 59
Ġm r
//////////////////////////////////////////////////////////////// ////////////
Ġse ctors
OT H
ä½ ľ
Ġt rends
Check ing
ynchron ously
c ql
}-- \
2 18
M ATH
Ġenumer ation
Respon ses
> ):
Con cat
Ġcy linder
Ġc sv
++ ,
Ġtext area
call er
Ġb ur
co d
Ġtri angular
nipp ets
ĠS ans
Wait ing
ç «
Ġg p
Ġthrough put
Ġstats models
r ates
UL K
oc amlfind
Ġdesign s
Ġanno unce
Hand les
ĠGraph ics
rol lable
ĠFil m
3 64
> -->
AT OM
æ ı
Ġ$ %
ĠðŁ ı
wik ime
M illiseconds
o ft
ç º
à¥ į
Ġunit test
ĠQu ick
track s
SAMP LE
is ations
Ġqu otes
iter ate
Ġb uiltin
Ġfall ing
Dash board
ĠT ARGET
Deserial ize
ATT ACH
ĠL u
Ġsub groups
Ġparameter ized
Ġlong itude
vent ions
Ġ` '
vi ct
Ġp ic
Ġre serve
22 1
Exp anded
ĠWilli ams
Ġcounter part
ĠOpt im
um s
ĠL ower
B son
Ġfor t
Ġoutper forms
ĠM icro
Ch arge
Reduce Action
d atasets
ĠAs ia
Is True
Ġp ane
Ġg un
code haus
ex istence
ĠW omen
ĠJ ackson
An onymous
CS V
Ġconsider able
ĠAd vanced
t g
Ġa warded
get Next
le ans
urn als
Pair s
Ġs ake
Ġth r
Ġelimin ate
× ĳ
Ġconfirm ation
ĠLook up
ĠB as
Pat ient
Ġa de
Ġn oop
ew ise
51 20
Writ ten
è ±
ur ator
Ġion ization
Read Write
ĠO PTION
S IM
ĠTrans fer
orth and
qu it
ĠG ENER
A vg
ĠB at
ature s
Ġ__ (
Cap s
Resource Manager
T REE
bit Field
p om
el ve
Ġl ived
Pro cessed
Instance Id
sect et
C pu
Ø§ ÙĨ
A sk
ĠA vailable
Se g
c ot
or ous
base dir
Ġneur ons
s us
Ġc orners
17 4
Ã¼ r
Ġthous ands
ĠP aper
C ause
N ING
Ġmon op
"] [
ur sday
An imated
document Element
Ġdown stream
Ġte lescope
F our
00 9
ĠE NV
00000000 00000000
Ġin duce
Inv oice
0000000 1
ĠH ubble
ro gate
_+ $
W rapped
il t
ĠN ET
d B
ile y
ĠDist ribution
Ġtol ua
ct est
Da emon
' |
l vert
Ġt ap
Data Provider
Big Decimal
iz ens
Ġar rest
Le arning
Person al
Contain ing
ĠA CT
Ġspect roscopic
ECT OR
vanish ing
N B
o les
in ery
is Object
"> //
Ġcon versation
tr ation
ass ociation
Ġamb ig
Ð¾Ð ·
( #
C ampaign
Ġgr ate
cit ation
an ode
V oice
Ġtyp ing
ylvan ia
is In
event Name
Line No
Ġadmin istration
Ġex pose
ĠĠĠĠĠĠĠĠĠĠĠĠĠĠĠĠĠĠĠĠĠĠĠĠĠĠĠĠĠĠĠĠĠĠĠĠĠĠĠĠĠĠĠĠĠĠĠĠĠĠĠĠĠĠĠĠĠĠĠĠĠĠĠĠ ĠĠĠĠĠĠĠĠĠĠĠĠĠĠĠĠĠĠĠĠĠĠĠĠĠĠĠĠĠĠĠĠĠĠĠĠĠĠĠĠĠĠĠĠĠĠĠĠĠĠĠĠĠĠĠĠĠĠĠĠĠĠĠĠ
s x
Ġferm ionic
Ġlif ecycle
er ce
ĠSign al
e ither
}% &
b box
Ġland scape
min utes
éĻ ¤
front end
Pro tection
I l
w elcome
gl Get
Ġsynchron ization
Ġre ar
E MAIL
æī Ģ
/ -
ĠP AT
ĠL ord
cmid rule
P refs
m cite
an cer
ĠP acket
ĠPer formance
Ġre new
ĠF T
Ġw ake
ĠG ib
ag le
ĠNull PointerException
Ġon Create
Protocol s
Ġin tr
Ġsp ont
Ġg ates
ĠMap s
arr ant
Ġcontr ary
C ipher
ĠCh art
ĠSO CKS
ĠPart ition
oltz mann
åĽ ¾
get Table
Sta ke
n w
: ^(
e i
warning s
Ġmorph isms
= {{
38 6
dat asource
Ġsever e
ĠUP DATE
synchron ized
Ġperfect ly
ĠW ild
ĠLat in
C u
Ġas ymmetric
Ġinfin itely
Ġg reatest
(' --
Å į
Ġde eper
dat atype
inv oice
STOR AGE
Ġpublic ly
some thing
Ġor b
ĠB log
pri or
b pm
Ġm ic
Par agraph
Ġjav ascript
CONST ANT
ime ter
Ġcaref ully
Generated Code
S ho
Ġs udo
Ġh ero
Ġpa ssage
ĠDes erial
ĠVER SION
X R
z es
ĠUn like
Ġpropag ate
oxy gen
23 1
Ġsum mation
ĠJSON RPC
Red is
est imated
e ase
Co ordinator
game s
Ġexam ined
s ers
U ME
Sp atial
Thread Pool
ipart ite
Ġhy persurface
ogene ity
ĠCh ris
Ġsuper vised
Iter ation
ĠR ound
)) (
Ġcons ensus
Run With
OP S
ĠJo in
VO KE
DI ST
55 55
ĠEnd point
Ġ uc
XY Z
åĿ Ģ
th et
T Result
ĠResource Manager
[: ,
bo b
Ġanaly tically
ans ions
ĠU ART
inter est
end points
Ġsubstant ially
ĠFoot notes
Ġre build
2 15
Ġs lower
Wh y
ĠH ide
H ive
Ġscen es
Ġemphas ize
^ -\
Ġany more
f op
Col l
UP T
Ġe lapsed
Ġmethod ology
sup ers
A mb
ut ures
star ter
iv ially
me as
und erscore
/ <
Ġcom mission
Ġcons umed
Ġdegener acy
äº Ĩ
clo ak
Ġannih ilation
h pl
å ¿
Ġp node
Config urations
Ġproperty Name
ann on
S AT
Con struction
out e
in ventory
}^{ *
qual ified
set Visible
Ġexport ed
ĠM ah
Ġreson ances
4 30
Ĥ ¬
ĠG em
F ocused
Ġre finement
Out line
Ġac commod
Ġadvant ages
Ġhum ans
4 20
Ġm ill
ĠG TEST
ĠW riter
Ġqu iet
CRE T
Ġans atz
RE P
sub tract
Pass phrase
D ynam
ĠS ho
Ġpack ed
è± ¡
el ix
Ġsing er
èİ· åıĸ
ĠR C
Launch er
P et
Ġparse Float
ro bust
G allery
M or
ĠstringWith Format
Ġ# =>
Log Level
ht c
As sessment
UN IF
Tra ffic
solution s
Tool Tip
Ġtermin ated
Ġoffer ing
AM S
Ne ighb
Clip board
Ġm c
Ġscroll ing
ĠNa N
Ġp ow
Ġ$ (".
ĠP ak
ĠG ar
;\;\ ;\;\
Ġtra its
SETTING S
N at
)) }
Se ctions
VID EO
ĠS LOT
clear fix
sc m
Ġexplo sion
ĠDist ributed
Dig its
ĠN ight
ĠPo ol
Ã¶ r
ig m
Ġch an
Ġpre g
Ġpolar ized
Ġecon omy
Data Table
INTER VAL
UST ER
ãģ Ħ
get Size
ap ons
date Format
Ġd ry
Ver ifier
ĠOVER RIDE
h alo
Ġ ~~
sq cup
. \,
0 13
ANG O
Asp Net
arr ative
Ġreson ant
s ong
ĠPre pare
c M
Ġdistingu ished
qu er
Ġsp atially
Ġman uscript
Ġgraph ene
w ing
H uman
s ix
th o
ed a
get Local
off ice
Ġclo ses
E poch
get Height
^* $,
Ġc lang
long itude
express ions
structure d
do i
xml ns
Ġen abling
openc v
Ġadi abatic
Ġp lt
ĠÐ½ Ðµ
pub Date
ĠSerial ize
Ã Ĳ
interopRequire Default
Ġinter fer
Ġsem igroup
ATOR S
st y
de identifier
array s
Tr ansp
sim ulation
ad j
H F
å ŀ
se ason
Ġpo et
AMP LE
> (),
W hether
ĠImp lement
Jo urnal
Ġmolec ule
ĠImage s
Ġemit ter
ãģ §
litu de
pas sed
M W
da emon
Data Frame
ĠJer sey
* </
ĉĉ ĠĠĠĠĠ
Ġexplo it
Ġsuper nova
J Unit
ray s
b ol
] ()
\\ \\
Ġprincip les
AT AL
Ġdirect ives
Ġpredict s
k al
Ġnon negative
content Type
ĠN Y
Est imate
Ġhere by
harmon ic
| --------------------------------------------------------------------------
Ġshort est
Ġfrequ ent
Ġcor por
Ġd z
P lug
m or
M art
AV AILABLE
EM ENT
ĠSum mer
ĠEngine ering
n arrow
Ġv ot
p ract
Relative Layout
re duced
test er
Ġab sent
Ġcontra ction
ç ®
hss f
ge ode
ĠT I
ĠA mong
ĠR oom
Ġhighlight ed
S ans
oc s
Temp lating
R CC
check sum
R N
ÐµÐ½Ð¸ Ñı
ĠS can
os gi
è¿ Ķ
J OB
state ments
ĠS B
. ';
å »
Ġarriv ed
Ġ@ }
sp lash
activ ated
$ ]
H amiltonian
Pre par
At tack
power ed
friend ly
Ġincreasing ly
Ġbos onic
A gain
on ing
Token Identifier
}: =\
D RI
Ġg ro
Pre conditions
Ġil legal
ĠOver ride
M ich
enumer able
Sim ulation
ĠJo e
s entry
Ġp ing
Le ader
34 5
Ġnamespace s
Ġ Ñĩ
B ur
Ġretrie val
Ġdef ense
18 9
s ibling
Ġsuper ior
Cor ner
3 10
ul f
19 40
Un def
amer as
plan et
ï ¿
S UM
ĠĠĠĠĠĠĠĠĠĠĠĠĠĠĠĠ ĠĠĠĠĠĠĠĠĠĠĠĠĊ
wo uld
_ ));
un shift
ĠK B
Un used
Ġtra verse
remove EventListener
rs quo
open ed
ĠCustom er
n oop
v im
() ");
EN G
Al arm
ÐµÐ½Ð¸ Ðµ
p seudo
ĠF ac
l ify
()) ->
j er
× ł
Ġtime zone
Re maining
Ġsub string
Is Empty
Ġtri als
sur f
Ġres idents
áĥĲ áĥ
r vm
Ġth orough
Ġa ges
im m
ak en
Ġstr ange
\ (
r vert
Ġwavelength s
ĠG UID
Ġreg imes
Ġvisual ization
ķ ãĤ
ĠDis k
Ġto do
ĠM SG
Rep lica
Ġs pon
last Name
E u
å ĳ
Ġconj unction
æĸ¹ æ³ķ
H elvetica
elect ric
S a
i u
ĠP N
conver gence
Luc ene
VER IFY
ROW SER
pro pag
dd en
Ġdifferent iable
Ġattemp ting
ĠS ports
ĠN ullable
Ġnot ranslate
19 62
ĠTe le
ĠA U
Auto Fit
u set
ĠF IR
Ġ/ =
f ine
Ġconst itu
EX PR
Ġprior i
style able
ĠIsra el
e ther
ĠB lob
ĠC OR
Ġfluctu ation
de e
Ġj long
Ġlens ing
$ ^\
ial s
Ð¸ Ð½
c ies
di ctions
F o
index Path
W ang
Ġfor th
Ġhe ar
s am
AD ATA
ĠF AST
De velopment
PARAM S
K er
ed ition
Un iversity
M ixed
Ġl s
Ob serve
ex periments
ME lement
Work Item
19 45
ĠĠĠĠĠĠĠĠĠĠĠĠĠĠĠĠĠĠĠĠĠĠĠĠĠĠĠĠĠĠĠĠ ĠĠĠĠĠĠĠĠĠĠĠĠĠĠĠĠĠĠĠĠĠĠĠĠĠ
An t
wn d
Ġcap s
Walk er
Ãµ es
p lex
ing ui
ĠOn line
ĠMessage s
Ġcard inality
Ġe co
Event Emitter
Ð ļ
ĠO t
RE MO
Ġcor ollary
es se
Ġcon tro
ĠK on
Ġsol di
E OL
Ġcon sectet
Ġ_ )
Ġamb ient
G IT
Ġcheck out
ues day
ĠChild ren
S ENT
Ġma intenance
SH ADER
Ġax ial
Ġatmo spheric
Ġw ider
Ġup stream
2 90
St ory
Background Color
vent ure
Ġpo les
lex er
sp ar
Ġupper case
ĠN avy
linked in
ĠEN ABLE
J B
S park
ma de
inter section
sp it
get Result
}\ {
Inst ead
K eeper
ms gs
( ../
Ġtime line
pent aho
te ctions
thon ormal
Ġconsider ably
ĠHOLDER S
Ġre form
ĠO C
triang leq
44 4
Ġpan demic
Ġcon sequently
Ġar my
Ġw tx
^* $-
Ġp block
y ll
ot os
Ġv ic
ĠC are
Ġconst it
ns ylvania
w av
Token Type
oo f
es Module
ines ses
Ġh et
ĠA ri
ob servable
( ?
tr iple
Ġnot able
ĠW EB
Ġlatt ices
P V
Ġt bl
ĠN orm
b irth
h on
Test Method
emit ter
Ġup loaded
Ġmem set
Ġbr ings
ug ue
Ġ` "
=\ ,
Å Ľ
}\ |\
ĠO wn
comp let
cla zz
evalu ation
3 40
19 63
UT IL
high er
COMP LETE
Fac ade
Base line
At tached
online cite
p ivot
obj c
In coming
UN SIGNED
er ver
Ġa pert
Ġf g
Ġsc oring
measure ment
f printf
m ile
stit ution
. }.
S ales
h ierarchy
i ated
id ity
ze b
an z
mg mt
Ġ ib
un register
Sto ck
{$ {\
ĠArt icle
ure n
ĠB ridge
use Summary
ĠÂ £
ĠAlloc ate
Ġb attery
33 6
S outh
foo bar
e pa
Ġport folio
lick r
Ġnucle on
descr div
D lg
LO PT
l Vert
Ġplay list
ĠTh ird
assert Not
C amel
Text Node
do ck
ĠFrancis co
st udio
Ġw el
uct or
\ &
Ġb rane
) "/>
co w
Ġl it
un es
ĠBan ach
ĠV o
bit co
Ġpub lisher
Ġassert ions
ing ly
address book
Ġturbul ent
sendcoins dialog
ĠA CE
De crypt
Web Service
dump s
k on
get Root
Ġ_ (
non ce
åı Ĥ
isen berg
ĠSc ene
Ġ& (
ĠIsl ands
}) }{\
ng doc
Ġcollect or
D avid
LE TED
start up
G pu
em ale
äº İ
ĠSyntax Kind
! ("
k bd
Ġ ub
sc i
AT ER
Sur vey
Ġde sktop
ĠD ummy
ĠBuild ing
() -
Ġco lored
ink owski
), $
Ġanim als
ĠS cope
Depend ent
ĠÐ´ Ð»Ñı
ĠAn t
Ġh usband
2 14
bo uncy
=' /
AS M
Prop Types
éĹ ´
åŀ ĭ
ĠM ach
ĠFig ures
add Listener
find One
ĠMon day
get Index
ĠC AS
A ES
18 3
Ġf li
H istor
part icular
)} ]
Ġoptim izer
myItem Id
me chan
myItem Type
E c
get Date
Ġch ief
Ref lect
Ġloc ate
ToolStrip MenuItem
Ġe lems
N H
g lass
co ol
ĠSt ory
Ġst amp
E IN
gra ding
ÑĢ ÐµÑģ
ĠSh are
\% .
L ittle
Ġc usp
Ġpre liminary
Ġref s
ĠHttp Request
" };
y i
ĠP E
ĠP ER
ATION S
åĲ ¦
22 9
ĠLogger Factory
sk b
Ġvari ed
Ġâ ĨĴ
ĠL ooks
ĠS ED
ĠC LA
NO RE
hance d
qu s
Object Name
que ued
ends With
Ġder iving
free ze
g nu
Ġd up
ĠEx tended
Ġhad ronic
Ù ¾
80 2
assert In
Ĵ Į
sp ort
me ters
Ġrespons ibility
Ġa udit
30 7
Ġbad ge
ab ar
Test Data
^+ (
Ġmultip ly
Ġre late
instance type
Ġdown loaded
C assandra
Ġvari eties
_ <
Ġt ube
ĠN A
Ġ] ];
," ./
Ġchain ing
Comp ressed
Not ifier
Ġcontact s
Ġp thread
22 8
fin ing
# _
C USTOM
x ilinx
{ -\
Ġb ump
AL OG
Ġappro ved
ino is
, [
}^ -
download s
ĠK r
nos is
< ![
Ġgra mmar
Ġdistort ion
Test Utils
put s
lat in
ros copy
Ġp et
Ġalong side
Ġexperi ences
Ġ?> "
Ġf c
An gular
Ġsymbol ic
yl ind
TRIB UT
c C
ĠR UN
åĲ İ
F ly
âĢ ĺ
box ed
ĠRed is
to List
18 4
ĠUn ique
Ġrecogn ize
PRI ORITY
100 0000
search box
PA Y
Ġexp ired
ins pection
Network ing
ĠOb serv
Ġw char
Ġe in
Ġexplo de
C are
To ast
PRO XY
At t
Ġ Ø§Ø
Image Path
ĠEn coding
text Size
DE ST
tabular newline
o ses
CO D
mem cpy
}, \,
24 7
row sing
Ġfile Path
ĠPri mitive
emp lace
23 9
B old
ĠF r
SE Q
SUP PORT
gre ement
Ġlink ing
CALL BACK
Ġminim ization
Ġremark able
Ġp v
ĠS ar
Ve hicle
bouncy castle
F ET
De p
Ġs nap
distribution s
Encrypt ed
Ġbe have
ac er
Sto pped
Ġa coustic
Ġmagnet ization
CO ORD
az e
ĠCONNECT ION
C e
ĠTra it
v u
S olver
t ur
center ed
âĢĿ .
Ġphot os
UI Image
Sto red
an notated
sh ipping
Ġanisot ropic
Ġaccess ing
ĠNS Array
Ġf rozen
_ :
ĠTR ACE
key up
rib bon
Ġfind ViewById
à¤ °
); \
}{ -
Ġqu it
ĠScal ar
L it
'=> $
var d
: ;"
{- .
st m
rf c
de z
Ġb rown
)+ (
C ERT
Ġb p
Book mark
25 7
recogn ized
Ġinvest ment
ĠPri mary
Ġpul s
Ġdis patcher
Collect ors
3 90
] &
Q Q
Ġgra in
commut ative
ph ia
Ġy y
åĪ Ĺ
Ġs andbox
set Id
Ġexponent s
ĠPay ment
Ġsubstit ute
ĠASC II
ne eded
Ġgra b
Exec utable
ĠNE W
CO VER
Time Zone
ol y
ĠCh ern
$ _\
res se
Ġcon form
ate ch
Ġround s
); }
pre ce
Ġsat is
opt imize
breadcrumb s
For Type
Ġautom ated
Ġsupers ymmetric
Ġmur der
ë ĭ
add Child
dd dd
Ġsus pect
Ġro unded
Ġsupers ymmetry
ĠG alaxy
Ġdo g
ARG UMENT
C MS
} ".
Send Fields
2 16
ri k
ass o
Does Not
/ ).
Ġb fd
ĠG Hz
back ward
ä¿¡ æģ¯
f atal
em ission
creens hot
GeneratedMessage V
Ġm iles
Bar rier
ĠMin or
Ġsen ior
cord ance
index ed
R SA
Ġis Valid
32 7
ad words
Collection View
Phys Rev
s ampler
Ġ Ð¾ÑĤ
ĠMy SQL
ĠStud ies
Set Value
è¿ ĩ
Ġexperience d
ad get
Ġpar abolic
Gra de
ĠEl se
s lides
cons ume
ï¿ ½
T oday
w icket
FR ING
Arch itecture
") [
Ġpredict ive
Ġmetall ic
// #
ĠUn fortunately
ĠBrit ain
ĠA ctor
im als
19 30
progress ive
ĠN LO
40 96
k pc
Ġd op
pa c
Ġscal ars
Ġc ance
In sets
ĠA wards
Com m
Ad S
ĠSign ature
in finite
Ġmac ros
mod ern
Exp iration
Play ing
Ġb ran
ĠD T
s impl
ĠSpa in
ĠA cc
}{ (\
gr u
ĠCall ing
run s
REG ION
pos als
ĠTo String
convert ed
ĠE igen
Po ssible
set Data
Ġ\ )
Ġl ongest
SCO PE
( ...)
Ġ\ ,\,
ĠCont ract
G ro
Ġm alloc
base Url
Property Value
cy an
." ));
[ +
ĠA rial
100 000
Ġsc anner
Ġmultiplic ative
ĠRetrie ves
ĠS ir
ĠHE AD
M i
check point
ĠG auss
Mag ic
ĠDescript or
] |
Ġon Changed
ĠN L
Ġpur s
cal lable
Ã¤ r
Ġem otion
-> ]
m h
Ġs lices
Ġmod erate
ĠW ho
Ġcheck er
CD M
Ġfriend ly
q n
Ġjo ining
ĠAssembly Version
un able
)$ :
Ġdisc la
0 15
Ġp icker
sub st
IF AR
Ġcas cade
Lex er
Acknowledge ments
d ar
} &=&
TH AT
Ġcl oned
ord ova
Ġset Value
pop ulate
Sub string
? (:
Ġcomplex es
ĠB L
pol ynomial
gy pt
ä¸Ń çļĦ
Ġt iles
bf d
Ġassign ments
" ',
Ġ` [
ĉĉĉĉĉĉĉ Ċ
bro ken
ĉ ĠĠĠĠĠĠĠĠĠĠĠĠĠĠĠĠĠĠĠ
... ,
Ġident ifiers
ÑģÑĤ ÑĢ
bur gh
Ġfav our
ĠRel ation
. }}
Ġput ting
Ġz h
Or Create
Te V
Ġbig gest
ĠW arning
W ARD
or b
ch ro
Ġbas ically
S y
ac cent
Ġoper ands
deep Equal
0 16
G auge
DAT ABASE
ĠInv est
z n
State Machine
ĠAlex ander
Sens io
ĠI l
am odel
ĠÎ ´
report ing
Ġsole ly
Ġcombin atorial
Ġl y
ĠP AGE
res on
Ġmax imize
Ġen rich
() ];
Lim its
0 33
ĠĠĠĠĠĠĠĠ ĉ
lo dash
int Value
root s
MAT RIX
Ġs oc
Order By
a des
e se
ert y
Ne eds
Ġsw ift
s se
ĠL im
method Name
Ġpol ling
P DO
clo ver
Thumb nail
() +
ĠM apping
ĠĠĠĠĠĠĠĠĠĠĠĠĠĠĠĠĠĠĠĠĠĠĠĠĠĠĠĠĠĠĠĠ Ċ
}}{ {\
high charts
fra ct
}' .
G oto
)/ (
E lect
re main
Ġs la
Â ·
Ġimp er
Ġneighb oring
Ġtransp ose
G ray
J y
sc or
log ged
ĠH arr
ri m
Ġop code
* );
Ġt b
ĠC op
scri bers
Ġgl Get
program listing
D u
G ot
Inter actions
store d
Ġv otes
ĠB us
eq l
fli x
B V
in structions
Ġdocument ed
POS ITION
C os
Ġind ustrial
Ġattract ive
Ġal ive
Time Series
Ġn ick
ĠD an
Ġcar rier
NON YM
View Group
comb ine
er ving
ord inal
ĠQ U
G H
ĠJ ordan
cur ves
', $
SH ARE
ro b
Ġc u
ant lr
Ġfavor ite
ment um
ign er
Ġj udge
priv acy
N ational
Ġh air
ĠB LA
Th ing
ĠD ash
Ġoc aml
E urope
v fs
glyph icons
place s
m vc
Table t
FRING EMENT
Ġque ues
Ġcor pus
Ġremark s
a ug
Ġpa in
sol ver
ĠMod ern
det ector
Ġpa gination
Ġincorpor ated
å ¦Ĥ
Ġc redential
Ġp f
çĶ Ł
S hop
de ck
Ġevolution ary
ÑģÑĤ Ð²
L ua
debug ger
DE L
22 3
nes day
Ġcle ared
Ġrelig ious
as l
Ġmot ivation
COMM ENT
Ġv ent
Ġhal os
CLE AR
Ġc rop
ĠB LOCK
ĠRed irect
Y r
_ ),
x link
ĠH or
ub a
ĠB order
Ġins ights
}^{ [
Ġgal actic
DO T
Member Type
I SS
iz ar
ac cording
Ġre tro
Ġnode Name
Ġoffic er
pt on
mat rices
ĠComp osite
enn is
Ġmanip ulation
j on
DE TAIL
Mov ie
math rel
now led
dist ribute
Ġacade mic
enc er
)}\ \
MSearch Results
Ġinstanti ate
Re cipient
re veal
Ġan imal
g ian
ĠL ar
T om
Ġent ers
ĠT ouch
get Session
An cestor
X P
imp lemented
ĠF ood
å» º
}} %
db us
SCA LE
ðŁ ĵ
Ġray s
SY NONYM
de velop
get Selected
jo hn
click ed
O ct
EX TERN
G V
Ġal umni
IN FRINGEMENT
ĠC apture
Det ach
Ass oci
ĠDa ily
Ġ urban
23 8
ar ters
ĠT ile
ignore d
- </
ĠGe ometry
Ġ lay
ĠC ivil
ĠCan not
member of
Ġnom inal
parame tr
ĠEx tra
Ġs port
ĠMo unt
Argument NullException
Un less
Ġpract ices
æ ¬
Ġw ins
h anded
cap abilities
Ġsepar able
T iles
web socket
sp awn
do ja
Ġpy lint
ĠMich igan
ĠM W
ĠE P
trans actions
Ð Ķ
Numer ical
Ġ" $(
var sigma
Ġutil ized
Ġthink ing
Ġanalog ue
ĠIN ST
3 15
Ġback ing
ĠS oviet
Ġtarget ed
restrict ed
f on
irection al
Ġss h
Override s
Dir s
Ġsock addr
] =\
th s
ĠP I
di aui
AC C
wikime diaui
li ant
F req
ĠColumb ia
ĠM ike
v iolet
get Target
ĠI de
ĠD ot
RE EN
Ġt cp
Ġnew sp
ĠFore ign
Members hip
Ġquant ify
ĠSto ck
Th rown
^* )
comb ination
/ ></
b luetooth
r ational
remove All
ĠNe umann
ĠBack ground
Ġels if
IN TE
export ed
ufact urer
4 29
n Height
Error Reason
Str ong
on ia
ĠG reg
Ident ifiers
ĠUtil ity
9 60
Ġp refs
fra gments
Ġcached Ser
N g
Ġdeta ch
enum s
s ized
Ġpro fit
os able
static method
ĠPri ority
S ect
th ur
offset s
LOG GER
Ġsuperconduct ing
Form ula
li u
ĠC SV
im i
ĠĠĠĠĠĠĠĠĠĠĠĠĠĠĠĠĠĠĠĠĠĠĠĠĠĠĠĠĠĠĠĠ ĠĠĠĠĠĠĠĠĠĠĠĠĠĠĠĠĠĠĠĠĠĠĠĠĠĠĠĠĠĠĠĠĠĠĠ
Execution Context
PREC ATED
27 1
ĠFe b
Lat Lng
Ġdev oted
ot lin
f ancy
data Source
Ġnav igator
} ~~
ĉĉ ĠĠĠĠĠĠ
Ġu k
Ġconflict s
Ġ --------
Ġ" ,"
log raph
Met er
Ġw elcome
Av atar
, {
} ].
ĠMet ric
Ġcompet itive
ĠA lf
ĠP RI
sc anner
cancel lationToken
g log
Ġh ub
Ġfe et
2 17
Ġcon tributes
Ġcomplement ary
Ġs addle
ĠS and
ĠCur sor
Ġmu on
k lass
k ka
get Properties
18 1
ĠTr ust
ire ctions
it ored
IM AL
Ġ× ľ
C ID
ĠD id
Ġoccur ring
pl ural
dig its
19 61
Action Event
= `
v est
æ ĭ
Client s
mark ed
re duction
Ġred undant
Ġbalance d
Ġsur jective
ĠC os
ĠL dalvik
c ue
ep ler
work ers
F light
ĠCon n
ACT IV
le ter
ĠF lat
SQL Exception
ĠOh io
aut om
op code
ĠRe member
Ġcre ator
bl end
mut ation
ĠĠĠĠĠĠĠĠĠĠĠĠĠĠĠĠĠĠĠĠĠĠĠĠĠĠĠĠĠĠĠĠ ĠĠĠĠĠĠĠĠĠĠĠĠĠĠĠĠĠĠĠĠĠĠĠĠĠĠ
Ext end
ar o
Ġstr at
w ich
ul sion
ĠHttp Servlet
DB G
Ġsm oothing
li us
24 8
H IST
ĠK al
ater al
Ġown ers
Drop Down
A Z
In et
gre ater
pol ygon
] ,\
User Bundle
Ġinitial izing
sort able
Ġpick ed
UIT ableView
Exp ansion
F und
Ġd rum
A rena
Ġgroup ing
Ġ ÑĢ
ĠL ex
Ġmon otone
Ã§ o
P b
Re load
ĠAUTH ORS
? âĢĿ
ĠI ce
Ġjo urney
18 6
Scroll View
Ġd m
Ġsub sequence
ĠPer iod
st icky
ĠF ederal
ĠL azy
Ins pection
Ġbeaut iful
Ġmicros copic
M ID
Ġmer ely
Ġbug s
jac ency
Ġvict ory
K T
ex pires
Ġreal ize
Ġev olve
40 9
Ġf t
Ġs ister
lock s
COMM IT
( $.
retrie ve
ĠD P
+ |\
ĠI PC
Ġs pars
Ġd ns
gro ovy
' _{\
ĠF lags
SK IP
mk ern
Ġaz imuth
ĠW ales
allow s
in tr
Ġinvalid ate
zeb kit
roll ment
Ġm im
âĢ ¢
Comb ining
Ġincorpor ate
Ġw inner
Ġg rep
ï»¿ //
l ig
Ġapp reci
]{ @{}
Ġsc ient
E ast
mix in
Ġloc ator
Ġsin on
é Ĵ
Ġ// ----------------------------------------------------------------
ack nowled
25 2
FA KE
Ġ[ @
git lab
\ ),
K w
js x
[' _
Ñ Ĭ
me the
box es
ĠFor ward
Ġanten na
C tor
L em
c gi
st ability
ĠP in
aw k
jas per
w rong
ĠS n
*/ ,
M aintenance
n ice
ç İ
writ es
ĠEmp ire
th ought
Ġsh ips
PRO DU
è¿ Ļ
source LineNo
tx n
ĠSh ell
ah n
Sub view
bitco ingui
) ]{
ĠĠĠĠĠĠĠĠĠĠĠ Ċ
ĠH an
ITER AL
ro ach
ĠâĢ ¦
get ting
ĠIt ems
Ġconsectet ur
| (
B uff
R i
W nd
Ġwait For
24 2
ĠDE F
ĠElement s
P URE
od ic
ĠB ang
Ġhypo theses
CO MB
ĠRes olve
ĠWeb Kit
ĠSch r
is Not
P aper
Host name
ĠT C
so v
SE CRET
M ON
b ubble
is Equal
\% )
ĠM AP
ĠCh oose
u in
an tom
is String
Ġtest net
Ġcult ural
Ġsub scribe
)} +
al ong
Test Base
pm od
b ab
h f
al gorithms
F REE
ĠR h
Ġden ominator
Effect ive
Object Id
ĠInter rupt
Ġgain ed
ur ious
Ġm il
row e
24 6
\": \"
ĠWork s
set Type
GO OD
B ob
Ġw itness
Ġ\ $
Ġmod ifiers
ĠEvent Args
- )
Ģ </
os hi
agre ement
MEMB ER
N ick
Ġyield ing
Ġf ellow
IM G
ĠOP EN
be a
q w
Ġg host
Ġm art
Ġre tained
ĠR en
Ġsub system
PRO G
tal k
chev ron
as ymptot
Get Current
ĠMed ical
R AM
Ġdiff use
Ġra m
Index Path
ty pography
et ag
ĠG D
ĠTh anks
Ġfa int
Ġdiscla imer
onto logy
}=\ {
lood light
ĠCompar ison
Ġf at
ĠðŁ ļ
ĠF riend
Play back
0 50
f ew
taint y
magn itude
è °
Ġa th
get Start
}^{ {\
A ug
und a
ĠRes Net
lik elihood
Com munity
Ġman aging
numer ical
be ing
A ux
Ġa fore
Ġan cient
n ano
ec ma
stop Propagation
id ade
22 7
Ġclass ify
ĠN V
data Provider
cyc les
robo lectric
HT MLElement
Ass ociated
s nippet
Ġf m
ĠSer vlet
e o
Ġpass ive
cla use
ĠMatch er
W AL
ĠEx cel
pro blems
ĠL IB
Ġtransform er
Ġol dest
M ot
Ġblock chain
åĮ ĸ
pri m
atist ically
document s
Ġfail ing
rep orter
Ġc up
Ġwest ern
ĠPen nsylvania
ee ee
Ġaddition ally
isDebug Enabled
Ph rase
Ġ* ********************************
ĠP rem
ĠAs ian
` ).
g ene
embed ding
Ġfoc using
Ġ} ))
Bo ss
B ROWSER
Ġ ÑĦ
Ġon load
Ġmagaz ine
ey e
Ġsho p
get Config
Test Suite
Mer kle
ĠLANG UAGE
ĠĠ ĉĉ
ĠReg istry
lo ch
ron s
Ġte arDown
Â »
Ġoper ational
bi ased
Ġtrip let
Non ce
th em
Ġ rom
No Such
EDIT OR
Ġsimp licial
syn thesize
Ġ( ),
ĠC ALL
Aff inity
Ġinstitution s
SUFF IX
un confirmed
Res ervation
mathb in
ĠC MS
**** */
Ġch air
w ns
) ');
uss ian
Rob ot
Fire wall
ï¸ı </
lo dy
Ġan not
Ġ Ùħ
em ens
ac ci
Ġsub process
A lex
C ls
âĢĿ ,
Ġmiddle ware
Ġmed al
gr unt
Ã¡ s
W F
b ury
equal To
8 47
ĠB P
ĠN ic
Ã§ a
move To
match ers
Ġd ome
get Query
ACH ED
Open QA
ws dl
Ġt ray
Ġt ang
Ġhe uristic
Ġcontent Type
is Enabled
ide al
ĠAdd ing
Ġde serialized
Ġagreement s
temp oral
en velope
Ġk v
Recent ly
}\ |_{
27 7
x fer
Ġen gines
char Code
tan h
break ing
ar ab
ĠS parse
([ [
S andbox
ar on
Ġa zure
C ANCE
lo be
ĠSe veral
Ġspa wn
B attle
< -
s ans
sm tp
Ġcompar ator
ĠError s
s ax
Ġs lides
19 59
Ġrank ed
REF ERENCE
Ġre versed
ĠC Script
Ġeigen states
Ġh ousing
0 20
small matrix
Edit Text
D ense
Ġ lic
s ures
ĠSt udy
Trans formation
Sc ratch
ĠRest ore
ĠDeveloper Error
ĠPart ial
ĠTop ic
th ew
ll ll
en ses
ph onic
En sure
ĠL imit
uck y
inject or
Ġso lo
mm ode
End Point
Ġn it
pa st
md ash
ĠS ep
just ified
Ġfoc uses
quad r
Ġaut oc
Host s
ĠDest roy
y ang
Ġ ÏĦ
ĠCh apter
j unction
ĠW idth
Ġsp ell
ĠB T
g reg
28 5
Ġperman ent
ov ing
Ġsol ves
ĠCOMM AND
at an
Ġauthor ized
; '
Ġseason s
. :
}) \\
alan cing
element Name
ji ra
Ġth resholds
Ġab and
ag rant
ĠR og
launch er
o val
trans formation
extra s
Full screen
Ġcon sumers
URI Component
Ġsex ual
ĠDe ad
ĠQue en
3 80
(_ ("
ĠC Transaction
create Class
Clo sing
') ])
Ġlo ose
Progress Bar
ĠVariable s
check out
> );
ge ometric
os ities
Ġeigenvector s
k emon
s peaker
ile ged
ĉĉĉĉĉĉĉĉ ĉĉĉĉĉĉĉĉ
Max Value
Ġ Ø§ÙĦ
Get ting
IT IVE
ĠðŁ Ĳ
if mmode
IN ET
bo lev
Ġm ent
Ġpermut ations
udd y
Ġde cade
Re lay
w ere
70 7
Ġcarry ing
it ical
Ġpe ace
Det ect
Ġa gg
ed is
ĠMed ic
fra structure
@ -
exp lo
Ġs and
ĠUp load
methe us
ĠL S
Ġi x
D TS
Ġs ale
? \
¹ </
LIBR ARY
ĠPAR SER
A pr
F V
ĠF lu
ĠNS Log
S ong
t el
il st
vector s
ĠSQL ite
ĠØ ¯
HAND LER
M SC
book mark
ĠS USY
EL L
Failed Exception
si emens
Number Format
Ġin active
Ġresource Culture
A gg
G X
Ġbus y
ĠC URL
Ġget Data
Ġpre pend
B m
al ph
Min us
* {\
ĠF air
sg i
ĠPol y
Y aml
cor p
par ity
ĠðŁ §
or able
Ġn n
Se p
cri bed
no se
Ġlabel led
9999 99
E mber
Ġm ales
In str
ĠDen ote
Ġk on
Ap prox
> ðŁĵ
] },
Ġa ui
set Visibility
ĠMod ify
pur pose
( |\
sub package
Temp orary
Ġextens ively
ãģ ¯
Get Object
Ġ\ %
Ġlower case
Ġinvok ing
ĠF ro
ĠT ITLE
Ġcosmo logy
Team Foundation
c ategor
ĠL td
s ight
clus ively
Ġob s
project View
parame tric
Ġcre ative
App ender
ĠB esides
') }
}= {\
Da mage
PRO FILE
çĽ ®
0 14
h g
gress ive
')) )
å §
Ġnot ified
ĠA th
Ġco vari
read s
url Params
ĠCh ief
Ġframework s
Å Ī
SECON D
esting ly
B rit
Ġanaly zing
") {
require ments
29 5
CG Float
i om
n Ã©
avai lability
sem antic
Ġthe ta
ĠðŁļ Ģ</
ĠðŁĲ £
>ðŁĵ ħ
ľ ï¸ı</
Qu it
des ired
ĠðŁı ľï¸ı</
ĠðŁ§ ¹</
s ales
Ġtr uly
ĠSat urday
B an
j st
Format ting
Rep resent
ĠWe ak
R ATE
per l
ĠF lo
)) ));
Ġexception al
ĠOper ations
ach uset
\, $\
ĠValid ator
yst er
6 25
RE MOVE
19 00
(' $
Comp ress
Ġregex p
rows able
s child
è ·
vers ations
> >(
i w
s ymfony
de b
ĠS core
Ġed ited
P W
ĠLog ical
~ /
re action
Tri angle
cip es
[...]
