{
  "version": "1.0",
  "truncation": null,
  "padding": null,
  "added_tokens": [
    {
      "id": 0,
      "content": "[UNK]",
      "single_word": false,
      "lstrip": false,
      "rstrip": false,
      "normalized": false,
      "special": true
    }
  ],
  "normalizer": null,
  "pre_tokenizer": {
    "type": "Sequence",
    "pretokenizers": [
      {
        "type": "Digits",
        "individual_digits": false
      },
      {
        "type": "ByteLevel",
        "add_prefix_space": false,
        "trim_offsets": true,
        "use_regex": true
      }
    ]
  },
  "post_processor": null,
  "decoder": null,
  "model": {
    "type": "BPE",
    "dropout": null,
    "unk_token": "[UNK]",
    "continuing_subword_prefix": null,
    "end_of_word_suffix": null,
    "fuse_unk": false,
    "byte_fallback": false,
    "vocab": {
      "[UNK]": 0,
      "!": 1,
      "\"": 2,
      "#": 3,
      "$": 4,
      "%": 5,
      "&": 6,
      "'": 7,
      "(": 8,
      ")": 9,
      "*": 10,
      "+": 11,
      ",": 12,
      "-": 13,
      ".": 14,
      "/": 15,
      "0": 16,
      "1": 17,
      "2": 18,
      "3": 19,
      "4": 20,
      "5": 21,
      "6": 22,
      "7": 23,
      "8": 24,
      "9": 25,
      ":": 26,
      ";": 27,
      "<": 28,
      "=": 29,
      ">": 30,
      "?": 31,
      "@": 32,
      "A": 33,
      "B": 34,
      "C": 35,
      "D": 36,
      "E": 37,
      "F": 38,
      "G": 39,
      "H": 40,
      "I": 41,
      "J": 42,
      "K": 43,
      "L": 44,
      "M": 45,
      "N": 46,
      "O": 47,
      "P": 48,
      "Q": 49,
      "R": 50,
      "S": 51,
      "T": 52,
      "U": 53,
      "V": 54,
      "W": 55,
      "X": 56,
      "Y": 57,
      "Z": 58,
      "[": 59,
      "\\": 60,
      "]": 61,
      "^": 62,
      "_": 63,
      "`": 64,
      "a": 65,
      "b": 66,
      "c": 67,
      "d": 68,
      "e": 69,
      "f": 70,
      "g": 71,
      "h": 72,
      "i": 73,
      "j": 74,
      "k": 75,
      "l": 76,
      "m": 77,
      "n": 78,
      "o": 79,
      "p": 80,
      "q": 81,
      "r": 82,
      "s": 83,
      "t": 84,
      "u": 85,
      "v": 86,
      "w": 87,
      "x": 88,
      "y": 89,
      "z": 90,
      "{": 91,
      "|": 92,
      "}": 93,
      "~": 94,
      "¡": 95,
      "¢": 96,
      "£": 97,
      "¤": 98,
      "¥": 99,
      "¦": 100,
      "§": 101,
      "¨": 102,
      "©": 103,
      "ª": 104,
      "«": 105,
      "¬": 106,
      "®": 107,
      "¯": 108,
      "°": 109,
      "±": 110,
      "²": 111,
      "³": 112,
      "´": 113,
      "µ": 114,
      "¶": 115,
      "·": 116,
      "¸": 117,
      "¹": 118,
      "º": 119,
      "»": 120,
      "¼": 121,
      "½": 122,
      "¾": 123,
      "¿": 124,
      "Â": 125,
      "Ã": 126,
      "Ä": 127,
      "Å": 128,
      "Æ": 129,
      "Ç": 130,
      "È": 131,
      "É": 132,
      "Ê": 133,
      "Ë": 134,
      "Ì": 135,
      "Í": 136,
      "Î": 137,
      "Ï": 138,
      "Ð": 139,
      "Ñ": 140,
      "Ò": 141,
      "Ó": 142,
      "Ô": 143,
      "Õ": 144,
      "Ö": 145,
      "×": 146,
      "Ø": 147,
      "Ù": 148,
      "Ú": 149,
      "Û": 150,
      "Ü": 151,
      "Ý": 152,
      "Þ": 153,
      "ß": 154,
      "à": 155,
      "á": 156,
      "â": 157,
      "ã": 158,
      "ä": 159,
      "å": 160,
      "æ": 161,
      "ç": 162,
      "è": 163,
      "é": 164,
      "ê": 165,
      "ë": 166,
      "ì": 167,
      "í": 168,
      "î": 169,
      "ï": 170,
      "ð": 171,
      "ñ": 172,
      "ò": 173,
      "ó": 174,
      "ô": 175,
      "Ā": 176,
      "ā": 177,
      "Ă": 178,
      "ă": 179,
      "Ą": 180,
      "ą": 181,
      "Ć": 182,
      "ć": 183,
      "Ĉ": 184,
      "ĉ": 185,
      "Ċ": 186,
      "ċ": 187,
      "Č": 188,
      "č": 189,
      "Ď": 190,
      "ď": 191,
      "Đ": 192,
      "đ": 193,
      "Ē": 194,
      "ē": 195,
      "Ĕ": 196,
      "ĕ": 197,
      "Ė": 198,
      "ė": 199,
      "Ę": 200,
      "ę": 201,
      "Ě": 202,
      "ě": 203,
      "Ĝ": 204,
      "ĝ": 205,
      "Ğ": 206,
      "ğ": 207,
      "Ġ": 208,
      "ġ": 209,
      "Ģ": 210,
      "ģ": 211,
      "Ĥ": 212,
      "ĥ": 213,
      "Ħ": 214,
      "ħ": 215,
      "Ĩ": 216,
      "ĩ": 217,
      "Ī": 218,
      "ī": 219,
      "Ĭ": 220,
      "ĭ": 221,
      "Į": 222,
      "į": 223,
      "İ": 224,
      "ı": 225,
      "Ĳ": 226,
      "ĳ": 227,
      "Ĵ": 228,
      "ĵ": 229,
      "Ķ": 230,
      "ķ": 231,
      "ĸ": 232,
      "Ĺ": 233,
      "ĺ": 234,
      "Ļ": 235,
      "ļ": 236,
      "Ľ": 237,
      "ľ": 238,
      "Ŀ": 239,
      "ŀ": 240,
      "Ł": 241,
      "ł": 242,
      "Ń": 243,
      "ĠĠ": 244,
      "ĠĠĠĠ": 245,
      "in": 246,
      "on": 247,
      "er": 248,
      "th": 249,
      "ĠĠĠ": 250,
      "re": 251,
      "ĠĠĠĠĠĠĠĠ": 252,
      "at": 253,
      "en": 254,
      "an": 255,
      "st": 256,
      "or": 257,
      "al": 258,
      "Ġth": 259,
      "ion": 260,
      "le": 261,
      "ar": 262,
      "Ġc": 263,
      "se": 264,
      "Ġthe": 265,
      "de": 266,
      "it": 267,
      "ct": 268,
      "me": 269,
      "ĠĠĠĠĠĠĠ": 270,
      "Ġt": 271,
      "is": 272,
      "Ġa": 273,
      "ro": 274,
      "Ġf": 275,
      "ing": 276,
      "ic": 277,
      "Ġp": 278,
      "ss": 279,
      "Ġ=": 280,
      "Ġo": 281,
      "Ġs": 282,
      "ĉĉ": 283,
      "ge": 284,
      "ent": 285,
      "ce": 286,
      "</": 287,
      "ur": 288,
      "ed": 289,
      "la": 290,
      "Ġb": 291,
      "Ġin": 292,
      "Ġw": 293,
      "=\"": 294,
      ");": 295,
      "Ġ$": 296,
      "Ġ\\": 297,
      "Ġn": 298,
      "Ġ{": 299,
      "Ġre": 300,
      "un": 301,
      "--": 302,
      "Ġ<": 303,
      "and": 304,
      "ut": 305,
      "Ġ(": 306,
      "ation": 307,
      "ig": 308,
      "ma": 309,
      "lo": 310,
      "ra": 311,
      "Ġof": 312,
      "es": 313,
      "mp": 314,
      "čĊ": 315,
      "ex": 316,
      "ĠĠĠĠĠĠĠĠĠĠĠ": 317,
      "id": 318,
      "el": 319,
      "il": 320,
      "ul": 321,
      "//": 322,
      "if": 323,
      "ch": 324,
      "Ġ*": 325,
      "ol": 326,
      "Ġd": 327,
      "Ġto": 328,
      "et": 329,
      "Ġh": 330,
      "pe": 331,
      "iv": 332,
      "ot": 333,
      "ame": 334,
      "tr": 335,
      "Ġv": 336,
      "Ġ}": 337,
      "qu": 338,
      "ate": 339,
      "Ġand": 340,
      "\">": 341,
      "Ġm": 342,
      "ction": 343,
      "co": 344,
      "ad": 345,
      "li": 346,
      "um": 347,
      "ck": 348,
      "pt": 349,
      "ĠĠĠĠĠĠĠĠĠĠĠĠĠĠĠĠ": 350,
      "Ġis": 351,
      "ĠT": 352,
      "ĠS": 353,
      "ter": 354,
      "ĠĠĠĠĠ": 355,
      "ht": 356,
      "lass": 357,
      "Ġst": 358,
      "()": 359,
      "as": 360,
      "ue": 361,
      "ab": 362,
      "sp": 363,
      "Ġ\"": 364,
      "**": 365,
      "ub": 366,
      "end": 367,
      "_{": 368,
      "us": 369,
      "he": 370,
      "Ġcon": 371,
      "In": 372,
      "ri": 373,
      "Ġfor": 374,
      "get": 375,
      "ext": 376,
      "ĠC": 377,
      "urn": 378,
      "Ġe": 379,
      "age": 380,
      "ver": 381,
      "Ġde": 382,
      "am": 383,
      "Ġse": 384,
      "ype": 385,
      "ĠA": 386,
      "ew": 387,
      "ect": 388,
      "est": 389,
      "----": 390,
      "==": 391,
      "up": 392,
      "turn": 393,
      "ode": 394,
      "all": 395,
      "ith": 396,
      "Ġclass": 397,
      "em": 398,
      "ort": 399,
      "av": 400,
      "Ġ&": 401,
      "ref": 402,
      "Ġco": 403,
      "Ġ'": 404,
      "ine": 405,
      "con": 406,
      "od": 407,
      "..": 408,
      "ist": 409,
      "ta": 410,
      "Ġg": 411,
      "{\\": 412,
      "ow": 413,
      "Ġif": 414,
      "ap": 415,
      "iz": 416,
      "Ġbe": 417,
      "to": 418,
      "ment": 419,
      "ĠĠĠĠĠĠĠĠĠĠĠĠĠĠĠ": 420,
      "our": 421,
      "ult": 422,
      "lic": 423,
      "ir": 424,
      "Ġon": 425,
      "ase": 426,
      "int": 427,
      "Ġl": 428,
      "able": 429,
      "per": 430,
      "->": 431,
      "Ġ$\\": 432,
      "ure": 433,
      "Ġthis": 434,
      "ption": 435,
      "00": 436,
      "Re": 437,
      "Ġ//": 438,
      "ile": 439,
      "ly": 440,
      "im": 441,
      "ata": 442,
      "Ġpro": 443,
      "Ġthat": 444,
      "ight": 445,
      "ph": 446,
      "art": 447,
      "alue": 448,
      "::": 449,
      "Ġ</": 450,
      "Ġreturn": 451,
      "ĠP": 452,
      "ĉĉĉĉ": 453,
      "ĠM": 454,
      "ers": 455,
      "ans": 456,
      "ĠĊ": 457,
      "../": 458,
      "ource": 459,
      "math": 460,
      "imp": 461,
      "ity": 462,
      "Ġwith": 463,
      "ĠF": 464,
      "der": 465,
      "ĠI": 466,
      "Ġan": 467,
      "text": 468,
      "unction": 469,
      "ke": 470,
      "Ġwh": 471,
      "ime": 472,
      "orm": 473,
      "Ġex": 474,
      "ject": 475,
      "Con": 476,
      "ĠD": 477,
      "gin": 478,
      "pro": 479,
      "Ġ@": 480,
      "ite": 481,
      "cal": 482,
      "set": 483,
      "ĠN": 484,
      "Ġor": 485,
      "rom": 486,
      "ĠL": 487,
      "ack": 488,
      "Ġ-": 489,
      "ial": 490,
      "ĠB": 491,
      "om": 492,
      "Ġ+": 493,
      "str": 494,
      "}\\": 495,
      "Ġ[": 496,
      "be": 497,
      "ssage": 498,
      "(\"": 499,
      "ff": 500,
      "^{": 501,
      "}$": 502,
      "Ġas": 503,
      "ĠE": 504,
      "();": 505,
      "ml": 506,
      "ore": 507,
      "\",": 508,
      "ublic": 509,
      "os": 510,
      "use": 511,
      "Ġby": 512,
      "Ġma": 513,
      "ive": 514,
      "Ġ/": 515,
      "res": 516,
      "ft": 517,
      "Ġwe": 518,
      "Ġit": 519,
      "fa": 520,
      "par": 521,
      "ere": 522,
      "te": 523,
      "Ġme": 524,
      "></": 525,
      "div": 526,
      "sc": 527,
      "span": 528,
      "ĠG": 529,
      "tring": 530,
      "ps": 531,
      "Ġr": 532,
      ").": 533,
      "ĠH": 534,
      "ser": 535,
      "ĠThe": 536,
      "ib": 537,
      "ize": 538,
      "',": 539,
      "oo": 540,
      "lu": 541,
      "),": 542,
      "--------": 543,
      "mb": 544,
      "fig": 545,
      "ach": 546,
      "name": 547,
      "ve": 548,
      "und": 549,
      "ign": 550,
      "lf": 551,
      "Ġtr": 552,
      "oc": 553,
      "ĠR": 554,
      "ition": 555,
      "><": 556,
      "ant": 557,
      "Ġare": 558,
      "****": 559,
      "ind": 560,
      "Ġal": 561,
      "ary": 562,
      "St": 563,
      "pa": 564,
      "ies": 565,
      "Ġ*/": 566,
      "../../": 567,
      "Ġname": 568,
      "ull": 569,
      "lab": 570,
      "}}": 571,
      "ĠW": 572,
      "ren": 573,
      "Ex": 574,
      "bject": 575,
      "Ġnew": 576,
      "put": 577,
      "20": 578,
      "source": 579,
      "ance": 580,
      "ĠO": 581,
      "Name": 582,
      "ire": 583,
      "dd": 584,
      "row": 585,
      "Ġfunction": 586,
      "(\\": 587,
      "low": 588,
      "fra": 589,
      "out": 590,
      "import": 591,
      "ĉĉĉ": 592,
      "====": 593,
      "act": 594,
      "ert": 595,
      "ho": 596,
      "ray": 597,
      "Ġ:": 598,
      "ated": 599,
      "ĠĠĠĠĠĠĠĠĠĠĠĠĠĠĠĠĠĠĠ": 600,
      "Ġfrom": 601,
      "('": 602,
      "ĠĠĠĠĠĠĠĠĠ": 603,
      "ror": 604,
      "))": 605,
      "Ġat": 606,
      "Ġnot": 607,
      "ence": 608,
      "pp": 609,
      "form": 610,
      "begin": 611,
      "html": 612,
      "ag": 613,
      "this": 614,
      "ang": 615,
      "Ġ.": 616,
      "message": 617,
      "Ġi": 618,
      "},": 619,
      "Ġun": 620,
      "Ġhref": 621,
      "eld": 622,
      "ice": 623,
      "ay": 624,
      "Ġpublic": 625,
      "oid": 626,
      "Pro": 627,
      "ens": 628,
      "ty": 629,
      "lation": 630,
      "ener": 631,
      "code": 632,
      "Ġch": 633,
      "ield": 634,
      "com": 635,
      "op": 636,
      "vent": 637,
      "Ġstr": 638,
      "Type": 639,
      "ER": 640,
      "_{\\": 641,
      "lement": 642,
      "eta": 643,
      "trans": 644,
      "ide": 645,
      "Ġ_": 646,
      "ip": 647,
      "lay": 648,
      "ill": 649,
      "Ġy": 650,
      ")$": 651,
      "ory": 652,
      "label": 653,
      "Ġlo": 654,
      "Ġres": 655,
      "odel": 656,
      "String": 657,
      "equ": 658,
      "col": 659,
      "Ġtype": 660,
      "ON": 661,
      "iew": 662,
      "Ġvar": 663,
      "Ġcomp": 664,
      "ator": 665,
      "Id": 666,
      "fin": 667,
      "Ġle": 668,
      "right": 669,
      "ber": 670,
      "td": 671,
      "dex": 672,
      "alse": 673,
      "}{": 674,
      "Ġ#": 675,
      "unt": 676,
      "return": 677,
      "ther": 678,
      "Ġj": 679,
      "ord": 680,
      "ĠU": 681,
      "di": 682,
      "sh": 683,
      "Ġ=>": 684,
      "Ġar": 685,
      "cess": 686,
      "port": 687,
      "scri": 688,
      "Ġset": 689,
      "ave": 690,
      "uct": 691,
      "IN": 692,
      "ĠIn": 693,
      "/>": 694,
      "Ġvalue": 695,
      "rent": 696,
      "one": 697,
      "Ġcan": 698,
      "De": 699,
      "param": 700,
      "amp": 701,
      "quest": 702,
      "tain": 703,
      "line": 704,
      "frac": 705,
      "eq": 706,
      "ork": 707,
      "ress": 708,
      "key": 709,
      "Ġ|": 710,
      "ange": 711,
      "bo": 712,
      "atic": 713,
      "ll": 714,
      "ink": 715,
      "10": 716,
      "type": 717,
      "\"/>": 718,
      "Co": 719,
      "atch": 720,
      "ong": 721,
      "Ġget": 722,
      "##": 723,
      "ich": 724,
      "ell": 725,
      "Ġ!": 726,
      "po": 727,
      "Ġconst": 728,
      "thod": 729,
      "fer": 730,
      "The": 731,
      "var": 732,
      "ug": 733,
      "are": 734,
      "yst": 735,
      "roup": 736,
      "fo": 737,
      "RE": 738,
      "Ġint": 739,
      "ome": 740,
      "translation": 741,
      "cite": 742,
      "En": 743,
      "Ġli": 744,
      "To": 745,
      "Ġuse": 746,
      "ard": 747,
      "mo": 748,
      "ations": 749,
      "lock": 750,
      "loc": 751,
      "pect": 752,
      "Ġsh": 753,
      "ĠV": 754,
      "ule": 755,
      "left": 756,
      "ĠTh": 757,
      "val": 758,
      "ust": 759,
      "ild": 760,
      "lect": 761,
      "Res": 762,
      "Ġself": 763,
      "ystem": 764,
      "so": 765,
      "Ġ==": 766,
      "riv": 767,
      "Ġus": 768,
      "Ġline": 769,
      "ix": 770,
      "vice": 771,
      "tent": 772,
      "clu": 773,
      "sum": 774,
      "Ġdo": 775,
      "__": 776,
      "ssert": 777,
      "List": 778,
      "Ġdata": 779,
      "19": 780,
      "ST": 781,
      "ception": 782,
      "ath": 783,
      "cre": 784,
      "umber": 785,
      "add": 786,
      "Ġnull": 787,
      "fault": 788,
      "idth": 789,
      "Ġ`": 790,
      "yn": 791,
      "ak": 792,
      "Ġvoid": 793,
      "eng": 794,
      "own": 795,
      "$.": 796,
      "io": 797,
      "ument": 798,
      "rm": 799,
      "ace": 800,
      "})": 801,
      "âĢ": 802,
      "://": 803,
      "ally": 804,
      "$,": 805,
      "mathb": 806,
      "Ġid": 807,
      "tern": 808,
      "\"><": 809,
      "ast": 810,
      "uld": 811,
      "class": 812,
      "AT": 813,
      ",\\": 814,
      "ne": 815,
      "da": 816,
      "ical": 817,
      "ree": 818,
      "yle": 819,
      "ery": 820,
      "we": 821,
      "ava": 822,
      "Ġk": 823,
      "log": 824,
      "og": 825,
      "tp": 826,
      "ute": 827,
      "of": 828,
      "Ġwhich": 829,
      "Se": 830,
      "Ġel": 831,
      "Ġbo": 832,
      "mage": 833,
      "));": 834,
      "pec": 835,
      "Ġpar": 836,
      "string": 837,
      "Ġer": 838,
      "}.": 839,
      "ac": 840,
      "min": 841,
      "itle": 842,
      "equation": 843,
      "ĠĠĠĠĠĠĠĠĠĠĠĠĠĠĠĠĠĠĠĠĠĠĠĠĠĠĠĠĠĠĠĠ": 844,
      "ĠJ": 845,
      "sub": 846,
      "12": 847,
      "ĠĠĠĠĠĠĠĠĠĠĠĠĠ": 848,
      "clude": 849,
      "OR": 850,
      "Ġhave": 851,
      "********": 852,
      "Th": 853,
      "LE": 854,
      "Ġcom": 855,
      "Ġ>": 856,
      "def": 857,
      "\");": 858,
      "Ġresult": 859,
      "Ġfalse": 860,
      "ger": 861,
      "Ġpo": 862,
      "mathcal": 863,
      "ution": 864,
      "////": 865,
      "bar": 866,
      "----------------": 867,
      "cur": 868,
      "ache": 869,
      "pend": 870,
      "Ch": 871,
      "ameter": 872,
      "gs": 873,
      "data": 874,
      "ader": 875,
      "Ġall": 876,
      "irst": 877,
      "Ġhas": 878,
      "trib": 879,
      "Data": 880,
      "Ar": 881,
      "mit": 882,
      "ID": 883,
      "Value": 884,
      "Ġtrue": 885,
      "emp": 886,
      "space": 887,
      "pi": 888,
      "Ġ)": 889,
      "ish": 890,
      "Ġwas": 891,
      "ses": 892,
      "sed": 893,
      "ou": 894,
      "Ġx": 895,
      "ms": 896,
      "tro": 897,
      "rivate": 898,
      "}(": 899,
      "):": 900,
      "ĠĠĠĠĠĠ": 901,
      "mary": 902,
      "ength": 903,
      "nb": 904,
      "inal": 905,
      "not": 906,
      "ded": 907,
      "pha": 908,
      "item": 909,
      "self": 910,
      "til": 911,
      "ptions": 912,
      "stance": 913,
      "AR": 914,
      "ĠĠĠĠĠĠĠĠĠĠĠĠĠĠĠĠĠĠĠĠĠĠĠ": 915,
      "ga": 916,
      "let": 917,
      "file": 918,
      "value": 919,
      "Ġval": 920,
      "Ġne": 921,
      "Ġstring": 922,
      "lient": 923,
      "ates": 924,
      "comp": 925,
      "ry": 926,
      "EN": 927,
      "Ġcol": 928,
      "ample": 929,
      "Ġwill": 930,
      "Ġ/**": 931,
      "du": 932,
      "pre": 933,
      "}^": 934,
      "ifi": 935,
      "nbsp": 936,
      "back": 937,
      "js": 938,
      "16": 939,
      "~\\": 940,
      "Ġqu": 941,
      "Ġcase": 942,
      "Ser": 943,
      "Ġout": 944,
      "gra": 945,
      "Ġelse": 946,
      "Ġdis": 947,
      "Col": 948,
      "location": 949,
      "Set": 950,
      "perty": 951,
      "ark": 952,
      "Ġen": 953,
      "alpha": 954,
      "cri": 955,
      "AL": 956,
      "ics": 957,
      "Me": 958,
      "}_": 959,
      "ĠRe": 960,
      "time": 961,
      "arch": 962,
      "ey": 963,
      "spon": 964,
      "ual": 965,
      "Ġ--": 966,
      "uff": 967,
      "the": 968,
      "($": 969,
      "ec": 970,
      "rror": 971,
      "========": 972,
      "Exception": 973,
      "Ġ&&": 974,
      "read": 975,
      "arget": 976,
      "ob": 977,
      "\")": 978,
      "dot": 979,
      "SS": 980,
      "Ġtime": 981,
      "che": 982,
      "px": 983,
      "];": 984,
      "for": 985,
      "Ġend": 986,
      "ĠK": 987,
      "onent": 988,
      "'s": 989,
      "uch": 990,
      "ues": 991,
      "ature": 992,
      "date": 993,
      "ont": 994,
      "Ġob": 995,
      "sion": 996,
      "old": 997,
      "ific": 998,
      "Ġadd": 999,
      "Ġstatic": 1000,
      "ost": 1001,
      "Object": 1002,
      "quire": 1003,
      "')": 1004,
      "mu": 1005,
      "Par": 1006,
      "Ġac": 1007,
      "Ġtest": 1008,
      "Ġhe": 1009,
      "ton": 1010,
      "Test": 1011,
      "Ġ!=": 1012,
      "script": 1013,
      "work": 1014,
      "org": 1015,
      "DE": 1016,
      "osition": 1017,
      "Ġ///": 1018,
      "ca": 1019,
      "roid": 1020,
      "Comp": 1021,
      "ĠString": 1022,
      "ia": 1023,
      "new": 1024,
      "Ġup": 1025,
      "Ġdef": 1026,
      "ting": 1027,
      "Ġfile": 1028,
      ")\\": 1029,
      "11": 1030,
      "An": 1031,
      "size": 1032,
      "().": 1033,
      "Ġone": 1034,
      "uth": 1035,
      "face": 1036,
      "pr": 1037,
      "$\\": 1038,
      "over": 1039,
      "Ġ%": 1040,
      "Ġinter": 1041,
      "test": 1042,
      "ud": 1043,
      "Error": 1044,
      "CT": 1045,
      "());": 1046,
      "200": 1047,
      "Ġpre": 1048,
      "odule": 1049,
      "led": 1050,
      "Ġro": 1051,
      "ask": 1052,
      "amma": 1053,
      "Ġpart": 1054,
      "Ġorg": 1055,
      "ative": 1056,
      "Ġper": 1057,
      "']": 1058,
      "ĠThis": 1059,
      "rit": 1060,
      "rc": 1061,
      "ular": 1062,
      "Get": 1063,
      "Ġmodel": 1064,
      "ider": 1065,
      "Un": 1066,
      "app": 1067,
      "action": 1068,
      "link": 1069,
      "ound": 1070,
      "=\\": 1071,
      "gle": 1072,
      "32": 1073,
      "SE": 1074,
      ".</": 1075,
      "Ġcur": 1076,
      "Key": 1077,
      "atus": 1078,
      "Ġtrans": 1079,
      "array": 1080,
      "15": 1081,
      "umn": 1082,
      "Ġsub": 1083,
      "cent": 1084,
      "vel": 1085,
      "_\\": 1086,
      "lection": 1087,
      "ream": 1088,
      "._": 1089,
      "wo": 1090,
      "section": 1091,
      "public": 1092,
      "wh": 1093,
      "Ġ\\\\": 1094,
      "Ġexp": 1095,
      "ĉĉĉĉĉ": 1096,
      "function": 1097,
      "heck": 1098,
      "\";": 1099,
      "lang": 1100,
      "Ġprivate": 1101,
      "lean": 1102,
      "IT": 1103,
      "qual": 1104,
      "reate": 1105,
      "list": 1106,
      "View": 1107,
      "mand": 1108,
      "File": 1109,
      "Tr": 1110,
      "ĠĠĠĠĊ": 1111,
      "ME": 1112,
      "width": 1113,
      "summary": 1114,
      "nav": 1115,
      "ise": 1116,
      "play": 1117,
      "['": 1118,
      "ilter": 1119,
      "ions": 1120,
      "Ġsup": 1121,
      "br": 1122,
      "resent": 1123,
      "hould": 1124,
      "util": 1125,
      "cond": 1126,
      "irect": 1127,
      "Ġab": 1128,
      "fore": 1129,
      "ie": 1130,
      "It": 1131,
      "ollow": 1132,
      "Ġobject": 1133,
      "Ġso": 1134,
      "}_{": 1135,
      "index": 1136,
      "\"></": 1137,
      "igma": 1138,
      "}^{": 1139,
      "Ġ||": 1140,
      "struct": 1141,
      "');": 1142,
      "Ġover": 1143,
      "Ġmethod": 1144,
      "CO": 1145,
      "We": 1146,
      "ler": 1147,
      "top": 1148,
      "Ġform": 1149,
      "view": 1150,
      "ody": 1151,
      "At": 1152,
      "table": 1153,
      "Ġapp": 1154,
      "mathbb": 1155,
      "Ġwhen": 1156,
      "Ġser": 1157,
      "Time": 1158,
      "ys": 1159,
      "ternal": 1160,
      "Ġfinal": 1161,
      "ken": 1162,
      "igh": 1163,
      "Event": 1164,
      "Ġext": 1165,
      "ackage": 1166,
      "18": 1167,
      "include": 1168,
      "dis": 1169,
      "Ġimp": 1170,
      "-\\": 1171,
      "enc": 1172,
      "(),": 1173,
      "Ġpa": 1174,
      "ible": 1175,
      "order": 1176,
      "mon": 1177,
      "ĠWe": 1178,
      "Ġ/>": 1179,
      "const": 1180,
      "lamb": 1181,
      "phi": 1182,
      "http": 1183,
      "ann": 1184,
      "part": 1185,
      "^{\\": 1186,
      "ector": 1187,
      "Node": 1188,
      "lambda": 1189,
      "indow": 1190,
      "Ġerror": 1191,
      "14": 1192,
      "Ġany": 1193,
      "AN": 1194,
      "=\"../../": 1195,
      "orre": 1196,
      "Ġno": 1197,
      "late": 1198,
      "cript": 1199,
      "By": 1200,
      "uffer": 1201,
      "UL": 1202,
      "13": 1203,
      "Ġgener": 1204,
      "uc": 1205,
      "Ġonly": 1206,
      "group": 1207,
      "ersion": 1208,
      "Ġkey": 1209,
      "ĠCon": 1210,
      "rite": 1211,
      "Ġ{\\": 1212,
      "uil": 1213,
      "Ġbut": 1214,
      "inter": 1215,
      "!--": 1216,
      "Ġfollow": 1217,
      "Ġfield": 1218,
      "Ġchar": 1219,
      "],": 1220,
      "ww": 1221,
      "url": 1222,
      "Ġnumber": 1223,
      "=\"+": 1224,
      "ash": 1225,
      "ocument": 1226,
      "Ġyou": 1227,
      "bf": 1228,
      "Ġdif": 1229,
      "Ġalso": 1230,
      "main": 1231,
      "load": 1232,
      "round": 1233,
      "quot": 1234,
      "ep": 1235,
      "tra": 1236,
      "ax": 1237,
      "ely": 1238,
      "ify": 1239,
      "try": 1240,
      "ick": 1241,
      "align": 1242,
      "Ġreg": 1243,
      "red": 1244,
      "Ġother": 1245,
      "lace": 1246,
      "Qu": 1247,
      "25": 1248,
      "Ġused": 1249,
      "Ġap": 1250,
      "ding": 1251,
      "Ġspec": 1252,
      "uild": 1253,
      "ference": 1254,
      "unc": 1255,
      "lete": 1256,
      "no": 1257,
      "lem": 1258,
      "path": 1259,
      "100": 1260,
      "py": 1261,
      "Ġu": 1262,
      "RO": 1263,
      "Ġmo": 1264,
      "Request": 1265,
      "uration": 1266,
      "tps": 1267,
      "Class": 1268,
      "Ġ);": 1269,
      "user": 1270,
      "ved": 1271,
      "State": 1272,
      "count": 1273,
      "For": 1274,
      "Ġlist": 1275,
      "void": 1276,
      "fined": 1277,
      "\\\\": 1278,
      "``": 1279,
      "Ġtwo": 1280,
      "Ġla": 1281,
      "\":": 1282,
      "Text": 1283,
      "ized": 1284,
      "pen": 1285,
      "ugh": 1286,
      "/*": 1287,
      "Info": 1288,
      "rame": 1289,
      "ility": 1290,
      "Ġrep": 1291,
      "Lo": 1292,
      "ride": 1293,
      "ning": 1294,
      "Ġra": 1295,
      "Element": 1296,
      "Ġassert": 1297,
      "/**": 1298,
      "TE": 1299,
      "Ġfirst": 1300,
      "ian": 1301,
      "Ġ?": 1302,
      "Ġass": 1303,
      "Ġthen": 1304,
      "ION": 1305,
      "oolean": 1306,
      "PE": 1307,
      "Path": 1308,
      "cord": 1309,
      "Ġtra": 1310,
      "md": 1311,
      "ilon": 1312,
      "node": 1313,
      "':": 1314,
      "TR": 1315,
      "ater": 1316,
      "ating": 1317,
      "};": 1318,
      "gument": 1319,
      "LA": 1320,
      "iven": 1321,
      "Ġdist": 1322,
      "cl": 1323,
      "ager": 1324,
      "beta": 1325,
      "ors": 1326,
      "Ġwhere": 1327,
      "())": 1328,
      "ization": 1329,
      "ices": 1330,
      "].": 1331,
      "psilon": 1332,
      "son": 1333,
      "del": 1334,
      "PI": 1335,
      "Config": 1336,
      "Ġthere": 1337,
      "style": 1338,
      "field": 1339,
      "icon": 1340,
      "Index": 1341,
      "hat": 1342,
      "Ġusing": 1343,
      "Context": 1344,
      "fter": 1345,
      "length": 1346,
      "Item": 1347,
      "utton": 1348,
      "ote": 1349,
      "Map": 1350,
      "ook": 1351,
      "\"\"": 1352,
      "net": 1353,
      "Ġbase": 1354,
      "Ġstate": 1355,
      "17": 1356,
      "ner": 1357,
      "Ġ(\\": 1358,
      "Man": 1359,
      "tribute": 1360,
      "config": 1361,
      "Field": 1362,
      "mathbf": 1363,
      "Code": 1364,
      "He": 1365,
      "sigma": 1366,
      "sses": 1367,
      "sk": 1368,
      "rap": 1369,
      "Add": 1370,
      "do": 1371,
      "Ġjava": 1372,
      "Sh": 1373,
      "Ġthrow": 1374,
      "Ġmore": 1375,
      "Com": 1376,
      "Array": 1377,
      "ĠX": 1378,
      "sign": 1379,
      "api": 1380,
      "^{-": 1381,
      "Ġ(!": 1382,
      "raw": 1383,
      "Ġsize": 1384,
      "Ġnode": 1385,
      "trol": 1386,
      "its": 1387,
      "64": 1388,
      "Ġtitle": 1389,
      "tainer": 1390,
      "ments": 1391,
      "Ġarray": 1392,
      "itial": 1393,
      "ĠĠĠĠĠĠĠĠĠĠĠĠĠĠĠĠĠĠĠĠĠĠĠĠĠĠĠ": 1394,
      "tilde": 1395,
      "base": 1396,
      "////////": 1397,
      "apache": 1398,
      "Ġ/*": 1399,
      "dt": 1400,
      "Ġparameter": 1401,
      "ĠSt": 1402,
      "}{\\": 1403,
      "lob": 1404,
      "mall": 1405,
      "uilder": 1406,
      "les": 1407,
      "ension": 1408,
      "Ġeach": 1409,
      "Ġcorre": 1410,
      "Ġcall": 1411,
      "Ġsuch": 1412,
      "cale": 1413,
      "ts": 1414,
      "Ġback": 1415,
      "ished": 1416,
      "yp": 1417,
      "Equal": 1418,
      "Ġz": 1419,
      "word": 1420,
      "Ġcons": 1421,
      "ified": 1422,
      "Ġ-->": 1423,
      "oogle": 1424,
      "Ġbet": 1425,
      "ĠEx": 1426,
      "ok": 1427,
      "****************": 1428,
      "color": 1429,
      "map": 1430,
      "ground": 1431,
      "result": 1432,
      "gamma": 1433,
      "ĠSe": 1434,
      "model": 1435,
      "ected": 1436,
      "figure": 1437,
      "####": 1438,
      "ĠDe": 1439,
      "AC": 1440,
      "ient": 1441,
      "[]": 1442,
      "';": 1443,
      "Message": 1444,
      "true": 1445,
      "reak": 1446,
      "olution": 1447,
      "reg": 1448,
      "Ġ});": 1449,
      "ĠY": 1450,
      "ĠĠĊ": 1451,
      "Ġshow": 1452,
      "Ġoper": 1453,
      "ĠIf": 1454,
      "ince": 1455,
      "Ġevent": 1456,
      "Ġsome": 1457,
      "Ġexpect": 1458,
      "Ġour": 1459,
      "Ġ},": 1460,
      "ĠPro": 1461,
      "Ġelement": 1462,
      "ume": 1463,
      "delta": 1464,
      "Over": 1465,
      "As": 1466,
      "title": 1467,
      "Service": 1468,
      "assert": 1469,
      "Ġdefault": 1470,
      "+\\": 1471,
      "Ġrel": 1472,
      "ster": 1473,
      "object": 1474,
      "sponse": 1475,
      "pon": 1476,
      "='": 1477,
      "Ġwork": 1478,
      "Form": 1479,
      "ox": 1480,
      "Ġrequest": 1481,
      "block": 1482,
      "Ġpoint": 1483,
      "Ġph": 1484,
      "input": 1485,
      "Ġshould": 1486,
      "uto": 1487,
      "pert": 1488,
      "Ġfa": 1489,
      "theta": 1490,
      "Size": 1491,
      "error": 1492,
      "Ġent": 1493,
      "gr": 1494,
      "https": 1495,
      "by": 1496,
      "Po": 1497,
      "*}": 1498,
      "ui": 1499,
      "mathrm": 1500,
      "ssion": 1501,
      "valid": 1502,
      "Ġcal": 1503,
      "ush": 1504,
      "ync": 1505,
      "Ġrequire": 1506,
      "Result": 1507,
      "Ġcurrent": 1508,
      "raph": 1509,
      "ense": 1510,
      "With": 1511,
      "ld": 1512,
      "box": 1513,
      "Ġthan": 1514,
      "ymb": 1515,
      "Ġgiven": 1516,
      ")}": 1517,
      "UR": 1518,
      "lan": 1519,
      "ween": 1520,
      "Ġsystem": 1521,
      "Ġsp": 1522,
      "lt": 1523,
      "ateg": 1524,
      "^\\": 1525,
      "erm": 1526,
      "java": 1527,
      "Ġits": 1528,
      "create": 1529,
      "ym": 1530,
      "Ġinto": 1531,
      "duce": 1532,
      "Ġad": 1533,
      "ymbol": 1534,
      "andler": 1535,
      "Ġman": 1536,
      "=\"../../../../": 1537,
      "atri": 1538,
      "Ġmay": 1539,
      "ng": 1540,
      ";&": 1541,
      "Ġht": 1542,
      "lose": 1543,
      "vert": 1544,
      "ĠCo": 1545,
      "pace": 1546,
      "nection": 1547,
      "content": 1548,
      "IC": 1549,
      "rho": 1550,
      "from": 1551,
      "Ġnon": 1552,
      "Le": 1553,
      "eturn": 1554,
      "max": 1555,
      "Ġ:=": 1556,
      "rib": 1557,
      "tom": 1558,
      "++": 1559,
      "Ġerr": 1560,
      "Des": 1561,
      "tau": 1562,
      "Ġstart": 1563,
      "loat": 1564,
      "cept": 1565,
      "default": 1566,
      "Ġprov": 1567,
      "atrix": 1568,
      "version": 1569,
      "Ġact": 1570,
      "eature": 1571,
      "Ġcontent": 1572,
      "umer": 1573,
      "times": 1574,
      "mber": 1575,
      "LO": 1576,
      "iable": 1577,
      "On": 1578,
      "big": 1579,
      "gt": 1580,
      "ffect": 1581,
      "Of": 1582,
      "image": 1583,
      "Ġunder": 1584,
      "perties": 1585,
      "ency": 1586,
      "define": 1587,
      ">&": 1588,
      "lication": 1589,
      "ass": 1590,
      "leq": 1591,
      "enu": 1592,
      "scription": 1593,
      "$-": 1594,
      "ĠGet": 1595,
      "FF": 1596,
      "Ġtarget": 1597,
      "ĠCh": 1598,
      "ferent": 1599,
      "arrow": 1600,
      "move": 1601,
      "tab": 1602,
      "ities": 1603,
      "body": 1604,
      "Ġstruct": 1605,
      "Ġinstance": 1606,
      "dots": 1607,
      "Or": 1608,
      "core": 1609,
      "33": 1610,
      "Ġvalues": 1611,
      "Val": 1612,
      "ain": 1613,
      "Ġ__": 1614,
      "que": 1615,
      "Ġuser": 1616,
      "package": 1617,
      "ious": 1618,
      "Not": 1619,
      "info": 1620,
      "Ġequ": 1621,
      "Ġ$(": 1622,
      "Ġ===": 1623,
      "Ġcode": 1624,
      "UT": 1625,
      "abled": 1626,
      "Ġsrc": 1627,
      "point": 1628,
      "formation": 1629,
      "...": 1630,
      "]{": 1631,
      "Up": 1632,
      "}$,": 1633,
      "ven": 1634,
      "ression": 1635,
      "Del": 1636,
      "pm": 1637,
      "Ġorder": 1638,
      "graph": 1639,
      "Ġinput": 1640,
      "AD": 1641,
      "}$.": 1642,
      "Ġprob": 1643,
      "Ġbetween": 1644,
      "ĠFor": 1645,
      "next": 1646,
      "âĢĻ": 1647,
      "Model": 1648,
      "Ġbeen": 1649,
      "android": 1650,
      "start": 1651,
      "Query": 1652,
      "ponse": 1653,
      "lat": 1654,
      "lasses": 1655,
      "temp": 1656,
      "ars": 1657,
      "als": 1658,
      "lugin": 1659,
      "andle": 1660,
      "ĠAn": 1661,
      "nu": 1662,
      "rt": 1663,
      "lit": 1664,
      "}(\\": 1665,
      "ML": 1666,
      "dition": 1667,
      "IG": 1668,
      "bug": 1669,
      "ULL": 1670,
      "Table": 1671,
      "--------------------------------": 1672,
      "cope": 1673,
      "state": 1674,
      "lear": 1675,
      "center": 1676,
      "sq": 1677,
      "30": 1678,
      "troll": 1679,
      "Be": 1680,
      "ĉĉĉĉĉĉ": 1681,
      "ĠIt": 1682,
      "Ġthese": 1683,
      "App": 1684,
      "50": 1685,
      "partial": 1686,
      "tin": 1687,
      "ĠQ": 1688,
      "context": 1689,
      "=\"../": 1690,
      "ffset": 1691,
      "event": 1692,
      "22": 1693,
      "ĠUn": 1694,
      "Ġ};": 1695,
      "Ġtext": 1696,
      "Ġimport": 1697,
      "tings": 1698,
      "TD": 1699,
      "System": 1700,
      "css": 1701,
      "ĠĠĠĠĠĠĠĠĠĠĠĠ": 1702,
      "Ġsame": 1703,
      "ous": 1704,
      "Out": 1705,
      "Manager": 1706,
      "sup": 1707,
      "ING": 1708,
      "lable": 1709,
      "Ġtheir": 1710,
      "aw": 1711,
      "serv": 1712,
      "Ġcheck": 1713,
      "Al": 1714,
      "Ġmin": 1715,
      "man": 1716,
      "Ġconfig": 1717,
      "tn": 1718,
      "Ġsign": 1719,
      "false": 1720,
      "Color": 1721,
      "Ġinst": 1722,
      "ract": 1723,
      "search": 1724,
      "Ġsource": 1725,
      "eqn": 1726,
      "itor": 1727,
      "User": 1728,
      "sing": 1729,
      "uble": 1730,
      "Ġnil": 1731,
      "MA": 1732,
      "Ġgroup": 1733,
      "ormal": 1734,
      "Ġdifferent": 1735,
      "tot": 1736,
      "Ġpath": 1737,
      "Property": 1738,
      "eqref": 1739,
      "lex": 1740,
      "ustom": 1741,
      "Ġindex": 1742,
      "call": 1743,
      "pri": 1744,
      "Delta": 1745,
      "angle": 1746,
      "Client": 1747,
      "Is": 1748,
      "omega": 1749,
      "Ġmax": 1750,
      "Ġtemp": 1751,
      "Ac": 1752,
      "ED": 1753,
      "Ġfollowing": 1754,
      "Ġcontext": 1755,
      "Ġlog": 1756,
      "ron": 1757,
      "ĠĠĠĠĠĠĠĠĠĠ": 1758,
      "ists": 1759,
      "ock": 1760,
      "AB": 1761,
      "Response": 1762,
      "ake": 1763,
      "method": 1764,
      "Ġwere": 1765,
      "arge": 1766,
      "ai": 1767,
      "ET": 1768,
      "annel": 1769,
      "check": 1770,
      "fty": 1771,
      "CH": 1772,
      "24": 1773,
      "troller": 1774,
      "Group": 1775,
      "duct": 1776,
      "infty": 1777,
      "Inter": 1778,
      "Ġmessage": 1779,
      "ils": 1780,
      "mis": 1781,
      "\\,": 1782,
      "ifier": 1783,
      "================": 1784,
      "ithub": 1785,
      "ĠâĢ": 1786,
      "Ġchange": 1787,
      "ĠSystem": 1788,
      "db": 1789,
      ";</": 1790,
      "Ġhigh": 1791,
      "ĠčĊ": 1792,
      "=\"#": 1793,
      "ams": 1794,
      "DO": 1795,
      "web": 1796,
      "option": 1797,
      "Ġresults": 1798,
      "Ġsc": 1799,
      "etwork": 1800,
      "pos": 1801,
      "irc": 1802,
      "Log": 1803,
      "Ġbool": 1804,
      "with": 1805,
      "Override": 1806,
      "depend": 1807,
      "Ph": 1808,
      "irt": 1809,
      "see": 1810,
      "ister": 1811,
      "MP": 1812,
      "ottom": 1813,
      "namespace": 1814,
      "cc": 1815,
      ">(": 1816,
      "Ġappro": 1817,
      "static": 1818,
      "module": 1819,
      "Ġstd": 1820,
      "doc": 1821,
      "This": 1822,
      "select": 1823,
      "using": 1824,
      "Ġoff": 1825,
      "ift": 1826,
      "cho": 1827,
      "finition": 1828,
      "ification": 1829,
      "sec": 1830,
      "ĠSet": 1831,
      "|\\": 1832,
      "Ġblock": 1833,
      "google": 1834,
      "Ġread": 1835,
      "mod": 1836,
      "Ġrun": 1837,
      "uccess": 1838,
      "0000": 1839,
      "utes": 1840,
      "Ġinv": 1841,
      "github": 1842,
      ")</": 1843,
      "lobal": 1844,
      "'t": 1845,
      "Ġcontain": 1846,
      "Ġlong": 1847,
      "Count": 1848,
      "lib": 1849,
      "head": 1850,
      "tected": 1851,
      "mer": 1852,
      "ypes": 1853,
      "Ġimage": 1854,
      "Ġcreate": 1855,
      "af": 1856,
      "way": 1857,
      "Method": 1858,
      "ily": 1859,
      "argin": 1860,
      "](": 1861,
      "mpty": 1862,
      "ctions": 1863,
      "From": 1864,
      "UN": 1865,
      "Builder": 1866,
      "ling": 1867,
      "Ġstyle": 1868,
      "Trans": 1869,
      "down": 1870,
      "DI": 1871,
      "wit": 1872,
      "where": 1873,
      "func": 1874,
      "ENT": 1875,
      "ĠAr": 1876,
      "chema": 1877,
      "quad": 1878,
      "Call": 1879,
      "Ġpr": 1880,
      "ins": 1881,
      "Ġsim": 1882,
      "Ġthey": 1883,
      "<!--": 1884,
      "Ġoptions": 1885,
      "ose": 1886,
      "Ġfact": 1887,
      "Ġspace": 1888,
      "ĠĠĠĠĠĠĠĠĠĠĠĠĠĠĠĠĠĠĠĠĠĠĠĠĠĠĠĠĠĠĠ": 1889,
      "ov": 1890,
      "refer": 1891,
      "very": 1892,
      "OT": 1893,
      "page": 1894,
      "Stream": 1895,
      "uf": 1896,
      "Ġitem": 1897,
      "AME": 1898,
      "mark": 1899,
      "ern": 1900,
      "rag": 1901,
      "rop": 1902,
      "])": 1903,
      "Ġandroid": 1904,
      "Util": 1905,
      "lease": 1906,
      "Fact": 1907,
      "current": 1908,
      "tt": 1909,
      "xi": 1910,
      "ends": 1911,
      "Reg": 1912,
      "Ġbreak": 1913,
      "Dis": 1914,
      "Date": 1915,
      "Ġdoes": 1916,
      "Ġrepresent": 1917,
      "ision": 1918,
      "dir": 1919,
      "$$": 1920,
      "Cell": 1921,
      "Ġlet": 1922,
      "Instance": 1923,
      "tes": 1924,
      "Ġyour": 1925,
      "40": 1926,
      "Ġed": 1927,
      "query": 1928,
      "uage": 1929,
      "Ġwhile": 1930,
      "options": 1931,
      "99": 1932,
      "Ġobtain": 1933,
      "iter": 1934,
      "irtual": 1935,
      "Input": 1936,
      "Ġversion": 1937,
      "CE": 1938,
      "ports": 1939,
      "ONT": 1940,
      "client": 1941,
      "olds": 1942,
      "Ġest": 1943,
      "Ġpol": 1944,
      "Ġdirect": 1945,
      "eqnarray": 1946,
      "ines": 1947,
      "Ġgo": 1948,
      "null": 1949,
      "exp": 1950,
      "iled": 1951,
      "Ġdistrib": 1952,
      "Resource": 1953,
      "ward": 1954,
      "asure": 1955,
      "((": 1956,
      "Ġ<<": 1957,
      "ever": 1958,
      "Ġright": 1959,
      "Ġafter": 1960,
      "uthor": 1961,
      "frame": 1962,
      "member": 1963,
      "teger": 1964,
      "Ġpartic": 1965,
      "Ġ($": 1966,
      "Ġwidth": 1967,
      "Ġprovide": 1968,
      "finished": 1969,
      "Base": 1970,
      "request": 1971,
      "button": 1972,
      "Image": 1973,
      "Component": 1974,
      "ĠNULL": 1975,
      "www": 1976,
      "Int": 1977,
      "Ġ,": 1978,
      "Ġneed": 1979,
      "Content": 1980,
      "Ġmatch": 1981,
      "Bar": 1982,
      "cdot": 1983,
      "ait": 1984,
      "Ġmust": 1985,
      "TH": 1986,
      "Status": 1987,
      "jo": 1988,
      "ero": 1989,
      "au": 1990,
      "ĠĠĠĠĠĠĠĠĠĠĠĠĠĠĠĠĠ": 1991,
      "ape": 1992,
      "Ð°": 1993,
      "print": 1994,
      "mm": 1995,
      "orem": 1996,
      "ixed": 1997,
      "php": 1998,
      "}}\\": 1999,
      "nown": 2000,
      "ower": 2001,
      "Ġlocal": 2002,
      "Ġmap": 2003,
      "}[": 2004,
      "ene": 2005,
      "ential": 2006,
      "gy": 2007,
      "idd": 2008,
      "Ġmult": 2009,
      "bit": 2010,
      "server": 2011,
      "lick": 2012,
      "unfinished": 2013,
      "YPE": 2014,
      "psi": 2015,
      "anel": 2016,
      "position": 2017,
      "~~": 2018,
      "ats": 2019,
      "Ġconsider": 2020,
      "ĠZ": 2021,
      "Ġboolean": 2022,
      "Block": 2023,
      "Ð¾": 2024,
      "Ref": 2025,
      "Ġ->": 2026,
      "Exp": 2027,
      "Ġsee": 2028,
      "IL": 2029,
      "epsilon": 2030,
      "ĠEn": 2031,
      "Ġoutput": 2032,
      "Ġmod": 2033,
      "Ġfind": 2034,
      "ared": 2035,
      "ĉĊ": 2036,
      "Ġprocess": 2037,
      "rough": 2038,
      "ik": 2039,
      "args": 2040,
      "All": 2041,
      "ename": 2042,
      "Parameter": 2043,
      "Ġexample": 2044,
      "Token": 2045,
      "last": 2046,
      "atab": 2047,
      "err": 2048,
      "layer": 2049,
      "ten": 2050,
      "non": 2051,
      "less": 2052,
      "REF": 2053,
      "oci": 2054,
      "ational": 2055,
      "case": 2056,
      "Ġte": 2057,
      "ender": 2058,
      ")$.": 2059,
      "imple": 2060,
      "Imp": 2061,
      "ability": 2062,
      "Ġdi": 2063,
      "21": 2064,
      "Ġcolor": 2065,
      "ĠAs": 2066,
      "ively": 2067,
      "has": 2068,
      "23": 2069,
      "ĠTr": 2070,
      "AS": 2071,
      "Frame": 2072,
      "){": 2073,
      "ivity": 2074,
      "caption": 2075,
      "({": 2076,
      "riter": 2077,
      "Ġbackground": 2078,
      "End": 2079,
      "Ġfound": 2080,
      "ants": 2081,
      "Ġlow": 2082,
      "ful": 2083,
      "Sub": 2084,
      "sim": 2085,
      "Style": 2086,
      "Ġinclude": 2087,
      "Ġbound": 2088,
      "000": 2089,
      "append": 2090,
      "height": 2091,
      "Ġwo": 2092,
      "mega": 2093,
      "Action": 2094,
      "IS": 2095,
      "arning": 2096,
      "Ġtable": 2097,
      "mail": 2098,
      "element": 2099,
      "tx": 2100,
      "Ġ\"\"\"": 2101,
      "peri": 2102,
      "Ġ()": 2103,
      "ings": 2104,
      "atter": 2105,
      "dl": 2106,
      "ES": 2107,
      "Ġopt": 2108,
      "}_{\\": 2109,
      "IP": 2110,
      "Ġtry": 2111,
      "Ġboth": 2112,
      "adding": 2113,
      "Line": 2114,
      "Nav": 2115,
      "Tra": 2116,
      "80": 2117,
      "Ġeffect": 2118,
      "Ġresource": 2119,
      "andom": 2120,
      "Ġdefined": 2121,
      "leg": 2122,
      "parent": 2123,
      "defined": 2124,
      "Omega": 2125,
      "Lay": 2126,
      "Ġcondition": 2127,
      "undle": 2128,
      "dic": 2129,
      "ump": 2130,
      "target": 2131,
      "Handler": 2132,
      "EX": 2133,
      "inst": 2134,
      "elp": 2135,
      "si": 2136,
      "gor": 2137,
      "Ġabout": 2138,
      "Buffer": 2139,
      "Ġanal": 2140,
      "Ġsing": 2141,
      "roll": 2142,
      "uted": 2143,
      "Options": 2144,
      "Ġfin": 2145,
      "header": 2146,
      "Ġdepend": 2147,
      "med": 2148,
      "Ġallow": 2149,
      "Ġresponse": 2150,
      "Gener": 2151,
      "elper": 2152,
      "NS": 2153,
      "Ġleft": 2154,
      "layout": 2155,
      "66": 2156,
      "now": 2157,
      "^*": 2158,
      "Gamma": 2159,
      "ĠĠĠĠĠĠĠĠĠĠĠĠĠĠ": 2160,
      "json": 2161,
      "Source": 2162,
      "New": 2163,
      "my": 2164,
      "Ġsecond": 2165,
      "medi": 2166,
      "velo": 2167,
      "ptr": 2168,
      "cul": 2169,
      "[\"": 2170,
      "atabase": 2171,
      "rid": 2172,
      "Str": 2173,
      "Ġinitial": 2174,
      "cm": 2175,
      "wide": 2176,
      "light": 2177,
      "heet": 2178,
      "ns": 2179,
      "xy": 2180,
      "Ġwould": 2181,
      "Ġposition": 2182,
      "tric": 2183,
      "vious": 2184,
      "Ġdocument": 2185,
      "Change": 2186,
      "xml": 2187,
      "Ġlimit": 2188,
      "acter": 2189,
      "Ġsupport": 2190,
      "Ðµ": 2191,
      "attern": 2192,
      "Ġ+=": 2193,
      "ĠĠĠĠĠĠĠĠĊ": 2194,
      "img": 2195,
      "Ġproperty": 2196,
      "US": 2197,
      "sqrt": 2198,
      "Ġborder": 2199,
      "Ġselect": 2200,
      "ĠFig": 2201,
      "gener": 2202,
      "CK": 2203,
      "ee": 2204,
      "Ġhis": 2205,
      "dio": 2206,
      "adata": 2207,
      "Ġlast": 2208,
      "idget": 2209,
      "60": 2210,
      "graphics": 2211,
      "place": 2212,
      "vider": 2213,
      "witch": 2214,
      "btn": 2215,
      "go": 2216,
      "abel": 2217,
      "gorith": 2218,
      "*/": 2219,
      "Ġinformation": 2220,
      "ĠList": 2221,
      "Function": 2222,
      "init": 2223,
      "ĠÐ": 2224,
      "ds": 2225,
      "And": 2226,
      "bra": 2227,
      "Attribute": 2228,
      "Ġcomponent": 2229,
      "Ġcorrespon": 2230,
      "Ġrange": 2231,
      "ynam": 2232,
      "side": 2233,
      "Ġsol": 2234,
      "local": 2235,
      "property": 2236,
      "Oper": 2237,
      "gn": 2238,
      "Pa": 2239,
      "Mem": 2240,
      "cket": 2241,
      "LASS": 2242,
      "Ġvalid": 2243,
      "older": 2244,
      "other": 2245,
      "df": 2246,
      "display": 2247,
      "owever": 2248,
      "ware": 2249,
      "signed": 2250,
      "Default": 2251,
      "''": 2252,
      "Ed": 2253,
      "Factory": 2254,
      "Ġmake": 2255,
      "GL": 2256,
      "apt": 2257,
      "Ġloc": 2258,
      "EL": 2259,
      "Ġparameters": 2260,
      "proto": 2261,
      "navbar": 2262,
      "Ġsmall": 2263,
      "Ġsuper": 2264,
      "mission": 2265,
      "Ġident": 2266,
      "ched": 2267,
      "imation": 2268,
      "orage": 2269,
      ")$,": 2270,
      "Act": 2271,
      "subsection": 2272,
      "OP": 2273,
      "Ġnow": 2274,
      "Ġwell": 2275,
      "flow": 2276,
      "ear": 2277,
      "Ġargument": 2278,
      "cor": 2279,
      "mult": 2280,
      "energy": 2281,
      "Version": 2282,
      "ĠAl": 2283,
      "Ġnext": 2284,
      "Select": 2285,
      "Filter": 2286,
      "Ġview": 2287,
      "ures": 2288,
      "arg": 2289,
      "}=": 2290,
      "build": 2291,
      "ier": 2292,
      "Ġfil": 2293,
      "rl": 2294,
      "imum": 2295,
      "EE": 2296,
      "child": 2297,
      "src": 2298,
      "imal": 2299,
      "Ġcre": 2300,
      "oot": 2301,
      "ason": 2302,
      "SP": 2303,
      "Ġimplement": 2304,
      "write": 2305,
      "Ġlarge": 2306,
      "oper": 2307,
      "Ġmost": 2308,
      "Command": 2309,
      "ĠĠĠĠĠĠĠĠĠĠĠĠĊ": 2310,
      "textbf": 2311,
      "ran": 2312,
      "ves": 2313,
      "reference": 2314,
      "ident": 2315,
      "ĠRes": 2316,
      "Ġ${\\": 2317,
      "her": 2318,
      "meta": 2319,
      "Ġq": 2320,
      "require": 2321,
      "No": 2322,
      "sg": 2323,
      "Page": 2324,
      "Ġbefore": 2325,
      "filter": 2326,
      "bm": 2327,
      "Window": 2328,
      "^{(": 2329,
      "rows": 2330,
      "Ġsur": 2331,
      "Link": 2332,
      "ĠObject": 2333,
      "Ġtop": 2334,
      "Start": 2335,
      "Ġthrough": 2336,
      "ĠGL": 2337,
      "vare": 2338,
      "active": 2339,
      "bottom": 2340,
      "icy": 2341,
      "Ġter": 2342,
      "Ġ{@": 2343,
      "});": 2344,
      "UE": 2345,
      "Ġpage": 2346,
      ")(": 2347,
      "jav": 2348,
      "imension": 2349,
      "Task": 2350,
      "amb": 2351,
      "lags": 2352,
      "Ġ\\,": 2353,
      "Ġcent": 2354,
      "Ġpresent": 2355,
      "Ġref": 2356,
      "char": 2357,
      "varepsilon": 2358,
      "gre": 2359,
      "True": 2360,
      "izer": 2361,
      "${": 2362,
      "75": 2363,
      "Ġpri": 2364,
      "Ġclient": 2365,
      "ĠTo": 2366,
      "Ġlevel": 2367,
      "ives": 2368,
      "HT": 2369,
      "01": 2370,
      "ategory": 2371,
      "ffic": 2372,
      "first": 2373,
      "ATE": 2374,
      "push": 2375,
      "///": 2376,
      "Do": 2377,
      "spec": 2378,
      "ialog": 2379,
      "199": 2380,
      "ross": 2381,
      "FONT": 2382,
      "status": 2383,
      "tributes": 2384,
      "raint": 2385,
      "endif": 2386,
      "quence": 2387,
      "ism": 2388,
      "Ġmeasure": 2389,
      "umb": 2390,
      "Null": 2391,
      "rightarrow": 2392,
      "ique": 2393,
      "}^{\\": 2394,
      "Const": 2395,
      "nect": 2396,
      "Ġaction": 2397,
      "\"]": 2398,
      "Ġcontin": 2399,
      "cause": 2400,
      "TO": 2401,
      "Number": 2402,
      "Cur": 2403,
      "private": 2404,
      "AG": 2405,
      "34": 2406,
      "pc": 2407,
      "Point": 2408,
      "ilar": 2409,
      "Ġmain": 2410,
      "opy": 2411,
      "change": 2412,
      "ically": 2413,
      "rangle": 2414,
      "lin": 2415,
      "Ġthrows": 2416,
      "uring": 2417,
      "Row": 2418,
      ")=": 2419,
      "OL": 2420,
      "////////////////": 2421,
      "open": 2422,
      "Ġlink": 2423,
      "Ġlength": 2424,
      "andard": 2425,
      "FI": 2426,
      "Ġthem": 2427,
      "Ġmodule": 2428,
      "Ġvis": 2429,
      "cast": 2430,
      "png": 2431,
      "itive": 2432,
      "Ġhttp": 2433,
      "Ġvariable": 2434,
      "Ġdescri": 2435,
      "ĉĉĉĉĉĉĉĉ": 2436,
      "ĠReturn": 2437,
      "ensure": 2438,
      "foot": 2439,
      "SC": 2440,
      "aterial": 2441,
      "bove": 2442,
      "vec": 2443,
      "lot": 2444,
      "Ġrespect": 2445,
      "strong": 2446,
      "Ġfeature": 2447,
      "totype": 2448,
      "ĠComp": 2449,
      "ĠTest": 2450,
      "Create": 2451,
      "description": 2452,
      "Ġorig": 2453,
      "loud": 2454,
      "Ġexpected": 2455,
      "Equals": 2456,
      "ators": 2457,
      "includegraphics": 2458,
      "PRO": 2459,
      "Big": 2460,
      "Ġnetwork": 2461,
      "ĠNone": 2462,
      "Ġdec": 2463,
      "55": 2464,
      "Ġlabel": 2465,
      "tal": 2466,
      "anguage": 2467,
      "sert": 2468,
      "semb": 2469,
      "Ġsolution": 2470,
      "Check": 2471,
      "ĠMe": 2472,
      "Ġ((": 2473,
      "NO": 2474,
      "Ġ``": 2475,
      "Loc": 2476,
      "sol": 2477,
      "27": 2478,
      "ited": 2479,
      "VER": 2480,
      "cy": 2481,
      "small": 2482,
      "sw": 2483,
      "(&": 2484,
      "wn": 2485,
      "format": 2486,
      "icense": 2487,
      "Format": 2488,
      "vai": 2489,
      "rowser": 2490,
      "Ġabove": 2491,
      "ansp": 2492,
      "resource": 2493,
      "font": 2494,
      "instance": 2495,
      "Ġmass": 2496,
      "Ġpe": 2497,
      "ABLE": 2498,
      "thing": 2499,
      ".,": 2500,
      "run": 2501,
      "ough": 2502,
      "curity": 2503,
      "plugin": 2504,
      "ascript": 2505,
      "Ġframe": 2506,
      "Ġprotected": 2507,
      "28": 2508,
      "sheet": 2509,
      "Ð¸": 2510,
      "ail": 2511,
      "find": 2512,
      "project": 2513,
      "AP": 2514,
      "varphi": 2515,
      "Column": 2516,
      "If": 2517,
      "obj": 2518,
      "Return": 2519,
      "Ġposs": 2520,
      ".~\\": 2521,
      "Ġexist": 2522,
      "post": 2523,
      "Ġperform": 2524,
      "Ġhere": 2525,
      "SON": 2526,
      "Ġcolumn": 2527,
      "}).": 2528,
      "Ġpass": 2529,
      "ttp": 2530,
      "MO": 2531,
      "rict": 2532,
      "common": 2533,
      "pol": 2534,
      "come": 2535,
      "ived": 2536,
      "Ġurl": 2537,
      "Label": 2538,
      "stru": 2539,
      "ĠIN": 2540,
      "ĠHREF": 2541,
      "ocus": 2542,
      "close": 2543,
      "Var": 2544,
      "Button": 2545,
      "std": 2546,
      "Ġbecause": 2547,
      "ĠHe": 2548,
      "Output": 2549,
      "Ġmode": 2550,
      "params": 2551,
      "Ġdistribution": 2552,
      "Ġgeneral": 2553,
      "container": 2554,
      "ready": 2555,
      "Pre": 2556,
      "dev": 2557,
      "Ġsince": 2558,
      "Part": 2559,
      "Ġreal": 2560,
      "any": 2561,
      "iron": 2562,
      "Controller": 2563,
      "Ġaddress": 2564,
      "response": 2565,
      "Ġmargin": 2566,
      "Ġstud": 2567,
      "cap": 2568,
      "ci": 2569,
      "FA": 2570,
      "BU": 2571,
      "menu": 2572,
      "ifact": 2573,
      "buf": 2574,
      "ĠSh": 2575,
      "Listener": 2576,
      "Tag": 2577,
      "Ġenergy": 2578,
      "sor": 2579,
      "ÑĤ": 2580,
      "update": 2581,
      "Ġextends": 2582,
      "geq": 2583,
      "can": 2584,
      "expect": 2585,
      "INT": 2586,
      "olume": 2587,
      "match": 2588,
      "Ġ]": 2589,
      "len": 2590,
      "ĠCLASS": 2591,
      "host": 2592,
      "attr": 2593,
      "ensity": 2594,
      "Ġevery": 2595,
      "Ġdisplay": 2596,
      "Ġwho": 2597,
      "ral": 2598,
      "Ġpos": 2599,
      "ql": 2600,
      "duction": 2601,
      "stream": 2602,
      "Ġcommand": 2603,
      "Mode": 2604,
      "Ġauto": 2605,
      "Ġdeta": 2606,
      "ensor": 2607,
      "entry": 2608,
      "Met": 2609,
      "Ġrequired": 2610,
      "sole": 2611,
      "service": 2612,
      "Ġgra": 2613,
      "[\\": 2614,
      "mt": 2615,
      "Ġcount": 2616,
      "chi": 2617,
      "refix": 2618,
      "orld": 2619,
      "Ġmodels": 2620,
      "gorithm": 2621,
      "tag": 2622,
      "Ġmy": 2623,
      "Length": 2624,
      "gram": 2625,
      "Ġlike": 2626,
      "Ġheight": 2627,
      "javascript": 2628,
      "ior": 2629,
      "lack": 2630,
      "untime": 2631,
      "Ġ<!--": 2632,
      "TYPE": 2633,
      "90": 2634,
      "parameter": 2635,
      "allet": 2636,
      "gress": 2637,
      "cer": 2638,
      "<?": 2639,
      "COL": 2640,
      "resh": 2641,
      "emph": 2642,
      "ols": 2643,
      "ove": 2644,
      "iver": 2645,
      "ysis": 2646,
      "Spec": 2647,
      "overline": 2648,
      "num": 2649,
      "ted": 2650,
      "ls": 2651,
      "ĉĠĠĠ": 2652,
      "ĠNew": 2653,
      "Ġproject": 2654,
      "URL": 2655,
      "Ġparent": 2656,
      "column": 2657,
      "Ġsample": 2658,
      "Ġvector": 2659,
      "Read": 2660,
      "Collection": 2661,
      "ging": 2662,
      "vailable": 2663,
      "IM": 2664,
      "Ġbuild": 2665,
      "ĠOn": 2666,
      "pping": 2667,
      "Valid": 2668,
      "ulation": 2669,
      "Ġsum": 2670,
      "26": 2671,
      "\").": 2672,
      ".}": 2673,
      "remove": 2674,
      "iler": 2675,
      "parse": 2676,
      "_.": 2677,
      "draw": 2678,
      ".\\": 2679,
      "tack": 2680,
      "ric": 2681,
      "valu": 2682,
      "Child": 2683,
      "structor": 2684,
      "Ġtask": 2685,
      "```": 2686,
      "stract": 2687,
      "component": 2688,
      "\"),": 2689,
      "tity": 2690,
      "output": 2691,
      "UI": 2692,
      "bl": 2693,
      "verage": 2694,
      "proof": 2695,
      "hav": 2696,
      "45": 2697,
      "Box": 2698,
      "circ": 2699,
      "Ġsection": 2700,
      "ru": 2701,
      "icro": 2702,
      "35": 2703,
      "vari": 2704,
      "Ġden": 2705,
      "Ġquant": 2706,
      "Sup": 2707,
      ":</": 2708,
      "Reference": 2709,
      "UM": 2710,
      "ĠĠĠĠĠĠĠĠĠĠĠĠĠĠĠĠĠĠĠĠĠĠĠĠĠĠĠĠĠĠĠĠĠĠĠ": 2711,
      "ambda": 2712,
      "&\\": 2713,
      "duced": 2714,
      "05": 2715,
      "ymme": 2716,
      "ony": 2717,
      "Ġincre": 2718,
      "Ġbased": 2719,
      "viron": 2720,
      "ading": 2721,
      "iple": 2722,
      "ĠSer": 2723,
      "ERR": 2724,
      "Ġhad": 2725,
      "Web": 2726,
      "vis": 2727,
      "Ob": 2728,
      "ring": 2729,
      "lag": 2730,
      "bed": 2731,
      "Ġsingle": 2732,
      "Ġopen": 2733,
      "}),": 2734,
      "Ġspecified": 2735,
      "Ġfunctions": 2736,
      "gest": 2737,
      "luster": 2738,
      "itu": 2739,
      "Ġexec": 2740,
      "Bundle": 2741,
      "ĠAdd": 2742,
      "},\\": 2743,
      "Ġjust": 2744,
      "Ġcalled": 2745,
      "cription": 2746,
      "ĠCol": 2747,
      "number": 2748,
      "Ġ[]": 2749,
      "Server": 2750,
      "ges": 2751,
      "Offset": 2752,
      "Ġupdate": 2753,
      "Ġsat": 2754,
      "uint": 2755,
      "Lambda": 2756,
      "ibility": 2757,
      "Ġserver": 2758,
      "ĠAPI": 2759,
      "ined": 2760,
      "IZ": 2761,
      "Ġthree": 2762,
      "Ġchild": 2763,
      "Ġdisc": 2764,
      "show": 2765,
      "ĠWh": 2766,
      "pack": 2767,
      "Temp": 2768,
      "Ġcould": 2769,
      "ank": 2770,
      "Ġcalcul": 2771,
      "command": 2772,
      ")^": 2773,
      "Last": 2774,
      "Url": 2775,
      "29": 2776,
      "else": 2777,
      "PO": 2778,
      "aper": 2779,
      "CON": 2780,
      "opt": 2781,
      "bolds": 2782,
      "prototype": 2783,
      "Ġway": 2784,
      "hline": 2785,
      "igger": 2786,
      "Ġmon": 2787,
      "********************************": 2788,
      "Ġspect": 2789,
      "39": 2790,
      "Ġvert": 2791,
      "Cache": 2792,
      "Layout": 2793,
      "Ġmatrix": 2794,
      "').": 2795,
      "unter": 2796,
      "Ġshown": 2797,
      "boldsymbol": 2798,
      "Di": 2799,
      "AA": 2800,
      "Ġ!==": 2801,
      "Ġet": 2802,
      "eps": 2803,
      "offset": 2804,
      "NAME": 2805,
      "First": 2806,
      "appa": 2807,
      "Ġcallback": 2808,
      "imes": 2809,
      "Ġfilter": 2810,
      "Ð½": 2811,
      "Char": 2812,
      "ining": 2813,
      "sm": 2814,
      "Ġhand": 2815,
      "orph": 2816,
      "example": 2817,
      "sets": 2818,
      "ĠLicense": 2819,
      "unit": 2820,
      "logy": 2821,
      "verse": 2822,
      "wise": 2823,
      "skip": 2824,
      "idden": 2825,
      "Update": 2826,
      "Ã©": 2827,
      ">>": 2828,
      "returns": 2829,
      "HE": 2830,
      "Ġdeter": 2831,
      "sf": 2832,
      "Provider": 2833,
      "Ġassoci": 2834,
      "++)": 2835,
      "langle": 2836,
      "pose": 2837,
      "Ġbeing": 2838,
      "ĠEX": 2839,
      "Let": 2840,
      "ERT": 2841,
      "je": 2842,
      "Ġexperi": 2843,
      "unk": 2844,
      "kappa": 2845,
      "arn": 2846,
      "artifact": 2847,
      "Ġaddition": 2848,
      "inary": 2849,
      "Ab": 2850,
      "Ġgraph": 2851,
      "ither": 2852,
      "ness": 2853,
      "Ad": 2854,
      "att": 2855,
      "Ġwindow": 2856,
      "notation": 2857,
      "Ġinterface": 2858,
      "ctor": 2859,
      "amily": 2860,
      "Sp": 2861,
      "DB": 2862,
      "mbox": 2863,
      "IO": 2864,
      "Ġoption": 2865,
      "Ġcatch": 2866,
      "Ġcell": 2867,
      "}}$": 2868,
      "oto": 2869,
      "process": 2870,
      "az": 2871,
      "equal": 2872,
      "cs": 2873,
      "TP": 2874,
      "Width": 2875,
      "loy": 2876,
      "Address": 2877,
      "ĠArray": 2878,
      "frak": 2879,
      "Run": 2880,
      "Phi": 2881,
      "Ġfollows": 2882,
      "CODE": 2883,
      "Ġproperties": 2884,
      "icle": 2885,
      "Ġprint": 2886,
      "utils": 2887,
      "latform": 2888,
      "lish": 2889,
      "Ġproblem": 2890,
      "ural": 2891,
      "Case": 2892,
      "coding": 2893,
      "ually": 2894,
      "igation": 2895,
      "fe": 2896,
      "Ġmethods": 2897,
      "Ġreference": 2898,
      "Ġinte": 2899,
      "Pol": 2900,
      "Ġformat": 2901,
      "oop": 2902,
      "rapper": 2903,
      "Ġestim": 2904,
      "Ext": 2905,
      "Ġquery": 2906,
      "ration": 2907,
      "task": 2908,
      "sd": 2909,
      "Ġwithout": 2910,
      "########": 2911,
      "Ġaccess": 2912,
      "Module": 2913,
      "window": 2914,
      "Target": 2915,
      "ideo": 2916,
      "()->": 2917,
      "lip": 2918,
      "Unit": 2919,
      "(_": 2920,
      "kit": 2921,
      "limit": 2922,
      "dependent": 2923,
      "}/": 2924,
      "=\"../../../../../": 2925,
      "inc": 2926,
      "ially": 2927,
      "ldots": 2928,
      "Interface": 2929,
      "book": 2930,
      "ons": 2931,
      "exec": 2932,
      ")]": 2933,
      "ĠApp": 2934,
      "gment": 2935,
      "CC": 2936,
      "API": 2937,
      "Ġhow": 2938,
      "Ġder": 2939,
      "Ġuint": 2940,
      "template": 2941,
      ".$": 2942,
      "Ġev": 2943,
      "Ġtotal": 2944,
      "licit": 2945,
      "Ġfont": 2946,
      "Ġrest": 2947,
      "=\"-": 2948,
      "rel": 2949,
      "float": 2950,
      "Wh": 2951,
      "Range": 2952,
      "rypt": 2953,
      "Types": 2954,
      "pped": 2955,
      "AM": 2956,
      "gen": 2957,
      "classes": 2958,
      "ination": 2959,
      "atase": 2960,
      "Ġaga": 2961,
      "gent": 2962,
      "Ġtak": 2963,
      "Ġstructure": 2964,
      "ĉĉĉĉĉĉĉ": 2965,
      "ĠHT": 2966,
      ":\"": 2967,
      "token": 2968,
      "ced": 2969,
      "ead": 2970,
      "ĠCom": 2971,
      "struction": 2972,
      "Entry": 2973,
      "Ġservice": 2974,
      "Entity": 2975,
      "ane": 2976,
      "ancel": 2977,
      "Ġprevious": 2978,
      "lap": 2979,
      "Ġcopy": 2980,
      "Ġplay": 2981,
      "irection": 2982,
      "Ġca": 2983,
      "Ġvari": 2984,
      "urther": 2985,
      "Per": 2986,
      "nab": 2987,
      "ÑĢ": 2988,
      "dict": 2989,
      "ories": 2990,
      "scope": 2991,
      "Ġport": 2992,
      "44": 2993,
      "Ġelements": 2994,
      "Ġsearch": 2995,
      "level": 2996,
      "mathfrak": 2997,
      "bool": 2998,
      "Ġlen": 2999,
      "Ġrece": 3000,
      "./": 3001,
      "Ġarg": 3002,
      "Ġren": 3003,
      "Ġtag": 3004,
      "Ġequal": 3005,
      "stylesheet": 3006,
      "Ġmark": 3007,
      "Back": 3008,
      "oke": 3009,
      "70": 3010,
      "]);": 3011,
      "scale": 3012,
      "asic": 3013,
      "Configuration": 3014,
      "ĠID": 3015,
      "Ġcontrol": 3016,
      "Ġss": 3017,
      "empty": 3018,
      "Ġwithin": 3019,
      "isf": 3020,
      "soft": 3021,
      "Level": 3022,
      "Ġfields": 3023,
      "Ġsimilar": 3024,
      "support": 3025,
      "Ġdouble": 3026,
      "ĠType": 3027,
      "Ġconnection": 3028,
      "Ġeven": 3029,
      "Tree": 3030,
      "bind": 3031,
      "{{": 3032,
      "ival": 3033,
      "Ġrelation": 3034,
      "ĠLe": 3035,
      "nabla": 3036,
      "Ġmany": 3037,
      "mount": 3038,
      "uid": 3039,
      "Ġwrit": 3040,
      "36": 3041,
      "lied": 3042,
      "Ġscal": 3043,
      "pass": 3044,
      "long": 3045,
      "Ġstatus": 3046,
      "Ġpossible": 3047,
      "ii": 3048,
      "Ġ**": 3049,
      "Ġterms": 3050,
      "([": 3051,
      "Ġwrite": 3052,
      "sl": 3053,
      "Sc": 3054,
      "aml": 3055,
      "Ġvery": 3056,
      "Sto": 3057,
      "buffer": 3058,
      "Ġargs": 3059,
      "only": 3060,
      "Ġplace": 3061,
      "ij": 3062,
      "ensions": 3063,
      "Container": 3064,
      "sembly": 3065,
      "citep": 3066,
      "Access": 3067,
      "dist": 3068,
      "Ð¾Ð": 3069,
      "Ġinternal": 3070,
      "dapt": 3071,
      "Control": 3072,
      "used": 3073,
      "Ġroot": 3074,
      "Ġpoints": 3075,
      "oriz": 3076,
      "Header": 3077,
      "ordin": 3078,
      "document": 3079,
      "root": 3080,
      "Position": 3081,
      "ĠFile": 3082,
      "velop": 3083,
      "Utils": 3084,
      "should": 3085,
      "88": 3086,
      "LI": 3087,
      "Max": 3088,
      "fs": 3089,
      "nonumber": 3090,
      "Ġavailable": 3091,
      "vironment": 3092,
      "hether": 3093,
      "ULT": 3094,
      ".\"": 3095,
      "ving": 3096,
      "Vis": 3097,
      "Ġnormal": 3098,
      "Write": 3099,
      "Search": 3100,
      "gg": 3101,
      "Ġobj": 3102,
      "prec": 3103,
      "Ġbuffer": 3104,
      "otimes": 3105,
      "Ġfloat": 3106,
      "pes": 3107,
      "ĠPar": 3108,
      "ivers": 3109,
      "'),": 3110,
      "ĠName": 3111,
      "tree": 3112,
      "ND": 3113,
      "ĉĠ": 3114,
      "cat": 3115,
      "textit": 3116,
      "Callback": 3117,
      "mun": 3118,
      "Ġsuccess": 3119,
      "Ġnone": 3120,
      "Next": 3121,
      "vices": 3122,
      "control": 3123,
      "Height": 3124,
      "ctx": 3125,
      "Ġfiles": 3126,
      "Open": 3127,
      "âĢĿ": 3128,
      "istory": 3129,
      "})$": 3130,
      "Connection": 3131,
      "clus": 3132,
      "aders": 3133,
      "Exec": 3134,
      "cache": 3135,
      "cing": 3136,
      "subset": 3137,
      "Ġindic": 3138,
      "patch": 3139,
      "served": 3140,
      "Ġ{}": 3141,
      "Ġdown": 3142,
      "ĠReturns": 3143,
      "itory": 3144,
      "ole": 3145,
      "PC": 3146,
      "ces": 3147,
      "IGN": 3148,
      "Ġdefine": 3149,
      "ouse": 3150,
      "Ġparticular": 3151,
      "Ġxml": 3152,
      "=\"../../../../../../": 3153,
      "values": 3154,
      "Ġconstant": 3155,
      "48": 3156,
      "Rem": 3157,
      "auth": 3158,
      "37": 3159,
      "Sigma": 3160,
      "ram": 3161,
      "COLOR": 3162,
      "strap": 3163,
      "08": 3164,
      "split": 3165,
      "uture": 3166,
      "Ġcorresponding": 3167,
      "Hash": 3168,
      "ĠâĢĵ": 3169,
      "ĠThen": 3170,
      "Ġiter": 3171,
      "ek": 3172,
      "Ġapproach": 3173,
      "Ġsequence": 3174,
      "ways": 3175,
      "direct": 3176,
      "\\%": 3177,
      "dius": 3178,
      "gl": 3179,
      "Ġalready": 3180,
      "Pr": 3181,
      "Match": 3182,
      "Ġphase": 3183,
      "Ġcharacter": 3184,
      "Mod": 3185,
      "ged": 3186,
      "requ": 3187,
      "Ġrandom": 3188,
      "ĠBy": 3189,
      "pth": 3190,
      "cell": 3191,
      "ays": 3192,
      "IZE": 3193,
      "%%": 3194,
      "Ġdue": 3195,
      "QL": 3196,
      "final": 3197,
      "tact": 3198,
      "ensuremath": 3199,
      "Ġfilename": 3200,
      "Ġhy": 3201,
      "lies": 3202,
      "Http": 3203,
      "istic": 3204,
      "Process": 3205,
      "vi": 3206,
      "ement": 3207,
      "actions": 3208,
      "Ġ*)": 3209,
      "ĠĠĠĠĠĠĠĠĠĠĠĠĠĠĠĠĠĠĠĠĠ": 3210,
      "KE": 3211,
      "38": 3212,
      "board": 3213,
      "\"))": 3214,
      "uk": 3215,
      "Ġassume": 3216,
      "Ġrow": 3217,
      "Ġregion": 3218,
      "\\[": 3219,
      "interface": 3220,
      "ending": 3221,
      "Ġver": 3222,
      "Ġinit": 3223,
      "ret": 3224,
      "Ġpop": 3225,
      "Ġoperator": 3226,
      "ĠThere": 3227,
      "range": 3228,
      "acy": 3229,
      "][": 3230,
      "02": 3231,
      "edia": 3232,
      "tocol": 3233,
      "2015": 3234,
      "boot": 3235,
      "rule": 3236,
      "cording": 3237,
      "\\|": 3238,
      "Empty": 3239,
      "Ñģ": 3240,
      "Ġfull": 3241,
      "second": 3242,
      "conf": 3243,
      "utable": 3244,
      "Ġsatisf": 3245,
      "ATION": 3246,
      "Params": 3247,
      "Ġwant": 3248,
      "Ġge": 3249,
      "âĢĵ": 3250,
      "env": 3251,
      "arm": 3252,
      "stack": 3253,
      "iod": 3254,
      "ĠOF": 3255,
      "cd": 3256,
      "device": 3257,
      "Ġlinear": 3258,
      "ĠAssert": 3259,
      "Ġwhat": 3260,
      "ired": 3261,
      "STR": 3262,
      "Script": 3263,
      "lus": 3264,
      "artifactId": 3265,
      "Ġconf": 3266,
      "VAL": 3267,
      "system": 3268,
      "HO": 3269,
      "Document": 3270,
      "Ġpair": 3271,
      "Ġtri": 3272,
      "Thread": 3273,
      "Ġstore": 3274,
      "etch": 3275,
      "reen": 3276,
      "Argument": 3277,
      "UP": 3278,
      "river": 3279,
      "Min": 3280,
      "77": 3281,
      "olve": 3282,
      "Ġaut": 3283,
      "Ġside": 3284,
      "Ġreturns": 3285,
      "Ġelect": 3286,
      "Ġoffset": 3287,
      ">,": 3288,
      "debug": 3289,
      "Ġobserv": 3290,
      "ef": 3291,
      "Settings": 3292,
      "ias": 3293,
      "Ġoverride": 3294,
      "Ptr": 3295,
      "Ġspecific": 3296,
      "mem": 3297,
      "hash": 3298,
      "04": 3299,
      "AV": 3300,
      "ĠCreate": 3301,
      "Location": 3302,
      "prop": 3303,
      "Ġeither": 3304,
      "/\\": 3305,
      "Vert": 3306,
      "Top": 3307,
      "expected": 3308,
      "Ġdensity": 3309,
      "Ġrule": 3310,
      "MS": 3311,
      "Json": 3312,
      "erson": 3313,
      "Ġduring": 3314,
      "Ġscale": 3315,
      "Ġmem": 3316,
      "author": 3317,
      "Ġ>=": 3318,
      "Ġsk": 3319,
      "ba": 3320,
      "}}{": 3321,
      "iss": 3322,
      "thon": 3323,
      "Ġclear": 3324,
      "ECT": 3325,
      "Ġintegr": 3326,
      "\".": 3327,
      ":(": 3328,
      "gebra": 3329,
      "wait": 3330,
      "Schema": 3331,
      "cit": 3332,
      "ison": 3333,
      "None": 3334,
      "():": 3335,
      "67": 3336,
      "Properties": 3337,
      "%;": 3338,
      "ln": 3339,
      "Helper": 3340,
      "=\"_": 3341,
      "Ġvirtual": 3342,
      "Ident": 3343,
      "Ġthose": 3344,
      "Ġnav": 3345,
      "{-": 3346,
      "Ġassociated": 3347,
      "met": 3348,
      "under": 3349,
      "Ġzero": 3350,
      "31": 3351,
      "ggle": 3352,
      "TI": 3353,
      "Ġappe": 3354,
      "Ġequation": 3355,
      "Integer": 3356,
      "Ġstream": 3357,
      "internal": 3358,
      "store": 3359,
      "Ġobtained": 3360,
      "iff": 3361,
      "Ġcontains": 3362,
      "fficient": 3363,
      "Ġglobal": 3364,
      "groupId": 3365,
      "ux": 3366,
      "Ġexists": 3367,
      "}-": 3368,
      "tax": 3369,
      "PECT": 3370,
      "border": 3371,
      "ftware": 3372,
      "ĠData": 3373,
      "Ġchannel": 3374,
      "ĠHowever": 3375,
      "rs": 3376,
      "cheme": 3377,
      "cluding": 3378,
      "ately": 3379,
      "prime": 3380,
      "models": 3381,
      "copy": 3382,
      "Ġher": 3383,
      "mode": 3384,
      "off": 3385,
      "ccur": 3386,
      "ixel": 3387,
      "Ġshows": 3388,
      "Ġpost": 3389,
      "Session": 3390,
      "Description": 3391,
      "OS": 3392,
      "ãģ": 3393,
      "drop": 3394,
      "Ġpot": 3395,
      "Ġclo": 3396,
      "Local": 3397,
      "tract": 3398,
      "\"));": 3399,
      "Ġparams": 3400,
      "deta": 3401,
      "cp": 3402,
      "(-": 3403,
      "ĉĉĊ": 3404,
      "06": 3405,
      "NavBar": 3406,
      "tains": 3407,
      "widetilde": 3408,
      "Ġclose": 3409,
      "Ġhost": 3410,
      "2017": 3411,
      "ople": 3412,
      "bb": 3413,
      "images": 3414,
      "ĠDo": 3415,
      "Ġpadding": 3416,
      "modal": 3417,
      "Serial": 3418,
      "ended": 3419,
      "Option": 3420,
      "Expression": 3421,
      "Ġ~": 3422,
      "{}": 3423,
      "before": 3424,
      "Ġlook": 3425,
      "Ġret": 3426,
      "2016": 3427,
      ";->": 3428,
      "Font": 3429,
      "Impl": 3430,
      "aded": 3431,
      "Ġattribute": 3432,
      "DIR": 3433,
      "ws": 3434,
      "aj": 3435,
      "Ġpower": 3436,
      "ĠAt": 3437,
      "\\\"": 3438,
      "alt": 3439,
      "Auth": 3440,
      "Ġ&=": 3441,
      "Async": 3442,
      "ACK": 3443,
      "Ġtypes": 3444,
      "Ġremove": 3445,
      "Ġes": 3446,
      "CD": 3447,
      "Ġconfiguration": 3448,
      "Direct": 3449,
      "Ġcomput": 3450,
      "Ġhash": 3451,
      "ĠBG": 3452,
      "Fig": 3453,
      ";\\": 3454,
      "Ġstates": 3455,
      "Copy": 3456,
      "EQ": 3457,
      "Ġdefinition": 3458,
      "docs": 3459,
      "auto": 3460,
      "Ġaccount": 3461,
      "files": 3462,
      "Ġ::": 3463,
      "foo": 3464,
      "render": 3465,
      "alle": 3466,
      "make": 3467,
      "Ġlanguage": 3468,
      "Que": 3469,
      "CL": 3470,
      "delete": 3471,
      "Record": 3472,
      "Ġcomplex": 3473,
      "Parser": 3474,
      "Ġflu": 3475,
      "Ġtemplate": 3476,
      "Ġmean": 3477,
      "Ġpres": 3478,
      "Ġrender": 3479,
      "ĠNS": 3480,
      "Ġoperation": 3481,
      "Ġve": 3482,
      "RL": 3483,
      "XX": 3484,
      "stamp": 3485,
      "ĠException": 3486,
      "Ġcomb": 3487,
      "&&": 3488,
      "\\]": 3489,
      "ads": 3490,
      "Ġobjects": 3491,
      "ium": 3492,
      "ĠLet": 3493,
      "land": 3494,
      "dat": 3495,
      "Dir": 3496,
      "afe": 3497,
      "operator": 3498,
      "impl": 3499,
      "UB": 3500,
      "inner": 3501,
      "posed": 3502,
      "Work": 3503,
      "reat": 3504,
      "Ġproduct": 3505,
      "Ġfree": 3506,
      "Ġstandard": 3507,
      "09": 3508,
      "lice": 3509,
      "entic": 3510,
      "centering": 3511,
      "Render": 3512,
      "Menu": 3513,
      "bin": 3514,
      "TER": 3515,
      "ALL": 3516,
      "ĠEq": 3517,
      "Ġapprox": 3518,
      "Store": 3519,
      "Ġempty": 3520,
      "Op": 3521,
      "Ġprovided": 3522,
      "erature": 3523,
      "Ġarguments": 3524,
      "Project": 3525,
      "Ġfail": 3526,
      "Ġtheory": 3527,
      "Ġdynam": 3528,
      "Ġweight": 3529,
      "gnet": 3530,
      "Ġalign": 3531,
      "vers": 3532,
      "ĠGener": 3533,
      "ataset": 3534,
      "Ġmove": 3535,
      "ĠYou": 3536,
      "Ġold": 3537,
      "\\!": 3538,
      "known": 3539,
      "Ġintro": 3540,
      "MM": 3541,
      "Ġsyn": 3542,
      "Port": 3543,
      "Ġentry": 3544,
      "vector": 3545,
      "Ġapplication": 3546,
      "Pos": 3547,
      "Current": 3548,
      "SD": 3549,
      "Rule": 3550,
      "Iter": 3551,
      "ĠClass": 3552,
      "Ġlower": 3553,
      "Ġbody": 3554,
      "Ġknow": 3555,
      "Ġmedi": 3556,
      "Core": 3557,
      "Ġcustom": 3558,
      "cret": 3559,
      "ĠĠĠĠĠĠĠĠĠĠĠĠĠĠĠĠĠĠĠĠ": 3560,
      "lying": 3561,
      "Ġinstall": 3562,
      "rr": 3563,
      "mar": 3564,
      "Ġdiag": 3565,
      "leted": 3566,
      "ĠBGCOLOR": 3567,
      "kind": 3568,
      "Rout": 3569,
      "Ġnamespace": 3570,
      "argument": 3571,
      "ORT": 3572,
      "Ġremain": 3573,
      "Ġwhether": 3574,
      "Ġ['": 3575,
      "sv": 3576,
      "istry": 3577,
      "Operation": 3578,
      "msg": 3579,
      "ERROR": 3580,
      "={": 3581,
      "(:": 3582,
      "udio": 3583,
      "Ġdescription": 3584,
      "Parameters": 3585,
      "ĠEXPECT": 3586,
      "des": 3587,
      "Ġoriginal": 3588,
      "Ġunit": 3589,
      "bs": 3590,
      "encies": 3591,
      "break": 3592,
      "Ġdate": 3593,
      "Device": 3594,
      "Ġterm": 3595,
      "orizont": 3596,
      "'>": 3597,
      "IF": 3598,
      "tabular": 3599,
      "Ġbelow": 3600,
      "$(": 3601,
      "Ġword": 3602,
      "03": 3603,
      "================================": 3604,
      "65": 3605,
      "Ġrole": 3606,
      "ART": 3607,
      "Ġsimple": 3608,
      "istent": 3609,
      "zon": 3610,
      "ĠIs": 3611,
      "SH": 3612,
      "Vector": 3613,
      "Ġ...": 3614,
      "Ġjo": 3615,
      "Ġanalysis": 3616,
      "types": 3617,
      "CP": 3618,
      "imer": 3619,
      "Ġhandle": 3620,
      "&#": 3621,
      "lished": 3622,
      "ah": 3623,
      "ĠAc": 3624,
      "toString": 3625,
      "ari": 3626,
      "Ġplan": 3627,
      "ernel": 3628,
      "dest": 3629,
      "Ġmet": 3630,
      "Handle": 3631,
      "equiv": 3632,
      "alk": 3633,
      "Host": 3634,
      "ached": 3635,
      "SO": 3636,
      "ĠLo": 3637,
      "ets": 3638,
      "Ġdiv": 3639,
      "ansport": 3640,
      "BO": 3641,
      "req": 3642,
      "Ġrate": 3643,
      "Template": 3644,
      "send": 3645,
      "Ġproof": 3646,
      "Ġalgorithm": 3647,
      "uple": 3648,
      "dient": 3649,
      "Ġundefined": 3650,
      "Ġlines": 3651,
      "ĠSo": 3652,
      "Ġpaper": 3653,
      "coder": 3654,
      "ze": 3655,
      "2018": 3656,
      "export": 3657,
      "note": 3658,
      "zeta": 3659,
      "Ġtake": 3660,
      "unded": 3661,
      "yc": 3662,
      "Cal": 3663,
      "Ġvia": 3664,
      "Kind": 3665,
      "Ġcho": 3666,
      "Ġnum": 3667,
      "Ġdest": 3668,
      "Sign": 3669,
      "engine": 3670,
      "orizontal": 3671,
      "'],": 3672,
      "which": 3673,
      "Ġ;": 3674,
      "day": 3675,
      "Ġstill": 3676,
      "Ġknown": 3677,
      "Ġgenerated": 3678,
      "settings": 3679,
      "nap": 3680,
      "cos": 3681,
      "rem": 3682,
      "\\{": 3683,
      "Ġbehav": 3684,
      "ĠUp": 3685,
      "Left": 3686,
      "ni": 3687,
      "}+": 3688,
      "07": 3689,
      "lev": 3690,
      "Ġtransform": 3691,
      "vm": 3692,
      "2014": 3693,
      "ĠNo": 3694,
      "Ġevents": 3695,
      "Invalid": 3696,
      "equals": 3697,
      "49": 3698,
      "Ġfe": 3699,
      "join": 3700,
      "Ġstrong": 3701,
      "emma": 3702,
      "exports": 3703,
      "Ġsepar": 3704,
      "Ġlocation": 3705,
      "Psi": 3706,
      "Ġtoken": 3707,
      "widget": 3708,
      "Ġdone": 3709,
      "Order": 3710,
      "Ġcontinu": 3711,
      "Ġrespectively": 3712,
      "jection": 3713,
      "ATA": 3714,
      "Ġshort": 3715,
      "Ġdetermin": 3716,
      "Ġ\"\\": 3717,
      "fill": 3718,
      "Right": 3719,
      "ometry": 3720,
      "legate": 3721,
      "`.": 3722,
      "Ġhttps": 3723,
      ",-": 3724,
      "click": 3725,
      "II": 3726,
      "tool": 3727,
      "uri": 3728,
      "ĠOR": 3729,
      "pename": 3730,
      "One": 3731,
      "Rect": 3732,
      "Ġtransition": 3733,
      "Ġparse": 3734,
      "FO": 3735,
      "Ġdevelop": 3736,
      "normal": 3737,
      "Ġconditions": 3738,
      "aa": 3739,
      "False": 3740,
      "Ġexception": 3741,
      "Ġstudy": 3742,
      "pository": 3743,
      "}]": 3744,
      "orn": 3745,
      "---": 3746,
      "transform": 3747,
      ")=\\": 3748,
      "Ġcreated": 3749,
      "ĠAll": 3750,
      "panel": 3751,
      "Ġcontrib": 3752,
      "roy": 3753,
      "Ġdon": 3754,
      "$)": 3755,
      "atal": 3756,
      "clear": 3757,
      "Assert": 3758,
      "Ġhelp": 3759,
      "brary": 3760,
      "card": 3761,
      "session": 3762,
      "bootstrap": 3763,
      "###": 3764,
      "Ġfixed": 3765,
      "47": 3766,
      "42": 3767,
      "atio": 3768,
      "}=\\": 3769,
      "Ġrecord": 3770,
      "ignore": 3771,
      "ctionary": 3772,
      "Ġincrease": 3773,
      "Us": 3774,
      "footer": 3775,
      "Api": 3776,
      "ires": 3777,
      "dated": 3778,
      "Values": 3779,
      "izes": 3780,
      "Ġscope": 3781,
      "Ġfore": 3782,
      "=\"/": 3783,
      "85": 3784,
      "Use": 3785,
      "Ġsymme": 3786,
      "background": 3787,
      "ĠReg": 3788,
      "hover": 3789,
      "webkit": 3790,
      "Metadata": 3791,
      "Debug": 3792,
      "icrosoft": 3793,
      "scal": 3794,
      "Ġdistance": 3795,
      "255": 3796,
      "enum": 3797,
      "Ġke": 3798,
      "byte": 3799,
      "ĠOr": 3800,
      "?:": 3801,
      "bound": 3802,
      "Ġswitch": 3803,
      "dim": 3804,
      "Ġpackage": 3805,
      "Title": 3806,
      "(*": 3807,
      "cf": 3808,
      "Ġinfo": 3809,
      "indent": 3810,
      "Ġ})": 3811,
      "ĠLog": 3812,
      "Ġperformance": 3813,
      "rary": 3814,
      "orth": 3815,
      "alax": 3816,
      "Ġoccur": 3817,
      "Net": 3818,
      "Ġtree": 3819,
      "fil": 3820,
      "aly": 3821,
      "ãĥ": 3822,
      "ĠĠĠĠĠĠĠĠĠĠĠĠĠĠĠĠĠĠĠĠĠĠĠĠĠĠĠĠĠĠĠĠĠĠĠĠĠĠĠ": 3823,
      "Ġeas": 3824,
      "ĠCheck": 3825,
      "variant": 3826,
      "Ġsets": 3827,
      "ĠNot": 3828,
      "replace": 3829,
      "Ġcar": 3830,
      "cker": 3831,
      "mid": 3832,
      "=\"../../../": 3833,
      "DD": 3834,
      "address": 3835,
      "mut": 3836,
      "GET": 3837,
      "Ġstep": 3838,
      ")}\\": 3839,
      "Ġop": 3840,
      "coin": 3841,
      "ĠTO": 3842,
      "ality": 3843,
      ">();": 3844,
      "ORM": 3845,
      "ĠDE": 3846,
      "Ġreport": 3847,
      "External": 3848,
      "Ġconstraint": 3849,
      "ites": 3850,
      "handle": 3851,
      "Ġfour": 3852,
      "adow": 3853,
      "Ass": 3854,
      "Ġinstead": 3855,
      "Names": 3856,
      "RI": 3857,
      "ops": 3858,
      "ĠDes": 3859,
      "Down": 3860,
      "Ġbecome": 3861,
      "lemma": 3862,
      "Deta": 3863,
      "icons": 3864,
      "Ġcannot": 3865,
      "Ġcache": 3866,
      "ĠTheorem": 3867,
      "tach": 3868,
      "material": 3869,
      "ama": 3870,
      "ĠâĢľ": 3871,
      "Classes": 3872,
      "nected": 3873,
      "ä¸": 3874,
      "mi": 3875,
      "Ġmade": 3876,
      "Ġown": 3877,
      "lash": 3878,
      "custom": 3879,
      "Reader": 3880,
      "Ġcenter": 3881,
      "exception": 3882,
      "ĠNote": 3883,
      "95": 3884,
      "Ġanother": 3885,
      "Icon": 3886,
      "Can": 3887,
      "appro": 3888,
      "desc": 3889,
      "SET": 3890,
      "xis": 3891,
      "eded": 3892,
      "Ġalong": 3893,
      "Ġpotential": 3894,
      "Stack": 3895,
      "AND": 3896,
      "Ġdomain": 3897,
      "ressed": 3898,
      "Ġmak": 3899,
      ")^{": 3900,
      "Mult": 3901,
      "Ġnumer": 3902,
      "Ġcluster": 3903,
      "ale": 3904,
      "Ġbyte": 3905,
      "Ġrelative": 3906,
      "Ġselected": 3907,
      "Ġsolid": 3908,
      "iform": 3909,
      "Ġcorrect": 3910,
      "Ġdelete": 3911,
      "agement": 3912,
      "schema": 3913,
      "Pass": 3914,
      "disabled": 3915,
      "formed": 3916,
      ".~": 3917,
      "Ġfinite": 3918,
      "Inst": 3919,
      "access": 3920,
      "Ġmuch": 3921,
      "Ġevalu": 3922,
      "global": 3923,
      "media": 3924,
      "~~~~": 3925,
      "pdf": 3926,
      "2013": 3927,
      "ĠSee": 3928,
      "Ġgame": 3929,
      "Pri": 3930,
      "Ġcases": 3931,
      "Ġcompar": 3932,
      "pop": 3933,
      "Ġunsigned": 3934,
      "thm": 3935,
      "ĠMap": 3936,
      "Descript": 3937,
      ">.": 3938,
      "Args": 3939,
      "Ġecho": 3940,
      "Ġleast": 3941,
      "-->": 3942,
      "Ġload": 3943,
      "Ġnodes": 3944,
      "boolean": 3945,
      "had": 3946,
      "2019": 3947,
      "fn": 3948,
      "ird": 3949,
      "then": 3950,
      "_;": 3951,
      "ĠSection": 3952,
      "Application": 3953,
      "gative": 3954,
      "framework": 3955,
      "peed": 3956,
      "weight": 3957,
      "ority": 3958,
      "ORD": 3959,
      "era": 3960,
      "Ġauth": 3961,
      "ife": 3962,
      "ĠJSON": 3963,
      "ĠAd": 3964,
      "Ġbro": 3965,
      "Ġremo": 3966,
      "----------------------------------------------------------------": 3967,
      "ond": 3968,
      "urb": 3969,
      "Ġinterest": 3970,
      "izing": 3971,
      "68": 3972,
      "Ġdiff": 3973,
      "Tab": 3974,
      "Ġfeatures": 3975,
      "Ġtech": 3976,
      "Ġsurface": 3977,
      "utor": 3978,
      "padding": 3979,
      "Ġheader": 3980,
      "Ġsm": 3981,
      "Ġred": 3982,
      "Ġlight": 3983,
      "icker": 3984,
      "Ġexpression": 3985,
      "Ġrelease": 3986,
      "coded": 3987,
      "creen": 3988,
      "}\"": 3989,
      "Param": 3990,
      "rep": 3991,
      "Ġcontainer": 3992,
      "SL": 3993,
      "umpt": 3994,
      "Ġreplace": 3995,
      "Ġincluding": 3996,
      "orig": 3997,
      "2020": 3998,
      "cr": 3999,
      "ev": 4000,
      "Ġque": 4001,
      "cture": 4002,
      "Ġdevice": 4003,
      "Definition": 4004,
      "Root": 4005,
      "ĠAnd": 4006,
      ";<": 4007,
      "}_\\": 4008,
      "oost": 4009,
      "Ġbest": 4010,
      "uggest": 4011,
      "Ġdimension": 4012,
      "ears": 4013,
      "Ġsever": 4014,
      "double": 4015,
      "cdots": 4016,
      "Sk": 4017,
      "Ġfactor": 4018,
      "Ġreturned": 4019,
      "edge": 4020,
      "}|": 4021,
      "Ġmultiple": 4022,
      "Draw": 4023,
      "Ġalways": 4024,
      "INE": 4025,
      "IR": 4026,
      "overn": 4027,
      "Package": 4028,
      "ĠRem": 4029,
      "SION": 4030,
      "__(": 4031,
      "precated": 4032,
      "ĠĠĠĠĠĠĠĠĠĠĠĠĠĠĠĠĠĠ": 4033,
      "Boolean": 4034,
      "Ġcollection": 4035,
      "Ġperiod": 4036,
      "cla": 4037,
      "Ġmeans": 4038,
      "atist": 4039,
      "fony": 4040,
      "Writer": 4041,
      "meric": 4042,
      "{(": 4043,
      "ymfony": 4044,
      "dx": 4045,
      "ĠTrans": 4046,
      "ries": 4047,
      "ategy": 4048,
      "ĠĠĠĠĠĠĊ": 4049,
      "URE": 4050,
      "Ġapi": 4051,
      "Ġos": 4052,
      "Ġreason": 4053,
      "Body": 4054,
      "Ġcap": 4055,
      "Ġrot": 4056,
      "Ġcl": 4057,
      "ĠCON": 4058,
      "Bytes": 4059,
      "Ġphys": 4060,
      "Ġmer": 4061,
      "Ġselection": 4062,
      "Ġinvoke": 4063,
      "Ġaround": 4064,
      "ĠPh": 4065,
      "mock": 4066,
      "Pi": 4067,
      "Ġaverage": 4068,
      "locity": 4069,
      "Ġgl": 4070,
      "dependency": 4071,
      "Ġart": 4072,
      "Ġvariables": 4073,
      "Def": 4074,
      "^+": 4075,
      "Ġ++": 4076,
      "chan": 4077,
      "Ġgood": 4078,
      "solute": 4079,
      "Ġexcept": 4080,
      "Mon": 4081,
      "Parent": 4082,
      "Tests": 4083,
      "Ġequival": 4084,
      "Ð°Ð": 4085,
      "ãĤ": 4086,
      "Has": 4087,
      "ATH": 4088,
      "ĠTrue": 4089,
      "Ġhigher": 4090,
      "}\\,": 4091,
      "Ġdetails": 4092,
      "87": 4093,
      "virtual": 4094,
      "alth": 4095,
      "Byte": 4096,
      "idual": 4097,
      "Enabled": 4098,
      "ĠST": 4099,
      "})\\": 4100,
      "Mock": 4101,
      "shot": 4102,
      "Ġanaly": 4103,
      "Ġbytes": 4104,
      "uide": 4105,
      "qquad": 4106,
      "callback": 4107,
      "chron": 4108,
      "ĠBe": 4109,
      "Meta": 4110,
      "Ġtemperature": 4111,
      "success": 4112,
      "rum": 4113,
      "amil": 4114,
      "Ġ('": 4115,
      "Ġerrors": 4116,
      "oh": 4117,
      "}^\\": 4118,
      "keyword": 4119,
      "TEST": 4120,
      "Ġtimes": 4121,
      "Ġsa": 4122,
      "Ġcirc": 4123,
      "Delete": 4124,
      "89": 4125,
      "Long": 4126,
      "Ġpositive": 4127,
      "category": 4128,
      "Ge": 4129,
      "ĠTable": 4130,
      "ASS": 4131,
      "Ġchanges": 4132,
      "Num": 4133,
      "focus": 4134,
      "xx": 4135,
      "ixt": 4136,
      "Ġam": 4137,
      "that": 4138,
      "LIC": 4139,
      "uss": 4140,
      "Ġactive": 4141,
      "Ġdirectory": 4142,
      "vas": 4143,
      "Channel": 4144,
      "Ġiss": 4145,
      "ĠPo": 4146,
      "ung": 4147,
      "irm": 4148,
      "Ġinline": 4149,
      "ĠĠĠĠĠĠĠĠĠĠĠĠĠĠĠĠĠĠĠĠĠĠĠĠĠ": 4150,
      "Ġless": 4151,
      "Ġjson": 4152,
      "Ġsystems": 4153,
      "Rep": 4154,
      "'))": 4155,
      "Policy": 4156,
      "DF": 4157,
      "Bind": 4158,
      "aves": 4159,
      "Ġ${": 4160,
      "Non": 4161,
      "ront": 4162,
      "Ġim": 4163,
      "`,": 4164,
      "sin": 4165,
      "connect": 4166,
      "textwidth": 4167,
      "asing": 4168,
      "VE": 4169,
      "ĠError": 4170,
      "&=": 4171,
      "fields": 4172,
      "Ġadditional": 4173,
      "widehat": 4174,
      "otion": 4175,
      "HP": 4176,
      "86": 4177,
      "Ġ<=": 4178,
      "Ġ'/": 4179,
      "ĠNOT": 4180,
      "46": 4181,
      "Are": 4182,
      "ĠThese": 4183,
      "ĠWhen": 4184,
      "Graph": 4185,
      "ĠIO": 4186,
      "Ġsignific": 4187,
      "register": 4188,
      "Ġdifference": 4189,
      "ipel": 4190,
      "blockList": 4191,
      "Ġimportant": 4192,
      "Ġflow": 4193,
      "logical": 4194,
      "admin": 4195,
      "after": 4196,
      "Fields": 4197,
      "Ġassign": 4198,
      "ucket": 4199,
      "oll": 4200,
      "ship": 4201,
      "Ġsetting": 4202,
      "Feature": 4203,
      "dom": 4204,
      "Dialog": 4205,
      "Ġgr": 4206,
      "Ġshe": 4207,
      "Ġinteger": 4208,
      "Ġbit": 4209,
      "ission": 4210,
      "Ġsession": 4211,
      "cpp": 4212,
      "Fa": 4213,
      "free": 4214,
      "insert": 4215,
      "ĠDis": 4216,
      "Storage": 4217,
      "Ġmaximum": 4218,
      "toggle": 4219,
      "cloud": 4220,
      "Ġbegin": 4221,
      "\"\"\"": 4222,
      "ooth": 4223,
      "dapter": 4224,
      "Ġdel": 4225,
      "comment": 4226,
      "Ġtransaction": 4227,
      "2011": 4228,
      "}:": 4229,
      "Ġtrack": 4230,
      "Ġdid": 4231,
      "Ġ\\{": 4232,
      "Ġsend": 4233,
      "Ġcross": 4234,
      "Ġear": 4235,
      "Ġsettings": 4236,
      "Ġadded": 4237,
      "super": 4238,
      ")/": 4239,
      "pub": 4240,
      "PT": 4241,
      ",\"": 4242,
      "SA": 4243,
      "WE": 4244,
      "connection": 4245,
      "ĠDate": 4246,
      "efficient": 4247,
      "endar": 4248,
      "gree": 4249,
      "FAULT": 4250,
      "EXT": 4251,
      "Ġexact": 4252,
      "short": 4253,
      "pg": 4254,
      "Ġmoment": 4255,
      "CTION": 4256,
      "Load": 4257,
      "OM": 4258,
      "oose": 4259,
      "application": 4260,
      "1000": 4261,
      "Ver": 4262,
      "none": 4263,
      "Ġcoup": 4264,
      "plugins": 4265,
      "Member": 4266,
      "ĠMath": 4267,
      "Ġdatabase": 4268,
      "Ġfurther": 4269,
      "ĠHTML": 4270,
      "Ġthread": 4271,
      "like": 4272,
      "Ġconstruct": 4273,
      "full": 4274,
      "ragment": 4275,
      "iddle": 4276,
      "Ġcommon": 4277,
      "sql": 4278,
      "omorph": 4279,
      "Ġbox": 4280,
      "Ap": 4281,
      "dr": 4282,
      "Ġimpro": 4283,
      "Msg": 4284,
      "}^{(": 4285,
      "Ġgalax": 4286,
      "DL": 4287,
      "star": 4288,
      "Ġlinks": 4289,
      "attribute": 4290,
      "cover": 4291,
      "Ġobserved": 4292,
      "hadoop": 4293,
      "Ġmsg": 4294,
      "ymp": 4295,
      "Ġprobability": 4296,
      "gnetic": 4297,
      "umbers": 4298,
      "Edit": 4299,
      "Ne": 4300,
      "wrap": 4301,
      "Ġemp": 4302,
      "Ġ\"/": 4303,
      "Ġfrequ": 4304,
      "AGE": 4305,
      "Ġmemory": 4306,
      "aving": 4307,
      "dimension": 4308,
      "sort": 4309,
      "Ġpas": 4310,
      "ĠFigure": 4311,
      "ĠassertEquals": 4312,
      "annotation": 4313,
      "Descriptor": 4314,
      "Ġcoordin": 4315,
      "Ġrepresentation": 4316,
      "ĠLO": 4317,
      "Rel": 4318,
      "margin": 4319,
      "Ġnear": 4320,
      "GE": 4321,
      "coq": 4322,
      "ember": 4323,
      "uit": 4324,
      "Ġseries": 4325,
      "Ġfit": 4326,
      "Ġpattern": 4327,
      "high": 4328,
      "JECT": 4329,
      "ĉĉĉĊ": 4330,
      "Ġthus": 4331,
      ";/": 4332,
      "items": 4333,
      "flu": 4334,
      "oom": 4335,
      "Ġcla": 4336,
      "Ġpeople": 4337,
      "2012": 4338,
      "ĠValue": 4339,
      "Queue": 4340,
      "Changed": 4341,
      "lim": 4342,
      "shape": 4343,
      "ROM": 4344,
      "Ġide": 4345,
      "Ġcontinue": 4346,
      "cup": 4347,
      "Ġedge": 4348,
      "mes": 4349,
      "]]": 4350,
      "chor": 4351,
      "Ġcomponents": 4352,
      "Job": 4353,
      "edit": 4354,
      "rest": 4355,
      "Ġ(\"": 4356,
      "57": 4357,
      "channel": 4358,
      "linear": 4359,
      "FT": 4360,
      "}}(": 4361,
      "hs": 4362,
      "uter": 4363,
      "Build": 4364,
      "city": 4365,
      "aws": 4366,
      "Fin": 4367,
      "nd": 4368,
      "cmd": 4369,
      "ĠSub": 4370,
      "alf": 4371,
      "Xml": 4372,
      "enter": 4373,
      "HTML": 4374,
      "Click": 4375,
      "abil": 4376,
      "serial": 4377,
      "OK": 4378,
      "ital": 4379,
      "Decl": 4380,
      "fact": 4381,
      "omic": 4382,
      "ranch": 4383,
      "84": 4384,
      "abs": 4385,
      "condition": 4386,
      "Ġquantum": 4387,
      "TED": 4388,
      "initial": 4389,
      "enumer": 4390,
      "Ġfailed": 4391,
      "napshot": 4392,
      "ĠRE": 4393,
      "ench": 4394,
      "white": 4395,
      "Custom": 4396,
      "Obj": 4397,
      "password": 4398,
      "Ġlater": 4399,
      "Database": 4400,
      "KEY": 4401,
      "Found": 4402,
      "Ġamount": 4403,
      "step": 4404,
      "ĠLemma": 4405,
      "ands": 4406,
      "Ġyears": 4407,
      "Ġjavax": 4408,
      "96": 4409,
      "itude": 4410,
      "Bound": 4411,
      "Ġconver": 4412,
      "JSON": 4413,
      "ĠSince": 4414,
      "END": 4415,
      "language": 4416,
      "aries": 4417,
      "Ġpay": 4418,
      "Ġsimp": 4419,
      "Ġnote": 4420,
      "ĠSup": 4421,
      "most": 4422,
      "Ġpub": 4423,
      "ube": 4424,
      "modules": 4425,
      "ĠCal": 4426,
      "Âł": 4427,
      "CS": 4428,
      "Variable": 4429,
      "site": 4430,
      "region": 4431,
      "unsigned": 4432,
      "Display": 4433,
      "sto": 4434,
      "Timeout": 4435,
      "yntax": 4436,
      "arger": 4437,
      "Bo": 4438,
      "That": 4439,
      "Ġdb": 4440,
      "Ġhtml": 4441,
      "based": 4442,
      "Network": 4443,
      "FILE": 4444,
      "Ġsuff": 4445,
      "inte": 4446,
      "Ġ$(\\": 4447,
      "ks": 4448,
      "mbed": 4449,
      "Ġregister": 4450,
      "EM": 4451,
      "Ġapplic": 4452,
      "Ġ(*": 4453,
      "sample": 4454,
      "{{\\": 4455,
      "Ġsupported": 4456,
      "Ġboundary": 4457,
      "nost": 4458,
      "just": 4459,
      "ti": 4460,
      "Plugin": 4461,
      "Results": 4462,
      "Ġalt": 4463,
      "Ġturn": 4464,
      "Ġexperiment": 4465,
      "PRE": 4466,
      "Ġuntil": 4467,
      "aster": 4468,
      "entity": 4469,
      "imate": 4470,
      ")-": 4471,
      "Cre": 4472,
      "Ġseveral": 4473,
      "email": 4474,
      "Note": 4475,
      "arp": 4476,
      "Ġtraining": 4477,
      "Mark": 4478,
      "citet": 4479,
      "chedule": 4480,
      "Send": 4481,
      "Ġspin": 4482,
      "}\\\\": 4483,
      "IX": 4484,
      "rief": 4485,
      "Ġrelated": 4486,
      "las": 4487,
      "lapse": 4488,
      "ĠUser": 4489,
      "onal": 4490,
      "ĠĠĠĠĠĠĠĠĠĠĠĠĠĠĠĠĠĠĠĠĠĠĠĠ": 4491,
      "corre": 4492,
      "approx": 4493,
      "Widget": 4494,
      "Ġconsidered": 4495,
      "ech": 4496,
      "ipeline": 4497,
      "ĠDefault": 4498,
      "inline": 4499,
      "RA": 4500,
      "tex": 4501,
      "Ġcomplete": 4502,
      "record": 4503,
      "Ġalgebra": 4504,
      "mbers": 4505,
      "Ġchain": 4506,
      "letion": 4507,
      "addr": 4508,
      "ĠAL": 4509,
      "56": 4510,
      "Ġdescribed": 4511,
      "Doc": 4512,
      "ids": 4513,
      "ĠWeb": 4514,
      "Active": 4515,
      "ino": 4516,
      "_->": 4517,
      "Ġcommun": 4518,
      "Ġwallet": 4519,
      "na": 4520,
      "keys": 4521,
      "ĠEvent": 4522,
      "Each": 4523,
      "Ã¡": 4524,
      "Ġcref": 4525,
      "DU": 4526,
      "lide": 4527,
      "Ġapply": 4528,
      "ble": 4529,
      "Ste": 4530,
      "xspace": 4531,
      "Ġbutton": 4532,
      "Red": 4533,
      "Ġunique": 4534,
      "Ġsignificant": 4535,
      "Ġitems": 4536,
      "scroll": 4537,
      "ĠURL": 4538,
      "CHE": 4539,
      "à¤": 4540,
      "zz": 4541,
      "|^": 4542,
      "////////////////////////////////": 4543,
      "97": 4544,
      "hspace": 4545,
      "install": 4546,
      "Ġlayer": 4547,
      "illi": 4548,
      "Ġ{};": 4549,
      "MD": 4550,
      "Ġhapp": 4551,
      "Ġsupp": 4552,
      "Ġmight": 4553,
      "olved": 4554,
      "amera": 4555,
      "ĠIS": 4556,
      "igen": 4557,
      ".*": 4558,
      ")))": 4559,
      "pers": 4560,
      "TEX": 4561,
      "(!": 4562,
      "ploy": 4563,
      "Post": 4564,
      "Pattern": 4565,
      "Ġpur": 4566,
      "Ġ&\\": 4567,
      "contrib": 4568,
      "Ġbel": 4569,
      "Transaction": 4570,
      "Flags": 4571,
      "Ġyield": 4572,
      "more": 4573,
      "}'": 4574,
      "Extension": 4575,
      "feature": 4576,
      "Ġinstanceof": 4577,
      "]$": 4578,
      "Ġequations": 4579,
      "Ġspecial": 4580,
      "results": 4581,
      "Ġsimul": 4582,
      "There": 4583,
      "ITY": 4584,
      "2010": 4585,
      "printf": 4586,
      "\")]": 4587,
      "@\"": 4588,
      "Ġarea": 4589,
      "ters": 4590,
      "gex": 4591,
      "Ġnecess": 4592,
      "tect": 4593,
      "\"`": 4594,
      "numer": 4595,
      "agger": 4596,
      "Scope": 4597,
      "Lock": 4598,
      "Show": 4599,
      "======": 4600,
      "Account": 4601,
      "SER": 4602,
      "iving": 4603,
      "properties": 4604,
      "Ġindependent": 4605,
      "Tool": 4606,
      "Require": 4607,
      "Ġjob": 4608,
      "Ġimages": 4609,
      "asis": 4610,
      "Ġput": 4611,
      "Internal": 4612,
      "tle": 4613,
      "radius": 4614,
      "iversity": 4615,
      "Ġind": 4616,
      "Ġhandler": 4617,
      "crypt": 4618,
      "quare": 4619,
      "issing": 4620,
      "ied": 4621,
      "ocket": 4622,
      "Ġnames": 4623,
      "Ġactual": 4624,
      "Ġstack": 4625,
      "[:": 4626,
      "CA": 4627,
      "license": 4628,
      "({\\": 4629,
      "alloc": 4630,
      "hr": 4631,
      "TABLE": 4632,
      "allow": 4633,
      "(){": 4634,
      "grid": 4635,
      "ĠTra": 4636,
      "lyph": 4637,
      "Ġagain": 4638,
      "Ġtyp": 4639,
      "product": 4640,
      "CR": 4641,
      "queue": 4642,
      "ĠBase": 4643,
      "Ġquest": 4644,
      "raction": 4645,
      "mine": 4646,
      "nt": 4647,
      "ĠPy": 4648,
      "rip": 4649,
      "Ġexplicit": 4650,
      "points": 4651,
      "ĠGe": 4652,
      "Ġdoc": 4653,
      "omial": 4654,
      "\\'": 4655,
      "git": 4656,
      "herit": 4657,
      "SIZE": 4658,
      "tip": 4659,
      "()));": 4660,
      "lank": 4661,
      "=\"@": 4662,
      "dropdown": 4663,
      "domain": 4664,
      "Initial": 4665,
      "PAR": 4666,
      "Ġprogram": 4667,
      "thread": 4668,
      "ĠĠĠĠĠĠĠĠĠĠĠĠĠĠĠĠĠĠĠĠĠĠ": 4669,
      "utf": 4670,
      "Ġcontribution": 4671,
      "}}{\\": 4672,
      "Ġoptim": 4673,
      "Activity": 4674,
      "Mapp": 4675,
      "Init": 4676,
      "ĠCan": 4677,
      "protobuf": 4678,
      "Items": 4679,
      "Ġmock": 4680,
      "VERSION": 4681,
      "Ġyear": 4682,
      "Ġsort": 4683,
      "typedef": 4684,
      "cop": 4685,
      "Ġfew": 4686,
      "Ġvolume": 4687,
      "Ġotherwise": 4688,
      "Ġscript": 4689,
      "jquery": 4690,
      "Ġ),": 4691,
      "Ġraise": 4692,
      "scr": 4693,
      "Ġnet": 4694,
      "Only": 4695,
      "Symbol": 4696,
      "Ġstar": 4697,
      "Float": 4698,
      "Ġfunc": 4699,
      "Ġty": 4700,
      "ĠVal": 4701,
      "*)": 4702,
      "PR": 4703,
      "Ġpy": 4704,
      "Ġproposed": 4705,
      "typeof": 4706,
      "aut": 4707,
      "save": 4708,
      "Ġlarger": 4709,
      "Ġstrict": 4710,
      "Ġsymbol": 4711,
      "Ġbtn": 4712,
      "}+\\": 4713,
      "Ġdraw": 4714,
      "Ljava": 4715,
      "ught": 4716,
      "Ġaccept": 4717,
      "ĠTime": 4718,
      "ĠAb": 4719,
      "\">&": 4720,
      "Ġ%}": 4721,
      "uby": 4722,
      "Ġdescribe": 4723,
      "Ġdirection": 4724,
      ".__": 4725,
      "untry": 4726,
      "raft": 4727,
      "each": 4728,
      "clo": 4729,
      "ĠNode": 4730,
      "assertEquals": 4731,
      "_,": 4732,
      "oton": 4733,
      "ĠUse": 4734,
      "=(": 4735,
      "Ġaccur": 4736,
      "UID": 4737,
      ")));": 4738,
      "Ġ-\\": 4739,
      "rome": 4740,
      "tries": 4741,
      "LOG": 4742,
      "59": 4743,
      "FR": 4744,
      "assertEqual": 4745,
      "Ġagainst": 4746,
      "ynamic": 4747,
      "Ġpanel": 4748,
      "Logger": 4749,
      "holder": 4750,
      "()).": 4751,
      "Ġdistributed": 4752,
      "Directory": 4753,
      "ADD": 4754,
      "Grid": 4755,
      "events": 4756,
      "shift": 4757,
      "noindent": 4758,
      "rupt": 4759,
      "mathsf": 4760,
      "43": 4761,
      "tsd": 4762,
      "txt": 4763,
      "Ġbetter": 4764,
      "After": 4765,
      "ĠInter": 4766,
      "neq": 4767,
      "tection": 4768,
      "etime": 4769,
      "car": 4770,
      "ĠFalse": 4771,
      "Ø§": 4772,
      "omin": 4773,
      "\\,\\": 4774,
      "Ġelem": 4775,
      "Ġsent": 4776,
      "stats": 4777,
      "icol": 4778,
      "Loader": 4779,
      "vision": 4780,
      "NotNull": 4781,
      "ario": 4782,
      "BR": 4783,
      "assets": 4784,
      "allel": 4785,
      "flags": 4786,
      "controller": 4787,
      "Security": 4788,
      "Ġextension": 4789,
      "fl": 4790,
      "Ġ[];": 4791,
      "Pool": 4792,
      "Ġdenote": 4793,
      "Ġgenerate": 4794,
      "tmp": 4795,
      "rate": 4796,
      "inv": 4797,
      "500": 4798,
      "Auto": 4799,
      "Ġworld": 4800,
      "reshold": 4801,
      "anner": 4802,
      "entication": 4803,
      "256": 4804,
      "apture": 4805,
      "chie": 4806,
      "cb": 4807,
      "ĠĠĠĊ": 4808,
      "home": 4809,
      "ips": 4810,
      "Ġconsole": 4811,
      "Ġclasses": 4812,
      "omatic": 4813,
      "=\"\">": 4814,
      "Iterator": 4815,
      "82": 4816,
      "lain": 4817,
      "Ġsite": 4818,
      "wards": 4819,
      "Ġdesign": 4820,
      "ggreg": 4821,
      "PS": 4822,
      "ById": 4823,
      "Struct": 4824,
      "spring": 4825,
      "olver": 4826,
      "MAX": 4827,
      "throws": 4828,
      "chool": 4829,
      "Ġweb": 4830,
      "ĠCO": 4831,
      "ĠThus": 4832,
      "}-\\": 4833,
      "ĠInst": 4834,
      "ACE": 4835,
      "real": 4836,
      "Ġpointer": 4837,
      "ARY": 4838,
      "Ġrecent": 4839,
      "gether": 4840,
      "HER": 4841,
      "selected": 4842,
      "Ġgive": 4843,
      "NN": 4844,
      "ighb": 4845,
      "Ġregular": 4846,
      ")),": 4847,
      "Bit": 4848,
      "Ġblack": 4849,
      "Ġ$.": 4850,
      "unch": 4851,
      "TS": 4852,
      "ably": 4853,
      "Ġappear": 4854,
      "sequence": 4855,
      "41": 4856,
      "pl": 4857,
      "NavBarCell": 4858,
      "Ð»": 4859,
      "Selector": 4860,
      "]\\": 4861,
      "primary": 4862,
      "help": 4863,
      "ĠMan": 4864,
      "Any": 4865,
      "Ġsaid": 4866,
      "quires": 4867,
      "Ġweak": 4868,
      "Perm": 4869,
      "Ġrunning": 4870,
      "ritical": 4871,
      "]:": 4872,
      ")+": 4873,
      "mitted": 4874,
      "manager": 4875,
      "Ġbehavior": 4876,
      "=-": 4877,
      "Ġsignal": 4878,
      "ĠVAL": 4879,
      "important": 4880,
      "ferred": 4881,
      "->_": 4882,
      "![": 4883,
      "para": 4884,
      "Ġsoftware": 4885,
      "andid": 4886,
      "Ġauthor": 4887,
      "Expr": 4888,
      "Ġonce": 4889,
      "lier": 4890,
      "profile": 4891,
      "Ġdirectly": 4892,
      "Ġkeys": 4893,
      "Ġtoo": 4894,
      "Java": 4895,
      "Ġcoefficient": 4896,
      "etic": 4897,
      "OD": 4898,
      "Ġpl": 4899,
      "pk": 4900,
      "Ġallows": 4901,
      "Proxy": 4902,
      "va": 4903,
      "stand": 4904,
      "ĠAmeric": 4905,
      "lastic": 4906,
      "aged": 4907,
      ")\">": 4908,
      "'$": 4909,
      "dividual": 4910,
      "Ġbind": 4911,
      "ĠCopy": 4912,
      "PATH": 4913,
      "sumer": 4914,
      "Support": 4915,
      ")}{": 4916,
      "Ġsure": 4917,
      "enumerate": 4918,
      "MENT": 4919,
      "ker": 4920,
      "Ġcor": 4921,
      "Ġenvironment": 4922,
      "Ġwritten": 4923,
      "theorem": 4924,
      "Ġnat": 4925,
      "job": 4926,
      "ament": 4927,
      "itemize": 4928,
      "Panel": 4929,
      "Lib": 4930,
      "Memory": 4931,
      "Ġequivalent": 4932,
      "ka": 4933,
      "Ġshape": 4934,
      "remark": 4935,
      "Sum": 4936,
      "Ġimplementation": 4937,
      "Ġtests": 4938,
      "Windows": 4939,
      "webpack": 4940,
      "Events": 4941,
      "pag": 4942,
      ")).": 4943,
      "Ġsuggest": 4944,
      "lines": 4945,
      "LS": 4946,
      "Ġupper": 4947,
      "ango": 4948,
      "Ġprec": 4949,
      "arr": 4950,
      "Ġ_{": 4951,
      "Now": 4952,
      "Ġseen": 4953,
      "Jo": 4954,
      "definition": 4955,
      "++;": 4956,
      "ĠMore": 4957,
      "Ġexpress": 4958,
      "Ñĥ": 4959,
      "ĠWith": 4960,
      "Elements": 4961,
      "Rece": 4962,
      "Ġlearning": 4963,
      "Ġgives": 4964,
      "Ġscheme": 4965,
      "clusion": 4966,
      "network": 4967,
      "Ġuses": 4968,
      "Ġorigin": 4969,
      "Ġgroups": 4970,
      "Ġneeded": 4971,
      "IB": 4972,
      "ota": 4973,
      "Ġserial": 4974,
      "Ã¤": 4975,
      "Adapter": 4976,
      "{$": 4977,
      "[$": 4978,
      "Ret": 4979,
      "Ġloss": 4980,
      "Desc": 4981,
      "Ġbl": 4982,
      "Enum": 4983,
      "160": 4984,
      "Main": 4985,
      "operatorname": 4986,
      "tools": 4987,
      "forms": 4988,
      "ĠĠĠĠĠĠĠĠĠĠĠĠĠĠĠĠĠĠĠĠĠĠĠĠĠĠĠĠĠĠĠĠĠĠĠĠĠĠĠĠĠĠĠ": 4989,
      "STAT": 4990,
      "getName": 4991,
      "PORT": 4992,
      "Ġapplied": 4993,
      "Ġcontaining": 4994,
      "switch": 4995,
      "Ġmultip": 4996,
      "handler": 4997,
      "Ġimplies": 4998,
      "iness": 4999,
      "ullable": 5000,
      "XML": 5001,
      "Symfony": 5002,
      "}</": 5003,
      "dialog": 5004,
      "Dist": 5005,
      "Ġignore": 5006,
      "legal": 5007,
      "çļ": 5008,
      "ĠTODO": 5009,
      "umption": 5010,
      "Eng": 5011,
      "ety": 5012,
      "total": 5013,
      "Ġrespon": 5014,
      "Ġ{'": 5015,
      "çļĦ": 5016,
      "Close": 5017,
      "echo": 5018,
      "BA": 5019,
      "fit": 5020,
      "bot": 5021,
      "ĠAct": 5022,
      "ology": 5023,
      "ToString": 5024,
      "finite": 5025,
      "Attributes": 5026,
      "uler": 5027,
      "SQL": 5028,
      "ao": 5029,
      "vspace": 5030,
      "'])": 5031,
      "sure": 5032,
      "Ġdenot": 5033,
      "Media": 5034,
      "2009": 5035,
      ")}$": 5036,
      "################": 5037,
      "wner": 5038,
      "acket": 5039,
      "Ġexisting": 5040,
      "GS": 5041,
      ")\"": 5042,
      "dimensional": 5043,
      "urface": 5044,
      "lg": 5045,
      "Ġhim": 5046,
      "components": 5047,
      "ĠCre": 5048,
      "spect": 5049,
      "ood": 5050,
      "2021": 5051,
      "Ġng": 5052,
      "ifies": 5053,
      "hidden": 5054,
      "Generic": 5055,
      "Ġclosed": 5056,
      "though": 5057,
      "SU": 5058,
      ":\\": 5059,
      "=\"\"": 5060,
      "Protocol": 5061,
      "cogn": 5062,
      "ĠOpen": 5063,
      "Ġfuture": 5064,
      "Ġsw": 5065,
      "Since": 5066,
      "2000": 5067,
      "pacity": 5068,
      "Ġattr": 5069,
      "Ġattributes": 5070,
      "_(": 5071,
      "Ġio": 5072,
      "aging": 5073,
      "Inv": 5074,
      "Ġinvest": 5075,
      "Ġalloc": 5076,
      "Ġarch": 5077,
      "58": 5078,
      "Ġconv": 5079,
      "ograph": 5080,
      "iterator": 5081,
      "idence": 5082,
      "air": 5083,
      "Ġpassed": 5084,
      "angular": 5085,
      "Ġkeep": 5086,
      "Ġfamily": 5087,
      "pher": 5088,
      "Ġsuccessful": 5089,
      "Then": 5090,
      "ĠText": 5091,
      "Editor": 5092,
      "Ġwait": 5093,
      "ball": 5094,
      "Ġmetric": 5095,
      "ade": 5096,
      "NG": 5097,
      "Ġvelocity": 5098,
      "ifest": 5099,
      "Arg": 5100,
      "Parse": 5101,
      "ĠFunction": 5102,
      "configuration": 5103,
      "Ġmedia": 5104,
      "Matrix": 5105,
      "BUG": 5106,
      "CHECK": 5107,
      "Ġbuilder": 5108,
      "alance": 5109,
      "197": 5110,
      "uilt": 5111,
      "pay": 5112,
      "uses": 5113,
      "zero": 5114,
      "ĠAss": 5115,
      "Ġbar": 5116,
      "LECT": 5117,
      "Ġconvert": 5118,
      "51": 5119,
      "uary": 5120,
      "ĠKey": 5121,
      "Ġholds": 5122,
      "contains": 5123,
      "apply": 5124,
      "Ġsolutions": 5125,
      "ĠOption": 5126,
      "Conf": 5127,
      "Ġinterval": 5128,
      "Ġ\"\"": 5129,
      "Register": 5130,
      "Func": 5131,
      "sequ": 5132,
      "Ġtherefore": 5133,
      "Ġachie": 5134,
      "multicol": 5135,
      "Te": 5136,
      "Ġagre": 5137,
      "helper": 5138,
      "account": 5139,
      "Rest": 5140,
      "$/": 5141,
      "screen": 5142,
      "alysis": 5143,
      "'.": 5144,
      "ised": 5145,
      "ĠModel": 5146,
      "NULL": 5147,
      "collection": 5148,
      "multicolumn": 5149,
      "Ġencoding": 5150,
      "sel": 5151,
      "ĠDi": 5152,
      "Ġdoesn": 5153,
      "Ġconnect": 5154,
      "ertific": 5155,
      "Ġho": 5156,
      "\",\"": 5157,
      "ĠĠĠĠĠĠĠĠĠĠĠĠĠĠĠĠĠĠĠĠĠĠĠĠĠĠĠĠĠ": 5158,
      "WS": 5159,
      "Ġcer": 5160,
      "Ġcontra": 5161,
      "IPT": 5162,
      "Scroll": 5163,
      "ï¼": 5164,
      "fail": 5165,
      "bytes": 5166,
      "cons": 5167,
      "NE": 5168,
      "ĠReact": 5169,
      "98": 5170,
      "editor": 5171,
      "trigger": 5172,
      "Ġprovides": 5173,
      "logger": 5174,
      "notations": 5175,
      "bul": 5176,
      "Ġproce": 5177,
      "UTF": 5178,
      "uting": 5179,
      "hand": 5180,
      "Ġwave": 5181,
      "kw": 5182,
      "Ġvarious": 5183,
      "comm": 5184,
      "arent": 5185,
      "Ġimplements": 5186,
      "Ġreq": 5187,
      "Pointer": 5188,
      "Layer": 5189,
      "RAN": 5190,
      "udi": 5191,
      "Ġinvalid": 5192,
      "ables": 5193,
      "horizontal": 5194,
      "press": 5195,
      "Ġdataset": 5196,
      "tabs": 5197,
      "security": 5198,
      "^-": 5199,
      "parser": 5200,
      "Ġfn": 5201,
      "dp": 5202,
      "Ġxmlns": 5203,
      "Sing": 5204,
      "master": 5205,
      "ĠNe": 5206,
      "cel": 5207,
      "Ġloop": 5208,
      "redential": 5209,
      "ua": 5210,
      "Ġ(_": 5211,
      "Ġeffects": 5212,
      "','": 5213,
      "ĠĠĠĠĠĠĠĠĠĠĠĠĠĠĠĠĠĠĠĠĠĠĠĠĠĠĠĠĠĠĠĠĠĠĠĠĠĠĠĠĠĠĠĠĠĠĠĠĠĠĠĠĠĠĠĠĠĠĠĠĠĠĠĠ": 5214,
      "prod": 5215,
      "ĠMar": 5216,
      "acters": 5217,
      "alled": 5218,
      "Ġ=========": 5219,
      "external": 5220,
      "Ġstars": 5221,
      "ĠVersion": 5222,
      "SCR": 5223,
      "ĠLandroid": 5224,
      "Ġliter": 5225,
      "Ġelectron": 5226,
      "Ġ[[": 5227,
      "stop": 5228,
      "Ġeffective": 5229,
      "Ġplugin": 5230,
      "Ġutil": 5231,
      "Ġprove": 5232,
      "ĠMethod": 5233,
      "Profile": 5234,
      "$}": 5235,
      "54": 5236,
      "Warning": 5237,
      "missions": 5238,
      "Ġcost": 5239,
      "ixture": 5240,
      "ĠIOException": 5241,
      "identifier": 5242,
      "ledge": 5243,
      "ases": 5244,
      "Ġ\"<": 5245,
      "TRY": 5246,
      "variable": 5247,
      "matrix": 5248,
      "ros": 5249,
      "Failed": 5250,
      "area": 5251,
      "Ġlaw": 5252,
      "crete": 5253,
      "Browser": 5254,
      "symbol": 5255,
      "Ġasync": 5256,
      "So": 5257,
      "Keys": 5258,
      "Ġsubject": 5259,
      "Ġdebug": 5260,
      "equence": 5261,
      "ĠPre": 5262,
      "ĠEnd": 5263,
      "Ġmulti": 5264,
      "Ġsplit": 5265,
      "illa": 5266,
      "Ġparam": 5267,
      "Ġextra": 5268,
      "sive": 5269,
      "istration": 5270,
      "lems": 5271,
      "IMP": 5272,
      "browser": 5273,
      "dash": 5274,
      "Ã³": 5275,
      "metadata": 5276,
      "ĠConfig": 5277,
      "=\"${": 5278,
      "urse": 5279,
      "Ġspectrum": 5280,
      "$_": 5281,
      "rift": 5282,
      "Ġcompute": 5283,
      "resses": 5284,
      "ĠNO": 5285,
      "ocial": 5286,
      "romise": 5287,
      "Ġcoupling": 5288,
      "400": 5289,
      "Ġawait": 5290,
      "Ġangle": 5291,
      "Ġprofile": 5292,
      "ĠIP": 5293,
      "Transform": 5294,
      "Constraint": 5295,
      "ested": 5296,
      "Ġworks": 5297,
      "parameters": 5298,
      "Socket": 5299,
      "icient": 5300,
      "Ġallowed": 5301,
      "special": 5302,
      "Duration": 5303,
      "Fe": 5304,
      "Ġincluded": 5305,
      "Det": 5306,
      "Ġchildren": 5307,
      "Identifier": 5308,
      "blue": 5309,
      "Runtime": 5310,
      "hide": 5311,
      "Ġusers": 5312,
      "Ġmagnetic": 5313,
      "exists": 5314,
      "\\}$": 5315,
      "Ġmechan": 5316,
      "<\\": 5317,
      "Print": 5318,
      "ĠSp": 5319,
      "}}}": 5320,
      "ycle": 5321,
      "PL": 5322,
      "gence": 5323,
      "Ġwhose": 5324,
      "Ġlibrary": 5325,
      "pare": 5326,
      "kens": 5327,
      "Ġface": 5328,
      "Repository": 5329,
      "Scale": 5330,
      "Ġhowever": 5331,
      "Ġneut": 5332,
      "Ġembed": 5333,
      "ĠĠĠĠĠĠĠĠĠĠĠĠĠĠĠĠĠĠĠĠĠĠĠĠĠĠ": 5334,
      "idx": 5335,
      "Wrapper": 5336,
      "MB": 5337,
      "expr": 5338,
      "Ġtool": 5339,
      "thes": 5340,
      "}},": 5341,
      "SY": 5342,
      "300": 5343,
      "Ġbinary": 5344,
      "ĠInt": 5345,
      ">:": 5346,
      "ina": 5347,
      "Files": 5348,
      "Ġlik": 5349,
      "Track": 5350,
      "2008": 5351,
      "Ġratio": 5352,
      "Ġdim": 5353,
      "wer": 5354,
      "Ġdir": 5355,
      "Fail": 5356,
      "filename": 5357,
      "ĠBo": 5358,
      "storage": 5359,
      "ĠImp": 5360,
      "Ġentity": 5361,
      "scribe": 5362,
      "~$": 5363,
      "Ġestimate": 5364,
      "Ġperson": 5365,
      "duces": 5366,
      "multi": 5367,
      "Ġforce": 5368,
      "Ġ\",": 5369,
      "Section": 5370,
      "Ġable": 5371,
      "ĠGets": 5372,
      "vance": 5373,
      "When": 5374,
      "Ġvertex": 5375,
      "Ġtab": 5376,
      "family": 5377,
      "ĠCode": 5378,
      "ĠState": 5379,
      "black": 5380,
      "term": 5381,
      "Ġenough": 5382,
      "hy": 5383,
      "Ġnumbers": 5384,
      "peat": 5385,
      "Ġil": 5386,
      "ONE": 5387,
      "rency": 5388,
      "Attr": 5389,
      "props": 5390,
      "mask": 5391,
      "win": 5392,
      "52": 5393,
      "ury": 5394,
      "nil": 5395,
      "LP": 5396,
      "wrapper": 5397,
      "writ": 5398,
      "____": 5399,
      "ÃŃ": 5400,
      "IE": 5401,
      "Constants": 5402,
      "ĠMon": 5403,
      "covery": 5404,
      "Mapping": 5405,
      "grad": 5406,
      "elli": 5407,
      "Sync": 5408,
      "conn": 5409,
      "ĠMessage": 5410,
      "Ġaccording": 5411,
      "underline": 5412,
      "axis": 5413,
      "protocol": 5414,
      "reset": 5415,
      "cu": 5416,
      "69": 5417,
      "%%%%": 5418,
      "ĠEng": 5419,
      "counter": 5420,
      "prefix": 5421,
      "Double": 5422,
      "Ġamp": 5423,
      "Ġday": 5424,
      "serve": 5425,
      "Before": 5426,
      "Depend": 5427,
      "My": 5428,
      "Ġestab": 5429,
      "Ġtypeof": 5430,
      "Ġdes": 5431,
      "Ġbottom": 5432,
      "ĠTherefore": 5433,
      "usic": 5434,
      "umin": 5435,
      "minus": 5436,
      "53": 5437,
      "2006": 5438,
      ")|": 5439,
      "}}_": 5440,
      "Pay": 5441,
      "Ġ\\|": 5442,
      "Dest": 5443,
      "ynomial": 5444,
      "Abstract": 5445,
      "Ġlock": 5446,
      "ĠAN": 5447,
      "Remove": 5448,
      "Theta": 5449,
      "Ġmember": 5450,
      "Character": 5451,
      "NOT": 5452,
      "Route": 5453,
      "Props": 5454,
      "ides": 5455,
      "dates": 5456,
      "Ġfig": 5457,
      "Ġbook": 5458,
      "uman": 5459,
      "FIG": 5460,
      "lor": 5461,
      "pret": 5462,
      "Ġtypename": 5463,
      "provider": 5464,
      "Ġda": 5465,
      "Success": 5466,
      "Namespace": 5467,
      "------------": 5468,
      "El": 5469,
      "ĠAp": 5470,
      "orter": 5471,
      "mat": 5472,
      "Ġformu": 5473,
      "Import": 5474,
      "Ġband": 5475,
      "ĠUpdate": 5476,
      "vs": 5477,
      "Prefix": 5478,
      "ĠOne": 5479,
      "Ġidx": 5480,
      "Ġoptional": 5481,
      "Nodes": 5482,
      "CRE": 5483,
      "Ġhard": 5484,
      "3333": 5485,
      "ĠFROM": 5486,
      "protected": 5487,
      "rain": 5488,
      "DS": 5489,
      "agnost": 5490,
      "ather": 5491,
      "Ðº": 5492,
      "ĠNAME": 5493,
      "(__": 5494,
      "ĠCar": 5495,
      "ĠForm": 5496,
      "Ġpolicy": 5497,
      "Ġneeds": 5498,
      "Ġindividual": 5499,
      "Ġ\\;": 5500,
      "otal": 5501,
      "Ġhome": 5502,
      "atible": 5503,
      "Ġctx": 5504,
      "ĉĠĠĠĠĠ": 5505,
      "OUT": 5506,
      "theme": 5507,
      "83": 5508,
      "Ġpartition": 5509,
      "Ġsay": 5510,
      "Proto": 5511,
      "ention": 5512,
      "GB": 5513,
      "fly": 5514,
      "Ġsizeof": 5515,
      "IND": 5516,
      "Condition": 5517,
      "navList": 5518,
      "Ġcr": 5519,
      "acity": 5520,
      "auge": 5521,
      "Ġconstructor": 5522,
      "ĠTask": 5523,
      "Space": 5524,
      "Ġpredict": 5525,
      "Ġicon": 5526,
      "Ġevolution": 5527,
      "Ġrg": 5528,
      ")->": 5529,
      "shadow": 5530,
      "ĉĉĉĉĉĉĉĉĉ": 5531,
      "CI": 5532,
      "ĠInteger": 5533,
      "Ġmatter": 5534,
      "Ġenabled": 5535,
      "svg": 5536,
      "jar": 5537,
      "Ġeq": 5538,
      "ĠThey": 5539,
      "Ġextract": 5540,
      "Ġsetup": 5541,
      "effect": 5542,
      "Statement": 5543,
      "ĠjQuery": 5544,
      "Ġtogether": 5545,
      "outh": 5546,
      "Expect": 5547,
      "\"><!--": 5548,
      "ley": 5549,
      "attributes": 5550,
      "TEXT": 5551,
      "Ġrequires": 5552,
      "ALSE": 5553,
      "picker": 5554,
      "atistics": 5555,
      "limits": 5556,
      "omen": 5557,
      "services": 5558,
      "Ġcompared": 5559,
      "ĠStr": 5560,
      "=>": 5561,
      "Ġdisk": 5562,
      "2007": 5563,
      "Ġorgan": 5564,
      "Ġpredi": 5565,
      "Ġ(-": 5566,
      "Second": 5567,
      "ĠQu": 5568,
      "Ġsmaller": 5569,
      "Ġminimum": 5570,
      "jango": 5571,
      "TC": 5572,
      "gan": 5573,
      "plan": 5574,
      "cut": 5575,
      "atively": 5576,
      "Collections": 5577,
      "Ġkind": 5578,
      "junit": 5579,
      "aved": 5580,
      "}%": 5581,
      "ello": 5582,
      "vo": 5583,
      "Ġframework": 5584,
      "rf": 5585,
      "Ġhom": 5586,
      "Ġtensor": 5587,
      "Global": 5588,
      "une": 5589,
      "Ġsources": 5590,
      "Ġaxis": 5591,
      "norm": 5592,
      "names": 5593,
      "Ġcorrelation": 5594,
      "ully": 5595,
      "Ġabsolute": 5596,
      "READ": 5597,
      "2022": 5598,
      "Details": 5599,
      "ĠSpec": 5600,
      "Ġsatisfy": 5601,
      "Ġ=======": 5602,
      "trics": 5603,
      "ĠAND": 5604,
      "Ġflag": 5605,
      "mediate": 5606,
      "Simple": 5607,
      "came": 5608,
      "63": 5609,
      "Ġcertain": 5610,
      "Selection": 5611,
      "tbody": 5612,
      "itional": 5613,
      "aff": 5614,
      "ifdef": 5615,
      "hib": 5616,
      ">::": 5617,
      "Ġexternal": 5618,
      "ivation": 5619,
      "Ġtaken": 5620,
      "Ġcore": 5621,
      "headers": 5622,
      "DA": 5623,
      "Lim": 5624,
      "Ġradius": 5625,
      "vement": 5626,
      "2005": 5627,
      "eds": 5628,
      "osite": 5629,
      "pair": 5630,
      "Ġfix": 5631,
      "Region": 5632,
      "Ġvi": 5633,
      "execute": 5634,
      "ents": 5635,
      "Ġyet": 5636,
      "}^{-": 5637,
      "Ġmat": 5638,
      "bad": 5639,
      "chart": 5640,
      "Ġarbit": 5641,
      "jor": 5642,
      "tags": 5643,
      "Ġgre": 5644,
      "random": 5645,
      "footnote": 5646,
      "fd": 5647,
      "Ġoperations": 5648,
      "trie": 5649,
      "SCRIPT": 5650,
      "Common": 5651,
      "FLA": 5652,
      "ĠResource": 5653,
      "Ġappend": 5654,
      "complete": 5655,
      "bon": 5656,
      "Ġagent": 5657,
      "81": 5658,
      "allclasses": 5659,
      "ha": 5660,
      "Sample": 5661,
      "ĠSk": 5662,
      "Compar": 5663,
      "Ġ$|": 5664,
      "yes": 5665,
      "generated": 5666,
      "Ġinner": 5667,
      "children": 5668,
      "compiler": 5669,
      "Ġavoid": 5670,
      "Step": 5671,
      "VM": 5672,
      "Generator": 5673,
      "Ġflux": 5674,
      "uro": 5675,
      "Ġ[],": 5676,
      "ĠOut": 5677,
      "Ġ\"-": 5678,
      "ĠPer": 5679,
      "ĠUniversity": 5680,
      "vey": 5681,
      "unique": 5682,
      "aration": 5683,
      "done": 5684,
      "JS": 5685,
      "Engine": 5686,
      "Ġreceived": 5687,
      "texttt": 5688,
      ".\");": 5689,
      "zone": 5690,
      "Cap": 5691,
      "Ġpixel": 5692,
      "Full": 5693,
      "Agent": 5694,
      "Trace": 5695,
      "DULE": 5696,
      "ently": 5697,
      "bers": 5698,
      "Ġmaterial": 5699,
      "()</": 5700,
      "Ġinsert": 5701,
      "brief": 5702,
      "construct": 5703,
      "trm": 5704,
      "jd": 5705,
      "platform": 5706,
      "'));": 5707,
      "Ġpassword": 5708,
      "cv": 5709,
      "Headers": 5710,
      "ĠHash": 5711,
      "Ġnecessary": 5712,
      "prev": 5713,
      "ematic": 5714,
      "NT": 5715,
      "Ġvers": 5716,
      "Framework": 5717,
      "Ġsem": 5718,
      "PACK": 5719,
      "Ġgen": 5720,
      "Ġspecify": 5721,
      "{%": 5722,
      "usiness": 5723,
      "builder": 5724,
      "izable": 5725,
      "Ġtx": 5726,
      "Ġ?>": 5727,
      "mathscr": 5728,
      "OB": 5729,
      "ĠService": 5730,
      "colLast": 5731,
      "ĠPr": 5732,
      "Ġcancel": 5733,
      "respon": 5734,
      "ĠGoogle": 5735,
      "textrm": 5736,
      "ansion": 5737,
      "Prop": 5738,
      "ĠĠĠĠĠĠĠĠĠĠĠĠĠĠĠĠĠĠĠĠĠĠĠĠĠĠĠĠ": 5739,
      "Ġsamples": 5740,
      "ARE": 5741,
      "Ġfrequency": 5742,
      "128": 5743,
      "HTTP": 5744,
      "amazon": 5745,
      "Ġconnected": 5746,
      "force": 5747,
      "Ġcompare": 5748,
      "ĠRequest": 5749,
      "FFFF": 5750,
      "sect": 5751,
      "Domain": 5752,
      "Ġcurrently": 5753,
      "ios": 5754,
      "cedure": 5755,
      "chine": 5756,
      "ĠRef": 5757,
      "Opt": 5758,
      "?>": 5759,
      "uck": 5760,
      "Ġ{{": 5761,
      "Language": 5762,
      "Ġgu": 5763,
      "Py": 5764,
      "Ġgrid": 5765,
      "Pop": 5766,
      "Password": 5767,
      "Ġgas": 5768,
      "Ġinside": 5769,
      "collapse": 5770,
      "Ġparser": 5771,
      "USE": 5772,
      "Ġchanged": 5773,
      "ĠEd": 5774,
      "loor": 5775,
      "peak": 5776,
      "OST": 5777,
      "Registry": 5778,
      "contin": 5779,
      "PER": 5780,
      "åı": 5781,
      "CESS": 5782,
      "('.": 5783,
      "Ġ'<": 5784,
      "uite": 5785,
      "hood": 5786,
      "Ġuseful": 5787,
      "Ġ{\"": 5788,
      "pattern": 5789,
      "anish": 5790,
      "Tx": 5791,
      "Ġdefin": 5792,
      "Ġ],": 5793,
      "ansparent": 5794,
      "AX": 5795,
      "wild": 5796,
      "ribution": 5797,
      "Ġstop": 5798,
      "Ġtheorem": 5799,
      "You": 5800,
      "Ġbasis": 5801,
      "colFirst": 5802,
      "jpg": 5803,
      "Ġnegative": 5804,
      "Ġpartial": 5805,
      "ales": 5806,
      "login": 5807,
      "TIME": 5808,
      "'\\": 5809,
      "Ġdecre": 5810,
      "ĠFe": 5811,
      "Ġqueue": 5812,
      "Ġaff": 5813,
      "extern": 5814,
      "Ġscen": 5815,
      "DateTime": 5816,
      "SR": 5817,
      "auss": 5818,
      "Ġexplo": 5819,
      "ours": 5820,
      "ohn": 5821,
      "amilton": 5822,
      "Ġrather": 5823,
      "lates": 5824,
      "Ġproper": 5825,
      "Ġverify": 5826,
      "Ġ$\\{": 5827,
      "details": 5828,
      "Ġ($\\": 5829,
      "Ġhidden": 5830,
      "Uri": 5831,
      "ae": 5832,
      "62": 5833,
      "Ġdegree": 5834,
      "Ġwaves": 5835,
      "socket": 5836,
      "ajax": 5837,
      "Ġgrow": 5838,
      "Product": 5839,
      "Ġrem": 5840,
      "Ġdesc": 5841,
      "ided": 5842,
      "StyleID": 5843,
      "Ġoperators": 5844,
      "Ġcomplet": 5845,
      "shared": 5846,
      "URI": 5847,
      "loader": 5848,
      "MC": 5849,
      "Ġdepends": 5850,
      "track": 5851,
      "Ġnullptr": 5852,
      "Ġparticle": 5853,
      "DC": 5854,
      "ĠIE": 5855,
      "icult": 5856,
      "layers": 5857,
      "Ġcover": 5858,
      "itect": 5859,
      "=\"$": 5860,
      "Pe": 5861,
      "tml": 5862,
      "ĠField": 5863,
      "Ġcontinuous": 5864,
      "taint": 5865,
      "FORM": 5866,
      "Ġvideo": 5867,
      "Ġsens": 5868,
      "Ġenter": 5869,
      "Gra": 5870,
      "ĠMin": 5871,
      "generate": 5872,
      "ARN": 5873,
      "Ġâ": 5874,
      "Ġfar": 5875,
      "ulate": 5876,
      "Pair": 5877,
      "assign": 5878,
      "ewidth": 5879,
      "iding": 5880,
      "Ġensure": 5881,
      "Author": 5882,
      "Ġconstraints": 5883,
      "<!": 5884,
      "Ġbranch": 5885,
      "fixed": 5886,
      "dagger": 5887,
      "References": 5888,
      "progress": 5889,
      "invalid": 5890,
      "Ġlogger": 5891,
      "Ġcurve": 5892,
      "Ġprefix": 5893,
      "Stats": 5894,
      "ĠJava": 5895,
      "xs": 5896,
      "zer": 5897,
      "ĠSc": 5898,
      "HR": 5899,
      "pool": 5900,
      "Ġacross": 5901,
      "Ġopp": 5902,
      "Ġphysical": 5903,
      "username": 5904,
      "Selected": 5905,
      "ndef": 5906,
      "riteria": 5907,
      "_{(": 5908,
      "ĠBO": 5909,
      "scriptor": 5910,
      "Ġtmp": 5911,
      "sidebar": 5912,
      "Ġhead": 5913,
      "Ñı": 5914,
      "Ġfocus": 5915,
      "Ġmembers": 5916,
      "litu": 5917,
      "Ġwords": 5918,
      "Ġenum": 5919,
      "Ġpresented": 5920,
      "Ġradi": 5921,
      "atalog": 5922,
      "IST": 5923,
      "maven": 5924,
      "Err": 5925,
      "ffff": 5926,
      "rase": 5927,
      "Ġinteraction": 5928,
      "79": 5929,
      "fx": 5930,
      "ĠRun": 5931,
      "riend": 5932,
      "ĠMy": 5933,
      "Ġeigen": 5934,
      "ĠOper": 5935,
      "ĠPol": 5936,
      "cluster": 5937,
      "errors": 5938,
      "subseteq": 5939,
      "ĠHttp": 5940,
      "TRUE": 5941,
      "^{-\\": 5942,
      "(@": 5943,
      "atial": 5944,
      "tests": 5945,
      "apter": 5946,
      "_+": 5947,
      "Ġmetadata": 5948,
      "Ġgalaxies": 5949,
      "chain": 5950,
      "BAR": 5951,
      "ĠInitial": 5952,
      "Eq": 5953,
      "Ġprotocol": 5954,
      "loop": 5955,
      "pu": 5956,
      "Ġparts": 5957,
      "Ġforeach": 5958,
      "Ġrank": 5959,
      "Ġcompact": 5960,
      "Ġitself": 5961,
      "Cluster": 5962,
      "Ġ[\"": 5963,
      "GER": 5964,
      "ĠView": 5965,
      "anded": 5966,
      "abilities": 5967,
      "sters": 5968,
      "EEEE": 5969,
      "release": 5970,
      "resources": 5971,
      "irit": 5972,
      "structure": 5973,
      "gments": 5974,
      "ĠĠĠĠĠĠĠĠĠĠĠĠĠĠĠĠĊ": 5975,
      "Ġdetermine": 5976,
      "required": 5977,
      "Visible": 5978,
      "ITE": 5979,
      "ertificate": 5980,
      "Ġcategory": 5981,
      "Texture": 5982,
      "extension": 5983,
      "warning": 5984,
      "ĠLOG": 5985,
      "Ġheaders": 5986,
      "views": 5987,
      "Ġpi": 5988,
      "'re": 5989,
      "ilation": 5990,
      "Sequence": 5991,
      "Example": 5992,
      "Ġscalar": 5993,
      "wik": 5994,
      "sys": 5995,
      "llegal": 5996,
      "ĠHTTP": 5997,
      "Mo": 5998,
      "Ġlang": 5999,
      "witter": 6000,
      "Ġattemp": 6001,
      "Ġmessages": 6002,
      "ĠCopyright": 6003,
      "Ġvalign": 6004,
      "Ġstorage": 6005,
      "article": 6006,
      "GR": 6007,
      "Ġvisible": 6008,
      "Ġhistory": 6009,
      "detail": 6010,
      "Ġsymmetry": 6011,
      "rb": 6012,
      "Ġchoice": 6013,
      "Ġmaps": 6014,
      "Ġnever": 6015,
      "ising": 6016,
      "when": 6017,
      "LOCK": 6018,
      "vc": 6019,
      "Ġteam": 6020,
      "Ġhold": 6021,
      "Rad": 6022,
      "Ġblocks": 6023,
      "('#": 6024,
      "'}": 6025,
      "tc": 6026,
      ";}": 6027,
      "Ġshift": 6028,
      "Comment": 6029,
      "Ġvol": 6030,
      "gers": 6031,
      "Ġbecomes": 6032,
      "Ġautomatic": 6033,
      "Ġmonth": 6034,
      "dep": 6035,
      "ĠÃ": 6036,
      "Ġflags": 6037,
      "ocation": 6038,
      "RES": 6039,
      "ĠTHE": 6040,
      "Ġsave": 6041,
      "Ġmakes": 6042,
      "checkbox": 6043,
      "Ġsignature": 6044,
      "Ġremoved": 6045,
      "ike": 6046,
      "2004": 6047,
      "Ġhyper": 6048,
      "Dictionary": 6049,
      "Ġtakes": 6050,
      "Ġcounter": 6051,
      "*{": 6052,
      "ages": 6053,
      "Ġclean": 6054,
      "ategories": 6055,
      "OF": 6056,
      "See": 6057,
      "indexOf": 6058,
      "Ġgauge": 6059,
      "Ġneighb": 6060,
      "while": 6061,
      "72": 6062,
      "ACT": 6063,
      "Ġregions": 6064,
      "licen": 6065,
      "large": 6066,
      "Ġabstract": 6067,
      "áĥ": 6068,
      "2001": 6069,
      "ENSE": 6070,
      "Ġnatural": 6071,
      "enable": 6072,
      "ifndef": 6073,
      "Ġui": 6074,
      "fix": 6075,
      "springframework": 6076,
      "present": 6077,
      "Ġhar": 6078,
      "lers": 6079,
      "Ġrepresents": 6080,
      "INFO": 6081,
      "Ġoften": 6082,
      "Ġexit": 6083,
      "ones": 6084,
      "transition": 6085,
      "Category": 6086,
      "Dec": 6087,
      "Ġbrowser": 6088,
      "Progress": 6089,
      "nodes": 6090,
      "deed": 6091,
      "LINE": 6092,
      "Ġexport": 6093,
      "rot": 6094,
      "ateway": 6095,
      "href": 6096,
      "Ġquestion": 6097,
      "\\}": 6098,
      "since": 6099,
      "Named": 6100,
      "hip": 6101,
      "Ġproblems": 6102,
      "Delegate": 6103,
      "Ġ\"$": 6104,
      "Shape": 6105,
      "safe": 6106,
      "mouse": 6107,
      "Ġ$-": 6108,
      "osen": 6109,
      "More": 6110,
      "Ġcharset": 6111,
      "ifications": 6112,
      "ĠSome": 6113,
      "game": 6114,
      "ĠMay": 6115,
      "Ġresources": 6116,
      "boost": 6117,
      "Ġresearch": 6118,
      "Ġcoq": 6119,
      "Ġcollect": 6120,
      "ĠCEL": 6121,
      "Ġsegment": 6122,
      "Admin": 6123,
      "ENTRY": 6124,
      "Ġcomparison": 6125,
      "Ġderived": 6126,
      "SELECT": 6127,
      "}}_{": 6128,
      "Ġpolynomial": 6129,
      "Ġdetermined": 6130,
      "Ġnp": 6131,
      "ĠBut": 6132,
      "bits": 6133,
      "enabled": 6134,
      "Ġtimeout": 6135,
      "Ġnavigation": 6136,
      "Ġpers": 6137,
      "ĠRead": 6138,
      "IDTH": 6139,
      "levant": 6140,
      "ĠMod": 6141,
      "Ġkernel": 6142,
      "incip": 6143,
      "Ġperformed": 6144,
      "async": 6145,
      "STATE": 6146,
      "Ġcmd": 6147,
      "Ġobservations": 6148,
      "Ġpert": 6149,
      "CF": 6150,
      "Off": 6151,
      "anger": 6152,
      "Im": 6153,
      "Generated": 6154,
      "eries": 6155,
      "ierarch": 6156,
      "bum": 6157,
      "Word": 6158,
      "Ġconsistent": 6159,
      "ĠUI": 6160,
      "ĠOb": 6161,
      "usform": 6162,
      "numerusform": 6163,
      "Ġnoise": 6164,
      "Ġupdated": 6165,
      "....": 6166,
      "ĠSO": 6167,
      "Ġgrav": 6168,
      "Ġrequests": 6169,
      "...</": 6170,
      "EEEEFF": 6171,
      "ĠId": 6172,
      "91": 6173,
      "('/": 6174,
      "Ġuniform": 6175,
      "ĠArrayList": 6176,
      "Permission": 6177,
      "Ġcharacters": 6178,
      "WN": 6179,
      "grade": 6180,
      ".'": 6181,
      "glyph": 6182,
      "onical": 6183,
      "year": 6184,
      "volume": 6185,
      "usion": 6186,
      "fi": 6187,
      "signature": 6188,
      "ĠCall": 6189,
      "throw": 6190,
      "linewidth": 6191,
      "ili": 6192,
      "Ġvertical": 6193,
      "PP": 6194,
      "mac": 6195,
      "green": 6196,
      "ana": 6197,
      "ders": 6198,
      "war": 6199,
      "Resources": 6200,
      "WR": 6201,
      "Ġrules": 6202,
      "Ġmatching": 6203,
      "Ġemission": 6204,
      "moz": 6205,
      "wedge": 6206,
      "Ġthird": 6207,
      "pid": 6208,
      "Ġins": 6209,
      "mas": 6210,
      "ĠÎ": 6211,
      "Ġlib": 6212,
      "POST": 6213,
      "oplus": 6214,
      "picture": 6215,
      "Ġlatt": 6216,
      "Ġground": 6217,
      "ĠMo": 6218,
      "Help": 6219,
      "eners": 6220,
      "Ġcomment": 6221,
      ";\">": 6222,
      "DEFAULT": 6223,
      "76": 6224,
      "dy": 6225,
      "HERE": 6226,
      "Ġdat": 6227,
      "celer": 6228,
      "ĠAR": 6229,
      "Ġformula": 6230,
      "ĠFirst": 6231,
      "Ġprimary": 6232,
      "ĠJan": 6233,
      "udo": 6234,
      "users": 6235,
      "Ġscreen": 6236,
      "ĠImage": 6237,
      "Sw": 6238,
      ";)": 6239,
      "omorphism": 6240,
      "ruby": 6241,
      "answer": 6242,
      "eter": 6243,
      "Ġleg": 6244,
      "Ġ$[": 6245,
      "elf": 6246,
      "duc": 6247,
      "setminus": 6248,
      "undefined": 6249,
      "CTYPE": 6250,
      "Ġrect": 6251,
      "groups": 6252,
      "eral": 6253,
      "Ġmeta": 6254,
      "Ġrefer": 6255,
      "rand": 6256,
      "Orig": 6257,
      "Ġincludes": 6258,
      "wildfly": 6259,
      "obile": 6260,
      "swarm": 6261,
      "Wallet": 6262,
      "\"/": 6263,
      "assembly": 6264,
      "aring": 6265,
      "Multi": 6266,
      "Ġtrigger": 6267,
      "icip": 6268,
      "sess": 6269,
      "Ġtw": 6270,
      "Sim": 6271,
      "Returns": 6272,
      "ropy": 6273,
      "Ġstrings": 6274,
      "Ġhaving": 6275,
      "Interval": 6276,
      "timeout": 6277,
      "ilevel": 6278,
      "mitive": 6279,
      "ued": 6280,
      "Ġpract": 6281,
      "aligned": 6282,
      "Ġwriting": 6283,
      "ĠSte": 6284,
      "Ġresulting": 6285,
      "Math": 6286,
      "Ġbuf": 6287,
      "Len": 6288,
      "Ġcomputed": 6289,
      "Ġhence": 6290,
      "Ġamong": 6291,
      "REQ": 6292,
      ".<": 6293,
      "ĠASS": 6294,
      "Enumer": 6295,
      "ICE": 6296,
      "ico": 6297,
      "ĠFrom": 6298,
      "Ġcontroller": 6299,
      "ellar": 6300,
      "Ġparticles": 6301,
      "Ġbasic": 6302,
      "gorithms": 6303,
      "Ids": 6304,
      "^^": 6305,
      "94": 6306,
      "ĠNumber": 6307,
      "ĠVector": 6308,
      "VALUE": 6309,
      "clean": 6310,
      "()))": 6311,
      "prob": 6312,
      "NavBarFont": 6313,
      "MODULE": 6314,
      "Ġentire": 6315,
      "xhtml": 6316,
      "Volume": 6317,
      "Role": 6318,
      "ĠAmerican": 6319,
      "Ġsmooth": 6320,
      "agraph": 6321,
      "Ġscatter": 6322,
      "ĠRed": 6323,
      "python": 6324,
      "Ġdepth": 6325,
      "ket": 6326,
      "gular": 6327,
      "subfigure": 6328,
      "Ġapproximation": 6329,
      "testing": 6330,
      "Ġir": 6331,
      "commit": 6332,
      "BE": 6333,
      "Vertex": 6334,
      "Ġstatement": 6335,
      "Ġprom": 6336,
      "Ġproxy": 6337,
      "Ġcentral": 6338,
      "cdn": 6339,
      "Ġschema": 6340,
      "Ġrgba": 6341,
      "Ġspeed": 6342,
      "Aut": 6343,
      "Ġsufficient": 6344,
      "ulture": 6345,
      "ĠSIZE": 6346,
      "inf": 6347,
      "stable": 6348,
      "ĠRo": 6349,
      "78": 6350,
      "Ġtopo": 6351,
      "ĠExp": 6352,
      "Landroid": 6353,
      "ĠHere": 6354,
      "icles": 6355,
      "IVE": 6356,
      "lower": 6357,
      "ĠTe": 6358,
      "ctr": 6359,
      "ĠALIGN": 6360,
      "Gen": 6361,
      "Notification": 6362,
      "Ġ}\\": 6363,
      "ocaml": 6364,
      "Ġenable": 6365,
      "DOCTYPE": 6366,
      "Ġpress": 6367,
      "Begin": 6368,
      "Endpoint": 6369,
      "diff": 6370,
      "println": 6371,
      "ĠIndex": 6372,
      "mob": 6373,
      "Ġexponent": 6374,
      "shall": 6375,
      "tw": 6376,
      "acing": 6377,
      "fg": 6378,
      "ards": 6379,
      ".)": 6380,
      "ĠMark": 6381,
      "Ġmenu": 6382,
      "getElement": 6383,
      "ivial": 6384,
      "Ġinvariant": 6385,
      "Ġearly": 6386,
      "ĠFin": 6387,
      "ĠBuild": 6388,
      "Ġunless": 6389,
      "ada": 6390,
      "Ġreader": 6391,
      "Ġfill": 6392,
      "Ġplatform": 6393,
      "runtime": 6394,
      "COMP": 6395,
      "checked": 6396,
      "Ġarbitrary": 6397,
      "flat": 6398,
      "anging": 6399,
      "Ġcolumns": 6400,
      ",\\,": 6401,
      "apis": 6402,
      "{\"": 6403,
      "Ġapilevel": 6404,
      "Ġcritical": 6405,
      "Ġinequal": 6406,
      "ELD": 6407,
      "ĠWindow": 6408,
      "BB": 6409,
      "trace": 6410,
      "Ġnative": 6411,
      "Mask": 6412,
      "Ġretrie": 6413,
      "thers": 6414,
      "||": 6415,
      "Ġcare": 6416,
      "Ġ];": 6417,
      "Ġbounded": 6418,
      "Ġpush": 6419,
      "DEBUG": 6420,
      "ittle": 6421,
      "isting": 6422,
      "Single": 6423,
      "andra": 6424,
      "ITION": 6425,
      "ĠPart": 6426,
      "Player": 6427,
      "Ġprop": 6428,
      "FS": 6429,
      "USER": 6430,
      "cessed": 6431,
      "Ġhalf": 6432,
      "Ġ).": 6433,
      "Ġprior": 6434,
      "Ġuncer": 6435,
      "Ġdrop": 6436,
      "Ġmask": 6437,
      "ulated": 6438,
      "lustr": 6439,
      "Ġlate": 6440,
      "Ġpeak": 6441,
      "Ġdiscus": 6442,
      "Rev": 6443,
      "****************************************************************": 6444,
      "Ġcalls": 6445,
      "ĠSource": 6446,
      "Ġsimply": 6447,
      "Background": 6448,
      "coming": 6449,
      "PU": 6450,
      "Ġ^": 6451,
      "leton": 6452,
      "Animation": 6453,
      "61": 6454,
      "ances": 6455,
      "VALID": 6456,
      "depth": 6457,
      "Ġnumerical": 6458,
      "Sort": 6459,
      "Summary": 6460,
      "ĠĠĠĠĠĠĠĠĠĠĠĠĠĠĠĠĠĠĠĠĠĠĠĠĠĠĠĠĠĠ": 6461,
      "Install": 6462,
      "Services": 6463,
      "Scal": 6464,
      "Ġ|\\": 6465,
      "_*": 6466,
      "veloper": 6467,
      "circle": 6468,
      "ĠUnited": 6469,
      "PROJECT": 6470,
      "tk": 6471,
      "Ġfund": 6472,
      "ĠBoolean": 6473,
      "np": 6474,
      "Ġfoot": 6475,
      "Ġraw": 6476,
      "Ġsatisfies": 6477,
      "Ġetc": 6478,
      "iders": 6479,
      "tical": 6480,
      "lots": 6481,
      "DT": 6482,
      "herited": 6483,
      "proxy": 6484,
      "Report": 6485,
      "Here": 6486,
      "METH": 6487,
      "REG": 6488,
      "cheduler": 6489,
      "Required": 6490,
      "por": 6491,
      "ĠassertThat": 6492,
      "ifiers": 6493,
      "Ġplayer": 6494,
      "Ġstarting": 6495,
      "parator": 6496,
      "93": 6497,
      "plot": 6498,
      "nob": 6499,
      "Ġcorresponds": 6500,
      "Ġpopulation": 6501,
      "gi": 6502,
      "ional": 6503,
      "batch": 6504,
      "Ġprogress": 6505,
      "Ġvertices": 6506,
      "Ġmomentum": 6507,
      "single": 6508,
      "Execution": 6509,
      "bullet": 6510,
      "Ġdr": 6511,
      "Ġdiscuss": 6512,
      "Total": 6513,
      "Ġfraction": 6514,
      "ĉĠĠĠĠĠĠĠ": 6515,
      "']['": 6516,
      "Ġlayout": 6517,
      "Ġleading": 6518,
      "ĠValid": 6519,
      "video": 6520,
      "dec": 6521,
      "Mar": 6522,
      "IGHT": 6523,
      "Ġchoose": 6524,
      "Bean": 6525,
      "console": 6526,
      "role": 6527,
      "monstr": 6528,
      "ooks": 6529,
      "Google": 6530,
      "Ġtranslate": 6531,
      "Ġmagn": 6532,
      "Ġreach": 6533,
      "isk": 6534,
      "ĠSQL": 6535,
      "database": 6536,
      "Ġeditor": 6537,
      "INTER": 6538,
      "LL": 6539,
      "Ġnuc": 6540,
      ",$": 6541,
      "ĠInput": 6542,
      "Db": 6543,
      "ĠASSERT": 6544,
      "Ġshared": 6545,
      "ĠANY": 6546,
      "Ġdetail": 6547,
      "flag": 6548,
      "EV": 6549,
      "phone": 6550,
      "Ġwhite": 6551,
      "'];": 6552,
      "Ġmapping": 6553,
      "Syntax": 6554,
      "92": 6555,
      "ORTED": 6556,
      "Ġoptimal": 6557,
      "words": 6558,
      "Ġidentity": 6559,
      "Ġphot": 6560,
      "rd": 6561,
      "getValue": 6562,
      "selector": 6563,
      "ula": 6564,
      "Ġedges": 6565,
      "Ġamplitu": 6566,
      "ridge": 6567,
      "ĠCur": 6568,
      "ems": 6569,
      "Ġmd": 6570,
      "ĠExample": 6571,
      "Cons": 6572,
      "ynchron": 6573,
      "nn": 6574,
      "Flow": 6575,
      "Microsoft": 6576,
      "Ġattack": 6577,
      ">\\": 6578,
      "aussian": 6579,
      "DATA": 6580,
      "=\\\"": 6581,
      "typename": 6582,
      "Skip": 6583,
      "Ġ([": 6584,
      "atory": 6585,
      "Ġbounds": 6586,
      "ured": 6587,
      "Ġnorm": 6588,
      "ometric": 6589,
      "Ġtre": 6590,
      "\"],": 6591,
      "Plan": 6592,
      "fc": 6593,
      "Ġengine": 6594,
      "tri": 6595,
      "History": 6596,
      "rices": 6597,
      "factory": 6598,
      "blank": 6599,
      "endor": 6600,
      "Area": 6601,
      "_{-": 6602,
      "king": 6603,
      "Ġmut": 6604,
      "Ġfall": 6605,
      "(\"/": 6606,
      "Ġok": 6607,
      "lax": 6608,
      "Mouse": 6609,
      "Ġmotion": 6610,
      "two": 6611,
      "Ġnamed": 6612,
      "route": 6613,
      "ĠPath": 6614,
      "ĠCor": 6615,
      "zy": 6616,
      "PUT": 6617,
      "Ġunknown": 6618,
      "NSString": 6619,
      "Using": 6620,
      "Ign": 6621,
      "Ġtasks": 6622,
      "Ġcalculated": 6623,
      "'_": 6624,
      "Ġresolution": 6625,
      "commons": 6626,
      "Ġappropri": 6627,
      "esian": 6628,
      "mmutable": 6629,
      "Ġrows": 6630,
      "simple": 6631,
      "#{": 6632,
      "ĠEND": 6633,
      "Ġscroll": 6634,
      "upload": 6635,
      "Ġflat": 6636,
      "rong": 6637,
      "agent": 6638,
      "Ġexamples": 6639,
      "Ġissue": 6640,
      "Fragment": 6641,
      "ena": 6642,
      "here": 6643,
      "leep": 6644,
      "TestCase": 6645,
      "Ġentries": 6646,
      "Ġrights": 6647,
      "bold": 6648,
      "ante": 6649,
      "Ġ@\"": 6650,
      "ĠStart": 6651,
      "gu": 6652,
      "objects": 6653,
      ".\",": 6654,
      "ĠResult": 6655,
      "Ġwon": 6656,
      "ĠTR": 6657,
      "MT": 6658,
      ":`": 6659,
      "Ġdetection": 6660,
      "Ġemail": 6661,
      "åĪ": 6662,
      "constructor": 6663,
      "stit": 6664,
      "forward": 6665,
      "ÑĮ": 6666,
      "),\\": 6667,
      "Make": 6668,
      "apos": 6669,
      "referred": 6670,
      "Ġcut": 6671,
      "Ġunderstand": 6672,
      "sync": 6673,
      "Batch": 6674,
      "mic": 6675,
      "ĠXML": 6676,
      "Game": 6677,
      "ollary": 6678,
      "Ġplane": 6679,
      "flex": 6680,
      "_{{\\": 6681,
      "cape": 6682,
      "isation": 6683,
      "ĠUS": 6684,
      "mc": 6685,
      "Ġpairs": 6686,
      "cyc": 6687,
      "ÐµÐ": 6688,
      "lug": 6689,
      "Ġlonger": 6690,
      "Ġbatch": 6691,
      "ius": 6692,
      "LETE": 6693,
      "Ġcoordinates": 6694,
      "Flag": 6695,
      "AAAA": 6696,
      "ĠSch": 6697,
      "dro": 6698,
      "resolve": 6699,
      "amiltonian": 6700,
      "reng": 6701,
      "Ġsimulations": 6702,
      "stat": 6703,
      ")}(": 6704,
      "Ġconstruction": 6705,
      "Ġderiv": 6706,
      "pull": 6707,
      "ulk": 6708,
      "LOC": 6709,
      "report": 6710,
      "ignment": 6711,
      "74": 6712,
      "some": 6713,
      "Ġdynamics": 6714,
      "SI": 6715,
      "Ġ\"\",": 6716,
      "Ġdiscussed": 6717,
      "Ġdemonstr": 6718,
      "RPC": 6719,
      "Append": 6720,
      "BC": 6721,
      "ĠallClasses": 6722,
      "ĠGroup": 6723,
      "Ind": 6724,
      "METHOD": 6725,
      "EC": 6726,
      "Ġ\\\"": 6727,
      "Ġfinally": 6728,
      "Ġsb": 6729,
      "Ġcharge": 6730,
      "Find": 6731,
      "dc": 6732,
      "Ġ$$": 6733,
      "ANG": 6734,
      "Ġweek": 6735,
      "inct": 6736,
      "merge": 6737,
      "extra": 6738,
      "Ġtesting": 6739,
      "ĠNAV": 6740,
      "optional": 6741,
      "bigg": 6742,
      "ĠallClassesLink": 6743,
      "compile": 6744,
      "APP": 6745,
      "lint": 6746,
      ")\\,": 6747,
      "Ġcandid": 6748,
      "ä»": 6749,
      "Ġlattice": 6750,
      "PH": 6751,
      "Ġintroduced": 6752,
      "ĠSim": 6753,
      "Ġactually": 6754,
      "Ġsho": 6755,
      "Ġ&=&": 6756,
      "ste": 6757,
      "Ġspectral": 6758,
      "Art": 6759,
      "RR": 6760,
      "Ġapproxim": 6761,
      "Limit": 6762,
      "ĠWork": 6763,
      "Ġaltern": 6764,
      "tf": 6765,
      "Ġmodified": 6766,
      "Ġlistener": 6767,
      "Ġtermin": 6768,
      ")[": 6769,
      "uplic": 6770,
      "ĠOther": 6771,
      "inherit": 6772,
      "ï»": 6773,
      "ãĢ": 6774,
      "slice": 6775,
      "Ġproduction": 6776,
      "hi": 6777,
      "Hand": 6778,
      "){\\": 6779,
      "zure": 6780,
      "rown": 6781,
      "osed": 6782,
      "Ġdecay": 6783,
      "Cla": 6784,
      "oss": 6785,
      "react": 6786,
      "Î¿": 6787,
      "Ġdeep": 6788,
      "Ġemploy": 6789,
      "goto": 6790,
      "Constant": 6791,
      "ried": 6792,
      "Methods": 6793,
      "2003": 6794,
      "Lin": 6795,
      "WEB": 6796,
      "MODE": 6797,
      "Ġsteps": 6798,
      "Mer": 6799,
      "Ñĭ": 6800,
      "ternational": 6801,
      "Ġgovern": 6802,
      "Ġ>>": 6803,
      "Ġdomin": 6804,
      "ampling": 6805,
      "SK": 6806,
      "ously": 6807,
      "unty": 6808,
      "ï»¿": 6809,
      "cases": 6810,
      "Ġexperiments": 6811,
      "ĠAfter": 6812,
      "Ġperturb": 6813,
      "Constructor": 6814,
      "tention": 6815,
      ")_": 6816,
      "fr": 6817,
      "lav": 6818,
      "Ġenv": 6819,
      "DEF": 6820,
      "Ġedit": 6821,
      "Ġgradient": 6822,
      "Ġclassical": 6823,
      "Ġinf": 6824,
      "ĠProposition": 6825,
      "Ġincreasing": 6826,
      "Ġsummary": 6827,
      "}}(\\": 6828,
      "Ġche": 6829,
      "adcast": 6830,
      "ummy": 6831,
      "edback": 6832,
      "SM": 6833,
      "CALL": 6834,
      "atomic": 6835,
      "Native": 6836,
      "Ġalmost": 6837,
      "resp": 6838,
      "ques": 6839,
      "tor": 6840,
      "validate": 6841,
      "bd": 6842,
      "Ġ'\\": 6843,
      "Ġfully": 6844,
      "ctrine": 6845,
      "setup": 6846,
      "ening": 6847,
      "functions": 6848,
      "Ġgot": 6849,
      "Ġexecute": 6850,
      "73": 6851,
      "Ġmissing": 6852,
      "Ġconfigure": 6853,
      "Ġ+\\": 6854,
      "Ġreadonly": 6855,
      "Ġuncertaint": 6856,
      "STRING": 6857,
      "EventListener": 6858,
      "INS": 6859,
      "ĠCollection": 6860,
      "ArgumentException": 6861,
      "Ġfmt": 6862,
      "IOException": 6863,
      "Ġreset": 6864,
      "bg": 6865,
      "Ġclick": 6866,
      "library": 6867,
      "verter": 6868,
      "Ġaccuracy": 6869,
      "Ġspaces": 6870,
      "\"].": 6871,
      "found": 6872,
      "Ġprops": 6873,
      "Ġbuilt": 6874,
      "Ġexecution": 6875,
      "Operator": 6876,
      "ILE": 6877,
      "atives": 6878,
      ".~(\\": 6879,
      "alo": 6880,
      "ĠVer": 6881,
      "Ġplot": 6882,
      "Ġwin": 6883,
      "Ġcoefficients": 6884,
      "sa": 6885,
      "extend": 6886,
      "Ġmeasured": 6887,
      "Ġcorrespond": 6888,
      "bi": 6889,
      "Ġ×": 6890,
      "Cancel": 6891,
      "Ġacc": 6892,
      "rics": 6893,
      "visible": 6894,
      "allen": 6895,
      "Ġmatches": 6896,
      "Ġdecomp": 6897,
      "Ġsitu": 6898,
      "sime": 6899,
      "ĠNAVBAR": 6900,
      "$^{-": 6901,
      "oog": 6902,
      "origin": 6903,
      "eff": 6904,
      "issues": 6905,
      "Ġ..": 6906,
      "ĠChar": 6907,
      "SSL": 6908,
      "supported": 6909,
      "Ġcoll": 6910,
      "Ġbin": 6911,
      "ado": 6912,
      "brid": 6913,
      "ĠWorld": 6914,
      "âĢľ": 6915,
      "geo": 6916,
      "Ġangular": 6917,
      "Validation": 6918,
      "redentials": 6919,
      "Ġlearn": 6920,
      "simeq": 6921,
      "1999": 6922,
      "urch": 6923,
      "ito": 6924,
      "download": 6925,
      "Ġfailure": 6926,
      "Ġ\"\";": 6927,
      "Clear": 6928,
      "isEmpty": 6929,
      "owner": 6930,
      "Ġcursor": 6931,
      "Ġlife": 6932,
      "Ġ\"%": 6933,
      "Own": 6934,
      "Ġinstances": 6935,
      "okie": 6936,
      "Ġtsd": 6937,
      "ASSERT": 6938,
      "Objects": 6939,
      "123": 6940,
      "cip": 6941,
      "GC": 6942,
      "Ġmaking": 6943,
      "Video": 6944,
      "lementation": 6945,
      "Allow": 6946,
      "ĉĠĠ": 6947,
      "loaded": 6948,
      "prov": 6949,
      "DOM": 6950,
      "/_": 6951,
      "erve": 6952,
      "touch": 6953,
      "policy": 6954,
      "bes": 6955,
      "Ġmot": 6956,
      "ĠHence": 6957,
      "FE": 6958,
      "ause": 6959,
      "ja": 6960,
      "Ġpolar": 6961,
      "textsc": 6962,
      "Ġunits": 6963,
      "ĠMake": 6964,
      "Ġexactly": 6965,
      "Cursor": 6966,
      "den": 6967,
      ")_{": 6968,
      "Ġinvestig": 6969,
      "Pub": 6970,
      "exit": 6971,
      "Serializer": 6972,
      "High": 6973,
      "Ġlead": 6974,
      "}$-": 6975,
      "rist": 6976,
      "Ġopts": 6977,
      "wp": 6978,
      "kwargs": 6979,
      "ences": 6980,
      "termin": 6981,
      "Ġactions": 6982,
      "Enter": 6983,
      "Ġ'';": 6984,
      "activ": 6985,
      "Children": 6986,
      "Ġage": 6987,
      "Ġapplications": 6988,
      "lare": 6989,
      "Pod": 6990,
      "ellij": 6991,
      "driver": 6992,
      "Ġdevelopment": 6993,
      "Lower": 6994,
      "rie": 6995,
      "icity": 6996,
      "subsubsection": 6997,
      "Ġroute": 6998,
      "Driver": 6999,
      "anti": 7000,
      "jQuery": 7001,
      "ymptot": 7002,
      "Ġchosen": 7003,
      "Ġmanager": 7004,
      "Ġ\\(": 7005,
      "ĠApache": 7006,
      "mazon": 7007,
      "NUM": 7008,
      "InputStream": 7009,
      "Ġpool": 7010,
      "QU": 7011,
      "overview": 7012,
      "()),": 7013,
      "ĠAS": 7014,
      "Ġlat": 7015,
      "bc": 7016,
      "ORY": 7017,
      "Ġpat": 7018,
      "Ġfun": 7019,
      "lated": 7020,
      "uest": 7021,
      "rect": 7022,
      "Ġcapture": 7023,
      "Ġprocedure": 7024,
      "intellij": 7025,
      "ĠPRO": 7026,
      "Ã§": 7027,
      "destroy": 7028,
      "ĠClient": 7029,
      "ĠLcom": 7030,
      "MIN": 7031,
      "animation": 7032,
      "Extra": 7033,
      ":[": 7034,
      "ĠOptional": 7035,
      "conv": 7036,
      "lipse": 7037,
      "ĠStates": 7038,
      "ðŁ": 7039,
      "icode": 7040,
      "isset": 7041,
      "Ġdocumentation": 7042,
      "Ġexperimental": 7043,
      "igration": 7044,
      "213": 7045,
      "perp": 7046,
      "_);": 7047,
      "hom": 7048,
      "Ġvisit": 7049,
      "NV": 7050,
      "Ġdelay": 7051,
      "Public": 7052,
      "Ġprocesses": 7053,
      "Ġautomatically": 7054,
      "cial": 7055,
      "Env": 7056,
      "Ġ_,": 7057,
      "disable": 7058,
      "istor": 7059,
      "Cl": 7060,
      "ĠAssembly": 7061,
      "Ġwhole": 7062,
      "yy": 7063,
      "EST": 7064,
      "alert": 7065,
      "Usage": 7066,
      "Ġlabels": 7067,
      "wd": 7068,
      "/\"": 7069,
      "deg": 7070,
      "Move": 7071,
      "ongs": 7072,
      "ĠDocument": 7073,
      "integer": 7074,
      "Ġsto": 7075,
      "Ġthough": 7076,
      "Save": 7077,
      "=\"../../../../../../../": 7078,
      "(.": 7079,
      "Ġeasy": 7080,
      "Ġexpansion": 7081,
      "Email": 7082,
      "emon": 7083,
      "Ġwide": 7084,
      "ĠWrite": 7085,
      "Ġbig": 7086,
      "ĠProject": 7087,
      "CHAR": 7088,
      "Cloud": 7089,
      "ĠOur": 7090,
      "Static": 7091,
      "rank": 7092,
      "odot": 7093,
      "antic": 7094,
      "yg": 7095,
      "ĠÐ¿": 7096,
      "Ġfactory": 7097,
      "duration": 7098,
      "CONT": 7099,
      "Ġsense": 7100,
      "bre": 7101,
      "diag": 7102,
      "ĠAlso": 7103,
      "ham": 7104,
      "ĠNational": 7105,
      "avai": 7106,
      "ORDER": 7107,
      "STATUS": 7108,
      "look": 7109,
      "$).": 7110,
      "Ter": 7111,
      "Ġcommit": 7112,
      "Compiler": 7113,
      "sb": 7114,
      "licenses": 7115,
      "Ġsimulation": 7116,
      "zip": 7117,
      "Ġspan": 7118,
      "colon": 7119,
      "Intro": 7120,
      "izations": 7121,
      "Ġextended": 7122,
      "Ġrelevant": 7123,
      "gradle": 7124,
      "\"},": 7125,
      "iet": 7126,
      "usp": 7127,
      ":@\"": 7128,
      "Ġinstalled": 7129,
      "PHP": 7130,
      ")^{\\": 7131,
      "transaction": 7132,
      "Ġworking": 7133,
      "quote": 7134,
      "CLASS": 7135,
      "Ġcontact": 7136,
      "mk": 7137,
      "roke": 7138,
      "Ġreported": 7139,
      "Ġtrace": 7140,
      "Compat": 7141,
      "Release": 7142,
      "Ġ}}": 7143,
      "seq": 7144,
      "Ġdifficult": 7145,
      "Ġorbit": 7146,
      "Ġdisabled": 7147,
      "Ġconn": 7148,
      ">)": 7149,
      "Ġstarted": 7150,
      "opts": 7151,
      "Ã¼": 7152,
      "called": 7153,
      "forEach": 7154,
      "ryption": 7155,
      "AST": 7156,
      "Short": 7157,
      "Ġdecl": 7158,
      "120": 7159,
      "Ġgoing": 7160,
      "seconds": 7161,
      "']);": 7162,
      "Renderer": 7163,
      "Ġsql": 7164,
      "Ġtreat": 7165,
      "\\!\\!": 7166,
      "Wait": 7167,
      "Sql": 7168,
      "ÐµÐ½": 7169,
      "%\"": 7170,
      "lict": 7171,
      "ensive": 7172,
      "Ġtransfer": 7173,
      "forall": 7174,
      "icket": 7175,
      "iles": 7176,
      "ĠAction": 7177,
      "Diagnost": 7178,
      "Ġtransport": 7179,
      "Ġtaking": 7180,
      "Ġblue": 7181,
      "Ġselector": 7182,
      "Ġmodify": 7183,
      "Ġassumption": 7184,
      "Ġfigure": 7185,
      "Ġstored": 7186,
      "Ġidentify": 7187,
      "Unknown": 7188,
      "oms": 7189,
      "thesis": 7190,
      "Ġintegral": 7191,
      "Fn": 7192,
      "strument": 7193,
      "CG": 7194,
      "Ġvalidate": 7195,
      "ĠSD": 7196,
      "Ġpropag": 7197,
      "Ġseason": 7198,
      "bal": 7199,
      "Ġforward": 7200,
      "Ġthink": 7201,
      "~$\\": 7202,
      "Clo": 7203,
      "once": 7204,
      "Ġdependencies": 7205,
      "UD": 7206,
      "Ġtor": 7207,
      "Ġ'',": 7208,
      "æľ": 7209,
      "fire": 7210,
      "Ġtechn": 7211,
      "Î±": 7212,
      "Identity": 7213,
      "ĠJohn": 7214,
      "cred": 7215,
      "Ġ'./": 7216,
      "notes": 7217,
      "convert": 7218,
      "entially": 7219,
      "Ġillustr": 7220,
      "clone": 7221,
      "Ġtransparent": 7222,
      "ANT": 7223,
      "memory": 7224,
      "Resolver": 7225,
      "WORD": 7226,
      "basic": 7227,
      "Ġprevent": 7228,
      "dif": 7229,
      "ĠWIDTH": 7230,
      "ĠTH": 7231,
      "Segment": 7232,
      "Ġsynchron": 7233,
      "thrift": 7234,
      "71": 7235,
      "ĠJo": 7236,
      "Ġshall": 7237,
      "Navigation": 7238,
      "Ġindicates": 7239,
      "Ġclu": 7240,
      "Ġcause": 7241,
      "ĠWAR": 7242,
      "Ġmeasurements": 7243,
      "rength": 7244,
      "constant": 7245,
      "ĠConst": 7246,
      "ĠNow": 7247,
      "Ġappropriate": 7248,
      "Ġstrategy": 7249,
      "achine": 7250,
      "Ġminim": 7251,
      "Ġtempor": 7252,
      "Mapper": 7253,
      "acc": 7254,
      "Ali": 7255,
      "spacing": 7256,
      "trl": 7257,
      "accept": 7258,
      "ĠØ": 7259,
      "Ġlikely": 7260,
      "assertTrue": 7261,
      "istence": 7262,
      "La": 7263,
      "Ġremote": 7264,
      "ĠExec": 7265,
      "Ġeasily": 7266,
      "ĠSto": 7267,
      "highlight": 7268,
      "labor": 7269,
      "Ġdays": 7270,
      "Ġpaths": 7271,
      "getElementById": 7272,
      "Ġnetworks": 7273,
      "elem": 7274,
      "compare": 7275,
      "Ġstage": 7276,
      "Ġ''": 7277,
      "Raw": 7278,
      "methods": 7279,
      "2002": 7280,
      "Processor": 7281,
      "mag": 7282,
      "Ġdot": 7283,
      "Ġadmin": 7284,
      "ssl": 7285,
      "Ġadapt": 7286,
      "Binding": 7287,
      "Ġsomething": 7288,
      "Ġleads": 7289,
      "Ġreduced": 7290,
      "Forms": 7291,
      "have": 7292,
      "/{": 7293,
      "alyt": 7294,
      "activity": 7295,
      "ilib": 7296,
      "Ġmodes": 7297,
      "NotFound": 7298,
      "Ġpresence": 7299,
      "Chain": 7300,
      "oring": 7301,
      "FIELD": 7302,
      "Detail": 7303,
      "enchmark": 7304,
      "ifold": 7305,
      "messages": 7306,
      "NODE": 7307,
      "lec": 7308,
      "[]{": 7309,
      "phys": 7310,
      "cade": 7311,
      "^{+": 7312,
      "Figure": 7313,
      "submit": 7314,
      "rece": 7315,
      "Theme": 7316,
      "Ġcalculate": 7317,
      "Ġdict": 7318,
      "~~~~~~~~": 7319,
      "Ġthreshold": 7320,
      "Remote": 7321,
      "Weight": 7322,
      "ctu": 7323,
      "isms": 7324,
      "Ġtherm": 7325,
      "tensor": 7326,
      "ĉčĊ": 7327,
      "radio": 7328,
      "Ġoutside": 7329,
      "arks": 7330,
      "udied": 7331,
      "adr": 7332,
      "Ġresolve": 7333,
      "Annotation": 7334,
      "Bl": 7335,
      "Ġmention": 7336,
      "Ġdistributions": 7337,
      "Ġcurves": 7338,
      "Ġtheore": 7339,
      "ĠPublic": 7340,
      "Ġvalidation": 7341,
      "Ġround": 7342,
      "Ġwarning": 7343,
      "Ġresp": 7344,
      "Ġservices": 7345,
      "Ġmix": 7346,
      "ko": 7347,
      "UMM": 7348,
      "TT": 7349,
      "\\_": 7350,
      "Strategy": 7351,
      "Ġduration": 7352,
      ".\"\"\"": 7353,
      ")^{-": 7354,
      "collect": 7355,
      "Ġ_.": 7356,
      "ĠLong": 7357,
      "Setting": 7358,
      "cribe": 7359,
      "ĠWARRAN": 7360,
      "<<": 7361,
      "ĠIm": 7362,
      "Observer": 7363,
      "Ġstructures": 7364,
      "Ġclaim": 7365,
      "riction": 7366,
      "ducer": 7367,
      "Validator": 7368,
      "Signature": 7369,
      "NET": 7370,
      "ĠSets": 7371,
      "ĠRegister": 7372,
      "cmp": 7373,
      "vlet": 7374,
      "Ġtags": 7375,
      "ackson": 7376,
      "arguments": 7377,
      "Our": 7378,
      "Span": 7379,
      "Ġgap": 7380,
      "ĠParameter": 7381,
      ">\"": 7382,
      "ANCE": 7383,
      "Stop": 7384,
      "Nullable": 7385,
      "Ġlicense": 7386,
      "{$\\": 7387,
      "Ġelif": 7388,
      "incipal": 7389,
      "Screen": 7390,
      "nobr": 7391,
      "Ġinequality": 7392,
      "Ġsecurity": 7393,
      "deprecated": 7394,
      "Ġalgorithms": 7395,
      "glyphicon": 7396,
      "Ġseconds": 7397,
      "Ġpermissions": 7398,
      "Environment": 7399,
      "navigation": 7400,
      "Ġ=\\": 7401,
      "Ġstudies": 7402,
      "poch": 7403,
      "Ġremaining": 7404,
      "fetch": 7405,
      "Ġsubset": 7406,
      "lush": 7407,
      "illion": 7408,
      "Edge": 7409,
      "FC": 7410,
      ".âĢĿ": 7411,
      "trim": 7412,
      "Ġreview": 7413,
      "ĠĠĠĠĠĠĠĠĠĠĊ": 7414,
      "uy": 7415,
      "ares": 7416,
      "ĠBit": 7417,
      "wall": 7418,
      "Program": 7419,
      "Ġess": 7420,
      "Ġsocket": 7421,
      "Ġfilm": 7422,
      "tachment": 7423,
      "created": 7424,
      "joint": 7425,
      "ĠProperty": 7426,
      "Tags": 7427,
      "PA": 7428,
      "Ġmajor": 7429,
      "Ġwriter": 7430,
      "Ġspectra": 7431,
      "band": 7432,
      "ĠIllegal": 7433,
      "catch": 7434,
      "tar": 7435,
      "Throw": 7436,
      "$$\\": 7437,
      "Ġanimation": 7438,
      "urthermore": 7439,
      "Ġ\".": 7440,
      "ication": 7441,
      "facebook": 7442,
      "[(": 7443,
      "pan": 7444,
      "Html": 7445,
      "Ġones": 7446,
      "Ġreceive": 7447,
      "pkg": 7448,
      "comb": 7449,
      "Ġcourse": 7450,
      "Binary": 7451,
      "mass": 7452,
      "urnal": 7453,
      "Platform": 7454,
      "MI": 7455,
      "itch": 7456,
      "Rate": 7457,
      "Ġbad": 7458,
      "Ġlevels": 7459,
      "Members": 7460,
      "Ġ>>>": 7461,
      "Ġul": 7462,
      "ogene": 7463,
      "ĠMax": 7464,
      "Ġcontents": 7465,
      "ĠSoftware": 7466,
      "ĠĠĠĠĠĠĠĠĠĠĠĠĠĠĠĠĠĠĠĠĠĠĠĠĠĠĠĠĠĠĠĠĠ": 7467,
      "Ġmatrices": 7468,
      "iling": 7469,
      "resize": 7470,
      "Ġdimensions": 7471,
      "Ġfive": 7472,
      "cass": 7473,
      "Normal": 7474,
      "ï¼Į": 7475,
      "displayName": 7476,
      "ĠDB": 7477,
      "original": 7478,
      "ĠOver": 7479,
      "player": 7480,
      "6666": 7481,
      "CONFIG": 7482,
      "FFER": 7483,
      "Ġdual": 7484,
      "Addr": 7485,
      "hop": 7486,
      "Ġcomputation": 7487,
      "Ġdark": 7488,
      "Alloc": 7489,
      "mpt": 7490,
      "ored": 7491,
      "Ġproto": 7492,
      "calendar": 7493,
      "ĠMet": 7494,
      "Ġcloud": 7495,
      "Hub": 7496,
      "Login": 7497,
      "FUN": 7498,
      "Ġconclude": 7499,
      "ĠStatus": 7500,
      "Failure": 7501,
      "Conn": 7502,
      "Ġpast": 7503,
      "reed": 7504,
      "itecture": 7505,
      "Connect": 7506,
      "Ġruntime": 7507,
      "spirit": 7508,
      "Ġidentifier": 7509,
      "Join": 7510,
      "elastic": 7511,
      "Contact": 7512,
      "æĸ": 7513,
      "ĠDec": 7514,
      "Ġdenotes": 7515,
      ")},": 7516,
      "Ġjs": 7517,
      "getId": 7518,
      "bose": 7519,
      "Ġsingular": 7520,
      "Ġforms": 7521,
      "changed": 7522,
      "Users": 7523,
      "native": 7524,
      "Ġprovider": 7525,
      ";\"": 7526,
      "Ġsymmetric": 7527,
      "mapping": 7528,
      "coped": 7529,
      "Drop": 7530,
      "TA": 7531,
      "Ġdev": 7532,
      "ONG": 7533,
      "algebra": 7534,
      "Groups": 7535,
      "Folder": 7536,
      "Ġtransformation": 7537,
      "lour": 7538,
      "vertical": 7539,
      "ployment": 7540,
      "Play": 7541,
      "Ġfast": 7542,
      "shal": 7543,
      "logo": 7544,
      "-$": 7545,
      "Ġdependence": 7546,
      "liance": 7547,
      "correct": 7548,
      "Ġsys": 7549,
      "emit": 7550,
      "but": 7551,
      "fmt": 7552,
      "Ġgreat": 7553,
      "çĶ": 7554,
      "ĠBlock": 7555,
      "scala": 7556,
      "Ġactivity": 7557,
      "gination": 7558,
      "contents": 7559,
      "Ġ'%": 7560,
      "rpc": 7561,
      "Ġchunk": 7562,
      "ering": 7563,
      "Gui": 7564,
      "ÛĮ": 7565,
      "reader": 7566,
      "Encoding": 7567,
      "Prov": 7568,
      "ians": 7569,
      "Basic": 7570,
      "ĠMoreover": 7571,
      "iqu": 7572,
      "ĠĠĠĠĠĠĠĠĠĠĠĠĠĠĠĠĠĠĠĠĠĠĠĠĠĠĠĠĠĠĠĠĠĠĠĠĠĠĠĠĠĠĠĠĠĠĠ": 7573,
      "Ġrestrict": 7574,
      "Ġhuman": 7575,
      "Should": 7576,
      "VAR": 7577,
      "Ġinteresting": 7578,
      "urations": 7579,
      "det": 7580,
      "ientation": 7581,
      "bp": 7582,
      "Ġgreater": 7583,
      "Ġdet": 7584,
      "Ġproduced": 7585,
      "cancel": 7586,
      "Ġmachine": 7587,
      "Ġbr": 7588,
      "enn": 7589,
      "Ġ'.": 7590,
      "ellow": 7591,
      "FN": 7592,
      "rg": 7593,
      "ĠII": 7594,
      "Ġgeneric": 7595,
      "Ġrotation": 7596,
      "yl": 7597,
      "Audio": 7598,
      "ĠSw": 7599,
      "directory": 7600,
      ":#": 7601,
      "irth": 7602,
      "kt": 7603,
      "atasets": 7604,
      "ĠWIT": 7605,
      "ĠâĢĶ": 7606,
      "Ġprocessing": 7607,
      "Ġsix": 7608,
      "Partition": 7609,
      "ĠJanuary": 7610,
      "Ġinputs": 7611,
      "Ġep": 7612,
      "ĠPri": 7613,
      "ĠFound": 7614,
      "selection": 7615,
      "pear": 7616,
      "(\"#": 7617,
      "Ð°Ð½": 7618,
      "]))": 7619,
      "pmatrix": 7620,
      "Ġado": 7621,
      "uuid": 7622,
      "ÏĦ": 7623,
      "-(": 7624,
      "alias": 7625,
      "Ġprecise": 7626,
      "ĠÂ": 7627,
      "Ġreduce": 7628,
      "guide": 7629,
      "Ġdynamic": 7630,
      ")}{\\": 7631,
      "Ġtypedef": 7632,
      "SV": 7633,
      "Ġconstants": 7634,
      "Counter": 7635,
      "Ð²": 7636,
      "ĠProcess": 7637,
      "Ġquas": 7638,
      "URCE": 7639,
      "Ġnavbar": 7640,
      "However": 7641,
      "ĠJul": 7642,
      "arily": 7643,
      "YY": 7644,
      "Ġimplemented": 7645,
      "mal": 7646,
      "Ġstudied": 7647,
      "Ã¶": 7648,
      "Consumer": 7649,
      "Ġscore": 7650,
      "toBe": 7651,
      "tl": 7652,
      "pointer": 7653,
      "/\">": 7654,
      "loading": 7655,
      "Ġactiv": 7656,
      "ĠWHERE": 7657,
      "mediately": 7658,
      "}}^": 7659,
      "Year": 7660,
      "HEAD": 7661,
      "Ġreleased": 7662,
      "avy": 7663,
      "ATOR": 7664,
      "Ġqual": 7665,
      "Div": 7666,
      "Ġcome": 7667,
      "\\/": 7668,
      "newcommand": 7669,
      "elements": 7670,
      "month": 7671,
      "Ġbundle": 7672,
      "oney": 7673,
      "Ġdig": 7674,
      "LIST": 7675,
      "dk": 7676,
      "ĠExt": 7677,
      "00000000": 7678,
      "Ġrepos": 7679,
      "Place": 7680,
      "periment": 7681,
      "ĠRemove": 7682,
      "Ġpul": 7683,
      "Ġaway": 7684,
      "references": 7685,
      "$~": 7686,
      "rac": 7687,
      "åĲ": 7688,
      "utdown": 7689,
      "Ġmerge": 7690,
      "ILD": 7691,
      "sig": 7692,
      "ĠMem": 7693,
      "gradient": 7694,
      "ĠHamiltonian": 7695,
      ")$-": 7696,
      "expression": 7697,
      "Ġspatial": 7698,
      "Ġfragment": 7699,
      "Ġ{},": 7700,
      "sn": 7701,
      "ience": 7702,
      "})$.": 7703,
      "Focus": 7704,
      "fake": 7705,
      "Complete": 7706,
      "Ġocc": 7707,
      "ducing": 7708,
      "ĠTemp": 7709,
      "Ġreflect": 7710,
      "Amount": 7711,
      "Cmd": 7712,
      "cto": 7713,
      "Ġstellar": 7714,
      "Ġgeometry": 7715,
      "reet": 7716,
      "Ġwater": 7717,
      "ĠclassName": 7718,
      "fff": 7719,
      "ĠHigh": 7720,
      "oser": 7721,
      "ess": 7722,
      "Errors": 7723,
      "Ġvectors": 7724,
      "inger": 7725,
      "related": 7726,
      "uffers": 7727,
      "ĠMult": 7728,
      "ĠMock": 7729,
      "Ġusually": 7730,
      "=$": 7731,
      "Look": 7732,
      "hl": 7733,
      "VID": 7734,
      "ATTR": 7735,
      "vg": 7736,
      "ĠDEFAULT": 7737,
      "repository": 7738,
      "contact": 7739,
      "corded": 7740,
      "encode": 7741,
      "Book": 7742,
      "erved": 7743,
      "ĠDescription": 7744,
      "Thus": 7745,
      "ierarchy": 7746,
      "Sec": 7747,
      ">;": 7748,
      "Ġindices": 7749,
      "Ġlatter": 7750,
      "150": 7751,
      "Ġmar": 7752,
      "ĠAbstract": 7753,
      "Ġconcept": 7754,
      "hance": 7755,
      "Columns": 7756,
      "Dependency": 7757,
      "Encoded": 7758,
      "ĠAny": 7759,
      "esh": 7760,
      "PY": 7761,
      "ased": 7762,
      "Ġsync": 7763,
      "Ġimpact": 7764,
      "Rows": 7765,
      "Touch": 7766,
      "Ġflex": 7767,
      "Bounds": 7768,
      "Ġgoal": 7769,
      "Ġpercent": 7770,
      "WIN": 7771,
      "MAP": 7772,
      "Ġ----------------------------------------------------------------": 7773,
      "AUT": 7774,
      "Border": 7775,
      "Export": 7776,
      "ĠMicrosoft": 7777,
      "olate": 7778,
      "imated": 7779,
      "Console": 7780,
      "Ġlocated": 7781,
      "Ġapplicable": 7782,
      "'(": 7783,
      "Ġfactors": 7784,
      "Insert": 7785,
      "Ġformation": 7786,
      "Ġcoordinate": 7787,
      "å®": 7788,
      "Ġconsists": 7789,
      "Ġopacity": 7790,
      "Messages": 7791,
      "LOW": 7792,
      "Ġwx": 7793,
      "Axis": 7794,
      "Timer": 7795,
      "ĠPage": 7796,
      "UMMARY": 7797,
      "Ġstation": 7798,
      "available": 7799,
      "ĉĉĉĉĉĉĉĉĉĉ": 7800,
      "Ġusage": 7801,
      "ĠResponse": 7802,
      "bert": 7803,
      "Ġfac": 7804,
      "DATE": 7805,
      "strip": 7806,
      "ociation": 7807,
      "adoc": 7808,
      "ĠLocal": 7809,
      "Ġloaded": 7810,
      "ji": 7811,
      "Ġprev": 7812,
      ".*;": 7813,
      "Prev": 7814,
      "fp": 7815,
      "urope": 7816,
      "berg": 7817,
      "React": 7818,
      "Private": 7819,
      "NR": 7820,
      "ĠThat": 7821,
      "Ġrelations": 7822,
      "Ġconduct": 7823,
      "Ġdeal": 7824,
      "Car": 7825,
      "ĠBar": 7826,
      "FL": 7827,
      "ĠColor": 7828,
      "subject": 7829,
      "Ġyields": 7830,
      "ĠGra": 7831,
      "Ġradio": 7832,
      "âĢĶ": 7833,
      "Ġreally": 7834,
      "Contents": 7835,
      "Ġunderlying": 7836,
      "eness": 7837,
      "ĠQuery": 7838,
      "ĠShe": 7839,
      "factor": 7840,
      "Ġintroduce": 7841,
      "ea": 7842,
      "ĠElement": 7843,
      "Vec": 7844,
      "Ġconnections": 7845,
      "oman": 7846,
      "relative": 7847,
      "OPT": 7848,
      "arante": 7849,
      "ski": 7850,
      "Ġassumed": 7851,
      "validation": 7852,
      "Ġprogra": 7853,
      "pb": 7854,
      "istog": 7855,
      "Pers": 7856,
      "Ġri": 7857,
      "oice": 7858,
      "Real": 7859,
      "Ġbuilding": 7860,
      "timestamp": 7861,
      "Ġexports": 7862,
      "Other": 7863,
      "sy": 7864,
      ";|": 7865,
      "Free": 7866,
      "ini": 7867,
      "ĠGaussian": 7868,
      "maps": 7869,
      "GroupName": 7870,
      "Ġowner": 7871,
      "Ġplayers": 7872,
      "Ġbi": 7873,
      "strings": 7874,
      "havior": 7875,
      "iency": 7876,
      "Errorf": 7877,
      "=[": 7878,
      "oung": 7879,
      "iverse": 7880,
      "\">(": 7881,
      "à¸": 7882,
      "MR": 7883,
      "RAY": 7884,
      "Ġformer": 7885,
      "ĠAug": 7886,
      "ENV": 7887,
      "Ġeff": 7888,
      "Ġemit": 7889,
      "ĠAccording": 7890,
      "ĠDOM": 7891,
      "ĠNov": 7892,
      "Ġdeveloped": 7893,
      "001": 7894,
      "Ġstable": 7895,
      "servable": 7896,
      "ĠUsing": 7897,
      "Ġdiagram": 7898,
      "contain": 7899,
      "Ġmeasurement": 7900,
      "variance": 7901,
      "phrase": 7902,
      "cert": 7903,
      "ises": 7904,
      "IV": 7905,
      "Ġmac": 7906,
      "Ġtimestamp": 7907,
      "ymmetric": 7908,
      "rev": 7909,
      "Sta": 7910,
      "\\|_{": 7911,
      "Ġmath": 7912,
      "uming": 7913,
      "mobile": 7914,
      "els": 7915,
      "scss": 7916,
      "libs": 7917,
      "mma": 7918,
      "Ġdash": 7919,
      "operation": 7920,
      "Ġdriver": 7921,
      "ette": 7922,
      "Theorem": 7923,
      "rant": 7924,
      "ĠEach": 7925,
      "className": 7926,
      "Drawing": 7927,
      "Ġremains": 7928,
      ",'": 7929,
      "syn": 7930,
      "Ġinteractions": 7931,
      "Ġvisual": 7932,
      "ĠConfiguration": 7933,
      "cknow": 7934,
      "Ġmicro": 7935,
      "UND": 7936,
      "intro": 7937,
      "Ġfront": 7938,
      "Ġosc": 7939,
      ")\\\\": 7940,
      "ĠDist": 7941,
      "ĠCommand": 7942,
      "ĠLjava": 7943,
      "Ġskip": 7944,
      "BUFFER": 7945,
      "uous": 7946,
      "__)": 7947,
      "Ġoffic": 7948,
      "mapsto": 7949,
      "ĠOnly": 7950,
      "usr": 7951,
      "$;": 7952,
      "phan": 7953,
      "Ġnotice": 7954,
      "=%": 7955,
      "}}^{": 7956,
      "Ġlittle": 7957,
      "ulator": 7958,
      "Card": 7959,
      "Ġtouch": 7960,
      "patcher": 7961,
      "irror": 7962,
      "}^*": 7963,
      "Timestamp": 7964,
      "canvas": 7965,
      "quant": 7966,
      "ilibri": 7967,
      "Ġrad": 7968,
      "ragma": 7969,
      "Ġ\">": 7970,
      "Ġbits": 7971,
      "crement": 7972,
      "]}": 7973,
      "ĠChange": 7974,
      "Effect": 7975,
      "ortun": 7976,
      "VICE": 7977,
      "Verify": 7978,
      "ucce": 7979,
      "ĠVALIGN": 7980,
      "_)": 7981,
      "Ġgalaxy": 7982,
      "Ġcity": 7983,
      "world": 7984,
      "Ð¼": 7985,
      "icks": 7986,
      "Ġtd": 7987,
      "ĠDelete": 7988,
      "anning": 7989,
      "Ġregard": 7990,
      "Frames": 7991,
      "Ġexplicitly": 7992,
      "Ġasymptot": 7993,
      "alg": 7994,
      "iteral": 7995,
      "Ġrecogn": 7996,
      ":'": 7997,
      "Ġdetect": 7998,
      "Holder": 7999,
      "ĠDO": 8000,
      "osity": 8001,
      "Inner": 8002,
      "abc": 8003,
      "ints": 8004,
      "Ġincreases": 8005,
      "ĠPost": 8006,
      "ĠYork": 8007,
      "bx": 8008,
      "SG": 8009,
      "Ġinflu": 8010,
      "execution": 8011,
      "Ġagreement": 8012,
      "Home": 8013,
      "Ġpreviously": 8014,
      "eting": 8015,
      "/*!": 8016,
      "ĠPub": 8017,
      "reme": 8018,
      "hest": 8019,
      "/.": 8020,
      "ills": 8021,
      "onic": 8022,
      "jet": 8023,
      "}))": 8024,
      "sr": 8025,
      "django": 8026,
      "Ġcreating": 8027,
      "INST": 8028,
      "jected": 8029,
      "Ġsquare": 8030,
      "Ø±": 8031,
      "BY": 8032,
      "Ġmiddle": 8033,
      "%,": 8034,
      "Information": 8035,
      "ĠJson": 8036,
      "ATCH": 8037,
      "formance": 8038,
      "fold": 8039,
      ")\",": 8040,
      "cfg": 8041,
      "Ġreplaced": 8042,
      "Ġreserved": 8043,
      "verify": 8044,
      "Ġproduce": 8045,
      "Ġendpoint": 8046,
      "power": 8047,
      "lationToken": 8048,
      "Ġnothing": 8049,
      "structions": 8050,
      "Same": 8051,
      "ĠCl": 8052,
      "Ġpack": 8053,
      "rapped": 8054,
      "Contains": 8055,
      "ÑģÑĤ": 8056,
      "ĠSUMMARY": 8057,
      "&=&": 8058,
      "127": 8059,
      "nos": 8060,
      "viewport": 8061,
      "Ġinitialize": 8062,
      "Ġdesired": 8063,
      "bur": 8064,
      "Transport": 8065,
      "Ġgoogle": 8066,
      "overnor": 8067,
      "Ġmixed": 8068,
      "Library": 8069,
      "Future": 8070,
      "RESULT": 8071,
      "Îµ": 8072,
      "CDATA": 8073,
      "ĠCSS": 8074,
      "ights": 8075,
      "(()": 8076,
      "peated": 8077,
      "Ġdriv": 8078,
      "Accept": 8079,
      "Ġnotation": 8080,
      "Ġgrant": 8081,
      "Phys": 8082,
      "design": 8083,
      "Ġimg": 8084,
      "hbox": 8085,
      "Loop": 8086,
      "atar": 8087,
      "Ġhelper": 8088,
      "Ġcontrast": 8089,
      "Tile": 8090,
      "Ġfi": 8091,
      "wbr": 8092,
      "(\"%": 8093,
      "proposition": 8094,
      "ĠAndroid": 8095,
      "Face": 8096,
      "Ġparallel": 8097,
      "DEX": 8098,
      "bro": 8099,
      "Ġextend": 8100,
      "expand": 8101,
      ";|&": 8102,
      "ano": 8103,
      "\\{\\": 8104,
      "IAL": 8105,
      "artesian": 8106,
      "getInstance": 8107,
      "DR": 8108,
      "Bottom": 8109,
      "esome": 8110,
      "Ġoccurs": 8111,
      "irmed": 8112,
      "ĠServer": 8113,
      "Ġaddresses": 8114,
      "These": 8115,
      "Ġefficient": 8116,
      "ĠPa": 8117,
      "Ġupon": 8118,
      "complex": 8119,
      "CB": 8120,
      "series": 8121,
      "ĠCreates": 8122,
      "ĠCG": 8123,
      "remarks": 8124,
      "fol": 8125,
      "amo": 8126,
      ">()": 8127,
      "ArrayList": 8128,
      "Go": 8129,
      "TableRow": 8130,
      "Ġestimated": 8131,
      "clusive": 8132,
      "ague": 8133,
      "Î¹": 8134,
      "Overview": 8135,
      "Ġexistence": 8136,
      "Ġobserve": 8137,
      "ASE": 8138,
      "CM": 8139,
      "columns": 8140,
      "Ġ<-": 8141,
      "Ġpayload": 8142,
      "Center": 8143,
      "Ġmechanism": 8144,
      "paper": 8145,
      "Ġpublished": 8146,
      "Ġrecur": 8147,
      "watch": 8148,
      "iral": 8149,
      "heading": 8150,
      "ĠComponent": 8151,
      "******": 8152,
      "Ġmaster": 8153,
      "vol": 8154,
      "Ġembedding": 8155,
      "ĠCustom": 8156,
      "WEBPACK": 8157,
      "ĠIndi": 8158,
      "compute": 8159,
      "topic": 8160,
      "Ġslight": 8161,
      "olic": 8162,
      "Ġpod": 8163,
      "ĠLink": 8164,
      "Ġpatch": 8165,
      "Reset": 8166,
      "Ġothers": 8167,
      "ĠArgument": 8168,
      "blog": 8169,
      "createElement": 8170,
      ">'": 8171,
      "miss": 8172,
      "Ġmasses": 8173,
      "about": 8174,
      "Ġindicate": 8175,
      "Ġtranslation": 8176,
      "rier": 8177,
      "TY": 8178,
      "ĠThread": 8179,
      "vant": 8180,
      "algorithm": 8181,
      "[-": 8182,
      "Some": 8183,
      "LICENSE": 8184,
      "åħ": 8185,
      "displaystyle": 8186,
      "Ġcompany": 8187,
      "ĠGo": 8188,
      "partment": 8189,
      "cks": 8190,
      "Ñĩ": 8191,
      "ĠWar": 8192,
      "Ġ$_": 8193,
      "RT": 8194,
      "Ġ```": 8195,
      "iner": 8196,
      "blob": 8197,
      "ĠSE": 8198,
      "Ġappears": 8199,
      "Bool": 8200,
      "Arguments": 8201,
      "Ġarr": 8202,
      "vanced": 8203,
      "Ġmetrics": 8204,
      "Switch": 8205,
      "Ġquality": 8206,
      "Split": 8207,
      "cursor": 8208,
      "Ġgeneration": 8209,
      "uber": 8210,
      "dark": 8211,
      "SW": 8212,
      "spin": 8213,
      "Ġcells": 8214,
      "ĠOutput": 8215,
      "Ġdetailed": 8216,
      "ĠWest": 8217,
      "IMPORTED": 8218,
      "Drag": 8219,
      "generator": 8220,
      "apes": 8221,
      "Ġcos": 8222,
      "Exists": 8223,
      "ĠðŁ": 8224,
      "loating": 8225,
      "POS": 8226,
      "ĠSearch": 8227,
      "ĠFind": 8228,
      "Ġcalculation": 8229,
      "Ġestimates": 8230,
      "!!": 8231,
      "logging": 8232,
      "ĠContent": 8233,
      "}&": 8234,
      "wt": 8235,
      "seudo": 8236,
      "Ġapproaches": 8237,
      "mn": 8238,
      "Ġcontained": 8239,
      "stral": 8240,
      "repo": 8241,
      "(['": 8242,
      "Ġadopt": 8243,
      "sem": 8244,
      "Runner": 8245,
      "TAG": 8246,
      "Ġmusic": 8247,
      "Ġuri": 8248,
      "grees": 8249,
      "Ġdetected": 8250,
      "Ġvanish": 8251,
      "Ġsupports": 8252,
      "fect": 8253,
      "Ġfetch": 8254,
      "Tasks": 8255,
      "lapsed": 8256,
      "cccc": 8257,
      "ki": 8258,
      "Hz": 8259,
      "COMM": 8260,
      "Ġmis": 8261,
      "eli": 8262,
      "Ġclassification": 8263,
      "ĠassertTrue": 8264,
      "Ġscattering": 8265,
      "Ġrecomm": 8266,
      "decor": 8267,
      "unn": 8268,
      "ĠApplication": 8269,
      "Pixel": 8270,
      "('<": 8271,
      "Optional": 8272,
      "ĠWindows": 8273,
      "Ġwatch": 8274,
      "Points": 8275,
      "states": 8276,
      "Deprecated": 8277,
      "ura": 8278,
      "Ġsizes": 8279,
      "Ġrates": 8280,
      "Ġoptimization": 8281,
      "ani": 8282,
      "Ġlogging": 8283,
      "gz": 8284,
      "Shared": 8285,
      "Zone": 8286,
      "Aggreg": 8287,
      "ACH": 8288,
      "Converter": 8289,
      "bust": 8290,
      "Ġcommands": 8291,
      "Ġ--></": 8292,
      "solr": 8293,
      "ĠSimple": 8294,
      "Ġlayers": 8295,
      "Stub": 8296,
      "sdk": 8297,
      "Ġharmon": 8298,
      "Depth": 8299,
      "km": 8300,
      "Ġbelie": 8301,
      "Ġpure": 8302,
      "Ġweights": 8303,
      "ĠOrig": 8304,
      "Ġland": 8305,
      "Ġdevi": 8306,
      "pages": 8307,
      "constraint": 8308,
      "Ġanalog": 8309,
      "ĠVis": 8310,
      "remote": 8311,
      "Shader": 8312,
      "Ġaudio": 8313,
      "Ġhappen": 8314,
      "Ġmodal": 8315,
      "ĠDirect": 8316,
      "Virtual": 8317,
      "Ġant": 8318,
      "Ġimmediately": 8319,
      "ĠSci": 8320,
      "decl": 8321,
      "warn": 8322,
      "serialize": 8323,
      "Ġsignificantly": 8324,
      "Ġdisable": 8325,
      "phase": 8326,
      "ampa": 8327,
      "Ġalbum": 8328,
      "Ġissues": 8329,
      "erial": 8330,
      "ingu": 8331,
      "sent": 8332,
      "ATED": 8333,
      "Ġminimal": 8334,
      "Ġaggreg": 8335,
      "ensed": 8336,
      "RUN": 8337,
      "Ġol": 8338,
      "Ġaria": 8339,
      "general": 8340,
      "ĠIter": 8341,
      "Ġstats": 8342,
      "Metrics": 8343,
      "Ġaffect": 8344,
      "jax": 8345,
      "amazonaws": 8346,
      "Ġlimited": 8347,
      "Ġclusters": 8348,
      "Ġgets": 8349,
      "License": 8350,
      "Ġinfinite": 8351,
      "Expected": 8352,
      "Ġfib": 8353,
      "Ġ{%": 8354,
      "Standard": 8355,
      "Ġjoin": 8356,
      "standard": 8357,
      "integr": 8358,
      "TIES": 8359,
      "Ġmorph": 8360,
      "ipage": 8361,
      "ĠAppend": 8362,
      "Ġvm": 8363,
      "altColor": 8364,
      "direction": 8365,
      "Ġmodules": 8366,
      "ĉĉĠĠĠ": 8367,
      "180": 8368,
      "Ġruns": 8369,
      "urable": 8370,
      "ĠLa": 8371,
      "illing": 8372,
      "Material": 8373,
      "Ġconvergence": 8374,
      "ĠContext": 8375,
      "Light": 8376,
      "audio": 8377,
      "ĠĠĠĠĠĠĠĠĠĠĠĠĠĠĠĠĠĠĠĠĠĠĠĠĠĠĠĠĠĠĠĠĠĠ": 8378,
      "Ġrepresented": 8379,
      "Ġalias": 8380,
      "ilibrium": 8381,
      "Caml": 8382,
      "Two": 8383,
      "anchor": 8384,
      "1998": 8385,
      "tik": 8386,
      "Ġdestination": 8387,
      "ups": 8388,
      "000000": 8389,
      "cassandra": 8390,
      "HOME": 8391,
      "Ġstra": 8392,
      "Ġouter": 8393,
      "Ġcontributions": 8394,
      "OutputStream": 8395,
      "Arch": 8396,
      "icate": 8397,
      "sur": 8398,
      "rad": 8399,
      "Ġadding": 8400,
      "ĠFrame": 8401,
      "Ġcompleted": 8402,
      "anch": 8403,
      "Vari": 8404,
      "PREF": 8405,
      "ĠOp": 8406,
      "Ġcompatible": 8407,
      "BIT": 8408,
      "DM": 8409,
      "ĉĉĉĉĊ": 8410,
      "ĠUN": 8411,
      "Site": 8412,
      "Ġthings": 8413,
      "Random": 8414,
      "moment": 8415,
      "Fil": 8416,
      "Ġidea": 8417,
      "Ġpressure": 8418,
      "ĠWARRANTIES": 8419,
      "Ġscaling": 8420,
      "isions": 8421,
      "Ġamplitude": 8422,
      "Ġhealth": 8423,
      "interval": 8424,
      "Reason": 8425,
      "Ġ|=": 8426,
      "è¯": 8427,
      "Ġfrag": 8428,
      "Ġmouse": 8429,
      "Ġloading": 8430,
      "Ġip": 8431,
      "NA": 8432,
      "Ġcalling": 8433,
      "asy": 8434,
      "Ð¾Ð²": 8435,
      "Been": 8436,
      "Ġ'\"": 8437,
      "ĠĠĠĠĠĠĠĠĠĠĠĠĠĠĠĠĠĠĠĠĊ": 8438,
      "tooltip": 8439,
      "mf": 8440,
      "ĠLib": 8441,
      "erman": 8442,
      "Ġguarante": 8443,
      "Ġpull": 8444,
      "Present": 8445,
      "Ġsuccessfully": 8446,
      "Coin": 8447,
      "Ġbecame": 8448,
      "Ġshare": 8449,
      "Promise": 8450,
      ">%": 8451,
      "hpp": 8452,
      "ĠParse": 8453,
      "etween": 8454,
      "repeat": 8455,
      "deep": 8456,
      "wallet": 8457,
      "Declaration": 8458,
      "Ġcalculations": 8459,
      "GO": 8460,
      "Ġinvol": 8461,
      "uge": 8462,
      "Ġstrength": 8463,
      "ĠSum": 8464,
      "Ro": 8465,
      "Ġexpand": 8466,
      "]+": 8467,
      ")}_{": 8468,
      "Ġfs": 8469,
      "(/": 8470,
      "Cor": 8471,
      "ĠCOL": 8472,
      "Fore": 8473,
      "alytics": 8474,
      "Ġpie": 8475,
      "ners": 8476,
      "TF": 8477,
      "Ġrequested": 8478,
      "Ġkin": 8479,
      "Ġparsed": 8480,
      "Ġair": 8481,
      "Ġschool": 8482,
      "Transition": 8483,
      "hbar": 8484,
      "Ġcombination": 8485,
      "Ġbalance": 8486,
      "ãĢĤ": 8487,
      "Ġversions": 8488,
      "codec": 8489,
      "za": 8490,
      "Ġoffer": 8491,
      "ĠGeneral": 8492,
      "ĠAuth": 8493,
      "(--": 8494,
      "Tuple": 8495,
      "Enable": 8496,
      "bing": 8497,
      "pending": 8498,
      "125": 8499,
      "Ġonline": 8500,
      "Ġanswer": 8501,
      "Ġwidget": 8502,
      "REE": 8503,
      "Android": 8504,
      "Snapshot": 8505,
      "writer": 8506,
      "getType": 8507,
      "1234": 8508,
      "tegr": 8509,
      "ris": 8510,
      "iming": 8511,
      "har": 8512,
      "Ty": 8513,
      "Ġcb": 8514,
      "UST": 8515,
      "Ġslow": 8516,
      "ĠLine": 8517,
      "Ġdialog": 8518,
      "Ġauthors": 8519,
      "ĠCoq": 8520,
      "Ġlumin": 8521,
      "ighest": 8522,
      "Ġchannels": 8523,
      "Day": 8524,
      "Ġonto": 8525,
      "Ġoptical": 8526,
      "Decimal": 8527,
      "omy": 8528,
      "ĠWhile": 8529,
      "}{|": 8530,
      "DELETE": 8531,
      "ots": 8532,
      "ä½": 8533,
      "HS": 8534,
      "Ġquick": 8535,
      "ibly": 8536,
      "ilit": 8537,
      "}$)": 8538,
      "Mac": 8539,
      "Ġdifferential": 8540,
      "ĠSchool": 8541,
      "SPAN": 8542,
      "Mut": 8543,
      "COUN": 8544,
      "Ignore": 8545,
      "SOURCE": 8546,
      "Ġprediction": 8547,
      "cli": 8548,
      "Ġprojection": 8549,
      "Introduction": 8550,
      "1024": 8551,
      "%\"><": 8552,
      "cached": 8553,
      "fav": 8554,
      "delay": 8555,
      "ĠBuilder": 8556,
      "ott": 8557,
      "labels": 8558,
      "Ġgenerator": 8559,
      ",.": 8560,
      "Qual": 8561,
      "Ġplaceholder": 8562,
      "Ġax": 8563,
      "Ġring": 8564,
      "_-": 8565,
      "$),": 8566,
      "Ġknowledge": 8567,
      "UES": 8568,
      "ĠĠĠĠĠĠĠĠĠĠĠĠĠĠĠĠĠĠĠĠĠĠĠĠĠĠĠĠĠĠĠĠĠĠĠĠ": 8569,
      "Bits": 8570,
      "ĠGame": 8571,
      "odes": 8572,
      "Ġpick": 8573,
      "Ġpacket": 8574,
      "minipage": 8575,
      "ocused": 8576,
      "ĠRout": 8577,
      "Ġcomes": 8578,
      "iversal": 8579,
      "Ġbehavi": 8580,
      "rules": 8581,
      "ustral": 8582,
      "itivity": 8583,
      "Ġchart": 8584,
      "Ġmagnitude": 8585,
      "GIN": 8586,
      "aps": 8587,
      "}}$,": 8588,
      "ĠSTART": 8589,
      "Bro": 8590,
      "FOR": 8591,
      "IMIT": 8592,
      "Ġpages": 8593,
      "ARD": 8594,
      "110": 8595,
      "Pojo": 8596,
      "Ġformal": 8597,
      "Ġidentified": 8598,
      "Ġestablished": 8599,
      "gif": 8600,
      "Ġcast": 8601,
      "Ġunion": 8602,
      "Watch": 8603,
      "Ġrepository": 8604,
      "Ġdescriptor": 8605,
      "getMessage": 8606,
      "well": 8607,
      "Ġtell": 8608,
      "istr": 8609,
      ".',": 8610,
      "niques": 8611,
      "Authentication": 8612,
      "LEMENT": 8613,
      "Ġiterator": 8614,
      ":=": 8615,
      "Ġrepresenting": 8616,
      "Ġwhy": 8617,
      "ĠCounty": 8618,
      "Cho": 8619,
      "Ġscenario": 8620,
      "Ġboost": 8621,
      "XXXX": 8622,
      "Ġiget": 8623,
      "uel": 8624,
      "ĠNetwork": 8625,
      "Ġcached": 8626,
      "olation": 8627,
      "fast": 8628,
      "Idx": 8629,
      "ĠBuffer": 8630,
      "Ġcircle": 8631,
      "priv": 8632,
      "rtl": 8633,
      "Ġevaluate": 8634,
      "amental": 8635,
      "ĠĠĠĠĠĠĠĠĠĠĠĠĠĠĠĠĠĠĠĠĠĠĠĠĠĠĠĠĠĠĠĠĠĠĠĠĠ": 8636,
      "})$,": 8637,
      "ĠReference": 8638,
      "slash": 8639,
      "}}$.": 8640,
      "Ġhel": 8641,
      "Delay": 8642,
      "Ġdestroy": 8643,
      "Ġenumer": 8644,
      "lider": 8645,
      "Ġgoto": 8646,
      "Ġtopic": 8647,
      "square": 8648,
      "Ġexchange": 8649,
      "nl": 8650,
      "FALSE": 8651,
      "Ġcompiler": 8652,
      "Î½": 8653,
      "Ð´": 8654,
      "ĠAws": 8655,
      "UEST": 8656,
      "Person": 8657,
      "Ġhypo": 8658,
      "ussion": 8659,
      "ille": 8660,
      "æķ": 8661,
      ")+\\": 8662,
      "ĠFOR": 8663,
      "ima": 8664,
      "router": 8665,
      "Ġdistinct": 8666,
      "Ġsections": 8667,
      "latest": 8668,
      "Extensions": 8669,
      "Ġdelta": 8670,
      "Ġmolec": 8671,
      "Locale": 8672,
      "even": 8673,
      "connected": 8674,
      "photon": 8675,
      "Ġgain": 8676,
      "Month": 8677,
      "Ġdst": 8678,
      "Collect": 8679,
      "such": 8680,
      "ampaign": 8681,
      "Executor": 8682,
      "ĠInc": 8683,
      "eg": 8684,
      "Ġdiscussion": 8685,
      "ARNING": 8686,
      "NC": 8687,
      "omite": 8688,
      "ĠBOOST": 8689,
      "ĠByte": 8690,
      "Convert": 8691,
      "Ġhouse": 8692,
      "refs": 8693,
      "Term": 8694,
      "Ġgenerally": 8695,
      "kernel": 8696,
      "Ġneg": 8697,
      "Ġparticip": 8698,
      "Ġfo": 8699,
      "sun": 8700,
      "mix": 8701,
      "pot": 8702,
      "Controls": 8703,
      "Ġoverflow": 8704,
      "PROC": 8705,
      "(\"\\": 8706,
      "omitempty": 8707,
      "Direction": 8708,
      "WA": 8709,
      "Ġfav": 8710,
      "nology": 8711,
      "cryption": 8712,
      "oted": 8713,
      "Ġabsor": 8714,
      "sequently": 8715,
      "ĠArt": 8716,
      "RC": 8717,
      "derr": 8718,
      "embed": 8719,
      "exclude": 8720,
      "servation": 8721,
      "Ġcommunity": 8722,
      "ĠSouth": 8723,
      "notify": 8724,
      "datetime": 8725,
      "Ġadjust": 8726,
      "PROP": 8727,
      "Ġwalk": 8728,
      "ords": 8729,
      "Fixed": 8730,
      "ogeneous": 8731,
      "Asset": 8732,
      "TRAN": 8733,
      "ĠCity": 8734,
      "dump": 8735,
      "Ġdepending": 8736,
      "Ġ-=": 8737,
      "ĠLoad": 8738,
      "ysql": 8739,
      "\"];": 8740,
      "RECT": 8741,
      "pecially": 8742,
      "Ġhighlight": 8743,
      "Ġ{$": 8744,
      "Ġquadr": 8745,
      "linux": 8746,
      "Ġreson": 8747,
      "Bucket": 8748,
      "links": 8749,
      "getString": 8750,
      "iring": 8751,
      "ĠMO": 8752,
      "paragraph": 8753,
      "Execute": 8754,
      "encoding": 8755,
      "ĠURI": 8756,
      "zen": 8757,
      "Diagnostics": 8758,
      "Ġinverse": 8759,
      "ĠRob": 8760,
      "Ġfolder": 8761,
      "CCESS": 8762,
      "Ġprintf": 8763,
      "ĠBrit": 8764,
      "Ġestablish": 8765,
      "Ġbra": 8766,
      "GP": 8767,
      "tained": 8768,
      "Cast": 8769,
      "Ġobservation": 8770,
      "unlock": 8771,
      "}\",": 8772,
      "================================================================": 8773,
      "ĠĠčĊ": 8774,
      "ulations": 8775,
      "Ġoverall": 8776,
      "getClass": 8777,
      "loss": 8778,
      "binding": 8779,
      "Ġaapt": 8780,
      "actual": 8781,
      "Ġ(%": 8782,
      "<>();": 8783,
      "Ġcreation": 8784,
      ":}": 8785,
      "Actions": 8786,
      "dicate": 8787,
      "Ġchecked": 8788,
      "uplicate": 8789,
      "Ġlive": 8790,
      "shell": 8791,
      "Linear": 8792,
      "tic": 8793,
      "fb": 8794,
      "Ġfire": 8795,
      "surface": 8796,
      "clip": 8797,
      "binary": 8798,
      "Master": 8799,
      "Ġvary": 8800,
      "ĠUtil": 8801,
      "attle": 8802,
      "Ġalthough": 8803,
      "atistical": 8804,
      "ecause": 8805,
      "}{(": 8806,
      "decla": 8807,
      "jackson": 8808,
      "Ġem": 8809,
      "relation": 8810,
      "Sm": 8811,
      "chunk": 8812,
      "folder": 8813,
      "äº": 8814,
      "Ġvs": 8815,
      "Ġinvok": 8816,
      "Ġcompletely": 8817,
      "ĠÐ²": 8818,
      "TableRowColor": 8819,
      "vertex": 8820,
      ")-\\": 8821,
      "Ġ\"'": 8822,
      "previous": 8823,
      "Ġion": 8824,
      "alog": 8825,
      "Dom": 8826,
      "examples": 8827,
      "Ġund": 8828,
      "hook": 8829,
      "ĠClasses": 8830,
      "Ġneutr": 8831,
      "vention": 8832,
      "agg": 8833,
      "foreach": 8834,
      "translate": 8835,
      "uv": 8836,
      "will": 8837,
      "thern": 8838,
      "cls": 8839,
      "Ġdx": 8840,
      "twitter": 8841,
      "ĠPython": 8842,
      "Ġ[\\": 8843,
      "iggs": 8844,
      "Servlet": 8845,
      "Ġconstructed": 8846,
      "Ġseparate": 8847,
      "kin": 8848,
      "Ġdetector": 8849,
      "danger": 8850,
      "Ġproducts": 8851,
      "Ġ'''": 8852,
      "600": 8853,
      "}({\\": 8854,
      "Ġtrain": 8855,
      "ILITY": 8856,
      "Ġreferences": 8857,
      "Ġask": 8858,
      "Ġsuit": 8859,
      "|_{": 8860,
      "ients": 8861,
      "AVE": 8862,
      "tikz": 8863,
      "ENABLE": 8864,
      "googleapis": 8865,
      "Commit": 8866,
      "cores": 8867,
      "DP": 8868,
      "pragma": 8869,
      "Ġcountry": 8870,
      "Ġintegration": 8871,
      "Ġexclude": 8872,
      "BASE": 8873,
      "rial": 8874,
      "program": 8875,
      "ivery": 8876,
      "ye": 8877,
      "ĠStream": 8878,
      "Missing": 8879,
      "Ġalert": 8880,
      "><!--": 8881,
      "clusions": 8882,
      "rams": 8883,
      "metric": 8884,
      "Ġpositions": 8885,
      "Ġ$|\\": 8886,
      "Ġexplan": 8887,
      "ĠRecord": 8888,
      "Copyright": 8889,
      "Ġfluctu": 8890,
      "UBLIC": 8891,
      "Ġgraphs": 8892,
      "Uses": 8893,
      "ĠAmazon": 8894,
      "FLAG": 8895,
      "Ġbug": 8896,
      "mms": 8897,
      "HOUT": 8898,
      "Supported": 8899,
      "LY": 8900,
      "dst": 8901,
      "Ġlimits": 8902,
      "ĠOS": 8903,
      "Ġtheme": 8904,
      "Ġquite": 8905,
      "ĠMain": 8906,
      "Ġrecords": 8907,
      "StringBuilder": 8908,
      "ĠApr": 8909,
      "Ġassigned": 8910,
      "Ġeffic": 8911,
      "Lat": 8912,
      "ĠVar": 8913,
      "ida": 8914,
      "Ġpolit": 8915,
      "Ġimprove": 8916,
      "governor": 8917,
      "ĠHandle": 8918,
      "Ġarticle": 8919,
      "DTD": 8920,
      "Ġhole": 8921,
      "$_{": 8922,
      "FileName": 8923,
      "World": 8924,
      "peech": 8925,
      "Ġconsequence": 8926,
      "LAY": 8927,
      "GEN": 8928,
      "Ġsocial": 8929,
      "Emit": 8930,
      "cong": 8931,
      "Ġreading": 8932,
      "aui": 8933,
      "aching": 8934,
      "Ms": 8935,
      "Rot": 8936,
      "è¿": 8937,
      "fragment": 8938,
      "Replace": 8939,
      "ĠPort": 8940,
      "BS": 8941,
      "TEGER": 8942,
      "arc": 8943,
      "person": 8944,
      "ollowing": 8945,
      "istogram": 8946,
      "ĠFoundation": 8947,
      "INVALID": 8948,
      "pres": 8949,
      "EY": 8950,
      "ĠMc": 8951,
      "Management": 8952,
      "Owner": 8953,
      "Ġ'#": 8954,
      "avel": 8955,
      "Ã³n": 8956,
      "acle": 8957,
      "Ġcard": 8958,
      "isted": 8959,
      "Chunk": 8960,
      "/(": 8961,
      "ĠCons": 8962,
      "ubble": 8963,
      "ĠLogger": 8964,
      "ĠEurope": 8965,
      "Ġlargest": 8966,
      "Ã£": 8967,
      "swing": 8968,
      "Ġexperience": 8969,
      "ĠRuntime": 8970,
      "Calendar": 8971,
      "ĠBack": 8972,
      "Ä±": 8973,
      "ĉĠĠĠĠ": 8974,
      "Ġtools": 8975,
      "edu": 8976,
      "concat": 8977,
      "Ġdeath": 8978,
      "pring": 8979,
      "Ġconfirm": 8980,
      "%%%%%%%%": 8981,
      "ĠSelect": 8982,
      "Finally": 8983,
      "Ġfunctional": 8984,
      "Ġ&#": 8985,
      ")}}": 8986,
      "ĠCH": 8987,
      "Ġdt": 8988,
      "Ġcolspan": 8989,
      "âĢ¦": 8990,
      "Ġusername": 8991,
      "Ġ---": 8992,
      "Ïĥ": 8993,
      "Ġsimpl": 8994,
      "Ġmeaning": 8995,
      "eval": 8996,
      "åĬ": 8997,
      "Ġinduced": 8998,
      "ourier": 8999,
      "lege": 9000,
      "front": 9001,
      "tached": 9002,
      "requency": 9003,
      "goog": 9004,
      "Ġwrapper": 9005,
      "bucket": 9006,
      "annotations": 9007,
      "ptember": 9008,
      "Ġschedule": 9009,
      "Ġtowards": 9010,
      "ĠSec": 9011,
      "illis": 9012,
      "dig": 9013,
      "Ġdrag": 9014,
      "BUILD": 9015,
      "aret": 9016,
      "specific": 9017,
      "HashMap": 9018,
      "flush": 9019,
      "Packet": 9020,
      "Ġten": 9021,
      "Ġbinding": 9022,
      "quired": 9023,
      "Ġbeam": 9024,
      "cross": 9025,
      "thumb": 9026,
      "$:": 9027,
      "Ġnor": 9028,
      "Ġstrongly": 9029,
      "Ġcycle": 9030,
      "yond": 9031,
      "Ġevaluation": 9032,
      "Ġhit": 9033,
      "SN": 9034,
      "ongo": 9035,
      "Ġfails": 9036,
      "cref": 9037,
      "mann": 9038,
      "Ġexpressions": 9039,
      "Ġpipeline": 9040,
      "tended": 9041,
      "ĠFALSE": 9042,
      "\"/></": 9043,
      "phere": 9044,
      "Ġfollowed": 9045,
      "Therefore": 9046,
      "BOOL": 9047,
      "bundle": 9048,
      "Ġcm": 9049,
      "tail": 9050,
      "Ġvac": 9051,
      "ExternalTask": 9052,
      "ĠVirtual": 9053,
      "ĠBig": 9054,
      "Ġimplied": 9055,
      "Available": 9056,
      "ĠCHE": 9057,
      "what": 9058,
      "Ġscales": 9059,
      "organ": 9060,
      "Matcher": 9061,
      "Ġ'@": 9062,
      "otes": 9063,
      "Loading": 9064,
      "Ġtechniques": 9065,
      "ĠDef": 9066,
      "percent": 9067,
      ",âĢĿ": 9068,
      "âĶ": 9069,
      "ĠJS": 9070,
      "Zero": 9071,
      "rich": 9072,
      "bigl": 9073,
      "Ġrecently": 9074,
      "Ġattention": 9075,
      "Ġ'_": 9076,
      "Ġtransactions": 9077,
      "Ġgrowth": 9078,
      "kes": 9079,
      "brace": 9080,
      "ĠAccess": 9081,
      "ĠSM": 9082,
      "Writ": 9083,
      "Chart": 9084,
      ">(<": 9085,
      "prot": 9086,
      "ĠON": 9087,
      "ĠPackage": 9088,
      "mean": 9089,
      "features": 9090,
      "Ġener": 9091,
      "room": 9092,
      "Ġclone": 9093,
      "verb": 9094,
      "ancy": 9095,
      "unce": 9096,
      "period": 9097,
      "ĠImmutable": 9098,
      "^*$": 9099,
      "Ġstraight": 9100,
      "Cook": 9101,
      "ExternalTaskPojo": 9102,
      "measure": 9103,
      "Ġcomplexity": 9104,
      "Ġassembly": 9105,
      "Ġmanagement": 9106,
      "slide": 9107,
      "icies": 9108,
      "Ġlemma": 9109,
      "Ġinc": 9110,
      "ims": 9111,
      "Ġattempt": 9112,
      "Ġpixels": 9113,
      "GN": 9114,
      "Ġsaved": 9115,
      "Ġ^{": 9116,
      "ctober": 9117,
      "ĠFinally": 9118,
      "currency": 9119,
      "ĠPromise": 9120,
      "Ġsound": 9121,
      "uli": 9122,
      "ĠâĢĺ": 9123,
      "Kit": 9124,
      "Phone": 9125,
      "Diff": 9126,
      "Ġ#{": 9127,
      "}\\,\\": 9128,
      "Ġconc": 9129,
      "))$": 9130,
      "ĠEl": 9131,
      "Ġcanonical": 9132,
      "sat": 9133,
      "poi": 9134,
      "LOAD": 9135,
      "ÙĨ": 9136,
      "Ġspecies": 9137,
      "Ġexpla": 9138,
      "Ġshell": 9139,
      "regex": 9140,
      "=&": 9141,
      "ocker": 9142,
      "Ġnucle": 9143,
      "Period": 9144,
      "Ġns": 9145,
      "ĠLic": 9146,
      "005": 9147,
      "ĠNorth": 9148,
      "plus": 9149,
      "concurrent": 9150,
      "DER": 9151,
      "AF": 9152,
      "Ġdevices": 9153,
      "×ķ": 9154,
      "Ġentropy": 9155,
      "ARRAY": 9156,
      "uiltin": 9157,
      "@{": 9158,
      "Under": 9159,
      "pto": 9160,
      "Ġbusiness": 9161,
      "bean": 9162,
      "Ġpriv": 9163,
      "Ġcellpadding": 9164,
      "CUR": 9165,
      "LIN": 9166,
      "uum": 9167,
      "share": 9168,
      "Doctrine": 9169,
      "RESS": 9170,
      "gies": 9171,
      "multip": 9172,
      "aven": 9173,
      "dynamic": 9174,
      "Ġbene": 9175,
      "Dynamic": 9176,
      "ADDING": 9177,
      "ĠEV": 9178,
      "Rules": 9179,
      "ĠRet": 9180,
      "Ġdiscrete": 9181,
      "Ġ\"${": 9182,
      "101": 9183,
      "Ġtraject": 9184,
      "Dev": 9185,
      "FORMAT": 9186,
      "Ġnature": 9187,
      "Ġconversion": 9188,
      "ĠTho": 9189,
      "XY": 9190,
      "listener": 9191,
      "Upload": 9192,
      "igr": 9193,
      "Given": 9194,
      "Ġreduction": 9195,
      "covered": 9196,
      "Ġdatasets": 9197,
      "Series": 9198,
      "trins": 9199,
      "NameLink": 9200,
      "Literal": 9201,
      "Ġsafe": 9202,
      "ĠUs": 9203,
      "Ġsigned": 9204,
      "}})": 9205,
      "addClass": 9206,
      "ĠPoint": 9207,
      "eb": 9208,
      "ney": 9209,
      "parallel": 9210,
      "typ": 9211,
      "decode": 9212,
      "ĠSign": 9213,
      "zh": 9214,
      "ĠModule": 9215,
      "Ġodd": 9216,
      "timer": 9217,
      "RED": 9218,
      "Formatter": 9219,
      "Sch": 9220,
      "Ð¿": 9221,
      "250": 9222,
      "Sharp": 9223,
      "noframe": 9224,
      "veal": 9225,
      "ĠShow": 9226,
      "ĠSend": 9227,
      "Ġstat": 9228,
      "Ġtypically": 9229,
      "Ġcyc": 9230,
      "----------": 9231,
      "SPAC": 9232,
      "scape": 9233,
      "Ġliteral": 9234,
      "Unique": 9235,
      "TOM": 9236,
      "Ġupdates": 9237,
      "Cannot": 9238,
      "Ġmid": 9239,
      "Ġdecomposition": 9240,
      "Ġcls": 9241,
      "ORK": 9242,
      "logies": 9243,
      "Marker": 9244,
      "Ġfoo": 9245,
      "ĠCHECK": 9246,
      "!\\": 9247,
      "lesssim": 9248,
      "Instruction": 9249,
      "Created": 9250,
      "calcul": 9251,
      "Ġgovernment": 9252,
      "lisher": 9253,
      "ĠÑģ": 9254,
      "pod": 9255,
      "Ġregime": 9256,
      "Ġcontract": 9257,
      "\\;": 9258,
      "CREATE": 9259,
      "Ġqueries": 9260,
      "\":\"": 9261,
      "Ġpurpose": 9262,
      "history": 9263,
      "ĠIR": 9264,
      "Geometry": 9265,
      "ĠKEY": 9266,
      "__,": 9267,
      "Ġtheoretical": 9268,
      "å¤": 9269,
      "refresh": 9270,
      "linked": 9271,
      "9999": 9272,
      "ĠSerial": 9273,
      "Ġcellspacing": 9274,
      "bigr": 9275,
      "************************************************************************": 9276,
      "ought": 9277,
      "umptions": 9278,
      "Ġce": 9279,
      "Dat": 9280,
      "Ġdefines": 9281,
      "Machine": 9282,
      "]->": 9283,
      "ĠMarch": 9284,
      "uffix": 9285,
      "middle": 9286,
      "Ġcompet": 9287,
      "Ġbucket": 9288,
      "Ġlimitations": 9289,
      "lications": 9290,
      "'ll": 9291,
      "hd": 9292,
      "Ġsec": 9293,
      "Equ": 9294,
      "ĠEqu": 9295,
      "includes": 9296,
      "Ġ\\&": 9297,
      "Ã£o": 9298,
      "!</": 9299,
      "Ġgames": 9300,
      "Ġespecially": 9301,
      "drag": 9302,
      "Ġprobably": 9303,
      "Analysis": 9304,
      "Priority": 9305,
      "Ġcapacity": 9306,
      "æĺ": 9307,
      "Ġshowing": 9308,
      "alan": 9309,
      "eclipse": 9310,
      "Ġcombined": 9311,
      "allery": 9312,
      "Ġcamera": 9313,
      "cn": 9314,
      "Ġencode": 9315,
      "Alias": 9316,
      "formal": 9317,
      "oting": 9318,
      "Ġslightly": 9319,
      "members": 9320,
      "transport": 9321,
      "Ġfinish": 9322,
      "===": 9323,
      "localhost": 9324,
      "ilo": 9325,
      "ĠĠĠĠĠĠĠĠĠĠĠĠĠĠĠĠĠĠĠĠĠĠĠĠĠĠĠĠĠĠĠĠĠĠĠĠĠĠ": 9326,
      "TL": 9327,
      "](#": 9328,
      "Detector": 9329,
      "ordinate": 9330,
      "Ġbias": 9331,
      "Codec": 9332,
      "vendor": 9333,
      "locale": 9334,
      "Ġimplicit": 9335,
      "Ġprecision": 9336,
      "aver": 9337,
      "Ġcame": 9338,
      "pixel": 9339,
      "Ġideal": 9340,
      "cember": 9341,
      "Ġbos": 9342,
      "ĠStruct": 9343,
      "ixtures": 9344,
      "vised": 9345,
      "ict": 9346,
      "Ġsituation": 9347,
      "ĠWITHOUT": 9348,
      "Many": 9349,
      "matches": 9350,
      "Ġdelegate": 9351,
      "Intent": 9352,
      "Features": 9353,
      "TERN": 9354,
      "javax": 9355,
      "Ġsoft": 9356,
      "grav": 9357,
      "Ġinstruction": 9358,
      "Assign": 9359,
      "Ġ'-": 9360,
      "OFF": 9361,
      "bsite": 9362,
      "Ġiteration": 9363,
      "amount": 9364,
      "eep": 9365,
      "mx": 9366,
      "tbl": 9367,
      "Ġplease": 9368,
      "hind": 9369,
      "Ġquark": 9370,
      "docker": 9371,
      "BL": 9372,
      "Ġbeginning": 9373,
      "Ġmentioned": 9374,
      "()\">": 9375,
      "Ġconven": 9376,
      "Download": 9377,
      "rence": 9378,
      "ĠItem": 9379,
      "unknown": 9380,
      "osing": 9381,
      "ViewController": 9382,
      "EVENT": 9383,
      "Ġliterature": 9384,
      "parts": 9385,
      "]</": 9386,
      "Modifier": 9387,
      "Ġtypical": 9388,
      "Enumerable": 9389,
      "analysis": 9390,
      "Ġstatistics": 9391,
      "Contract": 9392,
      "sass": 9393,
      "lr": 9394,
      "Ġlogin": 9395,
      "Push": 9396,
      "ĠFix": 9397,
      "`)": 9398,
      ",{\\": 9399,
      "Ð°ÑĤ": 9400,
      "Origin": 9401,
      "cline": 9402,
      "ctree": 9403,
      "processor": 9404,
      "Ġpromise": 9405,
      "INSERT": 9406,
      "istency": 9407,
      "Ġsampling": 9408,
      "aming": 9409,
      "rec": 9410,
      "Ġsolve": 9411,
      "elasticsearch": 9412,
      "('./": 9413,
      "Assembly": 9414,
      "avid": 9415,
      "tour": 9416,
      "Ġdifferences": 9417,
      "ĠBORDER": 9418,
      "Ġ\\]": 9419,
      "Ġthermal": 9420,
      "Pane": 9421,
      "cha": 9422,
      "Ġferm": 9423,
      "Ġtexture": 9424,
      "drawable": 9425,
      "NamedCell": 9426,
      "Shift": 9427,
      "Ip": 9428,
      "Ġtokens": 9429,
      "Ġproport": 9430,
      ",\\,\\": 9431,
      "')->": 9432,
      "Score": 9433,
      "Ġcorrectly": 9434,
      "Ġdenoted": 9435,
      "Ġcop": 9436,
      "Ġconvex": 9437,
      "enomen": 9438,
      "distribution": 9439,
      "Fetch": 9440,
      "diction": 9441,
      "Mutable": 9442,
      "servlet": 9443,
      "ĠGenerated": 9444,
      "defer": 9445,
      "Ġready": 9446,
      "licity": 9447,
      "capt": 9448,
      "failed": 9449,
      "imize": 9450,
      "Ġfinished": 9451,
      "Ø¯": 9452,
      "ilarly": 9453,
      "inder": 9454,
      "Ġearlier": 9455,
      "Ġfake": 9456,
      "Ġfriend": 9457,
      "SPACE": 9458,
      "ĠEnglish": 9459,
      "atibility": 9460,
      "Ins": 9461,
      "vature": 9462,
      "Primary": 9463,
      "ĠOriginal": 9464,
      "çĶ¨": 9465,
      "Ġ.=": 9466,
      "Ġroom": 9467,
      "Ġsnapshot": 9468,
      "Ġisn": 9469,
      "Ġexhib": 9470,
      "Ġgreen": 9471,
      "Comparison": 9472,
      "allenge": 9473,
      "BACK": 9474,
      "Stat": 9475,
      "ĠSH": 9476,
      "sz": 9477,
      "ĠPe": 9478,
      "Dem": 9479,
      "ĠSan": 9480,
      "ulo": 9481,
      "Ġseems": 9482,
      "bus": 9483,
      "Ġwind": 9484,
      "ĠGraph": 9485,
      "Ġcandidate": 9486,
      "thetic": 9487,
      "endpoint": 9488,
      "Ġtuple": 9489,
      "ĠCore": 9490,
      "abstract": 9491,
      "bounds": 9492,
      "Ġdownload": 9493,
      "override": 9494,
      "ĠLay": 9495,
      "ARG": 9496,
      "SPACING": 9497,
      "beans": 9498,
      "archive": 9499,
      "Ġdie": 9500,
      "score": 9501,
      "${\\": 9502,
      "negative": 9503,
      "Ġrespons": 9504,
      "ĠAuto": 9505,
      "ĠDr": 9506,
      "Ġexcit": 9507,
      "FilterDatabase": 9508,
      "PM": 9509,
      "ĠAustral": 9510,
      "VO": 9511,
      "Ġstory": 9512,
      "START": 9513,
      "Received": 9514,
      "Ġtook": 9515,
      "tiny": 9516,
      "Ġbulk": 9517,
      "sWith": 9518,
      "Ġignored": 9519,
      "astic": 9520,
[...]
