#version: 0.2
Ġ Ġ
Ġ t
ĠĠ ĠĠ
i n
e r
Ġ a
o n
h e
r e
a t
Ġt he
e n
o r
s t
a n
a l
i t
Ġ c
a r
Ġ s
e d
Ġ o
e s
Ġ w
i s
Ġ f
i on
in g
Ġ p
n d
l e
i c
Ġ b
ĠĠ Ġ
Ġ in
r o
Ġo f
ĠĠĠĠ ĠĠĠĠ
a s
o u
Ġ m
Ġ d
Ġa nd
Ġt o
e t
c t
en t
Ġ h
e l
i l
a m
o m
Ġ re
Ġ S
Ġt h
Ġ n
i d
o l
Ġ C
Ġ T
Ġ l
a c
Ġ A
u r
Ġ (
i g
at ion
u t
i m
Ġ e
o t
a d
i v
ĠĠĠĠ ĠĠĠ
s e
â Ģ
Ġ M
c e
u l
Ġ g
Ġ is
Ġ I
t h
a y
Ġf or
Ġ =
a g
o w
o d
c h
er s
i f
u n
e m
Ġ P
l y
Ġ on
Ġ st
u s
Ġ B
ĉ ĉ
Ġ v
i r
Ġb e
< /
it h
u m
i st
a b
p e
) ;
at e
= "
t er
2 0
Ġ R
Ġ D
a p
Ġ H
Ġ $
o c
Ġ {
- -
Ġa s
q u
Ġc on
a v
Ġ F
Ġ \
v er
Ġ L
an d
Ġw ith
Ġth at
r i
Ġ <
e st
h t
Ġ N
o p
e w
Ġa l
u p
Ġ W
/ /
e x
as s
ĠĠĠĠĠĠĠĠ ĠĠĠ
re s
Ġw h
es s
Ġ G
ct ion
Ġa n
Ġ *
Ġ E
č Ċ
Ġp ro
Ġw as
1 9
a in
u b
en d
am e
or t
ĠT he
Ġ "
ou r
o s
t r
Ġd e
Ġ it
ro m
er e
it y
p t
Ġb y
u e
Ġa t
il l
Ġc om
ar t
o re
Ġ r
Ġ y
ag e
Ġ }
al l
Ġe x
k e
m ent
Ġc l
p l
Ġ O
in e
Ġ J
n t
Ġ or
e ct
i es
Ġf rom
" >
Ġ he
l d
o g
at h
Ġa re
ig ht
iv e
Ġs e
an t
ac k
u d
u re
âĢ Ļ
ĠĠĠĠĠĠĠĠ ĠĠĠĠĠĠĠĠ
p ort
c l
i al
ur n
i z
Ġth is
( )
a st
an s
b er
ĠĠĠĠ Ġ
* *
e f
ul t
g e
Ġ U
. .
Ġt r
ar d
c on
p er
' s
0 0
u st
o v
Ġc h
i p
Ġ âĢ
ex t
u nd
ar y
a ct
ab le
s p
at ed
or m
el l
e g
Ġs h
a re
Ġ K
f f
i a
t urn
T he
Ġn ot
Ġw e
av e
a k
o st
u g
Ġ &
y pe
Ġ Ċ
in t
Ġ if
i re
Ġp l
or d
ic h
Ġcl ass
Ġ le
-- --
in d
od e
_ {
g et
ou t
ig n
Ġ '
on g
c om
i le
20 1
as e
l i
I n
ion s
ac e
Ġ -
ĠI n
o k
it e
ic e
= =
Ġ V
id e
or k
ic al
ĠS t
e p
e ar
ub l
im e
st r
an g
re f
) ,
Ġcom p
Ġin t
Ġ j
at a
er v
i an
c c
ĠĠĠĠĠĠĠĠ ĠĠĠĠĠĠĠ
Ġh ave
Ġh is
ou ld
p ro
a il
Ġ us
j ect
il d
Ġh as
en ce
en s
it ion
Ġ k
Ġcon t
Ġ |
ĠT h
) .
e c
s o
th er
Ġre turn
an ce
Ġa d
Ġc an
Ġn ew
Ġ un
ation s
en c
o b
ĠC h
or y
Ġy ou
e v
i b
Ġal l
Ġ //
f orm
Ġa r
Ġa b
Ġwh ich
r a
p h
on e
ubl ic
ou s
{ \
Ġre s
on t
is h
al ue
ac h
d u
er t
res s
he n
Ġ im
u se
Ġa p
- >
oc k
: :
f t
ent s
20 0
ro w
l l
ow n
ou nt
ĉĉ ĉĉ
m er
" ,
un ction
Ġ$ \
r y
S t
Ġ </
om e
Ġ [
el f
our ce
Ġw ere
Ġb ut
ir st
in k
ul l
Ġ @
Ġo ut
re e
c ri
u al
ar k
1 0
Ġw ill
Ġal so
ou nd
m a
1 8
o ver
or s
.. /
m ath
ar am
ic t
Ġ up
Ġthe ir
en er
o se
f er
r it
ter n
am p
o ok
Ġst r
E x
o ol
Ġon e
t e
he d
Ġ /
Ġ Y
s s
Ġp r
Ġd o
n e
ol l
cl ud
Ġ +
Ġ ro
pt ion
er m
iz e
Ġs c
ic k
ot h
in al
i ew
ol d
Ġd is
âĢ Ŀ
( "
i el
Ġp art
s et
at es
et h
( );
m l
c k
Ġe v
Ġm e
ing s
a ke
s h
d iv
p ut
w o
le ct
Ġ| |
Ġwh o
sp an
w e
n g
Ġ .
Ġs u
el y
f r
Ġit s
iel d
ĠU n
Ġthe y
Ġm an
p r
ĠH e
ĠI t
f ter
Ġde f
er y
Ġm ore
Ġh ad
Ġp ublic
a w
b ut
ess age
} }
Ġa g
pe c
y st
Ġ en
at er
Ġp er
---- ----
tr ing
Ġ qu
ic s
Ġf irst
' ,
Ġt e
Ġn ame
ig h
** **
Ġs et
Ġg et
ro up
f ig
Ġw ork
ĠâĢ ĵ
p s
Ġo ver
Ġp re
Ġh er
i o
o int
is s
l o
> </
Ġpl ay
t t
Ġs p
i e
Ġ* /
e qu
pe ct
i x
ation al
le ment
er r
t ext
Ġbe en
l es
an c
Ġs o
r ap
Ġy ear
Ġ :
Ġf unction
> <
^ {
on s
c re
o id
Ġo ther
Ġd es
Ġt ime
E R
y s
yst em
âĢ ĵ
Ġg o
Ġv ar
r ay
Ġo b
P ro
} \
1 2
on d
i ed
t y
Ġn e
a x
} $
em ber
ĠA r
ĠâĢ ľ
Ġw hen
op le
Ġas s
Ġab out
am es
ĉĉ ĉ
Ġre c
at ch
Ġcom m
ĠĠĠĠĠĠĠĠ ĠĠĠĠĠĠĠĠĠĠĠ
v el
ay s
Ġt wo
od el
T h
) )
ro und
ad e
Ġp e
I N
Ġ und
../ ../
Ġof f
ab el
ĠĠĠĠĠĠĠĠ Ġ
n ame
( '
== ==
if ic
at or
Ġs up
u ild
Ġin ter
ou g
O N
ug h
Ġint o
2 1
th is
ou n
ar g
t o
t a
r am
N ame
v e
an n
ov e
Ġl i
ht ml
Ġ #
19 9
al s
l and
ar ch
at ive
Ġth ere
as ed
l ine
um ber
Ġin clud
p os
an ge
ri but
m s
ap p
at ic
e b
Ġad d
ĠC om
le t
1 6
r ight
it ed
u ct
c al
Ġc ol
Ġan y
c he
( \
o y
T ype
Ġ _
eg in
Ġh ref
i ous
ur re
en g
} ,
Ġth an
ke y
i ent
Ġw ould
Ġ end
enc es
m b
w ard
at ing
o ot
or n
is e
ul ar
Ġt ype
Ġb et
er n
im port
Ġk n
Ġre g
Ġon ly
Ġa ct
c ol
1 5
ĠN ew
a id
Ġs ub
Ġa fter
s ource
Ġf il
ĠTh is
Ġa cc
Ġc re
b egin
t he
Ġd ata
Ġtr ans
Ġs ome
Ġv alue
p aram
Ġin d
Ġs he
id ent
ol og
iv ers
S tring
ar s
rap h
I d
eth od
: //
mer ic
u es
m essage
it ies
as h
Ġcon s
C on
Ġn o
R E
ĠP ro
al se
tr ans
ĠS e
ur ing
or ld
Ġund er
d d
t on
l ation
Ġo p
o x
oll ow
Ġo ur
em ent
l ock
Ġf e
C h
re turn
cri pt
w n
y n
Ġpe ople
1 1
c ode
Ġl ine
C ont
Ġwh ere
ire ct
Ġres ult
Ġl oc
con d
e ad
Ġat t
s on
t d
S T
al ly
Ġp os
Ġ el
an k
Ġs elf
C om
Ġre qu
Ġin v
R ef
it s
ĠA l
ro ugh
Ġs erv
re ad
Ġpro v
1 7
c ent
d er
o f
Ġcon st
Ġy our
u res
Ġs pec
c ed
t s
c ess
Ġc all
Ġ i
d ef
ut h
res ent
ĠS h
Ġ= >
R es
Ġthe m
Ġ !
is hed
_{ \
il ity
Ġre l
Ġ use
le ction
Ġb ack
ow er
A T
ac he
Ġre m
an y
v ent
) $
Ġa c
ad d
as k
ch ool
a ult
Ġd if
ce ption
Ġfor m
il y
ist s
/ >
Ġthe n
ar n
in ce
at t
m in
re n
Ġm ay
Ġc o
ic es
Ġp ol
ib le
i er
urre nt
at ure
a ir
Ġus ed
} {
Ġf ollow
f ore
Ġpro du
in s
I D
# #
Ġbe c
we en
ag es
Ġst ud
l ed
Ġor g
p on
ĠT r
t ype
1 4
_ _
C l
is ion
Ġsu ch
3 0
Ġ ent
cl ass
Ġp h
Ġm ost
2 2
ers ion
as on
a h
al e
o od
L ist
Ġ= =
e e
Ġs aid
19 8
in es
l abel
Ġf l
in ed
oug h
or g
ht t
Ġth rough
o h
A r
" />
im es
A R
id er
it t
a use
r al
O R
2 5
Ġsh ow
Ġin st
f o
ĠA meric
it le
re d
m an
Ġli ke
re at
Ġd ist
f l
con t
Ġh im
) :
tern al
pl ic
.. .
Ġh igh
um ent
b le
1 3
Ġv oid
a z
iv ate
if e
ĠC l
ĠA n
Ġbet ween
h ip
Ġn ull
Ġa m
Ġt est
et a
y le
e q
Ġ Q
Ġg r
oc i
fr ac
b ack
Ġch ar
Ġe m
id th
s c
Ref er
Ġag ain
Ġg ener
o le
T r
iz ed
Ġ Z
Ġh ow
L E
Ġyear s
r u
e y
v iew
le ft
Ġn umber
trans lation
v al
iv er
v ar
Ġe ver
Ġthe se
Ġj ust
p ress
s elf
c ite
Ġb r
Ġf inal
ers on
ut ion
Ġst art
ĠW e
Ġ `
Ġv al
w w
Ġwh at
l oc
s um
ivers ity
b r
ou se
i k
Ġw ell
I t
f ul
p le
n er
Ġs er
ire d
A L
w ay
oth er
s er
Ġ >
Ġm y
Ġ err
ment s
ĠC on
ut e
00 0
re am
e k
or th
et s
od y
e ver
b all
ĠE x
E N
Ġ ed
19 7
) );
Ġdif fer
ĠI nd
**** ****
Ġtr ue
Ġne ed
u ff
Ġf ound
Ġs ign
Ġc ase
Ġs im
b ject
Ġs ystem
Ġd et
r ic
Ġe ff
ap t
y p
Ġm in
"> <
over n
ĠĠĠĠĠĠĠĠĠĠĠĠĠĠĠĠ ĠĠĠĠĠĠĠĠĠĠĠĠĠĠĠĠ
eng th
math b
" );
ou th
Refer ences
ĠA s
Ġs m
a ction
Ġf alse
p re
' t
// //
u c
5 0
ĠF or
a j
Ġl ong
us s
Ġl ist
am b
ot t
r r
Ġsh ould
str ing
ĠW h
s ub
ot e
ant s
-------- --------
Ġc ent
l og
Ġg roup
Ġbe ing
Ġp oint
u ch
e le
ur y
S S
c es
Ġ )
b y
Ġel se
per ty
Ġo per
Ġd r
ar get
T o
Ġc ould
u le
Ġwh ile
a f
Ġar t
Ġ x
iv es
ce pt
Ġe st
Ġe ach
et er
y m
cc ess
ĠC ol
w ork
ĠĠĠĠĠĠĠĠ ĠĠĠĠĠ
av a
3 2
Ġm odel
$ .
b e
$ ,
Ġbe fore
p ar
is m
d ay
. "
Ġs ur
Ġte am
form ation
c o
ain s
b ar
V alue
Ġman y
Ġd uring
Ġn ow
are d
Ġm ade
Ġ --
r m
Ġf am
ĠD e
ak ing
d ata
are nt
} )
ath er
Ġth ree
Ġ id
amp le
f or
} .
it em
g ram
ist er
Ġsup port
ĠS c
ĠF r
Ġm ed
Ġm on
iv en
Ġo wn
2 4
Ġex t
Ġc or
D ata
Ġre ad
Ġr ight
t il
Ġle ad
Ġst ate
Ġse cond
Ġr un
Ġs ame
op t
C ol
19 6
b ers
ĠĠĠĠĠĠĠĠĠĠĠĠĠĠĠĠ ĠĠĠĠĠĠĠ
en se
w h
tr y
al th
Ġm od
iz ation
math cal
, \
U n
iv ing
Ġl ink
Ġb oth
Ġde c
um n
Ġstr ing
v alue
ĠI s
ro ll
ro l
t ing
i ence
t en
Ã ©
Ġre p
r on
n b
Ġg u
at us
ro ss
Ġm ake
vel op
erv ice
if ied
d ate
p p
Ġre le
f ile
Ġd irect
Ġb l
pl ay
Ġ/ **
S et
olog y
if y
Ġde velop
A N
I T
l p
t est
ĠAmeric an
Ġever y
g er
ain ed
Ġus ing
" )
ĠĠĠĠ ĠĠ
ion al
C T
ĠUn iversity
h er
ical ly
re m
n ew
o ad
Ġs ing
n ing
enc y
Ġl ast
n ot
Ġpr ivate
in a
Ġ X
he ck
ĠA nd
Ġw rit
m ed
ĠL e
equ ation
g y
S E
us ic
Ġb uild
Ġh and
ĠP h
iv ed
ur al
Ex ception
Ġd id
nb sp
Ġb el
it al
Ġre sp
p x
Ġe qu
p art
Ġm em
f ace
ar ly
l er
O bject
Ġs ol
d a
oh n
20 21
Ġper form
E n
ain ing
Ġm ethod
ist ory
Ġap pro
Ġdo es
ro id
Ġbec ause
âĢ ľ
B y
an e
1 00
ĠM ar
ch n
Ġ// /
ĠP l
m p
D E
ab l
Ġ& &
E rr
ph a
Ġst atic
ot s
Ġb o
ĠCom m
iss ion
] ;
O n
Ġm ov
Ġf ield
re g
Ġdiffer ent
as es
A n
Ġc urrent
Ġse e
b s
ĠO n
Ġev en
ĠUn ited
Ġex per
l ob
4 0
o ber
( $
ual ly
Ġkn ow
in ess
2 3
Ġp ass
ĠE ng
com m
al k
Ġ! =
qu e
Ġa v
ĠS he
m ary
port s
ĠP r
} (
Ġp op
str uct
Ġob ject
Ġap p
Ġcont in
==== ====
Ġm ain
. ,
ĠR es
W e
Ġrec ord
og raph
G et
T est
ag er
re qu
lo ad
. âĢĿ
el s
Ġdis c
he ad
ist r
~ \
en n
} ^
} _
at s
le y
Ġbe g
Ġw orld
ord er
Ġpart ic
' )
Ġinclud ing
in ter
Ġv ery
us h
ĠR e
I nd
ro p
Ġd own
ar m
al ity
ĠS tring
ĠI f
] ,
s ize
f ield
A s
Ġf r
uth or
Ġ %
M E
Ġw ay
C O
it ions
t ime
loc ation
Ġb ro
ĠS p
ĠâĢ Ķ
Ġs l
Ġagain st
Ġim port
Ġcomm un
() .
re ak
ra w
Ġfollow ing
Ġch ild
Ġc ar
Ġo pt
om en
Ġl ook
Ġhe ad
Ġop en
() );
Ġf ind
F or
u ck
oc ument
Ġim p
Ġpro cess
un c
g round
u ro
g r
Ġn on
Ġth ose
Ġs chool
h at
end s
un e
Th is
S h
m y
ind ow
ect ed
p i
al pha
se arch
Ġor der
ent ial
ĠA d
Ġap pe
ĠO r
el ta
Ġex pect
ction s
. _
ĠB r
ul ation
i um
et work
Err or
us iness
i ev
Ġ key
a i
r c
le x
Ġto p
Ġm ark
i or
Ġg ame
Ġf act
ĠY ou
ĠM ay
Ġhe lp
r ite
n ess
et y
Ġf our
ir d
al ign
ak es
b o
Ġev ent
ut il
Ġf in
ir c
l ist
m e
l ink
2 6
os s
l ang
cri ption
g o
Ġc are
Ġs ince
Ġor ig
ac es
it ial
a pe
Ġm et
Ġre ce
oot ball
Ġc oun
v en
I m
Ġar g
Ġg overn
Ġv is
20 20
Ġin formation
ect or
2 8
it or
ur s
2 7
Ġse ason
Cl ass
s ide
ĠJ an
in clud
s cript
com e
ĠJ ohn
Ġt erm
Ġin cre
d is
Ġp aram
Ġdes ign
V iew
htt p
Ġg iven
Ġm uch
ĠB l
Ġloc al
S e
A C
Ġt itle
R O
Ġall ow
ĠH ow
Ġl ife
ount y
Ġ z
a u
Ġprov id
op y
ur l
it er
Â ł
col or
Ġplay ers
Ġm at
w idth
id d
Ġf ile
p or
er ing
Ġp at
v ious
f unction
th s
lect ed
Ġh ere
" ;
Ġc r
tern ational
re en
Ġl ater
Ġpro gram
K ey
ep end
Ġfil m
L L
Ġeff ect
Ġa round
p ublic
Ġgo od
Ġp erson
' );
Ġkn own
amb da
19 4
o pe
Ġst ill
[ '
t op
6 4
Ġre f
Ġlink s
iv ely
Ġsm all
ind ex
b um
) \
Ġp ost
R equ
se ction
3 3
ĠSt ates
Ġb ook
ĠĠĠĠ Ċ
v ir
um er
o ff
ar ge
Ġw ant
ĠA ss
is ed
ĠC an
r ist
Ġchar act
" .
Ġt ri
Ġp res
l ess
Ġle ft
Ġcons ider
ĠA ll
ĉĉĉĉ ĉ
m od
] .
ur ch
Ġm ust
p ace
() ,
em pl
. </
s y
Ġan n
ur ation
Ġre t
I ON
2 9
Ġs ize
ĠG r
sum mary
Ġstr uct
Ġa ut
ribut e
ĠC ent
uff er
Ġser ies
Ġle vel
en e
Ġt ake
p ath
n av
j s
I C
Ġpl ace
19 5
ĠW orld
am ma
ag ue
Ġn ext
ĠA t
A P
F ile
ver t
ar i
"> </
ust om
Ġcall ed
Ġfam ily
ab ility
ĠN ational
ĠA ust
in ation
A l
Ġ ke
= \
H e
Ġre port
Ġd on
g roup
Ex ternal
Ġc our
i am
Ġd ay
tr act
ĠC ar
R e
Ġpos s
ĠN ov
og le
" :
u ary
av ing
Ġp resent
t able
Ġwe ek
T E
Ġpro t
Ġbe st
Ġse ver
ast er
ĠJ ul
Ġorg an
I nt
P E
w it
Ġst and
ate g
Ġvar i
Ġd el
Ġex p
Ġth row
pon se
Ġp ar
Ġ\ \
htt ps
m u
ig ma
Ġ u
Ġb ased
le ar
Ġpro ject
_ \
Ġb u
ĠThe y
ord s
ac y
he s
ack age
Ġe lement
am ed
con st
ail able
Ġass ert
ill ion
end ed
f ess
our n
M an
in c
iv al
Ġo ld
ition al
Ġex pl
lob al
' ]
, âĢĿ
T R
T ime
v ed
P l
ĠM an
l ing
201 6
ail s
a ff
ain t
Ġm ult
aj or
W ith
et ers
20 19
201 5
Ġl aw
ĠY ork
at ely
ĠB e
N ot
ĠS chool
Ġre al
if t
ĠU S
Ġad v
201 8
Ġh tt
ific ation
Ġrequ est
Ġun til
ward s
Ġoff ic
Ġp ower
Ġre fer
ĠW est
i ans
Ġs om
eg a
L A
Ġ ?
6 0
a it
b ed
ĠâĢ ĺ
s k
201 7
um e
Ġde p
ar ray
Ġm usic
N ode
Ġ/ >
mathb b
f il
our ces
A dd
oc ial
P ath
Ġis s
ĠP ol
Q u
Ġth ink
or ies
che s
E lement
Ġh ome
w are
/ *
on y
ore d
ĠO ct
201 4
du ct
Ġerr or
$ \
ĠB ut
ri es
Ġwith in
Ġ ,
Requ est
it ive
! --
ĠM in
al es
is on
ĠE n
Con fig
ĠC ounty
Ġ );
pl oy
In fo
u age
ĠT e
ide o
ug g
b f
ĠA ug
Ġo cc
E vent
ĠTh ere
Ġal bum
Ġrep resent
Ġpol it
ain er
Ġc ount
s erv
ic y
Ġv iew
Ġw in
per t
Ġest abl
Ġd em
Ġt arget
Ġte chn
=" ../../
Ġwith out
Ġcon d
/ **
T ext
âĢ Ķ
Ġare a
a im
m ber
Ġt ext
ĠS outh
Ġle g
anc es
Ġs k
D ef
plic ation
ent ly
ĠG u
Ġ/ *
um p
Ġde ath
d e
} _{
ar r
Ġcont ent
Ġan other
} ^{
ap s
ole an
oc us
ord ing
' :
st ance
se c
a ut
Ġn ear
us er
em pt
le g
ep s
Ind ex
Ġt yp
ww w
E qu
Ġsu ccess
} ;
8 0
Ġdes cri
ĠB rit
O r
pt ember
St ate
Ġan al
em s
il t
i od
Ġtr y
Ġch ang
ic le
201 3
U R
w ays
ag n
Ġ ident
ĠG e
m d
um an
ĠJan uary
F ield
Ġresult s
Ġb usiness
A ll
om an
Ġs ong
- \
u f
() )
un g
Ġv ersion
F orm
Ġf ootball
Ġl a
od es
P aram
ens ion
h o
Ġl im
ard s
âĢ ¦
I s
pr il
O ver
Ġal ong
ĠM arch
Ġorig inal
Ġsing le
=" +
Ġen g
u k
ĠW ar
com p
l ength
c d
ur ther
Ġl og
Ġar ray
Ġs pe
` `
201 0
mb ol
ic a
Cont ext
A S
d es
ph i
ĠC o
n ode
= '
Ġcomp any
Ġserv ice
v oid
ĠR eg
Ġle t
ict ion
ur ity
ĠT o
r ide
ne y
I S
D es
ĠSt ate
uro pe
M ap
ag s
P h
iv ity
ce mber
3 5
ĠN o
Ġc ap
Ġbec ame
ur g
201 2
ĠE d
Ġst yle
Ġbe h
erm an
and s
ames pace
Ġs ay
Ġc heck
vir on
Ġsever al
ĠC al
S ervice
ok en
ĠM ed
at ures
end ing
ess ion
//// ////
Ġcre ate
at ors
Ġl arge
le ge
201 1
ap ache
A D
Ġinv est
u ed
con fig
Ar ray
Ġinclud e
Ġgovern ment
Ġpro ble
c ast
\ \
ĠC ity
u i
mathb f
ĠP ar
ater ial
nd er
ure d
ap i
f in
ĠSe ptember
qu ot
p ed
press ion
oug ht
b l
ul es
Ġp o
ĠC O
******** ********
H E
ĠAug ust
Ġacc ess
Ġb ir
Ġb lock
ĠJ une
Ġd ue
Ġ( !
ĠOct ober
ĠF l
ic on
^ {\
B uild
Ġinter est
Ġp ath
Ġe arly
ĠAust ral
str u
Ġdef ault
Ġf ew
ight s
Ġsh ort
Ġin s
re t
l ish
Ġw on
b ox
Ġav ailable
Ġmem bers
ĠĠĠĠĠĠĠĠĠĠĠĠĠĠĠĠ ĠĠĠĠĠĠĠĠĠĠĠ
Ġp ubl
Ġus er
ay out
C ode
ri x
3 4
con om
l ambda
Ġde v
i ents
a us
ev el
" "
Ġ et
Ġf ull
err or
Ġc ity
am ent
U T
ĠA pril
ist or
ĠN orth
ĠĠ Ċ
s w
F F
ol ution
Ġt urn
IN G
N ew
Ġm ar
Res ult
Ġpro m
res ult
ou ble
ac ed
pert ies
ĠJul y
ĠA b
ĠW ill
our s
ob ject
ĠCh rist
Ġb reak
w ord
Ġ{ \
n o
Ġre st
en u
ĠS ystem
f rom
end er
ear ch
p oint
i que
Ġch ange
Ġto t
id es
Ġd i
m ap
ib r
et urn
3 1
F il
Ġb ase
al f
ra ft
9 9
ĠDe cember
o in
in put
A tt
he m
s l
[ ]
ay er
ĠNov ember
v es
A nd
Ġa ff
20 22
ass ert
ĠE urope
Ġ} );
p en
Ġex ample
d own
I G
ĠR ep
ĠS up
Ġ es
d t
Ġfor mer
pec ial
Ġ-- >
Ġm ajor
b ody
tr ue
d om
re ate
a e
b lock
il it
S ize
pl es
ab led
E S
L O
orm al
Ġw omen
h am
itt le
pos ed
M P
Ġp ort
st it
ĠF eb
read y
c er
ail ed
Ġg row
ĠD r
m et
on es
st er
ad a
m odel
st and
' ;
E D
H and
il on
ent ion
Ġhe alth
Ġ} ,
Ġst at
b eta
Ġle arn
Ġval ues
re w
empl ate
ap er
op er
Ġpos ition
yn c
Ġ enc
Ġcharact er
Ġl and
Ġre search
b t
ag ement
Ġg reat
Ġf ore
ĠP art
## ##
ert ain
im ate
pro t
ag ed
3 9
Ġc ode
Ġcont rol
s m
ac c
an a
se e
st ate
Ġs um
ut ure
h old
viron ment
amp ions
Ġ: =
Ġchild ren
p m
s igma
t itle
ign ed
A t
3 7
Ġe lect
ĠHow ever
Ġme as
lo at
v ersion
il ar
Ġprodu ct
Ġg l
O f
200 9
Ġpre vious
k s
g ress
Ġm ax
Ġc ell
ith er
v ision
z e
pon ent
cre ate
th ers
Ġv ol
ru ary
ĠM c
Ġto o
ne ction
Tr ans
Ġcon fig
ro du
er o
3 6
200 8
is ing
ther n
F r
F rom
Ġp ut
Ġr ad
Ġl ess
Ġs ide
Ġin put
Ġcomp et
ir t
se mb
S c
Ġsp ace
| -
Ġt em
E T
ri ed
res p
Ġb as
Ġrele ased
ĠG et
Ġs ource
Ġcomp let
Ġl ate
Com m
+ +
9 0
ĠA p
Ġin itial
Ġcon f
U N
def ine
pos ition
L oc
Ġplay ed
It em
Ġh istory
4 5
it es
, "
Ġn etwork
ĠC ont
Ġm atch
ĠB o
Ġ Ð
Ġcl os
Ġstud y
Ġgo ing
Ġl arg
Ġ_ _
Ġa uthor
ĠI m
Ġc rit
Ġl ang
um ents
Ġf ree
Ġgener al
u x
ar row
ĠE l
ild e
on se
Ġex ist
ab les
ix ed
ab ly
um b
re l
V al
Ġass oci
0 1
at ter
M essage
ĠB y
Ġa ction
} {\
A B
li ent
Ġe p
Ġh app
Ġc amp
ug ht
n ext
Ġne ver
3 8
ap an
Ġdist ribut
Ġcont ext
re et
Ġresp onse
ĠI I
Ġrequ ire
qu ad
Ġd iv
M L
M A
Ġ( \
Ġw ater
Ġadd ress
ma x
ĠA g
op h
Ġtot al
id ual
Ġto ok
Ġcoun try
n ow
ec ut
y d
Ġimport ant
ou d
ograph y
w ith
P r
Ġper iod
stru ction
* }
ĠS er
Ġs ays
Ġres pect
i j
c all
Ġt imes
ic ro
U p
ann el
in o
t es
math rm
ĠL ist
ĠB ar
Ġj ava
ott om
Ġqu est
Ġh ouse
op s
ĠFeb ruary
O ut
I f
Ġf ac
Ġ Â
and roid
Ġtr ack
Ġh old
200 7
ĠK ing
includ e
sp ace
ad em
o ice
S er
er ed
Ġm ember
Ġst ory
Ġr ange
n ect
; &
Ġc over
i ke
Ġspec ial
l in
O T
ed er
Ð °
Ġg ames
Ġa ir
ĠA fter
ot o
Ġn ode
Ġcon c
Ġd ocument
ĠBrit ish
Ġpartic ular
Ġinst ance
cont ent
def ault
f e
Ġb ig
in fo
Ġc al
L og
a ul
ys is
im al
Ġab ove
ĠQ u
le m
Ġw he
Ġcommun ity
Ġind ex
l t
C E
U S
g amma
id ge
ĠW ith
Ã ¡
i ef
pr int
ĠS o
D is
ond on
ĠC or
Ġbet ter
U LL
W h
Ġre du
Ġme an
t ings
Man ager
Ġro le
Ġal ready
Ġs rc
al t
Ġd ays
7 0
200 6
Ġ ide
B ut
Ġf ive
le te
^{ -
Ġopt ions
Ġre ally
S ee
Ġ( )
R eg
S ystem
ĠM e
7 5
Ġob serv
th ing
ĠO ff
---------------- ----------------
Ġ= ==
im ent
s up
Ġan t
A d
i us
Ġob t
Ġd om
In ter
+ \
M odel
o ke
Ġl ow
c y
Ġcol or
wh ere
ĠCom p
re st
Ġn il
g t
ri or
Ġf ri
c il
roll er
Ġpoint s
b ase
Ġb ound
> &
Ġp ay
Ġed uc
ib ility
Ġp arent
ac hed
Ġto wn
D e
Ġim pro
Ġc ost
ĠR ec
Ġcom b
Ġac ross
Ġann oun
tr a
th ough
Ġh ost
Ð ¾
Ġ ener
ĠA ct
j ava
Ġm illion
ĠH igh
ab or
ref er
C all
Ġposs ible
Ġpro perty
ĠA fr
6 6
ĠP ark
EN T
ak en
Ġm ight
Ġpro fess
b ook
Ġp ot
ĠH is
ĠLe ague
n a
Ġth ird
b orn
Ġam ong
ip le
v ers
G roup
Ġt able
ing ton
at form
Ġof ten
f ord
I P
R ead
id ence
Ġin c
="../../ ../../
in ary
es e
Ġal ways
T able
^ \
Ġs ocial
ip s
Ġh ard
Ġs ite
Ġof fer
Ġre pl
Ġinv ol
Ġs ix
er a
Ġrece ived
Ġhe ld
ĠP res
val id
d elta
20 00
st art
re c
Ġc ult
Ġrequ ired
il le
Ġint eg
Ġa ge
u ation
ĠAr t
ĠG ener
N A
Ġpr act
ar ing
eth ing
le q
Ġle ast
Ġcare er
] {
ĠP er
ĠD av
l im
Ġar r
al d
Ġse c
ren ch
R ec
ĠC oun
ĠW hen
5 5
og n
Ġn ational
Ġf und
ic ense
an ch
ĠA m
Ġstr ong
t ab
Ġimp lement
id ed
D O
fig ure
Ġdevelop ment
Ġf ar
Ġoffic ial
Ġsim ilar
b ig
one y
i ol
ĠCh ar
Ġsup er
c ell
ĠR uss
con text
ĠEng lish
Ġprov ide
ampions hip
b it
Ġ$ (
Ġbe come
ĠR ev
if ier
ĠO ne
y l
Col or
ir l
Ar g
os p
Ġm ass
ĠD es
ourn al
st yle
im um
un k
Ġcom e
Ġtr ad
Ġyou ng
Ġn amed
r ho
ĠĠĠĠĠĠĠĠ ĠĠĠĠ
T D
) }
Ġback ground
Ġh aving
the ta
C lient
ĠL ondon
Ġsign ific
pt y
ĉĉĉĉ ĉĉ
Ġcl aim
U ser
Pro perty
ist ic
A ss
Ġev ents
m ethod
Ġd est
Ġp age
d oc
r ation
n ers
p ackage
Ġb and
=" #
Ġin div
pl it
f ic
Ġcomm on
F l
i et
Ġb ody
p ly
m ark
Ġbeg an
Ġ} ;
Ġre view
Ġfe ature
g ed
Ġind ust
ĠJ apan
Ġto get
re ed
Ġb ool
ĠE ast
s q
cl us
b uild
we b
Ġm en
Ġf urther
Ġtoget her
st atic
Ð µ
Ġbuild ing
Ġc ur
ĠG o
c ss
Ġe as
e h
go ogle
ĠD ep
us ing
ĠH ouse
ĠS et
itt ed
Ġm aking
Ġacc ount
Ġwork ing
Res ponse
Ġmark et
ut es
e ople
ĠĠĠĠĠĠĠĠ ĠĠ
act ory
Ġm ap
$ -
Ġme et
4 4
I L
Ġstud ents
Ġserv ices
> (
Ġm essage
Ġc ustom
c le
Ġh uman
m ost
ill s
d o
ĠD is
Ġpro b
Qu ery
Ġcre ated
Ġexpect ed
N o
Ġbu ilt
t imes
=" ../
; </
Ġs y
ĠS ch
Ġf ocus
resp ond
p arent
Ġb order
Ġcl ub
Ġc ame
T H
Ġatt ack
200 5
ĠL a
Ġab le
che ck
Ġl ight
C ount
eq ref
ta u
Ġdet erm
ĠH ar
Ġim age
p ose
Ġv ideo
Ġte le
Ġal ign
se qu
Ġpubl ished
pt ions
Ġs ent
ĠThe se
ĠB ro
if f
Ġar ch
ig ation
A meric
ith ub
yn am
Ġener gy
S ub
im ary
Ġpop ulation
Over ride
in it
Build er
C H
M od
Ġa way
Ġperform ance
at ab
Ġke ep
in ition
r t
Com p
Ġem ploy
and om
Ġshow s
Ġli k
Ġl ittle
Ġcomp ut
ic an
Ġc oll
Ġe ither
Ġp ast
f alse
av el
ud e
oc r
Ġindiv idual
Ġfil ms
I R
ill ed
Ġst d
Ġint rodu
Ġinclud ed
ĠS m
row n
Ġas k
Ġcl ose
ĠA ng
200 4
n own
att le
4 8
E nd
olog ical
ang le
ir m
S P
l ight
ĠCol lege
Ġg ot
d b
M ethod
Ġs at
Ġt re
Ġw ar
19 0
Ġg en
Ġbel iev
am ples
am a
} (\
istr ict
epend ent
Ġr a
B ar
ĠI nt
Ġout put
ĠS w
Ġv ill
Ġstart ed
Ġm iss
r is
em ents
St ream
Ġdisc uss
ĠH er
Ġind ic
Ġsom ething
Ġme ans
en ame
o on
Ġloc ated
h and
id s
oci ety
ĠWill iam
Ġpl an
ĠTh at
ĠV al
n et
S C
g ithub
Ġse en
part ial
Ġplay er
ĠE m
Ġj ob
Ġon ce
idd le
r s
cent ury
ĠA ir
y ear
Ġe ar
======== ========
Ġth ings
ugg est
Im age
] (
im age
f unc
Ġm ove
V ID
ver age
Ġdescri bed
un ic
al y
Ġproble m
ĠT est
Ġmed ia
ĠI N
act ive
Ġl ength
Ġhtt p
F A
d ev
Ġf uture
G L
c ore
it ing
Ġsignific ant
G ener
av es
il ities
h ib
ilit ary
ĠD o
ĠN ot
Ġreg ion
Ġestabl ished
min istr
ĠIn ternational
an el
as ing
ĠPh il
ĠTr ans
fer ence
Ġe conom
ĠA dd
c hed
Ġph ys
Ġrel ations
Ġm ot
Ġbir ths
ĠM ich
Ġe lection
cent er
r un
Ġgr ad
Ð ¸
Ġwe bs
Ġse ction
ev ent
Ġdef ined
E m
O ff
Ġl abel
Ġwork s
arg in
E d
oc ol
g or
Ġpre d
ad o
or age
Ġth ough
n amespace
art ment
) </
Ġvar ious
Ġd one
ĠA c
ag ing
Ġcomm and
Ġb en
ist ry
Ġc ases
ĠM y
om et
In put
Th ere
Ġg ive
Ġo thers
Ġappe ar
P I
ĠCl ass
Ġt w
fl u
o o
Ġprovid ed
ĠSt ud
x y
g es
B e
] )
re ct
Ġs af
U til
Americ an
Ġbeg in
Ġw ent
Ġh alf
Ġre d
opt ions
ac ing
b or
Ġst ation
Ġfe atures
Ġcomp on
Ġwhe ther
un ch
if orn
Ġfe el
raph ics
Ġ( $
un ity
}$ ,
cl ient
Ġw idth
is k
d ir
C C
| \
ell ing
Ġd en
wit ch
D ate
Ġwrit ten
ens ure
r ad
Ġpot ential
ĠS ec
x i
a el
u el
r up
00 00
n ull
6 5
ĠS an
ft y
Ġm aterial
Ġ< <
Ġl ive
at ural
O P
Ġab s
Ġro und
b ased
Ġs w
ef ore
m at
In stance
Ã ³
O S
Ġadd ed
ĠM ark
A M
le ase
Ġact iv
ĠĠĠĠĠĠĠĠĠĠĠĠĠĠĠĠ Ġ
c ul
St atus
Ġn um
m on
ĠM on
iforn ia
an ies
Ġc le
ĠG L
ar a
Ġdist r
ur b
Ġv ia
Ġp ress
Ġt reat
ĠAmeric a
c urrent
ig ure
Y PE
Ġeng ine
B C
}$ .
Ġexper ience
Ġb i
ON T
O per
Ġval id
Ġk ind
ec ess
ĠN e
Ġs it
Ġprodu ction
A ction
Ġdis play
ft ware
Ġl ove
i res
H ow
S ource
( (
he l
ĠF rench
g en
A ct
Ġm er
n u
ĠĠĠĠĠĠĠĠĠĠĠĠĠĠĠĠ ĠĠĠĠĠĠĠĠĠĠĠĠĠĠĠ
opt ion
arg s
qu ery
ĉ Ċ
but ton
in fty
med i
Ġspec ies
ĠN ULL
Ġl ot
ip p
ateg ory
ce ed
ish ing
Ġst op
Ġd er
ĠD ef
ar ies
Ġcent ury
4 9
< !--
ibr ary
en ed
ĠN or
ĠC our
s im
i ation
S tr
requ est
li b
Ġm om
ĠInd ia
f ect
ĠR ed
Ġg lobal
Ġterm s
ew ork
t ilde
oci ation
gor ith
av y
S p
n s
Ġc irc
H ead
ĠPres ident
g ing
or ge
Ġc ou
A p
Ġbel ow
Ġbl ack
Ġhow ever
A G
Ġand roid
atab ase
rit er
Ġs uggest
d f
v is
ph p
Ġlang uage
Ġc apt
Ġin ternational
Ġd ate
Ġbo olean
0 5
ell ow
Ġsu ff
E E
om ega
Ġcomp os
Ġpr int
200 3
ic o
Ġc lear
Y ou
Ġmodel s
Ġcor respond
Ġreport ed
ut ions
Ġgroup s
el ine
ro y
D elta
ak er
ad es
ĠD istrict
Ġth ought
E X
Ġl oad
Ġc ertain
at al
ĠInd ian
c apt
h a
il es
s cal
fl ow
Ġc aus
Ġen ough
is es
ĠNew s
row s
N ull
P ol
Ġsh own
du c
Ġs ound
Ġinst all
Ġse par
Ġb it
B lock
Ġn ov
c ount
200 1
r ing
Ġadd ition
P os
ars er
ch ild
Ġph ot
Ġcour se
Ġt ask
p age
ch iev
W hat
B ase
Ġdistr ict
ĠG roup
iz er
4 7
Ġ čĊ
T oken
ĠEng land
ust er
Ġde g
m it
ch ange
irt ual
Ġt aken
ĠAustral ia
m ar
use um
in ated
ser ver
Ġmon ths
Ġen vironment
ĠU p
Ġrele ase
M S
Ġcont ribut
Ġt alk
ĠCal ifornia
Ġa ud
Ġb orn
9 5
Ġst atus
x ml
he ight
iv il
Ġcol lection
semb ly
fin ished
ĠS tr
Ġs on
Ġde cl
B uffer
Ã Ń
Ġtr aining
i ber
e ction
Ġl o
sh ip
Ġl ower
ĠS im
ic les
ĠP at
pl ied
Ġconsider ed
8 8
ĠIn ter
A fter
Ġserv ed
id get
a ur
Ġto day
it te
Equ al
st ream
i i
h as
ĠI r
L ine
F I
ĠD em
h ost
Ġl ed
a ign
Ġwebs ite
e ch
Ġnew s
bo ard
k en
ĠRep ublic
Ġst ates
Ġpartic ip
land s
at ory
Ġspec ific
Ñ Ĥ
Ġn eg
Ġannoun ced
ĠP ort
Ġ" ""
T O
action s
U L
A pp
Ġc ross
ore m
it ect
eb ug
bt n
Ġreturn ed
Ġsystem s
C ell
Ġchang es
ĠL aw
pl ace
g l
ly ing
Ġpolit ical
Ġ- >
ly mp
O ptions
N S
b urg
un t
Ġn ight
im ation
ad ata
ĠG overn
ou ch
A A
200 2
ĠU K
Ġr ate
Ġa verage
Ġre ason
U E
Ġf all
ov ed
Ġp ur
h an
Ġwh y
R un
pect ed
Ġg round
Ġstruct ure
Ġm akes
Ġc y
c m
Ġse arch
Ġsub ject
i ers
c ase
Ġse qu
y les
Ġatt empt
d r
oy al
e lement
Ġh istor
in n
7 7
Ġresp ons
Ġprot ected
t x
iz ing
cd ot
add ing
Ġhtt ps
' '
Ġo ption
lo od
Ġunder stand
AT E
Ġit em
ĠG erman
app end
Ġl oss
o e
o res
Ġd ied
ĠCent er
I M
ĠBl ack
Ġac cept
ĠC up
Ġ+ =
Cont ent
O D
w ise
text bf
Ġacc ording
ele te
Ġcomp lex
Ġd a
us ed
Ġcontin ue
Ġb ar
head er
Ġhigh er
S up
ach ing
s u
Ġy et
} [
ĠSt reet
ial og
H T
) (
P art
Ġinst ead
j av
Ð ½
ens ive
com ing
Ġep is
Ġs ure
Hand ler
0 8
Ġ ...
N av
ĠD on
t arget
C K
ĠĠĠĠĠĠĠĠ ĠĠĠĠĠĠ
ĠCh ampionship
d l
Ġ ill
Ã ¼
Ġare as
ĠA cc
ug in
Ġch all
[ "
Res ource
un finished
Ġc opy
ĠM ore
( {
.. ..
Ġpop ular
ot ype
St art
Ġs old
Ġro ad
ot a
ĠA nt
Ġres ource
Ġassoci ated
ĠCO VID
Ġent ire
g ener
n on
ĠF irst
b m
$ $
Ġfr ont
Ġn orth
m ember
Ġcol umn
lect or
Ġst ep
) {
Ġf ail
ist ics
Ġtele vision
Att ribute
4 6
Ġw indow
ĠS k
Ġp erm
ĠG l
et t
ig ital
ĠP al
Ġv er
ĠS en
ire ction
Ġd ouble
ĠDav id
Ġf em
A b
F actory
Ġcomp anies
Ġcl ient
ĠF rom
' re
P re
Ġbro ad
Ġanal ysis
Ġstand ard
p tr
Tr ue
stit ute
ap ter
et ic
om b
ar ter
Ġa chiev
O L
ĠR eturn
Ġmethod s
h ood
und le
ĠCoun cil
om s
Com ponent
Ġdoes n
osp ital
ĠR iver
Ġsuccess ful
m m
ac ity
V ER
op en
ĠB er
Ġde al
ĠD iv
str ong
at ives
le vel
Ġh om
Ġf ather
* /
n es
ĠN one
ĠCh ina
Ġf av
Ġst ream
. )
ĠM al
ĠHe alth
Ġpart y
air s
ĠWh at
Ġmon th
capt ion
w rite
sy mbol
Ġhe ight
ast ic
5 00
Ġparam eters
Ġrec ogn
}} \
A cc
Ġr ather
Ġf ire
à ¤
Ġmov ed
ribut es
L ink
ĠCan ada
ĠEurope an
Ġf ood
am ily
Ġam ount
v ider
ag o
O m
anc ed
rup t
pro perty
ch an
j son
ĠH ol
Ġe mb
Ġcond itions
Ġc ut
and id
ĠP aul
eg er
ank s
Ġmult iple
anc ial
Ġcon struct
Ġprodu ced
Ġm oney
ĠT V
Ġw rite
7 8
F unction
ch ar
k nown
Ġcon tract
ĠGener al
ens ity
e ed
r l
w ide
Ġc atch
Ġinclud es
I I
s i
ĠJ ames
Ġelement s
un n
ry pt
av en
Ġon line
N O
Ġcons ist
el t
ĠĠĠĠĠĠĠĠ Ċ
4 2
ĠF il
Ġl iter
ul a
Ġthrow s
p ng
Ġadd itional
Ġl ost
ic ation
dis play
Ġ Ã
idd en
Ñ Ģ
Ġa ward
y r
Ġal most
Ġindust ry
f irst
Ġright s
st on
U s
g le
Ġp rior
ĠO bject
Ġvis it
Ġp aper
ro te
ĠDep artment
Def ault
Ġv iol
eq n
ra z
Ġs em
G r
ĠR ober
V ersion
RE F
c el
ache s
ve y
d raw
Ġs outh
P oint
li ke
ock et
ĠC ons
L oad
0 6
Ġin j
Ġt ax
yp es
id a
itte e
p ost
Ġreg ular
c ial
wo od
Ġquest ion
m ing
Ġdid n
st atus
F irst
pecial ly
Ġt aking
y a
R A
ol ic
ot ed
end if
c ap
im g
app ing
Ġf ace
il i
it ar
LA SS
Ġ{ @
W hen
Ġlim it
Ġcan not
c an
Ġg e
Ġn ormal
Ġwork ed
Ġrel ated
v ille
o z
Ġpres ident
)$ .
Ġappro ach
0 2
ĠR ich
Ġin flu
Ġparam eter
Ġvill age
Ġto ol
0 9
ub e
eder al
is f
Ġin ternal
ps i
ĠTh om
Ġpol icy
Ġimp act
Ġex press
199 9
f oot
Ġap plication
ĠPart y
Ġm id
k a
enc ies
O ne
i ences
Ġperson al
m ult
Ġap plic
Ġt ell
St yle
Ġb ox
Ġin it
Ġto ld
Ch ar
Ġn ecess
Ġiss ues
e al
Ġwh ite
Ġh on
row ser
Ġcent er
Ġfl ow
Ġpat ients
Ġeduc ation
Ġup date
8 5
\ ,
d et
ud d
i qu
I V
T ask
Ġloc ation
} _{\
s g
Ġcurrent ly
B ack
led ge
Ġm ag
Ġper cent
Ġw est
eps ilon
z on
mod ule
Ġconc ern
ens or
0 7
f ind
P C
Ġtyp es
ĉĉĉĉ ĉĉĉĉ
ĠW ork
ou l
IN T
C heck
Ġmeas ure
P RO
ĠCh urch
N umber
Ġcomp lete
Ġfollow s
b ottom
res h
L abel
//////// ////////
p y
ĠO ut
Ġs ym
b old
Ġj o
ch i
Ġc he
l or
evel op
ĠB ook
Ġ( (
H el
Om ega
Ġqu ant
Ġact ive
ĠC r
ĠB el
ad ian
0 4
s rc
as ons
Ġch o
Ġex ecut
P age
p ite
am s
Ġpro perties
M et
Ġf ight
p c
ĠS um
ĠD irect
P er
" ]
Ġth ing
Ġv ert
M em
199 0
as c
str act
ist ance
Ġappro x
ĠJ ust
Ġcont ains
ĠD i
Ġeff ort
Ġneed s
Ġbeh ind
Ġp ers
Equ als
pr ivate
ĠCour t
Ġact ually
or ing
H istory
ĠA ward
Ġt our
v ing
s igned
ĠQ ue
Ġpl atform
p ack
Ġben ef
ĠG erm
Ġrun ning
in ing
~ ~
W eb
it ch
Ġdistribut ion
Ġro ck
C reate
ash ington
ang ed
ec k
} );
p ol
Ġv ict
18 9
( &
Ġst age
W indow
p o
Ġlead ing
5 6
Ġcom es
ĠS ing
gorith m
Ġsim ple
Ġs pect
Ġf requ
st d
AB LE
ĠThe n
ri an
p ush
c ing
Ch ild
ĠD ay
od ing
0 3
ĠS ub
ĠFr ance
in st
arn ing
Ġoff ice
Ġpro te
form at
Ġim m
Ġh ours
ĠAss ociation
itt ing
Ġrelations hip
l ast
Ġdevelop ed
at as
i os
7 6
Ex t
ĠD an
el ves
^ *
Ġcon duct
erv e
ĠO lymp
Ġd im
sq rt
ĠM art
Ġb g
Ġfunction s
Ġ q
N D
enc ed
Ġiss ue
Ġext ends
R eturn
ber g
ĠM at
Ġh or
Ġop port
Comm and
ĠM et
Ġwrit ing
sub section
E L
Ġfri end
Ġhim self
" ),
Ġup on
5 9
P eople
Ġcre d
$ {
ul ated
Ġreg ard
Ġdeath s
cre t
L ast
if act
Ġbeh av
R ow
che ma
Ġform at
Ġm ilitary
w in
ĠW eb
so ft
n ov
ob ile
Ġpos itive
" ).
Ġlik ely
Ġbr ing
Ġits elf
nav bar
ang er
Ġrec ent
Ġst aff
Ġt akes
u z
Ġcamp aign
Ġl ines
ri p
or ph
E nt
ĠH all
U I
Ġm ale
en ing
loc al
ĠAr ch
Ġwh ose
B U
v an
ps ilon
8 6
F ONT
ent ry
Ġw rote
Ġplay ing
ir it
ĠGe orge
Ġwho le
in ate
Ġsc he
e es
fic ult
im ately
Ġprovid es
ri ef
em ic
id ay
Ġtechn ology
Ġ row
Ġdirect or
ĠS ome
ct or
Ġincre ase
Ġ ir
ĠG reen
Ġneed ed
Ġs ex
Ġd raw
ĠR oad
al le
Ġteam s
b a
f ont
com es
Ġe ast
Ġgo al
des cription
Ġqu ick
w est
so le
T P
he et
Ġpol ice
Ġoper ation
ugh ter
ou thern
ER T
u a
Ġn ames
Ġlead ers
Ġout side
Ġcon v
qu are
ro s
199 8
Ġs us
Ñ ģ
Form at
Ġun it
ob j
and er
ĠO F
Ġg raph
U M
l en
al let
gr ad
ach ine
ig ger
Ġe y
ip al
Fil ter
iz es
E ng
Ġart icle
Ã ¶
m em
Ġt en
Ġp ick
_ .
a res
R ep
Ġl iving
Ġc ast
pro ject
Ð¾ Ð
ens ions
ĠP ublic
ĠJ ack
Ġd am
Ġes pecially
Ġw alk
Ġdet ails
ĠR ef
ic ient
Ġr isk
S pec
Ġsol ution
ri a
Ġspec ified
)$ ,
l a
Ġr ace
f inal
B ig
em ph
v are
G e
Ġmom ent
r d
ĠG od
ĠL ou
Ġsh are
ĠC am
Ġaut om
ĠRes earch
ĠĠĠĠĠĠĠĠ ĠĠĠĠĊ
Ġapp oint
Ġbg color
g in
Ġre ve
ĠP e
Ġdisc over
Ġev al
ag on
Ġman agement
h i
at ur
Ġst re
ĠM usic
st ant
Ġ ]
ĠD ata
r ated
Ġcharact ers
G amma
ĠI D
ann ing
res ponse
Ġaut o
Ġt ro
Ġprofess ional
Ġdep end
Ġ url
d ated
ul ly
Ġex c
Ġtem per
Ġw atch
Ġn atural
Ġde part
ĠJ er
ER R
L et
b and
li er
Ġb ad
ind ing
cont ainer
ref ix
ines e
T YPE
cl ose
at tr
all s
Ġt im
in i
o ch
ri ate
4 1
B A
ver se
Ġsec urity
p ass
Ġs il
ot es
Ġfor ward
ĠIn stitute
Ġad ministr
Ġmod ule
Ġse lected
N ext
z er
Ġcont act
I O
Ġcond ition
Ġqu al
Ġcount ries
ĠM ount
Col lection
Ġun ique
param s
Ġmod ern
Ġdif ficult
Ġw ords
Ġde but
m eta
l ayout
Ġallow ed
5 8
Ġex cept
b on
ĠV ol
est ival
u int
ĠS ervice
Ġestabl ish
> >
im ated
Ġfield s
Ġfor ce
an i
Cont roller
ĠY ear
Ġhe art
ĠS l
ĠAr my
5 7
eg raphics
ĠM ac
Ġac qu
includ egraphics
en a
Ġm argin
S ON
4 3
ĠW ashington
q l
se lect
ab s
ate gy
uf act
Ġus es
ree k
Ġn av
Ġconst ant
Ġser ver
ĠR em
Ġsc reen
m t
Ġn umer
C L
ed ia
Ġlook ing
ĠH am
ĠU s
Ġrefer ence
S I
al ed
ex p
Ġass um
L iving
n umber
fil ter
ele br
B ox
ĠP ress
Ġtr avel
Ġre v
Out put
ir us
ĠS am
d ep
tt p
ĠL icense
D r
ĠB est
pro cess
Ġv acc
u ate
as cript
ul ations
Ġdo ing
plic it
Ġp ain
u id
ĠComp any
Ġpart s
l ong
D et
ch o
Ġw ord
n um
Ġdesign ed
ĠWh ite
ĠM ag
Ġpro p
Th at
i as
ĠP re
ain e
Ġreturn s
Ġproduct s
ĠR ead
Ġn one
Ġbo ard
ra el
Ġse em
Ġro om
Ġfil es
Ġcom ment
Ġh it
A ut
ann ot
m ore
Ġent ry
// /
ict ed
Ġs aw
Ġthrough out
s ervice
ĠR oman
B l
on ly
ĠO f
ic ial
ĠO pen
ber t
id ents
Ġne igh
ĠM ont
C ON
ĠT ex
Ġp ack
^{ (
sm all
al ian
ĠR oyal
al a
Ġmult i
UR L
Ġtrans fer
Ġlearn ing
List ener
Ġnov el
198 0
W ork
oc al
ĠM ary
Ġst ar
Ġc andid
L ength
he st
ĠIs land
Col umn
vare psilon
i ant
ound s
ĠAfr ica
ĠFr anc
Ġinter face
m enu
Ġm agn
he t
g n
R em
ĠAustral ian
h ing
S y
ĠWh ile
ĉ ĠĠĠ
up date
ter m
un it
Ġdec ision
ĠT ype
Ġperform ed
Ġag o
Ġcomplet ed
ĠGerm any
ail y
Ġf a
ĠDem ocr
Ġspe ed
u ge
ĠSc ience
ĠRober t
Ġin f
ĠM or
ĠUn ion
Ġj ud
Ġthe ory
Ġso ftware
p ing
Ġv irtual
ar ily
Ġcontin ued
ĠS ociety
s pec
Ġinvol ved
Ġsh all
Ġe mer
ri b
Ġopen ed
199 7
erv ices
Val id
ĠM er
ĠM iss
Ġsc ale
Ġstud ies
f ort
Ġschool s
Ġbook s
Ġset t
Ġm other
ĠE X
ĠF ound
ĠTe chn
ĠM od
ver y
Ġh ot
Ġget ting
Add ress
Ġsat isf
Ġjo ined
ri al
ĠAng el
L e
ĠMich ael
ĠL eg
j ust
ant ic
Ġdev ice
Ġarch itect
Ġr andom
Ġus ers
Ġcon struction
Ġdis e
ar th
und er
Ġlong er
se y
Ġcon tr
Ġcour t
ult ure
ar io
Ġg irl
d im
Ġm ind
sh ire
Ġso on
T op
Ġsur face
S A
j oy
out put
a ud
Ġs n
ĠH REF
ill ing
Ġw ife
Ġth us
ot al
Ġv eh
il ies
Ġtrans form
Ġeffect s
Ġw ait
Ġqu ality
M ode
p at
ĠB ay
C D
act er
y ing
But ton
ĠH T
ict ure
t ool
Ġsong s
ĠB en
ĠG old
199 6
8 9
Ġ$ {\
Ġ` `
< ?
C o
Ġm ode
pro p
ĠL et
pr ing
in ner
rem ove
Ġ ;
ad ow
ĠT ime
AP I
ef ined
Ġ[ ]
6 7
ĠA lex
Ġ ess
D ev
ark s
e in
Ġde ep
Ġcon nection
eqn array
Ġv ers
ig inal
n ected
Ġg ave
wit ter
Ġg re
Ġcontin u
ĠD el
ĠP ost
ĠE v
Ġsign ed
P ost
pro of
ĠV ir
Ġreg ister
**************** ****************
ĠC LASS
Ġex act
m ission
Ġcall back
sh ow
Ġoper ations
c i
C ache
ĠC E
Ġide a
ess ages
Ġim medi
ail way
Ġclos ed
Ġm us
ed d
ĠCl ub
Ã ¤
Ġdirect ly
Ġ* *
C an
id ing
g reg
k it
Ġd oc
. }
for ce
) =
v est
Ġfollow ed
duc ation
ĠC ong
ĠM ex
Ġfil ter
C A
ĠT om
c or
Ġpro gress
Ġpolit ic
Ġchang ed
mer cial
Ġmin utes
Ġpro posed
ĠAc adem
back ground
Ġdem on
Ġal though
ev e
Ġh ous
ĠSe e
b reak
T arget
Ġpass ed
col umn
Ġpre vent
Ġf ailed
Ġpr imary
Ġsupport ed
P O
} =
Off set
F T
A ccess
S D
ĠDiv ision
an ish
an o
urre n
Ġk m
Ġ< !--
Ġread ing
L ayout
Ġcom ing
V is
in stance
M ar
Ġpr inc
Ġst ay
Ġr ank
iss ions
Ġlevel s
ex pected
Ġev idence
Ġproble ms
Ġcor rect
Ġdef e
Ġmar ried
b our
Ġa w
Ġn or
b b
m ain
jav ascript
icro soft
Ġpre c
w rap
Ġcal cul
ĠM r
Ġmat ter
Ġst ore
ic ate
Ġtreat ment
Ġob j
Ġte ach
T ag
z a
}^ {\
old er
ĠAn n
Ġb re
Ġdeg ree
Ġ â
T ypes
s f
Ġcent ral
Ġu int
H O
Ser ver
U P
hed ul
Ġfin ancial
Ġ( "
CO L
Ġ\ ,
P ar
Ġme chan
Ġe ight
Ġde b
Ġobt ained
refer ence
S o
Ġan sw
S ec
t ag
Ġmain t
ge q
ĠN ame
Ġw oman
ĠS y
Ġus ually
right arrow
Ġlarg est
ã ģ
ĠT own
ã ĥ
por ary
pl ies
Up date
it ude
Ġre str
Ġm ount
`` `
Fr ame
Ġf ont
ur t
Ġs ens
Ġj oin
B o
r angle
ol ar
' ).
om a
Ġre comm
el se
Ġmat rix
ous ly
Ġrespect ively
ian ce
U rl
iz ations
Ġask ed
ĠR E
Ġch urch
ĠJ ew
f loat
ĠM ad
197 0
ĠS al
AT ION
Ġrecord ed
ĠL og
ee k
ynam ic
Ġto wards
ĠF in
199 5
NA ME
Ġsur v
m as
ain ts
ify ing
con s
c s
ĠA pp
Ġwe b
7 9
Ġcompon ent
Ġpat tern
Ġb all
Ġin side
ĠTex as
Ġset s
Ġs ense
Ġind ependent
Ġw or
Ġav oid
Ġwe ight
sc ope
C ase
ent al
ict or
ĠA re
Ġm ention
is ions
Ġst e
++ )
Ġcomp ared
Ġnum bers
Ġs ort
5 4
Ġpl aces
M in
off set
ĠK e
ĠO ver
ĠD uring
ask et
ĠĠĠĠĠĠĠĠĠĠĠĠĠĠĠĠ ĠĠĠĠĠĠĠĠĠĠĠĠĠĠĠĠĠĠĠ
S O
w ell
ĠB uild
ĠM useum
Ġt ree
5 1
c over
Ġ! ==
A g
erv ed
ĠA PI
scal e
ĠIn c
ĠR ad
ram ework
ĠR ob
ĠA tt
ĠO per
ĠS ince
F O
' m
Pro vider
bold symbol
ĠN ow
ms elves
ro ad
Ġinst it
M ax
u it
: </
Ġprob ably
ed y
Ġnot hing
ĠW il
ĠS ur
Ġgrow th
C P
ĠM em
il er
m en
Ġcult ure
Ġpl ant
Ġsol id
t ask
port ed
ĠH en
st yles
ig en
ĠSc ott
Ġbeliev e
ie ce
Ġepis ode
Ġc ause
Ġwrit er
he nt
prot otype
v ec
Ġr at
var phi
Ġp urch
ĠF ore
M y
ĠAfr ican
ĠCent ral
over line
Ġcon nect
R I
Ġhe l
Ġthe mselves
ol ve
ĠCh inese
ĠE nd
% %
if orm
Ġset ting
t emplate
ĠM us
O pen
empt y
Ġmem ory
ill er
( _
D o
Ġlarg er
Ġse lect
R el
8 7
c irc
Ġrel ig
Ġobt ain
Ġsc ient
fil es
Ġrad io
. ~\
P ort
ĠO ur
ĠThom as
ĠComm ission
Ġse ven
Ġqu ery
ick et
r ong
u ated
5 2
199 4
ĠF orm
az ine
T I
Ġallow s
[ \
ĠSup er
Config uration
en ge
6 9
util s
} ).
F L
B r
Ġch annel
IN E
ĠMin ister
Ġpract ice
g u
Ġoff set
Ġsub s
: "
T S
W idth
l ate
at ively
comm on
Ġr ule
) ]
a uthor
Ġweek s
Ġag re
Ġr ules
Ġdist ance
ol f
evelop ment
Ġexp and
Ġappe ared
Ġj ournal
Ġbir th
d ec
et ch
ĠSm ith
Ġrem ove
li ament
ĠG ames
Ġany thing
cript or
ĠAr ray
l s
Ġintrodu ced
Ġdemon str
A V
ur a
ov ers
Ġleg al
ĠH istory
ĠG reat
Ġqu ite
Ġex pression
f it
ĠC he
Ġcomp ar
S he
Ġobject s
Ġs en
ot ion
g an
Ġal tern
ĠChrist ian
5 3
Ġro ot
D ec
Pro cess
B undle
Ġph ase
Ġincre ased
Ġse ems
wh ich
it ory
Ġinvest ig
Ġprevious ly
a o
Ġcom pl
Ġwant ed
lo or
ill a
tt y
Ġd ram
Ġlim ited
Ġim ages
199 2
ĠGr and
Ġcap ital
is ation
#### ####
Ġres ources
ef t
ĠPro gram
az z
ĠIs rael
ĠT ur
Ġc elebr
3 00
Ġequ al
ĠPro v
ay ers
Ġrec ently
Ġinter view
6 8
K E
ĠFranc is
am l
Ġde ad
Ġen joy
Ġstart ing
et te
ĠC D
ist an
ĠCan adian
y th
Ġth reat
ĠGo ogle
Ġsh ip
ir ing
Ġl en
Ġs ports
ĠRev iew
Ġexist ing
b uffer
Ġb uffer
Ġl ack
Ġse lection
ĠO ther
ĠH el
Ġmed ical
ĠD ec
Ġfinal ly
Ġg ives
Ġear lier
Ġsim ply
Ġsc ience
c os
ens us
in ct
or a
a ught
ĠWest ern
b in
F e
s d
is l
it ation
= #
S l
Ġf loat
Ġh y
ĠJapan ese
ĠCar ol
return s
ed s
ĠRuss ian
ic ens
T ree
En try
o om
ig hest
D B
Cont ainer
' ve
h line
Ġst ri
Ġs ession
Ġoper ator
Ġcon cept
S im
m atch
cre en
Ġnecess ary
Ġman ufact
at in
ĠF ig
ĠF ile
Ġf un
ĠC amp
v ant
Ġf ast
eth er
anc y
& \
ĠC ath
ig er
Ġ ensure
O b
rem e
ec ution
Ġfri ends
Ġchall eng
Ġex hib
at re
Ġbro ught
Ġdes cription
ro ot
ĠGovern ment
Ġcell s
] );
e an
ĠT or
Ġpresent ed
F C
199 3
g ate
fr ak
Ġdel iver
sh ould
Ġdef ine
ĠB ill
Ġit er
Ġg old
Head er
Ġ ign
Ġsc ore
ĠD et
ĠVir gin
ar p
ig r
Ġincre asing
Ġd ro
Ġstat ement
we ight
ĠK ore
Ġex ists
ang es
ic ago
Ġet c
; ->
Ġg as
Ġtry ing
> ,
art ifact
Ġact ual
tr ack
m ut
Ġarg s
Ġc ivil
D irect
Ġn om
t hen
ĠLou is
fr ame
Ġmeet ing
b ool
R L
Ġs end
M O
| |
lang uage
ĠR el
Ġd irection
Ġit ems
Ġqu e
Ġre li
Ġevery thing
tern et
Ġda ughter
}, \
Ġl ives
Ġb ank
c r
Ġun its
ĠReturn s
ef f
Ġcorrespond ing
] [
Ġle ave
Ġch arg
ĠB ig
ĠĠĠĠĠĠĠĠĠĠĠĠĠĠĠĠ ĠĠĠĠĠ
' >
ann ed
Ġnot e
() ->
w indow
Ġh um
Ġman ager
Ġpre m
Ġt er
ĠC ap
ĠT O
or ial
ĠV er
Ġexper iment
ĠL ife
requ ire
Ġfin ished
Ġphys ical
Ġform ed
Ġt ag
f g
ĠA ut
Ġmiss ing
Ġrem ain
} ),
Ġhand le
Ġl ock
Ġdirect ed
it a
Ġd ensity
Ġk illed
t ree
ec ute
u an
Ġtrans port
Ġfam ilies
Ġcol lect
ĠSer ies
Ġsome one
Ġeffect ive
Ġem pty
L ambda
Ġbe aut
ĠKing dom
Ġex tra
Ġbegin ning
Util s
Param eter
Ġstud ent
M on
Q L
par se
Ġact ivity
Ġknow ledge
oc ation
Ġv ector
ic ated
ĠS T
ĠFr ank
k y
N E
Ġm ix
S H
ĠFl or
Z E
ant a
( [
ĠH ill
Loc al
Ġc ard
m itted
ĠZ eal
h r
re land
Ġa im
Ġex ception
Ġass ist
4 00
Ġp ark
sk ip
Ġh ope
} /
ĠL ong
Ġor d
AR T
ĠAss ert
Ent ity
Ġdec ided
' ),
Ġapp ly
C urrent
s ign
P A
Ġactiv ities
Inter face
Ġrece ive
p atch
ĠY our
g ment
Ġc am
UL T
Ġfor ces
Ġsequ ence
ĠP eter
Ġmov ie
ĠSt ar
umn i
M at
199 1
CO DE
th let
Ġpre p
Ġz ero
h ouse
{ {
Loc ation
ty p
Des cription
ĠN S
Ġpr ice
Cont rol
ĠZeal and
Th read
Ġsom et
Ġfr ame
7 2
k i
Ġsc en
Ġacc ur
Ġfem ale
Ġis n
re y
Ġm iddle
P R
ĠM el
ĠT HE
U B
P at
ct x
Ġbas is
clus ion
Ġconst it
pon ents
AL L
Ġd ark
Ġco ord
epend ency
Ġprot ect
Ġmax imum
ag ram
W rite
ĠF e
Ġw ays
ĠAcadem y
ĠRich ard
Ġst ories
af e
Ġin sp
P S
Ġmean ing
Ġp air
. \
Ġeas y
) ^
Ġs ources
Pro t
Ġw ide
Ġn ature
ĉĉĉĉ ĉĉĉ
Ġd igital
text it
G o
Ġlead er
Un it
R ange
ĠR ock
9 6
Ġed itor
ĠC reate
Ġant i
Ġv s
D A
Ġ{ }
ond er
Ġdr ug
l am
Ġb us
Ġdiffer ence
L evel
ã Ĥ
Ġm is
B O
Mod ule
ĠAr g
Ġle ague
Ġanal y
Tr ack
8 4
I F
Ġrem ains
ĠSe ction
d ocument
. /
ĠIn st
IG N
Ġarg ument
Call back
on ic
D F
os h
Ġart ists
Ġm ur
c a
al ing
ĠJ ose
ĠTr ump
O p
ak ers
k ind
Ġsh ot
ig an
Ġrec over
Ġb ur
ĠIt alian
os ph
vent ion
Ġs ample
du ction
Ġart ist
Oper ation
om ic
ĠL os
Ġco ach
val ues
and a
Ġt it
d rop
Ġ ~
f s
ple te
ĠL ake
ĠD E
ĠRec ords
ful ly
Ġg un
Ġequ ip
V AL
Ġlate st
ĠChar les
and emic
. $
196 0
Ġcle an
Ġrun s
ĠPro ject
Ġgener ated
asket ball
Ġtr ade
ĠJ ournal
Em pty
Ġf ully
S earch
Ġorgan ization
Ġd ed
Ġe arn
it iz
Ġc op
app a
ĠD ev
ick s
C R
ĠM o
im ages
ad y
ĠSh ow
f a
ĠComm ittee
ĠH ere
t oken
r ics
AC K
C opy
Param s
M M
St at
ĠS und
Ġcon str
ĉ Ġ
Ġc ook
ol a
Ġpart ners
ĠH istor
ro om
ĠL em
Ġstre ng
b ra
Ġal t
Ġs witch
E l
orn ing
Ġproject s
c ache
ri er
Ġf ixed
Id ent
od er
Ġse ek
Ġsay ing
ĠC re
Ġeconom ic
Ġsy mbol
Ġab ility
He ight
C ons
us ion
b es
Ġfact or
Ġquest ions
Ġover all
ic i
Ġad apt
N one
Ġre ached
iction ary
Ġm ut
Ġse cret
P o
Ġsh ared
Ġr ap
Ġgu itar
ĠW omen
art s
' ll
oun ter
Ġother wise
s plit
j o
d en
o oth
Ġdest roy
Ġconfig uration
Ġoff ers
Ġrel ative
Ġfav or
ur i
Ġprogram s
ĠÂ £
ĠA v
ul ate
Ġro t
ourn ament
Ġpl ans
Ġtrad itional
Ġmov ement
Ġh ol
O ption
Ġsp ent
artifact Id
os ing
f ree
er ry
Ġfound ed
1 000
fl ict
ĠBo ard
k r
Ġed ge
ST R
ell a
ĠAcc ording
G B
Ġline ar
ĠB usiness
Ġf oot
Ġthere fore
Ġpr im
Ġ* )
uct ure
}} $
V ert
Ġgr ant
res ource
Ġatt ention
Ġarg uments
ĠM ap
Ġcom mercial
ĠM ass
Ġh ighest
comm and
% ;
Ġdise ase
Ġparent s
ĠU nder
Pro perties
s ite
le v
Ġcont ain
ib ly
math frak
i h
Ġcoll abor
Ġparticular ly
b ound
ind er
t im
ĠDirect or
Ġgr and
ĠB ase
Pos ition
Ġre pe
out e
P L
yn ch
cont rol
Ġpro of
r or
ĠE ducation
ron ic
unc hed
irc raft
Ġ ::
oot str
Ġsub sequ
ac ement
S cript
=" -
Ġsl ow
6 3
pre t
Ġsum mer
cite p
Ġobserv ed
Ġch oice
Ġp en
ĠC heck
it able
Ġem ail
="../../../../ ../
ing u
ĠB ank
" ))
sy ch
p op
Ġvol ume
Ġget s
erv ation
6 1
b efore
ict ions
Ġcrit ical
Ġlist ed
lang le
N et
class es
ĠT imes
9 7
Ġevery one
ĠT im
Ġsc ope
ĠFound ation
R ev
ĠT op
ĠSe cond
ick er
ol k
Ġcol lege
Set tings
Ġbuild ings
Ġpl aced
Ġ> =
D D
Ġe lected
ĠFlor ida
9 8
d s
Ġgo es
ĠM ost
ert ific
ĠO R
if est
od ed
Ġh ospital
group Id
H ash
Ġan g
198 9
Ġcompet ition
Ġclass es
ĠT wo
Ġatt ribute
ĠGe org
ĠPro fess
p df
es h
ĠCh icago
ĠPar is
E M
ĠCong ress
os en
\ %
H ttp
t ml
ĠR un
Ġsaf ety
ĠT re
Ġalbum s
all ery
AN D
ag ment
Con nection
Ġsomet imes
Ġbe comes
ec ause
i en
Ġtr ain
Ġst ated
ex ample
Ġcoun ter
Ġal gorithm
or ation
Ġopt im
av ed
ld ots
Ġp aint
Ġb al
ĠOff ice
Ġro b
Ġap plied
st ack
ĠC ast
Ġs cript
ĠI S
Ġs ch
Ġvari able
con f
Pro ject
ĠV ictor
he ast
Ġfe ed
Ġevent ually
Ġnear ly
ĠF inal
Ġtest s
ootstr ap
Ġn et
ĠF ield
ĠL and
Rec ord
Ġro ute
Ġa uth
Ġopen ing
abl a
C S
er c
ĠEng ine
n ote
PE CT
Ġin fo
6 2
Ġra ise
COL OR
ĠS un
ĠI reland
B S
Ġtemper ature
Ex pression
M atch
h ash
c ard
Ġrecord s
iver se
ĠAr ts
D ir
Ġturn ed
Ġbro ther
Ġre ach
St ore
D own
" ));
Ġm icro
ĠC all
re al
Ġbehav ior
Ġg reen
ent y
8 2
atas et
Ġex am
Ġrepl aced
Ġwork ers
Ġappoint ed
le ep
w rit
Ġf it
struct or
L I
Ġsc ene
p g
Ph i
ĠM il
D ocument
Ġsh ape
198 8
ic ine
ing er
on om
K ind
T e
nt ax
Ġcon vert
it z
ĠD en
A m
ell ig
fo o
r ate
av er
u ke
ĠT our
Ġquick ly
h aps
c at
OR D
ĠSt ep
ĠAt l
Ġhigh ly
Ġc ore
ĠI ll
ĠSum mer
d est
Ġequ ival
a a
Ġdem and
ven ue
ĠS il
Ġover ride
ĠP o
\ |
Ġbu y
Ġup per
T ER
Ġper fect
Ġ" \
iz ont
ĠF ootball
Ġp ull
ĠRuss ia
ĠF re
Ġser ious
ma ke
CT ION
od ay
ms g
d ebug
ĠFor ce
Ġtrans ition
Ġdef inition
ĠO b
ĠAngel es
Hand le
ĠF ace
dev ice
ar l
ĠG ood
Ġent er
Ġappe ars
Ġsp read
h or
em p
T V
Ġfor ms
ĠM ur
w s
ish er
yd ro
ans ion
in y
Ch ange
() :
ĠS ocial
ĠB rown
Ġqu arter
ol ute
Ä ģ
n abla
Ġfour th
c lear
Ġt ouch
! !
as ic
Ġre ports
Ġt emplate
or ter
Ġf air
En c
f ound
Ġth read
7 3
at o
7 4
ĠG en
Ġto ken
ast e
ad er
ĠB ur
ĠOr der
ĠB re
i pe
rel ated
8 1
: (
J son
Ġpro per
Ġf ix
Ġgener ally
cri be
ĠSec ret
as y
T im
Ġw orth
b order
Ġocc up
Ġ Î
S ession
Ġtest ing
it ors
Refer ence
co pe
urs or
a fter
sub set
f ill
ev en
ĠP an
ir med
H ost
M ore
ĠFil m
Ġw rong
y an
Ġcommun ities
or por
ing le
Ġcaus ed
c ar
p ers
Ġc hem
Ġsmall er
ĠS ol
Ġs ave
Ġsit uation
Ġsh oot
Ġst ars
E v
M ult
il ed
ĠEx ception
Ġresp ond
se cond
ĠN ote
raz il
Ġapplic ations
et ime
Ġp andemic
ut ch
Ġgo als
ä ¸
ĠCh ild
Ġass ess
F alse
Ġrem oved
ol ved
ab it
Ġf arm
Ġoriginal ly
Ġindividual s
r um
d i
Ġgre ater
Ġmat ches
Ġbr and
en um
7 1
ma zon
8 3
ĠP eople
Ġsur round
ĠO h
Ġs al
Ġx ml
s pect
ĠCath olic
rom e
ĠP enn
ĠH ot
Ġre nder
Ġchar ge
ĠB i
Ð »
{ }
end ar
Ġmin or
j oin
Ġimmedi ately
Ġcall s
c opy
Ġparam s
anc ing
Ġcl in
omet ry
ĠVirgin ia
Ġa x
we et
Ġcompon ents
add ress
model s
os oph
ĠSp anish
P tr
ult ural
Ġf igure
ĠP et
Ġd ou
S ign
In st
el er
M D
} )$
Ġimpro ve
equ al
ĠIt s
Ġl ayer
Ġpo or
k in
ĠO ld
Ġin form
D on
j a
198 7
und red
ĠTr ue
=" _
Ġfil ename
ĠReg ister
' .
Ġp adding
Ġon es
ĠN etwork
Ġc orn
ĠF estival
i ro
Ġcou ple
="../../../../ ../../
ĉĉ Ċ
clud e
ĠM ax
v as
du le
K e
Ġcrit ic
Ġprodu ce
W E
Ġp ri
Ġvari ety
Ġac adem
ĠAs sembly
Ar t
al ysis
leg al
d irect
n ormal
ist ribut
co in
R ed
a uth
D ep
Ġ( '
k appa
V ari
F ont
r ange
Ġm ission
P ass
ĠD ate
d at
s v
Im pl
Ġappro p
P op
Ġ er
cent ering
ĠMex ico
Ġbl ue
Ġcons um
Ġf ederal
ERR OR
Ġdom ain
Int eger
? :
Ġopport unity
Ġsol utions
Ġpress ure
ot ing
Ġpr iv
Ġbe y
Ġin str
ĠS ervices
Ġsur pr
ĠTe am
ĠV is
ĠK n
ĠC ON
ri end
l n
Ã §
ĠMart in
S igma
med ia
Ġl ibrary
Ġpres ence
Ø §
Ġ eth
198 6
Ġplay s
ĠUS A
Ġst ations
ĠH ome
inter face
Ġf ans
Ġbel ong
ĠAl so
M ark
Ġla unch
b ind
X X
Ġo il
izont al
su ccess
OR T
ĠO p
Ġw ind
198 4
k m
app ed
ĠSc ot
Ġext ension
Ġv oice
roll ed
Ġbey ond
h igh
Ġw ild
ab ilities
og gle
Ġg iving
Ġmov ing
As ync
Ġhold s
Ġat tr
ĠW ood
ĠD evelopment
ar ian
d ot
Ġfore ign
Ġn ative
act or
at ically
Ġv ote
n el
org an
Ġcont aining
k er
G E
al i
cl os
Ġcar ry
N ow
ug ins
Ġstruct ures
mb ox
Ser ial
b i
ĠHen ry
ĠE rr
J ohn
p ool
pl ing
Ġelect ric
U RE
pp ed
am ing
Ã³ n
styles heet
Ġrepresent ation
Ġn amespace
Ġb ottom
Ġhouse hold
ensure math
Ġth r
est amp
ĠOlymp ics
Ġcomput er
Ġset tings
em porary
wh ile
s ort
w idget
typ es
ĠI d
Ġfl ag
Ġshow ed
ig ration
Ġnot ed
Ġw ood
Ġpur pose
Ġimplement ation
ĠU se
Q ue
ĠT able
L ong
Ġcon nected
ac cess
Ġf elt
A c
ul y
hen s
T emplate
set s
ar ant
Ġcomplet ely
j ection
N ames
ian a
Ġlet ter
Ġf irm
R ight
P RE
Ġh op
Ġro ll
c p
Ġd atabase
ĠG al
ollow ing
on a
Or der
ĠL ove
ĠMed ia
ĠO l
doc s
Ġn uc
n y
Ġs ociety
Ġinterest ing
ot ic
Ġp ackage
ĠIt aly
Ġill ust
Ġcap acity
Ġrequ ires
Ġprovid ing
c ient
âĢ ĺ
ap ers
Ġbroad cast
ĠPl ay
I ter
Ġfeature d
Ġla unched
OR M
ĠH aw
Ġhand s
Ġy ield
f ocus
Ġa mb
ot imes
Ġde cre
br idge
Ð º
Ġmajor ity
ian o
Ġb attle
N on
Ġcre ating
in ternal
th at
re q
Ġwin ning
Ġwh om
Ġneg ative
198 5
O ther
olog ies
Ġf if
Ġn ation
Ġenc our
Ġp le
Ġ util
Ġa ctions
Ġequ ation
m id
if ul
d elete
Ġpro file
Ġdistribut ed
C al
ĠE r
Ġbas ic
ĠSund ay
est ed
Ġv oc
ĠCh ief
M ember
Ġpro ced
Ġb lood
S ince
Ġann ual
in em
ĠB G
est s
Ġrepresent ed
ĠG ame
Ġcont ainer
Ġhas h
Ġp oll
L eft
u y
ĠJ im
web kit
ri age
Ġrem ained
ĠA wards
g raph
19 50
s ession
ap se
Ġess ential
Ġfootball ers
Ġst ra
Ġpre tty
Nav Bar
Ġdes pite
A re
Ġm unic
Ġa ircraft
sk i
ish op
Wh ile
atur day
ard en
Ġj av
Ã ¨
st ar
Ġdr ive
g s
Ġal umni
Ġs ites
ĠL ibrary
m ode
( -
Hel per
M enu
Ġaff ect
v ol
Ġapprox imately
s end
ĠĠĠĠĠĠĠĠĠĠĠĠĠĠĠĠ ĠĠĠĠ
s ur
De cl
vir t
Ġd u
ĠP ac
ĠL ee
ĠW ell
ĠAl though
Ġch ief
Ġold er
w id
D I
b al
Ġh ar
re nder
Ġs ales
W S
Ġrem aining
or al
to String
as ure
im inal
st ep
res ents
O K
ist ers
Param eters
{ -
ĠE arth
O ur
Ġpr ison
Ġend ed
25 5
Ġown er
ĠVal ley
c are
N N
ĠL ine
Ġund efined
ateg ories
k o
ĠJ ud
b ing
g est
as ion
Dev ice
Ġsc ored
Ġad opt
reed om
Ġtr ust
im ents
ic ol
Ġal leg
ud get
Ġc ru
ĠEX PECT
P H
ĠYou ng
Ġsepar ate
il s
Ġb illion
Ġm ask
Ġc ache
h over
ĠSw ed
Ġinv oke
S chema
ĠM ov
V ector
ult s
oc key
ust ain
In valid
Ġst ock
Ġany one
atal og
at ers
i able
Ġneigh bor
Ġerr ors
AT A
ĠF ort
Ġrespons ible
-- -
us band
Ġstr ategy
Ġ[ '
Ġinit i
ĠL in
ĠS pe
U se
Ġmur der
ce an
Ġsaf e
Ġpart ial
ĠR equ
Ġeas ily
ĠE conom
z ing
198 3
cl ick
Ġredu ce
v ector
Result s
\ [
ond ay
ut y
ern el
f n
ell ed
Ġ ut
ud io
li e
ĠFr iday
os is
alle l
Ġcl imate
Ġdescri be
ed ge
aw s
il ton
Ġf ig
Ġse a
Ġra ised
R ect
ang uage
Ġsus p
Ġagre ement
S L
Ġm aster
Ġst orage
ens ional
cl es
d ates
ĠV alue
anc er
/ \
ow ers
Ġpe ak
Ġdeterm ined
urre d
âĢĿ .
T ool
E C
v m
Ġim ag
Ġco ast
Ġan im
ab y
wh ite
d el
( *
et ry
let ed
Ġe cho
equ als
Ġn odes
cre te
Ġsing er
ĠH and
Ġext ended
Ġorig in
Ġeffort s
um s
trans form
Ġaward ed
Ġhe avy
Ġm achine
Ġv an
ak a
Ġsl ight
% )
C re
T itle
m ail
ĠAr ab
Ġw id
ĠMan agement
Ġdeterm ine
Ġph il
Ġb rief
Ġm ill
_ ;
ĠM a
ĠE vent
sup port
Ġsh ift
Ġed ition
Ġp refer
Arg ument
are n
ĠL im
hand le
; "
in ations
ĠV iew
D om
j i
ĠS pecial
Ġgrow ing
Ġcan cer
if ies
ĠCarol ina
pe ople
Ġde lete
Ġf ra
ĠD om
' ],
est er
9 4
Ġar rest
> .
Ġsen ior
ĠHe ad
pos es
id ers
Read er
T C
Ġhelp ed
ĠU N
( :
Ä ĩ
Ġown ers
Ġserv e
ĠJ o
Ġp lease
Ġstra ight
Ġcho ose
m es
ĠM ethod
Ġp ages
ĠJohn son
198 2
Pol icy
ad ium
ĠK h
Ġar m
Ġident ity
l ers
P arent
oper ator
ĠL O
en v
ĠB ob
ĠCent re
Ġmost ly
ĠE p
A pi
Ġth ous
Ġstud ied
ĠM odel
ĠB et
Ġsign al
fr ont
ĠS u
ip eline
Ġhe ard
urren cy
Ġpar se
all ow
d ots
W rap
aw a
tab ular
Ġh yp
Ġch ain
at i
ĠM P
& #
Ġrem ember
w ar
Ġcon cent
Ġoffic er
mod al
ĠFace book
E Q
## #
re es
ĠA L
Ġoffer ed
er ies
C ore
Ġinflu ence
y e
Ġread y
ĠW indow
wid et
ĠEn ter
p lement
Ġc at
Ġhead er
Ġp iece
Ġact or
g lobal
================ ================
ru le
S cal
M ed
Ġmaterial s
Ġtri al
Ġgener ation
stand ing
Ġcost s
J ob
non umber
un ities
ĠCol or
Ġvari ables
Ġc itiz
ĠN O
agn ost
Ġpart ner
Ġas pect
G ET
Ġfor ced
ĠP M
H as
is hes
ĠâĢ ¢
Ġident ified
D oc
S k
S w
Ġch ance
Ġwe ak
Ġcon ver
id ae
Ġredu ced
iqu es
V er
Ass ert
ang ing
197 9
9 3
ĠIn formation
dis abled
c oll
Ġresult ing
ĠL iber
Ġr ates
} -
sh ot
ic ed
Ġuse ful
H ome
Ġstr ateg
Ġal one
Met adata
field s
h s
m ond
ĠM ath
Ġun known
ost on
con nect
Ġmed al
l ook
p ower
> ();
R ender
Ġdiv ision
Ġappear ance
P arser
Ġbe coming
9 1
virt ual
Ġin nov
on ym
ef fic
Ġwrit ers
Ġfail ure
Ġmin imum
t n
se ct
Ġre b
ov iet
it an
Ġwas n
s ystem
Ġstr ugg
ik i
O M
Ġvis ual
ult y
ĠBG COLOR
Ġtr aff
ash ion
Ġexact ly
N um
ĠP ower
l ines
c ustom
ĠG lobal
ĠB ack
}} {
ĠL ord
Ġin line
ĠâĢ ¦
Ġw rap
P erson
x x
` ,
B ody
Ġlook s
Ġun signed
res hold
ov es
Val ues
pl ugin
s pe
ann els
st one
Ġreg ions
widet ilde
in et
Ġsup ply
st ore
ific ations
Ġd rop
Ġcent re
= {
$ (
ĠJ ones
Ġj oint
ĠTh us
Ġr ul
Ġref lect
ans as
ex port
ĠJ un
Ġmus ical
ĠE mp
pr ime
Ġc ategory
Ġcustom ers
D IR
Ġk ing
ĠThe ir
AT H
u ages
9 2
Ġm orning
ut s
Ġass ume
ole c
Ġfact ors
ĠĠĠĠĠĠĠĠĠĠĠĠĠĠĠĠĠĠĠĠĠĠĠĠĠĠĠĠĠĠĠĠ ĠĠĠĠĠĠĠ
ir a
S m
Ġh undred
Ġpart ies
rom ise
Se lect
ĠS ar
Def inition
Ġansw er
Ġp ush
Ġtrans action
AG E
ĠB razil
fr am
ĠI P
15 0
v a
ro t
ol es
N e
R ule
ĠK ey
Ġmention ed
-------------------------------- --------------------------------
D L
Ġle aving
Ġsh op
Ġis land
ĠA R
Ġcar ried
ĠC y
w an
Ġin come
ĠAs ia
ĠSt and
Ġdepart ment
Ġ& =
n ap
F ound
Ġag ent
ĠA M
ĠTechn ology
Ġt ournament
ĠM os
ĠP ubl
he lp
Ġstr ict
Ġby te
ĠC ross
E ach
r ich
Ġr are
Ġf ine
C I
W riter
stit ution
Ġb ul
Ġdr iver
Ġorgan izations
Ġman aged
Ġd og
Ġd aily
Ġtrans l
An y
198 1
ĠF ire
ĠS aint
clus ive
Ġp anel
ĠT ri
Ġpro test
Ġ} )
im s
ĠIr ish
ad s
Ġh usband
ĠN avy
En abled
Ġgener ate
ĠF ree
Ġsp in
D S
d ependency
ynch ron
r b
Ġn orm
Ġp aid
` .
ĠJ oe
cl aim
rit ory
c ur
Ġsp irit
Ġl atter
Ġadv ant
Y ear
ĠComm unity
} ]
ĠH uman
c up
iv ery
S u
Ġcandid ate
Ġstud io
Ġr iver
Ġre lation
ĠC ode
ign ment
annot ation
D raw
ul f
Ġfam ous
ĠN OT
by te
=" /
__ (
r ick
Ġin her
Ġcl oud
M e
van ia
St ack
Ġocc ur
Ñ ĥ
Ap plication
ĠA N
ic ons
Ġl ived
Arg s
Ġh arm
ĠW al
ex ports
ĠCol lection
t ure
ĠW ales
ĠIr an
\ ]
ĠJose ph
IT Y
ĠNor thern
G u
b ootstrap
as er
By tes
Ġb ill
P T
ĠC opy
The y
Class es
N ote
Ġs ell
hem at
SE T
n ce
ĠI O
Ġclaim s
Ġp ool
p resent
oth ing
od ies
ap pro
AC E
ĠP rem
ul s
Ġ ice
bo olean
Ġey es
Ġcomm it
ad or
Ġ icon
197 2
ertific ate
Ġofficial s
m ock
er g
M ay
equ iv
ĠS aturday
E CT
ook s
k ins
? âĢĿ
ov a
Ġrep resents
S ION
Ġup dated
ann er
Ġpol ic
Ġtool s
Ġr ac
Ġpro ve
ect ors
Ġcomm ission
Ġent ered
ĠPar liament
if ically
S ome
sc ape
V ol
ĠH or
ograph ic
L a
Cl ick
go ing
Ġdirect ory
ob uf
Ġst eps
reg ister
Ġcom ments
Ġs plit
Ġph one
D uring
com ponent
Ġs ector
ĠC ard
' d
c ert
Ġres idents
amp ion
ĠCon ference
Ġcon flict
Bo olean
Ġdown load
param eter
it o
ĠCol umb
ast r
il ation
) "
R oot
197 6
Ġprob ability
) -
16 0
Ġreve aled
Ġes c
Ġemploy ees
ph one
Ġcor re
ĠS and
Ġen h
W ill
oc ity
c hen
att ribute
197 8
Ġprodu cer
Ġcontin ues
ĠF igure
ĠSt at
d ouble
Ġst ack
ty ped
urb an
ĠW eek
ĠE ach
set tings
ĠP op
D ebug
& &
v ement
Ġd raft
it ness
Ġ+ +
im a
gr ade
p anel
Ġunderstand ing
F inal
ĠS ir
fram ework
ent er
Ġmeas ures
uck et
ĠBl ue
ang ular
Ġun less
put e
b uf
Ġo s
Ġnot ice
\ "
call back
C are
Ġby tes
ado op
Ġm ixed
Ġapprop riate
igh ter
\ !
Ġag reed
ĠL i
ĠG ar
Ġn ine
st at
A F
Ġcover ed
Ġdev ices
l as
ĠWilliam s
re place
ĠH on
ĠP oint
Ġr an
ke ys
anc he
Ġf ramework
Ġrest aur
Ġb asketball
ĠA mazon
Ġnew sp
is ms
lem ma
Ġest imated
197 5
p adding
ur ies
Ġun ion
Ġassert Equals
Ġtri ed
ub y
ĠP ak
cl oud
ol ver
ĠW in
L S
ĠW ay
Ġadministr ation
ent ity
Ġext rem
Ġp il
Ġ( *
Ġhistor ical
k g
ĠD own
Ġw all
am m
By te
Ġser ial
ad min
ĠU ser
istr ation
Mem bers
ap y
197 4
Eng lish
Ġveh icle
Ġch air
ĠR h
EX T
Ġfore st
ĠChrist mas
ĠII I
Ġc ities
ĠCor por
ĠF I
Ġown ed
Ġinter pret
ues day
Ġequip ment
ed nes
ĠT ele
ĠM onday
ĠĠĠĠĠĠĠĠĠĠĠĠĠĠĠĠ ĠĠ
Ġex amples
sy l
ex ception
\ {
197 7
} +
ĠSp ain
Ġrele vant
D i
pro duct
ro ph
Acc ording
A ME
Ġact ress
foot er
Ġre asons
Ġke pt
E arly
Ġpolitic ian
f aces
Ġcomb ined
ĠL o
Ex p
ĠC are
b ury
Ġview s
Ġs quare
On ly
ĠPol icy
ĠE lect
f ull
H ere
ix el
Ġs amples
Sh ow
ĠM any
St orage
Ġth er
ay lor
Ġcons ists
Ġh uge
Ġbr anch
m aterial
Ġc ounty
Ġsc hedul
ĠW ater
Ġnumer ous
ĠA ND
Ġfe et
Ġm ock
est ic
Ġsym met
r id
ĠL uc
and on
Ġcl uster
Ġa ware
ĠH ospital
ic ip
ĠB ow
ellig ence
Ġp p
Ġprocess es
ĠM ah
ar ia
Ġa head
em ail
Ġequival ent
ar ation
TE ST
ĠHT ML
Ġprot ocol
ĠP ri
Ġ' /
Ġfin ite
Ġt al
ĠP ass
Ġoper ating
Ġro ut
Ġp urs
Ġbusiness es
ĠPl an
ĠE qu
Ġex plicit
196 8
Ġch art
S R
Ġrelig ious
Ġvict ory
Ġat tract
Ġd ig
", "
ĠL ead
Ġcult ural
ĠMich igan
Se cond
Ġ< =
ec es
Ġl if
let on
urs day
} "
ff ect
ĠE q
M C
Ġg al
Ġsignificant ly
ĠM A
ĠT er
G S
l ife
Ġb log
D elete
in ates
t oggle
in ion
Ġhapp en
Ġhe ar
text width
Not es
Ġse asons
ĠBrit ain
ĠL ab
n ames
our ney
C ustom
Ġv el
ĠIs lam
k l
ir al
Ġliter ature
M ock
n am
up le
st op
ĠPol ice
Ġrequire ments
h ere
197 3
ĠM ain
Ġf loor
Ġw el
not ation
Ġd ynam
Ġsche me
)) )
. '
1 20
Ġspe ak
in line
Ġin fr
Ġon to
ĠG i
p erson
Ġs s
Ġfl ight
Ġse at
P ool
syl vania
ĠJ ac
Ġs outhern
Ġw ants
Ġwe ap
Ġconf irmed
Ġj son
ug by
ĠU kr
Ġm iles
ĠW ild
Ġh our
ĠE ven
P ublic
form s
ĠS outhern
ge bra
S um
m iss
Ġbut ton
enn is
Ġpower ful
Ġkn ew
Ġiss ued
ĠDes ign
Ġdam age
ĠPac ific
Ġle tt
Ġb oy
In itial
Ġex ternal
ac le
cont in
Ġshow ing
Ġoffic ers
sec ut
Ġlead s
m ann
Ġatt end
ĠSec urity
Ġex change
m ic
Ġdel ay
Ġad vert
ednes day
hold er
ĠN av
ent ed
pos ite
; <
B R
ĠDemocr atic
Ġeconom y
Ġnor thern
Ġex tract
="../../ ../
Ġf ish
Ġp et
ail ing
ĠV an
ĠSen ate
Field s
z en
Ġbound ary
-- >
W orld
od d
ĠM en
it age
ĠThe orem
ĠW all
ent h
Ġun iversity
un ct
) =\
Ġatt ended
Ġun ivers
D T
ĠO x
o es
Sy mbol
Ġde ploy
il a
sq l
n amed
Ġdo or
ĠRad io
Ġcon sequ
ĠE very
ĠC ivil
Ġrat io
id en
l ig
Ġchall enge
y er
Test s
à ¸
Ġf le
ĠR am
ĠU RL
ĠĠĠĠĠĠĠĠĠĠĠĠĠĠĠĠ ĠĠĠĠĠĠĠĠĠ
Ġc ool
M eta
D C
ĠS ong
Ġch osen
ĠK en
s el
ĠA uthor
inst all
Ġp m
g a
ĠMed ical
Ġin tr
eng er
z eta
ĠFrancis co
Ġest im
197 1
el ess
ĠRe port
m aster
gy pt
Ġide as
Ġev olution
ĠN ight
ple x
Ġstart s
Ġp od
ĠChampionship s
I con
ne ctions
Ġmag azine
Ġ ),
ins ert
ĠF amily
Pat tern
Ġbe at
196 9
Ġestablish ments
ĠD C
N etwork
ĠB oston
em y
ig in
uck y
g ency
ĠCh ris
Ġf ear
th m
Ġpos itions
Ġpro pos
Ġthem e
com ment
as hed
ag ger
HE CK
Des criptor
Ġcall ing
pect ive
Con st
ĠB ul
ĠT witter
Ġdist inct
ĠJ SON
I E
Ġpl anning
Ġdram a
Ġm obile
Ġsp ot
Ġcor por
Ġch ampionship
Ġrap id
ele ase
Ġcl ick
B efore
} =\
S U
ĠR os
P P
X ml
ri ev
ip ality
w riter
h ar
ĠR o
c b
Ġtr uth
X T
ĠCo ast
sh all
Ġre con
M I
str a
Ġtyp ically
F ig
Ġauth ors
Ġp an
; \
ner gy
Ġdes c
ap plication
ĠB oth
Ġrefer red
ang o
19 40
D ialog
Ġall oc
ĠErr or
u ilt
ĠAnd rew
at uring
Ġcon ference
The se
Ġregard ing
Ġarchitect ure
ell er
ĠM iddle
d ict
Ġ ens
ĠOn ly
H S
Ġrecomm end
Ġvoc als
Ġst reet
ĠS ports
Ġinitial ly
is er
Ġhapp ened
r an
P si
L ock
ĠR et
=" "
Ġtrack s
st ein
Ġm sg
ĠCar l
id el
sh ape
Ġaltern ative
il ly
ĠGeorg ia
ĠJew ish
Ġne ut
Ġclaim ed
sh ort
item s
Ġcomb ination
ĠOr gan
uss ian
ĠG reek
ist ent
e z
Ġtr av
Ġaud ience
og en
Ġc ars
ĠH y
clud ed
g ers
Ġcre ation
Ġsur vey
ĠJ on
Ġsk ills
ĠL android
ĠM id
FA ULT
Act ive
Ġdr ink
Ġart icles
w er
Ġpro ceed
V ar
) /
Ġmet al
Ġconduct ed
ino is
h adoop
] ]
ĠOh io
) }\
ĠM ike
all oc
Ġsecond s
Ġs ister
KE Y
Ġfund ing
ab eth
Ġke ys
ĠThere fore
ĠM ot
burg h
Ext ension
ĠSc iences
ay a
print f
c ategory
Ġlook ed
Ġw ave
om orph
196 7
point s
Ġmot ion
Ġad just
Ð° Ð
Ġinc orpor
ĠJust ice
Ġh idden
pl ugins
ĠMark et
Ġme ant
ch er
Ġprote ction
Å ¡
ð Ł
ird s
Ġinterest ed
ĠT ext
ag ers
Ġr ise
194 5
Ġfin ish
us es
FI LE
Ġfrequ ency
P ackage
ĠM icrosoft
un te
ĠEmp ire
St ep
aut o
Ġleaders hip
ĠA ff
Ch anged
Ġadd ing
let s
Ġm essages
rec ord
M ENT
Ġap i
Ġexecut ive
Ġprocess ing
ĠPenn sylvania
Ġinvest ment
yth on
, -
ts d
add r
EN D
Ġjav ax
typed ef
Ġcoun cil
ru it
Ġded icated
ĠH arr
ĠĠĠĠĠĠ Ċ
19 30
ĠQue en
Ġp i
ĠV AL
Ġear th
Ġvers ions
ĠC oll
Ob j
ĠC ov
s en
am in
Ġfac ilities
ĠC ro
Ġ ult
ĠF und
el a
Ġcons ult
SS ERT
gr id
A uthor
A v
Ġpat ient
Ġ\ {
A uth
Ġsu c
ĠProfess or
ur er
on av
Ġexp ansion
Ġse gment
ell o
Ġtraff ic
MA X
press ed
ĠScot land
Ġen able
ĠAs ian
Ġquant um
25 6
Ġf resh
Ġb att
Ġdiscover ed
in itial
r ical
Ġint ended
ĠSecret ary
Ġdep th
ĠB attle
ĠB as
Ġ" /
c pp
Ġcontr ast
b ul
block List
I A
S end
How ever
M ain
ind ent
ele gate
Ġl abor
ost er
sec urity
aw n
ĠMc C
Ġar my
Ġpl ot
al id
u ing
ed it
ors hip
Ġident ify
Ġw onder
f ony
reg ion
Ġpol y
A ust
wide hat
mat rix
ĠS oviet
d x
Ã ¢
ĠThe atre
H igh
ĠA ction
Ġcon sole
ĠA ri
: #
ad el
ĠInd ust
Ġent ity
Ġp sych
k w
Ġsex ual
th read
Ġmon itor
ok es
Ġyou th
âĢĿ ,
Back ground
W A
Sec urity
ĠN Y
Ġtr a
Ġd ream
Ġnetwork s
P AR
c ut
ov ing
sp ring
s ol
Ġto ward
ack et
}^ \
Ġnot es
Ġreg ional
6 00
Ġf ellow
ĠL ink
or ney
ĠL ight
N ational
ath an
ict ures
Ġper haps
Ġelection s
ĠAp ple
ĠDef ault
ion e
W idget
Ġrecord ing
ide os
ĠT w
astr ucture
Ġre ject
N G
ĠJ r
ĠAn y
Ġcon vers
up s
Ġphot ograph
ym fony
ĠHistor ic
un signed
ĠV ersion
Time out
i y
Ġbeaut iful
Ġcompar ison
Ġ$ {
ĠB or
Ġsuc ceed
Ġmain ly
ĠT H
Ġg ather
ĠP aram
Ġ ul
Ġallow ing
D el
Ġ{ };
em on
Ġinstance of
Ġocc urred
Ġins ert
ĠS O
ĠF ederal
math sf
196 4
//////////////// ////////////////
Ġserv ing
and ra
The n
Ġex port
ĠJer sey
Ġre ality
ra wn
ing ham
ĠEx t
Ġp icture
ĠCE O
ĠK ent
M B
ĠProv ince
c it
Ġexper t
i Äĩ
Ã £
Ġob vious
R ad
Ch annel
ĠSt an
ĉĉĉ Ċ
' ))
f amily
__ __
AR Y
Ġstreng th
ad ing
ĠP age
ĠDan iel
ĠJ es
ĠM ult
Ġsuff icient
Ġle aves
ce ived
Ġr ail
TE D
b ro
n ic
ĠWindow s
w ait
ĠW alk
ĠK ong
Ġl icense
Ġslight ly
M sg
n one
ĠL u
ĠB ern
_ ,
ĠPh ys
ock er
hent ication
Ġtre nd
Ġdet ail
an es
Ġs un
Ġinteg er
plic ations
Dis play
ĠF ar
z z
Ġis ol
19 20
Ġex cell
ind s
Ġst ress
Ġf lex
Ġbenef its
Ġ il
Ġcol on
bs erv
S cope
Ġag ree
Ġtechn ical
Ġf re
pass word
Acc ount
Ġcr is
ĠF alse
ĠM u
Ġexper i
Ġder ived
Ġcle arly
uz z
Ġconc ert
Ġbuild er
Ġrepl ace
ĠG irl
T ab
Ġc row
ĠIn itial
Ġs port
b re
in ity
Ġcam era
het ic
ĠH a
}_ \
Not Null
Ġbeliev ed
Ġclass ical
} |
J ECT
I B
T A
Ġd anger
Ġsh ut
ress ion
ĠAd ministr
196 5
Que ue
Ġaccept ed
Ġno ise
ipp ing
ĠM ajor
ack s
Ġsp aces
Ġblock s
HT ML
b ad
ĠJ eff
Ġl ab
ĠSt e
ĠComm on
Å į
ĠT uesday
ĠL ast
pt on
ĠRepublic an
ĠIn vest
$ )
al o
Ġd b
onav irus
im pl
LO G
. *
Ġfocus ed
Ġun iform
Ġvis ible
G A
Ġjob s
Ġenvironment al
Ġin ner
ly ph
ĠF urther
P erm
il ing
ĠL ocal
p et
Ġabs olute
ĠSe a
T wo
Ġinj ury
i ate
196 6
ĠF unction
ici ency
ont o
c md
Ġcred it
ĠRe al
Ġrel atively
ĠJack son
Ġdif f
ot hes
Ġfl at
In it
r ine
ĠE U
25 0
ĠĠĠ Ċ
drop down
Ä ±
l ay
Ġap pre
us et
art ers
} :
ĠAb out
Ġh ydro
Ġk ids
) ^{
line ar
v in
prot obuf
ĠK r
R est
ition ally
ist ant
ĠEd ward
Ġt ab
Ġatt ributes
Ġinstall ed
ĠB ang
is c
Trans action
ck now
Ġa f
ĠPhil ipp
Ġass igned
pos s
Ġloc ations
J SON
Ġtell s
t ers
p an
Ġb udget
Ġv irus
ord ers
Ġb ass
Ġform ation
m argin
ON E
Ġanim als
Ġreview s
m i
Ġbenef it
ĠStud ies
Ġopport unities
un a
ĠS E
Ġd ie
w ater
Ġachiev e
Ġr ailway
Ġk ill
Ġdef ense
Ġlaw s
Ġfor t
ĠIll inois
Ġd ir
ĠG a
t ip
Ġconstruct ed
oun try
Ġpl us
Ġwin ner
Ġinvest igation
cd ots
Ġpl ants
rad ius
RO M
Ġregister ed
reate st
M edia
Ġacadem ic
R C
he ll
j ar
pro file
en umer
Ġmot or
Ġdoc uments
Ġcitiz ens
t ain
Ġrem ote
cl ip
ĠR ay
Ġcommun ication
B it
ĠTh ursday
ĠEn vironment
osoph y
ĠL ive
um es
Ġw allet
ĠI l
import ant
Ġp al
Ġcre w
Ġapp arent
Ġtri p
Ġattack s
G en
~~ ~~
C F
B est
en ant
que ue
ĠC apt
Ġm useum
ĠE gypt
Ġh tml
Ġest imate
Ġfact ory
ĠPr ince
Ġchalleng es
Ġcr ime
Ã ±
Ġr ich
Ġc ensus
Ġb rowser
Ġhe at
r im
ĠW ednesday
ĠSp ace
Ġdiscuss ion
Ġbeg ins
ĠF our
result s
j pg
f riend
se ud
"> &
{ (
iv ation
ĠL ittle
Ġbr ain
in ant
Fl ags
s in
ç ļ
o ir
Ġres olution
D P
Ġs quad
Ġfund s
Ġmar riage
Gr id
Ġdefe ated
ĠT ask
G lobal
Se lector
D em
ï ¼
anc el
Ġbig gest
Ġv en
Ġhapp y
ĠD ar
Ġbr idge
C ar
ĠMus lim
ry st
Ġarr ived
ĠE st
im b
j e
Ġsuccessful ly
Ġact ors
Ġpred ict
og y
Ġthink ing
Ġvacc ine
ĠUp date
Ġsm ooth
iter al
e per
Ġw arm
ap pe
if fer
ĠWh o
ĠPol it
Ġhigh light
Ed itor
Ġpl ane
Ġadvant age
in ator
in os
Ġf an
ri e
Ġorder ed
Ġsett lement
ĠP ath
er ial
ĠBro ad
? "
8 00
Ġl ies
ĠP y
Ġph oto
C or
Ġan cient
SI ZE
ĠG re
Ġpolic ies
Ġveh icles
Ġdiscuss ed
oper ation
çļ Ħ
ĠO ption
ĠSt art
y o
Ġgu ide
Ġlo op
sc roll
ic er
Ġacqu ired
ĠS pec
_ ->
ach uset
ĠS ign
Ġey e
ĠKore a
Ġr ing
h ab
Ġwest ern
C ast
Ġdr iving
achuset ts
F loat
Ġw arn
mod ules
f ire
pl ed
iz abeth
edd ing
@ "
form ance
L java
Ġtre es
T ags
ĠL atin
Ev ents
u ations
) ),
ĠS pring
[ :
if er
Ġsom ew
it ter
Ġdet ect
ĠK ar
f ly
Ġex erc
ĠC A
Ġc er
ĠEast ern
h ome
ĠA sh
ĠBro ok
Ġhy per
w a
w orld
Ġread er
Ġh ers
ĠW is
at ial
m o
ĠAmeric ans
se lected
ĠW he
}} (
con nection
Ġaff ected
ĠEx ecut
Ġ ip
Ġpolit ics
Ġtr igger
ur ance
ĠT aylor
ential s
el ly
Ġclin ical
Ġc ref
Ġel im
Ġdevelop ing
F urther
w ords
Ġf ill
Ġn arr
ĠS om
ĠRep resent
ĠN E
* )
12 8
H R
C ond
ĠB BC
Ġcom edy
N T
te en
Ġcr iminal
ĠT R
tx t
ĠM ic
Ġadv anced
Ġdis s
AD D
Ġcorn er
Ġt end
type of
Ġexpress ed
Â °
ĠT em
}) \
ĠL ike
Ġso ft
man ager
ĠComm and
ĠN umber
Ġsh ips
10 1
ĠJ ava
ĠB ecause
s creen
Ġg one
ĠM aster
sup er
)) );
g ence
Prot ocol
ib li
ĠTr ust
Ġstand ards
Ġf uel
ĠR ights
ĠE th
Ġlist en
ĠN et
ĠAl b
Ġhous ing
Ġd oll
am i
Ġspe ech
Ġaw ait
Ġsm art
Ġg ain
( !
ch ain
Ġfind ing
" `
VER SION
p a
Ġpl anned
ob s
T ABLE
ĠGovern or
Ġrequest s
Eng ine
. __
Ġeff icient
ĠB ad
m ove
Ġv ac
Ġf unc
y es
Ġ[ [
yd ney
Fe ature
Care er
() ));
assert Equal
Ã£ o
L C
Ġs ustain
Ġviol ence
ro vers
Ġpre par
Ġaud io
ĠAd v
Act ivity
s ave
ĠM ember
B I
Ġadv ance
Ġwe ather
us hed
Ġcy cle
ĠHam ilton
Ġpro min
Ġhous es
le an
du ced
c am
Pro xy
Ġ$ (\
ĠR en
Wh y
Ġcan cell
% ,
B i
Ġin fe
or row
ĠTh ree
L IC
Ġlearn ed
Ġb urn
att ers
Ġsy nt
V D
âĢ ¢
ĠV ill
ass ets
Ġad j
or i
V ideo
c uss
Ñ ı
ĠOx ford
Ġun c
Ġgu arant
pr imary
ef fect
Ġlang uages
Ġprofess or
ap ore
Ġs qu
ĠR om
om ial
Ġen abled
h u
ĠD utch
ĠK im
Ġp hen
Ġj ump
erv ative
ĠLem ma
Ġmark ed
ev in
L P
ĠM ake
Iter ator
def ined
cont roller
h ow
196 3
fl ags
G R
d eg
ĠS us
n umer
J an
Ġtechn iques
am ber
Log ger
ĠSt ation
Ġalong side
Fil es
B rit
Ġind epend
W N
Ġfig ures
Ġdiffer ences
ĠB O
Ġdim ension
Ġr ain
ĠS oc
ly n
O wn
ĠPr ime
ĠIn ternet
Ġsuggest ed
Ġ rom
Ġimport ance
") ]
} </
Ġs yn
ul pt
ĠB oy
Ġb ed
on ia
Ġm aps
Ġinter action
D atabase
Ġ& \
ev ents
Ġpartners hip
Ġconsist ent
Ġtw ice
rec ated
}\ \
Ġad m
Ġro les
d ist
Ġscient ific
Se ction
Ġvert ical
Ġd ataset
ĠF ood
av ity
z one
ore t
ĠĠĠĠĠĠĠĠĠĠĠĠĠĠĠĠ ĠĠĠĠĠĠĠĠ
p ay
Ġdet ailed
ĠF air
() {
ĠC H
ĠC at
Ġgal ax
th rows
ĠL y
ap es
W est
Pro p
co q
t ex
I ST
Ġtask s
as is
Ġachiev ed
Ġst uff
Ġepis odes
Cl ose
) ).
ĠF C
ĠSup port
ident ial
196 2
Ġpo inter
Ġsing les
r ase
ĠM ir
Ġd ance
Ġsem i
l ow
iter ator
Fil ms
Ġp itch
ĠR og
F unc
Ġend s
Ġsupport ing
In ternal
T erm
ĠCont rol
Ġm ys
n etwork
pro perties
Ġe lem
ĠH ong
an th
ĠN iger
Ġearn ed
Ġbal ance
Ġf ashion
Ġinstr ument
ĠL ear
. ~
Ġs ale
U ID
IV E
in her
Ġcris is
ĠGu ide
ook ie
Ġfe aturing
ĠMin nes
Ġpolitic ians
Ġocc urs
sh ift
Ġassoci ation
sc r
G O
ĠC ount
Ġw ish
ĠGu ard
ĠBe ach
g g
Ġmay be
m osph
ĠA ccess
Ġrepresent ing
dim ensional
Ġa wards
ĠĠĠĠĠĠĠĠĠĠĠĠĠĠĠĠĠĠĠĠĠĠĠĠĠĠĠĠĠĠĠĠ ĠĠĠĠĠĠĠĠĠĠĠĠĠĠĠĠĠĠĠĠĠĠĠĠĠĠĠĠĠĠĠĠ
Ġfac ility
ĠR est
Ġinteg r
Trans form
Ġsecond ary
ĠPort ug
Ġcont ained
f ix
ĠL ew
Ġm yst
M T
Ġac comp
Ġm olec
Ġcomp are
Ġrece iving
Ġexist ence
Mem ory
; /
F S
F ull
ĠMass achusetts
st ats
Ġcol lected
It ems
ĠB a
ĠB ol
assert Equals
ĠMinnes ota
ĠEngine ering
at ible
Ġperson nel
Ġteach er
Ġh air
Ġinstit utions
L ayer
B E
tool s
ow a
Direct ory
Ġhand ler
ĠK enn
Ġnear by
bl ack
= (
ap h
Ġde leg
Ġpur poses
%% %%
ch or
Load er
Ġchang ing
ĠO tt
Ġdec ades
ĠE nergy
ĠCorpor ation
is a
Ġz one
ĠL ie
er al
Ġm and
Ġm ist
Ġoper ated
Ġs an
IC E
g ame
Reg ister
ĠA li
Ġimpro ved
Ġs pring
Ġbehav i
q quad
', '
ĠPol and
ĠE lement
ĠSup reme
ess ions
g it
ĠInd ex
IN FO
R et
ĠC irc
olog ist
Ġmod ified
Ġ era
Ġsupport s
appro x
Ġprim arily
ĠA S
-> _
Ġclub s
enc ing
Ġcompos ed
Ġco effic
Ġm ac
In s
Ġhon or
Att ributes
Ġf ell
Ġs ides
ĠWh y
ann a
sk y
est ion
Ġhers elf
Ġp erman
Ġneighbor hood
Gener al
ĠĠĠĠĠĠĠĠĠĠĠĠĠĠĠĠ ĠĠĠĠĠĠ
ing ly
in v
ĠH ard
pos itory
N ov
Ġappro ved
ĠWil son
Ġstat istics
Ġar bit
Ġex tr
Ġoffer ing
Ġgirl s
ax is
Ġj ourney
ĠP en
ĠA k
n orm
Ġret ired
194 4
ĠC orn
Go ogle
ĠColumb ia
ĠB ell
Ġim plies
ĠSt eve
u ous
Ġmass ive
Ġ io
Ġs am
b ot
Ġcover age
ã Ģ
Ġcould n
ĠR od
in son
ou red
N ULL
}\ ,
Ġ[ ];
l an
c f
Ġcontinu ous
icens ed
av or
ro ke
ĠS a
Un ited
Des c
Ġgl ass
Ġcertain ly
Pr int
eng ine
Ġset up
Ġact ing
de cl
() ).
f ol
Ġw aves
ĠA z
Se lected
Ġad vent
Ġb ow
Ġr aw
stru ctions
Ġwid ely
ĠC a
ĠP erson
Ġab stract
Ġ" "
pro to
se x
Ġform al
Ġinv alid
Ġengine ering
el d
ĠMin istry
ĠJ ean
Ġco al
++ ;
Ġ% }
P M
x space
Ġcy cl
ag a
ĠAn th
Ġcandid ates
and y
Po inter
os es
key word
Ġauthor ities
l g
] :
up load
are a
BU G
Ġa thlet
ĠVictor ia
ĠBook s
Ġhold ing
par a
Ġenc oding
=" @
e ach
Ġgr id
g reen
Ġv ent
s chema
Ġro ugh
Ġtr ail
Ġem ph
istribut ion
196 1
.... ....
Ġdep ends
Run time
Ġcom fort
==== ==
Un iversity
Ġtalk ing
\ '
Ġf reedom
Ġconcern s
il arly
ĠScott ish
mut able
Ġnew ly
ĠN ode
Ġg rew
ĠV iet
call ed
met adata
ĠG ets
Gener ic
IN D
Ex pr
Ġb inary
er ia
Ġpre v
Ġb ond
Ġord ers
nt ario
w orth
R S
Ġincre ases
im it
Ġauthor ity
ĠOff icial
Ab out
Ġf ant
w all
atter y
bl ue
| ^
ate ver
Ġsum mary
Ġrec ip
Ġcontribut ion
ask a
out heast
com ponents
adel ph
cre d
Ġfif th
Ġprov ider
des c
os itory
s che
Ġoper ators
Ġm enu
u v
Window s
ĠRes ource
let ion
by tes
in f
Ġc os
Ġindic ate
ĠC reek
Ġag ency
ick ets
ĠB al
ly wood
ĠCon fig
Ġinc ident
Ad apter
Ġprote in
C ap
dom ain
Ġsee ing
Ġf n
P U
Ar ch
Ġt or
RE S
ĠD O
br id
Ġmeas ured
Ġchem ical
n ight
Ġtre ated
Ġth erm
pl us
J ava
y ard
Ġpass ing
h space
Ġcomm ittee
Ġ{ '
Ġextrem ely
ĠW at
li k
Ġexpl ained
enn es
Ġd ynamic
ĠCh air
ra ham
Ġcl ients
Ġte aching
D est
int on
Ġimplement s
Pro file
b en
M ut
Ġmaint ain
Ġinsp ired
eg o
}^{ (
G raph
Ġnuc lear
Ġlist ing
Ġcapt ure
Ġspect rum
Ġadv oc
Ġp ure
ĠE s
j query
IN S
Ġdef end
Ġlarg ely
IT E
Ġindust rial
ĠIs lands
ĠS af
Ġest ate
D ouble
Ġe lev
Ġequ ations
ĠMed icine
Ġpract ices
ĠBer lin
Ġpi eces
ed itor
Ġcustom er
child ren
{ {\
eder ation
Ġmin ister
. ;
res et
Ġthous ands
Ġhel ps
Pl ugin
t otal
ĠCopy right
th ur
ĠN on
Ġsp ons
ĠAre a
Ġo k
Ġturn s
ist ed
Ġp ra
Ġcaus es
ast ers
ĠPak istan
R oute
Ġposs ibly
f ast
ĠB lock
ĠS ydney
ĠIm age
Ġw itness
ĠAlex ander
Ġo dd
} '
ĠA venue
ĠP C
ak ed
an z
Ġprov ince
Ġhistor ic
ST AT
B ook
ak i
ir ation
By Id
Ġret ail
m ask
ma zing
ot ional
ĠF ox
Ġ urban
v o
Ġv ary
S pace
Ġc old
Ġb tn
rop ol
acc ount
Ġcar bon
> :
adelph ia
Ġacc ident
op her
ĠB it
P anel
ĠI mp
_ (
ĠAir port
Ġin n
Ġindic ates
Stat ement
Const ants
Ġbo ost
h idden
Ġpurch ase
Ġexpand ed
S pe
ch annel
pr ise
av id
Ab stract
Ġdecl ared
Ġden ote
out s
Ġre ct
=" ">
un es
Ġli ber
Ġautom atically
Ġ Å
Ġadopt ed
Ġmagn etic
Aut o
Pl ay
& =
? ?
ual ity
ĠH un
Ġs leep
ĠAn other
ĠP ers
ach ment
195 9
UT F
zon a
col lection
Ed it
bour ne
Ġpe ace
ĠĠĠĠĠĠĠĠĠĠĠĠĠĠĠĠĠĠĠĠĠĠĠĠĠĠĠĠĠĠĠĠ ĠĠĠĠĠĠĠĠĠĠĠ
Ġp y
Ġex ecution
h y
or iginal
Ġcirc um
ĠTO DO
it led
F E
Ġex it
l aw
ra q
act s
Ġoption al
Ġtr ained
Ġgen us
Ġwait ing
Ġfav our
in ating
Ġexperiment al
Ġth ick
S ports
are t
Ġdiv ided
ĠA P
Ġredu ction
^ +
Ġmet ric
Ġfa ith
Ġman ner
195 8
ĠEl izabeth
194 2
Ġch annels
In v
Ġexper iences
app ly
Comm on
ear s
Ġcomm itted
Ġaccur acy
h ol
Ġmed ium
ĠH ung
l ayer
1 10
C am
Ġsub stant
Ġhom es
ur d
Element s
Ġex pos
Ġrecogn ized
iven ess
Ġlett ers
ĠV ideo
a is
s afe
ĠPro cess
ĠB on
Ġax is
ĠO s
li ance
Ġmin im
A CT
Ġfind s
S Y
Ġw inter
c oh
ĠS ant
in er
[ $
ĠReg ion
Mat rix
b el
X ML
Ġag ric
ĠV en
ĠT oday
Ġapp end
ag raph
hand ler
Ġp arser
Ä į
Ġv ision
Ġ( -
build er
ĠChild ren
Ġc e
'] )
Ġexper iments
ell i
194 8
et es
Ġn g
d ependent
ĠR aj
J ust
ar c
ĠL abor
h ard
Ġrepe ated
ament al
ĠT am
f all
ow s
al g
Ġdet ection
t mp
Ġspec ifically
ident ifier
] $
ĠIO Exception
Ġreturn ing
ott en
ĠW rit
mult icol
Ġop inion
p icker
Ġsec ure
195 6
ĠS em
}} {\
F IG
p arser
L o
Ġprogram ming
RE AD
######## ########
IP T
Ġst orm
ex ists
Con str
ĠC ustom
ĠB and
ĠSt ory
NavBar Cell
Ġk ick
a ug
ĠL td
Ġfavor ite
log ger
ĠR ailway
f old
pre c
cit et
he im
19 39
Ġan imal
ze ch
Con n
ĠT ok
prot ocol
Ġmarket ing
id i
up l
Ġm ental
Ġnewsp aper
ĠN C
Ġup dates
ed u
Ġhot el
Ġse ctions
param eters
det ails
Ġgu ard
Ġsil ver
ail ure
Ġs pl
Det ails
ex tern
Ġprep ared
Ġexpl ain
Ġg ender
Ġsubsequ ently
enumer ate
H is
Ġcommon ly
cons in
P ATH
ig a
config uration
Ġc ab
Ġre q
Ġpost ed
Ġcont roller
Ġact s
ĠS C
Ġesc ape
At tr
Ġthan ks
195 7
com pl
} +\
multicol umn
iz able
Sc roll
ott ed
ĠSh ort
ĠCh annel
Ġsurround ing
Ġd ress
U D
To String
Ġpr ices
Ġent r
Ġserv es
Ġproced ure
Ġtyp ical
Ġgrant ed
ĠS anta
Ġvel ocity
ĠOlymp ic
ĠR on
Ġhe av
I MP
ĠN ext
B P
ĠD am
s witch
o or
Ġsign ature
unn y
ER S
Ġn arrow
ĠS at
Ġst ored
udd en
Ġcontribut ions
Pro duct
ĠTor onto
cont ains
ĠD igital
Ġdel ivery
ĠT urn
ĠW ars
ĠB all
Ġr ural
U LE
ut f
SC R
à ¥
Ġv on
ĠB C
Ke ys
M OD
ĉ ĠĠĠĠĠ
ĠUn ivers
Ġfight ing
ĠAnd roid
S outh
Ġconf irm
ĠH as
! "
Ġimplement ed
au ge
r andom
ĠE nt
C red
lim it
arch y
Ġappro aches
Ġst able
ĠR ail
Ġsc al
Ġfeel ing
Ġrec all
get Name
Ġprofess ion
) +
Ġad min
Ġsold iers
= -
Ġannoun ce
ne q
Ġknow s
Ġc as
ap ed
Ġperform ing
] \
ĠE ll
ĠSing apore
ĠCom put
ĠC ur
ĠN ations
ĠH ash
ĠM arg
M usic
sh adow
ĠPrem ier
ps on
ĠH o
Ġas ync
ĠG ro
Ġyour self
Ġentire ly
ĠS on
Ġsol o
tr igger
eng ers
T T
Ġtro ops
ether lands
Ġdo ctor
aly t
medi ate
ap ol
ik a
ra it
ĠT y
Å Ĥ
Ġsh ock
ĠM ill
ĠStep hen
Ġcal c
Ġare n
W R
Ġcapt ured
% .
Ġweek end
Ġt error
iam ond
ĠCoun try
mon th
Ġtit les
ir k
Ġcomp ute
Ġhelp ing
Ġtop ic
ad r
Ġmount ain
Ġcon nections
ak h
ĠSo ftware
Aust ral
194 3
Ġ( _
Ðµ Ð
tab s
Ġid x
Wrap per
R AN
Ġschedul ed
end or
ro le
Ġan gle
b at
Ġnav igation
Ġl ib
Ġcont emporary
Ġor ient
Ġcont rovers
Ġl ayout
194 6
Ġdro pped
Ġc aught
194 1
ades h
Ġm el
Ġdestroy ed
at ar
os a
s ys
TE XT
Ġv ideos
Vari able
s es
Ġ{ {
Ġcamp us
Ġk id
Î ±
Brit ish
Ġl ie
Ġent ries
ĠKore an
Ġfl ags
Ġap art
: \
Ġ" <
ĠAnt on
195 5
F ailed
195 2
Ġbase ball
um a
ĠA D
ord an
Ġun able
F ree
Ġn ice
Ġar ms
arr ing
i per
k es
ĠAr m
ĠP lease
Ġhapp ens
ĠB udd
ĠO ntario
Ġjust ice
st ances
Ġeast ern
ĠPl aces
ic ian
iss ue
L android
Ġorgan ized
Ġf iction
Ġc ert
Ġclass ification
Ġport ion
ire ment
W rit
Ġus age
ĠD u
mult i
En um
ist ical
Ġl osing
S ocket
Ġmark ets
Ġw ww
I mp
Ġag greg
init ely
Ġsuggest s
rodu ction
Ġv otes
ĠH ay
Ġcop ies
S ync
Pro ps
p refix
r at
Ñ Į
ĠĠĠĠĠĠĠĠĠĠĠĠĠĠĠĠ ĠĠĠĠĠĠĠĠĠĠĠĠĠ
s ince
Ġin fin
Ġprogram me
Ġ$ .
}} _
Ġassist ant
em an
nd ef
ĠR ome
anche ster
Ġcur ve
al ty
} -\
v space
ĠAd am
) ">
Ġdep ending
Ġadv ice
n il
iz z
Ġpublic ation
Ġs and
Ġat mosph
CE SS
ĠC ase
the orem
ĠS I
Ġfootball er
ĠT erm
U SE
Ġsol ar
Ġcolumn s
ĠG reg
ĠSt ock
mer ce
ĠI V
ĠS ym
ou ri
ĠP RO
S QL
ĠEx per
ĠBel g
Ġinfr astructure
ĠL ady
ĠSe ason
Ġbro ken
ĠT al
ili ar
Ġh abit
i ated
d em
ĠDav is
Ġclass ic
Ġf lood
F ix
P ORT
Ġdest ination
IG HT
ĠA ud
Ġsp end
Ġhe nce
O pt
Ġv ot
LE CT
Ġpar allel
Ġtype of
item ize
O UT
Ġalleg ed
ĠL ater
Con f
Ġst one
H L
Ġse ed
Ġd ialog
ĠN ick
Ġapplic able
M apping
rop ical
z ero
ĠC ost
Ġdis pl
Par se
gorith ms
M any
Ġm ach
ĠH om
Ġg lob
Ġmys elf
Ġmechan ism
Ġarbit r
Ġshe ll
ex ternal
Ġplan et
Ġprov ed
Ġb right
ĠD ocument
ech o
P ay
Ġdist ingu
ĠĠĠĠĠĠĠĠĠĠĠĠĠĠĠĠ ĠĠĠĠĠĠĠĠĠĠ
Ġacc eler
Ġm ort
S M
O ST
ĠArg ent
P ubl
ĠH ind
sub s
Ġexperi enced
th on
Ġdes cent
Ġw at
Ġ Ø
if iers
F R
O B
Ġsym pt
def inition
In ternational
ĠFore st
Ġprop ag
Ġsize of
Collection s
Ġjud ge
ro ut
Ġy ards
Ġtest ed
prot ected
Ġdis k
( {\
Ġw ins
Ident ifier
att ributes
Ġd ict
Ġdeg rees
Ġpass word
gener ated
ĠG allery
ater n
Ġm ent
Ĥ ¬
Ġf illed
Ġobserv ations
el i
du ce
Se lection
Ġperform ances
Ġlink ed
Ġdec isions
Ġh ockey
id x
Ġprinc ipal
anc ell
poss ible
Ġwe alth
se ason
es c
con n
Ġst ores
ĠExecut ive
F in
194 7
Ġdom estic
ĠHT TP
Ġtransfer red
O F
w hen
Ġstr ings
ĠW el
Ġexcell ent
tain ment
Ġm ir
Ġcharg es
Ġd uration
Ġar ts
ĠF ac
ĠSt adium
Ġcont est
Ġmin ute
ĠCam bridge
A ng
Ph one
Ġneg ot
og ether
b ell
ĠL ow
Ġseem ed
Ġstop ped
M er
Ġa cknow
li br
s a
AL SE
Ġunc ertain
Ġmatch ing
T ube
Ġsubsequ ent
Ġt ail
Ġsup posed
V M
Ġmet adata
Rem ove
P od
ĠD er
t wo
ĠBr idge
un ately
Ġc ash
Ġvol unte
k ing
V E
ĠOb ama
Ġappear ances
TR Y
ĠU I
ĠCon nect
Ġcont rolled
as m
$ _
ĠD oug
ub s
ĠSt aff
n i
S equ
Ġres c
Ġofficial ly
w atch
Ġv ess
195 3
ĠQue ens
ĠCor ps
rypt o
ĠGold en
ch a
U nder
Ġc art
Ġman age
ĠB ru
195 4
Tr ace
Ġ ×
Ġ ri
for ward
ĠG er
Ġexpl ore
D uration
Ġ[ "
ĠOr iginal
ĠCov id
reg on
t ons
fil ename
Reg istry
Ġyoung er
ĠColor ado
ĠP ay
Ġp refix
Ġ- \
wrap per
ĠM att
P i
t k
i ples
as i
ĠÂ »
Ġac id
ok ed
T otal
1 30
erv es
Ġcre ative
I X
Ã¡ n
ĠW inter
ars ed
ĠL es
ĠPol ish
iv acy
rop y
Ġcalcul ated
ĠS ab
Char acter
ĠAg ain
Ġsc ulpt
ten ance
ĠC as
ĠTh rough
S ER
ĠUs ing
pre v
our se
Ġcomp act
Ġg ap
if def
op ed
Ġdeliver ed
N OT
Ġch ampion
v s
Ġvert ex
Ġstrong ly
rupt ion
Ġmusic ians
n eg
Ġhost ed
Ġwin ners
F ind
Ġs ac
ĠR a
Ġfound er
ĠA h
Ġprom ote
ĠWis consin
w ing
Ġxml ns
Ġsw im
b its
' $
Ġform ula
Ġab andon
12 5
Ġattempt s
Ġconstr aints
Ġemer gency
j unit
Ġkeep ing
. <
ic ing
S eg
s pecial
N odes
Ġfac ulty
ĠS earch
{ $
ust ers
Pre vious
Ġreg ul
ĠIn f
web pack
Ġassum ed
Ñ ĭ
ĠB h
i Ã³n
Ġcon ven
Ġre action
op l
N C
pl atform
Su ccess
ER E
Ġ" ,
S ingle
pro ps
ĠOn ce
Ġt x
hor izontal
ari ant
Ġcrow d
Ġeven ing
Ġend ing
L ook
Ġal gebra
M iss
Ġv ul
ar ry
ĠI raq
ĠComm unic
Ġf estival
M ake
min us
Ġaspect s
Ġdou b
Ġext end
Ġocc asion
Wh ere
Ġrecogn ition
FF FF
Ġsur g
Ġsh ares
Ġse ats
G ame
194 9
under line
C ategory
Ġtrans lation
Sim ple
pro v
Re port
ĠDes pite
ex pr
Ġdescri bes
A nt
ĠF ord
å ı
ĠR ose
Ġ ).
Ġcharg ed
Ġpr ime
Ġc overs
Ġrefer ences
Ġconstruct or
d p
iam i
L INE
art icle
ist ing
d c
B rowser
ĠMod ern
ser ial
ab il
TR UE
uck s
it i
ĠH ou
ĠN a
ĠB u
Ã© e
" /
Ġre new
M ost
Ġex ceed
Ġvari ant
Ġb an
P refix
ĠPhil adelphia
force ment
Ġunder lying
Ġleg isl
Ġque ue
ĠW atch
Ġsk in
Sh ort
ĠRec ord
h ide
Ã º
Ġw a
ĠTrans port
Ġelect ron
N V
Ġbel ief
ĠC ru
Ġadministr ative
Ġarrest ed
Ġben ch
Ġ= ========
M icrosoft
m ac
ĠW AR
Cl uster
Ġdi agn
ĠS i
Ġth reshold
per ial
t ags
ĠF ull
iss ues
Ġsim pl
12 3
Ġpattern s
Ġg ene
L eg
ast y
ĠOn line
Com par
ip ped
Ġal ter
Ġrem ark
Ġus ual
che stra
Ġfrequ ently
Ġr g
qu arters
J S
Ġass ign
Ġrecomm ended
Ġexpl an
yr ics
Post ed
m ad
no indent
) ->
Ġsche dule
Ġsh aring
Ġb odies
Ġconsider ing
Ġres erved
enn a
Ġr aces
ang a
Ch rist
ĠPri ze
Ġlabel s
ĠBr ad
hemat ics
Ġp airs
Ġver ify
F igure
e en
CO MP
d ialog
ow nt
arg ument
Ġthan k
ĠN FL
Q U
Ġli qu
Ġpromin ent
ĠS ource
Ġtyp ename
ĠN etherlands
ĠM oh
ĠPh ot
ort heast
Ġexp at
N amespace
Ġn ob
requ ired
it als
Ġw ing
c raft
Ġsubstant ial
Ġhe aring
ĠM essage
Ġs now
Trans port
Ġide al
Ġgu ess
F ORM
p u
Ġa id
Ġclos ely
Ġc ro
() </
Ġp ed
Rep ository
g ments
ĠM S
ĠLew is
Ġre nt
r uby
Ġdef in
Ġw arning
includ ing
ile y
Ġgu est
) }{
Head ers
Ġinvol ving
ag g
ef e
ph er
Ġaccount s
Ġbring ing
Mult i
R R
ro g
Ġdem ocr
Ġprom oted
be an
t body
Ġt ensor
play er
Ġpay ment
195 1
iv ated
Ġresult ed
Com ment
ĠAri zona
Ġpurch ased
Ġperm ission
ad ed
Ġb ought
Ġ" -
HT TP
au x
ĠMount ain
P res
Ġhor se
Ġresearch ers
rit ical
ĠC hen
Ġhum ans
ag ues
Ġf lo
7 00
ĠD aily
Ġh all
ĠI T
head ers
Ġu i
ĠL at
ic ity
Ġsup erv
Ġphot os
Ġe igen
ĉ ĠĠĠĠ
Ġwould n
ĠB at
ĠB efore
Ġed ges
ĠR oute
Sy ntax
18 0
Ġabs or
Ġcirc le
Ġinstit ution
Ġ ing
G P
Ġelect ronic
-------- ----
Ġinterest s
Ġre form
ĠS D
Ġgu y
iv als
Ġdocument ation
Ġparticip ants
Ġg reatest
Ġag ents
st able
( __
Ġtr uly
Ġcons umer
operator name
Al though
Ġcollabor ation
ev al
el le
fol io
Vol ume
Ġrequest ed
yn omial
t i
ĠCon f
Ġt on
an try
Ġinst ant
onym ous
}} ,
ivers ary
igr ants
Ġas sembly
Ġr is
Ġp owers
M ask
b rowser
ĠM iller
ag en
Ġmunic ipality
P ER
ĠRev olution
Ġj Query
ens es
Ġfe e
Child ren
Ġm al
Ġlim its
Ã ¸
R T
Ġeff iciency
Ġp ert
Ġext ensive
Pro gress
ud es
D iv
Ġdynam ics
text tt
Ġpro port
ĠCh ange
< !
Ġb ands
ĠP ot
if ts
ĠO cean
ĠUn it
om y
ĠS QL
Ex ecut
Ġstand s
sp irit
semb le
Ġp un
Ġrelationship s
Ġe le
icens es
ĉĉĉĉ ĉĉĉĉĉ
ach er
Ġstand ing
H P
pro d
ap os
align ed
O ct
Ġr h
Ġt aught
ĠPro t
> ::
d one
Ġl at
Ġas sets
Ġwatch ing
u ce
IT ION
Ġtrans formation
an ia
Ġeval uation
c ers
Ġtrans parent
33 33
pl om
Ġsound s
Ġdocument ary
Ġsuff ered
Ġd ry
ĠK now
t witter
âĢ ī
j an
ĠL anguage
Ġin struction
ex pect
ĠE P
serv ices
ĠC urrent
Ġf ly
Ġ urg
et ing
ch ant
v ideo
Ġult imately
ac ent
ad i
Ġlo an
dep th
p red
pro gress
ĠAss oci
Ġ\ |
Ġmov ies
Ġdou bt
ĠF OR
az y
ĠS av
Ġind eed
Ġdefe at
Ġs pr
ĠN AME
ĠHar ry
ĠF ind
f i
omet ric
j ango
ennes see
ĠG ree
bo ost
ĠR eb
$ /
Ġconvert ed
Ð ²
ĠF ollowing
ĠMag azine
g ov
ĠT ai
comm od
Ġrespons ibility
Ġsch olar
en abled
per or
Ġpers pective
v ard
Ġcommun ic
TI ME
igh th
Ġ> >
ĠAnd erson
Ġeas ier
ĠC hem
D ay
Ġworld wide
ann y
f d
S che
G C
ĠO N
Ġc tx
Ġdis abled
Ġsever e
st orage
19 36
Ġm apping
ou ter
Ġstat ements
ĠB rian
Ġfr ag
al so
Ġvis ited
and o
Ġad ult
ĠD uke
ug s
UR I
Ġg ained
view s
Ġfunction al
Ġdo ct
Ġen um
S ymfony
ĠOff icer
Ġsp an
Ġ ],
ĠP R
com plete
Ġop posite
. âĢĻ
Ġscen es
Î ¿
onom y
Ġsc atter
B egin
}} }
Ġcor onavirus
ist ence
ĠPro perty
Pass word
Bl ack
re ll
es ome
is lation
b rief
ang ers
b log
w eg
Ġcon vent
Ġbr ings
Ġir on
Pol it
t w
ĠEx pl
Ġop position
19 18
Str uct
ĠInd ones
S ervices
Ġs aved
Ġplatform s
ĠE ric
Ġcont ents
ig ate
do or
ĠF A
EN SE
ĠD ark
Ġl ose
Ġy ellow
new s
Ġsign s
ym met
Ġconstit u
ĠUkr aine
Scal e
w p
Ġconf idence
B B
t c
Ġatt ached
E V
ff ff
Ġext ent
Ġst ret
Ġmed ian
Ġemploy ed
Ġint elligence
ar on
ĠBuild ing
Ġrad ius
Ī Ĵ
Ġdec or
Ġres istance
ell ar
=" ${
ĠA ge
Ġc ategories
Ġlog ger
Ġunder st
Ġrecover y
fe ature
ĠRequ est
Ġter ritory
S ur
Ġpro xy
Ġpartic les
sh op
unn el
LO CK
ĠR yan
St and
Ġdec ade
Ġp iano
En ter
U K
ĠK at
Ġent ertain
$ }
ĠB iden
Ġl ists
Ġpartic le
Ġinst ances
Sup port
Ġtechn ique
ĠTur k
ĠB ox
ĠK ansas
Ġread ers
ce st
ell s
Ġtw enty
ĠA T
M ac
. ");
or ough
) }$
Ġinter val
Gener ator
ĠL ev
Ġro y
F LA
Ġcomp re
n p
ab out
Reg ion
ĠEnter tainment
Ġrestaur ant
p ubl
B ound
Ġs we
\ }$
Ġb omb
r ift
Ġd at
rior ity
ub le
ĠCast le
Ðµ Ð½
r f
19 38
err ors
g overn
Ġpart ition
p ull
ĠG h
ĠO bserv
ic ians
Ġanaly t
ol ut
iv ial
; }
ĠAtl antic
SCR IPT
Ġestim ates
if ndef
ew idth
! âĢĿ
p ur
Hel p
Ġf aster
ĠC ab
m aven
Ġd rawn
Ġim press
t or
Ġpol ar
sv g
og ram
b ec
Ġs udden
ĠDon ald
Ġtrans mission
clos ed
ĠR ight
ĠL ook
ĠMem orial
Ġweap ons
ĠDis ney
Vert ex
Ġindic ated
Ġw ire
Ġphen omen
t le
ĠHot el
ut enant
ĠLe on
Ġintrodu ction
i at
ĠTur key
sh ips
Ġign ore
Ġ[ ],
ĠJew s
ĠPe ak
Ġa mazing
ph y
ord on
St op
Dom ain
ĠO regon
ĠDe ath
ĠAdministr ation
Ġopt imal
ĠSur vey
pro vider
it ivity
ĠJ am
ĠInt eger
Ġint ent
U ri
old s
ĠF uture
ĠD a
Ġal ert
Ġthe orem
w ild
Sub s
ĠI owa
ĠĠĠĠĠĠĠĠĠĠĠĠĠĠĠĠ ĠĠĠĠĠĠĠĠĠĠĠĠ
U C
Ġclos er
ir th
m ers
z ed
Ġ ..
Ġdr ivers
A ug
ĠT ra
E very
ĠA C
> "
j ob
Ġreport ing
ĠN az
Ġinter actions
Ġincre d
ĠSk y
Ġ{ "
in valid
W atch
L en
; )
ĠM anchester
ĠPr inc
Ġcl ock
ur ches
Ġsc oring
Ġeduc ational
Ġd ates
ĠR ow
ĠD ead
. ",
Ġ ðŁ
ĠD eb
Ġshoot ing
Ġrepresent ative
ĠH al
Ġen v
Ġintrodu ce
Ġcompos ition
Ġt ack
Ġl oved
um my
ĠD ream
Ġl ay
c ow
Res ources
I gn
C RE
col Last
Ġeffect ively
H z
ĠSwed en
Ġb in
the me
em et
P e
ĠS ound
ĠStand ard
li x
agnost ic
ĠLO G
Ġtechn ologies
r ons
An other
M ich
in ch
Ġarr ang
ĠP it
Ġtarget s
ĠC ulture
Ġenc ounter
ĠG il
ir ms
Ġfra ction
Ġl ayers
cuss ion
ĠL ind
ĠN orm
ĠCapt ain
">< !--
ĠFore ign
ME TH
sh ared
ĠMar ia
re tt
Ġnot able
Ġpers ons
Ġload ed
Ass ociation
math scr
L in
ĠR oss
F amily
Em ail
Ġin ternet
ĠÐ ¿
Ġprom pt
en ess
Ġleg end
Ġoper ate
Ġw alls
am az
Person al
ĠA mb
Ġv eg
Ġcompet ed
Ġtrad ition
ic ious
Ġteach ers
R ole
Ġin h
Ġposs ibility
, '
Ġprom ise
ĠA thlet
ĠT ony
ĠT ro
B en
r g
Ġgrad uated
y ou
Ġs oc
F N
End point
Ġpain ting
Ġe at
col First
nap shot
AN CE
ĠR oll
ĠS ite
p ub
ex ecute
S em
ĠS P
B ind
cept ions
C apt
Ġc raft
y cl
ro it
ov al
st an
ST ATE
ag an
Ġmov es
Ġpath s
âĢĻ ,
ic ide
Ġex ecute
y g
Text ure
h av
ĠH art
Ġ à¤
l ights
en able
us ers
det ail
Ġder iv
Ag ent
Ġaccur ate
Ġan imation
Ġcompos er
Ġmunic ipal
w ich
ĠAff airs
ĠSh er
pre ne
ĠC ond
Ġ rows
Ġhousehold s
ĠJ ane
Ġconcern ed
D elegate
Ġprior ity
En umer
ĠP A
b as
ĠI ss
own er
ĠIndian a
ĠH an
W ORD
ĠV i
ĠI E
19 37
R elease
ĠSim on
Ġres olve
Ġdi agram
ĠU l
Ġread only
ĠGr ant
ĠMore over
ĠRe act
Ġwh atever
D R
Ġmeasure ments
( @
Ġl es
Vis ible
ov en
igen ous
ĠPhilipp ines
Ġt ight
un ique
Ġcook ies
Ġpass ion
Be an
Ġv ice
Ġcon version
J oin
o a
Ġv eter
ĠHe art
p res
ĠO ak
ĠYou Tube
f lex
ĠS ep
is ition
n odes
h l
VAL UE
a ired
Ġcap able
Ġinteg ration
Ġ= ======
Ġcontrol s
Ġtem por
O C
H er
ĠF ellow
Ġgood s
F ore
ix els
hens ive
Ġm ine
Ġvisit ors
Ġon going
Ġv o
En vironment
re prene
iv a
D avid
ĠB urn
Ġwe ar
z h
equ ality
os ed
pat tern
ud a
Ġe q
ĠM un
th row
Ġrelig ion
Ġse vent
u ction
cri bed
N orth
Ġ_ .
Ġ' <
~ $
ail ability
lo op
Ġag ed
Cl oud
Ġcompl iance
nav List
Ġ' '
P Y
ĠF all
ag u
ĠSen ior
empl ates
Ġparticip ated
Ph oto
Ġstri ke
Ġcomb at
B L
coll apse
St ats
sh al
(' .
Ġs oul
- $
Ġte en
Ġs ending
ĠA SSERT
log in
Ġbro ke
Ġwor st
Ġfore ach
Ġcol our
c ases
" ],
Re al
Ġaddress es
M r
ĠD NA
Ġk illing
pol icy
i pl
sign ature
Ġsp ending
ĠBr ig
19 00
ĠS ix
ĠM ilitary
off s
Ġport ray
ĠInst ead
ĠIn s
Return s
Us ing
Ñģ ÑĤ
ug ar
ĠJ oh
ce ive
group s
e a
t emp
Ġwhere as
B AR
Ġpubl ish
S ch
Ġsc roll
Ġexhib ition
Ġcan cel
Ġk it
ĠCl oud
Ġste el
Ġass istance
ĠT ennessee
Ġpo et
op es
ĠFr ont
ĠC zech
vol ume
Ġsp atial
Ġcharacter istics
aw ay
METH OD
Ġexper ts
Ġpil ot
ab ric
ah oma
o is
g i
ast s
Ġtrans late
emet ery
Ġscient ists
x s
inal s
Ġcomplet ion
Ġs elling
Ġad ults
Ġr acing
ĠWh ere
not es
Ġval ign
Ġch apter
wit zer
ĠM O
Ġsubject s
cle an
Ġexecut ed
Ġproper ly
Ġpass es
» ¿
ro ute
put ation
aj ax
ropol itan
o en
C oll
Ġ( +
Ġtime out
ĠÂ ·
ĠMiss ouri
Ġ\ (
RE G
Ġtown s
Ġperman ent
fg han
Ġpl ate
U ES
Ġbo at
ĠL iter
Ġn p
Ø ±
Ġro of
Ġfam iliar
Ġdr ag
ĠR oy
T ele
Ġt err
Ġso le
DE BUG
ane ous
Ġdeb ug
is ode
ĠCh all
u j
ï »¿
ĠN ative
run time
Ġpriv acy
Ġcaus ing
Ġaff ord
Ġdeb ate
u able
T x
Ġac compl
Ġtit led
ĠSwed ish
ĠAN Y
ĠS che
Ġmom ents
ch anged
ĠO S
ĠF a
Ã© s
An notation
Im port
\ ,\
Ġlist ener
p icture
Ġm ile
Ġfe els
ry ption
Ġstrateg ies
Ġdes ired
Ġhundred s
ĠPl ace
Ġsympt oms
Ġb its
Ġair port
! [
ploy ment
Ġpercent age
) |
Ġhead ers
t ri
Ġd ual
ĠPro duct
Ġw rest
19 14
lin ewidth
Ġther apy
Ġnov els
Ġjournal ist
col n
ĠB ishop
comp iler
Ġtyp ed
ĠD or
Ġpost s
Ġcre ates
Pro gram
AN T
z ip
ĠH ttp
spec ific
ĠS quare
Ġac commod
S ort
M ath
{ %
P lease
ĠP ut
anc hes
ĠAr thur
Ġman agers
Ġfeed back
cond ition
Ġfund amental
Ġqual ified
Ġin fl
Ġl it
Ġspec ify
Inst all
fl ag
Ġher o
or ient
() ))
witzer land
Ġdistrict s
ĠRef er
Ġgovern or
On ce
ĠDi ego
Ġdrug s
ĠP ier
Ġcon j
Ġc ards
ell ite
l arge
Ġm outh
ĠRes ponse
z o
ĠC ore
20 23
Ġv irt
Ù Ħ
Ġexpos ure
F act
res ources
enn y
t ar
inem a
w ick
time out
Ġre pro
em ony
ĠEd itor
ist a
all classes
' ));
L ife
Pr ivate
Ġre venue
Ġengine er
Ġal gorithms
Ġnull ptr
Ġrestr ictions
s ome
az e
g ar
ĠSt atus
ĠM rs
ĠFinal ly
Ġdef initely
py thon
Ġb atch
Ġobject ive
user name
ĠMel bourne
Ġh its
OR Y
Ġg ate
Ġpar liament
se a
Sum mary
Ġtr ace
Ġm atters
Date Time
Ġcover ing
est abl
Ġb inding
Ġdisplay ed
R PC
Ġaff ili
Ġcl im
plic ated
te ction
Ġag encies
Ġh un
as ync
Ġhealth y
Ġg od
19 35
um ul
Ġrank ed
ĠW IT
ĠVal id
Ġvul ner
index Of
Ġle ct
Ġd iverse
19 19
Ġf ake
y ers
Ġsc ores
ĠK han
weg ian
Ġseek ing
ĠSt one
pp ing
d on
qu es
Ġr ating
< \
ĠCont in
Ġexerc ise
00 1
cd n
W omen
pl ier
Ġref ers
Ġfr anch
St ar
ĠAg ency
Ġask ing
ĠMan ager
Ġsim ulation
test s
Pl ayer
AR D
Ġsu itable
Ġbu f
i ac
ok ing
(' #
Ġfil ed
test ing
ĠCl ark
Ġreg ime
ĠHou ston
ar se
d y
ĠV ector
ĠT E
Sh ape
ĠT en
Ġleg islation
m oz
ĠPh oto
Ġcorpor ate
Ġinteg rated
eg as
ĠArray List
L iteral
S am
ip h
19 17
ren ce
ĠK al
Ġf at
re le
Ġvert ices
Ġthe atre
Ġstre ets
Ad min
lim its
os l
ĠK evin
ri k
Ġinter ior
are st
r as
s uch
Ġpl ugin
Ġins urance
******************************** ********************************
let ter
Ġtem p
p air
ant e
ĠM oon
EE EE
ip her
ĠN AS
l ot
do i
Ġcomput ed
d am
Ġv ocal
Ġsol ve
ĠS quad
Ġgu ys
Ġm eta
ĠF ROM
PO ST
ĠT ag
âĢĻ .
Ġgu id
ri eve
trans ition
spring framework
v c
19 33
ble m
ĠDo ctor
ers hip
ĠL ang
er ic
Ġf aced
Ġcl ar
Ġpol ynomial
in cess
ĠJ ordan
L anguage
ĠCl in
ĠSystem s
az a
lo om
Sequ ence
Ġcrit eria
Ġdec ide
ĠE mer
ĠMar c
N amed
p ir
qu ir
Ġm it
ĠB E
A li
ĠMary land
Ġin hib
Ġst ages
Ġassert That
om ot
b g
Ġtem porary
subset eq
ure au
Ġpropos al
Ġfac ilit
Ġspe aking
tr m
Ġb anks
' \
ĠHol lywood
ibli ography
Ġk ernel
display Name
B al
Ġimmedi ate
ĠHaw ai
Ġl yrics
The ta
M R
u ating
Ġre ar
W ell
ĠB att
aps ed
Ġsu it
Ġ" $
ĠViet nam
Ġb ind
ph ere
p ag
ĠJes us
ibr aries
ou st
Ġh aven
Ġop posed
Ġmeasure ment
west ern
cept or
on al
ĠM as
U ST
c u
ĠZ h
Ġparticip ate
M ill
Ġpre gn
Ġre named
Ġout er
Ġmanufact uring
k h
ific ial
Ġcour ses
ĠMal ays
Ġdis appe
Ġdet ected
fort unately
Ġ$\ {
on ical
Ġarbitr ary
app oint
ĠB ab
ol ly
Ġacc used
Ġmoment um
Ġl ift
ub a
c atch
Ġbound ed
ĠB ry
Ġput ting
Ġmiss ed
ĉ ĠĠĠĠĠĠĠ
n ie
Ġbo ys
av al
g oto
ĠS uch
Oper ator
ĠA I
Ġexpl o
ĠSe ver
n n
ĠT reat
F rench
tex trm
Ġvict ims
il k
Ġpract ical
ĠCap ital
T ax
G erman
Ġmin imal
all as
DE FAULT
ĠN ev
S ources
pro xy
}} _{
19 34
ĠM it
Ġthe oret
Ġtop ics
Ġm o
New s
Ġgener ic
Ġprodu cing
Ġdim ensions
ĠPhil ip
B M
INT ER
rupt ed
check ed
S ql
ĠP u
ĠAp ache
ow ed
Con nect
RE D
ĠB arn
coh ol
idel ines
s n
Ġk il
L ike
Ġm ob
Ġkn ock
N ET
Ġwrit es
C G
W ait
ĠHol y
ol i
Ġrg ba
ĠSer b
19 10
se m
Ġh ole
Ġco ff
Ġcol ors
? >
el lect
at rix
Ġcoord inates
Fl ag
S N
Ġgr ade
F ollowing
libr ary
olut ely
ĠTr ail
the w
ub ble
ĠK a
Ġexpat riate
bl ank
kl ahoma
on ce
Ġassess ment
vis ible
ĠG ab
Ġeval uate
Ġs izes
Ġen emy
Will iam
ĠĠĠĠĠĠĠĠĠĠĠĠĠĠĠĠ ĠĠĠĠĠĠĠĠĠĠĠĠĠĠ
Ġp apers
op ts
f ixed
it is
m ont
Ġtal ent
ĠAnth ony
Ġlaw yer
P UT
å Ī
Ġfem ales
App end
Ġwor se
agnost ics
Id s
St ud
Ġoff ices
Ġ ];
ĠTown ship
19 29
Ġpotential ly
Ġsp oke
ĠC ook
Ġs ought
Ġincreasing ly
Ġfl ux
Ġmed icine
M IN
Requ ired
f red
um in
ĠAcc ount
ĠSil ver
or er
(' /
Ġg ro
Ġfind ings
Ġbound s
19 28
ty pen
ur is
Ġwindow s
Ġs oci
pl ot
und efined
CT YPE
Ġsomew hat
at omic
Ġbehavi our
et ies
es is
Ġb aby
secut ive
ĠPal est
Y our
et ary
t f
foot note
Ġr ide
Ġhand ling
ĠP os
ab ama
ĠLab our
um ps
Ġst yles
ĠBo olean
ĠReg ional
Ġexc ited
arg o
D ictionary
x is
av ailable
ĠV ice
Ð° Ð½
RE Q
ĠEd ition
Ġimpro vement
S ave
end a
Ġwalk ing
S ong
ĠH ans
Ġa st
ĠHigh way
Ġres et
w ill
Ġtrad ing
ĠCE LL
Ġinv ent
II I
Ġcopy right
Ġ ig
Ġdesign ated
er on
EN TRY
ĠJac ob
Ġab use
O h
Ġrev olution
Ġp it
Ġtrans actions
RE E
tr im
Ñ ĩ
Ġenh ance
Û Į
Ġmod es
ĠMe an
Ġsepar ated
Ġel ig
ĠCh ap
ĠIn put
circ le
W in
Ġm ess
Ġc m
Ġinvest ors
Ġappe al
P y
ĠH ence
f c
h ref
Ġref used
Ġs ynchron
ĠM D
set minus
Ġcontribut ed
Ġfr agment
s ample
19 32
Ġt mp
ous es
er os
Pro v
; ">
Ġ( [
ĠJ ay
Ġpre ced
Ð ´
Ġcorre lation
ĠCol on
Ġc md
Ġconvers ation
sub figure
12 7
Ġprep are
ĠL oc
ĠE uro
ĠS port
ĠHarr is
B el
res olve
Ġland scape
Pl atform
Ġmod er
sup ported
ĠN ever
Ġappro val
is or
per m
ar o
Ġfl u
ĠF ederation
Ġdanger ous
Ġst ood
ĠAp plication
Ġem ission
get Element
ot on
ĠC op
Ġwork er
typen ame
Ġwill ing
p are
a ire
get Value
Ġexp ensive
as sembly
Ġr ig
Ġpro ps
ich ol
face book
Ġcr ash
Ġfor g
Ġadd s
Ġp up
C ent
EL D
uth er
æ ľ
ĠG ard
Ġinv ited
ib ilities
e lect
re port
pe at
ag ent
s ingle
act ic
C r
ĠLeg isl
ĠÂ ©
ass andra
print ln
oc aml
Y es
in th
Ġrepl acement
C ur
Ġfac ing
ta h
ĠC red
T F
ir ty
ĠPat rick
Ġpro spect
ĠS H
cl uster
re lease
ur st
ĠC lient
ĠL com
b urn
ĠE ver
ĠAr k
ĠM iami
Ġp seud
Ġh a
Ġw aste
ĠTok yo
opt ional
ĠOper ation
Ġ ^
ri ends
Ġm g
ĠD un
Ġeng aged
E p
Ġsent ence
C ALL
Ġprinc iple
Ġsn ap
ol id
Ġheav ily
{ "
ownt own
con sole
Ġ@ "
Ġn ut
ĠB eng
Fr agment
i est
(" /
olog ists
Ġdisc rim
Method s
Ġillust r
Ġext reme
VAL ID
d ig
Ġmaint ained
ache lor
"" "
ID TH
m c
Ġp ictures
Fl ow
Ġentertain ment
Ġp ref
Ġro utes
ext ension
DE F
19 27
Ġf olk
Ġjoin ing
z y
=" $
we ek
Ġsk y
clip se
ĠB alt
ĠAll en
STR ING
Con stant
Ġaccess ible
s ch
Ġacc ord
ĠCon stitution
h us
ĠMex ican
e ast
Ġb es
ĠL oad
Ġne ither
P ress
Ġbro thers
Ġg auge
du cer
Ġt ags
ĠNor way
C ity
Ġfound ation
l u
pl an
ur ers
int eg
f x
un ior
ĠGree ce
Al so
Inter val
J apan
Ġattempt ed
Ð ¼
ol t
Co ord
Ġre in
ĠK y
19 24
S ing
Ġ" ",
Ġrot ation
Ġre aching
Ġex cess
Ġwhe el
Ġchar set
EEEE FF
ĠC R
lo yd
Ġcorrespond s
Ġvalid ation
ip pi
Ġprem ier
ĠEconom ic
ob by
pro fit
Ġscen ario
Ġc a
ĠM and
Ġinj ured
t ensor
Gener ated
Ġtalk s
tr ace
> \
it ative
check box
ĠAm ong
Ġassum ption
ON G
ĠReg iment
A z
comm ons
Ġinteg ral
Ġc atalog
lection s
Ġcapt ain
ĠT el
att ice
Ġbre aking
app y
ang el
ys ical
ĠS A
ĠRes ources
ard o
Ġbr on
Ġv ast
ish ment
ĠC ape
Ġturn ing
w arning
Ð¾Ð ²
Ġinput s
D ATA
s ocket
Ġchair man
E ffect
Ġass ault
Ġpresident ial
Ġ _{
i ations
Ġro oms
ĠA fghan
F P
dr iver
Ġt sd
ĠE V
ĠPr int
: `
Ù Ĩ
An imation
MOD ULE
b us
ĠDemocr ats
ĠMed al
hold ers
y y
d iff
hed ral
con struct
ĠP a
form er
Ġsche ma
Ġent itled
Ġpar ish
ĠS in
an im
Ġdis miss
kw args
cont ents
Ġa ver
ke ep
Ġd ire
Ġex posed
ĠW y
ĠSc ient
Ġprom otion
ac cept
ĠW rite
ĠFurther more
Ġcircum stances
N ative
Ġdr iven
Ġrespons es
B Y
ĠR ound
Ġadvert ising
ĠĠĠĠĠĠĠĠĠĠĠĠĠĠĠĠ Ċ
amaz on
Ġhead s
Ġm m
ub er
Ġmin ing
Ġnumer ical
/ _
we alth
il st
Ġvalid ate
ex ec
Ġw ound
S V
ĠArch itect
int ell
ĠS witzerland
d ers
C ard
Valid ation
Ġg ift
ryst al
clud es
Pro to
Ġbeaut y
sl ice
Not ification
ateg or
GB T
ĠM unic
Ġold est
Ġvers us
19 22
el son
Ġ$ |
A udio
ver ter
/ .
ĠEx press
ul ating
G ER
ubl in
cover y
ac on
b atch
Ġrel ax
Ġexplan ation
E P
aw are
f ef
Ġsk ip
Ġil legal
ĠC G
Ġp ul
ick ing
Ġgrow n
l ive
Ġdr um
g lyph
S ample
ĠMos cow
Ġpro ud
is ations
load ed
Ġpro fit
Ġtri es
Ġb id
ick y
á »
ĠJun ior
P air
Ġde pos
S ep
ĠSI ZE
et ween
F ramework
Ġl ands
Ġapprox imation
Ġshe l
Ġr ugby
ĠW H
Ġbur ied
% "
Ġde bt
Ġdiscover y
ĠD ave
Ġh ide
Ġf lying
us al
al ion
ĠM ust
Ġabs ence
f actory
Ï Ħ
Ġl ake
MO DE
F ocus
int end
Ġund ert
Ġappre ci
Ġsch ol
Ġim possible
and ed
ch art
k top
æ ĸ
uff ers
19 31
3 60
ic he
ut ies
ribut ed
Ġexpl ains
Ph il
Ġsix th
Ġhon est
DO CTYPE
ĠAd vent
M ouse
mer ge
B inding
hel per
Ġcomp ens
Ġsim ult
v ia
col on
ri ers
ÃŃ a
19 25
Ġregular ly
Ġman ifest
ĠL ag
k t
ĠF arm
Ġl aid
ĠE ND
Ġd ies
inc ial
re act
Ġdec ay
ĠOption al
Ġch ose
og ene
che ll
ĠP ed
ĠTh ird
ĠP ack
ĠMo ore
Ġm orph
Ġf ired
Ġin equality
Ġreg istration
Ġrob ust
intell ij
ĠIslam ic
Ġmembers hip
Ġs urn
Ġloc ally
at on
as p
B IT
Ġt um
st e
ĠE arly
ĠSt ream
Ġv oted
He alth
In formation
Ġd uty
Ġf aces
P ers
Ġj azz
L Y
}^{ -
Ġpo etry
Copy right
D im
ert o
AT ED
Ġcomplex ity
Ġf ails
Ġm ouse
Ġobserv ation
Ġtri als
Ġr u
Ġsymmet ry
ut ed
Ġinfe ction
ĠIsrael i
M c
ĠD og
ĠFre der
H ub
f ail
dest roy
ä »
ro ck
ĠT ax
Ġ? >
Ġconcent ration
Ġse es
B inary
19 21
ĠSt ore
Ġto wer
r ig
tern oon
M s
ĠG all
Ġgun s
nt il
el ve
side bar
ĠHow ard
Ġs ight
* {
x html
object s
NavBar Font
oun ce
Ġcol le
atas ets
ĠPh ill
å ®
Ġnuc le
ĠL ib
Ġt elling
ĠKent ucky
th rough
Ġsc r
Ġqu iet
Argument Exception
ur able
if i
comp ile
ĠY outh
Ġcon secutive
ĠSchool s
ĠL A
Ġdemonstr ated
iz on
Ġcont ribute
Ġw ine
od a
Ġenjoy ed
Ġreli ef
ĠTr aining
Ġsatisf ies
Ġst im
ĠX ML
Ã¼ r
H C
ĠVill age
19 26
u er
Ġvill ages
Ġobserv e
i ot
b asic
act ivity
Ex ample
agon al
ĠFin ancial
ation Token
fe ed
Ġmain tenance
cl one
Ġwel come
l at
Ġd iversity
Ġowners hip
Ġposs ess
ĠTe ch
ĠS pr
ĠB an
Ġindic ating
inher it
Ġb irds
ĠT ake
c ountry
ph ony
Ġimpro v
Ã ¥
- (
ĠT ree
ĠAn alysis
st o
re ement
Ġdi plom
Ġb rown
Ġour s
ĠSar ah
ĠLin coln
Ġreject ed
Ġout come
Ġexpl os
S erv
Ġinvestig ate
Ġs ed
ĠE ag
= >
L ower
Ġcho ices
w ik
part y
Ġd ust
ĠSing h
P D
ic ut
Ġcomp r
Pl an
ri um
Ġlog ic
ĠMar ine
ĠV o
Sh ould
' ];
viron ments
ĠT a
cre ated
ĠC art
Ġhyp othes
us form
_ +
M aterial
ane ously
ĠSm all
ist ol
numer usform
Ġc ov
l ad
Ġtr ains
ĠS n
ĠCont ent
Ġdraw ing
Ġthrow n
Ġw aters
ĠS ets
B asic
SE LECT
Ġst ability
ĠD ick
Sk ip
ĠAl bert
Ġt ables
con v
Ġover l
ra h
E q
iffer ent
19 12
Ġf mt
ĠN ik
Ġbe ar
Ġsett led
ĠSe attle
ĠH op
Ġp ipeline
Ġbi as
wh o
ĠWh it
Ġlimit ations
od ge
Ġge ometry
SS L
con structor
LE D
w en
ĠB ah
ĠL eb
over ty
text sc
Ġg iant
iver pool
P aul
Ġs in
osp itals
Ġconsum ers
Ġre ward
1 12
Ġb on
O lymp
Ġre verse
Ġb old
O W
ĠS ri
... </
ĠK elly
us cript
ĠSh ould
Ġh am
ier archy
Ġr id
ag h
des ign
apol is
Ġap ps
Are a
evel oper
m ouse
ĠIN TO
s ync
Ġmag ic
ĠAnd re
Un known
mem ory
ig e
i op
Ġpred iction
fef efe
Ġconstit ution
ac ew
R ich
R ob
Ġe ase
Ġcompet itive
ĠAn ne
ĠA st
Ġdesign s
19 15
Ġemploy ment
Ġveg et
ig ious
O ld
) [
Ġconsist ing
Ġmer ge
ren a
Ġm ales
B order
Ġref uge
Ġphys ics
ĠDet roit
ĠL as
AN G
ĠStud y
ĠAl abama
arn er
ç Ķ
h our
ĠR ab
ill ery
for all
Ġthought s
Ġfor th
19 23
Ġcon crete
Ġcommit ment
Ġto k
Ġab ort
riev ed
14 0
INS ERT
ĠC ow
ac ht
ul i
Ġang ular
Ġg arden
N ormal
Ġanal og
Ġes cap
Ġpres ents
Ġso il
Ġloss es
Ġhost s
ak s
Ġst ats
=\ "
Ġg ar
ĠY es
i ors
Fil m
Ġcontinu ing
ĠAL IGN
Ġoptim ization
' }
ĠJ osh
P al
Ġf ault
iss ippi
om ent
ĠB ush
Ġroad s
Ġco q
US ER
ĠBase ball
. [
Ù ħ
Ġco aches
Ġfact s
ĠM L
ĠO klahoma
ĠG arden
Input Stream
Ġun us
ĠBar on
F M
empl oy
y cle
ul um
_ );
Ġv oting
var iant
ĠM ock
edd ed
il ib
'] ['
Ġtemper atures
Ġcon clusion
Ġhard ware
Ġin ject
OR TED
ors es
ap is
d k
19 16
Ġprov ision
er as
se lector
F UN
or ne
Ġfall s
opl us
Ġf ruit
Ġgrad uate
pl er
ac o
Ġcrit ics
re v
P G
con vert
Ġreg ulations
L imit
Ġconstr aint
ĠV in
Ġsy nd
Ġsurg ery
W ho
Ġlow est
load er
k et
ver b
Ġre nd
_{ (
Ġad mitted
Ġpe er
Ġs ys
1 15
C B
S creen
Ġb attery
Ġsim ulations
Ġm arg
Ġliter ary
Ġp ub
Ġem otional
Ġsub mitted
ĠN ic
M arch
r ices
Ġexplicit ly
Ġadj acent
Ġm d
Ġopt s
De ath
Ġvot ers
h ot
M ove
Form s
Ġs itting
ĠNiger ia
ex it
M en
Ġst arring
Ġhol iday
Ġmonitor ing
ĠPl ayer
Ġliqu id
G overn
Ġex ports
Ġemploy ee
R ober
ĠD ue
ĠTr ade
ĠQueens land
big g
Ex ecution
el and
Ġmeet ings
ĠDe an
Ġocc as
Ġnom inated
ĠV ar
ĠP ur
Event Listener
ĠRepresent atives
CH AR
ct ic
Ġrapid ly
h om
ĠLa ure
Ġcirc uit
Bi ography
t re
ues e
Ġvari ation
Cont act
const ant
Ġcon n
Ġ( @
ĠHer itage
Ġdes ire
Ġpresent ation
e ah
Test Case
W I
Ġf asc
Ġt ough
valid ate
ĠO k
Ġnecess arily
Ġfor get
ip edia
ĠAg ric
m n
10 5
Ġsucceed ed
ĠWalk er
Ġchalleng ing
r ink
Us age
j et
Ġcer emony
Ġsurpr ise
C LASS
Ġsh adow
r ank
Ġsign als
Ġb ott
ĠJ os
Ġattack ed
Over view
Ġth in
Ġapparent ly
Ġeth nic
t ok
Ġm ail
Ġwe aring
ĠComm un
Ġcarry ing
Ġn am
Ġshort ly
å ħ
IO Exception
ĠD VD
ens is
ĠDef ense
M al
ur ric
Object s
ĠPr ivate
P resent
end ment
b d
Ġar c
ĠN ob
j u
^{ -\
st age
ur ations
on i
ĠLim ited
Ġsup plement
Th row
S an
Ġcol span
sim ple
amb ig
ather ine
Ġcompet e
^ ^
ĠI L
ĠB os
work s
ate ur
not ations
ĠInst agram
Ġcom ic
Ġbr ands
Ġret irement
clos ure
Ġcheck ed
ĠAl bum
Can adian
ĠB eck
Ġ( $\
ĠYear s
Ġ' \
Ġcollection s
Ġprefer red
G ood
ict ional
ĠN atural
Ġlist ening
l ass
Ġs ql
Ġ" %
ester day
Con structor
Ġgr ass
m aking
ĠTh ose
Ġprinc iples
_ *
DO M
or ry
ĠS cal
Ġmod ify
h ist
ic ator
ĠS M
om er
ĠMay or
n ative
Ġrough ly
ail and
R aw
Jan uary
10 2
> )
Or iginal
ĠB ureau
Ġch arts
set up
ub b
B atch
Ġpoint ed
Ġatmosph ere
Ġeduc ated
is Empty
v als
N or
ym pt
ol y
ĠG ib
Ġpop ulations
Ġpick ed
Ġbe ach
L ight
ĠAl an
Ġâ Ĩ
Ġarr ival
Ġn a
The me
ke e
Ġr ational
St atic
hes is
Ġgrad ient
ol o
Ġs weet
B ased
clus ions
Ġf ought
A pril
ĠK am
Ġcompre hensive
T ex
Ġut ility
() ),
ext end
sp ir
Ġweek ly
T ok
Ġs ons
Ġ_ ,
read er
Ġindepend ence
W IN
Ġmet rics
Ġcalcul ate
ĠAuthor ity
Ġign ored
ĠAut o
ĠB Y
ĠG ordon
Ġdoll ars
Rem ote
Ġprovid ers
D b
ĠL INE
ĠP rom
Com plete
ĠSt ew
Rev iew
/ "
Ġcru cial
Ġbig ger
Ġhead quarters
} %
Ġs essions
ĠB ull
alyt ics
ĠV irtual
Ġr ising
Ġacknow led
Ġne uro
Ġpass engers
Ġload ing
ĠTem ple
D id
Ġclos ing
Ġsus pect
ĠD ur
Ġdr ums
ĠN AV
Ġcon cluded
UN D
Ġperm issions
ser ies
ĠD ouble
Ġmill ions
\ }
con str
ĠSer ver
ĠP as
Ġup coming
Ġmay or
ĠBow l
Ġdevelop ers
ĠMem bers
ĠTr ack
Ġ\ "
se par
s un
Ġman ip
¿ ½
E urope
Ġentr ance
Ġris ks
Î ¹
Ġo x
bar a
Ġinj uries
Ġl ots
ĠD B
Ġt ank
Ġpred icted
iment al
ĠAust ria
Ġc ursor
Ġmer ged
PRO JECT
ab ad
Â ©
Ġse lector
Ġs av
" },
ĠL am
W arning
Ġscal ar
# {
ear ing
Ġbeliev es
C ONT
st ers
ct rine
ĠFor ces
ĠE ss
Ġs ad
pos ing
IN ST
op ic
/ {
Ġd ose
Comp at
Ġdise ases
Ġsur ve
er ior
assert True
Ġinter act
er k
gress ive
Ġmod ules
Ġcent uries
Null able
_{ {\
ank a
ĠD ak
le tt
Ġreason able
å Ĳ
ol ph
ĠSim ple
S G
Ġfriend ly
F eb
RA Y
Ġpublic ations
Ġsign ing
is set
E st
Ġf old
Label s
ĠAss istant
n ed
Ġphil osophy
oc ese
J une
C lear
iz ers
form ed
or ro
Ġas set
Ġformer ly
ĠAb stract
Ġt icket
Aug ust
Ġexc iting
sw arm
ym n
J ames
Mich ael
." ""
ious ly
c ity
u h
es ian
in ction
Ġin structions
" ].
d ays
Ġrele ases
Ġdisc ipl
ĠBr un
Ġhealth care
ĠA le
ĠH ug
ib l
ĠAust in
Ġ> >>
Ġsequ ences
var iable
Ġsup plied
Ġinnov ation
ene z
ĠD im
Ġde com
Ġab und
Ġperiod s
Ġ| \
ĠPr act
Ġfranch ise
ĠG ram
Ġ} }
Ġr ival
Ġro se
Ident ity
ĠAtl anta
W allet
Ġuncertain ty
Ġspect ral
om as
Ġf urn
ag ic
t p
Ġex clusive
Ġdirect ors
ter y
Ġte ch
Ġsub set
or igin
Ġ$ [
wild fly
Ġatt orney
o i
Ġreve als
ĠVol ume
ellect ual
Ġredu cing
Ġc odes
Ġapp lying
ri ent
ĠAb b
P red
Ġabandon ed
Ġoccup ied
ĠAnton io
B ad
Ġres on
Ġessential ly
Ġin tern
amp s
Cons umer
el astic
l iving
Ġdef ensive
ï¼ Į
Cond ition
w as
ĠAl liance
in x
ĠSw iss
T oday
or ous
M AP
g ood
se q
ĠIl legal
Ġout comes
ĠM organ
Ġal ive
vert ical
Ġnorm ally
ĠK it
Ġle af
Ġme ets
Ġyield s
ĠPr ivacy
Ġill ness
Ġdemonstr ate
v y
Ġb are
ĠD ub
Ġrad iation
D IS
ĠV ari
Ġb reed
ĠR oc
A E
> ;
Ġcommunic ations
aud i
Ġident ical
sh a
ram a
Ġrequire ment
Ġstrateg ic
Ġguid ance
down load
Ġ" ";
epend encies
w d
ĠDes cription
Ġrespect ive
S ite
it ro
level and
ĠDe ep
ĠW as
Ġcons ervation
Ġaccomp an
Ġhor ror
ain ian
ĠT ool
Dr iver
ĠWal ter
Ġd yn
im ore
Ġcent ers
ock s
ur se
ĠI ron
Ġabs olutely
E ast
sc ore
Ġarg ued
qu ote
ĠP od
ĠD est
Ġproced ures
19 13
Ġmusic ian
ĠJ ason
al ia
Ġpain ter
Ġaim s
UT H
Ġ Ä
Ġres erve
Ġinvol ves
ts burgh
ĠLear ning
Ġ' ';
Ġn urs
ĠVAL UES
A I
h ill
Ġt all
A wards
leg es
}} (\
Ġtyped ef
comm it
Å «
ĠC le
z i
Ġtem ple
ĠS el
Str ategy
Down load
od ox
ĠG un
Ġcorrect ly
: [
D an
F older
ĠH amp
l ia
Add r
ac er
writ ten
et ition
ul ator
Ġemph as
ĠB ron
eli hood
ĠK itt
ï ¿½
Ġinform ed
Ġcap abilities
Ġcomm ands
T Y
p in
Ġcur ves
Ġent ering
W ord
l icense
Ġcons c
ĠHar vard
out ing
Ġopt ical
N R
Ġ( ;
atur ally
Ġpen alty
Ġm or
M ount
ĠK ings
Ġsing ular
Ġed it
Ġpubl ishing
FF ER
m essages
ĠC ole
Ġann iversary
Ġslow ly
En v
ĠRem ove
Ġconsum ption
ĠB us
Ġcoeffic ients
Or gan
Ġfl uid
Ġo cean
Ġoff ensive
ĠF ive
Ġcomp atible
Î ½
ĠWork s
Res olver
li est
Ġprodu ces
v et
Ġsing ing
cont rib
Ġeng ines
oth s
Ġst ead
f ish
ĠÐ ²
Ġpl ain
Ġpass enger
11 1
Ġpl enty
F ace
Ġaf ternoon
'] );
Ġ ur
ĠIm m
ĠCl inton
ĠI R
Ġbe am
ĠH oll
al ert
M aster
Serial izer
Ġtherm al
iev al
ãĢ Ĥ
Ġestablish ment
U AL
Ġcomp ilation
f lix
Ġb undle
h al
ry ing
ph ant
s r
Ġp ione
Ġc rypt
Ġvis iting
ĠLouis iana
Ġd ial
D rop
ĠRuss ell
Ġbron ze
LO C
pl oad
oll ary
Ġhy brid
H on
ORD ER
Ġst ake
ĠTurk ish
ĠH ills
ong o
as hes
on na
Render er
stand ard
E val
ops is
Ġsub mit
ĠW olf
Ġchild hood
Nav igation
Ġrun time
Ġrac ial
ic ular
Ġgu ests
Ġlog ging
Ġy es
ĠR ace
Ġro ots
m outh
ĠN ap
Ġel if
j ack
A SE
NS String
Ġprodu cers
Ġh ist
Ġroy al
ĠH u
Ġstat istical
ĠInd ependent
ĠPro position
ograph ical
Pl ace
Ġunderst ood
reg ular
I AL
Ġdepend encies
ĠE ffect
ĠCh ile
Ġsustain able
ra ig
iv idual
Ġan th
ĠC SS
S W
Ġdistribut ions
Ġpull ed
gener al
H ar
high light
Ġb acter
Ġph arm
p kg
ĠM ission
19 11
d atabase
D M
s he
ath y
ä º
ĠP ython
Ġsit uated
ele m
Set ting
Ġgovern ing
Olymp ic
d ash
bul let
ĠH ave
Ġident ifier
Ġstrugg le
N UM
in ian
ru ction
d uration
Ġgalax ies
Ġt urb
Ġdesign er
Ġall Classes
w iki
part s
J uly
ĠCh ampions
dis able
9 00
ĠSaf ety
Ġs ocket
Ġe g
Î µ
Ġgovern ments
p id
Ġbrief ly
AT TR
end ers
ĠMiss issippi
f ake
ĠF er
Ġstreng then
Ġinstr uments
Ġinstall ation
Austral ian
Ġbeh alf
Ġinflu enced
ĠRes p
Ġvict im
ĠWAR RAN
ĠallClasses Link
w ig
Ġdepend ent
Ġpri ze
Ġadapt ed
if ting
Ġ' ',
m ount
es a
F uture
s b
Sup er
ĠM agn
ĠPart ners
ab ul
og a
fer red
Ġcoord inate
ov ak
Ġmagn itude
hedul er
m ay
Ġs ick
ĠF ame
All oc
w edge
ĠCo oper
ot ions
fl at
Ġdis appoint
PH P
p ages
Ġleg acy
d agger
ĠF le
Process or
id ges
Ġ\ ;
ow ski
Ġed ited
ĠD allas
Ġmy th
ĠSe lect
Ġig et
Ġend point
op ter
Ġdecre ase
ĠN ation
Ġnarr ative
Error f
N P
Ġop ens
10 4
Ġtheoret ical
Ġpay load
em it
Comp iler
Ġg ang
Ġsit uations
pro gram
Form er
av is
Ġfe es
AR N
S pecial
l on
Ġamount s
ĠAr men
Ġcou pling
comp are
j Query
Ġcoff ee
| }
ĠM ars
Ġun iverse
ĠStud ios
p b
ĠIndones ia
Ġal cohol
it ure
sc ss
re nt
Ġsens itive
Pop ulated
ce iver
il ty
ĠM aterial
Ġrece iver
Ġfound ing
Ġpro hib
ĠTele vision
s is
Ser ies
nov ation
ust ed
ĠNor wegian
am an
Ġdifferent ial
Pl ot
p oll
l ower
Not Found
ĠU tah
ĠTai wan
Ġorgan isation
ĠN ichol
Ġan chor
) ",
0000 0000
3 50
ia h
Ġst rip
Ġmark s
ĠDoug las
Ġcommand er
oun ced
C M
Ġinter section
greg ation
Ġsatisf y
f mt
Ġunivers ities
ĠFin ance
ĠConnect icut
ĠEnvironment al
ir ates
ĠD al
Ġmedal ists
rypt ed
Wh ite
ĠSt ill
Ġflow s
h ave
raz y
Ġtransport ation
Ġfle et
Option al
ĠG iven
ut t
m ate
ĠK az
Ġfra ud
un ning
l icenses
Ġs ync
Ġaut hent
method s
Ġinterpret ation
Ġfall ing
ate st
Ġs b
' _
al ink
Ġaware ness
in burgh
ĠMc K
b ow
in us
L ive
Ä ĥ
ĠRes ults
ĠBuild er
to Be
ĠWhe ther
ĠN ag
W eek
Ġread s
Ġencour age
190 8
ĠSch olar
Ġf ib
spe ed
L ibrary
Ġan imated
ĠP ap
over view
sub mit
OR K
ĠJ ob
or ce
ut ter
l ined
ĠAl ber
cl ine
Ġsc hem
Ġmax im
g if
Ġtr uck
Ġant icip
Ä «
ĠThom pson
10 3
Ġsl ot
ĠAn na
ra its
ĠIndust ry
ĠChair man
ĠA G
Ġcheck s
Ġimpress ive
Ġam plit
por ter
ĠMc G
po inter
Ġden otes
Ġant ib
Ġregard less
Ġt ied
AT CH
Oct ober
Ġconvent ional
A bs
( .
i ology
Ã ł
Ġcr ick
p aper
it ations
the less
De cember
Ġint ensity
E ven
Ġstr uck
ĠLaw rence
ĠBru ce
ĠRes erve
A ST
ĠTh ough
Map per
ĠH old
ol ves
Ġparticip ation
ĠAdd ress
Ġinnov ative
Ġco inc
Decl aration
Ġdeleg ate
ex pression
ĠTh read
th rift
xy gen
pon ential
Ġval uable
Ġsh ots
ĠL iverpool
Ġres idential
Ġcl ip
Ġground s
qu al
omet imes
ĠN ash
), \
itar ian
d ale
C HECK
\ _
ant ed
Ġtransl ated
Ġd iam
Ġn ations
In f
ĠN ature
ĠO wn
arg uments
ĠPro p
grad ient
Ġneigh bour
Final ly
Ġiniti ative
ĠWeb site
F n
Ġent reprene
Ġt ennis
Ġclass ified
Ġmach ines
ĠP ear
ĠAdd itionally
lik ely
ĠOrgan ization
ĠD ublin
Ġ$ $
Cont ents
ĉ čĊ
i ere
Ġoper ational
omorph ism
Ġev il
ĠD id
ĠW right
ir i
Ã© t
Us ers
Ġwonder ful
Y Y
T ile
ĠEx ample
mark s
Ġen forcement
ĠNAV BAR
Ġoper a
UM M
And roid
Ġr um
g re
ĠH D
Ġpaint ings
sub subsection
ĠSquad ron
direct ory
Ġf est
) _
b p
m ates
Ġgener ator
ĠStud ents
ĠT alk
t ik
P ack
p end
c ounter
ĠCent ury
Ġto x
Ġwe ights
av it
uk i
ou ver
ĠDel hi
ĠJud ge
load ing
Ġregard ed
Ġar med
ĠAtt orney
for Each
ĠK l
Ġint ention
Ġpl astic
Ġthe ories
Ġp sy
Ġrep ly
Ġas ks
ĠOr th
pt ic
y ll
Ġto ler
b x
arch ive
Ġv ectors
ĠH um
ĠPro tection
ĠEm peror
t ures
at ivity
t ail
Ġap plies
act ual
Ġtim estamp
Ġtrack ing
Ġfarm ers
ĠAnd y
R ate
f ather
if old
ĠĠĠĠĠĠĠĠĠĠĠĠĠĠĠĠĠĠĠĠĠĠĠĠĠĠĠĠĠĠĠĠ ĠĠĠĠĠĠĠĠĠĠĠĠĠĠĠ
ĠChrist opher
Ġb ug
tr l
Ġfl ash
ge on
Ġacqu isition
Ġman aging
E ducation
Ġwith draw
Å ¾
Ġh ired
Ġa str
G reen
ĠH ell
ĠTh er
cy cle
Ġ{ },
Ġhe ll
ĠM ess
ĠStud io
ass ign
rel ative
ĠM eg
Group s
getElement ById
ik h
ick en
C md
Ġh ook
Ġgen etic
ID E
con nected
Ġbul k
et al
b c
HE AD
cc a
Ġher itage
B ibliography
H tml
Ð ¿
Ġcour ts
Err ors
Ġcl usters
n c
D en
Ġcomput ing
roll ing
cal endar
ĠCon stant
/ ">
ag ma
ĠM atch
FI ELD
Ġbre ath
ĠU r
Group Name
s heet
ĠBe at
res ize
Ġc up
Ġgen re
ĠPe ace
A U
ĠR ange
Ġpark ing
ĠTh ailand
Ġb ath
Ġe c
P ower
Ġcomp lement
rb an
= [
18 90
Ġsoc cer
ĠĠĠĠĠĠĠĠĠĠĠĠĠĠĠĠĠĠĠĠĠĠĠĠĠĠĠĠĠĠĠĠ Ġ
Don ald
V AR
A K
Ġch urches
w arn
Ġhigh way
Ġrestaur ants
sub ject
Ġp atch
M us
ĠL P
Ġisol ated
an imation
Ġdef ines
M ajor
Ġm art
Ġshe et
ac ef
ĠB art
eb r
Ġreve al
Ġim plied
ĠW ord
Ġeval uated
pm atrix
Ġinh abit
ri ble
b one
ect ure
Ġ ion
com b
ĠMat thew
Ġback ing
Ġstrong er
Sign ature
Ġcoll apse
n ob
ym p
k ov
ĠMov ie
Ġelig ible
b inding
Se ptember
Ġin duced
Ġh at
Stand ard
Ġadvent ure
ul us
Ġdecl ine
Cont in
Ġresc ue
ĠLiber al
ĠA pr
Ġunivers al
claim ed
_{ -
ĠT rib
ĠPr ice
ĠJ son
nav igation
Ġrul ed
av ia
ĠD ist
Ġeng agement
Det ail
bor ough
Rober t
Ġre putation
Ed ge
Ġo vers
Ġathlet es
ari os
ĠB reak
Â ·
ush ing
Ġstudy ing
à ¦
clud ing
Ins ert
Ġprec ision
ĠDo es
: @"
ĠO d
ĠBul g
Ġs le
p ot
Ġhead ed
ĠPal ace
pl ane
ĠC S
ĠH ope
AS K
Ġtot ally
_ )
ĠSoc orro
hip s
ĠR ap
F ailure
B ottom
in ces
Th rough
ĠGirl s
bo ards
Ġout break
Ġanal ys
ĠTh anks
Ġpay ing
s ig
Ġc ertificate
Run ner
Ġn ortheast
Ġincorpor ated
ĠP ope
Ġrun ner
Ġsuff ering
Ġen vironments
T L
Ġcon front
Ġind ices
ĠM icro
Ġinv ariant
f its
ĠR oom
Ġterm inal
Ġde leted
ĠCommon wealth
Ġn ick
Ġrestr icted
ĠDr ive
Sp an
Ġsurpr ising
b lob
trans action
ĠCommission er
ĠPl ant
hemat ical
ĠStud ent
Ġput s
Ġ' %
Ġstream ing
ĠV egas
Ġview ed
Ġpublic ly
element s
rad io
Ġprofession als
b est
Â ®
ĠLINE AR
ĠMar shall
" |
Ġbound aries
66 66
Ġim pl
Style ID
â ĪĴ
Ġsc ales
ĠSp acew
ĠHon or
V ICE
rem arks
Ġsecret ary
iv o
Ġb ird
ff f
Ind ian
LI ST
AT OR
ro oms
Ġcharacter istic
ĠArgent ina
Ġ' .
Imp lement
Ġtro uble
Ġelect ro
Ġst adium
Ġd ating
Ġmet res
Ġmar ine
Ġneut ral
win ning
and al
ĠCro at
cy cl
Ġthous and
Ġal pha
Ġj unior
ä ½
is ely
C enter
Ġfin ishing
ĠK er
Ġman uscript
ĠJ uan
ĠE arl
Ġop acity
Ã ª
ĠF ight
Cont ains
Ġequ ality
1 16
ĠM aur
CON FIG
Ø ¯
Ġb le
or us
Met rics
oen ix
iss ance
ĠL GBT
Sports people
v i
Ġ Ñģ
Ġnam ely
resp ons
V P
> ()
id al
sc ill
Ġin aug
Å Ł
im p
T om
Ã ´
me an
ĠS ud
Ġpod cast
ĠK o
riter ia
Pr imary
ok er
Ġp ending
ĠB uck
V irtual
C ounter
f etch
as ant
elf are
log o
Ġs a
Nov ember
m aker
Th ree
ash i
ĠL ane
Ġfew er
ĠS ac
Ġout standing
Ġreal ized
ĠD A
Ġden ied
PRO C
Valid ator
ilib rium
Ge ography
ĠL ess
} &
ĠW oman
Ġco ins
ĠAb d
ĠRefer ence
ar ance
B ounds
ĠH it
ĠSpacew atch
dep recated
ĠAd ams
Ġtok ens
dd ie
Ġmov ements
Ġland ing
Ġequip ped
Ġm igr
Ġb oss
Tim estamp
ĠM ort
ĠL evel
Ġvol umes
ĠBelg ium
grad uate
b oy
Ġpro jection
Ġsp okes
ic ates
Ġal ias
ĠPubl ishing
re nd
ĠOut put
Ġaim ed
Ġimprov ements
Tim er
ĠF M
ĠBang l
ĠB log
Ġis lands
Ġcons ervative
Ġshop ping
ĠC ancer
Ġcross ing
ne e
ĠCont ext
Ġor bit
Ġp overty
ĠEx change
ĠHistor ical
ĠP eters
C ulture
ĠPat ri
ĠJ enn
min ute
z ym
Ġt ur
ĠF ern
Ġbl ow
Th us
Ġpay ments
id o
Ġexpress ions
iv ia
ĠD J
ĠNC AA
s quare
ĠDen mark
Ġinfin ite
ĠA BC
ĠCommunic ations
ĠF red
ass ador
Ġres idence
ĉ ĠĠ
Ġappoint ment
Ġfem in
patch er
u is
he el
Arg uments
Ġor th
ĠS elf
de ep
Ġcommission ed
ab a
H older
Ġprov en
ĠP S
th ere
ĠArt icle
Ġre ign
aud io
r in
Ġstret ch
Ġtouch down
Ġsum mar
ĠPer formance
Ġf older
Ġhapp ening
f are
ĠMalays ia
Ġsymbol s
j ax
iv ities
ĠW ard
ĠAd vis
, $
Ġdog s
p aren
ug u
ĠP sych
Ġde put
cast le
Ġweap on
Ġmin i
P OS
A ir
\ )
br and
w t
Ġl attice
F i
Ġke eps
ĠKenn edy
] ))
12 34
d ark
Ġround s
ĠCamp bell
alle st
Ġbelong s
Ġserious ly
ĠF inn
i ang
ĠD ance
st ory
Ġf ishing
ex per
n est
Ġconcern ing
Ġcons ent
Ġfin ance
Ġinher ited
b n
oust ic
ĠTr avel
s z
< <
ĠS end
Ġin clusion
Pre v
ĠMot or
ĠN BA
c fg
Ġtext ure
Ġa ired
Ġt ip
ĠN ep
Ġl ux
Ġappe aring
ĠLem mon
requ ency
un ing
Ù Ī
Con sole
struct ure
Ġem issions
Ġconnect ing
Ġhor izontal
Ġmat rices
sp acing
i em
ber ry
ibr ation
Ġpr on
Ġpan els
gener ate
ink ing
b uilt
Ġagric ultural
ĠP un
ĠL java
Ġ âĢĻ
Ġcompet itions
Ġw et
Ġoper ates
Log in
Con vert
Ġstruct ural
ĠI C
Ġter rit
B D
Seg ment
Ġany where
Enc oding
scal a
oc a
Ġre pository
ĠP DF
M essages
10 24
Sh ared
Ġc ached
Ġrepe at
Ï ĥ
R andom
1 18
ĠC ell
Ġsurv ival
Ġw x
A lex
be at
Ġt d
Ġdeal ing
Ġhistor ian
Ġfair ly
s ong
Ġmix ing
Ġaccompan ied
form ing
="../../../../../../ ../
Ġcollect ive
Ġdom inant
S elf
te am
im plement
ĠF ix
å ¤
Ġun f
Ġkind s
ĠP rix
ĠSh ar
OP T
Ġeng age
B ro
ĠY an
Ġst ating
ĠDep uty
Ġ" .
l oss
ĠC os
ĠT an
Ġent hus
back s
c ross
Ġb ars
ĠL anc
ĠSam uel
ĠW ind
ĠO P
n an
ĠP romise
ĠB uff
Ï ģ
Ġconcept s
Ġp ushed
Ġident ification
ey ond
S chool
Ġover flow
Ġbr anches
ĠNe ed
ĠL iving
Ġrepl acing
ĠW IDTH
t ouch
u uid
Ġprint ed
Ġsatisf ied
Ġthem es
190 5
le ans
.* ;
as a
urren ce
Ġsam pling
Ġconsider ation
s at
g un
su it
p rom
10 6
List en
Ġdescri bing
anc ouver
Ġmechan isms
Ġw ond
Des ign
ĠH ero
Ġ} \
Ġg ay
Ġgu idelines
Ġh ate
Ġcon clude
ĠPortug al
Ġsubs cription
im m
ĠL ock
ub ern
Ign ore
Ġla ugh
ĠM obile
m k
Ġdo ors
ĠCh apter
H ave
ĠR y
or rect
ĠS ex
Ġme at
ĠCol omb
UR CE
u ced
Ġcritic ism
Ġhas n
Row s
Ġsat ellite
ĠE mb
ĠConfig uration
l ab
An alysis
ĠEd inburgh
Ġclos ure
m akers
L ib
) ^{\
Ðµ ÑĢ
ĠF el
is ons
ĠO pt
Ġcr icket
valid ation
ĠElect ric
Point s
Ġrestr ict
Ġpert urb
ij ing
190 9
ĠF ant
ĠKn ight
Ġassoci ate
__ )
ĠStew art
Ġpartial ly
Ġimpro ving
Ġmid field
Ġh ill
Be en
Ġcast le
Ex ists
ah n
ĠP red
Ġreli able
ĠDom in
ĠOper a
ĠF al
ant on
Ġvacc ines
et he
Z one
get Id
ĠI F
m ill
Ġsk ill
Ġconsequ ences
ĠJ azz
ĠA qu
im itive
ex tra
Ġag es
Ġj uris
A xis
ĠD elete
Ġ' ./
Ġdis order
ĠBet ween
Ob server
Ġdis able
P ut
Ġl icensed
Ġconver gence
ĠRepublic ans
ĠB ou
n ik
ĠB ed
Ġne ural
Ġsignific ance
Ġb om
Ġb ag
ĠBrazil ian
ĠInt eg
Pro fess
Fe atures
LO W
rem ark
ĠApp end
rem ote
Ġsing ers
ĠGr ad
Ġd elta
STAT US
Ġaccord ance
Ġmet ers
Ġwat ched
Ġen ables
an alysis
ĠPubl ished
BU IL
g ow
Ġsurv ive
ĠPortug uese
se lection
ĠC leveland
ĠR ain
ĠV ik
ter ior
Ġman ual
Ex press
Up dated
Ġt act
er en
ĠPh D
Ġde als
ĠDE FAULT
C ursor
Ġste am
190 7
C he
Ġpri est
Ġch unk
Ġs outheast
ĠN elson
s pl
Ġ ----------------------------------------------------------------
Ġansw ers
Ġbus y
Dep th
Ġun expected
190 6
Ġm oral
Ġj s
W H
iz ard
) }(
r ang
ĠG ray
Ġs alt
ab c
Ġcalc ulation
ĠS R
ill iant
t l
ĠOr chestra
Ġinher it
Ġcut s
ĠJon athan
Ġsimult aneously
Ġfocus es
r ating
R a
ĠQu ery
ĠG raham
ener gy
}} ^
Ġd atasets
Ġelectric ity
Ġre act
M art
oc y
ourn als
ĠRel ations
Ġnot ation
Ġjud ges
Ġadapt ation
or se
ob e
F OR
av i
Des pite
ĠNav al
B eh
upl icate
int eger
BU FFER
ĠRob inson
ĠT ig
per p
Ġrec ru
cos ystem
ĠH ost
Ġcontr ad
d irection
Ġencour aged
F eed
ĠM ut
Ġcal endar
Ġfr ames
ĠAfghan istan
ĠRog er
Ġel der
Ġrep air
G rad
ĠL eft
ĠK ir
Ġmolec ular
Ġj et
ĠC hel
ĠIm ages
We ight
at ile
h att
Ġ+ \
Ġ( ,
Ġfore cast
ĠAnn ual
LIC ENSE
Ġsupport ers
Ġsh arp
ĠG ill
ĠY et
Ġunus ual
Ch ain
Ġinv asion
ĠAl ice
j amin
cript ions
ĠSing le
[ (
ial s
Ġperson ality
, ...
Ġcut ting
AC H
Av ailable
in ar
ĠC P
id ency
Ġc ited
ambig uation
ra ke
Ġob lig
ĠBo ys
u um
ss on
Ġgraph s
enc er
head ing
Ġover se
col lect
ĠC C
ĠJ ess
ur ities
ĠPit tsburgh
Ġn eck
ĠT ar
tik z
Ġtr im
Ġres ort
Tele vision
Ġours elves
ĠM C
ĠCol umn
Ġp ump
abl ing
Sec ret
B ool
M ust
Ġt ie
ĠIm perial
al ph
function s
glyph icon
ĠL L
le e
n ia
et o
Ġnot ion
w alk
ĠCre ates
Ġexp ed
irm ingham
10 7
Ġres ident
ĠâĨ Ĵ
Ġdef ence
NO DE
Ġrece ives
M achine
S ame
Ġconsist ed
": "
Ġsuper ior
Ġart ificial
ĠCh amber
m ir
Ġass ignment
z es
Ġtw elve
ĠEconom ics
Ġwh ilst
Ġspirit ual
Perm ission
Ġr anges
^ -
ĠC emetery
Ġst ellar
Ð° ÑĤ
ĠPolit ical
Ġst em
ĠRes ult
RE SS
put ed
[] {
Ġdepend ence
ig s
ĠG ary
Ġm es
pre vious
cc cc
\| _{
Ġre vers
um ed
ĠN eg
ĠD atabase
ĠMet ro
ĠIn v
ile vel
ĠMay be
Ġb one
Ġh int
R ules
Ġm oth
am ents
ann on
Ġf ol
ĠAp pe
az ines
Task s
Ġassert True
Ġbas eline
Ġse gments
s ure
lot te
ĠSp irit
) --
Ġhop es
Ġh ospitals
ĠSt age
CO MM
ĠChar lie
p od
ĠR elease
Ġv ital
I Z
Ġc rown
Ġgreat ly
ud son
Ġg ram
Ġf etch
Ġ` ``
D ependency
Ġstr ange
Ġcomput ation
Ġfant asy
Ġcomp ress
Ġorient ation
Ex pected
Ġflow ers
Ġwebs ites
ĠArk ansas
it ol
Ġpack et
B orn
ĠB ible
Ġconst ants
d istance
out ube
t em
ol ished
Ġdep ict
ars ing
ax y
Ġcomput ational
ĠD ise
I ES
Ġquant ity
ĠSt op
ĠComput er
Ġelse where
ĠC rown
at io
Ġautom atic
Ġf irms
Ġorgan isations
enc ode
sequ ence
ĠCar ter
Ġcelebr ate
ĠSh ah
Constr aint
Ġsurn ame
Ġbreak s
ĠM I
Ġgalax y
Off icial
Ġres olved
Ġinvol vement
or ia
Ġtarget ed
Ġent ities
Ġbl ank
L IN
Ġmechan ical
Ġannounce ment
ĠW ang
AV E
B usiness
L icense
B ecause
Ġcount s
um ar
ĠD ictionary
Ġp ixel
Ġch rom
r uct
Ġrom antic
**** **
Ġcontract s
Ġthe ater
Ġr aid
Ġarr ive
Ġt ropical
Ġ" '
r ame
Ġrob ot
as ma
Ġcharacter ized
Ġfl ights
ĠS ide
pl ain
ĠQue bec
c ref
ĠPl us
Ġrul ing
Ġprepar ation
ic ode
tim estamp
up t
ĠEv ans
Ġsup plies
Ġsusp ended
h pp
A X
Ġknow ing
Ġpack ages
Ġ æ
F ootball
ĠM ind
Ġch ampions
10 9
ĠHand le
Ġdam aged
Ġdem ands
ĠBrook lyn
ay an
ĠMur ray
. :
b ors
ĠBy te
Ġw edding
Ġpo em
ra ction
F ire
Miss ing
UMM ARY
Ġfr ust
ĠIm mutable
U CT
Ġd uties
Ġt issue
Ġrep orter
ĠG ulf
Ġcl one
Ġrecogn ize
Ġre ly
m illion
190 4
ache l
ĠSever al
ĠT arget
Ġp in
Ġimag ine
Ġdire ctions
ex ecut
%%%% %%%%
Ġmonth ly
Ġconsequ ence
10 8
d n
od o
Ġstay ed
Sup ported
Ð ·
Ġto w
oid s
ĠMic hel
ĠC F
Ġpriv ile
DE X
Ġb oot
class Name
ĠPu erto
enez uel
ĠMarg aret
Ġo scill
own ed
ĠB ond
____ ____
T y
em ed
= %
ĠOr leans
Ġjournal ists
m ma
ĠChall enge
c od
Ġinterview s
; |
Ġdiscuss ions
qu est
Int roduction
Sc ott
Ġg oto
yth m
Array List
Ġt ickets
RES ULT
H istor
ĠRef orm
ĠDak ota
Ġpar a
ĠM i
com pute
Ġschol ars
V ill
) },
ol ving
Ġb at
Ġnav bar
re pository
ĠâĢ ł
L D
Te am
Ġcom plicated
Ġemer ging
f loor
ĠN am
ĠF em
Man agement
ill o
anch or
ĠSm art
UN T
ĠF O
J ack
Ġord inary
U V
Ġen umer
Ġrecord ings
Ġf inger
h istory
ĠMethod s
un ion
0000 00
Ġm ilit
ig ator
Ġ$ _
s ing
def er
Ġrest ore
ĠI an
Ġm igration
Ġcr imes
ĠSt orm
Con verter
govern or
Ġlik es
Ġleg s
c assandra
Ġp or
att ed
ĠCred it
Ġtrend s
Ã «
Ġb io
Ġprocess ed
ĠM aine
Ġcalcul ations
iv an
Ġres ign
Ġim pr
Ġindust ries
Ġtax es
Ġmass es
ĠP aper
ĠSt ars
ĠD ays
l arg
Rel ated
ĠClass es
19 01
Ac cept
ul p
Ġpopular ity
ĠSpe ed
ĠBill board
Ġd owntown
Az ure
ĠBalt imore
ens itive
Ġreg ulation
ĠD raw
ĠPort land
qu is
Ġgu ilty
on z
Ġdest ruction
Ġh al
Ġrecover ed
S en
Ġrest ored
Ġsu icide
ub ic
ater al
LA Y
sect s
m g
Ġperm itted
ĠD ie
(" #
Ġl ights
ĠM achine
{ $\
Ġs urre
ĠSen ator
link ed
ĠÐ ½
T ouch
Ġvis its
C ross
sur face
Ġguarant ee
ĠE u
ĠCr ime
Ġsudden ly
Ġexpect ations
Ac adem
D ATE
Ġfil ters
Ġinitial ize
ev a
Ġt ill
ĠPr imary
Part ition
om atic
ĠH ockey
Ġtra ject
) ^{-
Ġ( ),
ĠAct ive
Res et
Ġmod al
Ġsevent h
Ġn aturally
Ġ{ %
Ġreal ize
ĠT ab
wh at
Ġw ider
ĠD OM
ss l
ĠEx p
ĠS V
can vas
TI ES
Am ount
roph y
S plit
"> (
Ġwhen ever
UE ST
BP ACK
ĠL E
Ġsurv ived
h ai
Ġt y
al gorithm
M F
ig o
ĠGa ussian
ĠO K
Ġrel ating
tool tip
Ġcelebr ated
ine a
ĠZ one
list ed
ĉĉ ĠĠĠ
ĠM yst
è ¯
Ġemb r
ĠB aker
is cal
In ner
ĠC er
run ner
W arn
ch anges
Ġcon vention
Ġdefin itions
Ex port
Ġf ro
Column s
Ġs ke
Ġn an
ĠM oz
18 80
ane an
) _{
str y
Ġh ip
iss a
Ġre ception
( ()
Ġgener ating
ĠHun ter
AR G
[ -
r ules
G iven
ĠJim my
Ġhand led
ĠCons ider
w hel
ĠJ u
> '
ĠWith out
Ġsymmet ric
}^ *
Ġarr anged
var i
Ġdesc end
R ound
ĠL ore
ard ing
Ġmount ains
ĠPr incess
S witch
str ings
Ġp ixels
(" %
G EN
ess ed
Ġhead ing
Dec imal
ĠBr and
Ġbre ast
M ilitary
ol en
ĠI ce
Ġliter al
190 3
ĠI ter
ĠF ried
Ġaddress ed
create Element
oth y
ĠCont act
ĠF am
Ġequ ally
ĉĉĉĉ ĉĉĉĉĉĉ
p read
column s
ĠInd eed
Ġver b
Ġpubl isher
pol y
Ġspect ra
Ġap artment
link s
Ġconsider able
UR N
ab e
Ġim plicit
Ġto m
t own
D ynamic
Ġs oph
Ġport folio
Ġw idget
ar ity
A ctions
add ed
ĠI gn
ĠP ad
F ixed
/* !
ĠFreder ick
190 2
Ġdom inated
be ing
ap l
Ġear liest
Ġm ath
Ġperm it
ro se
per iod
Ġdes criptor
K it
ĠEv ents
ad v
ph rase
Ġform ing
ĠDan ish
equ ate
Ġobvious ly
ĠT ob
ĠSh op
2 20
ĠP i
AS H
re lation
ĠSy ria
... )
Ġfrequ ent
m ass
ĠU RI
get Instance
Ġacc um
f p
Ġiter ation
re peat
Ġgr ab
at ibility
Ġbl ind
omorph ic
N Y
Ġsatisf ying
ic ul
Ġlaw yers
Ġfund ed
ĠMor ris
B ER
ograph er
ĠG row
ul u
sequ ently
li ed
re present
our t
qu ant
Ġ< -
Ġext ensions
li bs
Ġsp oken
Ġsepar ation
ĠPl atform
Ġmult ip
Ġcan vas
Lo op
co ord
ams ung
Ġin ches
Ġs ail
ĠT ower
Ġcolle agues
en berg
us r
ĠFin land
C LA
m und
un ches
Ġart istic
ĠB lood
Ġcomfort able
Ġ{ $
writ ing
ch arge
ath ers
Ġrecommend ations
rel ations
Ġillust rated
ĠMad rid
. -
LE TE
st rip
i u
Ch art
c ia
sc ar
Ġrespond ed
ĠB uffer
ĠN othing
Ġchar ity
ĠH end
b ie
ĠAl aska
ĠGl as
Ġaff airs
c ill
$ ).
ĠR ot
Ġqu eries
Ġp ic
ok a
op les
( ['
j b
re po
Ġrepresent atives
}$ -
Ġdel ight
Ġval ley
ĠA rena
ĠClass ic
ob serv
ĠU g
Ge orge
ĠP ast
Ġamong st
Ġint ellectual
P romise
Cre ated
Ġarg ue
Ġadmin ister
av ers
f b
Ġinvestig ated
â Ħ
Ġ| =
ĠB ased
ĠĠĠĠĠĠĠĠ ĠĠĊ
Z ero
Ġsc an
ig g
Ġup grade
Ġw arr
dis ambiguation
,\ ,
Ġd ense
Ġgen es
ĠPerson al
O k
U pload
Ġv m
ĠIn ternal
ĠBro thers
Ġy esterday
Ġd ictionary
Del ay
Ġhypothes is
Not able
ex cept
ĠĠĠĠĠĠĠĠĠĠĠĠĠĠĠĠĠĠĠĠĠĠĠĠĠĠĠĠĠĠĠĠ ĠĠ
ĠG P
ĠSer ial
ack ed
Ġexpl oration
h ook
Ġclass Name
En able
Ġorgan ic
Ġret ain
Ġex clus
chi at
4 50
Ġvacc ination
k ar
ides pread
ĠHamp shire
Ġpred ictions
ack ing
ĠFac ulty
Ġdoct ors
Ġt iny
ĠM aj
ĠC lear
ĠH orn
Output Stream
Ġc urrency
h alf
Dep recated
Ġdifficult y
ra id
qu er
ov o
ur u
B uf
st ud
ev ens
Ġsp ark
book s
\! \!
ĠInf antry
plic ity
R ot
ĠR io
re ason
St ation
Ġre plic
ĠS UMMARY
ĠMar ie
Res earch
>( <
Ġing red
al ias
Ġviol ent
M ean
refer red
Ġas ympt
Ġun like
m ix
ĠAg reement
ĠM E
Publ ished
A fr
Ver ify
Ġsac r
Rad io
an ne
u art
Ġdevelop er
ik es
ĠD oc
Ġinter vention
Ġbu ying
ĠAp pro
Ġcomp iler
ĠAr n
UB LIC
T HE
re ck
usal em
u ates
Ġw orship
ĠGu y
ĠWARRAN TIES
ĠFrank lin
Ġp ace
F ac
Ġde ck
ĠBit coin
Ġsurround ed
ĠMit chell
build ing
ĠP oll
T AG
Ġrem oval
epend ence
æ ķ
S il
em en
} ",
Ġcomp iled
ĠMP s
;| &
e lection
H D
EN V
$ $\
ĠR ub
ĠTh ings
Ġven ues
Draw ing
Ġdialog ue
Ġav ailability
og ue
Ġfeel ings
ĠCom ics
ĠA y
Ġc able
ĠJ S
ribut ion
ox y
ar in
ĠH E
ĠBangl adesh
id ad
Ġnot ification
c ost
N a
Sh are
Ġinc orrect
P ad
Ġcompet ing
ĠMont real
ĠC arn
Ex per
ĠJ en
Ġas semb
apt ers
Ġst ick
ĠBl ues
R oman
Ġl ens
Ġt ort
Feb ruary
Mon th
S al
C ountry
Ġbi ological
File Name
ah o
FI X
BA SE
Ġlif etime
ĠH ad
Ġdiam eter
A SSERT
Ġdis p
Ġinhabit ants
ĠCon n
st ates
Ġre aches
Ġc aps
As sembly
ond a
ĠP ref
Ġre ven
L ang
n l
Ġins ight
Ġmat ched
m issions
ĠInd ians
ĠL ower
is an
ĠCon vention
it err
Ġ$ -
Sc ene
ĠPolit ics
ph ase
Ġm eth
ib bean
BO OL
Execut or
ĠC ass
par agraph
Re ason
Ġspe aker
RE CT
cel ona
ĠBern ard
H A
ĠC ensus
Q ual
cl s
ĠIn n
ĠPhil osophy
Ġdeep ly
Ġprote ins
it udes
pro b
ĠKe ep
Ġdecl are
Al bum
ĠM other
Ġs wit
Ġg ear
: '
erv ing
ĠFe ature
t v
ob i
Ġjuris d
ĠN um
ĠS audi
Ġpres erve
or o
Or igin
b ug
Ġt aste
Ġp ip
(' <
ĠO C
C ertificate
cont act
ĠComm ons
em ies
Ġvari ations
Ġinter mediate
C ancel
ĠS now
c ursor
Ġnot iced
Ġexpert ise
B its
ĠR and
Ġemer ged
I l
S ide
St ub
Ġcancell ed
L ear
RE T
ĠF ine
ĠB es
Ġl oyal
ĠShe l
Ġreported ly
j oint
a que
p ad
LE MENT
ĠPh oenix
Ġi Phone
ĠCon vert
ĠK E
ou rier
ĠRun time
ĠGL int
ect ive
rout er
AR RAY
Ġbirth day
Dr ag
WE BPACK
Ġperfect ly
Ġphot ography
ĠProfess ional
} )$.
Ġf s
w ind
oc om
Ġconv ex
ĠWel sh
Ġrank ing
Ġcred its
ĠT ry
Ġcoeffic ient
ĠPro file
Ġcheck ing
ĠN at
â Ĩ
ĠG ate
ugg ing
Ġvulner able
ĠOper ations
ĠV ancouver
Per iod
Ġvari ants
str ict
Ġpaint ed
Cl ub
Ġf ul
sh are
ĠP il
Ġg olf
Ġam id
. ]
Ġcoast al
Ġemb edded
Ġg ent
Ġthreat ened
Ġs ensor
Ġcolon ial
ĠOr ange
OL D
Ġ-- -
iff s
ĠR acing
ĠNev ada
a ac
ĠG ot
str ument
Ġiter ator
ĠH unt
Ġsc aling
R ussian
rt l
ĠFor um
Ġven ue
ĠT ol
em bed
e clipse
Ġqu adr
Ġex ha
ĠAl tern
ĠUkr ainian
cre ment
~~~~ ~~~~
ĠT ak
Trans ition
ĠSt ories
Ġt one
Ġincred ible
Ġconstant ly
grad le
EN ABLE
Ġ' _
Line ar
u et
pl acement
ĠM s
11 4
\ /
RA ME
Ġcom ed
ĠHel p
qu ality
op ens
)$ -
( /
Ġap ilevel
IC ATION
Ġra ising
ĠMult i
Ġh orses
Ġcontrovers ial
b ach
ĠR ule
Ġf unny
-------- --
Ġmer ely
us c
Ġperson ally
s hell
ĠB asic
tes y
Ġd inner
m iddle
od ot
Ġj oy
Ġvess els
c ord
g ies
ad oc
og ical
CO M
ĠE C
d in
Aut hentication
Ġfunction ality
Ġc ous
ĠR O
Fr ames
AR B
Ġb ucket
ĠÃ ł
ch arg
Ġinsp iration
Ġpro pose
enc oding
Ġrad ical
Ġwalk ed
he alth
Ġsurpr ised
Ġg allery
ĠBe ijing
V C
Ġrequ iring
f ac
ĠV el
ar us
Ġk in
ĠF reedom
ĠCom ment
Ġany way
ĠMar vel
Sep ar
F ALSE
IMP ORTED
Ġform ally
L ead
cri ber
Ġ ere
ĠK an
log ging
Ġoutput s
Ġl ibraries
C oin
V A
B N
Ġb ull
Ġ-- ></
Ġdes ert
Ġsur faces
ĠSte el
ĠComm ander
ĠO il
Ġret ained
Ġst y
Ġg ard
ĠMat hematics
pr agma
Ġâ Ĥ¬
ĠL LC
ed a
ĠBar bara
Ġ å
pr iv
an ion
**************************************************************** ********
gener ator
ĠC atal
c ourse
c urrency
ĠBatt alion
Ġenh anced
re p
ĠE li
IL ITY
k ernel
Ġb ot
tim eline
d anger
cent ral
s ime
Ġc ir
Ġc ogn
Ġexhib it
ĠLie utenant
Ġelect rical
? )
Ġe ating
Ext ensions
ĠC ultural
ĠPark er
Ġassum ptions
ĠCh ampion
Ġst ops
ĠF ather
)\ \
ĠC raig
onom ous
r ations
ĠH erm
Ġphotograph s
ic it
Ġdelay ed
ann es
Ġbe er
IM IT
ifest yle
Ġprec isely
HO ME
ĠC T
Ġa ria
ĠMet ropolitan
H or
ynam ics
d jango
ĠWork ing
Ġab road
Ġde pression
Ġsil ent
Ġdeploy ment
ys ics
Ġdis ag
Ġcare fully
ĠMag ic
Ġte a
Ġdispl ays
ĠGL enum
ĠUp per
br ace
ÃŃ n
)\ ,
e enth
Ġfocus ing
Ġsports people
sime q
d ing
ex amples
b inary
ĠL anka
ĠB irmingham
Ġr anging
ĠStan ley
ĠN ord
ĠLin ux
Enumer able
ers h
Ġ/* !
Ġcoun sel
trans port
Ġdis establ
Bl ue
Ġrare ly
Ġleg it
get Message
g raphics
final s
(" \
ou p
ĠT otal
B oth
Ġmanufact urer
× ķ
Ġhabit at
d ied
r pc
Ġuser name
is o
40 4
asc ular
ĠCO L
ĠF ALSE
B ur
G old
s ent
Ġm ilk
sol r
SS ION
ĠCl imate
en z
ĠJ e
ĠR ic
S ound
att ing
top ic
M ass
ĠF alls
An im
IE W
Ġtext s
agn etic
Di agnostics
Ġr ub
urs ive
ĠIm port
ĠĠĠĠĠĠĠĠĠĠĠĠĠĠĠĠĠĠĠĠĠĠĠĠĠĠĠĠĠĠĠĠ ĠĠĠĠĠ
HO UT
} ))
ob a
Ġch ronic
B T
is ers
* ,
Ġg all
ĠT ogether
Ch o
Ġpass age
H y
ĠWay ne
Ġw idespread
13 5
Ġfl uct
ins ula
Ġrepresent ations
) {\
br ane
ik o
ĠS eg
ot ton
ĠR ick
ĠBar ry
ĠN i
Ġactiv ist
Ġdis crete
ab i
Ġd iver
j or
ĠC NN
Japan ese
) }{\
Ġst roke
Ġe cosystem
ĠBrig ade
Ġf abric
Ġview ers
urric ane
C amp
P rom
ĠSal v
Ġw ake
ĠMov ement
Ġref resh
Ġsufficient ly
Ø ª
V O
it ime
Ġcas ual
Ġl ad
Ġclaim ing
ou b
ric ulum
Ġd st
Ġres igned
Ġmark er
T ri
ĠG raph
24 0
h is
Ġo xygen
Ġarch ae
Y S
ĠV iol
Ġhigh lights
ĠA f
âĢ ĭ
~ $\
Ġdis aster
I r
Ġprotest s
ĠÃ ī
m obile
r h
^{ +
Ġvess el
Ġhelp ful
ĠK ind
ut o
Ġt el
ĠS W
G IN
pan ic
ĠS oul
th ree
F our
ath on
Ġmet ab
ĠN ad
e or
Ġliber al
ĠCh ron
ĠHung ary
ĠLeg al
Ġvary ing
en o
Ġg host
Ġfl ower
Ġh urt
Ġs ust
ĠMount ains
Ġ[ \
lo pe
P an
Ġposs ession
iterr anean
an Ã§
roll ers
m apping
ĠCl ar
ĠMon th
ben ch
om al
c op
Ġdeploy ed
ĠB illy
< >();
ĠLead er
= $
Ġd il
script ions
ĠK arl
× Ļ
w i
f older
ĠD elta
Ġactiv ation
ĠU rban
ĠB ody
ann ah
Ad v
ĠP erm
ĠThe ater
ĠO cc
ĠF err
ĠBe aut
Ch anges
Ġpro files
Ġliter ally
Ġas c
p ref
ab et
Ġprison ers
The orem
R UN
ĠU pon
Ġcook ie
tr ain
Ġ' "
item pty
G M
d ocker
Ġb read
ĠVi enna
Ġ" ${
ĠMin or
ĠM IT
Ð¾Ð »
om itempty
alt Color
Ġsens itivity
ĠColl ins
âĦ ¢
ai ro
m ade
rop ic
11 7
Ġ- =
Ġin verse
ĠL yn
Run ning
Ġth orough
TR AN
t ol
Ù ĩ
met ic
ĠChrist ians
ĠS ize
Ġn s
view port
Sh ader
Ġne arest
og s
t z
Ġch a
Work s
ĠEx pression
ĠElement ary
ov iÄĩ
ĠK on
ĠF ast
Ġf oss
ĠR ud
ogene ous
Ġco operation
Ġse ar
Ġfavour ite
ĠT s
k an
c ancel
ĠVAL IGN
ac les
Ġ= \
Ġdecl ined
. ),
ĠS S
ĠN BC
ĠB egin
ick ed
Ġreview ed
ĠBO OST
ith uan
Ġcount ies
ĠTurn er
d ynamic
19 2
p f
Ġregul atory
" ];
Ġlong est
ĠPl anning
hatt an
comm unic
ĠInst all
Ġcl othing
ĠLeb an
D irection
Ġrem oving
g z
, âĢĻ
b ai
o j
Ġr ivers
N I
Ġm oon
Ġdevelop ments
B ul
ĠCom par
ĠT oy
t age
ĠM B
Ġoccasion ally
Ġas ide
Â ½
Ġex ponential
ĠJ oy
Ġlog o
ign ore
ers et
I p
Ġarch ive
ord inary
ĠP ictures
ĠG as
T M
com plex
om ing
Ġg aming
Ġd ated
ant i
Ġsim ilarly
ow ell
J o
Ġdrink ing
bor ne
Ġun likely
in ery
az el
Loc ale
ĠTam il
Ġcomp ound
ĠCom ments
ĠSt even
ĠJer usalem
SO URCE
Ġshould n
Ġmus cle
ĠJohn ny
Ġforest s
ĠF isher
Ġmanufact urers
sw ing
ue z
it r
S ever
Ġp arsed
mark et
ĠH IV
Ġres erv
ip age
if le
b rew
ĠOther wise
Ġest imation
if ference
ri ors
f our
MP L
.~ (\
oper ative
Ġloc omot
sd k
Ġg raphics
CRE ATE
AA AA
Ġpat ent
Ġout door
S n
ol ia
Ġconsc ious
st ock
Ġsound track
est ure
Ġunder ground
os er
Ġpra ised
Ġplace holder
Ġremain der
ect s
H AND
189 8
ed ed
ke eper
Ġequ ity
K G
Ġagric ulture
ĠLegisl ative
ĠM ans
S ocial
ak u
D er
Ï Ģ
}} ^{
Ġnot ably
struct ed
Ġgr avity
v ars
Ġr anks
A SS
Ġtransform ed
Ġdepart ure
= &
om i
ĠA ld
Ġhe ter
ĠCh art
ĠCo al
ĉĉĉĉ Ċ
display style
quir y
Ġb orders
ast ed
è ¿
Ġgener ations
Ġt ou
ebr aska
> %
f iction
m aps
ĠB rew
ab etes
ĠM all
Ġactress es
ĠNet flix
L and
P eter
Ġredu ces
u its
Mon itor
ĠU til
ĠA ws
t ake
Ġc b
ĠDr agon
FN GL
Ġdeput y
Ġover view
ish ops
ĠF ro
ĠW ik
TH ER
annot ations
Ġa ug
app le
del ay
Ġcl s
ĠR ank
get String
Ġbeg un
ĠNAS A
Ġprec ise
M AN
op ol
ĠInt elligence
Ġ" [
w allet
ens ively
ess ment
decl are
oc ent
Ġmodel ing
Ġdemocr acy
ĠSh a
ĠBroad way
Ġrout ine
ĠHarr ison
ĠLog ger
con sum
m f
ĠL I
W el
ĠE RR
] }
Ġ' #
om es
S napshot
Ġmed ic
Ġprom oting
Ġlik ed
LE S
ĠRead ing
Ġconven ient
Ġt unnel
Ġstream s
D at
ĠCons ervative
ĠGlas gow
ĠST ART
5 12
Ġaggreg ate
ĠObserv able
Ġover whel
ĠBroad cast
14 4
col ogy
Ġkey board
DE D
p al
ĠWar ren
Ġ' ''
Ġcampaign s
Ġdiv isions
j d
String Builder
ĠYork shire
ach i
Ġl iv
ĠThe ory
Table Row
ĠAl fred
ĠT u
ĠT itle
Ġh unt
ĠC row
pro position
18 99
in ions
Ġim g
Ġkit chen
PRO P
Ġsup pose
There fore
Ġbas ically
ĠMod ule
Link ed
e u
ĠA udio
Ġmaint aining
th a
Ġlab our
Ġindepend ently
ous ing
Ġfl av
An n
el ines
Ġad s
run ning
>< !--
Ġthink s
Ġmac ro
Ġexclus ively
Ġdram atic
SU C
Ġint ense
ĠMA X
Ġan cest
Ġlog in
Ġexpand ing
\ {\
H ard
ĠS ession
Ġgrad ually
ĠNew ton
Ġpres erved
ĠY O
Ġexist ed
}} $,
Ali as
Ġbr illiant
Ġc ow
Ġ uri
ĠF ish
Ġd ump
Ġscatter ing
ĠGab ri
ĠF un
Ġch amber
ught ers
Ġre actions
Ġwith d
un lock
Ġa apt
$ ;
Ġactiv ists
Ġassum ing
Ġmem ories
ograph ics
F ollow
FLA G
Oper ations
ĠVis ual
p iece
ne ut
Ġmyst ery
ard ed
Ġspe akers
Ġart ifact
Ge ometry
ĠB enn
L R
Ðµ ÑĤ
Ġdecl aration
grad ed
ĠP arent
Ġmem or
ĠOrth odox
ĠMuslim s
Ã© n
Ġf er
Ġ" >
D ITION
Ġscen arios
: }
con g
12 4
ĠAust rian
ham mad
ĠRober ts
ĠR ugby
ĠS even
Ġl ap
T uple
ĠR ural
Ġearth qu
Ġattr s
ĠTechn ical
Ġinvol ve
ĠPar se
ĠArg ument
neg ative
ymmet ric
ĠG round
Ġgrow s
ac re
it ual
ĠV enezuel
ol s
ĠS yn
ĠÐ ¸
contin ue
Ġsu ite
F B
Ġimpact s
get Class
ĠCon cert
ĠN ull
Im ages
ter ed
ĠArch ives
Qu ant
Ġthreat s
Ġenc oded
Ġann ually
> `
up id
Ġpro x
$ ^{-
em or
Ġsp ots
Ġvent ure
Ġpro c
Ġprot otype
ind ed
qu et
irl ines
ĠĠĠĠĠĠĠĠĠĠĠĠĠĠĠĠĠĠĠĠĠĠĠĠĠĠĠĠĠĠĠĠ ĠĠĠĠ
ĠRail road
Â Ń
5 000
apt ist
Ġvolunte ers
Ġred irect
he ets
c mp
Ġd rew
ĠS ay
man agement
Own er
Ġatt ributed
LO AD
Ġrecip ient
U nd
Ġth irty
ĠCommun ist
Ġre cre
id ays
ĠW i
C N
c n
ĠGre ater
sp in
â Ĥ¬
om ed
ĠDen ver
ĠIt em
St age
Ġth ro
trans l
om on
It alian
Ġswim ming
ĠCar ibbean
put er
Europe an
ĠReview s
Ġs ugar
Ġimm un
ĠB ud
ĠĠĠĠĠĠĠĠĠĠĠĠĠĠĠĠ ĠĠĠĠĊ
fr ag
Ġsubs idi
Ġbelong ing
Ġsurv iv
ab stract
Ġrest oration
Ġking dom
istribut ed
Ġpurs ue
av ery
ili ary
Ġoff ense
}} $.
ant ly
ĠUnivers al
Ġj u
Ġgather ed
ĠN an
ace ut
ast ery
L aw
IN VALID
ort ed
ĠMem ory
ĠPro duction
12 1
ĠUs ed
ĠCamp aign
t ies
I ss
te ch
ĠBen jamin
Ġsl ice
ĠSt re
Ġ& #
get Type
ey er
inter val
Res p
Ġf iber
uc lear
ex pl
min ipage
Ġless ons
Ġd ub
Ġsomew here
Ġrel oc
Ġ( %
spect or
Ġp arks
ĠT it
ĠM ak
' (
AP P
ĠL ot
enn ial
Ġoccup ation
P acket
Ġh ang
Vis ual
ĠDef ence
ĠL icensed
Ġcomb ine
ubern etes
Ġcy ber
Ġhol es
RO W
ĠS ave
T X
ĠY ang
m ov
Ġrail road
ĠV ent
oc hem
G ate
18 70
et on
re view
Ġtr ivial
ĠKen ya
ĠCon struction
Ġhop ing
he art
Ġdepend ency
s am
Ġalloc ated
cl ock
M ix
w br
ĠL ad
Ġmem orial
ĠChar lotte
Ġatt ending
SP ACE
Ġpo ems
unk nown
ĠT i
lin ux
et ric
ic ht
ĠHamilton ian
A MP
Ġstrict ly
Ġnewsp apers
b id
th umb
S UB
21 3
n os
Ass et
Ġderiv ative
000 1
ĠHind u
Ġdiagn osis
18 95
Mut able
æ ĺ
Ġparticip ating
G l
ĠP rior
ing e
amp a
ident ity
ĠBr anch
ci pl
ym ph
ĠPhys ics
ĠCl ose
Ġlock ed
Ġsynd rome
Ġg enu
spir acy
Ġarrang ement
ĠM oney
Ġlog ical
With out
fe atures
S F
M o
ĠB right
ĠK u
Ġin fer
Ġl ung
Ġcol leges
Ġa ux
ĠW ait
Pro duction
Ġprov isions
ch at
Ġimpr ison
in formation
en h
ĠCarl os
ĠAdv anced
st eps
mat ches
elastic search
Ġschem es
Ġperform s
Sc ore
Match er
ĠR ele
for ced
T yp
P ush
Ġph rase
." )
Ġimm igration
ĠId ent
Ġaccomp any
t ax
mem bers
Ġl ic
Ġbr ick
M ont
Ġess ay
Ġh o
Ġrender ed
Re ception
Ġflo ating
Int eg
Ġt uple
Ex pat
ill ance
S K
ise cond
ĠM ix
Ġqu ote
Ġsub div
Ġattempt ing
se cret
Ġvacc inated
Ġsuggest ing
ĠSum mary
on ian
Ġqual ifying
con cat
H ello
v endor
Ġinf lation
et ics
189 6
N eed
Ġph ases
7 50
w ave
> ${
fore ach
inc orpor
Song s
map sto
ĠT OP
Ġadv ers
ĠQu est
Work er
ain ers
ĠJ a
Ġprint f
duc ational
Con tract
Ġent ropy
sp ot
ĠK ate
Ġcor ruption
le ading
Ġsh orter
pro duction
path s
ĠBar celona
Ġminor ity
B ACK
get s
B us
Ġcompens ation
d st
ĠEp isode
ĠQ ual
Ġep id
ĠW rest
Ġdyn asty
set ting
b oth
Ñ Ĩ
P ipeline
Ġr ab
Ġcoll ision
Ġmain stream
| _{
Ġb ike
L em
L at
Ġvo ices
D TD
ĠD iamond
Ġclose st
ass y
ĠCons ult
ĠLiter ature
ID S
cre ens
Ġs aving
Ġche ap
Ġpet ition
Ġwood en
Ġen zym
re ach
S afe
Ġt orn
Ġrad i
Te chn
Ġequ ilibrium
Ġmount ed
ch t
ch unk
Sup press
Ġgo ogle
Re act
ĠC arm
ĠF riends
B reak
uff ix
ĠNorm an
am ine
Ġbox es
Ġprov incial
ĠMur phy
con current
Ġmiss ions
he x
not ify
Ġrot ate
T or
ĠD I
Ġadd r
ĠStat istics
ĠMean while
Ġref lection
ĠC BS
ace ae
uk a
Us es
des criptor
ĠB M
ĠWIT HOUT
Ġt ang
Ġop ponents
Ġb ishop
Access or
99 99
Ġ' -
EN CE
V I
Ġengine ers
Sh arp
ĠL ost
ke ley
Has Been
Ġamplit ude
11 3
Ġinfe ctions
ĠIndust rial
ĠPol y
ĠA uth
ĠHawai i
Ġ ĉ
Met ric
Ġsp ell
` )
Ġp ole
Ġinc idents
Ġsy ntax
Serv let
å Ń
Ġm ild
Rich ard
ĠD M
ĠN ar
on ed
ĠM ol
pr ice
char acter
Ġveter an
Expat riate
mic ron
Ġda ughters
Ġt ies
Id x
ĠEx hib
m al
Ġcompar able
l int
å Ĭ
] +
ĠDown load
X Y
ĠB ound
Ex pect
Ġphil osoph
ĠO ptions
ĠTh or
ĠCon tract
o il
Ġgre y
Ã¨ re
Ġf itted
late st
Ġanal yst
inn ed
Ġproport ion
Th anks
Dis k
ĠĠĠĠĠĠĠĠĠĠĠĠĠĠĠĠĠĠĠĠĠĠĠĠĠĠĠĠĠĠĠĠ ĠĠĠĠĠĠ
Ġpre t
ĠR aw
aceut ical
ĠArt ist
ĠAnt i
ĠV I
ĠVer ify
end point
ap ing
âĢ¦ .
at able
SS AGE
Ġd t
ĠFl ight
ĠSh adow
l it
ĠL abel
c in
Â Ģ
ĠF L
Build ings
w right
à¤ ¾
189 7
zer bai
Th omas
row se
Ġserv ers
Ġstr ain
Ġspec im
ĠR ing
fl ush
g ems
ĠEd ge
C ould
Ġact ively
TER N
Ġwrap ped
Ġsh ipping
Ġequ als
ug osl
b ucket
Ġlock down
Ñ ĸ
ĠGi ants
L ater
Ġthread s
ĠUn less
ĠW a
SP AN
Ġs pher
Ġde eper
au i
ĠB io
ĠHash Map
ri en
g p
ish ments
b undle
inst ein
ĠPh arm
Ġmix ture
ĠS pect
Ġref lected
qu o
Ġan ime
ump y
ĠMil an
ĠCor p
LA B
ĠM ack
er gy
am ount
Ġm ice
ĠNot es
jav ax
less ly
Ġalign ment
ĉĉĉĉĉĉĉĉ ĉĉĉ
Ġup load
Look up
(' ./
P riority
an ian
hav ior
c ookie
im ir
L ite
ir ts
Ġden oted
H am
Ġcom ics
stat ement
im edia
Ġexam ine
Ġpar ad
Read y
ĠR u
xi ety
sh aped
ist ically
Ġsuff er
PAR AM
Ch ina
ĠWh ich
Ġ Ø§
Ġph osph
Ġret rieve
Ġmask s
Ġcontribut ing
D iff
TO M
Ġche st
ĠImp lement
ĠS outheast
look ing
Ġs ectors
ur ring
Ex tra
ĠS ad
con duct
Ġgl ad
not ification
F etch
L uc
Ġt ale
ash ing
Ġwor ry
Ġf oo
ĠC urt
um ption
17 0
Spe ed
Ġinflu ential
Ġf atal
Rec ip
}{ |
ĠC old
Enc oded
r ition
s elling
ĠD h
) *
Ġmoder ate
ĠB loom
O FF
Ġco in
E lect
ĠW u
sw er
Ap pe
Ġhel per
ge o
D ig
Ġ( âĢľ
ĠEth iop
int o
Ġ&= &
ĠL uke
Ġremark able
Ġanaly ze
T ur
bl ast
vert ex
ĠS ales
Ġsystem atic
Cons ider
Ġin duct
ĠP O
Ġgr ants
ĠRoman ia
Stat istics
Ġre semb
ĠJer ry
act ers
ell ers
Ġi OS
Ġl um
Ġdis patch
ME M
Ġexam ination
D istribution
ĠN ear
ĠOl iver
Ġsh ore
Ġcirc ular
ĠB asketball
HasBeen Set
st ation
ĠDe cl
ver ify
dec ode
m atic
Ġl aser
c z
cam el
Ġc yl
Dis c
Rel ative
Ġaut hentication
== =
ĠB achelor
) +\
Ġne ur
or ious
Ġd x
Ġun w
ĠU E
Ġsh ops
ĠK ap
ĠV a
Ġpart ly
Un iform
Ġbatt les
, .
ot he
k n
Ġ\ (\
ĠL uther
Ġan notation
Ġc ul
Ġen emies
ĠT ournament
ĠBr istol
ĠK irk
Ġrecon struction
sl ide
ĠPr adesh
Ġdel iber
Ġmarg inal
D istance
W ar
18 60
Ġinter active
M a
Ġexcept ions
ĠP resent
Ġco aching
Pr ice
ĠNaz i
Ġpro to
ĠMan hattan
Ġsearch ing
Ġlabor atory
ĠRob in
friend ly
ĠAb u
Ġevery where
Ġcou pled
} )$,
================================ ================================
ĠArch ive
) }}
Ġconsist ently
ph an
Ġop ponent
Ġcou ples
gu ide
h um
ra f
th ird
Ġm s
up per
Ġ# {
M IT
ĠCo q
ĠJust in
och astic
Ġm i
incorpor ated
Ġcan onical
Ġwound ed
H ook
Ġp ill
t m
Ġextract ed
Ġeffect iveness
Ã© r
ĠU P
Ġcomm ut
L ou
Ġcred entials
Ġfor cing
qu arter
Ġc ock
ĠK IND
ĠCom ponent
Load ing
Ñ ħ
ĠG O
includ es
Ġ( #
Ġdef ining
L ondon
em a
Ġk w
ĠB urg
C ost
K ing
Compar ison
uck er
ĠA LL
Ġcon gress
ĠW ing
Ġcorre ction
Ġcomput ers
Ġhon our
Ã³ w
Ġpro secut
Ġb ases
Ġb orrow
N umer
Part icip
ĠHung arian
Ġmir ror
ĠB AS
ĠIn valid
over y
Ġdes per
Ġins pect
d al
f am
ene ath
us k
N U
au er
Ġintegr ity
ĠY u
Ġscreen ing
ĠEn c
ĠF ab
Ġat omic
ĠM is
Ġcar ries
ok u
Ġdistingu ished
cel and
ĠS K
ĠM ason
ĠP L
ĠD ebug
Track er
Sm all
Ġflex ible
Ġins ights
Ġt ut
dat etime
ph oton
Ġed iting
r and
Î »
az ard
189 3
12 2
Ġfore ver
Ġnormal ized
Ġfail ing
ĠH il
i pt
Ġsort ed
be ans
ĠSpr ings
á º
Oper and
Ġt ips
Ġfant astic
Ġsuccess or
il ia
18 88
ÂĢ Â
S at
ĠWat son
Ġd ens
ĠM ail
Po jo
refer ences
ĠF itz
Ġquant ities
un ks
Î ·
Hash Map
Ġcam eras
second ary
! </
æ Ī
ĠP HP
ĠY e
ĠVictor ian
MA GE
ĠZ e
SH A
bre v
Ġvol can
Ġc inema
Ġsepar ately
T ry
par allel
Ġch ains
Ġp uzz
tim er
Ġmag azines
T ake
Ġpro s
Ġsusp ension
Ġpower ed
Ġass ass
enc il
Ġcar rier
Al ert
as ia
ĠDer by
Ġdom ains
Ġscient ist
ĠSe an
ac co
Ġc p
ins ic
Ġnot ify
Ġbon us
ĠF iction
Ġev ident
Ġsec ured
Ġcho osing
Ġj ew
Ġreg istry
Ġlabel ed
çĶ ¨
ĠUn iverse
ig ue
ĠM ach
ĠG R
est ing
Ġind igenous
Pres ident
Ġim aging
Ġnorth west
ĠC rit
Ġob st
om o
/ (
ĠS eb
ĠB ird
Ġf ert
Ġcare ful
Ġrestr iction
ĠSu ccess
Ġis instance
Ġlux ury
ĠS ony
ah u
pe ction
Ġun lock
Ġvar iance
Test ing
ĠR ico
Ġagre ements
ĠVis it
ĠN ebraska
b matrix
m os
Ġ' @
greg ate
ous el
M obile
uss ia
Ã¶ r
Ġcontrovers y
Ġconfig ured
L ow
ĠS witch
ĠC over
Ġcomp aring
Ġw eren
B ucket
Ġt ar
am er
Ġattract ed
over e
ol utions
c amp
ĠV erm
18 00
ĠGr id
paren cy
Ġover come
ĠTr ad
Ġtour ism
ĠK ath
ier ra
pop up
Ġimm une
Ġenter prise
ĠAlber ta
2 30
ent e
ĠB ot
Ġcond em
Cam era
ĠP el
Al pha
Ġnom ination
ĠTre as
Ġback up
Data Type
size i
pi pe
f ers
A Y
Ġcan n
loc ale
Ġhydro gen
3 000
e ing
ĠPro perties
ĠHor se
Ġcell padding
ĠE SP
ip art
Ġaltern ate
Ġr iding
N ONE
s chool
ĠI van
ut down
ĠGr an
Polit ical
Ġc od
ĠS olar
ĠT I
ĠTR UE
AC HE
ĠF oot
è ®
b ishop
ĠSong s
Ġconstitu ency
C annot
Ġall ocation
18 89
in ance
ĠAgain st
is b
Un ique
Mark er
Ġere ct
ĠCr icket
list en
ĠJos Ã©
FORM AT
Pro of
ĠL ate
Ġl oud
inc inn
Ġg ross
ĠJ ama
P ixel
amp ed
__ ,
SP AC
Ġpl asma
Ġestabl ishing
writ ers
Ġor al
fr ames
ley ball
Ġsold ier
ert on
}( {\
add Class
tool bar
t oc
ĠK os
P ane
J ew
ĠN HL
pag ination
Ġprepar ing
189 2
ĠGal axy
ro v
Ġprogress ive
Ġlaw suit
Ġsnap shot
Ġcritic ized
f ailed
Ġj ury
Ġpre dom
Ġor b
ĠK rist
m oment
l b
R NA
ĠA B
M ag
pre pare
ĠH udson
ĠPar ish
Str ucture
ĠM uch
N eg
Ġst uck
ĠB ra
sen al
ar iance
ĠMed iterranean
Ġhar vest
I ll
ul se
Ġphenomen on
/ )
Ġpremier ed
Top ic
ing ers
ĠK ay
ars on
Ġthere by
ST ART
Ġdig it
Ġf itting
Ġt weet
D one
Ġform ats
ĠNe uro
EE E
ĠSt ein
Ġbut ter
fr agment
ac ular
at om
Ġst abil
Ġrec ruit
Tr igger
Ġprocess or
iv ic
ĠSim ilarly
Ġb anned
ĠFl ore
Ġt ape
p n
ĠF ont
Ġcl othes
ĠAppend ix
ĠÐ ´
ĠMarket ing
Ġelement ary
ĠLink ed
ĠC ome
Cal endar
ĠSus an
im o
Ġv ibr
ĠP in
Ġinstrument al
avel ength
Ġlisten ers
Ġl oves
Ġwind s
Ġrepeated ly
d ating
is i
Ġout line
B lob
og g
Ġdu o
Ex ecute
Ġport s
ĠFr ances
el o
Ġj ail
Ġcelebr ation
ĠKe ith
Add itional
189 1
Ġhun ting
intend o
Ġm os
ar ound
ĠT ABLE
W alk
med ium
Ġnav al
or f
Ġch at
Function s
EV ENT
ĠJ oint
ĠGr ace
ĠE N
ĠEgypt ian
incinn ati
ĠP ic
Ġmed ieval
ĠRich mond
ĠP si
Ġrat ings
ĠVin cent
M ov
Ġdisc ount
ig gs
ĠF riend
Set up
ĠWrit ing
Ex it
Ġprem ium
Ġbo ats
ĠW E
th al
Ex pl
Ġf ur
nob r
Ġst ere
Ð¾ ÑĢ
t iny
Ġcap ability
s yn
ĠS F
: =
ĠW orth
Model s
Ġarrang ements
s ass
ĠWith in
i ov
Ġdim ensional
ĠG lob
Ġor ange
up dated
ast ro
dr iven
Ġt ons
ĠR angers
Dest roy
ster dam
> .</
sec ution
B road
H en
ĠAthlet ic
Ġg ray
ecess ary
Ġguitar ist
Å Ħ
ĠSh ang
ĠE val
Ġdis contin
ADD ING
ĠEnt ity
ĠG ay
U ntil
av an
ah a
ah l
sh ore
sur ance
ĠArab ia
Ġdist urb
........ ........
ent ine
ĠR s
Ġcompos ers
ĠS r
Ġdis pute
ĠM ade
H ot
Ġl ying
In struction
Ġconv icted
ĠS id
du ctions
ĠG host
3 20
the y
ĠĠĠĠ čĊ
list ener
ĠCirc uit
Ġ$ |\
Ġs ends
Do es
Ġcoal ition
ep age
. ',
Ġcred ited
Ġident ifying
Ġiniti atives
label s
Ġorder ing
fin ite
ĠG it
az ure
ĠD R
ext ensions
Ġb rows
ĠCon nection
power ed
T imes
Ġc oc
m iral
ĠD ir
Ġhe x
ro b
Ġphys ician
ĠCl ay
Ġlocal ized
m ys
Ġl ip
ĠQu arter
Mod ified
ĠTig ers
am y
Ġwrap per
Ġdecre ased
ĠE state
ĠCh o
code c
google apis
n ut
Ġa qu
50 9
T IM
cover ed
G RO
Ġdocument ed
ash a
Sub ject
Ġcomment ed
Ġens uring
ĠDemocr at
! \
Fr ank
[ <
Ġdi et
m other
ĠC lean
iss on
cl i
ĠAdd itional
ĠP le
ĠH aving
Ġen semble
re ens
Ġre n
Ġsol ving
Ġh ub
ĠCre ative
ĠC ris
eg u
Ġch ap
ink s
Ġfinal s
ĠExper ience
T K
ĠM es
ĠI de
Ġprint ing
] </
Ġsl ide
C V
if iable
Comp are
en vironment
ip per
> {
f olk
Ġf ictional
Ġv e
Ġs ender
re z
ape ut
ĠL ux
' ].
US A
ĠIran ian
Ġac oustic
ĠE le
Ġat om
cal e
Ġtim ing
G ui
Ġt ens
ex ecution
ĠF actory
AN N
ĠD raft
off icial
Ġanaly zed
Ġm ic
ĠM orning
SUC CESS
local host
value Of
Ġx si
Ġoccas ions
Ġeg gs
te chn
u ity
18 85
Ġmon ument
ĠSt orage
ĠÐ º
Vill ages
ia o
Ġprom ised
Ġpack ed
Ġat oms
ĠP AR
ĠK il
ĠL ud
Ġacqu ire
re duce
Ġsc rap
Ġro ster
ĠBe ing
Ġsl ave
cul ate
b ian
Ġemph asis
ĠLa ura
ref resh
ĠCat hedral
w oman
ĠM asters
ĠIllegal ArgumentException
100 00
ĠBeng al
V IEW
189 4
Ġcross ed
ĠSoc cer
se ctions
NE W
ĠCost a
Ġde emed
Ġdistingu ish
us p
ĠB aby
Ġm ad
ĠS cript
h op
Re ceived
ĠG C
ĠH AL
Ġelim inated
Ġp ounds
Ġsub stitute
Ġenc ode
Ġreg ression
ĠMu hammad
Ġpro be
umb ent
Ġt ub
Ġdefault s
Ġhel ic
Ġemb edding
ib ling
P ADDING
Ġtalk ed
ĠNichol as
Ġpre lim
Com b
dis patch
lim ited
allow ed
Ġconf ident
Ġdon ated
Int ent
Ġult imate
T emp
ĠUn like
Ġany more
ĠCom b
Ġdev oted
ĠCam eron
U A
Ġfacilit ate
Ġcell spacing
ust ering
Ġaud iences
ĠW arner
ob b
o ft
Ġneut r
Ġab ilities
ĠT YPE
ĠNe il
Ġw ings
ĠC L
TableRow Color
aj a
Ġcult ures
ĠP ra
ĠJava Script
ent i
ul in
ĠCom plex
ĠA V
ĠT rophy
ig ion
O bserv
F oot
Ð¸ ÑĤ
OB JECT
Ġlegisl ative
Ġfol ks
o ons
g lob
i q
ĠDr ag
;" |
AT URE
ph ones
h bar
Ġpre val
ĠPer ry
Ġrefer ring
ĠP E
act ed
se gment
Ġpro l
Ã ¦
Ġp ian
ĠF BI
Control s
Ġfoot age
ĠA my
Ġem pir
21 1
che m
Ġtack le
el ia
ĠColon el
Ġrom ance
ĠU lt
Ġ um
ĠS aints
Ġvis ibility
Sche dule
Ġinflu ences
Ġconfig urations
WA RE
Ġst eal
Ġ. =
iz a
ab br
J ul
ort ex
ĠCollection s
Ġtw in
R ailway
ĠFI FA
h uman
ĠE T
Ġhost ing
B ill
Name Link
ĠGu inea
ĠT erry
Sc an
ĠR ender
Ġ* ,
IT LE
ĠP ick
C UR
Ġeng aging
ellig ent
ĠEd wards
Ġf ighter
Ġanalys es
ar an
Ġder ive
Ġlight ing
Ġattract ive
Ġprom ising
ĠT on
Ġsub mar
ĠSer ge
D ist
Ġmer ger
b ank
Ġthe at
add le
Ġsh apes
" ])
L ove
ĠA irlines
)-- (
ct ree
er ious
Ġexam ined
process or
C lean
m usic
Ġf its
pos al
m ust
G reat
Ġtravel ing
ĠGuard ian
Ġinterpret ed
ĠS ax
C irc
b oot
Ġdec ides
che str
au kee
s ocial
STR UCT
ort s
M ad
Ġpar agraph
o ys
Ġmagn et
st ad
Ġbet a
Ä Ł
Ġp ipe
ĠF if
f ox
ĠSh are
ĠV eter
ĠCont emporary
ĠTest s
Ġfast est
R ay
ac a
et ta
Comm it
Ġcomplet ing
Ġatt itude
pe g
Ġp our
ow der
ĠW W
Ġfil med
gener ic
Ġdifficult ies
! )
Ġdecom position
Ġentreprene ur
F ail
Ġg it
Ġnot ing
vel ope
ĠC M
Ġmod ification
umb ai
ĠDC HECK
ĠE D
H ol
Ġspeak s
Ġag enda
ĠL ion
ĠLabor atory
get Attribute
Ġgr avit
akes pe
trans late
M el
ett ers
Tool s
ĠKE Y
pay load
T ensor
Form atter
et r
Ġrest art
Ġqual ify
ĠNov a
Ġdebut ed
ĠY am
. ).
p d
Ġprem iere
Ã ½
ool s
Ġtri ple
pl ant
Govern ment
ĠSy mbol
m x
Ï Ĥ
Ġiniti ated
Ġstrugg ling
el ing
Ġr ally
Ġtrans it
new command
Ġcert ified
ĠA WS
ult an
fil ters
File Path
Ġsequ el
Ġsouth west
g h
Ġsaf ely
Ġtro ubl
N ON
Ġb atter
1 19
t ility
ag i
ĠL arry
Ġ' ,
T own
ri ke
Ġshould er
t bl
atern al
ĠT ib
Ġj unction
ĠM ong
ix on
Ġm esh
Ġres id
f und
For ce
Ġun ve
ĠGener ated
$ ),
cp u
Ġl unch
Ġep ic
Ġtrad itions
ĠProt ocol
ĠSp ot
ĠT un
im er
ĠCon sole
sp i
Ġdepart ments
Med al
ĠR andom
Ġv it
ĠPier re
Ñ Ī
A ff
ĠAr c
18 65
Ġdream s
al one
inter pret
ĠF ixed
Ġ" );
Ġa uction
OR S
Ġrock s
Pr inc
agon ist
Ġmist ake
ĠG ov
Ġd ot
ĠArchitect ure
ĠPro test
æķ °
d elegate
ĠB ass
ĠF u
Ġc ust
IC K
B etween
Ġdi agonal
che ster
ĠCap itol
ent o
Ġun success
ir s
ull ivan
F D
W ORK
ĠS alt
ĠCru z
att ach
om eter
ec ycle
Ġent ert
Ġcitiz en
Ġinn ings
ĠH O
ĠSt evens
L ines
Mod ifier
ĠSerb ia
in ject
ĠV ery
Ġop inions
atab ases
Ġinvest ments
Ġdist ances
Part y
Ġsh r
log ical
Ġd w
Ġpropos als
Ġev olved
Se ason
Ã Ł
Ġfrequ encies
jack son
acef ul
S un
O cc
ii i
Ġencounter ed
g ent
Ġstead y
Ġsome how
Ġpo ison
b ur
ĠB omb
Ġcon form
g ender
Ġt ension
Un ivers
Ġul tr
ĠAgric ulture
ĠL is
Ġoverse as
Ġcomp ile
Ġsub str
Ġpos it
S yn
arg v
Ġj ournals
os hi
m ms
Ġe ighth
Vis it
J im
Ġl l
en ue
ĠMad ison
Ġdef ending
vent ions
ĠGh ana
Ġman ifold
Key word
ĠNS String
B g
Ġpush ing
h base
Ġapprox imate
per cent
Ġelect oral
Ġreflect s
Ġr c
ĠA aron
Ġem otion
Ġe leg
Ġstart up
B ooks
hol m
ĠH im
ĠV oice
Char les
am pton
: @
Ġact ed
amazon aws
Ġappreci ate
ĠPer u
ĠColomb ia
Ġmin isters
D ict
Ġam pl
Do ctrine
l ies
attr s
Ġrad ial
Pop up
ĠScient ific
h d
Ġw elfare
Is rael
Ġind irect
text ure
Sp anish
ĠIn novation
Ġdep icted
Ent ries
Ġsynt hetic
set Attribute
ĠG rey
eng u
20 2
ĠC PU
Ġim posed
Ġviol ation
is ch
art z
Ġguarant eed
ĠP ackage
Ġse eds
eth yl
Ġgraph ic
om ething
Ġviol in
qu estion
Sl ice
ĠCh and
am o
ĠSt yle
adem ark
Ġjo ins
ps y
' },
Ġco her
$ };
Lin q
hen g
Ġb unch
bre aking
f w
ĠGr ade
ĠW alt
ĠMat rix
vious ly
Ġarchitect ural
Ġvirt ually
ast ing
des cribe
P aint
Ġm ood
Ġl in
18 50
Ġexpl oring
ĠR T
ĠK i
A ud
FA IL
ĠClin ical
Ġspec ification
f actor
Ph ot
Ġ" #
Ġblock ed
Pl us
ocol ate
w aukee
ar as
ĠK id
id y
Class Name
ri o
Ġsum m
Ġdeterm ination
R oyal
Ġcur v
Ġr itual
Ġchem istry
Ġsub stance
Ġharm ony
Ġc argo
n m
en ium
Ġpo ets
am ination
ĠS ustain
ĠP iper
per ature
Ġcons ensus
Ġadv is
ĠB arr
com par
Ġim plications
ĠB ORDER
ĠC elebr
ĠL ions
ĠK ids
Ġobt aining
Ġsole ly
ate ful
on ing
ĠR ole
Com ponents
ĠMor oc
Mult iple
S ets
to o
An chor
Le ague
Ġsm allest
Ġch ron
Ġgold en
aw esome
ocr atic
andid ate
V ec
External Task
G raphics
ag ar
ĠS TR
Ġspons ored
Ġrandom ly
55 5
ass oci
Ġbo ards
ud ge
ĠR ules
op edia
Ġt ribute
Ġcommun icate
Ġm amm
ion ed
Ġ/*! <
ĠL isa
ĠEl li
Ġhuman ity
subs cribe
ĠS ent
Ġgener ates
Ġmeaning ful
ar ms
ew ay
Menu Item
Ġgr an
h aus
Ġafter wards
13 6
Ġhard er
ĠCar r
akespe are
') ->
on line
Ġcous in
] ).
Ġpred ecess
Ġprotocol s
ĠW onder
) -\
F actor
Ġb ills
no frame
() ">
ĠAg ent
iber n
Ġglob ally
M ir
ast rop
sh ops
Ġfe as
af ka
Ġbe ating
ĠSe pt
opt im
red irect
P ref
ĠĠ čĊ
f av
ĠS oph
ĠG olf
ĠL ithuan
Path s
ĠBuff alo
ĠCl ick
v n
Ġple asure
Ġle mma
mut ex
ĠCons ervation
cript ors
h w
re str
Ġgener a
ack er
add y
=" {{
ĠDise ase
Ġmin istry
AR S
gu ard
ĠK le
Rad ius
Ġspecial ist
Ġwarn ed
Ġ" )
ĠC atherine
C over
ĠC ache
Ġpe ers
ĠL en
[ [
Ġatt ach
Br idge
Ġenthus i
i ota
Î ¼
Ġsk i
pr ises
ĠL loyd
Ind ia
Ġproject ed
exp and
J ose
ĠW es
Ġm arch
12 6
aval ry
n ail
m ag
F ake
ĠMont ana
Ġple ased
tikz picture
Ġ/** <
st roke
ĠA w
ĠC ad
P N
Ġloc ality
Ġsm oke
] ->
Ġt ours
Ġrem oves
ĠS Y
db c
SPAC ING
od s
we ak
Ġscholar ship
Ġarray s
project s
Ġstar red
ith metic
Ġcomp ression
ĠHigh er
ĠDev ice
Ġphys ically
Ġpaint ers
Ġbar rier
d ed
ĠDate Time
Ġqu ot
M ail
ens en
ĠTh ank
Ġcons olid
ĠAl ong
Ġ======= =
ĠSh ip
att en
c orn
S eq
ĠC itiz
ĠK el
Ġdis orders
ĠÐ ¾
ĠAz ure
... "
################ ################
ĠB ath
pack et
Ġrev ised
ĠFle et
For ward
Ġhighlight ed
ĠHoll and
P DF
Ġaffect s
Ġpsych ological
Ġal ien
Ġcomp ounds
ĠTh r
Ġext ending
E r
c as
Ġbur st
Ġalleg ations
18 61
á ¹
he ld
Comp letion
ĠU SS
Ġtempor al
ab is
ĠB uy
Ġun iqu
ĠImp act
he w
bour g
task s
ExternalTask Pojo
Ġs ax
]( #
ĠE ug
GL enum
T ON
with out
Ġfollow ers
Ġre fr
ol ine
È Ļ
Ġin cent
Ġh itting
all ing
sc an
us ive
Ã Ĺ
Ġb rew
Ġend if
in ced
Ġorig ins
15 00
comp ass
Ġmut ual
}$ )
Ġdev ast
d ependencies
Ġhand ed
ĠG onz
ĠL ex
REQ UEST
H uman
Ġs hed
Ġconfig ure
p aces
po i
b ounds
ĠR at
Ġseek s
ĠP UBLIC
ĠH ub
Ġlik elihood
Ġgeneral ized
Ġtri be
Ġpregn ant
Ġport rait
ot ypes
Ġcompl aint
process ing
Ġc razy
ff ic
et ter
Ġinf ected
Ġmort ality
â Ķ
ĠS SL
Ġr ated
Ġl os
ik ing
ĠC ant
ut ton
S pring
pro c
Ġdiscrim ination
ĠĠĠĠĠ Ċ
Ġprevent ion
Ġtrail er
ĠInitial ize
Ġso ap
Ġreal istic
erial ize
w ire
ĠĠĠĠĠĠĠĠĠĠĠĠĠĠĠĠĠĠĠĠĠĠĠĠĠĠĠĠĠĠĠĠ ĠĠĠĠĠĠĠĠĠĠĠĠĠĠĠĠĠĠĠ
% "><
ĠSp ider
al is
Ġg ains
bo ys
ĠM end
Ġnegot iations
ĠT odd
ĠAnt ar
Ġauthor ized
ĠOtt oman
ĠCh i
vent ory
Ġf i
is y
ME SSAGE
vert ed
ĠV ic
man ifest
h n
U Int
ĠV lad
ind uced
18 86
Ġalleged ly
c ov
Ġ} ).
m el
17 5
Ġgr ave
GL uint
Ġroll ing
ĠP ont
Ass ign
ĠE lection
Ġshift ed
Ġcos m
Ġsp ir
ĠTransport ation
ern ess
ced es
An notations
ĠB ir
Ġaccess ed
ich i
Ġbusiness man
: -
sl ash
+ "
Ġpre st
ent ries
ĠUn fortunately
Ġabs ent
å ľ
ment ed
ãģ ®
Ġvar ied
OT TOM
Ġn ested
s amp
Ġcon fer
Ġr ice
Ġpers u
| }{
sl ider
Ġwe ird
in fl
** *
s amples
uff icient
b ird
uff le
__ ["
)) $
ĠT oken
b age
et c
Ġle an
Ġtim er
d frac
Ġam ateur
L ittle
vis it
ĠV ict
ĠSw ift
osp el
! (
w y
Ġcl ause
Ġdr ives
S rc
ĠV as
Ġad mit
ist le
d eveloper
Ġcon vey
" ?>
Ġimm igrants
Ġch ip
Ġac res
set Text
Ġst ub
IN DEX
ĠWood s
ĠCh a
Ġphotograph er
s ized
Ġwild life
s ources
ĠR ivers
Ġneigh bors
ĠAthlet ics
Ġperiod ic
ilt ers
Re place
op ing
ĠMer c
Ġt ube
Ġle ts
ĠA str
ĠB ear
over flow
Ġterrit ories
T ip
f ight
ĠBer keley
Ġd iamond
Ġbelief s
ĠCom merce
ĠH at
ĠDef inition
ĠMe chan
ancell or
Ġbank ing
Ġd ivers
ĠA zerbai
ĠAlex and
ĠM idd
Ġa est
15 5
reg istry
L ab
Ġtr ick
ĠD ennis
Ð ±
18 87
ancell ationToken
ĠG T
Ġhand les
Ġevery day
ĠAtt ribute
Ġmolec ules
Ġelev ation
the ad
Ġun n
On line
ĠĠĠĠĠĠĠĠĠĠĠĠĠĠĠĠĠĠĠĠĠĠĠĠĠĠĠĠĠĠĠĠ ĠĠĠĠĠĠĠĠĠ
ad ic
}} )
ĠCon st
in itions
ĠI celand
Ġvis itor
work er
hab ilit
ĠC amb
ĠGL uint
ĠE ld
Ġwarr ant
De ep
Ġjurisd iction
alt ies
op acity
Ġj e
ish a
app ings
ĠZ end
A W
ĠCELL SPACING
Ġcompet itors
Ġt s
ĠCELL PADDING
d td
ia z
ah an
Ġnon linear
ĠForm ula
ind a
R ock
Ġl ady
12 9
ĠMunic ipality
sl ant
g om
Part ial
Fore ign
ĠK ill
Ġcab inet
ĠB our
Z oom
ĠOver all
Ġicon ic
Ġvac uum
am med
$ ~
2 10
In jection
18 64
() [
Ġsent enced
ĠE sp
Code c
go og
ĠC uba
et e
hell o
) })
av ier
im mer
ĠChel sea
Dest ination
ie ge
Ġprogram mes
th lete
g row
Ù Ĭ
q q
Ġview ing
ĠJenn ifer
Ġland ed
ĠV k
Red uce
Ġlook up
ĠLeg end
sp ark
Ġsh ield
Ġexpect ation
ro d
Bit map
ĠRog ers
sc ene
ĠEag les
Ġm as
ĠSub s
Ġappro ached
Ġmax imal
! =
: &
ort on
g al
Ġfall en
script s
ov ic
TE X
+ (
CO VID
Ġportray ed
] ['
ĠC atalog
Ġd ying
16 8
pi res
ĠParam eters
^* $
ĠStan ford
ap ps
16 9
Ġstraight forward
Ġ ì
ĠIn stit
ĠS N
ĠO t
Ġsc reens
ĠS uz
Al gorithm
Ke ep
Ġd ad
other apy
ĠCamp us
ĠMed ic
RO OT
ĠWH ERE
az i
Ġir re
ĠC I
ĠD ig
Up per
Ġtempor arily
ul er
o ard
è ¡
Ġorgan ised
ĠB eth
ĠF ed
ĠO UT
Ġgather ing
AR K
ĠAm sterdam
Ġsus pected
Ġsal ary
em ption
Ġdeterm ining
Ġad option
Ġex cluded
st orm
ond e
Ġburn ing
Ġtom orrow
Ġn ose
Ġconv inced
ĠIm pro
) }_{
md c
ĠD rama
Pe er
pre view
Ġsub mission
Text View
ĠT ed
ĠO scar
Ġrele g
Warn ings
ĠDr ug
Ġyoung est
C ategories
io x
Ð ¹
Ġev ac
Ġcy cles
Ġinter vals
L i
Ġdoll ar
Ġobject ives
un ed
append Child
met rics
im ony
Ġste ep
z oom
dr ag
Ġisol ation
Ġrend ering
$ :
publ ished
car bon
Ġrel ay
ari ans
Ġeconom ics
ĠFil ter
om eters
Back end
ĠArab ic
ĠC u
ĠE ston
ĠBelg ian
order ed
Ġsurv iving
Fix ture
fig ures
ĠQu ant
P ub
ĠSh aw
Ġmurder ed
ĠGl en
ex isting
Ġexped ition
Ġl ov
18 63
if ice
Ġs phere
j ab
ĠD IS
Ġper pet
16 5
ĠWeek ly
Ġrec ycl
Ġcamp s
Ġdismiss ed
Data Source
Ġen abling
ãĥ ¼
\ }$.
ĠIn surance
v or
Ġescap ed
Ġst olen
ĠF E
}{ (
Ġfr act
it ious
P ending
D a
G it
Ġspecial ized
Ġent ers
aw t
land o
Ġel ite
Ġdefe ating
_ -
Scal ar
um i
View Controller
Art icle
Ġch ances
ele g
ij i
Ġtravel ed
. (
se p
Ġto ll
Ġapprop ri
ĠMun ich
s ym
Att empt
Ġdo zen
Ġb eneath
C ritical
ĠSy ntax
Ġcrick eters
Ġplay offs
Ġl ingu
ĠWrest ling
Ġse cre
Ġfest ivals
Ġun employ
Reg ular
Ġte eth
S ir
Ġmeas uring
BY TE
ex act
Ġtreat ments
Ġs id
m art
ĠR idge
Ġsol ved
Ġin coming
tr ivial
c v
Ġreal m
ĠP H
CO UNT
Sur face
Ġag gressive
O s
ĠP icture
Second s
h ou
//////////////////////////////// ////////////////////////////////
Ġtrad ed
Ġmunicipal ities
s it
Ġpe oples
Ġens ures
ĠB aptist
block s
ĠC ub
Al t
ĠEm ily
ro c
sub string
Ġintrodu cing
se ed
ĠZh ang
z ens
ĠC ut
Ġfor um
ĠO ri
S ig
ĠDet ails
C ookie
Ġv ic
Ġmat hematics
NG TH
Ġs isters
Ġth rew
Ġor chestra
or p
Ġbench mark
@ {
Ġdet ector
ĠMe eting
Â »
ĠCons erv
ĠSym phony
pos er
m un
look up
Ġf led
}} _{\
Ġinj ection
Serial ization
W ARN
ĠAv iation
Status Code
ĠEmer gency
ĠBut ler
ĠRepresent ative
Ġcomm emor
ĠStr ateg
text color
ĠIn iti
th an
Sm ith
Ġdis cret
Ġconf used
Let ter
FUN CTION
p ending
14 5
ĠIss ue
respons ive
to ctree
Sh ift
met ric
Ġim pression
Ġ( `
Ġk iss
Ġinter pol
Ġl ifestyle
Ġbr ig
Array s
ĠAct or
ĠCo ach
Ġbr ut
All ow
Ġassoci ations
Ġh orn
Ġan xiety
'' '
Lower Case
INST ANCE
igh bor
ann i
aus es
Ġ" ;
ĠLe eds
( `
ac iÃ³n
ĠC HECK
S PE
Ġqu oted
h p
ĠD ol
Ġcon fess
Ġloc ale
Mer ge
Ġass ists
stats models
L com
y t
Ġback ed
Ġele ven
E conom
ĠU TC
AT O
n ick
ĠW R
ĠWork ers
multi row
Ex cel
Ġwe igh
L im
T w
w heel
Th ank
Austral ia
ul ates
Ġcond itional
ĠMont e
M esh
v art
Ġdro ve
ĠCr iminal
Ġel abor
ess a
Ch inese
Ġl obby
ĠChristian ity
ĠNash ville
Ġwalk s
{ },
ov ich
pect ives
f uture
ĠT as
ĠComp etition
Ġc rop
Ġfit ness
C trl
Ġex pr
ĠCON DITION
Ġh yd
end um
Ġscript s
un s
uck land
AR CH
e conom
ĉĉ čĊ
Ġart work
ĠBob by
al ymp
Ġp ose
Ġpl acing
Ġpregn ancy
Def ined
render er
Ġprelim inary
Ġtrans itions
IT H
ĠPr im
18 81
ĠN athan
Con version
C AP
op al
Ġdeliver ing
ĠV ert
O O
Ġst upid
Ġscr atch
Ġres idual
D ue
ac l
Ġan onymous
to Equal
Ġt ile
ph abet
Ġtrans mit
s il
Ġb ay
br anch
Ġaf raid
ĠR aid
ĠH em
ĠForm er
M ary
x f
Ġc ategor
Sh adow
Det ector
18 62
` :
p k
Ġl uck
ĠW ol
ĠLear n
ĠCan al
Ġpoint ing
orient ed
Ġaccept able
ela ide
ew ise
ep h
Ġbut tons
Pro c
Ġstat ue
Ġtele phone
Ø ³
Ġconflict s
ĠC ategory
Cred entials
ex clude
Ġcir cles
Ġc url
ens on
or um
API ENTRY
Ġfun eral
g ie
ĠAdd ed
Le ave
ĠU SE
__ .
ĠBet ter
Ġcomb ining
ĠWild life
Th reshold
Ġexpl ored
: %
Ġmet all
F W
c ott
A mazon
R oll
B LOCK
r ides
ĠExt ension
ĠB und
ĠH R
IN IT
ĠCirc le
Ġvolunte er
Ġdeterm ines
Ġtr unc
ĠM ann
00 5
Ġaccount ing
Mill is
×ķ ×
Ġf uck
Ġnom ine
ud o
ĠTh row
os c
FFFF FF
Ġcent ered
Ġimplement ing
Q t
18 84
T ech
en ario
column width
ĠĠĠĠĠĠĠĠĠĠĠĠĠĠĠĠĠĠĠĠĠĠĠĠĠĠĠĠĠĠĠĠ ĠĠĠĠĠĠĠĠ
Ġown s
Ġquarter back
ĠPl ayers
Ġsust ained
ĠTr inity
P adding
Ġcent res
ä¸ Ń
M AC
ĠEm ploy
ĠY ugosl
ĠFil ip
ĠBor ough
ĠFinn ish
Ġ" _
Ġsw ing
ĠTE ST
A UTH
back end
Ġmat hematical
ĠB og
R GB
Ġprotect ing
ovak ia
Ġener gies
ant ics
Ġafford able
serv let
ort ion
Ġcool ing
Ġcre ator
ĠHel en
v g
ĠS z
Ġplay off
Ġm ature
Ġde prec
ĠSo on
ĠCh rome
CD ATA
Character Offset
um ing
i ator
S uch
Ġt ent
ĠRes erved
sm art
Ġinvestig ations
aver se
script size
Ġdev iation
ugg ed
ĠA round
Par cel
W ater
Ġt ap
H ouse
ĠL an
Dan iel
f m
Ġac ute
ĠTerm s
ĠCon struct
re ply
isecond s
B attle
se en
Ġb il
is ol
Ġep och
r age
/** */
Ġwrest ling
âĢ¦ ]
N orm
Ġcop per
TEXT URE
Ġen orm
ĠEx cell
Ġlast ed
Ġconf usion
ĠRE G
Ġexception al
Ã§ Ã£o
ĠPro gress
Ġfarm ing
U G
Ġhold er
Ġo ct
ĠSt uart
h h
Ġdi agnostic
b an
c aster
draw able
erm ark
Ġmer ch
c ached
Ġt anks
Ġis ot
Ġbr idges
Ġmuseum s
G uid
H ex
cond itions
ĠEnter prise
Ġextra ordinary
}} .
Ġtum or
ĠJ ar
y aml
Ġim per
le arning
,\ ,\
Ġman ages
Ġan ger
Ġdist inction
Ġadminister ed
Trans lation
ĠCour se
Ġas h
Ġseem ingly
Ġcollect ing
mar shall
ach ers
WR ITE
Ġ// !
Ġsur ge
) >
ĠPhill ips
Ġob l
ĠK ash
Ġf iring
ĠC ould
ĠB ald
Ġrecogn ised
int s
Ġin comp
ina e
Ġrad ar
x e
ĠNew castle
Ġconj unction
g on
Ġph ones
g ray
Request s
L M
Ġcons iders
Ġad mission
oph one
Ġelev ated
24 7
C SS
ĠGl ass
j ournal
ĠEm ail
Cent ral
ĠG ene
Ġten ure
er ie
tr aining
Ġair line
Ġconsist ency
] ),
ex tract
ĠT ang
un iform
Ġpl acement
Ġattr actions
ore st
ĠL ocation
Ġpick s
00 2
Rec ords
ĠStr ucture
ĠH ob
Ġaccept ance
ING S
Ï ħ
ĠC incinnati
Ġevery body
en os
ĠCom plete
Ġbuild s
ĠB R
I FI
ĠCONDITION S
l ater
Ġh ur
Ġun cle
ĠPref ecture
Ġd oses
Y P
anc ers
he ther
Ġprim itive
at um
Ġcorrespond ence
Ġarr ives
ĠRe yn
Ġp reference
ĠR achel
ĠHar vey
å Ľ
O G
ĠR ou
Ġz ones
ĠPer haps
Ġpredom inant
99 9
ov an
styles heets
ul ent
Comp leted
separ ator
__ _
Separ ator
Ġz oom
ĠB orn
Ġd ish
E LEMENT
Ġk iller
ret val
d ataset
m is
UT C
RE NT
ĠY ellow
ĠT es
Ġl iver
date picker
ac ies
Ġbacter ia
S ent
f act
ĠSh akespeare
le af
Ġcre am
c us
Ġw ard
Ġincred ibly
Ġre vision
Ġs i
M ur
ynchron ous
ĠS creen
ĠAt hens
te enth
XX XX
é Ģ
Ġf ires
ĠFil ms
ĠP ent
ĠE ar
ĠR av
ĠE ddie
un ting
oll o
Java Script
am ation
aa aa
Ref resh
Ġsurre nder
Ġdoub les
c art
Ġe arning
ĠMar io
ĠD od
air y
Ġpat rol
Ġfix ture
Ġtrigger ed
Ġsustain ability
0 10
oth ic
du ces
ĠWell s
J ac
ĠEx amples
, </
Ġenc ryption
ĠB eyond
Ġchampionship s
Ġinitial ized
ĠLu is
log y
Ġob server
ĠX box
ĠBro ther
App Compat
N AS
ĠRequ ired
F ar
ĠE R
Ġexha ust
æ Ĺ
ĠCo ord
ĠConf eder
r v
Ġter rible
Ġf usion
Ch unk
stit u
us hes
Ġd s
ĠAl t
Ġbare ly
ĠT yp
27 0
" </
ĠMunic ipal
unt ary
E mb
sp ired
ad apter
Ġad verse
Rep ublic
Can vas
Ġsuff ix
ĠBAS IS
ĠArt ists
ĠFl ash
input s
ĠCre ated
ion ic
sub Nav
Ġstop ping
ĠChar acter
Ġingred ients
ĠPlan et
Ġmand atory
Sche me
ĠS ET
ĠPract ice
Christ ian
ĠS ah
Ġk nee
ĠLead ership
f ive
Ġinternational ly
loc als
ĠRe ports
Ġexp enses
ĠF ly
Ġr hs
ĠP FNGL
D ot
p ic
Fr ont
? (
F ort
Ġt f
G F
B er
ell ion
Ġinv oked
Ġpoll ution
18 82
M iddle
ĠPark s
ĠCurrent ly
Ġper ceived
ĠBer g
ot yp
Ġsum mit
default s
ĠInter view
ĠTer ritory
ĠP ain
ION S
Ġhon ors
S UP
Ġtown ship
ĠF at
Ġstay ing
Ġparliament ary
] $.
Ġpop ulated
Ġp ale
Ġattend ance
Ġs lope
ator ial
ac ial
ĠAv ailable
Ġproport ional
% ),
ĠÎ ¼
cor rect
parent Node
Own Property
= .
ĠC elt
Ġfl our
p ipeline
T our
Ġachiev ement
un ate
ut ing
um ble
ĠG em
Ġspec ifies
ĠS equ
}[ \
Ġprom ises
ĠR isk
Ġar row
Back up
Ġwealth y
C y
st own
sche mas
ĠFant asy
Ġ$ ('#
Ġsh a
Ġge ometric
Ġbel t
erm ine
Check ed
AB ILITY
Subs cription
F ill
Ã ī
Ġgrand father
ĠString Builder
Ġhor izon
Ġnom inations
Ġed itors
c py
ĠHug hes
Ġf ut
Ġme al
V S
Ġst er
Reg istration
ĠF DA
] $,
H AL
Ġwarm ing
ĠGL sizei
ĠAdvent ure
ĠStr ategy
g ui
Load ed
Ġsubsidi ary
c ern
hash Code
,\ \
ĠLe o
Ġbl ame
G N
initial ize
ĠNep al
ĠG M
Ġre ceptor
Ġp ython
aw k
ic z
ĠG ET
C at
Valid ate
is se
Ġh ung
Ġun s
MS G
ĠSt ef
ĠG ra
Un ion
Off ice
gr pc
Ġhistor ians
Ġsynchron ized
Ġf iscal
Ġstri king
at ics
Ġgr ain
ĠTh an
ĠAn cient
Ġcru ise
Ġeditor ial
Ġto String
Ġarr iving
ĠE ve
Ġsm ile
Ġmed als
Ġreg iment
f ar
ĠS or
B ob
Us ed
yg on
ĠJ oin
Ġjud gment
ĠK un
com ments
Ġsp arse
Ġsc iences
Ã¼ n
Ġtour ist
Ġ Ã©
Ġal arm
ph oto
ĠCont ainer
Ġtal ented
ipher al
Ġin fect
ind ices
Ġincre ment
13 8
less sim
Ġadv ised
Ġburn ed
ĠPos ition
ĠOC aml
G allery
Ġpeak ed
Ġcomment ary
Ġassist ed
ant ine
_ [
../../ ../
R ank
br as
Capt ure
p ine
Ġwarn ings
ill es
Ġem p
Ġlegend ary
over lay
Ġem otions
G a
ĠLuc as
ertific ates
dest ination
D ataset
Ġm anga
K ernel
e ur
Rep resent
ĠCol lect
y outube
olog ically
l ag
/ #
"/ ></
Ġsub group
P s
Ġall ies
ĠS ox
Ġal liance
Th ird
Ġc rystal
ĠLet ter
Ġconven ience
Ġrefuge es
non atomic
Ġbond s
a uc
oc o
ad ers
iz za
'] ))
(" .
t ile
Ch ris
Ġres erves
Ġadvoc ate
Ġ! !
Ġattack ing
Ġver ification
Ġdead line
Ġdifferent ly
Ġport ions
ig rated
mark er
Ġp ad
Ġcon spiracy
)) \
ĠL ov
g em
âĢĿ )
Ġf ate
ĠDel aware
ĠR uth
Ġlength s
ĉĉ Ġ
ĠO m
Ġcompl aints
t one
s ame
t frac
ĠD anny
Requ ire
Ġmer chant
App ly
Ġl on
Block s
Ġabund ance
P en
Ġcol ony
ĠInvest ment
Ġr m
Ġfriend ship
ĠV acc
Ex tract
å ¯
cam era
al am
ĠS ER
iv ot
inv oke
ar ith
Ġconcert s
Ġinter ference
Ar r
R IGHT
ĠC ox
ic ia
Ġn ights
ĠPalest inian
W ords
ir able
ĠN ancy
z b
Ġ$ ,
Ġd ip
Ġz ip
Ġmyst erious
U int
ĠSy rian
Ġcommun e
sh arp
ĠAn imal
P ac
Ġton ight
t uple
ĠM ine
Ġaff air
Ġcompos ite
18 78
Ġbroad er
Ġc ele
Conn ector
ber y
ĠÂ ±
\ }$,
ap on
ĠUS B
F RAME
h ind
Ġlo ans
18 75
ĠTh under
ĠPh ase
Ġdecre ases
ĠVal ues
T raits
Ġd ancing
F ast
amb ers
Ñģ Ðº
ç »
Ġpract ition
Ass ignment
Ġang ry
Ġdeg ener
Vis itor
Ġv iral
18 83
Ġind oor
size of
ĠBudd hist
Ġtop ology
dis k
dir name
Ġ ib
Ġachiev ing
ĠMaterial s
Ġm apped
at en
Ġcou p
Ġlo ose
Ġstep ped
Ġv ir
Ġemploy ers
Ġthrow ing
unit Pattern
ĠM om
ling ton
m any
is ot
ĠUS D
Ġc ave
ĠN intendo
ĠLi u
18 68
Sl ot
bel ow
Ġpl ots
Ġabsor ption
at ra
V EL
In ject
AR GET
hedul ed
ĠM umbai
esc ape
Ã¡ s
ĠZ ero
Al umni
ĠMet al
Ġw avelength
d og
Call ed
ĠTreat y
Ġsimilar ity
Ġh ab
as ures
d ensity
' ):
ĠB ak
flu id
f aster
Ġblock chain
Ġcle ared
Ġelim inate
Ġadjust ed
m icrosoft
D eb
G T
h arm
> )</
S i
---- ---
Ġconnect s
ĠI o
Ġconvers ations
ĠPhys ical
al gebra
ev ille
Ġdraw s
C AR
Ġre nown
13 3
row Color
k le
33 3
M ot
us age
Ġtri ps
te le
ĠR ah
Ġnob le
over ride
Ġaver aged
18 76
ĠEm ma
ĠP av
ge ometry
ĠDis play
Ġbar rel
Ġd y
itt ers
Rep ly
Ġrepl ied
Ġun e
cs v
ist ani
Ġgovern ance
ĠFl ag
g mail
it ely
Ġdo i
CL U
Ġgard ens
ogen ic
ĠForm at
ĠS EC
) &
Ð¾Ð ´
Ġm ast
b idden
ĠTh ai
R en
ĠW I
Ġs ock
ĠM ove
ĠInter est
Ġglob e
ĠI g
ĠO blast
RE AM
Ġconv olution
ĠOtt awa
// ----------------------------------------------------------------
Ġh ierarchy
ĠHe brew
Ġin ev
13 4
Ġthr iller
Ġimport ed
* >(
Ġend emic
aint ies
Ġle ase
gener ation
ĠCons umer
Ġtri bes
Ġv ec
inher ited
as ide
ĠM ET
ĠR ey
C op
Ñ İ
BUIL D
J O
i ating
Ġal igned
j ud
ĠD oll
SER VER
Ġvol tage
D ao
Ġhard ly
Ġext ensively
n it
Ġc attle
C art
ĠJeff erson
ĠN ut
Util ities
ma jor
Ġball ot
Trans fer
Ġco at
ĠInd igenous
ĠTechn ologies
Constr aints
Ġindic ator
LO B
ĠS yl
Ġ" +
Ġut ter
qu ire
Ġex ec
Gr and
Ġrow span
isb ane
FT WARE
: /
C ert
Ġsp ac
L T
part ition
Ġar ise
Ġdi abetes
H om
Ref lection
Ġang les
Error Code
> ../
ro sc
ĠHe avy
w l
Ġpl ates
Ġcurv ature
ĠC raw
Ġs its
Ġagre es
Ġpost erior
min a
13 2
Ġtr ump
ĠK ur
18 79
W ild
" }
Ġt une
J on
ĠHol mes
trans fer
Ġb alls
Ġcook ing
Ġrh ythm
Afr ican
ÑĢ Ð°Ð
pre ter
Ġm ines
ĠPro ductions
ĠStat ement
Ġrecommend ation
rele ased
ĠLiber ty
V T
Ġun clear
ĠN g
b u
Ġc rypto
ĠH alf
ĠSc i
ĠS ter
Ġin duction
Ġtr ap
Ġt ends
N ER
15 2
Ġd ining
H a
ĠProduct s
con sc
Dis abled
Ġgrad uating
Ġpre view
Ġweight ed
od ore
ĠPhilipp ine
h all
ol ition
ĠE ff
Ġp ink
ĠV K
Ġansw ered
bound ed
Ġmod ifications
Ġhar ass
uss els
ĠAnd r
Ġadvant ages
uet ooth
22 5
<? >
ang les
( []
ĠS weet
Ġinteg ers
Ġloc als
T reat
Ġaccommod ate
\ ;
Ġactiv ated
Ġqu asi
ch air
em ia
ĠF an
ĠIn fo
="@ +
Ġf ed
ĠD eg
Ġdesign ers
ĠAb raham
Ġremember ed
bro ok
Ġf o
at iv
aw ks
Ġem it
ĠS amsung
ins ky
pack ages
n io
ĠV ision
ris es
M or
Ġper cussion
Ġpseud o
Ġwire less
Ġderiv atives
ĠBr isbane
gom ery
ĠCom edy
Ġaffect ing
U UID
ĠS ak
Ġmem brane
ĠQ uality
ĠP oss
! ]
oot ing
it us
Ġw age
J P
b etween
mod ifier
D ry
S heet
}) }
Ġoverl ap
Ġoccur ring
deg ree
S ol
Ġvar ies
ve e
ĠSol utions
? </
Ġd ash
res olution
Ġcomp ly
Per cent
stream ing
ĠArn old
D istrict
Ġmanufact ured
h ad
FLA GS
iat ric
Ġmart ial
Ġ/ ><
roll ment
ut ers
ĠVenezuel a
Ġind ent
Ġsoph istic
ĠChem ical
ĠCroat ia
ĠP sy
ĠM R
ĠStr uct
ĠS ale
ĉĉĉĉĉĉĉĉ ĉĉĉĉ
] <
Ġform ulation
Ġtop ological
ĠAm endment
Vari ant
ĠCommunic ation
ĠB order
std err
}{ *
Ġcr ack
x it
Ġaffili ated
Ġcloud s
Dem ographics
ĠDis covery
ĠTr uth
Ġdist ant
Ġrefer enced
-------------------------------- ----------------
ĠRon ald
S B
Ġ\ ]
Ġy ard
Ġ} ),
ourn aments
Ġcontact s
Ġd ashed
Ġsynt hesis
ast ics
Ġsup press
Ġs orry
empty set
Ġcall er
Ġaccompl ished
ĠL oss
Ġre lying
ĠPer iod
ĠLeon ard
ĠB irth
ĠU nd
ask at
found er
J oe
ere k
Beh av
ĠLe ave
$ _{
Ġde cent
ĠAssoci ate
Get String
Ġc inem
Ġs el
rient ation
ar ial
ul o
Ġr ings
Gener ate
36 5
Ġst unning
F re
ĠW ake
Ġ' ')
ites pace
ĠFa ith
ot er
Ġearthqu ake
to LowerCase
help ers
il o
ĠHer bert
p it
Ġ" (
ĠUE FA
LE NGTH
×Ļ ×
Ġconstitution al
spec ies
ĠN A
ert y
14 3
T em
ĠR oot
ĠW riter
ok o
Mean while
ĠAbb ey
ĠP rest
ĠRod rig
neut ral
S aint
t ot
TR A
Ġcivil ian
Album s
Ġan ten
Ġbroadcast ing
LIN K
enc ia
Stack Trace
ĠM ask
) ?
ĠÃ Ĺ
Ġdist ribute
> /
r ain
ap a
=- =-
ĠN ormal
od ium
Ġ(! (
window s
d evelop
Ġ( );
Ġcur riculum
d eb
al tern
ie u
Ġline up
ĠA ber
ark er
Ġs ig
ĠH amb
serial ize
Ġin ference
Ġmake up
max cdn
Ġcogn itive
ĠM ills
ĠAt omic
ĠR alph
ĠH ousing
iz ar
ĠCh ang
Ġmar ry
P icker
R outer
Ġver ified
Ġfood s
Ġnation wide
ĠS erv
ĠAd miral
13 7
J ournal
ch oice
ĠN om
Ġhot els
mac ro
ĠVerm ont
ose x
Ġwork shop
3 30
g ather
Ġsurve illance
cer pt
place holder
Ġcomb inations
h box
Ġqu it
care t
Author ization
Ġint ens
c ence
L ONG
ĠNO TE
ĠS ang
ĠS old
Ġt rem
sh ots
Ġman ually
ĠSud an
ĠCo hen
ĠM ul
EN C
18 71
ĠTr ain
Ġcontinu ously
Ġswe ep
subs cription
ĠR osen
Ġwant ing
Ġdistinct ive
Ġextr action
ĠE ST
ĠBenn ett
Ġthe sis
Mar shall
M oths
R etry
cred ited
ĠGro ve
M ike
ĠField s
Ġg rap
Ġchar ter
M id
L arge
tr action
ĠM ig
ÐµÐ½ Ð¸
Conf irm
ĠPeters burg
Ġposs ibilities
Wh ich
l iteral
ĠN ak
Ġfoss il
Ġcont rolling
ĠX ml
Ġsettlement s
Ġin clusive
D ash
re verse
ĠW ag
ĠK umar
je ctions
ĠN y
uch i
ENT S
Im mutable
Ġsens ors
More over
e cca
Th an
sc ience
Ġst reak
Ġad equate
Ġ< ?
ĠNot ice
m ans
Ġcart oon
aly zer
Academ ic
Ġp uls
Ġart illery
ĠESP N
ĠRe ed
... ]
h istor
ter ritory
ĠDub ai
Ġsav ings
ĠFl ow
ĠB A
sign al
ier arch
fe ction
&= &
18 67
Ġqu ad
Ġfund ra
d ag
und les
ĠAd elaide
ĠNever theless
Ġn erv
F oo
K n
Ġr iders
ĠRoman ian
ĠA uckland
h ole
Ġsurve ys
EX PORT
ri z
Ġap olog
Ġtox ic
M ASK
ĠDef ine
Su ite
ĠUp dated
Ch apter
Ġem ails
unc an
Add ed
Ġtarget ing
Ġ( <
itte es
Ġinter faces
Fr ance
Ġn inth
Ġc c
Sever al
Ġper ception
Ġap pl
Ġinsert ed
Ġrecip ients
Ġrac ism
Ġw ars
ov y
Al tern
Ġsure ly
bor o
Ġw orn
="../ _
ĠF ollow
Ġfight ers
Ġob sc
N d
Ġf ru
Ġa z
Ġtraject ory
ĠSl oven
ĠN icol
Ġdro ps
Ġav iation
Ġim pressed
Ġconduct ing
Ġmechan ics
uls ion
ĠWall ace
F ROM
do es
Ã± a
ĠM illion
Ph ase
Ġsub stit
Ġpr ayer
or ange
ĠPet e
Ġshel ter
n x
ĠUg anda
Ġsh aped
im ity
ĠEvery thing
Re ceive
Ġflex ibility
ĠV eh
Ġexp ense
Ġproceed ings
Ġcontr ary
ĠS ymfony
ĠC B
Ġaw esome
Ġprefer ences
File System
ĠShang hai
N L
ass et
ch ing
Ġto mb
18 74
ĠN R
ĠG az
ĠInt el
Ġsim ulated
Ġc ryst
Ġl ucky
Ġp c
âĢ ¯
fr astructure
ĠQ String
cu ador
st ri
ĠWe ather
Ġrele asing
sl f
Ġcro ps
ĠN HS
Ġw ore
com press
l ua
Ġn ic
x sd
sl ot
Ġhum or
ĠA CT
post s
CL I
Dep artment
PRE FIX
Ġsil ence
V R
ĠR af
Ġstock s
ĠBi ology
ĠChap el
Ġinter rupt
Ġed itions
ĠEn able
ĠF oster
Person nel
Ġsoci eties
sc apes
="# "
Ġnews letter
B as
Ex amples
Ġodd s
Ġsub t
sec ure
P ages
ch rome
ĠEn try
Ġaddress ing
Br anch
Listen ers
res olved
Ġsc ream
Ġcrypt oc
}} }\
Ġtrad itionally
Ġsem antic
Ġbank rupt
] *
Ä Ļ
ĠB uch
ĠRoc he
IC S
ival ent
f requency
LO AT
Ġp s
eg al
ĠCh oice
Ġin cl
ĠBat man
Pr imitive
ĠGard ens
Ġle x
St rip
ep per
Ġjournal ism
Ġbus es
ĠL if
Ġport al
s an
Ġdemonstr ates
Pay load
Block ly
ref lect
Ġcomp atibility
und a
Ġexecut ives
f eld
Ġr amp
Ġiter ations
Ġde ce
13 9
TO OL
ĠB ach
Ġemploy er
ĠEag le
ĠWIT H
; ;
L ess
ĠAl gorithm
------------ -
c ue
ĠPar ad
Ġexhib ited
ĠS urg
Ġhe ating
ĠA bs
ĠProgram me
ic acy
Ġsc andal
Ġal i
Ġmind s
d ump
Ġdemocr atic
Ġher oes
ĠIs aac
r ant
pos itions
ĠG ang
Jew ish
R h
T LS
Profess ional
SD K
Ġexplos ion
Ġmetab ol
ĠKr ish
rat io
Ġs ink
Ġrun ners
Ġblock ing
u ition
Ġf t
ĠTy ler
) '
ĠLeban on
13 1
Ġtri angle
rg b
Z ip
ĠMil waukee
ĠL amb
ĠâĢ Ŀ
ĠS ierra
ĠL iga
Ġp ig
at ype
Ġconcent rations
ry s
Ġare na
ff ield
PA SS
f un
Ġmand ate
Ġcomp anion
n om
Ġhom eless
Man aged
k u
df s
Ġ} {
ĠM eta
d w
n pm
ĠM ull
Ġconj ug
N ever
Ġplan es
w ear
ĠNorth west
Ġc ubic
lo ating
Ġterror ist
Ġw is
ĠClar ke
Pay ment
ĠP apers
ator ies
Ġ rib
Ġsh ifts
cons istent
Ġinaug ural
um m
Ġfl avor
Ġlett ing
Ġg ig
() ]
!! !!
ĠE ye
ĠS ometimes
ĠSerb ian
Ġsur f
Ġg otten
Ġret riev
art et
ĠFlore nce
r x
ogn ition
Ġt ear
war f
Ġchalleng ed
St d
ĠEn cycl
Ġf illing
Ġtra its
z yn
per mission
ĠStr ong
+ -
; %
Dec oder
Ġalter ed
18 77
18 73
ale y
ibl ings
CE PT
Ġpal ace
ĠR PC
ht m
Ġencour aging
Ġefficient ly
ĠTo o
Ġabort ion
g ary
ĠH ugh
Ġden om
B razil
ĠN ott
St yles
ĠAl pha
Ġpers istent
ĠCy ber
Dis patcher
abul ary
ĠT X
ever y
' =>
Ġcab in
part icle
ĠBl ake
Work flow
ĠPen insula
> [
al ter
if rame
Cre ation
ing o
âĢ Ĥ
u cc
ĠRem arks
Ġearn ings
min ster
Ġnob ody
un its
prec ision
Ġb uff
uc le
Log ging
Ġw ishes
Att rib
Ġacknowled ged
Ġs overe
g iven
ĠB OTTOM
ĠMan ufact
ĠJul ian
Ġelder ly
ri bs
Ġst ochastic
ĠSp encer
Re ceiver
/ '
Ġm a
l ift
L ists
, {\
ĠHer ald
ĠS oci
ced ure
." ;
ar ma
Ġse aled
ĠAng l
Ġde code
ĠK in
W il
ad os
Ġrout er
W C
Ġsim plicity
Ġpure ly
ential ly
ĠParam eter
Ġsett le
orne ys
ĠC ou
Ġneg lig
cert ainties
ĠCom mercial
t b
ĠCON FIG
Ġpeak s
ett i
Ġpost ing
ĠGener ation
ĠSum mit
E s
Ġfurn iture
Ġgrad es
Act or
Ġswit ched
Ġmin eral
Ġdecor ated
Ġhop ed
Ġf ulf
let es
M ah
Ġautom ated
end region
14 7
Ġstri kes
Ġun ity
Ġinvestig ating
\ ":
18 40
Ġhad n
ĠColumb us
Ġsculpt ure
in ely
18 72
Ġassess ed
T l
pre ced
act iv
ĠQ t
Bal ancer
ĠPr ison
Ġc fg
ib e
Ġbreak fast
S ink
ab we
20 4
ĠGreg ory
cipl inary
ĠR ena
Al ignment
effect ive
s leep
37 5
Ġinstitution al
ĠM iles
all ed
Sw ed
ĠAdvis ory
Ġ"- //
Wel come
ĠSc ar
Ġbl ues
Face book
Ġre nov
H idden
Ġcount ing
Ġtrav elling
ĠG or
ĠIn stance
Ġe gg
se ek
Ġdiv orce
Ġcontain ers
Ġen rolled
\ }\
me asure
Ġpat ron
ĠRE AD
Ġs ang
H I
in ology
20 3
==== =
G al
ĠR ES
Can ada
faster xml
ĠI MP
Ġbul let
Ġprov es
Ġcomp rises
Ġrenown ed
ic us
Ġb ell
Ð° Ð»
Ġclean ing
ab b
Ġprevent ing
UT O
Ġcal m
Ġphot on
t ier
ĠN ames
s outh
Ġh ire
21 7
ph al
26 0
Ġwor ried
ĠA F
ĠK re
eb ook
p riority
ur as
in verse
mod ified
Str ings
ethe less
Ġcorre ctions
Ġun anim
Ġpat ri
Ġhistor ically
R eb
X i
Ġex clude
io let
MA G
Ġbi ography
ĠCard inals
ond o
Ġdiff usion
Ġup set
Sc heduler
urch ase
\ |\
ĠS tra
m or
Ġpul se
ĠD rop
ĠU V
ig gers
ĠR ams
Ġgu ided
math op
P rior
get Key
18 66
w ent
ĠCl aim
ac ion
aged y
y our
} >
ĠG A
A h
Ġconc urrent
i ya
d v
pl iers
ĠIn stitution
op am
config ure
as se
Ġbi ology
ĠF ramework
Ġen compass
Ġempir ical
ĠD ATA
Cl aim
Vis ibility
Ġc ad
Ġaccept s
Ġdat etime
G G
um per
yl um
ibern ate
Ġf erm
Ġrecall ed
C tx
Ġdem o
ĠIn side
W P
HAND LE
m eter
ĠO THER
s With
M ex
- ">
ĠL akes
Ġmot ivated
vari ables
Ġshall ow
erg us
Ġsynt hes
in is
ĠAh med
ĠAut om
ĠM ob
ĠS ans
Ġv ig
ID ENT
Ġl od
ĠD yn
Ġex terior
Ġkw args
f an
Ġpresent ing
ĠM enu
ĠW IN
ge bras
30 4
U TE
Ġres il
Ġsup ers
Ġexc it
ĠId aho
Event Args
c ategories
Ġgr pc
Ġlum inos
Ġh ills
ĠA ve
ĠR ice
Ġc ss
Ġo l
Ind icator
Ġgent le
ĠM az
Ġfrag ments
nos cript
in as
ĠY ale
Ġprodu ctions
Ġdiagn osed
ĠAn a
fil m
imb abwe
ĠNor folk
l ists
en es
ĠM ik
Fil ename
second s
Ġattr action
ĠJo an
La unch
t an
k ill
ĠP f
ĠE ight
her o
former ly
Ġp unk
cont rolled
ipp et
Ġp tr
og an
ĠA ST
Ġcon ce
Ġorig inated
al og
L ev
S IGN
Ġdeterm in
ĠNiger ian
dem o
e lected
up iter
Ġ' $
Ġreserv oir
ĠCustom er
Ġsh it
Ġwhe els
ĠIN T
ĠMot ors
ĠD evelop
ĠHis panic
M LE
Ġunder graduate
Com plex
Ġshut down
Ġprov inces
Ġdr ain
ĠPh one
ĠM aced
ĠP att
Al ign
Ġnav igate
ĠMus ical
Cred it
ed ing
foot notes
ĠP and
Americ a
Ġaccur ately
ĠTib et
ĠP om
Ġdon ations
Ġtour ing
DE P
Ġacknow ledge
Ġox id
(" <
big l
å Į
Ġneighbor ing
ĠSeb ast
it ars
st ub
Ġdiscuss ing
icens ing
v ect
b rit
heim er
Ã© d
ĠI SO
Ġch apters
hel m
At l
Ġcomp ass
Ġspeed s
å ¼
NotFound Exception
Gate way
Ġsp y
ĠOr lando
r ise
h orn
h im
og onal
H ung
mult iple
Ġc ry
int ro
Ġd ys
reg ex
ĠHar bor
get Text
ĠJ ung
Pl ayers
Ġc iting
St mt
Ġsent ences
Ġob s
w yn
ER Y
Ġdiv ide
ĠArmen ian
Ġfilm ing
work ing
Ġill um
Ġfor wards
Ġor chestr
go al
ĠAct ivity
Ø ¨
ĠS L
poll ing
LI B
Lem ma
Ġun ions
Ġgovern ed
ĠTom my
Ġdemand ing
Ġsc ar
Ġl ambda
Ġfif teen
b ecause
first row
ĠBry an
ĠDe al
Ġenorm ous
w al
unt ed
Ġelect rons
Ġ" --
Ġdis ability
17 9
r ans
ĠP ink
Ġs word
id ity
14 9
Ġg aining
aur us
ĠV illa
} |\
ĠGerm ans
custom er
ĠWik ipedia
B and
K EN
Ġmaint ains
d m
ĠU INT
}) =
Ġexhib its
Rec ent
if fe
D ead
ĠK yle
ĠB ag
fil er
Ġres ume
Ġal umin
Ġdrum mer
c ock
Ġp orn
K S
{ |
ymmet ry
Ġins pection
Ġh anging
ĠResp ond
Ġthr one
ĠAr ctic
c ies
ĠPers ian
Ġl azy
Ġsub tle
itect ure
Ġanticip ated
t ec
ar u
14 6
Ġun certainties
Ð¾Ð ¼
Am ong
Are Equal
col ors
Ġdes criptions
Ġrock et
20 5
IC AL
ĠVen ice
int age
ĠBrook s
P oll
ĠM aking
ĠL ac
ĠV M
ĠInd ependence
ĠT ong
2 12
ĠT F
Col lege
Ġtrav els
( --
ĠBroadcast ing
l m
hem atic
ĠT ell
Ġfle w
effic ient
vis ibility
Ġbal anced
Å Ľ
P ACK
Ap ple
Ñ Ħ
ĠU ntil
Comm unity
ĠC off
Ġthick ness
B ay
ĠD aw
we ets
Meta Data
> $
Ġaccess key
ĠE asy
Ġh alt
ĠMod al
e er
k ed
pos able
Ġvari eties
Ġfail ures
ĠP D
op ened
Ġle ak
Ġintrodu ces
d an
Ġ// -->
28 0
Ġtri o
pt o
Ġbar riers
Me asure
ĠN urs
St ates
ĠG uild
acc ur
Ġcompos itions
Ġwork shops
N ested
Ġanth rop
Ġequival ence
Ġdem olished
ĠF olk
ĠIn it
R o
ä¸ Ģ
} "/>
Ġbe aring
G erm
Ġa thlete
or ig
ĠGabri el
ĠH av
] =
11 11
z el
Ġclass room
sub sec
add on
p us
ess ing
ĠSO FTWARE
Ġb os
s ock
ĠJess ica
Ang le
H F
ĠTh ink
Ġcharg ing
s ender
ĠMarc us
Type Def
W ashington
// !
G re
Mod al
Ġtw ist
âĶ Ģ
> ()</
Ġs ake
T urn
Ġst om
but tons
Ass oci
Medal ists
ĠCar lo
we bs
p ixel
n ell
ĠFe atures
ĠK aren
Ġurg ed
ĠV A
ĠRay mond
Ġrem arks
Ġprop ri
ĠJam ie
Ġsup ern
TE GER
Ġaccompany ing
pos itive
q a
ĠD ame
Equal To
igr ant
Enc oder
' "
Ġf ram
T ables
Ġadm its
Ġv i
le w
F IN
ort ic
:: $
aff e
Ġep it
Ġth umb
Âł Âł
Ġpsych ology
Un able
Behav ior
ĠB ert
Ġn ep
ingu ished
big r
18 69
Ġem power
ĠS ultan
ah oo
Ġcour tesy
Ġlog s
ĠPat tern
apeut ic
ĠJ in
e ctions
In line
ĠBulg aria
Ġsurviv ors
ag le
"/ ><
ĠPal mer
if fin
Ġwork place
AS C
ĠP ul
man aged
ĠAp plied
ĠHar per
Ġd Ã©
ĠT IM
ĠB ent
Ġl y
ĠW ant
s izing
Ġnurs ing
Ġab oard
Thread ing
ĠM ode
ĠM otion
olec ular
Inst ances
ĠTrans action
ĠAcadem ic
Ġg em
ert s
ĠJul ia
del im
Ġoverwhel ming
Ġm ere
Ġg onna
B re
H ide
Ġdecre asing
est rian
names e
st ed
ad just
Ġtrust ed
Ġf ame
Ġinter cept
ĠSecond ary
pr us
Ġfar ms
asc ade
ĠH ur
ĠCh an
Ġpoor ly
Ġh ack
ĠJer emy
d istribution
Ġsquad ron
W M
ig i
pe er
ĠRet rieved
ĠR AF
Ġim perial
>: ]<
av in
lock ed
Ġgenu ine
He ap
Ġinitial ization
ĠPod cast
MA IN
Ġconsult ant
miss ing
fin ity
ĠMar x
Ġadv ances
ct l
H it
Ġstrugg led
Ġre try
H ence
ĠD j
tensor flow
ĠP anel
Ġharm on
Ġret reat
ĠTas man
ĠPo etry
15 1
Ġreson ance
ĠHer z
May be
C atalog
implement ation
ĠS ullivan
ĠOak land
Fl ora
Scott ish
Qu ick
Ġque en
m ile
ĠSur v
er i
oy le
Ġcancell ation
oc on
Ġw are
ĠC inema
Ġcon clusions
21 6
ĠQu ick
ys ide
Ġdiscipl ine
P TR
ut a
="# ">
is co
un i
Ġlim iting
ish i
Ġexperi encing
Ġpred icate
ic ism
ĠL arge
ext ype
ĠComp anies
ĠGil bert
ĠSet tings
Ġref ere
User name
N ING
w ang
es cope
S ar
ĠA part
Ġbe ars
Ġarg ues
Ġdefend ers
^^ ^^
Ġtable t
Ġund ers
Found ation
Leg acy
ĠTrans itional
}\ |
Ġmod est
ĠC ob
ĠHe aven
Ġgravit ational
Ġc ere
Ġpra ise
ĠNS W
Ġfl ush
rom agnetic
add EventListener
O ps
à¥ į
De ployment
m itting
am ous
ĠT err
ĠF loat
n ai
ĠP T
"> &#
Ġcour age
Ġstrugg les
Ġt ick
dec oration
d id
Ġret ro
ĠB ug
Appe arance
R outing
in el
habilit ation
Ġhe aling
play ing
Ġt ournaments
ĠCon structor
Ġs ew
ff bb
ĠHar old
Hon ours
Ġfeed ing
ĠJ ake
Ġfif ty
ĠJ O
Ġaut onomous
ĠMor r
Ġer upt
ĠBr ain
Ġb uck
im eter
ne apolis
ĠAng lo
Ġrat ios
v ation
am ic
ĠAl ger
BU TE
Ġfilter ed
B ag
. ');
Ġbott le
Ġorb ital
ĠFellow ship
ig uous
iev e
Ġexc av
She ll
ĠEs sex
im ag
ĠHe at
ĠC ord
t u
he nd
Ġdo zens
Ġachiev ements
conf irm
Ġl akes
Ġcol ours
ĠE M
eg an
aus ed
Ġbur den
ur bs
ĠIniti ative
ĠV AR
r n
Ġpil ots
W T
ĠF eed
A mb
end ors
re a
Ġsport ing
Direct or
c x
ĠR ever
Ġminim ize
LE N
v ik
DO WN
udd y
ĠDirect ory
ĠG PU
F X
fav icon
ĠSh im
ĠPro f
M ic
And rew
O l
) }_
ape st
ENT ER
ĠTH IS
b is
k now
Ġhol idays
ĠT ampa
GRO UP
Ġan ce
N ick
man uel
21 5
Ġback end
Jose ph
ĠSher iff
M ale
Å Ļ
Î ³
16 6
R atio
log ue
ĠR us
Ġ utils
Ġfluct uations
I ts
Ġexpl aining
m icro
40 1
Ġspread ing
ĠMont gomery
ĠEngine er
AME TER
ĠFr ame
icy cle
ĠKn ights
ch annels
Ġe ager
Ġt ong
ffff ff
Ġquadr atic
DE LETE
Ġke en
Ġsubstantial ly
Ġsl aves
Ġprevent ed
Ġdress ed
Ġsw ap
H aving
ĠP owell
Ġfre ely
umul ative
b ay
r idge
ĠT ours
ĠM ead
arr ison
er als
cons ider
ut ation
vis ual
ĠAzerbai jan
ĠGu itar
ĠRem ember
Ġ[ {
Qu estion
is ure
ment ioned
com fort
Job s
ĠC ertificate
ĠClass ical
Sup pose
15 6
leg iate
Ġo c
Part s
Ġdraft ed
}) ^
f re
Ġqu otes
ro e
ĠG and
Ġmob ility
Ġcop ied
as ive
Ġgr ateful
Ġimp ly
Pol y
] {\
Ġla unches
Ġadvert is
Ġb out
or acle
}_{ -
hand ed
Ġc ig
Ġre forms
Ġb lo
18 30
ĠFI LE
ol in
Ġbelong ed
ĠN as
ack ets
18 48
lev ard
Ġweak ness
ĠÐ ·
Ġd jango
ch arts
Cre ator
sh ine
olog ic
u o
UN K
Ġint elligent
Ġche ss
Ġpr ay
ari us
c ro
t ables
S port
ĠS askat
å º
ĠAr med
c rypto
****** /
Ġv in
Ġcont ested
Ġph on
Ġfasc inating
he ta
Ġh iding
Ġcl an
og o
ĠGu id
Ġexpl ores
Ġdim in
ĠSh ield
Ġrect angle
Ġgu ards
Ġprec ip
ĠB rowser
Ġl as
Head ing
Ġre un
Ġg lyph
Ġresearch er
Ġbad ly
sw ap
ind ependent
ĠR C
Ġlaunch ing
h art
iv odes
remove Class
Ġc ats
ĠG OP
F ilters
Tax a
ĠPed ro
Ã ¯
Prot otype
C lock
Ġver se
ĠG ust
are l
Ex ec
u ator
Ġsc oped
Ġperman ently
Ġâ ĪĴ
or ic
Ġ(! $
D igital
Ġin ad
---- -
Ġlov ely
Ġsu ck
ĠDec ision
Ġad apter
F all
IR T
V ir
k ers
table block
Int Literal
\% $
Ġpun ishment
un ar
Ġpr ide
Int o
Ġl ymph
In c
Ġen force
atin um
th ick
10 16
Ġbl ob
Ġshe ep
ĠQu estion
Ġdisappe ared
g c
\| _
ĠW ire
Ġcollabor ative
Ġis omorphism
im an
ĠR NA
ap or
ip es
; ,
ic ers
ĠSocial ist
ĠCy cl
pr ising
be it
Ġcancell ationToken
Ġmag ical
B G
Ġb ab
Ġacc red
ĠAng els
Pre view
F K
col ogical
Ġforg otten
15 7
ĠPrinc ipal
ĠH arm
path y
sw ick
Ġdiplom atic
Ġcross es
F ive
m r
Ġt emplates
ĠIP v
s qu
est one
Th ough
A thlet
ĠAr senal
Custom er
IR ST
phant om
ĠBro s
Ġlearn s
Ġcount ed
Ġmiss ile
ĠPlay Station
Ġf ool
yl an
Ġpro fits
In vest
flu ence
ver ts
Ġro ok
ĠĠĠĠĠĠĠĠĠĠĠĠĠĠĠĠĠĠĠĠĠĠĠĠĠĠĠĠĠĠĠĠ ĠĠĠĠĠĠĠĠĠĠ
ĠAssoci ated
ĠSpe aker
at z
ĠK as
UP DATE
mid t
Mat ches
T ITLE
ĠAmb assador
r ors
ĠT emplate
ct uary
Ġdead ly
I MAGE
Ġt ier
Ġf u
ow ing
ĠMan uel
Recip ients
member NameLink
ĠO thers
Ġrep ublic
Ġdel ivers
Ġpath way
ĠB ears
footnotes ize
Perm issions
Ġsh oes
Ġtour ists
IS O
Tok ens
list ing
g uid
ĠV ers
Ġ\ &
CON ST
ĠReyn olds
Ġpsy chiat
Ġlegit imate
I BUTE
ĠPre vention
ĠBes ides
ĠJ ak
Ġun set
Ġwork force
In clude
ĠSh in
bit coin
Ġdies el
A CTION
Ġbehavi ors
os ity
ĠW A
C MD
ress es
Ġdes ktop
B ank
Named Cell
"> {
ĠC av
Ġcompr ising
oper ations
ĠInd ividual
ĠF ocus
s napshot
copy right
Ġlift ed
Mart in
AB C
ĠI M
Ġbenef icial
ĠA A
ad al
f ailure
Ge org
R oom
rid or
Ġ[ âĢ¦]
Ġeigen values
ĠHop kins
n is
s creens
ĠSing les
ĠWell ington
ĠMer cedes
Ġrespons ibilities
wik ipedia
Ġinvent ory
erm al
sub str
ĠCol in
In her
4 80
Ġconcent rated
Mus ical
Art ifact
ic ies
Ġrel ate
rang ian
ĠG ent
}\ ,\
and ro
Ġload s
sp aces
ĠUs ers
ĠId entity
Pred icate
Ġor n
Ġdemand ed
qu in
ber ger
Ġle agues
ab ove
ĠMin i
ĠChe ster
ĠSch w
en za
ĠW inds
ĠCon vers
Ġassum es
West ern
ens ed
ĠMon itor
F at
le en
ĠSw an
You ng
Î º
ĠO wen
Ġkey word
ĠS urre
Ġreli ability
[ ],
ev es
Ġcare ers
upload s
ĠK oh
ivodes hip
ĠDes ert
ĠGl enn
Ġread ily
el in
S a
h agen
Ġd ock
Ġperform ers
aint ed
Ġjust ify
Ġcre atures
er ver
Ġsuggest ions
Ġlie utenant
Ġn inet
ĠC ONT
Ġd atabases
ĠTreat ment
Ġr ape
IT S
ĠSim ilar
ĠMov ies
Ġmon ster
ERT Y
K nown
Ġbeat en
ĠH app
Ġkey boards
ÑĢ Ð¸
Ġchap el
Ġtr ucks
arant ine
ĠF ourier
Ġvalid ity
ĠHe in
p arsed
ard i
Ġdro pping
Disc ography
t emplates
Ġconsider ably
DI RECT
Ġle ver
18 57
ct rl
ĠC ash
E U
W ay
ĠI BM
ĠGener ate
Ġsm oking
ĠDocument ation
L F
urs ion
ĠK ol
Ġreport ers
Ġdam ages
Ġg ates
ĠInter face
ĠChem istry
Ġuniform ly
j obs
ĠValid ate
b org
at ta
Ġf ingers
Ġn aming
ĠResp ons
ce il
Mod ern
T i
pre vent
Ġcoll apsed
com ed
Ġform ations
h ort
14 8
n od
Ġasympt otic
w so
Ġover head
Un its
Man ifest
ed e
Ġimportant ly
Ġswitch ing
">( </
Con v
hy per
Ġproceed s
d ue
ĠA ur
Ġrep o
m ons
Ġp ocket
Write Line
MP TY
Ġrel ies
std lib
Ġbreed ing
ĠLind a
ĠR A
anc ies
Ġcorn ers
ĠS uff
Ġinvest ed
Ġcrit er
pe ated
Ap pro
ĠW ould
RET URN
D am
20 8
}$ }
Ġcer emon
t cp
PO INT
Ġhar sh
G od
Ġful fill
Ġconduct or
s ix
}} ^{\
ĠBa iley
ĠO g
text area
Check er
Des cribe
Start ing
Ġinf antry
Suppress Warnings
Ġ/ ></
ĠL ak
Filter Database
Ġl apt
Ġexpect s
Ġexhib itions
gr and
numer ic
ĠWar riors
ĠP P
b usiness
h it
ĠHe ath
Rev ision
Ġtact ics
S pr
Ġtoler ance
g ement
ok i
Ġdef ender
Ġtim ber
V el
ĠSt ack
Ġaccept ing
unt u
ĠBel arus
Ġf ung
Ġm im
Ġk ills
w x
Ġcor rupt
] >
Ġ elli
Ġsh ar
S printf
ic ans
Un expected
ĠSup pose
) }.
ra ise
Ġauthor ization
Ġ" ")
h ang
Ġli ability
C orn
H ER
Ġp ond
Ġp arsing
18 59
ĠF R
Ġatt achment
on aut
ĠPer th
pay ment
Ġg ymn
cc c
Ġaccommod ation
g age
ĠP rec
ĠF ighter
Ġnerv ous
ang ered
tok ens
. $$
ĠMc Donald
ĠF iles
um bs
edd ings
ĠP ool
Ġsecre ts
Ġ ^{
14 1
Ġnew er
Ġconscious ness
Ġgener ators
Ġfear s
Ġrenew able
(" -
anc o
ĠSu ite
D ark
Ġg a
E lem
Ġa er
re ts
A ge
Ġstruct ured
Read Only
B F
c atalog
APIENTRY P
ĠF lying
ĠLat ino
ĠGrow th
Ġd os
mod ern
ĠT iger
print s
> ');
L if
Ġhash Code
Ġpick ing
ill on
us a
ĠCab inet
ĠFour th
ĠVo ivodeship
Ġannoun ces
Ġincorpor ate
P ing
Ġ( ).
ide a
gr ades
I LED
ĠM BA
Ġcommand ed
Ġtest imony
* >
ke es
Ġerect ed
per formance
N F
T oggle
p ared
Ġexpect ing
pol it
ĠRem ote
ĠB anks
Ġconfer ences
ĠPar alymp
les h
ĠArgent ine
cri bers
ĠT D
ad vant
ĠBy z
Dec ode
aw i
Ġval ued
T GA
Cal ifornia
* .
Ġterr ain
Ġc ant
Ġr s
Ch ief
h ydro
ir teen
preced ented
ott ing
ĠRh ode
ĠCris is
ĠCD C
Ġcl imb
Writ ten
sche me
D J
bad ge
à ¹
Ġret rieved
"> /
Ġmark ers
Over lay
Ġillust rate
AT T
Mod ules
Ġtim eline
ant om
ĠC ert
Ð Ł
ap prop
ity Engine
ish ers
ĠR ol
Ġdesign ation
Ġkid n
Ġhous ed
Ġreb uilt
re dd
ĠEr nest
we i
Ġcust ody
ĠArch bishop
ĠCong o
Ġg ifts
Ġform ul
ĠR out
av atar
ĠPro blem
ject ure
ĠTrans form
Ġfor ty
k ubernetes
Ġdynam ical
Ġbl end
ĠCall ed
Ġrenew ed
Ġid s
CON NE
Ġgirl friend
uis ine
Ġch icken
å °
ĠL etters
the mes
m achine
ĠD uncan
ari ate
Hen ry
v r
Ġprest igious
Ġtechn ological
it ary
P ython
ĠD as
ĠL ives
Ġqu ark
Ġeff icacy
HO ST
Ġpublish ers
d h
Ġment ions
p ent
Ġf reed
ĠEconom y
' +
Ġreason ing
pro blem
n ational
ĠIndian apolis
um ph
Ġenc oder
m and
ĠCh anges
Ġdir ty
am mat
Ġwork flow
ĠEll is
St eve
F IL
ĠPot ter
Ġsophistic ated
w m
Ġun safe
log ic
LE VEL
Ġmist akes
K im
ĠS aw
ĠR an
nt on
ĉĉĉĉĉĉ Ċ
c odes
d ro
50 1
b ower
Ġhe aven
Ġpost er
Ġinteg rate
Ġcert ification
Ġsac red
oy age
en burg
Ġg aps
am as
ĠH us
ĠRes et
Ġless on
Ġther ap
ĠSalv ador
Ġlocomot ives
Lou is
g iving
ĠL IC
ĠRead er
ĠPop ular
Ġtrav elled
Ġrel atives
Ġlist ings
All owed
ĠN ine
ĠE cuador
D ER
ĠVol unte
h ours
ĠH AVE
V IS
ĠPalest ine
b read
Ġdr unk
ĠValue Error
ur ated
ĠD y
ov sky
g ro
let ing
r ab
d type
Tr ump
ĠAn im
3 80
constr aint
S ix
m ot
Ġe uro
ĠGL float
Ġf ights
Ġch ore
OP EN
P K
ĠHit ler
ĠB uilt
à¤ °
W D
ĠC ork
Ġt ired
f v
Ġout s
ĠBudd h
Ġoccas ional
ne um
Ġpropag ation
k al
Ġleg ally
Ġpress ed
Cap acity
Ġtr apped
Ġanalyt ics
Ġselect ing
l ar
15 8
Ġsk etch
Ph ysical
product s
Ġmem oir
0000 000
Ġveter ans
Ġtrans mitted
ĠExhib ition
Ġ. /
Ġgl uc
cr im
Ġconnect ivity
Ġdemonstr ation
ex ist
Ġ# #
ĠStand ards
Ð ³
26 4
Ġhand ful
ĠJ ets
Ġtr ademark
z ier
comp act
Ġs q
Ġ' ../
ĠS part
ĠS chema
ĠK or
Def unct
Ġtreat y
m ime
ed ges
Ġ\ ,\
Ġthere after
!! !
R out
Ġ' </
L ee
is en
Ġn m
res pect
Ġr ay
Ġsever ely
organ ization
ĠW end
ec a
und ers
Comp any
PRO TO
ĠHen ri
ro tt
ĠRest aur
Dim ension
D evelopment
vel t
ĠSh ir
Ġload er
^* (
ĠMichel le
ĠGe off
ĠDe uts
ĠBr andon
Ġgame play
we ather
Ġra ises
t ick
Ġres ist
View s
B log
Ġb er
con struction
Ġco oper
ĠPro b
Ġreloc ated
Ġpros per
O rientation
P rem
T ick
} ~
is ible
Ġbe ings
C a
Sub mit
Ġdrink s
Ġpredecess or
ĠThe me
ĠCl are
() `
um bo
ĠR ush
Ġred shift
Ch at
Ġoblig ations
Ġaux iliary
ĠL or
c ook
d ead
S in
Ġcriter ion
Ġutil ized
Ġfar mer
J s
Abs olute
Ġb ubble
Pro ducer
sup erv
Cl ip
0 100
Ġcomp elling
ĠHe ights
n ol
Ä ħ
est yle
18 58
any on
ĠTour ism
pe st
Ġdel ays
Â «
ĠDirect ors
Ġneighbour hood
st ead
Ġwis dom
ific ant
Ġche ese
Ġcur ious
ĠB ened
ĠDi ocese
Ġcan al
at em
}} =
re b
Ġcontinu ity
en i
ĠInt roduction
ĠGrad uate
Ġpolar ization
ĠS afe
FO RE
ĠCoal ition
ĠF ut
Ġst ones
Ġplan ets
ĠB lo
thread s
sk a
ĠD ialog
ing ing
rit is
Ġ} .
Ġunsuccess ful
G reg
it ic
2004 10
ĠS Ã£o
$ &
ine ar
Em itter
( ",
J eff
ter min
re ject
Ġn urse
x ref
M icro
art icles
sh ake
IN LINE
comp iled
ĠKaz akh
av o
govern ment
An swer
ĠDav ies
Ver b
Ġdef ended
Comp anies
oca ust
Ġkil ometers
Ġh i
g irl
Ġenc rypted
Ġcell ular
Ġgod s
ĠN ATO
16 7
b uffers
ĠGener ic
ch r
Ġcomb ines
l r
Ġg am
Ã¶ n
ĠĠĠĠĠĠĠĠĠĠĠĠĠĠĠĠĠĠĠĠĠĠĠĠĠĠĠĠĠĠĠĠ ĠĠĠĠĠĠĠĠĠĠĠĠ
ammat ory
17 2
l uc
ĠF ul
Sm art
Ġs ulf
ĠL iv
ĠK om
15 9
++ ++
Ġtr aces
Ġm aid
^{ (\
Any Ref
an mar
ĠÃ ¢
Ġsus cept
ac ements
cl ide
it ud
uch y
Ù İ
let te
Ġtre ating
Ġlimit ation
Ġr ifle
ĠÎ ±
M argin
ĠCh ase
type param
ij a
25 9
ĠRe id
ĠEthiop ia
Ġmut ation
Vert ical
;\ ;\
Ġtr ails
DE VICE
Ġce iling
ĠO micron
Ġn od
ol ith
ĠP ir
ĠO bs
ĠG y
arr ass
is Array
âĢ ²
ĠF ergus
Ġm k
ĠG E
15 3
Event Handler
Ġanalyt ical
Ġr ush
co res
Ġpredominant ly
! ,
Ġserial ized
Ġstud ios
Hor izontal
Inv oke
r ator
æ ī
ĠE t
ĠIn cre
che wan
b uck
ĠG amb
Ġfin ancing
Ġpropag anda
st ones
ĠDev on
consc ious
V ers
um ably
ĠTr igger
S us
Th rows
Ġresign ation
Ġn est
Ir ish
[ ];
ST EM
ĠC ec
abs olute
Lear n
ĠR he
Ġdon ation
ĠPublic ations
1 200
R eq
Ġ/ .
; ]
ersh ire
OD Y
az ar
Fr ag
oc he
ĠTre k
ĠH appy
IN PUT
Ġsong writer
Ġaud it
Ġjud icial
Ġdr ift
Ġastr onom
ĠM T
y arn
mar shal
Ġcom plications
Ġocc urrence
Ġspect acular
art en
Ġt empl
ĠH P
Ġatmosph eric
Th ose
ĠW ald
ĠA ub
M Q
Ġre vel
idd ing
ĠShe ffield
ĠMult iple
=" //
ĠF ashion
ĠA id
Ġc emetery
Ð½ Ñĭ
jb oss
Co ins
S and
Ġon click
ĠRena issance
Ġunder go
Com ments
ĠPatri ots
Ġb ol
20 6
Ġb orough
Ġeth ical
Ġmot ivation
Ġpup ils
Sc ience
Cl osed
ĠEngine ers
C odes
al in
em ale
Ġpitch er
Ġviol ations
( @"
---- --
Ġsub urb
mon itor
Ġident ifies
conf irmed
Ġre open
ĠP orter
Ġs our
Ġwe aken
Ar n
Ġgrad uation
ĠSpec ifically
22 2
Ġworld s
Ġqual ities
x l
ed o
Ġa u
Ġcontext s
Ġprogress ion
B ot
const ants
Ġinterview ed
Ġm aj
ĠA chiev
Ġo mitted
ron ics
Ġhon ored
ĠGrand e
ĠY ES
Ġpl ugins
ast ore
ĠAss essment
Ġacceler ation
Ġp ension
im ize
end ering
Ġpro found
ĠPaul o
av ian
child node
^{ *
Ġutil ize
Ġend orse
od ia
Ġw av
Ġ[ #
R oad
Ġemp ire
bal ance
Ġartifact s
ĠD ocker
ok ia
ĠĠĠĠĠĠĠĠ čĊ
em e
Ġpreced ing
ĠMoroc co
ĠMe et
Ġtrans parency
ĠAc cept
ian e
Ġle ather
ĠV ern
pro port
Ġwitness es
ĠG B
Ġroll ed
ĠCh arg
vis ions
. \\
ou x
ĠPear l
Ġb ones
Ġresp ir
Ġround ed
im i
eg en
ĠA pi
Ġlegisl ature
Ġarg v
Ġs ung
Comp ilation
Ġce ased
ĠH ait
SE C
Ġcirc ulation
ĠProgram s
ĠSus sex
capt ure
c id
F ACE
Ġin quiry
ur ious
open api
Ġ$\ {\
ĠLe ic
ĠF loyd
ĠTest ing
ĠĠĠĠĠĠĠĠĠĠĠĠĠĠĠĠĠĠĠĠĠĠĠĠĠĠĠĠĠĠĠĠ ĠĠĠĠĠĠĠĠĠĠĠĠĠĠĠĠĠĠĠĠĠĠĠ
Ġdepos its
Ġa pt
leg end
Ð½ Ð¾
ĠG ir
Ġtr act
n orth
Ġt ender
se ver
ch ief
17 6
get Default
ĠĠĠĠ ĉ
F ood
Ġtransform ations
Ġdens ities
ĠCond ition
: =\
g gle
Ã µ
Ġok ay
ar ium
amp ire
ĠGr iff
ĠH ass
H i
S hip
Ġg fx
Ġproduct ivity
Ġpione er
Ġauthent ic
ed uc
ur bed
Ġr ivals
Ġb other
Ġ ÑĤ
ĠP ere
R M
Ġpr icing
Ġstand ings
Link s
Ġdisestabl ished
ĠK arn
ĠW inn
ant o
6 50
ĠU C
Ġpl ural
NAME SPACE
Ġl ig
Operation Exception
verb ose
å į
Ġin complete
Pers istent
Ġinv ented
orient ation
H ist
id ually
ĠT all
Ġ" ./
ĠCurt is
ĠNott ingham
; -
hab ited
intend ent
ĠJama ica
lect ric
b ars
oy a
Ġcre ativity
ul atory
ĠR M
Ch arts
Ġenjoy ing
Alloc ator
ĠIll ust
ll a
By Name
Ġby pass
Ġeth ics
ĠWrit ers
ĠP ub
Ġk g
Ġpost pon
Ġpen et
i ary
ĠA way
Ġup dating
Ġpurs uit
f urt
Ġm eter
ĠCl uster
Ġsmart phone
ĠBrun swick
15 4
TO DO
ĠKer ala
Ġd upl
Ġwrit ings
z ig
Ġc ord
L os
op eng
Ġcl ustering
L atest
ar ations
im on
ĠDr iver
ĠW or
Ġb ail
ew ard
Ġ} ));
18 5
Ġpassion ate
DEF IN
r int
ĠL il
n ear
Ġbe et
qu ick
ort ium
ĠDis c
Ġstake holders
Ġinv ention
Or d
Ġinvest ing
Ġathlet ic
V ictor
r ice
30 1
Ġl ane
Cl ause
empl ar
ĠG ive
ĠB B
GL API
ath a
ĠS ig
ĠInd ies
ĠCal endar
ĠWy oming
Ġsh ame
ft s
: **
Arch ive
Ġf d
ose velt
i ago
is cher
Ġsett lers
Initial ize
F s
Ġc s
ĠKnow ledge
od b
ĠBO OL
ĠPsych ology
K O
*} [
ĠBre nt
v p
Ġbel oved
ĠBl u
18 55
ĠAll ah
Ġrac ist
ibl ical
ĠL ayout
vers ions
Ġsegment ation
Ġinc umbent
med skip
Z end
ĠP I
put es
Sw ift
ĠMyst ery
Ġc oding
omet own
ib a
Ġsw ift
ext ends
(" [
Tag ged
Ġconsult ation
ĠPiper TGA
18 54
by e
ĠBut ton
Input s
Ġconsum ed
P et
oc ate
Ðµ Ð»
ĠChe v
Ð½ Ð¸
ĠEl se
Ġmethod ology
Ġpass phrase
it les
Ġnational ly
PL ICATION
æĸ ĩ
ĠS of
comm ands
16 2
l iter
Track ing
Sign al
iz ational
ĠPr ague
Ġscatter ed
S und
Ġg reet
os ure
Ġab brev
Ġfro zen
Ph ys
T ARGET
sh rink
ĠC ities
Ġun stable
parent s
Ġbox ing
ĠS ens
ĠP am
ĠS G
H ey
k k
sk in
Ġdis rupt
an imate
Ġcast ing
ĠMax well
Ġsh irt
22 4
Ġre cept
' }),
kin son
od ic
ĠÐ ¼
h on
ĠS ic
Ġmidfield er
Ġto b
Ġan not
ĠVlad imir
HE D
r ac
H H
andid ates
y ellow
Ġa ster
ĠLuc y
Ġsuperv ision
duc ible
CP U
Ġaltern atives
ĠEn sure
Ġless er
oc ene
Ġdevelop s
Ġqual ification
ĠZ imbabwe
Ġir regular
itt est
charg ed
ĠBo eing
ob ar
Not ify
ĠN u
ĠSo ft
Ġrid icul
NO WN
Ġdescend ants
$ {\
Ġch lor
A IN
ĠML B
ĠÃ ģ
il iation
ĠR uby
Ġoffer ings
ĠL it
Ġgu itars
Bo ard
ĠWars aw
valid ator
Ġprotect ive
Ġex tern
Ġj oke
Type Name
NO SCRIPT
ĠRichard son
Ġsam pled
load s
Nd Ex
æ ł
Ġcelebr ity
Ġcivil ians
Ġar ithmetic
ra j
ĠH i
ĠSand ers
ull ah
ĠPal m
Ġemb ark
A WS
14 2
CON F
or ate
Ġlink ing
Ġun used
ĠS ql
ĠP ush
NO TE
ĠCy prus
TR ACT
Ġwitness ed
ĠCont roller
Ġbatter ies
x d
ĠMorr ison
Ġse al
NUM BER
ip ment
ĠPun jab
ag ne
ĠDev il
Ġp b
Ġgen ome
Vari ables
5 50
act ing
Ġcons erv
ĠCh uck
T OP
Ġwel comed
ĠBen ef
ĠV R
Contin ue
spec ified
ĠEd it
^* \
Ġm akers
Il legal
art a
i eg
ĠH err
ĠOut standing
Ġfinal e
N ear
Ġan ch
30 8
ĠC V
ĠMin neapolis
Ġcontribut or
Ġconfirm ation
ĠC ool
Ġal phabet
Ġme als
le ys
Ġparticip ant
Ġrel uct
Ġmut ations
Ġaffili ate
à ®
Work ing
V an
pre tty
Ġflood ing
ĠR anch
not ag
co ins
Ú ©
ob ic
car ousel
Ġspl itting
Ġassert ion
ĠBrad ley
ĠBou levard
ĠB ee
ĠB ever
W ood
ph ot
IF Y
Ġbrows ers
std out
ĠBr ussels
ex c
ĠAs ync
Ġneutr ino
B IND
Ġdiscuss es
Further more
L iber
get Property
Ġal ike
ĠJ et
s ound
el ong
equ ations
ST O
U INT
h m
Ġpar as
M il
d z
ĠL ar
Ġfound ers
Ġplay wright
Ġref use
Ġto ggle
mys ql
× Ķ
ol an
ĠAl lied
control s
Is Null
Ġenzym e
C ov
ĠM IN
Im plicit
per form
Build ing
Process ing
Ġ ell
ĠS B
ĠSh ore
Ġsc rew
Ġinter im
p ark
Ġign or
ĠT itan
ib an
Ġout lets
DO CK
Ġreg ards
Ġlic ence
Ġluminos ity
ĠO z
na issance
Ġint im
font s
ĠNE W
S ender
al bum
ĠH aven
( -\
Ġbre ach
Ġpri ests
Red irect
ĠI v
F un
x c
K A
Ġf are
Ġ ug
inner HTML
Tool bar
/ %
V oid
ĠS ul
p romise
ĠP iano
ĠPart icip
col m
M otion
ab lo
act ivate
ern er
ĠIs le
if a
em i
N il
ĠD ale
ĠModel s
Perm alink
ĠO w
ra is
Ġl icenses
ĠAl ways
Ġdirect ive
Ġbro ker
p es
umber land
l ord
Ġreg ener
Ġsear ches
ĠR ut
Ġavoid ed
C s
ar is
ĠS ample
ĠL ooks
Ġnetwork ing
url ing
ĠHind i
m itt
Ġsl ower
ç ½
Ġtrans cript
song writer
duc ing
C ong
Ġcol lector
P ak
T er
ĠF ri
ĠCare er
f illed
ĠAd rian
Open Tl
/ $
UL AR
cknow led
it zer
UM N
erm ined
Ġent ang
ĠM aps
Ġreve aling
ĠS qu
Ġdiagram s
tr ained
he y
ĠN J
Ġde alt
j in
ĠArm strong
l is
ch anging
Ġse am
role um
Ġreb ounds
Ġinn ocent
Ġcha os
ac i
Ġprot agonist
Ġjoint ly
Ġrevolution ary
J ean
ex press
Ġcompr ised
Ġdec imal
itor ies
H int
n as
ĠD ow
ĠR ather
Ġphenomen a
L es
brit ies
ĠB udget
Ġre ass
ĠB il
Ġm eg
Ġ\ !
Ġdest inations
ĠB U
Ġneighborhood s
Ġann oy
Ġheart s
æ Ŀ
E th
Ġalt itude
ĠH ir
ER N
Ġd ign
Draw able
Ġoptim ized
Max imum
D utch
ft en
Per formance
A RE
avor ite
ĠGlob e
Ġun precedented
ID s
ĠH off
ĠCh ad
Ġkick ed
Cl one
ĠFr anÃ§
Ġimpro ves
Ġh ind
de ploy
ĠReb ecca
CC CC
Ġb ags
ĠT ypes
B on
Ġmo ist
Ġaw s
Ġb ats
Ġg amb
ĠCorpor ate
st mt
Princ ipal
18 56
Ġbow l
Rel ations
Ġpe aceful
ĠToy ota
ter ms
Ġ iv
Ġde ferred
Ġtra uma
R G
Ġp el
arn ess
Ġlog ged
ou bt
Ġperm its
É Ļ
ĠS leep
ĠT rial
T en
ism atch
Ġadministr ator
Pol ice
focus ed
ne z
epend ing
Initial ized
Ġadvoc acy
ros so
ĠÅ ł
ud s
Ġsome body
GEN ER
"> "
Ġp ap
Inv ocation
ĠYO U
Ġvol leyball
ĠT ouch
Ġdisc overs
ĠP ART
con tract
Ġwithdraw al
ĠN I
Ġend e
å® ļ
Ġt ears
Ġcancel ed
16 1
Un lock
c ats
ĠG ates
Ġcor related
Ġappro aching
> -
Ġsuggest ion
Ġamb assador
che l
Ġpartnership s
Î ²
Ġt ribut
re ne
ĠShe ll
Ġprox imity
ĠAn imation
Ġsort s
Ġtrem end
< >(
k el
Ġs iblings
Ġvol atile
Ġadjust ment
Ġemer ge
Ġten ant
ĠCoun ter
Ġpull ing
Ġretail ers
ãĥ ³
v t
Ġinc idence
ĠBor is
;& #
Ġs ailing
St udio
MA KE
cor ollary
C ro
EX P
t lement
amp ing
Q UE
ici ary
Ġse ized
Debug ger
Ġcul min
Ġamb itious
oxy gen
Ġpack aging
ĠCl if
ĠCar bon
ĠRev ival
a ude
ĠMig uel
Ġadv isor
pl aced
ĠCO MP
ĠB od
Ġperturb ation
m are
r us
ĠDur ham
Ġcycl ing
Ġhelic opter
ĠAg es
Ġprompt ed
Ġup graded
En code
sm ith
Ġb ishops
ĠT anz
stan bul
le ston
leq slant
Ġp owder
ĠE g
Ġc otton
ĠFor ward
Trans l
Ġcontinu um
R ivers
ĠW rap
D MA
act ical
ĠT at
Ġmet ropolitan
year s
ĠLyn n
EN S
Ġcorpor ations
Ġguarant ees
Ex change
anc a
Ġcor relations
B AD
ĠIss ues
p referred
ĠE E
ĠTun is
ĠExcell ence
r ases
ĠSc ore
St e
Ġdisp ersion
L y
Ġacc us
ST M
( <
Ġwithd rew
Ù ģ
Ġstrong est
in ers
Ġlast ing
Ġpl ug
el ian
ĠTreas ury
Ġp ag
W O
Pr iv
ĠScot ia
W all
Ġcl ine
ĠRe ich
Ġrob ots
Ġintr insic
ne ys
Ġm u
Ġd type
os opher
ĠIndones ian
"> ,</
C ut
ĠH RESULT
Ġpro position
ĠN amed
Ġreven ge
> ';
[] )
ĠHol iday
open hagen
ĠLIC ENSE
ĠSche dule
enti eth
Ġpres ervation
Ġcelebr ating
g ap
ĠS U
Ġsk illed
Ġcomplet es
tri angle
* \
Ġback ward
Ext ended
Ġt oured
00 3
Ġestim ator
ĠIn spector
Ġhand lers
Ġpron ounced
ĠAP Is
ĠJul ie
Ġrout ing
Ġclin ic
S ys
ĠDemocr acy
lect ic
ĠM ile
ĠTw enty
j k
am ar
Ġlo ops
C arl
ĠB elf
ĠN ortheast
ace y
Ġe ars
ĠWest minster
T CP
ĠB L
ĠHill ary
Ġcre ature
long rightarrow
sche dule
ĠEm irates
ĠIndust ries
Ġwar fare
Ġdram atically
Ġdial ect
Ġh iring
ex e
LE ASE
ĠC anyon
ac ional
Ġdis hes
Ġprem ises
ĠHamb urg
bold math
clide an
Ġw it
t elling
GP KG
B s
Ġtri bal
USE D
ĠViet namese
ĠStock holm
op a
/ ************************************************************************
Ġdesign ing
mid rule
g res
Over flow
Ġemb arrass
Ġunn ecessary
Ġrul er
ĠÂ «
ĠT C
é ĩ
G UI
Ġc ater
Ġrefer endum
Tag Name
Reg ex
pred ict
Observ able
Ġ" ");
back slash
% ).
(( (
ĠHy per
ĠB av
St ill
ĠD awn
el n
ĠC rist
ĠLa unch
Ġunemploy ment
ĠC rystal
Ġnick name
op ath
=' #
Ġindic ation
HEAD ER
Ġem peror
ĠLeg acy
ĠCOL SPAN
ter bury
gr avity
g ae
P icture
Ġl ar
High light
F LOAT
rec ords
ĠM old
op r
mem Item
ak o
18 7
Ġll vm
-- ;
Ġs ne
Ġw reck
2 32
s al
ĠNY C
Ġspons or
ĠH ours
Ġsp otted
ha o
f ollow
ĠF act
Ġbet ray
Default s
Ġoptim ize
Ġul tra
ĠD ES
Ġvot er
is ive
Ġkn ife
ĠB S
ĠL ik
Ġeval uating
Ġunve iled
ĠEncycl opedia
ĠIm ag
ĠM emph
ĠFem ale
Ġo ps
Ġcar riers
l ap
ĠS ame
Ġn u
Ġdepart ed
ĠAgric ultural
To o
Ġf et
Ġpre y
ĠAuth ors
Ġel dest
ĠAnn iversary
Ġdraw ings
ĠL ED
Ġnull able
Ġrespect ed
Ġsem if
Ġres umed
ĠTrans fer
il io
ĠR iv
ĠSe lection
N atural
ĠElect ronic
Doc s
ĠUn known
Iss ue
ĠN uclear
arth y
Football ers
ĠL IMIT
Ġfe ver
=" ./
ĠL odge
Ġam end
Ġspher ical
int ent
Film ography
on er
ĠMar shal
inter faces
Ġprivile ge
ĠArt illery
"> #
ĠKenn eth
comp any
ats u
Ġstation ary
Ġcoord inator
B uilt
left arrow
ĠL ip
Ġi i
Ġspecim ens
ĠW ool
p ick
Ġh azard
B a
ĠAngl ican
Ġpass ive
m ine
Ġgr at
has OwnProperty
F und
Ġalgebra ic
Ġimag ination
Ġca ution
ĠLegisl ature
Ġk ings
18 51
Ġdown stream
ĠProtest ant
) (\
r ag
Ġland mark
que z
Ġtransl ations
ĠSD K
ĠM M
Ġinter change
Ġp unch
ĠPan ama
K HR
Ġpr ince
Ġsubdiv ision
by ter
Ġsign atures
Ġfeas ible
T witter
Ġdes k
17 4
Ġphys icians
AN S
Ġbes ides
| ^{
ĠTrans it
ĠTri ple
v acc
ĠS ure
ret ch
ne ed
em in
ĠS ed
ĠC WE
ĠAb original
Ġident ities
rr or
Ġ\ |\
pl aces
ĠT rip
Ġsur pass
PAR AMETER
STAT IC
v d
tr as
Ġtrans fers
elect ric
on so
ĠSim pson
CK ET
Ġn ons
ĠT ales
Ġ{ })
vart heta
ee per
ĠAct ress
u pe
Ġj er
Ġdis par
an alytics
Ġquant itative
v id
18 49
Ġn erve
ex ceptions
ĠHealth care
Ġquestion ed
ĠMic he
ãĢĤ </
[ _
Ġag gress
ĠF est
Ġinstit ute
ĠJoh annes
ĠRo osevelt
Serial izable
Ġassemb led
Ġvac ation
17 7
ĠMemph is
sol id
um ann
ĠH ack
rele vant
ĠL t
Ġphil anth
Ġover night
h ub
o ji
Ġh oney
D AT
ĠA ch
M ON
Prot os
N BC
ĠEll en
Ġb is
æ İ
In side
Ġar ising
Ġsacr ifice
Ġr ises
Ġad her
ĠM atter
ĠArg s
Ġdeprec ated
) ^\
/ ?
Ġbreak down
} `
ĠMan ila
16 4
M u
Ġv tk
Ġcorpor ation
as List
h in
Ġst ays
ĠBos nia
Ġt ales
Ġdiff ers
Ġinter ventions
Ġmark ing
ris k
Ġ( .
Ġem igrants
Pac ific
The ir
l xml
Ġto ile
. &
ĠNap ole
Ġto y
Ġcomm od
E nergy
18 52
Ġt a
With in
val ued
ĠR F
Col umb
Ġg ly
it ize
ĠJ ourney
ath i
Ġpoll ing
Ġout lined
Ġsl avery
ĠAndrew s
æ ³
CE P
D X
Start ed
cal c
ĠAn alytics
ĠCont est
Ġlack ing
n or
ĠE c
itro gen
um en
ĠEth ics
ĠCom pute
ĠJo el
y u
19 3
oid al
rot ate
ist on
por al
ĠMan it
ĠS it
Ġl oving
ĠAd vert
ro us
Ġ ):
ol ics
ĠC yr
Ġgate way
Res olution
bo at
Ġelectron ics
Ġ' {
th reshold
Ġconv ince
read only
Ġp unct
pe x
,... ,
ĠCal gary
? .
| $
ĠA x
A sh
ble ms
Byte Array
Ġrecru ited
ĠD S
ĠCh in
ys on
Ġfre ight
$. }
ĠM ental
f ee
ig ating
ĠPresident ial
assert False
ĉĉĉĉĉ Ċ
Ġrem ix
for ge
ĠBarn es
I reland
is le
W as
Ġm aker
ĠF LA
Ġsubmar ine
18 2
Ġpolynomial s
K en
l if
il ion
ĠTre nd
Ġprohib ited
20 9
ĠD ifferent
21 4
H op
ĠGen eva
ĠD MA
ĠStep han
be am
Ġ( {
sim ilar
so lete
Ġprior ities
Ġon set
Ġemb od
ĠLou ise
Ġprov ing
Ġhapp iness
ĠC IA
ĠCoun sel
atern ity
Ep isode
ç ±
ON LY
23 5
Ġgen res
U i
Aut om
Ġsatisf action
d istrict
ĠHend erson
Ġclean up
Ġtob acco
ik er
b az
ĠAdvent ures
= </
cur r
ram ento
Ġconsider ations
ĠH ale
Ġreg ulated
sl ug
get Elements
Ġsever ity
C ached
bal ena
ad apt
Ġview er
Ag ain
ĠPl ate
ĠReg ulations
ĠBulg arian
I o
J ud
He art
Ġint ensive
Ġband width
Ġp a
resource GroupName
Ġgram mar
Ġbuy ers
c ery
Ġspeed test
ĠPrinc eton
ĠS hen
Con struction
Ġch ocolate
ĠEv olution
ĠRh odes
ĠOriginal ly
Ġnew est
n r
ĠF T
Ġacadem y
Ġentert aining
Ġfin est
sw ift
ĠEvent ually
ch rom
ĠD ynamic
ĠEx ternal
> ";
Ġa erial
tt o
Ġconcept ual
ĠH od
ĠK end
ĠSp ark
il ogy
Ġ( {\
ĠI sh
ĠDi agnostic
Ġcitizens hip
Ġconst expr
Ġconstit ute
ĠF oo
Ġb reat
Ġfil ing
ge om
Typ ed
ĠLeg ion
x r
18 47
Ch icago
Ġinvest or
ĠX X
Ġpoly mer
ĠOcc up
SE CON
Ġrap per
Ġex empt
ĠD istribution
Ġse q
Ġpur ple
Ġdis band
Ġcap ac
Ġfl ip
Ġrespir atory
ĠC ritical
ĠInt o
ĠH ull
b ours
Ġiter ate
h int
Ġpen alties
Ġl over
Ġun t
HO W
Ġpit ched
ĠRobert son
Ġsleep ing
U kr
Ġthreat ening
Ġavoid ing
ĠCarol ine
ĠSol id
Ġdispl acement
Ġmer c
Ġw ages
ĠE S
Ġper f
Ġden y
Ġnovel ist
communic ations
Ġhom ogeneous
Ġh orm
RE L
Ġdepos it
j q
Ġintr ig
20 7
ĠPat ients
Ġdark ness
ĠEvery one
mont on
& =\
is che
Ind ices
Ġcle ver
Ġpoll s
iem ann
T alk
C LO
Ġpian ist
ĠK ang
ĠCl aire
ĠColl abor
ĠAndre a
ĠM ang
Ar c
J er
ĉ ĠĠĠĠĠĠĠĠĠĠĠ
Ġacc idents
ĠEst abl
ĠT ow
-------- -
ĠType Error
Ġcol ored
à¥ ĩ
k ok
ĠT error
Ġyour s
Ġsp are
ĠM ale
ĠERR OR
get Logger
ĠV otes
Ġspec ifying
ĠSaskat chewan
ment ation
Ġsc aled
un al
pl ays
Ġarg uing
LE FT
Ġexcell ence
es ar
ĠW ords
Ġes cal
Ġcrick eter
Ġflo ors
Ap is
ĠFif th
ĠF resh
Ġcollabor ated
30 2
Comm ands
du al
le ad
Ġan omal
ĠA SC
L atin
ĠIn j
ĠD uration
Ġ\ [
4 000
C ref
Dis able
So ftware
am on
ours es
econom ic
ĠCon sequently
su ite
ote chn
Ġcapt ures
3 40
Ġpers pectives
M att
Ġd f
ount ers
ĠGib son
Ġ ,\
AN GE
ĠCorn wall
Ġspokes man
Ġsl ots
Ġneut ron
Q R
et ype
ĠV II
Ġmanufact ure
ĠStart ing
ĠE sc
Ġbomb ing
zh ou
Ġsurg ical
ĠArmen ia
Ġcompar isons
Ġmemor able
Ġam endment
author ized
Death s
Ġtorn ado
Ġaut umn
ĠP or
lig a
ATTR IBUTE
ĠPoint s
Particip ant
ĠSol omon
ĠAbd ul
Dis patch
Ġhonor ary
c ategor
ĠSom erset
Ġaccording ly
Ġmicro sc
Ġclim bing
Ġindiv idually
ĠSte am
Ġorth ogonal
Con struct
Ġd uplicate
integ ration
c ritical
ur an
/ ******/
ch ard
Ġop posing
Ġrent al
ĠArch ae
t om
9 78
Ġcrit ically
Ġde grad
Ġcompress ed
hen e
Ġc and
os ome
Ġun fold
l ore
os ion
Ġtrans ported
Ġbas in
ĠR ate
Ġcon e
ĠSet ting
ĠAp plications
A ws
Ġ! (
Ġtable ts
ĠD NS
ĠAll ow
Ġadvent ures
Ġqu arters
ĠCa uc
Ġb eds
Polit ics
l ayers
Attr s
ÐµÐ ´
ĠJosh ua
)} (\
pl oma
rest ore
request s
Ġo d
ĠGar cia
XML Schema
Ġess ays
ĠRel igion
Ġinit With
Ġtong ue
T ra
il inx
Ġcl ay
ĠBi ography
Ġreg isters
Ġcontin uation
S el
Ġmot iv
Ġinter fer
d ater
ĠTes la
ĠB CE
ĠR oth
ĠH urricane
ĠJ unction
v ance
oun ces
ĠV e
ST D
tr on
Ġin struct
ĠMal ay
Ġcontin ent
Ġreven ues
Ġterm inated
Null Exception
ORM AL
OP ER
] ));
ĠĠĠĠĠĠĠĠĠĠĠĠĠĠĠĠĠĠĠĠĠĠĠĠĠĠĠĠĠĠĠĠ ĠĠĠĠĠĠĠĠĠĠĠĠĠ
Ġembr ace
ĠApp ly
ĠE L
Ġw ise
ud ed
Ġgo og
æĺ ¯
P ull
ĠP ok
Ġrank ings
Writ ers
=" <?
ĠH our
Ġreason ably
ĠB in
el ist
Fr iday
ĠSaf ari
Ġtou ched
Ġmon arch
sm ooth
cred entials
ĠIn g
o op
Ġrender er
h ouses
Ġuniqu ely
um at
char set
ĠJac ques
ĠÐ ±
K now
ĠM OD
itt en
at an
Ġ[ -
Ġir r
os i
ĠO ber
Ġtrans verse
Json Property
P a
Gr ant
Ġd ancer
Ġun changed
Ġh ooks
ĠSub ject
N othing
dr ive
ä¸ ª
Ġnon profit
ĠInter ior
Ġtr ailing
pers istence
B rien
ed ar
ĠD WORD
idel ity
W hether
Ġdis pers
Ġprob able
Ġcounter part
Ġp t
($ _
Ġcomed ian
t alk
or b
Res olve
R B
urren cies
ĠP engu
fin ish
El se
AT IVE
Ġinv ite
ĠSc ene
Ġin ch
ĠAd ult
ĠB UT
Ġwh is
aj i
Ġo w
ĠBul let
ĠJes se
PI O
N s
ĠV iv
Ġliv est
ans on
alth ough
ĠDom ain
Ġdiss ip
Ġtheat rical
Ind ividual
Ġimpact ed
Ġprotest ers
Ġshow case
ĠĠĠĠĠĠĠĠĠĠĠĠĠĠĠĠĠĠĠĠĠĠĠĠĠĠĠĠĠĠĠĠ ĠĠĠĠĠĠĠĠĠĠĠĠĠĠ
Ġmur ders
Ġis set
Ġper ipheral
16 3
Ġcallback s
ri ages
Ġcur r
all i
Ġse p
Ġworth y
ĠIraq i
W F
V k
Ġprob abilities
Ġdes erve
ĠF eder
Î ¯
Dis covery
L iter
Ġr am
ĠB row
ĠSh ared
ĠPop ulation
d ummy
ĠS TD
ol er
ĠAdd s
Ar thur
Ġmat hematic
ĠAll an
PHP Excel
Ġcho ir
ent ric
ĠN atal
Ġliter acy
ĠBurn s
Ġbes ide
A st
ĠA sp
Ġan notations
Instance Of
G I
enc oded
ĠYan kees
Z Z
ĠGe V
at ility
G ram
ĠPl aza
Ġpurch asing
R D
ann ers
itud inal
enz ie
t el
18 8
Ġil leg
inherit Doc
Ġdisappoint ed
ĠCO M
B uy
ĠMin ing
Ġgrand mother
yl on
Ġc uisine
enn ium
Ġdoc s
Ġexcess ive
] -->
tr an
WARN ING
Ġb achelor
Ġprev ents
Ġred und
l ived
Ġimp ose
ĠAr r
ĠSom ething
{ (\
Ä Ľ
18 42
Ġfilter ing
ĠB rah
Ġel astic
Ġexp end
Ġche er
ER O
C riteria
Ġobl igation
Ġv endor
Ġserv ant
ĠD rake
ĠLog an
cl osing
ĠAl leg
get Time
\! \
Ġcann abis
E OF
Ge o
Ġcontact ed
Sh op
ĠCO MM
SP I
Ġconsult ing
sh iv
Ġcontribut ors
23 1
Ġ" :
Ġm p
Ġnumber ed
Ġag ing
] ];
ĠK urt
ism iss
Ġnormal ization
Ġundert aken
ĠTrib une
se min
erm in
c out
Ġaest hetic
< '
ed ly
ew ater
comm ended
Image View
So ft
Ġdest ruct
track s
ĠCard inal
ĠLes lie
ĠM ouse
ĠW aters
Ġenc ounters
ĠMur der
Ġjump ed
R pc
Ġshe ets
NE SS
ov ina
Ch oice
riter ion
ant is
Ġloc ate
min o
Att achment
Ġtow ers
ib us
Ġqu ota
ĠBur ton
Cl imate
ĠNob el
Ġ) {
ĠCom ing
Col lector
Dependency Injection
r ina
ĠG ren
Ġch orus
CO PY
ur ally
Ġad oles
ĠCh ain
Ġbackground s
Ġtr agedy
Ġarchitect s
ĠE aster
ä ¹
ĠNetwork s
æ į
Ġle verage
op ard
30 3
le arn
ĠP OST
ĠSe q
Ad ministr
Ġlect ure
Ġadvoc ates
Ġv iable
ĠSant iago
Ġseason al
Ġdesper ate
Ġp ause
Ġtag ged
ĠGram my
Ġmed ication
AN Y
it ored
ĠEx ped
ĠBeaut y
18 3
Ġconstr ained
l c
Ġinv itation
Rel ation
ĠConfeder ate
ĠFried rich
AC CESS
Ġcoll isions
ĠCond itions
Ġillustr ations
et itive
an ical
ĠD rew
est y
ĠI con
G s
ot ics
Ġsp ite
ĠMethod ist
Ġimplement ations
re search
min imum
m esh
om aly
im ming
ĠM N
ĠR S
ĠST AT
.. ...
Ġexerc ises
38 4
U X
un til
Ġsh rink
Ġind ie
ĠIter ator
ch in
im its
ell ites
Ġcalc ium
Ġtrans cription
ĠH ern
ass o
in ja
Ġposition ed
Ġcontrad iction
en eg
Ġsimpl er
F it
][ <
Ġunder went
tab End
found ed
Ġdiss olved
ĠCon v
ĠBr ady
ĠG ross
Ġrev ival
ht ra
) <
set Value
Ġsqu ares
Ġsign aling
ĠW WE
Ġgrad uates
M aps
re ports
24 5
ir ie
ĠH ydro
in variant
ĠU tt
ĠGi ov
Ġ è
ĠM aid
bin om
Ġl ith
em bourg
c ou
ĠR um
Ġsimpl ified
ĠJ obs
e o
Ġl oses
call s
an ol
le igh
Ġbe an
Ġcons ume
e i
ç± »
B rian
av ern
Ġevolution ary
Ġrepro duce
Ġflag ship
Ġterror ism
g io
ĠFr anz
ij k
Ġabsor bed
V ote
âĢ¦ âĢ¦
ag ain
Ġlect ures
Ġkil omet
ĠL ed
ĠE DT
ĠMy anmar
ĠThrough out
Ġvocal ist
Implement ed
f u
ADD RESS
Ġcapt uring
Ġim ports
G AN
ĠH iggs
raw l
Ġdub bed
Ġsan ctions
ĠT ennis
ĠProject s
Ġinstant ly
ĠMET H
om ar
B tn
l ov
Ġf Ã¼r
ser if
Ġret ire
zyn ski
ĠK w
Ġdec oder
Ġevent ual
ĠMal ta
Ġfru its
Ġmon astery
feed back
ï¿½ ï¿½
Ġdece ased
all a
%%%%%%%% %%%%%%%%
Ġdig est
Ġs aves
ĠDr um
Ġdig its
Ġprison er
Ġknock ed
S pl
ole y
Ġopen ly
Ġvari ability
Ġd ummy
ĠD iana
ĠS ou
ĠA ires
ĠHe ader
ĠRes ort
duct or
Ġre build
Ġphys ic
ac ier
{ })
param ref
ĠQuest ions
ĠCelt ic
ĠDiv is
Ad am
Ġcontrad ict
M AT
ĠPak istani
ind ers
00 7
string ify
ocom plete
/ ,
ĠB inary
18 53
Ġpan ic
}{ }
ope z
ĠT ut
Ġst arter
ĠQ atar
C ities
B rown
term inal
inter action
com merce
ĠRoll ing
" +
Ġcontribut es
K h
ens ation
ĠSet up
ĠC openhagen
Ġapprox im
found ation
ĠV il
la unch
Ġhol y
ĠElli ott
get Current
Ġoper and
ĠH ab
o ct
ĠT S
ST REAM
DE V
ĠAp ollo
or ian
ĠR ect
Ġcharacter ization
design ated
ri ans
ĠIn struction
Ġdebut s
Cal c
Ġrain fall
Ġanalyt ic
Ġrandom ized
+ )
F inder
Ġg odd
MPL ATE
ew s
Ġorient ed
comm end
ĠMan ual
spe aking
Gu ard
ĠAmeric as
Ġlater al
Ġ& $
Y eah
Ġdis abilities
ĠBer k
C ss
Throw able
Ġm ud
own ers
Ġbi om
Ġem itted
Ġtack les
(' ../
Config ure
Ġvin yl
ĠR oh
ĠF lem
Ġp ound
Ġp index
ĠC AN
Ġdist ress
ular ity
Ġcoun cill
ĠR ise
Ġvict ories
Ġs ailed
ric ia
ro gate
ĠGr iffin
Ġparse Int
ĠB T
pher d
Ġnurs es
Ġpolit ically
Ġh ometown
ely n
Ġgu ides
Ġexp ose
Ġset Up
GR AM
ĠF ay
Ġproduct ive
ĠCroat ian
Ġt enth
Ġl t
Ġlit igation
nt hesis
Rot ation
Ġwond ering
Ġancest ors
Ġbl ast
"> '
ĠFilip ino
ĠCheck s
Ġb arg
Ġinter ven
RE C
Ġpreval ence
Ġsent iment
ĠP ars
ip ur
ph ysical
if ully
ĠS ara
ch urch
em b
Con flict
Ġtab index
Ġint imate
Ġadapt ive
Play ing
Ġneur ons
ĠEx tra
Ġplant ed
Ġf ond
Ã© g
Ġcustom s
d ie
Ġtr acing
Ġp ays
Att ach
Ġschedul er
ĠW on
ĠCar roll
K K
inter est
Ġt v
head s
ĠMc L
M X
jav ase
00 4
Ġsp ont
ĠDomin ican
Ġstom ach
associ ated
Ġc ement
Ġc af
M Y
c g
Ġann ex
h fill
Com posite
ash ire
Ġnomine e
ass is
ĠGl ou
] ",
Ġnom inal
m us
Ġt body
Exp and
amb o
ĠAdv ance
ĠWag ner
if ax
ĠR as
Ġth y
Ġv ow
Ġ$ ^{
Ġ* **
' ',
ĠF erm
Ġther apeutic
ì Ŀ
ĠS TE
Com puter
Transport ation
Ġun ited
oun ge
Ġbe aches
Ġac claimed
Loc ator
Ð° ÑĢ
Ġtouchdown s
18 46
Ġclar ity
ĠEqu ation
Ġin sects
ĠMerc ury
o qu
Ġdet erior
Fin ished
Ġthro at
o ak
Ġarch ives
G irl
}{* }{
x ff
Ġelabor ate
Ġcard inal
Ġcongress ional
ĠG ut
Ġch rome
c ards
ĠK ra
d yn
al an
ĠCom pl
Ġfl ank
iv ar
Re ports
Com bo
product ive
Ġste ering
ĠBur ke
ĠU FC
Ġsub section
field set
Ġint ro
Ġfavor able
l ane
s and
å ĩ
ĠHigh land
ĠOp port
Spec ies
T wig
As ian
host name
S on
M arg
st en
yst er
DE C
cho ose
> ("
P F
u ant
Ġarchae ological
ng th
ADD R
sh i
Ġtax p
Ġpharm ac
et z
sh aw
min or
DIS ABLE
? ,
ĠD in
SD L
div ider
Public ations
Ġin structor
16 00
is Valid
Ġ" </
Ġreflect ing
act ivated
Ġshort age
=" {
al ong
ĠG MT
ph ib
ÐµÐ ¼
Ġrec ipe
ĠUlt imate
Ġdis advant
Ġsec ular
( %
I ran
ar ag
Ġpat ches
Implement ation
S amples
Ġstr at
te in
ĠC raft
Ġsl ip
Thread s
}. }
plic a
Ġs iege
ĠS ons
Ġpractition ers
Ġm all
ĠD iet
au ce
Ġvic inity
B all
s ports
ll er
ĠLag rangian
ĠLore n
Ġ* */
17 1
j sp
ĠStrateg ic
ĠCont ribut
ĠK iss
RO P
Reduce Action
sy ntax
Ġg ra
IRT UAL
ĠL ynch
ĠW ave
ĠNav igation
G er
ĠG am
ĠGu est
Comm unes
Ġfemin ist
N EXT
text sf
Ġdestroy ing
lector al
Ġche f
Ġaccident ally
ĠBright on
ly mouth
ĠCub an
ĠH ood
orm s
atic an
i ency
N an
v k
ä ¿
Ġlat ent
ĠBr as
Ġf el
Ġsurprising ly
Ã¤ r
F atal
Ġsh ifting
ĠNot able
Ġchemical s
Ġru ins
ĠD ob
Ġgener ous
Ġpriv ately
ĠLiter ary
P rec
url s
Key board
$ ^
Ġvol untary
Ġv ault
Ġap par
27 5
ĠEv idence
ĠE du
Ġany body
IT ER
ĠMe asure
ĠNot re
re x
Ġ$ ("#
ans wer
St an
ĠY a
Ġb ust
Ġend ors
Ġfl aw
Ġspir its
Get ter
ĠGer ald
\ -
Subs cribe
Ġp aired
× ª
Ġsp o
6 40
ĠEm pty
H o
P ot
æ ŀ
ĠD ylan
and ez
ĠRevolution ary
oc c
ĠAl f
Ġmet als
Grad ient
Ġlad ies
Com pute
sel enium
Ġalloc ate
O bs
vision ing
keep ing
ak ov
ĠAp ost
ĠWil helm
osph ere
Ġple asant
[...]
