{"[UNK]":0,"!":1,"\"":2,"#":3,"$":4,"%":5,"&":6,"'":7,"(":8,")":9,"*":10,"+":11,",":12,"-":13,".":14,"/":15,"0":16,"1":17,"2":18,"3":19,"4":20,"5":21,"6":22,"7":23,"8":24,"9":25,":":26,";":27,"<":28,"=":29,">":30,"?":31,"@":32,"A":33,"B":34,"C":35,"D":36,"E":37,"F":38,"G":39,"H":40,"I":41,"J":42,"K":43,"L":44,"M":45,"N":46,"O":47,"P":48,"Q":49,"R":50,"S":51,"T":52,"U":53,"V":54,"W":55,"X":56,"Y":57,"Z":58,"[":59,"\\":60,"]":61,"^":62,"_":63,"`":64,"a":65,"b":66,"c":67,"d":68,"e":69,"f":70,"g":71,"h":72,"i":73,"j":74,"k":75,"l":76,"m":77,"n":78,"o":79,"p":80,"q":81,"r":82,"s":83,"t":84,"u":85,"v":86,"w":87,"x":88,"y":89,"z":90,"{":91,"|":92,"}":93,"~":94,"¡":95,"¢":96,"£":97,"¤":98,"¥":99,"¦":100,"§":101,"¨":102,"©":103,"ª":104,"«":105,"¬":106,"®":107,"¯":108,"°":109,"±":110,"²":111,"³":112,"´":113,"µ":114,"¶":115,"·":116,"¸":117,"¹":118,"º":119,"»":120,"¼":121,"½":122,"¾":123,"¿":124,"Â":125,"Ã":126,"Ä":127,"Å":128,"Æ":129,"Ç":130,"È":131,"É":132,"Ê":133,"Ë":134,"Ì":135,"Í":136,"Î":137,"Ï":138,"Ð":139,"Ñ":140,"Ò":141,"Ó":142,"Ô":143,"Õ":144,"Ö":145,"×":146,"Ø":147,"Ù":148,"Ú":149,"Û":150,"Ü":151,"Ý":152,"Þ":153,"ß":154,"à":155,"á":156,"â":157,"ã":158,"ä":159,"å":160,"æ":161,"ç":162,"è":163,"é":164,"ê":165,"ë":166,"ì":167,"í":168,"î":169,"ï":170,"ð":171,"ñ":172,"ò":173,"ó":174,"ô":175,"Ā":176,"ā":177,"Ă":178,"ă":179,"Ą":180,"ą":181,"Ć":182,"ć":183,"Ĉ":184,"ĉ":185,"Ċ":186,"ċ":187,"Č":188,"č":189,"Ď":190,"ď":191,"Đ":192,"đ":193,"Ē":194,"ē":195,"Ĕ":196,"ĕ":197,"Ė":198,"ė":199,"Ę":200,"ę":201,"Ě":202,"ě":203,"Ĝ":204,"ĝ":205,"Ğ":206,"ğ":207,"Ġ":208,"ġ":209,"Ģ":210,"ģ":211,"Ĥ":212,"ĥ":213,"Ħ":214,"ħ":215,"Ĩ":216,"ĩ":217,"Ī":218,"ī":219,"Ĭ":220,"ĭ":221,"Į":222,"į":223,"İ":224,"ı":225,"Ĳ":226,"ĳ":227,"Ĵ":228,"ĵ":229,"Ķ":230,"ķ":231,"ĸ":232,"Ĺ":233,"ĺ":234,"Ļ":235,"ļ":236,"Ľ":237,"ľ":238,"Ŀ":239,"ŀ":240,"Ł":241,"ł":242,"Ń":243,"ĠĠ":244,"Ġt":245,"ĠĠĠĠ":246,"in":247,"er":248,"Ġa":249,"on":250,"he":251,"re":252,"at":253,"Ġthe":254,"en":255,"or":256,"st":257,"an":258,"al":259,"it":260,"Ġc":261,"ar":262,"Ġs":263,"ed":264,"Ġo":265,"es":266,"Ġw":267,"is":268,"Ġf":269,"ion":270,"ing":271,"Ġp":272,"nd":273,"le":274,"ic":275,"Ġb":276,"ĠĠĠ":277,"Ġin":278,"ro":279,"Ġof":280,"ĠĠĠĠĠĠĠĠ":281,"as":282,"ou":283,"Ġm":284,"Ġd":285,"Ġand":286,"Ġto":287,"et":288,"ct":289,"ent":290,"Ġh":291,"el":292,"il":293,"am":294,"om":295,"Ġre":296,"ĠS":297,"Ġth":298,"Ġn":299,"id":300,"ol":301,"ĠC":302,"ĠT":303,"Ġl":304,"ac":305,"ĠA":306,"ur":307,"Ġ(":308,"ig":309,"ation":310,"ut":311,"im":312,"Ġe":313,"ot":314,"ad":315,"iv":316,"ĠĠĠĠĠĠĠ":317,"se":318,"âĢ":319,"ĠM":320,"ce":321,"ul":322,"Ġg":323,"Ġis":324,"ĠI":325,"th":326,"ay":327,"Ġfor":328,"Ġ=":329,"ag":330,"ow":331,"od":332,"ch":333,"ers":334,"if":335,"un":336,"em":337,"ĠP":338,"ly":339,"Ġon":340,"Ġst":341,"us":342,"ĠB":343,"ĉĉ":344,"Ġv":345,"ir":346,"Ġbe":347,"</":348,"ith":349,"um":350,"ist":351,"ab":352,"pe":353,");":354,"ate":355,"=\"":356,"ter":357,"20":358,"ĠR":359,"ĠD":360,"ap":361,"ĠH":362,"Ġ$":363,"oc":364,"Ġ{":365,"--":366,"Ġas":367,"qu":368,"Ġcon":369,"av":370,"ĠF":371,"Ġ\\":372,"ver":373,"ĠL":374,"and":375,"Ġwith":376,"Ġthat":377,"ri":378,"Ġ<":379,"est":380,"ht":381,"ĠN":382,"op":383,"ew":384,"Ġal":385,"up":386,"ĠW":387,"//":388,"ex":389,"ass":390,"ĠĠĠĠĠĠĠĠĠĠĠ":391,"res":392,"Ġwh":393,"ess":394,"ĠG":395,"ction":396,"Ġan":397,"Ġ*":398,"ĠE":399,"čĊ":400,"Ġpro":401,"Ġwas":402,"19":403,"ain":404,"ub":405,"end":406,"ame":407,"ort":408,"ĠThe":409,"Ġ\"":410,"our":411,"os":412,"tr":413,"Ġde":414,"Ġit":415,"rom":416,"ere":417,"ity":418,"pt":419,"Ġby":420,"ue":421,"Ġat":422,"ill":423,"Ġcom":424,"art":425,"ore":426,"Ġr":427,"Ġy":428,"age":429,"Ġ}":430,"all":431,"Ġex":432,"ke":433,"ment":434,"Ġcl":435,"pl":436,"ĠO":437,"ine":438,"ĠJ":439,"nt":440,"Ġor":441,"ect":442,"ies":443,"Ġfrom":444,"\">":445,"Ġhe":446,"ld":447,"og":448,"ath":449,"Ġare":450,"ight":451,"ive":452,"Ġse":453,"ant":454,"ack":455,"ud":456,"ure":457,"âĢĻ":458,"ĠĠĠĠĠĠĠĠĠĠĠĠĠĠĠĠ":459,"port":460,"cl":461,"ial":462,"urn":463,"iz":464,"Ġthis":465,"()":466,"ast":467,"ans":468,"ber":469,"ĠĠĠĠĠ":470,"**":471,"ef":472,"ult":473,"ge":474,"ĠU":475,"..":476,"Ġtr":477,"ard":478,"con":479,"per":480,"'s":481,"00":482,"ust":483,"ov":484,"Ġch":485,"ip":486,"ĠâĢ":487,"ext":488,"und":489,"ary":490,"act":491,"able":492,"sp":493,"ated":494,"orm":495,"ell":496,"eg":497,"Ġsh":498,"are":499,"ĠK":500,"ff":501,"ia":502,"turn":503,"The":504,"Ġnot":505,"Ġwe":506,"ave":507,"ak":508,"ost":509,"ug":510,"Ġ&":511,"ype":512,"ĠĊ":513,"int":514,"Ġif":515,"ire":516,"Ġpl":517,"ord":518,"ich":519,"Ġclass":520,"Ġle":521,"----":522,"ind":523,"ode":524,"_{":525,"get":526,"out":527,"ign":528,"Ġ'":529,"ong":530,"com":531,"ile":532,"201":533,"ase":534,"li":535,"In":536,"ions":537,"ace":538,"Ġ-":539,"ĠIn":540,"ok":541,"ite":542,"ice":543,"==":544,"ĠV":545,"ide":546,"ork":547,"ical":548,"ĠSt":549,"ep":550,"ear":551,"ubl":552,"ime":553,"str":554,"ang":555,"ref":556,"),":557,"Ġcomp":558,"Ġint":559,"Ġj":560,"ata":561,"erv":562,"ian":563,"cc":564,"ĠĠĠĠĠĠĠĠĠĠĠĠĠĠĠ":565,"Ġhave":566,"Ġhis":567,"ould":568,"pro":569,"ail":570,"Ġus":571,"ject":572,"ild":573,"Ġhas":574,"ence":575,"ens":576,"ition":577,"Ġk":578,"Ġcont":579,"Ġ|":580,"ĠTh":581,").":582,"ec":583,"so":584,"ther":585,"Ġreturn":586,"ance":587,"Ġad":588,"Ġcan":589,"Ġnew":590,"Ġun":591,"ations":592,"enc":593,"ob":594,"ĠCh":595,"ory":596,"Ġyou":597,"ev":598,"ib":599,"Ġall":600,"Ġ//":601,"form":602,"Ġar":603,"Ġab":604,"Ġwhich":605,"ra":606,"ph":607,"one":608,"ublic":609,"ous":610,"{\\":611,"Ġres":612,"ont":613,"ish":614,"alue":615,"ach":616,"du":617,"ert":618,"ress":619,"hen":620,"Ġim":621,"use":622,"Ġap":623,"->":624,"ock":625,"::":626,"ft":627,"ents":628,"200":629,"row":630,"ll":631,"own":632,"ount":633,"ĉĉĉĉ":634,"mer":635,"\",":636,"unction":637,"Ġ$\\":638,"ry":639,"St":640,"Ġ</":641,"ome":642,"Ġ[":643,"elf":644,"ource":645,"Ġwere":646,"Ġbut":647,"irst":648,"ink":649,"ull":650,"Ġ@":651,"Ġout":652,"ree":653,"cri":654,"ual":655,"ark":656,"10":657,"Ġwill":658,"Ġalso":659,"ound":660,"ma":661,"18":662,"over":663,"ors":664,"../":665,"math":666,"aram":667,"ict":668,"Ġup":669,"Ġtheir":670,"ener":671,"ose":672,"fer":673,"rit":674,"tern":675,"amp":676,"ook":677,"Ġstr":678,"Ex":679,"ool":680,"Ġone":681,"te":682,"hed":683,"Ġ/":684,"ĠY":685,"ss":686,"Ġpr":687,"Ġdo":688,"ne":689,"oll":690,"clud":691,"Ġ+":692,"Ġro":693,"ption":694,"erm":695,"ize":696,"Ġsc":697,"ick":698,"oth":699,"inal":700,"iew":701,"old":702,"Ġdis":703,"âĢĿ":704,"(\"":705,"iel":706,"Ġpart":707,"set":708,"ates":709,"eth":710,"();":711,"ml":712,"ck":713,"Ġev":714,"Ġme":715,"ings":716,"ake":717,"sh":718,"div":719,"put":720,"wo":721,"lect":722,"Ġ||":723,"Ġwho":724,"span":725,"we":726,"ng":727,"Ġ.":728,"Ġsu":729,"ely":730,"fr":731,"Ġits":732,"ield":733,"ĠUn":734,"Ġthey":735,"Ġman":736,"pr":737,"ĠHe":738,"ĠIt":739,"fter":740,"Ġdef":741,"ery":742,"Ġmore":743,"Ġhad":744,"Ġpublic":745,"aw":746,"but":747,"essage":748,"}}":749,"Ġag":750,"pec":751,"yst":752,"Ġen":753,"ater":754,"Ġper":755,"--------":756,"tring":757,"Ġqu":758,"ics":759,"Ġfirst":760,"',":761,"Ġte":762,"Ġname":763,"igh":764,"****":765,"Ġset":766,"Ġget":767,"roup":768,"fig":769,"Ġwork":770,"ĠâĢĵ":771,"ps":772,"Ġover":773,"Ġpre":774,"Ġher":775,"io":776,"oint":777,"iss":778,"lo":779,"></":780,"Ġplay":781,"tt":782,"Ġsp":783,"ie":784,"Ġ*/":785,"equ":786,"pect":787,"ix":788,"ational":789,"lement":790,"err":791,"text":792,"Ġbeen":793,"les":794,"anc":795,"Ġso":796,"rap":797,"Ġyear":798,"Ġ:":799,"Ġfunction":800,"><":801,"^{":802,"ons":803,"cre":804,"oid":805,"Ġother":806,"Ġdes":807,"Ġtime":808,"ER":809,"ys":810,"ystem":811,"âĢĵ":812,"Ġgo":813,"Ġvar":814,"ray":815,"Ġob":816,"Pro":817,"}\\":818,"12":819,"ond":820,"ied":821,"ty":822,"Ġne":823,"ax":824,"}$":825,"ember":826,"ĠAr":827,"ĠâĢľ":828,"Ġwhen":829,"ople":830,"Ġass":831,"Ġabout":832,"ames":833,"ĉĉĉ":834,"Ġrec":835,"atch":836,"Ġcomm":837,"ĠĠĠĠĠĠĠĠĠĠĠĠĠĠĠĠĠĠĠ":838,"vel":839,"ays":840,"Ġtwo":841,"odel":842,"Th":843,"))":844,"round":845,"ade":846,"Ġpe":847,"IN":848,"Ġund":849,"../../":850,"Ġoff":851,"abel":852,"ĠĠĠĠĠĠĠĠĠ":853,"name":854,"('":855,"====":856,"ific":857,"ator":858,"Ġsup":859,"uild":860,"Ġinter":861,"oug":862,"ON":863,"ugh":864,"Ġinto":865,"21":866,"this":867,"oun":868,"arg":869,"to":870,"ta":871,"ram":872,"Name":873,"ve":874,"ann":875,"ove":876,"Ġli":877,"html":878,"Ġ#":879,"199":880,"als":881,"land":882,"arch":883,"ative":884,"Ġthere":885,"ased":886,"line":887,"umber":888,"Ġinclud":889,"pos":890,"ange":891,"ribut":892,"ms":893,"app":894,"atic":895,"eb":896,"Ġadd":897,"ĠCom":898,"let":899,"16":900,"right":901,"ited":902,"uct":903,"cal":904,"Ġcol":905,"Ġany":906,"che":907,"(\\":908,"oy":909,"Type":910,"Ġ_":911,"egin":912,"Ġhref":913,"ious":914,"urre":915,"eng":916,"},":917,"Ġthan":918,"key":919,"ient":920,"Ġwould":921,"Ġend":922,"ences":923,"mb":924,"ward":925,"ating":926,"oot":927,"orn":928,"ise":929,"ular":930,"Ġtype":931,"Ġbet":932,"ern":933,"import":934,"Ġkn":935,"Ġreg":936,"Ġonly":937,"Ġact":938,"col":939,"15":940,"ĠNew":941,"aid":942,"Ġsub":943,"Ġafter":944,"source":945,"Ġfil":946,"ĠThis":947,"Ġacc":948,"Ġcre":949,"begin":950,"the":951,"Ġdata":952,"Ġtrans":953,"Ġsome":954,"Ġvalue":955,"param":956,"Ġind":957,"Ġshe":958,"ident":959,"olog":960,"ivers":961,"String":962,"ars":963,"raph":964,"Id":965,"ethod":966,"://":967,"meric":968,"ues":969,"message":970,"ities":971,"ash":972,"Ġcons":973,"Con":974,"Ġno":975,"RE":976,"ĠPro":977,"alse":978,"trans":979,"ĠSe":980,"uring":981,"orld":982,"Ġunder":983,"dd":984,"ton":985,"lation":986,"Ġop":987,"ox":988,"ollow":989,"Ġour":990,"ement":991,"lock":992,"Ġfe":993,"Ch":994,"return":995,"cript":996,"wn":997,"yn":998,"Ġpeople":999,"11":1000,"code":1001,"Ġline":1002,"Cont":1003,"Ġwhere":1004,"irect":1005,"Ġresult":1006,"Ġloc":1007,"cond":1008,"ead":1009,"Ġatt":1010,"son":1011,"td":1012,"ST":1013,"ally":1014,"Ġpos":1015,"Ġel":1016,"ank":1017,"Ġself":1018,"Com":1019,"Ġrequ":1020,"Ġinv":1021,"Ref":1022,"its":1023,"ĠAl":1024,"rough":1025,"Ġserv":1026,"read":1027,"Ġprov":1028,"17":1029,"cent":1030,"der":1031,"of":1032,"Ġconst":1033,"Ġyour":1034,"ures":1035,"Ġspec":1036,"ced":1037,"ts":1038,"cess":1039,"Ġcall":1040,"Ġi":1041,"def":1042,"uth":1043,"resent":1044,"ĠSh":1045,"Ġ=>":1046,"Res":1047,"Ġthem":1048,"Ġ!":1049,"ished":1050,"_{\\":1051,"ility":1052,"Ġrel":1053,"Ġuse":1054,"lection":1055,"Ġback":1056,"ower":1057,"AT":1058,"ache":1059,"Ġrem":1060,"any":1061,"vent":1062,")$":1063,"Ġac":1064,"add":1065,"ask":1066,"chool":1067,"ault":1068,"Ġdif":1069,"ception":1070,"Ġform":1071,"ily":1072,"ists":1073,"/>":1074,"Ġthen":1075,"arn":1076,"ince":1077,"att":1078,"min":1079,"ren":1080,"Ġmay":1081,"Ġco":1082,"ices":1083,"Ġpol":1084,"ible":1085,"ier":1086,"urrent":1087,"ature":1088,"air":1089,"Ġused":1090,"}{":1091,"Ġfollow":1092,"fore":1093,"Ġprodu":1094,"ins":1095,"ID":1096,"##":1097,"Ġbec":1098,"ween":1099,"ages":1100,"Ġstud":1101,"led":1102,"Ġorg":1103,"pon":1104,"ĠTr":1105,"type":1106,"14":1107,"__":1108,"Cl":1109,"ision":1110,"Ġsuch":1111,"30":1112,"Ġent":1113,"class":1114,"Ġph":1115,"Ġmost":1116,"22":1117,"ersion":1118,"ason":1119,"ah":1120,"ale":1121,"ood":1122,"List":1123,"Ġ==":1124,"ee":1125,"Ġsaid":1126,"198":1127,"ines":1128,"label":1129,"Ġfl":1130,"ined":1131,"ough":1132,"org":1133,"htt":1134,"Ġthrough":1135,"oh":1136,"Ar":1137,"\"/>":1138,"imes":1139,"AR":1140,"ider":1141,"itt":1142,"ause":1143,"ral":1144,"OR":1145,"25":1146,"Ġshow":1147,"Ġinst":1148,"fo":1149,"ĠAmeric":1150,"itle":1151,"red":1152,"man":1153,"Ġlike":1154,"reat":1155,"Ġdist":1156,"fl":1157,"cont":1158,"Ġhim":1159,"):":1160,"ternal":1161,"plic":1162,"...":1163,"Ġhigh":1164,"ument":1165,"ble":1166,"13":1167,"Ġvoid":1168,"az":1169,"ivate":1170,"ife":1171,"ĠCl":1172,"ĠAn":1173,"Ġbetween":1174,"hip":1175,"Ġnull":1176,"Ġam":1177,"Ġtest":1178,"eta":1179,"yle":1180,"eq":1181,"ĠQ":1182,"Ġgr":1183,"oci":1184,"frac":1185,"back":1186,"Ġchar":1187,"Ġem":1188,"idth":1189,"sc":1190,"Refer":1191,"Ġagain":1192,"Ġgener":1193,"ole":1194,"Tr":1195,"ized":1196,"ĠZ":1197,"Ġhow":1198,"LE":1199,"Ġyears":1200,"ru":1201,"ey":1202,"view":1203,"left":1204,"Ġnumber":1205,"translation":1206,"val":1207,"iver":1208,"var":1209,"Ġever":1210,"Ġthese":1211,"Ġjust":1212,"press":1213,"self":1214,"cite":1215,"Ġbr":1216,"Ġfinal":1217,"erson":1218,"ution":1219,"Ġstart":1220,"ĠWe":1221,"Ġ`":1222,"Ġval":1223,"ww":1224,"Ġwhat":1225,"loc":1226,"sum":1227,"iversity":1228,"br":1229,"ouse":1230,"ik":1231,"Ġwell":1232,"It":1233,"ful":1234,"ple":1235,"ner":1236,"Ġser":1237,"ired":1238,"AL":1239,"way":1240,"other":1241,"ser":1242,"Ġ>":1243,"Ġmy":1244,"Ġerr":1245,"ments":1246,"ĠCon":1247,"ute":1248,"000":1249,"ream":1250,"ek":1251,"orth":1252,"ets":1253,"ody":1254,"ever":1255,"ball":1256,"ĠEx":1257,"EN":1258,"Ġed":1259,"197":1260,"));":1261,"Ġdiffer":1262,"ĠInd":1263,"********":1264,"Ġtrue":1265,"Ġneed":1266,"uff":1267,"Ġfound":1268,"Ġsign":1269,"Ġcase":1270,"Ġsim":1271,"bject":1272,"Ġsystem":1273,"Ġdet":1274,"ric":1275,"Ġeff":1276,"apt":1277,"yp":1278,"Ġmin":1279,"\"><":1280,"overn":1281,"ĠĠĠĠĠĠĠĠĠĠĠĠĠĠĠĠĠĠĠĠĠĠĠĠĠĠĠĠĠĠĠĠ":1282,"ength":1283,"mathb":1284,"\");":1285,"outh":1286,"References":1287,"ĠAs":1288,"Ġsm":1289,"action":1290,"Ġfalse":1291,"pre":1292,"'t":1293,"////":1294,"uc":1295,"50":1296,"ĠFor":1297,"aj":1298,"Ġlong":1299,"uss":1300,"Ġlist":1301,"amb":1302,"ott":1303,"rr":1304,"Ġshould":1305,"string":1306,"ĠWh":1307,"sub":1308,"ote":1309,"ants":1310,"----------------":1311,"Ġcent":1312,"log":1313,"Ġgroup":1314,"Ġbeing":1315,"Ġpoint":1316,"uch":1317,"ele":1318,"ury":1319,"SS":1320,"ces":1321,"Ġ)":1322,"by":1323,"Ġelse":1324,"perty":1325,"Ġoper":1326,"Ġdr":1327,"arget":1328,"To":1329,"Ġcould":1330,"ule":1331,"Ġwhile":1332,"af":1333,"Ġart":1334,"Ġx":1335,"ives":1336,"cept":1337,"Ġest":1338,"Ġeach":1339,"eter":1340,"ym":1341,"ccess":1342,"ĠCol":1343,"work":1344,"ĠĠĠĠĠĠĠĠĠĠĠĠĠ":1345,"ava":1346,"32":1347,"Ġmodel":1348,"$.":1349,"be":1350,"$,":1351,"Ġbefore":1352,"par":1353,"ism":1354,"day":1355,".\"":1356,"Ġsur":1357,"Ġteam":1358,"formation":1359,"co":1360,"ains":1361,"bar":1362,"Value":1363,"Ġmany":1364,"Ġduring":1365,"Ġnow":1366,"ared":1367,"Ġmade":1368,"Ġ--":1369,"rm":1370,"Ġfam":1371,"ĠDe":1372,"aking":1373,"data":1374,"arent":1375,"})":1376,"ather":1377,"Ġthree":1378,"Ġid":1379,"ample":1380,"for":1381,"}.":1382,"item":1383,"gram":1384,"ister":1385,"Ġsupport":1386,"ĠSc":1387,"ĠFr":1388,"Ġmed":1389,"Ġmon":1390,"iven":1391,"Ġown":1392,"24":1393,"Ġext":1394,"Ġcor":1395,"Data":1396,"Ġread":1397,"Ġright":1398,"til":1399,"Ġlead":1400,"Ġstate":1401,"Ġsecond":1402,"Ġrun":1403,"Ġsame":1404,"opt":1405,"Col":1406,"196":1407,"bers":1408,"ĠĠĠĠĠĠĠĠĠĠĠĠĠĠĠĠĠĠĠĠĠĠĠ":1409,"ense":1410,"wh":1411,"try":1412,"alth":1413,"Ġmod":1414,"ization":1415,"mathcal":1416,",\\":1417,"Un":1418,"iving":1419,"Ġlink":1420,"Ġboth":1421,"Ġdec":1422,"umn":1423,"Ġstring":1424,"value":1425,"ĠIs":1426,"roll":1427,"rol":1428,"ting":1429,"ience":1430,"ten":1431,"Ã©":1432,"Ġrep":1433,"ron":1434,"nb":1435,"Ġgu":1436,"atus":1437,"ross":1438,"Ġmake":1439,"velop":1440,"ervice":1441,"ified":1442,"date":1443,"pp":1444,"Ġrele":1445,"file":1446,"Ġdirect":1447,"Ġbl":1448,"play":1449,"Ġ/**":1450,"Set":1451,"ology":1452,"ify":1453,"Ġdevelop":1454,"AN":1455,"IT":1456,"lp":1457,"test":1458,"ĠAmerican":1459,"Ġevery":1460,"ger":1461,"ained":1462,"Ġusing":1463,"\")":1464,"ĠĠĠĠĠĠ":1465,"ional":1466,"CT":1467,"ĠUniversity":1468,"her":1469,"ically":1470,"rem":1471,"new":1472,"oad":1473,"Ġsing":1474,"ning":1475,"ency":1476,"Ġlast":1477,"not":1478,"Ġprivate":1479,"ina":1480,"ĠX":1481,"heck":1482,"ĠAnd":1483,"Ġwrit":1484,"med":1485,"ĠLe":1486,"equation":1487,"gy":1488,"SE":1489,"usic":1490,"Ġbuild":1491,"Ġhand":1492,"ĠPh":1493,"ived":1494,"ural":1495,"Exception":1496,"Ġdid":1497,"nbsp":1498,"Ġbel":1499,"ital":1500,"Ġresp":1501,"px":1502,"Ġequ":1503,"part":1504,"Ġmem":1505,"face":1506,"arly":1507,"ler":1508,"Object":1509,"Ġsol":1510,"da":1511,"ohn":1512,"2021":1513,"Ġperform":1514,"En":1515,"aining":1516,"Ġmethod":1517,"istory":1518,"Ġappro":1519,"Ġdoes":1520,"roid":1521,"Ġbecause":1522,"âĢľ":1523,"By":1524,"ane":1525,"100":1526,"ĠMar":1527,"chn":1528,"Ġ///":1529,"ĠPl":1530,"mp":1531,"DE":1532,"abl":1533,"Ġ&&":1534,"Err":1535,"pha":1536,"Ġstatic":1537,"ots":1538,"Ġbo":1539,"ĠComm":1540,"ission":1541,"];":1542,"On":1543,"Ġmov":1544,"Ġfield":1545,"reg":1546,"Ġdifferent":1547,"ases":1548,"An":1549,"Ġcurrent":1550,"Ġsee":1551,"bs":1552,"ĠOn":1553,"Ġeven":1554,"ĠUnited":1555,"Ġexper":1556,"lob":1557,"40":1558,"ober":1559,"($":1560,"ually":1561,"Ġknow":1562,"iness":1563,"23":1564,"Ġpass":1565,"ĠEng":1566,"comm":1567,"alk":1568,"Ġ!=":1569,"que":1570,"Ġav":1571,"ĠShe":1572,"mary":1573,"ports":1574,"ĠPr":1575,"}(":1576,"Ġpop":1577,"struct":1578,"Ġobject":1579,"Ġapp":1580,"Ġcontin":1581,"========":1582,"Ġmain":1583,".,":1584,"ĠRes":1585,"We":1586,"Ġrecord":1587,"ograph":1588,"Get":1589,"Test":1590,"ager":1591,"requ":1592,"load":1593,".âĢĿ":1594,"els":1595,"Ġdisc":1596,"head":1597,"istr":1598,"~\\":1599,"enn":1600,"}^":1601,"}_":1602,"ats":1603,"ley":1604,"Ġbeg":1605,"Ġworld":1606,"order":1607,"Ġpartic":1608,"')":1609,"Ġincluding":1610,"inter":1611,"Ġvery":1612,"ush":1613,"ĠRe":1614,"Ind":1615,"rop":1616,"Ġdown":1617,"arm":1618,"ality":1619,"ĠString":1620,"ĠIf":1621,"],":1622,"size":1623,"field":1624,"As":1625,"Ġfr":1626,"uthor":1627,"Ġ%":1628,"ME":1629,"Ġway":1630,"CO":1631,"itions":1632,"time":1633,"location":1634,"Ġbro":1635,"ĠSp":1636,"ĠâĢĶ":1637,"Ġsl":1638,"Ġagainst":1639,"Ġimport":1640,"Ġcommun":1641,"().":1642,"reak":1643,"raw":1644,"Ġfollowing":1645,"Ġchild":1646,"Ġcar":1647,"Ġopt":1648,"omen":1649,"Ġlook":1650,"Ġhead":1651,"Ġopen":1652,"());":1653,"Ġfind":1654,"For":1655,"uck":1656,"ocument":1657,"Ġimp":1658,"Ġprocess":1659,"unc":1660,"ground":1661,"uro":1662,"gr":1663,"Ġnon":1664,"Ġthose":1665,"Ġschool":1666,"hat":1667,"ends":1668,"une":1669,"This":1670,"Sh":1671,"my":1672,"indow":1673,"ected":1674,"pi":1675,"alpha":1676,"search":1677,"Ġorder":1678,"ential":1679,"ĠAd":1680,"Ġappe":1681,"ĠOr":1682,"elta":1683,"Ġexpect":1684,"ctions":1685,"._":1686,"ĠBr":1687,"ulation":1688,"ium":1689,"etwork":1690,"Error":1691,"usiness":1692,"iev":1693,"Ġkey":1694,"ai":1695,"rc":1696,"lex":1697,"Ġtop":1698,"Ġmark":1699,"ior":1700,"Ġgame":1701,"Ġfact":1702,"ĠYou":1703,"ĠMay":1704,"Ġhelp":1705,"rite":1706,"ness":1707,"ety":1708,"Ġfour":1709,"ird":1710,"align":1711,"akes":1712,"bo":1713,"Ġevent":1714,"util":1715,"Ġfin":1716,"irc":1717,"list":1718,"me":1719,"link":1720,"26":1721,"oss":1722,"lang":1723,"cription":1724,"go":1725,"Ġcare":1726,"Ġsince":1727,"Ġorig":1728,"aces":1729,"itial":1730,"ape":1731,"Ġmet":1732,"Ġrece":1733,"ootball":1734,"Ġcoun":1735,"ven":1736,"Im":1737,"Ġarg":1738,"Ġgovern":1739,"Ġvis":1740,"2020":1741,"Ġinformation":1742,"ector":1743,"28":1744,"itor":1745,"urs":1746,"27":1747,"Ġseason":1748,"Class":1749,"side":1750,"ĠJan":1751,"includ":1752,"script":1753,"come":1754,"ĠJohn":1755,"Ġterm":1756,"Ġincre":1757,"dis":1758,"Ġparam":1759,"Ġdesign":1760,"View":1761,"http":1762,"Ġgiven":1763,"Ġmuch":1764,"ĠBl":1765,"Ġlocal":1766,"Se":1767,"AC":1768,"Ġtitle":1769,"RO":1770,"Ġallow":1771,"ĠHow":1772,"Ġlife":1773,"ounty":1774,"Ġz":1775,"au":1776,"Ġprovid":1777,"opy":1778,"url":1779,"iter":1780,"Âł":1781,"color":1782,"Ġplayers":1783,"Ġmat":1784,"width":1785,"idd":1786,"Ġfile":1787,"por":1788,"ering":1789,"Ġpat":1790,"vious":1791,"function":1792,"ths":1793,"lected":1794,"Ġhere":1795,"\";":1796,"Ġcr":1797,"ternational":1798,"reen":1799,"Ġlater":1800,"Ġprogram":1801,"Key":1802,"epend":1803,"Ġfilm":1804,"LL":1805,"Ġeffect":1806,"Ġaround":1807,"public":1808,"Ġgood":1809,"Ġperson":1810,"');":1811,"Ġknown":1812,"ambda":1813,"194":1814,"ope":1815,"Ġstill":1816,"['":1817,"top":1818,"64":1819,"Ġref":1820,"Ġlinks":1821,"ively":1822,"Ġsmall":1823,"index":1824,"bum":1825,")\\":1826,"Ġpost":1827,"Requ":1828,"section":1829,"33":1830,"ĠStates":1831,"Ġbook":1832,"ĠĠĠĠĊ":1833,"vir":1834,"umer":1835,"off":1836,"arge":1837,"Ġwant":1838,"ĠAss":1839,"ised":1840,"ĠCan":1841,"rist":1842,"Ġcharact":1843,"\".":1844,"Ġtri":1845,"Ġpres":1846,"less":1847,"Ġleft":1848,"Ġconsider":1849,"ĠAll":1850,"ĉĉĉĉĉ":1851,"mod":1852,"].":1853,"urch":1854,"Ġmust":1855,"pace":1856,"(),":1857,"empl":1858,".</":1859,"sy":1860,"Ġann":1861,"uration":1862,"Ġret":1863,"ION":1864,"29":1865,"Ġsize":1866,"ĠGr":1867,"summary":1868,"Ġstruct":1869,"Ġaut":1870,"ribute":1871,"ĠCent":1872,"uffer":1873,"Ġseries":1874,"Ġlevel":1875,"ene":1876,"Ġtake":1877,"path":1878,"nav":1879,"js":1880,"IC":1881,"Ġplace":1882,"195":1883,"ĠWorld":1884,"amma":1885,"ague":1886,"Ġnext":1887,"ĠAt":1888,"AP":1889,"File":1890,"vert":1891,"ari":1892,"\"></":1893,"ustom":1894,"Ġcalled":1895,"Ġfamily":1896,"ability":1897,"ĠNational":1898,"ĠAust":1899,"ination":1900,"Al":1901,"Ġke":1902,"=\\":1903,"He":1904,"Ġreport":1905,"Ġdon":1906,"group":1907,"External":1908,"Ġcour":1909,"iam":1910,"Ġday":1911,"tract":1912,"ĠCar":1913,"Re":1914,"Ġposs":1915,"ĠNov":1916,"ogle":1917,"\":":1918,"uary":1919,"aving":1920,"Ġpresent":1921,"table":1922,"Ġweek":1923,"TE":1924,"Ġprot":1925,"Ġbest":1926,"Ġsever":1927,"aster":1928,"ĠJul":1929,"Ġorgan":1930,"Int":1931,"PE":1932,"wit":1933,"Ġstand":1934,"ateg":1935,"Ġvari":1936,"Ġdel":1937,"Ġexp":1938,"Ġthrow":1939,"ponse":1940,"Ġpar":1941,"Ġ\\\\":1942,"https":1943,"mu":1944,"igma":1945,"Ġu":1946,"Ġbased":1947,"lear":1948,"Ġproject":1949,"_\\":1950,"Ġbu":1951,"ĠThey":1952,"ords":1953,"acy":1954,"hes":1955,"ackage":1956,"Ġelement":1957,"amed":1958,"const":1959,"ailable":1960,"Ġassert":1961,"illion":1962,"ended":1963,"fess":1964,"ourn":1965,"Man":1966,"inc":1967,"ival":1968,"Ġold":1969,"itional":1970,"Ġexpl":1971,"lobal":1972,"']":1973,",âĢĿ":1974,"TR":1975,"Time":1976,"ved":1977,"Pl":1978,"ĠMan":1979,"ling":1980,"2016":1981,"ails":1982,"aff":1983,"aint":1984,"Ġmult":1985,"ajor":1986,"With":1987,"eters":1988,"2019":1989,"2015":1990,"Ġlaw":1991,"ĠYork":1992,"ately":1993,"ĠBe":1994,"Not":1995,"ĠSchool":1996,"Ġreal":1997,"ift":1998,"ĠUS":1999,"Ġadv":2000,"2018":2001,"Ġhtt":2002,"ification":2003,"Ġrequest":2004,"Ġuntil":2005,"wards":2006,"Ġoffic":2007,"Ġpower":2008,"Ġrefer":2009,"ĠWest":2010,"ians":2011,"Ġsom":2012,"ega":2013,"LA":2014,"Ġ?":2015,"60":2016,"ait":2017,"bed":2018,"ĠâĢĺ":2019,"sk":2020,"2017":2021,"ume":2022,"Ġdep":2023,"array":2024,"Ġmusic":2025,"Node":2026,"Ġ/>":2027,"mathbb":2028,"fil":2029,"ources":2030,"Add":2031,"ocial":2032,"Path":2033,"Ġiss":2034,"ĠPol":2035,"Qu":2036,"Ġthink":2037,"ories":2038,"ches":2039,"Element":2040,"Ġhome":2041,"ware":2042,"/*":2043,"ony":2044,"ored":2045,"ĠOct":2046,"2014":2047,"duct":2048,"Ġerror":2049,"$\\":2050,"ĠBut":2051,"ries":2052,"Ġwithin":2053,"Ġ,":2054,"Request":2055,"itive":2056,"!--":2057,"ĠMin":2058,"ales":2059,"ison":2060,"ĠEn":2061,"Config":2062,"ĠCounty":2063,"Ġ);":2064,"ploy":2065,"Info":2066,"uage":2067,"ĠTe":2068,"ideo":2069,"ugg":2070,"bf":2071,"ĠAug":2072,"Ġocc":2073,"Event":2074,"ĠThere":2075,"Ġalbum":2076,"Ġrepresent":2077,"Ġpolit":2078,"ainer":2079,"Ġcount":2080,"serv":2081,"icy":2082,"Ġview":2083,"Ġwin":2084,"pert":2085,"Ġestabl":2086,"Ġdem":2087,"Ġtarget":2088,"Ġtechn":2089,"=\"../../":2090,"Ġwithout":2091,"Ġcond":2092,"/**":2093,"Text":2094,"âĢĶ":2095,"Ġarea":2096,"aim":2097,"mber":2098,"Ġtext":2099,"ĠSouth":2100,"Ġleg":2101,"ances":2102,"Ġsk":2103,"Def":2104,"plication":2105,"ently":2106,"ĠGu":2107,"Ġ/*":2108,"ump":2109,"Ġdeath":2110,"de":2111,"}_{":2112,"arr":2113,"Ġcontent":2114,"Ġanother":2115,"}^{":2116,"aps":2117,"olean":2118,"ocus":2119,"ording":2120,"':":2121,"stance":2122,"sec":2123,"aut":2124,"Ġnear":2125,"user":2126,"empt":2127,"leg":2128,"eps":2129,"Index":2130,"Ġtyp":2131,"www":2132,"Equ":2133,"Ġsuccess":2134,"};":2135,"80":2136,"Ġdescri":2137,"ĠBrit":2138,"Or":2139,"ptember":2140,"State":2141,"Ġanal":2142,"ems":2143,"ilt":2144,"iod":2145,"Ġtry":2146,"Ġchang":2147,"icle":2148,"2013":2149,"UR":2150,"ways":2151,"agn":2152,"Ġident":2153,"ĠGe":2154,"md":2155,"uman":2156,"ĠJanuary":2157,"Field":2158,"Ġresults":2159,"Ġbusiness":2160,"All":2161,"oman":2162,"Ġsong":2163,"-\\":2164,"uf":2165,"())":2166,"ung":2167,"Ġversion":2168,"Form":2169,"Ġfootball":2170,"Ġla":2171,"odes":2172,"Param":2173,"ension":2174,"ho":2175,"Ġlim":2176,"ards":2177,"âĢ¦":2178,"Is":2179,"pril":2180,"Over":2181,"Ġalong":2182,"ĠMarch":2183,"Ġoriginal":2184,"Ġsingle":2185,"=\"+":2186,"Ġeng":2187,"uk":2188,"ĠWar":2189,"comp":2190,"length":2191,"cd":2192,"urther":2193,"Ġlog":2194,"Ġarray":2195,"Ġspe":2196,"``":2197,"2010":2198,"mbol":2199,"ica":2200,"Context":2201,"AS":2202,"des":2203,"phi":2204,"ĠCo":2205,"node":2206,"='":2207,"Ġcompany":2208,"Ġservice":2209,"void":2210,"ĠReg":2211,"Ġlet":2212,"iction":2213,"urity":2214,"ĠTo":2215,"ride":2216,"ney":2217,"IS":2218,"Des":2219,"ĠState":2220,"urope":2221,"Map":2222,"ags":2223,"Ph":2224,"ivity":2225,"cember":2226,"35":2227,"ĠNo":2228,"Ġcap":2229,"Ġbecame":2230,"urg":2231,"2012":2232,"ĠEd":2233,"Ġstyle":2234,"Ġbeh":2235,"erman":2236,"ands":2237,"amespace":2238,"Ġsay":2239,"Ġcheck":2240,"viron":2241,"Ġseveral":2242,"ĠCal":2243,"Service":2244,"oken":2245,"ĠMed":2246,"atures":2247,"ending":2248,"ession":2249,"////////":2250,"Ġcreate":2251,"ators":2252,"Ġlarge":2253,"lege":2254,"2011":2255,"apache":2256,"AD":2257,"Ġinvest":2258,"ued":2259,"config":2260,"Array":2261,"Ġinclude":2262,"Ġgovernment":2263,"Ġproble":2264,"cast":2265,"\\\\":2266,"ĠCity":2267,"ui":2268,"mathbf":2269,"ĠPar":2270,"aterial":2271,"nder":2272,"ured":2273,"api":2274,"fin":2275,"ĠSeptember":2276,"quot":2277,"ped":2278,"pression":2279,"ought":2280,"bl":2281,"ules":2282,"Ġpo":2283,"ĠCO":2284,"****************":2285,"HE":2286,"ĠAugust":2287,"Ġaccess":2288,"Ġbir":2289,"Ġblock":2290,"ĠJune":2291,"Ġdue":2292,"Ġ(!":2293,"ĠOctober":2294,"ĠFl":2295,"icon":2296,"^{\\":2297,"Build":2298,"Ġinterest":2299,"Ġpath":2300,"Ġearly":2301,"ĠAustral":2302,"stru":2303,"Ġdefault":2304,"Ġfew":2305,"ights":2306,"Ġshort":2307,"Ġins":2308,"ret":2309,"lish":2310,"Ġwon":2311,"box":2312,"Ġavailable":2313,"Ġmembers":2314,"ĠĠĠĠĠĠĠĠĠĠĠĠĠĠĠĠĠĠĠĠĠĠĠĠĠĠĠ":2315,"Ġpubl":2316,"Ġuser":2317,"ayout":2318,"Code":2319,"rix":2320,"34":2321,"conom":2322,"lambda":2323,"Ġdev":2324,"ients":2325,"aus":2326,"evel":2327,"\"\"":2328,"Ġet":2329,"Ġfull":2330,"error":2331,"Ġcity":2332,"ament":2333,"UT":2334,"ĠApril":2335,"istor":2336,"ĠNorth":2337,"ĠĠĊ":2338,"sw":2339,"FF":2340,"olution":2341,"Ġturn":2342,"ING":2343,"New":2344,"Ġmar":2345,"Result":2346,"Ġprom":2347,"result":2348,"ouble":2349,"aced":2350,"perties":2351,"ĠJuly":2352,"ĠAb":2353,"ĠWill":2354,"ours":2355,"object":2356,"ĠChrist":2357,"Ġbreak":2358,"word":2359,"Ġ{\\":2360,"no":2361,"Ġrest":2362,"enu":2363,"ĠSystem":2364,"from":2365,"ender":2366,"earch":2367,"point":2368,"ique":2369,"Ġchange":2370,"Ġtot":2371,"ides":2372,"Ġdi":2373,"map":2374,"ibr":2375,"eturn":2376,"31":2377,"Fil":2378,"Ġbase":2379,"alf":2380,"raft":2381,"99":2382,"ĠDecember":2383,"oin":2384,"input":2385,"Att":2386,"hem":2387,"sl":2388,"[]":2389,"ayer":2390,"ĠNovember":2391,"ves":2392,"And":2393,"Ġaff":2394,"2022":2395,"assert":2396,"ĠEurope":2397,"Ġ});":2398,"pen":2399,"Ġexample":2400,"down":2401,"IG":2402,"ĠRep":2403,"ĠSup":2404,"Ġes":2405,"dt":2406,"Ġformer":2407,"pecial":2408,"Ġ-->":2409,"Ġmajor":2410,"body":2411,"true":2412,"dom":2413,"reate":2414,"ae":2415,"block":2416,"ilit":2417,"Size":2418,"ples":2419,"abled":2420,"ES":2421,"LO":2422,"ormal":2423,"Ġwomen":2424,"ham":2425,"ittle":2426,"posed":2427,"MP":2428,"Ġport":2429,"stit":2430,"ĠFeb":2431,"ready":2432,"cer":2433,"ailed":2434,"Ġgrow":2435,"ĠDr":2436,"met":2437,"ones":2438,"ster":2439,"ada":2440,"model":2441,"stand":2442,"';":2443,"ED":2444,"Hand":2445,"ilon":2446,"ention":2447,"Ġhealth":2448,"Ġ},":2449,"Ġstat":2450,"beta":2451,"Ġlearn":2452,"Ġvalues":2453,"rew":2454,"emplate":2455,"aper":2456,"oper":2457,"Ġposition":2458,"ync":2459,"Ġenc":2460,"Ġcharacter":2461,"Ġland":2462,"Ġresearch":2463,"bt":2464,"agement":2465,"Ġgreat":2466,"Ġfore":2467,"ĠPart":2468,"####":2469,"ertain":2470,"imate":2471,"prot":2472,"aged":2473,"39":2474,"Ġcode":2475,"Ġcontrol":2476,"sm":2477,"acc":2478,"ana":2479,"see":2480,"state":2481,"Ġsum":2482,"uture":2483,"hold":2484,"vironment":2485,"ampions":2486,"Ġ:=":2487,"Ġchildren":2488,"pm":2489,"sigma":2490,"title":2491,"igned":2492,"At":2493,"37":2494,"Ġelect":2495,"ĠHowever":2496,"Ġmeas":2497,"loat":2498,"version":2499,"ilar":2500,"Ġproduct":2501,"Ġgl":2502,"Of":2503,"2009":2504,"Ġprevious":2505,"ks":2506,"gress":2507,"Ġmax":2508,"Ġcell":2509,"ither":2510,"vision":2511,"ze":2512,"ponent":2513,"create":2514,"thers":2515,"Ġvol":2516,"ruary":2517,"ĠMc":2518,"Ġtoo":2519,"nection":2520,"Trans":2521,"Ġconfig":2522,"rodu":2523,"ero":2524,"36":2525,"2008":2526,"ising":2527,"thern":2528,"Fr":2529,"From":2530,"Ġput":2531,"Ġrad":2532,"Ġless":2533,"Ġside":2534,"Ġinput":2535,"Ġcompet":2536,"irt":2537,"semb":2538,"Sc":2539,"Ġspace":2540,"|-":2541,"Ġtem":2542,"ET":2543,"ried":2544,"resp":2545,"Ġbas":2546,"Ġreleased":2547,"ĠGet":2548,"Ġsource":2549,"Ġcomplet":2550,"Ġlate":2551,"Comm":2552,"++":2553,"90":2554,"ĠAp":2555,"Ġinitial":2556,"Ġconf":2557,"UN":2558,"define":2559,"position":2560,"Loc":2561,"Ġplayed":2562,"Item":2563,"Ġhistory":2564,"45":2565,"ites":2566,",\"":2567,"Ġnetwork":2568,"ĠCont":2569,"Ġmatch":2570,"ĠBo":2571,"ĠÐ":2572,"Ġclos":2573,"Ġstudy":2574,"Ġgoing":2575,"Ġlarg":2576,"Ġ__":2577,"Ġauthor":2578,"ĠIm":2579,"Ġcrit":2580,"Ġlang":2581,"uments":2582,"Ġfree":2583,"Ġgeneral":2584,"ux":2585,"arrow":2586,"ĠEl":2587,"ilde":2588,"onse":2589,"Ġexist":2590,"ables":2591,"ixed":2592,"ably":2593,"umb":2594,"rel":2595,"Val":2596,"Ġassoci":2597,"01":2598,"atter":2599,"Message":2600,"ĠBy":2601,"Ġaction":2602,"}{\\":2603,"AB":2604,"lient":2605,"Ġep":2606,"Ġhapp":2607,"Ġcamp":2608,"ught":2609,"next":2610,"Ġnever":2611,"38":2612,"apan":2613,"Ġdistribut":2614,"Ġcontext":2615,"reet":2616,"Ġresponse":2617,"ĠII":2618,"Ġrequire":2619,"quad":2620,"Ġdiv":2621,"ML":2622,"MA":2623,"Ġ(\\":2624,"Ġwater":2625,"Ġaddress":2626,"max":2627,"ĠAg":2628,"oph":2629,"Ġtotal":2630,"idual":2631,"Ġtook":2632,"Ġcountry":2633,"now":2634,"ecut":2635,"yd":2636,"Ġimportant":2637,"oud":2638,"ography":2639,"with":2640,"Pr":2641,"Ġperiod":2642,"struction":2643,"*}":2644,"ĠSer":2645,"Ġsays":2646,"Ġrespect":2647,"ij":2648,"call":2649,"Ġtimes":2650,"icro":2651,"Up":2652,"annel":2653,"ino":2654,"tes":2655,"mathrm":2656,"ĠList":2657,"ĠBar":2658,"Ġjava":2659,"ottom":2660,"Ġquest":2661,"Ġhouse":2662,"ops":2663,"ĠFebruary":2664,"Out":2665,"If":2666,"Ġfac":2667,"ĠÂ":2668,"android":2669,"Ġtrack":2670,"Ġhold":2671,"2007":2672,"ĠKing":2673,"include":2674,"space":2675,"adem":2676,"oice":2677,"Ser":2678,"ered":2679,"Ġmember":2680,"Ġstory":2681,"Ġrange":2682,"nect":2683,";&":2684,"Ġcover":2685,"ike":2686,"Ġspecial":2687,"lin":2688,"OT":2689,"eder":2690,"Ð°":2691,"Ġgames":2692,"Ġair":2693,"ĠAfter":2694,"oto":2695,"Ġnode":2696,"Ġconc":2697,"Ġdocument":2698,"ĠBritish":2699,"Ġparticular":2700,"Ġinstance":2701,"content":2702,"default":2703,"fe":2704,"Ġbig":2705,"info":2706,"Ġcal":2707,"Log":2708,"aul":2709,"ysis":2710,"imal":2711,"Ġabove":2712,"ĠQu":2713,"lem":2714,"Ġwhe":2715,"Ġcommunity":2716,"Ġindex":2717,"lt":2718,"CE":2719,"US":2720,"gamma":2721,"idge":2722,"ĠWith":2723,"Ã¡":2724,"ief":2725,"print":2726,"ĠSo":2727,"Dis":2728,"ondon":2729,"ĠCor":2730,"Ġbetter":2731,"ULL":2732,"Wh":2733,"Ġredu":2734,"Ġmean":2735,"tings":2736,"Manager":2737,"Ġrole":2738,"Ġalready":2739,"Ġsrc":2740,"alt":2741,"Ġdays":2742,"70":2743,"2006":2744,"Ġide":2745,"But":2746,"Ġfive":2747,"lete":2748,"^{-":2749,"Ġoptions":2750,"Ġreally":2751,"See":2752,"Ġ()":2753,"Reg":2754,"System":2755,"ĠMe":2756,"75":2757,"Ġobserv":2758,"thing":2759,"ĠOff":2760,"--------------------------------":2761,"Ġ===":2762,"iment":2763,"sup":2764,"Ġant":2765,"Ad":2766,"ius":2767,"Ġobt":2768,"Ġdom":2769,"Inter":2770,"+\\":2771,"Model":2772,"oke":2773,"Ġlow":2774,"cy":2775,"Ġcolor":2776,"where":2777,"ĠComp":2778,"rest":2779,"Ġnil":2780,"gt":2781,"rior":2782,"Ġfri":2783,"cil":2784,"roller":2785,"Ġpoints":2786,"base":2787,"Ġbound":2788,">&":2789,"Ġpay":2790,"Ġeduc":2791,"ibility":2792,"Ġparent":2793,"ached":2794,"Ġtown":2795,"De":2796,"Ġimpro":2797,"Ġcost":2798,"ĠRec":2799,"Ġcomb":2800,"Ġacross":2801,"Ġannoun":2802,"tra":2803,"though":2804,"Ġhost":2805,"Ð¾":2806,"Ġener":2807,"ĠAct":2808,"java":2809,"Ġmillion":2810,"ĠHigh":2811,"abor":2812,"refer":2813,"Call":2814,"Ġpossible":2815,"Ġproperty":2816,"ĠAfr":2817,"66":2818,"ĠPark":2819,"ENT":2820,"aken":2821,"Ġmight":2822,"Ġprofess":2823,"book":2824,"Ġpot":2825,"ĠHis":2826,"ĠLeague":2827,"na":2828,"Ġthird":2829,"born":2830,"Ġamong":2831,"iple":2832,"vers":2833,"Group":2834,"Ġtable":2835,"ington":2836,"atform":2837,"Ġoften":2838,"ford":2839,"IP":2840,"Read":2841,"idence":2842,"Ġinc":2843,"=\"../../../../":2844,"inary":2845,"ese":2846,"Ġalways":2847,"Table":2848,"^\\":2849,"Ġsocial":2850,"ips":2851,"Ġhard":2852,"Ġsite":2853,"Ġoffer":2854,"Ġrepl":2855,"Ġinvol":2856,"Ġsix":2857,"era":2858,"Ġreceived":2859,"Ġheld":2860,"ĠPres":2861,"valid":2862,"delta":2863,"2000":2864,"start":2865,"rec":2866,"Ġcult":2867,"Ġrequired":2868,"ille":2869,"Ġinteg":2870,"Ġage":2871,"uation":2872,"ĠArt":2873,"ĠGener":2874,"NA":2875,"Ġpract":2876,"aring":2877,"ething":2878,"leq":2879,"Ġleast":2880,"Ġcareer":2881,"]{":2882,"ĠPer":2883,"ĠDav":2884,"lim":2885,"Ġarr":2886,"ald":2887,"Ġsec":2888,"rench":2889,"Rec":2890,"ĠCoun":2891,"ĠWhen":2892,"55":2893,"ogn":2894,"Ġnational":2895,"Ġfund":2896,"icense":2897,"anch":2898,"ĠAm":2899,"Ġstrong":2900,"tab":2901,"Ġimplement":2902,"ided":2903,"DO":2904,"figure":2905,"Ġdevelopment":2906,"Ġfar":2907,"Ġofficial":2908,"Ġsimilar":2909,"big":2910,"oney":2911,"iol":2912,"ĠChar":2913,"Ġsuper":2914,"cell":2915,"ĠRuss":2916,"context":2917,"ĠEnglish":2918,"Ġprovide":2919,"ampionship":2920,"bit":2921,"Ġ$(":2922,"Ġbecome":2923,"ĠRev":2924,"ifier":2925,"ĠOne":2926,"yl":2927,"Color":2928,"irl":2929,"Arg":2930,"osp":2931,"Ġmass":2932,"ĠDes":2933,"ournal":2934,"style":2935,"imum":2936,"unk":2937,"Ġcome":2938,"Ġtrad":2939,"Ġyoung":2940,"Ġnamed":2941,"rho":2942,"ĠĠĠĠĠĠĠĠĠĠĠĠ":2943,"TD":2944,")}":2945,"Ġbackground":2946,"Ġhaving":2947,"theta":2948,"Client":2949,"ĠLondon":2950,"Ġsignific":2951,"pty":2952,"ĉĉĉĉĉĉ":2953,"Ġclaim":2954,"User":2955,"Property":2956,"istic":2957,"Ass":2958,"Ġevents":2959,"method":2960,"Ġdest":2961,"Ġpage":2962,"doc":2963,"ration":2964,"ners":2965,"package":2966,"Ġband":2967,"=\"#":2968,"Ġindiv":2969,"plit":2970,"fic":2971,"Ġcommon":2972,"Fl":2973,"iet":2974,"Ġbody":2975,"ply":2976,"mark":2977,"Ġbegan":2978,"Ġ};":2979,"Ġreview":2980,"Ġfeature":2981,"ged":2982,"Ġindust":2983,"ĠJapan":2984,"Ġtoget":2985,"reed":2986,"Ġbool":2987,"ĠEast":2988,"sq":2989,"clus":2990,"build":2991,"web":2992,"Ġmen":2993,"Ġfurther":2994,"Ġtogether":2995,"static":2996,"Ðµ":2997,"Ġbuilding":2998,"Ġcur":2999,"ĠGo":3000,"css":3001,"Ġeas":3002,"eh":3003,"google":3004,"ĠDep":3005,"using":3006,"ĠHouse":3007,"ĠSet":3008,"itted":3009,"Ġmaking":3010,"Ġaccount":3011,"Ġworking":3012,"Response":3013,"Ġmarket":3014,"utes":3015,"eople":3016,"ĠĠĠĠĠĠĠĠĠĠ":3017,"actory":3018,"Ġmap":3019,"$-":3020,"Ġmeet":3021,"44":3022,"IL":3023,"Ġstudents":3024,"Ġservices":3025,">(":3026,"Ġmessage":3027,"Ġcustom":3028,"cle":3029,"Ġhuman":3030,"most":3031,"ills":3032,"do":3033,"ĠDis":3034,"Ġprob":3035,"Query":3036,"Ġcreated":3037,"Ġexpected":3038,"No":3039,"Ġbuilt":3040,"times":3041,"=\"../":3042,";</":3043,"Ġsy":3044,"ĠSch":3045,"Ġfocus":3046,"respond":3047,"parent":3048,"Ġborder":3049,"Ġclub":3050,"Ġcame":3051,"TH":3052,"Ġattack":3053,"2005":3054,"ĠLa":3055,"Ġable":3056,"check":3057,"Ġlight":3058,"Count":3059,"eqref":3060,"tau":3061,"Ġdeterm":3062,"ĠHar":3063,"Ġimage":3064,"pose":3065,"Ġvideo":3066,"Ġtele":3067,"Ġalign":3068,"sequ":3069,"Ġpublished":3070,"ptions":3071,"Ġsent":3072,"ĠThese":3073,"ĠBro":3074,"iff":3075,"Ġarch":3076,"igation":3077,"Americ":3078,"ithub":3079,"ynam":3080,"Ġenergy":3081,"Sub":3082,"imary":3083,"Ġpopulation":3084,"Override":3085,"init":3086,"Builder":3087,"CH":3088,"Mod":3089,"Ġaway":3090,"Ġperformance":3091,"atab":3092,"Ġkeep":3093,"inition":3094,"rt":3095,"Comp":3096,"Ġemploy":3097,"andom":3098,"Ġshows":3099,"Ġlik":3100,"Ġlittle":3101,"Ġcomput":3102,"ican":3103,"Ġcoll":3104,"Ġeither":3105,"Ġpast":3106,"false":3107,"avel":3108,"ude":3109,"ocr":3110,"Ġindividual":3111,"Ġfilms":3112,"IR":3113,"illed":3114,"Ġstd":3115,"Ġintrodu":3116,"Ġincluded":3117,"ĠSm":3118,"rown":3119,"Ġask":3120,"Ġclose":3121,"ĠAng":3122,"2004":3123,"nown":3124,"attle":3125,"48":3126,"End":3127,"ological":3128,"angle":3129,"irm":3130,"SP":3131,"light":3132,"ĠCollege":3133,"Ġgot":3134,"db":3135,"Method":3136,"Ġsat":3137,"Ġtre":3138,"Ġwar":3139,"190":3140,"Ġgen":3141,"Ġbeliev":3142,"amples":3143,"ama":3144,"}(\\":3145,"istrict":3146,"ependent":3147,"Ġra":3148,"Bar":3149,"ĠInt":3150,"Ġoutput":3151,"ĠSw":3152,"Ġvill":3153,"Ġstarted":3154,"Ġmiss":3155,"ris":3156,"ements":3157,"Stream":3158,"Ġdiscuss":3159,"ĠHer":3160,"Ġindic":3161,"Ġsomething":3162,"Ġmeans":3163,"ename":3164,"oon":3165,"Ġlocated":3166,"hand":3167,"ids":3168,"ociety":3169,"ĠWilliam":3170,"Ġplan":3171,"ĠThat":3172,"ĠVal":3173,"net":3174,"SC":3175,"github":3176,"Ġseen":3177,"partial":3178,"Ġplayer":3179,"ĠEm":3180,"Ġjob":3181,"Ġonce":3182,"iddle":3183,"rs":3184,"century":3185,"ĠAir":3186,"year":3187,"Ġear":3188,"================":3189,"Ġthings":3190,"uggest":3191,"Image":3192,"](":3193,"image":3194,"func":3195,"Ġmove":3196,"VID":3197,"verage":3198,"Ġdescribed":3199,"unic":3200,"aly":3201,"Ġproblem":3202,"ĠTest":3203,"Ġmedia":3204,"ĠIN":3205,"active":3206,"Ġlength":3207,"Ġhttp":3208,"FA":3209,"dev":3210,"Ġfuture":3211,"GL":3212,"core":3213,"iting":3214,"Ġsignificant":3215,"Gener":3216,"aves":3217,"ilities":3218,"hib":3219,"ilitary":3220,"ĠDo":3221,"ĠNot":3222,"Ġregion":3223,"Ġestablished":3224,"ministr":3225,"ĠInternational":3226,"anel":3227,"asing":3228,"ĠPhil":3229,"ĠTrans":3230,"ference":3231,"Ġeconom":3232,"ĠAdd":3233,"ched":3234,"Ġphys":3235,"Ġrelations":3236,"Ġmot":3237,"Ġbirths":3238,"ĠMich":3239,"Ġelection":3240,"center":3241,"run":3242,"Ġgrad":3243,"Ð¸":3244,"Ġwebs":3245,"Ġsection":3246,"event":3247,"Ġdefined":3248,"Em":3249,"Off":3250,"Ġlabel":3251,"Ġworks":3252,"argin":3253,"Ed":3254,"ocol":3255,"gor":3256,"Ġpred":3257,"ado":3258,"orage":3259,"Ġthough":3260,"namespace":3261,"artment":3262,")</":3263,"Ġvarious":3264,"Ġdone":3265,"ĠAc":3266,"aging":3267,"Ġcommand":3268,"Ġben":3269,"istry":3270,"Ġcases":3271,"ĠMy":3272,"omet":3273,"Input":3274,"There":3275,"Ġgive":3276,"Ġothers":3277,"Ġappear":3278,"PI":3279,"ĠClass":3280,"Ġtw":3281,"flu":3282,"oo":3283,"Ġprovided":3284,"ĠStud":3285,"xy":3286,"ges":3287,"Be":3288,"])":3289,"rect":3290,"Ġsaf":3291,"Util":3292,"American":3293,"Ġbegin":3294,"Ġwent":3295,"Ġhalf":3296,"Ġred":3297,"options":3298,"acing":3299,"bor":3300,"Ġstation":3301,"Ġfeatures":3302,"Ġcompon":3303,"Ġwhether":3304,"unch":3305,"iforn":3306,"Ġfeel":3307,"raphics":3308,"Ġ($":3309,"unity":3310,"}$,":3311,"client":3312,"Ġwidth":3313,"isk":3314,"dir":3315,"CC":3316,"|\\":3317,"elling":3318,"Ġden":3319,"witch":3320,"Date":3321,"Ġwritten":3322,"ensure":3323,"rad":3324,"Ġpotential":3325,"ĠSec":3326,"xi":3327,"ael":3328,"uel":3329,"rup":3330,"0000":3331,"null":3332,"65":3333,"ĠSan":3334,"fty":3335,"Ġmaterial":3336,"Ġ<<":3337,"Ġlive":3338,"atural":3339,"OP":3340,"Ġabs":3341,"Ġround":3342,"based":3343,"Ġsw":3344,"efore":3345,"mat":3346,"Instance":3347,"Ã³":3348,"OS":3349,"Ġadded":3350,"ĠMark":3351,"AM":3352,"lease":3353,"Ġactiv":3354,"ĠĠĠĠĠĠĠĠĠĠĠĠĠĠĠĠĠ":3355,"cul":3356,"Status":3357,"Ġnum":3358,"mon":3359,"ĠMon":3360,"ifornia":3361,"anies":3362,"Ġcle":3363,"ĠGL":3364,"ara":3365,"Ġdistr":3366,"urb":3367,"Ġvia":3368,"Ġpress":3369,"Ġtreat":3370,"ĠAmerica":3371,"current":3372,"igure":3373,"YPE":3374,"Ġengine":3375,"BC":3376,"}$.":3377,"Ġexperience":3378,"Ġbi":3379,"ONT":3380,"Oper":3381,"Ġvalid":3382,"Ġkind":3383,"ecess":3384,"ĠNe":3385,"Ġsit":3386,"Ġproduction":3387,"Action":3388,"Ġdisplay":3389,"ftware":3390,"Ġlove":3391,"ires":3392,"How":3393,"Source":3394,"((":3395,"hel":3396,"ĠFrench":3397,"gen":3398,"Act":3399,"Ġmer":3400,"nu":3401,"ĠĠĠĠĠĠĠĠĠĠĠĠĠĠĠĠĠĠĠĠĠĠĠĠĠĠĠĠĠĠĠ":3402,"option":3403,"args":3404,"query":3405,"ĉĊ":3406,"button":3407,"infty":3408,"medi":3409,"Ġspecies":3410,"ĠNULL":3411,"Ġlot":3412,"ipp":3413,"ategory":3414,"ceed":3415,"ishing":3416,"Ġstop":3417,"Ġder":3418,"ĠDef":3419,"aries":3420,"Ġcentury":3421,"49":3422,"<!--":3423,"ibrary":3424,"ened":3425,"ĠNor":3426,"ĠCour":3427,"sim":3428,"iation":3429,"Str":3430,"request":3431,"lib":3432,"Ġmom":3433,"ĠIndia":3434,"fect":3435,"ĠRed":3436,"Ġglobal":3437,"Ġterms":3438,"ework":3439,"tilde":3440,"ociation":3441,"gorith":3442,"avy":3443,"Sp":3444,"ns":3445,"Ġcirc":3446,"Head":3447,"ĠPresident":3448,"ging":3449,"orge":3450,"Ġcou":3451,"Ap":3452,"Ġbelow":3453,"Ġblack":3454,"Ġhowever":3455,"AG":3456,"Ġandroid":3457,"atabase":3458,"riter":3459,"Ġsuggest":3460,"df":3461,"vis":3462,"php":3463,"Ġlanguage":3464,"Ġcapt":3465,"Ġinternational":3466,"Ġdate":3467,"Ġboolean":3468,"05":3469,"ellow":3470,"Ġsuff":3471,"EE":3472,"omega":3473,"Ġcompos":3474,"Ġprint":3475,"2003":3476,"ico":3477,"Ġclear":3478,"You":3479,"Ġmodels":3480,"Ġcorrespond":3481,"Ġreported":3482,"utions":3483,"Ġgroups":3484,"eline":3485,"roy":3486,"Delta":3487,"aker":3488,"ades":3489,"ĠDistrict":3490,"Ġthought":3491,"EX":3492,"Ġload":3493,"Ġcertain":3494,"atal":3495,"ĠIndian":3496,"capt":3497,"ha":3498,"iles":3499,"scal":3500,"flow":3501,"Ġcaus":3502,"Ġenough":3503,"ises":3504,"ĠNews":3505,"rows":3506,"Null":3507,"Pol":3508,"Ġshown":3509,"duc":3510,"Ġsound":3511,"Ġinstall":3512,"Ġsepar":3513,"Ġbit":3514,"Block":3515,"Ġnov":3516,"count":3517,"2001":3518,"ring":3519,"Ġaddition":3520,"Pos":3521,"arser":3522,"child":3523,"Ġphot":3524,"Ġcourse":3525,"Ġtask":3526,"page":3527,"chiev":3528,"What":3529,"Base":3530,"Ġdistrict":3531,"ĠGroup":3532,"izer":3533,"47":3534,"ĠčĊ":3535,"Token":3536,"ĠEngland":3537,"uster":3538,"Ġdeg":3539,"mit":3540,"change":3541,"irtual":3542,"Ġtaken":3543,"ĠAustralia":3544,"mar":3545,"useum":3546,"inated":3547,"server":3548,"Ġmonths":3549,"Ġenvironment":3550,"ĠUp":3551,"Ġrelease":3552,"MS":3553,"Ġcontribut":3554,"Ġtalk":3555,"ĠCalifornia":3556,"Ġaud":3557,"Ġborn":3558,"95":3559,"Ġstatus":3560,"xml":3561,"height":3562,"ivil":3563,"Ġcollection":3564,"sembly":3565,"finished":3566,"ĠStr":3567,"Ġson":3568,"Ġdecl":3569,"Buffer":3570,"ÃŃ":3571,"Ġtraining":3572,"iber":3573,"ection":3574,"Ġlo":3575,"ship":3576,"Ġlower":3577,"ĠSim":3578,"icles":3579,"ĠPat":3580,"plied":3581,"Ġconsidered":3582,"88":3583,"ĠInter":3584,"After":3585,"Ġserved":3586,"idget":3587,"aur":3588,"Ġtoday":3589,"itte":3590,"Equal":3591,"stream":3592,"ii":3593,"has":3594,"ĠIr":3595,"Line":3596,"FI":3597,"ĠDem":3598,"host":3599,"Ġled":3600,"aign":3601,"Ġwebsite":3602,"ech":3603,"Ġnews":3604,"board":3605,"ken":3606,"ĠRepublic":3607,"Ġstates":3608,"Ġparticip":3609,"lands":3610,"atory":3611,"Ġspecific":3612,"ÑĤ":3613,"Ġneg":3614,"Ġannounced":3615,"ĠPort":3616,"Ġ\"\"\"":3617,"TO":3618,"actions":3619,"UL":3620,"App":3621,"Ġcross":3622,"orem":3623,"itect":3624,"ebug":3625,"btn":3626,"Ġreturned":3627,"Ġsystems":3628,"Cell":3629,"Ġchanges":3630,"ĠLaw":3631,"place":3632,"gl":3633,"lying":3634,"Ġpolitical":3635,"Ġ->":3636,"lymp":3637,"Options":3638,"NS":3639,"burg":3640,"unt":3641,"Ġnight":3642,"imation":3643,"adata":3644,"ĠGovern":3645,"ouch":3646,"AA":3647,"2002":3648,"ĠUK":3649,"Ġrate":3650,"Ġaverage":3651,"Ġreason":3652,"UE":3653,"Ġfall":3654,"oved":3655,"Ġpur":3656,"han":3657,"Ġwhy":3658,"Run":3659,"pected":3660,"Ġground":3661,"Ġstructure":3662,"Ġmakes":3663,"Ġcy":3664,"cm":3665,"Ġsearch":3666,"Ġsubject":3667,"iers":3668,"case":3669,"Ġsequ":3670,"yles":3671,"Ġattempt":3672,"dr":3673,"oyal":3674,"element":3675,"Ġhistor":3676,"inn":3677,"77":3678,"Ġrespons":3679,"Ġprotected":3680,"tx":3681,"izing":3682,"cdot":3683,"adding":3684,"Ġhttps":3685,"''":3686,"Ġoption":3687,"lood":3688,"Ġunderstand":3689,"ATE":3690,"Ġitem":3691,"ĠGerman":3692,"append":3693,"Ġloss":3694,"oe":3695,"ores":3696,"Ġdied":3697,"ĠCenter":3698,"IM":3699,"ĠBlack":3700,"Ġaccept":3701,"ĠCup":3702,"Ġ+=":3703,"Content":3704,"OD":3705,"wise":3706,"textbf":3707,"Ġaccording":3708,"elete":3709,"Ġcomplex":3710,"Ġda":3711,"used":3712,"Ġcontinue":3713,"Ġbar":3714,"header":3715,"Ġhigher":3716,"Sup":3717,"aching":3718,"su":3719,"Ġyet":3720,"}[":3721,"ĠStreet":3722,"ialog":3723,"HT":3724,")(":3725,"Part":3726,"Ġinstead":3727,"jav":3728,"Ð½":3729,"ensive":3730,"coming":3731,"Ġepis":3732,"Ġsure":3733,"Handler":3734,"08":3735,"Ġ...":3736,"Nav":3737,"ĠDon":3738,"target":3739,"CK":3740,"ĠĠĠĠĠĠĠĠĠĠĠĠĠĠ":3741,"ĠChampionship":3742,"dl":3743,"Ġill":3744,"Ã¼":3745,"Ġareas":3746,"ĠAcc":3747,"ugin":3748,"Ġchall":3749,"[\"":3750,"Resource":3751,"unfinished":3752,"Ġcopy":3753,"ĠMore":3754,"({":3755,"....":3756,"Ġpopular":3757,"otype":3758,"Start":3759,"Ġsold":3760,"Ġroad":3761,"ota":3762,"ĠAnt":3763,"Ġresource":3764,"Ġassociated":3765,"ĠCOVID":3766,"Ġentire":3767,"gener":3768,"non":3769,"ĠFirst":3770,"bm":3771,"$$":3772,"Ġfront":3773,"Ġnorth":3774,"member":3775,"Ġcolumn":3776,"lector":3777,"Ġstep":3778,"){":3779,"Ġfail":3780,"istics":3781,"Ġtelevision":3782,"Attribute":3783,"46":3784,"Ġwindow":3785,"ĠSk":3786,"Ġperm":3787,"ĠGl":3788,"ett":3789,"igital":3790,"ĠPal":3791,"Ġver":3792,"ĠSen":3793,"irection":3794,"Ġdouble":3795,"ĠDavid":3796,"Ġfem":3797,"Ab":3798,"Factory":3799,"Ġcompanies":3800,"Ġclient":3801,"ĠFrom":3802,"'re":3803,"Pre":3804,"Ġbroad":3805,"Ġanalysis":3806,"Ġstandard":3807,"ptr":3808,"True":3809,"stitute":3810,"apter":3811,"etic":3812,"omb":3813,"arter":3814,"Ġachiev":3815,"OL":3816,"ĠReturn":3817,"Ġmethods":3818,"hood":3819,"undle":3820,"ĠCouncil":3821,"oms":3822,"Component":3823,"Ġdoesn":3824,"ospital":3825,"ĠRiver":3826,"Ġsuccessful":3827,"mm":3828,"acity":3829,"VER":3830,"open":3831,"ĠBer":3832,"Ġdeal":3833,"ĠDiv":3834,"strong":3835,"atives":3836,"level":3837,"Ġhom":3838,"Ġfather":3839,"*/":3840,"nes":3841,"ĠNone":3842,"ĠChina":3843,"Ġfav":3844,"Ġstream":3845,".)":3846,"ĠMal":3847,"ĠHealth":3848,"Ġparty":3849,"airs":3850,"ĠWhat":3851,"Ġmonth":3852,"caption":3853,"write":3854,"symbol":3855,"Ġheight":3856,"astic":3857,"500":3858,"Ġparameters":3859,"Ġrecogn":3860,"}}\\":3861,"Acc":3862,"Ġrather":3863,"Ġfire":3864,"à¤":3865,"Ġmoved":3866,"ributes":3867,"Link":3868,"ĠCanada":3869,"ĠEuropean":3870,"Ġfood":3871,"amily":3872,"Ġamount":3873,"vider":3874,"ago":3875,"Om":3876,"anced":3877,"rupt":3878,"property":3879,"chan":3880,"json":3881,"ĠHol":3882,"Ġemb":3883,"Ġconditions":3884,"Ġcut":3885,"andid":3886,"ĠPaul":3887,"eger":3888,"anks":3889,"Ġmultiple":3890,"ancial":3891,"Ġconstruct":3892,"Ġproduced":3893,"Ġmoney":3894,"ĠTV":3895,"Ġwrite":3896,"78":3897,"Function":3898,"char":3899,"known":3900,"Ġcontract":3901,"ĠGeneral":3902,"ensity":3903,"eed":3904,"rl":3905,"wide":3906,"Ġcatch":3907,"Ġincludes":3908,"II":3909,"si":3910,"ĠJames":3911,"Ġelements":3912,"unn":3913,"rypt":3914,"aven":3915,"Ġonline":3916,"NO":3917,"Ġconsist":3918,"elt":3919,"ĠĠĠĠĠĠĠĠĊ":3920,"42":3921,"ĠFil":3922,"Ġliter":3923,"ula":3924,"Ġthrows":3925,"png":3926,"Ġadditional":3927,"Ġlost":3928,"ication":3929,"display":3930,"ĠÃ":3931,"idden":3932,"ÑĢ":3933,"Ġaward":3934,"yr":3935,"Ġalmost":3936,"Ġindustry":3937,"first":3938,"Ġrights":3939,"ston":3940,"Us":3941,"gle":3942,"Ġprior":3943,"ĠObject":3944,"Ġvisit":3945,"Ġpaper":3946,"rote":3947,"ĠDepartment":3948,"Default":3949,"Ġviol":3950,"eqn":3951,"raz":3952,"Ġsem":3953,"Gr":3954,"ĠRober":3955,"Version":3956,"REF":3957,"cel":3958,"aches":3959,"vey":3960,"draw":3961,"Ġsouth":3962,"Point":3963,"like":3964,"ocket":3965,"ĠCons":3966,"Load":3967,"06":3968,"Ġinj":3969,"Ġtax":3970,"ypes":3971,"ida":3972,"ittee":3973,"post":3974,"Ġregular":3975,"cial":3976,"wood":3977,"Ġquestion":3978,"ming":3979,"Ġdidn":3980,"status":3981,"First":3982,"pecially":3983,"Ġtaking":3984,"ya":3985,"RA":3986,"olic":3987,"oted":3988,"endif":3989,"cap":3990,"img":3991,"apping":3992,"Ġface":3993,"ili":3994,"itar":3995,"LASS":3996,"Ġ{@":3997,"When":3998,"Ġlimit":3999,"Ġcannot":4000,"can":4001,"Ġge":4002,"Ġnormal":4003,"Ġworked":4004,"Ġrelated":4005,"ville":4006,"oz":4007,"Ġpresident":4008,")$.":4009,"Ġapproach":4010,"02":4011,"ĠRich":4012,"Ġinflu":4013,"Ġparameter":4014,"Ġvillage":4015,"Ġtool":4016,"09":4017,"ube":4018,"ederal":4019,"isf":4020,"Ġinternal":4021,"psi":4022,"ĠThom":4023,"Ġpolicy":4024,"Ġimpact":4025,"Ġexpress":4026,"1999":4027,"foot":4028,"Ġapplication":4029,"ĠParty":4030,"Ġmid":4031,"ka":4032,"encies":4033,"One":4034,"iences":4035,"Ġpersonal":4036,"mult":4037,"Ġapplic":4038,"Ġtell":4039,"Style":4040,"Ġbox":4041,"Ġinit":4042,"Ġtold":4043,"Char":4044,"Ġnecess":4045,"Ġissues":4046,"eal":4047,"Ġwhite":4048,"Ġhon":4049,"rowser":4050,"Ġcenter":4051,"Ġflow":4052,"Ġpatients":4053,"Ġeducation":4054,"Ġupdate":4055,"85":4056,"\\,":4057,"det":4058,"udd":4059,"iqu":4060,"IV":4061,"Task":4062,"Ġlocation":4063,"}_{\\":4064,"sg":4065,"Ġcurrently":4066,"Back":4067,"ledge":4068,"Ġmag":4069,"Ġpercent":4070,"Ġwest":4071,"epsilon":4072,"zon":4073,"module":4074,"Ġconcern":4075,"ensor":4076,"07":4077,"find":4078,"PC":4079,"Ġtypes":4080,"ĉĉĉĉĉĉĉĉ":4081,"ĠWork":4082,"oul":4083,"INT":4084,"Check":4085,"Ġmeasure":4086,"PRO":4087,"ĠChurch":4088,"Number":4089,"Ġcomplete":4090,"Ġfollows":4091,"bottom":4092,"resh":4093,"Label":4094,"////////////////":4095,"py":4096,"ĠOut":4097,"Ġsym":4098,"bold":4099,"Ġjo":4100,"chi":4101,"Ġche":4102,"lor":4103,"evelop":4104,"ĠBook":4105,"Ġ((":4106,"Hel":4107,"Omega":4108,"Ġquant":4109,"Ġactive":4110,"ĠCr":4111,"ĠBel":4112,"adian":4113,"04":4114,"src":4115,"asons":4116,"Ġcho":4117,"Ġexecut":4118,"Page":4119,"pite":4120,"ams":4121,"Ġproperties":4122,"Met":4123,"Ġfight":4124,"pc":4125,"ĠSum":4126,"ĠDirect":4127,"Per":4128,"\"]":4129,"Ġthing":4130,"Ġvert":4131,"Mem":4132,"1990":4133,"asc":4134,"stract":4135,"istance":4136,"Ġapprox":4137,"ĠJust":4138,"Ġcontains":4139,"ĠDi":4140,"Ġeffort":4141,"Ġneeds":4142,"Ġbehind":4143,"Ġpers":4144,"Equals":4145,"private":4146,"ĠCourt":4147,"Ġactually":4148,"oring":4149,"History":4150,"ĠAward":4151,"Ġtour":4152,"ving":4153,"signed":4154,"ĠQue":4155,"Ġplatform":4156,"pack":4157,"Ġbenef":4158,"ĠGerm":4159,"Ġrunning":4160,"ining":4161,"~~":4162,"Web":4163,"itch":4164,"Ġdistribution":4165,"Ġrock":4166,"Create":4167,"ashington":4168,"anged":4169,"eck":4170,"});":4171,"pol":4172,"Ġvict":4173,"189":4174,"(&":4175,"Ġstage":4176,"Window":4177,"po":4178,"Ġleading":4179,"56":4180,"Ġcomes":4181,"ĠSing":4182,"gorithm":4183,"Ġsimple":4184,"Ġspect":4185,"Ġfrequ":4186,"std":4187,"ABLE":4188,"ĠThen":4189,"rian":4190,"push":4191,"cing":4192,"Child":4193,"ĠDay":4194,"oding":4195,"03":4196,"ĠSub":4197,"ĠFrance":4198,"inst":4199,"arning":4200,"Ġoffice":4201,"Ġprote":4202,"format":4203,"Ġimm":4204,"Ġhours":4205,"ĠAssociation":4206,"itting":4207,"Ġrelationship":4208,"last":4209,"Ġdeveloped":4210,"atas":4211,"ios":4212,"76":4213,"Ext":4214,"ĠDan":4215,"elves":4216,"^*":4217,"Ġconduct":4218,"erve":4219,"ĠOlymp":4220,"Ġdim":4221,"sqrt":4222,"ĠMart":4223,"Ġbg":4224,"Ġfunctions":4225,"Ġq":4226,"ND":4227,"enced":4228,"Ġissue":4229,"Ġextends":4230,"Return":4231,"berg":4232,"ĠMat":4233,"Ġhor":4234,"Ġopport":4235,"Command":4236,"ĠMet":4237,"Ġwriting":4238,"subsection":4239,"EL":4240,"Ġfriend":4241,"Ġhimself":4242,"\"),":4243,"Ġupon":4244,"59":4245,"People":4246,"Ġcred":4247,"${":4248,"ulated":4249,"Ġregard":4250,"Ġdeaths":4251,"cret":4252,"Last":4253,"ifact":4254,"Ġbehav":4255,"Row":4256,"chema":4257,"Ġformat":4258,"Ġmilitary":4259,"win":4260,"ĠWeb":4261,"soft":4262,"nov":4263,"obile":4264,"Ġpositive":4265,"\").":4266,"Ġlikely":4267,"Ġbring":4268,"Ġitself":4269,"navbar":4270,"anger":4271,"Ġrecent":4272,"Ġstaff":4273,"Ġtakes":4274,"uz":4275,"Ġcampaign":4276,"Ġlines":4277,"rip":4278,"orph":4279,"Ent":4280,"ĠHall":4281,"UI":4282,"Ġmale":4283,"ening":4284,"local":4285,"ĠArch":4286,"Ġwhose":4287,"BU":4288,"van":4289,"psilon":4290,"86":4291,"FONT":4292,"entry":4293,"Ġwrote":4294,"Ġplaying":4295,"irit":4296,"ĠGeorge":4297,"Ġwhole":4298,"inate":4299,"Ġsche":4300,"ees":4301,"ficult":4302,"imately":4303,"Ġprovides":4304,"rief":4305,"emic":4306,"iday":4307,"Ġtechnology":4308,"Ġrow":4309,"Ġdirector":4310,"ĠSome":4311,"ctor":4312,"Ġincrease":4313,"Ġir":4314,"ĠGreen":4315,"Ġneeded":4316,"Ġsex":4317,"Ġdraw":4318,"ĠRoad":4319,"alle":4320,"Ġteams":4321,"ba":4322,"font":4323,"comes":4324,"Ġeast":4325,"Ġgoal":4326,"description":4327,"Ġquick":4328,"west":4329,"sole":4330,"TP":4331,"heet":4332,"Ġpolice":4333,"Ġoperation":4334,"ughter":4335,"outhern":4336,"ERT":4337,"ua":4338,"Ġnames":4339,"Ġleaders":4340,"Ġoutside":4341,"Ġconv":4342,"quare":4343,"ros":4344,"1998":4345,"Ġsus":4346,"Ñģ":4347,"Format":4348,"Ġunit":4349,"obj":4350,"ander":4351,"ĠOF":4352,"Ġgraph":4353,"UM":4354,"len":4355,"allet":4356,"grad":4357,"achine":4358,"igger":4359,"Ġey":4360,"ipal":4361,"Filter":4362,"izes":4363,"Eng":4364,"Ġarticle":4365,"Ã¶":4366,"mem":4367,"Ġten":4368,"Ġpick":4369,"_.":4370,"ares":4371,"Rep":4372,"Ġliving":4373,"Ġcast":4374,"project":4375,"Ð¾Ð":4376,"ensions":4377,"ĠPublic":4378,"ĠJack":4379,"Ġdam":4380,"Ġespecially":4381,"Ġwalk":4382,"Ġdetails":4383,"ĠRef":4384,"icient":4385,"Ġrisk":4386,"Spec":4387,"Ġsolution":4388,"ria":4389,"Ġspecified":4390,")$,":4391,"la":4392,"Ġrace":4393,"final":4394,"Big":4395,"emph":4396,"vare":4397,"Ge":4398,"Ġmoment":4399,"rd":4400,"ĠGod":4401,"ĠLou":4402,"Ġshare":4403,"ĠCam":4404,"Ġautom":4405,"ĠResearch":4406,"ĠĠĠĠĠĠĠĠĠĠĠĠĊ":4407,"Ġappoint":4408,"Ġbgcolor":4409,"gin":4410,"Ġreve":4411,"ĠPe":4412,"Ġdiscover":4413,"Ġeval":4414,"agon":4415,"Ġmanagement":4416,"hi":4417,"atur":4418,"Ġstre":4419,"ĠMusic":4420,"stant":4421,"Ġ]":4422,"ĠData":4423,"rated":4424,"Ġcharacters":4425,"Gamma":4426,"ĠID":4427,"anning":4428,"response":4429,"Ġauto":4430,"Ġtro":4431,"Ġprofessional":4432,"Ġdepend":4433,"Ġurl":4434,"dated":4435,"ully":4436,"Ġexc":4437,"Ġtemper":4438,"Ġwatch":4439,"Ġnatural":4440,"Ġdepart":4441,"ĠJer":4442,"ERR":4443,"Let":4444,"band":4445,"lier":4446,"Ġbad":4447,"inding":4448,"container":4449,"refix":4450,"inese":4451,"TYPE":4452,"close":4453,"attr":4454,"alls":4455,"Ġtim":4456,"ini":4457,"och":4458,"riate":4459,"41":4460,"BA":4461,"verse":4462,"Ġsecurity":4463,"pass":4464,"Ġsil":4465,"otes":4466,"Ġforward":4467,"ĠInstitute":4468,"Ġadministr":4469,"Ġmodule":4470,"Ġselected":4471,"Next":4472,"zer":4473,"Ġcontact":4474,"IO":4475,"Ġcondition":4476,"Ġqual":4477,"Ġcountries":4478,"ĠMount":4479,"Collection":4480,"Ġunique":4481,"params":4482,"Ġmodern":4483,"Ġdifficult":4484,"Ġwords":4485,"Ġdebut":4486,"meta":4487,"layout":4488,"Ġallowed":4489,"58":4490,"Ġexcept":4491,"bon":4492,"ĠVol":4493,"estival":4494,"uint":4495,"ĠService":4496,"Ġestablish":4497,">>":4498,"imated":4499,"Ġfields":4500,"Ġforce":4501,"ani":4502,"Controller":4503,"ĠYear":4504,"Ġheart":4505,"ĠSl":4506,"ĠArmy":4507,"57":4508,"egraphics":4509,"ĠMac":4510,"Ġacqu":4511,"includegraphics":4512,"ena":4513,"Ġmargin":4514,"SON":4515,"43":4516,"ĠWashington":4517,"ql":4518,"select":4519,"abs":4520,"ategy":4521,"ufact":4522,"Ġuses":4523,"reek":4524,"Ġnav":4525,"Ġconstant":4526,"Ġserver":4527,"ĠRem":4528,"Ġscreen":4529,"mt":4530,"Ġnumer":4531,"CL":4532,"edia":4533,"Ġlooking":4534,"ĠHam":4535,"ĠUs":4536,"Ġreference":4537,"SI":4538,"aled":4539,"exp":4540,"Ġassum":4541,"Living":4542,"number":4543,"filter":4544,"elebr":4545,"Box":4546,"ĠPress":4547,"Ġtravel":4548,"Ġrev":4549,"Output":4550,"irus":4551,"ĠSam":4552,"dep":4553,"ttp":4554,"ĠLicense":4555,"Dr":4556,"ĠBest":4557,"process":4558,"Ġvacc":4559,"uate":4560,"ascript":4561,"ulations":4562,"Ġdoing":4563,"plicit":4564,"Ġpain":4565,"uid":4566,"ĠCompany":4567,"Ġparts":4568,"long":4569,"Det":4570,"cho":4571,"Ġword":4572,"num":4573,"Ġdesigned":4574,"ĠWhite":4575,"ĠMag":4576,"Ġprop":4577,"That":4578,"ias":4579,"ĠPre":4580,"aine":4581,"Ġreturns":4582,"Ġproducts":4583,"ĠRead":4584,"Ġnone":4585,"Ġboard":4586,"rael":4587,"Ġseem":4588,"Ġroom":4589,"Ġfiles":4590,"Ġcomment":4591,"Ġhit":4592,"Aut":4593,"annot":4594,"more":4595,"Ġentry":4596,"///":4597,"icted":4598,"Ġsaw":4599,"Ġthroughout":4600,"service":4601,"ĠRoman":4602,"Bl":4603,"only":4604,"ĠOf":4605,"icial":4606,"ĠOpen":4607,"bert":4608,"idents":4609,"Ġneigh":4610,"ĠMont":4611,"CON":4612,"ĠTex":4613,"Ġpack":4614,"^{(":4615,"small":4616,"alian":4617,"ĠRoyal":4618,"ala":4619,"Ġmulti":4620,"URL":4621,"Ġtransfer":4622,"Ġlearning":4623,"Listener":4624,"Ġnovel":4625,"1980":4626,"Work":4627,"ocal":4628,"ĠMary":4629,"Ġstar":4630,"Ġcandid":4631,"Length":4632,"hest":4633,"ĠIsland":4634,"Column":4635,"varepsilon":4636,"iant":4637,"ounds":4638,"ĠAfrica":4639,"ĠFranc":4640,"Ġinterface":4641,"menu":4642,"Ġmagn":4643,"het":4644,"gn":4645,"Rem":4646,"ĠAustralian":4647,"hing":4648,"Sy":4649,"ĠWhile":4650,"ĉĠĠĠ":4651,"update":4652,"term":4653,"unit":4654,"Ġdecision":4655,"ĠType":4656,"Ġperformed":4657,"Ġago":4658,"Ġcompleted":4659,"ĠGermany":4660,"aily":4661,"Ġfa":4662,"ĠDemocr":4663,"Ġspeed":4664,"uge":4665,"ĠScience":4666,"ĠRobert":4667,"Ġinf":4668,"ĠMor":4669,"ĠUnion":4670,"Ġjud":4671,"Ġtheory":4672,"Ġsoftware":4673,"ping":4674,"Ġvirtual":4675,"arily":4676,"Ġcontinued":4677,"ĠSociety":4678,"spec":4679,"Ġinvolved":4680,"Ġshall":4681,"Ġemer":4682,"rib":4683,"Ġopened":4684,"1997":4685,"ervices":4686,"Valid":4687,"ĠMer":4688,"ĠMiss":4689,"Ġscale":4690,"Ġstudies":4691,"fort":4692,"Ġschools":4693,"Ġbooks":4694,"Ġsett":4695,"Ġmother":4696,"ĠEX":4697,"ĠFound":4698,"ĠTechn":4699,"ĠMod":4700,"very":4701,"Ġhot":4702,"Ġgetting":4703,"Address":4704,"Ġsatisf":4705,"Ġjoined":4706,"rial":4707,"ĠAngel":4708,"Le":4709,"ĠMichael":4710,"ĠLeg":4711,"just":4712,"antic":4713,"Ġdevice":4714,"Ġarchitect":4715,"Ġrandom":4716,"Ġusers":4717,"Ġconstruction":4718,"Ġdise":4719,"arth":4720,"under":4721,"Ġlonger":4722,"sey":4723,"Ġcontr":4724,"Ġcourt":4725,"ulture":4726,"ario":4727,"Ġgirl":4728,"dim":4729,"Ġmind":4730,"shire":4731,"Ġsoon":4732,"Top":4733,"Ġsurface":4734,"SA":4735,"joy":4736,"output":4737,"aud":4738,"Ġsn":4739,"ĠHREF":4740,"illing":4741,"Ġwife":4742,"Ġthus":4743,"otal":4744,"Ġveh":4745,"ilies":4746,"Ġtransform":4747,"Ġeffects":4748,"Ġwait":4749,"Ġquality":4750,"Mode":4751,"pat":4752,"ĠBay":4753,"CD":4754,"acter":4755,"ying":4756,"Button":4757,"ĠHT":4758,"icture":4759,"tool":4760,"Ġsongs":4761,"ĠBen":4762,"ĠGold":4763,"1996":4764,"89":4765,"Ġ${\\":4766,"Ġ``":4767,"<?":4768,"Co":4769,"Ġmode":4770,"prop":4771,"ĠLet":4772,"pring":4773,"inner":4774,"remove":4775,"Ġ;":4776,"adow":4777,"ĠTime":4778,"API":4779,"efined":4780,"Ġ[]":4781,"67":4782,"ĠAlex":4783,"Ġess":4784,"Dev":4785,"arks":4786,"ein":4787,"Ġdeep":4788,"Ġconnection":4789,"eqnarray":4790,"Ġvers":4791,"iginal":4792,"nected":4793,"Ġgave":4794,"witter":4795,"Ġgre":4796,"Ġcontinu":4797,"ĠDel":4798,"ĠPost":4799,"ĠEv":4800,"Ġsigned":4801,"Post":4802,"proof":4803,"ĠVir":4804,"Ġregister":4805,"********************************":4806,"ĠCLASS":4807,"Ġexact":4808,"mission":4809,"Ġcallback":4810,"show":4811,"Ġoperations":4812,"ci":4813,"Cache":4814,"ĠCE":4815,"Ġidea":4816,"essages":4817,"Ġimmedi":4818,"ailway":4819,"Ġclosed":4820,"Ġmus":4821,"edd":4822,"ĠClub":4823,"Ã¤":4824,"Ġdirectly":4825,"Ġ**":4826,"Can":4827,"iding":4828,"greg":4829,"kit":4830,"Ġdoc":4831,".}":4832,"force":4833,")=":4834,"vest":4835,"Ġfollowed":4836,"ducation":4837,"ĠCong":4838,"ĠMex":4839,"Ġfilter":4840,"CA":4841,"ĠTom":4842,"cor":4843,"Ġprogress":4844,"Ġpolitic":4845,"Ġchanged":4846,"mercial":4847,"Ġminutes":4848,"Ġproposed":4849,"ĠAcadem":4850,"background":4851,"Ġdemon":4852,"Ġalthough":4853,"eve":4854,"Ġhous":4855,"ĠSee":4856,"break":4857,"Target":4858,"Ġpassed":4859,"column":4860,"Ġprevent":4861,"Ġfailed":4862,"Ġprimary":4863,"Ġsupported":4864,"PO":4865,"}=":4866,"Offset":4867,"FT":4868,"Access":4869,"SD":4870,"ĠDivision":4871,"anish":4872,"ano":4873,"urren":4874,"Ġkm":4875,"Ġ<!--":4876,"Ġreading":4877,"Layout":4878,"Ġcoming":4879,"Vis":4880,"instance":4881,"Mar":4882,"Ġprinc":4883,"Ġstay":4884,"Ġrank":4885,"issions":4886,"Ġlevels":4887,"expected":4888,"Ġevidence":4889,"Ġproblems":4890,"Ġcorrect":4891,"Ġdefe":4892,"Ġmarried":4893,"bour":4894,"Ġaw":4895,"Ġnor":4896,"bb":4897,"main":4898,"javascript":4899,"icrosoft":4900,"Ġprec":4901,"wrap":4902,"Ġcalcul":4903,"ĠMr":4904,"Ġmatter":4905,"Ġstore":4906,"icate":4907,"Ġtreatment":4908,"Ġobj":4909,"Ġteach":4910,"Tag":4911,"za":4912,"}^{\\":4913,"older":4914,"ĠAnn":4915,"Ġbre":4916,"Ġdegree":4917,"Ġâ":4918,"Types":4919,"sf":4920,"Ġcentral":4921,"Ġuint":4922,"HO":4923,"Server":4924,"UP":4925,"hedul":4926,"Ġfinancial":4927,"Ġ(\"":4928,"COL":4929,"Ġ\\,":4930,"Par":4931,"Ġmechan":4932,"Ġeight":4933,"Ġdeb":4934,"Ġobtained":4935,"reference":4936,"So":4937,"Ġansw":4938,"Sec":4939,"tag":4940,"Ġmaint":4941,"geq":4942,"ĠName":4943,"Ġwoman":4944,"ĠSy":4945,"Ġusually":4946,"rightarrow":4947,"Ġlargest":4948,"ãģ":4949,"ĠTown":4950,"ãĥ":4951,"porary":4952,"plies":4953,"Update":4954,"itude":4955,"Ġrestr":4956,"Ġmount":4957,"```":4958,"Frame":4959,"Ġfont":4960,"urt":4961,"Ġsens":4962,"Ġjoin":4963,"Bo":4964,"rangle":4965,"olar":4966,"').":4967,"oma":4968,"Ġrecomm":4969,"else":4970,"Ġmatrix":4971,"ously":4972,"Ġrespectively":4973,"iance":4974,"Url":4975,"izations":4976,"Ġasked":4977,"ĠRE":4978,"Ġchurch":4979,"ĠJew":4980,"float":4981,"ĠMad":4982,"1970":4983,"ĠSal":4984,"ATION":4985,"Ġrecorded":4986,"ĠLog":4987,"eek":4988,"ynamic":4989,"Ġtowards":4990,"ĠFin":4991,"1995":4992,"NAME":4993,"Ġsurv":4994,"mas":4995,"aints":4996,"ifying":4997,"cons":4998,"cs":4999,"ĠApp":5000,"Ġweb":5001,"79":5002,"Ġcomponent":5003,"Ġpattern":5004,"Ġball":5005,"Ġinside":5006,"ĠTexas":5007,"Ġsets":5008,"Ġsense":5009,"Ġindependent":5010,"Ġwor":5011,"Ġavoid":5012,"Ġweight":5013,"scope":5014,"Case":5015,"ental":5016,"ictor":5017,"ĠAre":5018,"Ġmention":5019,"isions":5020,"Ġste":5021,"++)":5022,"Ġcompared":5023,"Ġnumbers":5024,"Ġsort":5025,"54":5026,"Ġplaces":5027,"Min":5028,"offset":5029,"ĠKe":5030,"ĠOver":5031,"ĠDuring":5032,"asket":5033,"ĠĠĠĠĠĠĠĠĠĠĠĠĠĠĠĠĠĠĠĠĠĠĠĠĠĠĠĠĠĠĠĠĠĠĠ":5034,"SO":5035,"well":5036,"ĠBuild":5037,"ĠMuseum":5038,"Ġtree":5039,"51":5040,"cover":5041,"Ġ!==":5042,"Ag":5043,"erved":5044,"ĠAPI":5045,"scale":5046,"ĠInc":5047,"ĠRad":5048,"ramework":5049,"ĠRob":5050,"ĠAtt":5051,"ĠOper":5052,"ĠSince":5053,"FO":5054,"'m":5055,"Provider":5056,"boldsymbol":5057,"ĠNow":5058,"mselves":5059,"road":5060,"Ġinstit":5061,"Max":5062,"uit":5063,":</":5064,"Ġprobably":5065,"edy":5066,"Ġnothing":5067,"ĠWil":5068,"ĠSur":5069,"Ġgrowth":5070,"CP":5071,"ĠMem":5072,"iler":5073,"men":5074,"Ġculture":5075,"Ġplant":5076,"Ġsolid":5077,"task":5078,"ported":5079,"ĠHen":5080,"styles":5081,"igen":5082,"ĠScott":5083,"Ġbelieve":5084,"iece":5085,"Ġepisode":5086,"Ġcause":5087,"Ġwriter":5088,"hent":5089,"prototype":5090,"vec":5091,"Ġrat":5092,"varphi":5093,"Ġpurch":5094,"ĠFore":5095,"My":5096,"ĠAfrican":5097,"ĠCentral":5098,"overline":5099,"Ġconnect":5100,"RI":5101,"Ġhel":5102,"Ġthemselves":5103,"olve":5104,"ĠChinese":5105,"ĠEnd":5106,"%%":5107,"iform":5108,"Ġsetting":5109,"template":5110,"ĠMus":5111,"Open":5112,"empty":5113,"Ġmemory":5114,"iller":5115,"(_":5116,"Do":5117,"Ġlarger":5118,"Ġselect":5119,"Rel":5120,"87":5121,"circ":5122,"Ġrelig":5123,"Ġobtain":5124,"Ġscient":5125,"files":5126,"Ġradio":5127,".~\\":5128,"Port":5129,"ĠOur":5130,"ĠThomas":5131,"ĠCommission":5132,"Ġseven":5133,"Ġquery":5134,"icket":5135,"rong":5136,"uated":5137,"52":5138,"1994":5139,"ĠForm":5140,"azine":5141,"TI":5142,"Ġallows":5143,"[\\":5144,"ĠSuper":5145,"Configuration":5146,"enge":5147,"69":5148,"utils":5149,"}).":5150,"FL":5151,"Br":5152,"Ġchannel":5153,"INE":5154,"ĠMinister":5155,"Ġpractice":5156,"gu":5157,"Ġoffset":5158,"Ġsubs":5159,":\"":5160,"TS":5161,"Width":5162,"late":5163,"atively":5164,"common":5165,"Ġrule":5166,")]":5167,"author":5168,"Ġweeks":5169,"Ġagre":5170,"Ġrules":5171,"Ġdistance":5172,"olf":5173,"evelopment":5174,"Ġexpand":5175,"Ġappeared":5176,"Ġjournal":5177,"Ġbirth":5178,"dec":5179,"etch":5180,"ĠSmith":5181,"Ġremove":5182,"liament":5183,"ĠGames":5184,"Ġanything":5185,"criptor":5186,"ĠArray":5187,"ls":5188,"Ġintroduced":5189,"Ġdemonstr":5190,"AV":5191,"ura":5192,"overs":5193,"Ġlegal":5194,"ĠHistory":5195,"ĠGreat":5196,"Ġquite":5197,"Ġexpression":5198,"fit":5199,"ĠChe":5200,"Ġcompar":5201,"She":5202,"Ġobjects":5203,"Ġsen":5204,"otion":5205,"gan":5206,"Ġaltern":5207,"ĠChristian":5208,"53":5209,"Ġroot":5210,"Dec":5211,"Process":5212,"Bundle":5213,"Ġphase":5214,"Ġincreased":5215,"Ġseems":5216,"which":5217,"itory":5218,"Ġinvestig":5219,"Ġpreviously":5220,"ao":5221,"Ġcompl":5222,"Ġwanted":5223,"loor":5224,"illa":5225,"tty":5226,"Ġdram":5227,"Ġlimited":5228,"Ġimages":5229,"1992":5230,"ĠGrand":5231,"Ġcapital":5232,"isation":5233,"########":5234,"Ġresources":5235,"eft":5236,"ĠProgram":5237,"azz":5238,"ĠIsrael":5239,"ĠTur":5240,"Ġcelebr":5241,"300":5242,"Ġequal":5243,"ĠProv":5244,"ayers":5245,"Ġrecently":5246,"Ġinterview":5247,"68":5248,"KE":5249,"ĠFrancis":5250,"aml":5251,"Ġdead":5252,"Ġenjoy":5253,"Ġstarting":5254,"ette":5255,"ĠCD":5256,"istan":5257,"ĠCanadian":5258,"yth":5259,"Ġthreat":5260,"ĠGoogle":5261,"Ġship":5262,"iring":5263,"Ġlen":5264,"Ġsports":5265,"ĠReview":5266,"Ġexisting":5267,"buffer":5268,"Ġbuffer":5269,"Ġlack":5270,"Ġselection":5271,"ĠOther":5272,"ĠHel":5273,"Ġmedical":5274,"ĠDec":5275,"Ġfinally":5276,"Ġgives":5277,"Ġearlier":5278,"Ġsimply":5279,"Ġscience":5280,"cos":5281,"ensus":5282,"inct":5283,"ora":5284,"aught":5285,"ĠWestern":5286,"bin":5287,"Fe":5288,"sd":5289,"isl":5290,"itation":5291,"=#":5292,"Sl":5293,"Ġfloat":5294,"Ġhy":5295,"ĠJapanese":5296,"ĠCarol":5297,"returns":5298,"eds":5299,"ĠRussian":5300,"icens":5301,"Tree":5302,"Entry":5303,"oom":5304,"ighest":5305,"DB":5306,"Container":5307,"'ve":5308,"hline":5309,"Ġstri":5310,"Ġsession":5311,"Ġoperator":5312,"Ġconcept":5313,"Sim":5314,"match":5315,"creen":5316,"Ġnecessary":5317,"Ġmanufact":5318,"atin":5319,"ĠFig":5320,"ĠFile":5321,"Ġfun":5322,"ĠCamp":5323,"vant":5324,"Ġfast":5325,"ether":5326,"ancy":5327,"&\\":5328,"ĠCath":5329,"iger":5330,"Ġensure":5331,"Ob":5332,"reme":5333,"ecution":5334,"Ġfriends":5335,"Ġchalleng":5336,"Ġexhib":5337,"atre":5338,"Ġbrought":5339,"Ġdescription":5340,"root":5341,"ĠGovernment":5342,"Ġcells":5343,"]);":5344,"ean":5345,"ĠTor":5346,"Ġpresented":5347,"FC":5348,"1993":5349,"gate":5350,"frak":5351,"Ġdeliver":5352,"should":5353,"Ġdefine":5354,"ĠBill":5355,"Ġiter":5356,"Ġgold":5357,"Header":5358,"Ġign":5359,"Ġscore":5360,"ĠDet":5361,"ĠVirgin":5362,"arp":5363,"igr":5364,"Ġincreasing":5365,"Ġdro":5366,"Ġstatement":5367,"weight":5368,"ĠKore":5369,"Ġexists":5370,"anges":5371,"icago":5372,"Ġetc":5373,";->":5374,"Ġgas":5375,"Ġtrying":5376,">,":5377,"artifact":5378,"Ġactual":5379,"track":5380,"mut":5381,"Ġargs":5382,"Ġcivil":5383,"Direct":5384,"Ġnom":5385,"then":5386,"ĠLouis":5387,"frame":5388,"Ġmeeting":5389,"bool":5390,"RL":5391,"Ġsend":5392,"MO":5393,"||":5394,"language":5395,"ĠRel":5396,"Ġdirection":5397,"Ġitems":5398,"Ġque":5399,"Ġreli":5400,"Ġeverything":5401,"ternet":5402,"Ġdaughter":5403,"},\\":5404,"Ġlives":5405,"Ġbank":5406,"cr":5407,"Ġunits":5408,"ĠReturns":5409,"eff":5410,"Ġcorresponding":5411,"][":5412,"Ġleave":5413,"Ġcharg":5414,"ĠBig":5415,"ĠĠĠĠĠĠĠĠĠĠĠĠĠĠĠĠĠĠĠĠĠ":5416,"'>":5417,"anned":5418,"Ġnote":5419,"()->":5420,"window":5421,"Ġhum":5422,"Ġmanager":5423,"Ġprem":5424,"Ġter":5425,"ĠCap":5426,"ĠTO":5427,"orial":5428,"ĠVer":5429,"Ġexperiment":5430,"ĠLife":5431,"require":5432,"Ġfinished":5433,"Ġphysical":5434,"Ġformed":5435,"Ġtag":5436,"fg":5437,"ĠAut":5438,"Ġmissing":5439,"Ġremain":5440,"}),":5441,"Ġhandle":5442,"Ġlock":5443,"Ġdirected":5444,"ita":5445,"Ġdensity":5446,"Ġkilled":5447,"tree":5448,"ecute":5449,"uan":5450,"Ġtransport":5451,"Ġfamilies":5452,"Ġcollect":5453,"ĠSeries":5454,"Ġsomeone":5455,"Ġeffective":5456,"Ġempty":5457,"Lambda":5458,"Ġbeaut":5459,"ĠKingdom":5460,"Ġextra":5461,"Ġbeginning":5462,"Utils":5463,"Parameter":5464,"Ġstudent":5465,"Mon":5466,"QL":5467,"parse":5468,"Ġactivity":5469,"Ġknowledge":5470,"ocation":5471,"Ġvector":5472,"icated":5473,"ĠST":5474,"ĠFrank":5475,"ky":5476,"NE":5477,"Ġmix":5478,"SH":5479,"ĠFlor":5480,"ZE":5481,"anta":5482,"([":5483,"ĠHill":5484,"Local":5485,"Ġcard":5486,"mitted":5487,"ĠZeal":5488,"hr":5489,"reland":5490,"Ġaim":5491,"Ġexception":5492,"Ġassist":5493,"400":5494,"Ġpark":5495,"skip":5496,"Ġhope":5497,"}/":5498,"ĠLong":5499,"Ġord":5500,"ART":5501,"ĠAssert":5502,"Entity":5503,"Ġdecided":5504,"'),":5505,"Ġapply":5506,"Current":5507,"sign":5508,"PA":5509,"Ġactivities":5510,"Interface":5511,"Ġreceive":5512,"patch":5513,"ĠYour":5514,"gment":5515,"Ġcam":5516,"ULT":5517,"Ġforces":5518,"Ġsequence":5519,"ĠPeter":5520,"Ġmovie":5521,"ĠStar":5522,"umni":5523,"Mat":5524,"1991":5525,"CODE":5526,"thlet":5527,"Ġprep":5528,"Ġzero":5529,"house":5530,"{{":5531,"Location":5532,"typ":5533,"Description":5534,"ĠNS":5535,"Ġprice":5536,"Control":5537,"ĠZealand":5538,"Thread":5539,"Ġsomet":5540,"Ġframe":5541,"72":5542,"ki":5543,"Ġscen":5544,"Ġaccur":5545,"Ġfemale":5546,"Ġisn":5547,"rey":5548,"Ġmiddle":5549,"PR":5550,"ĠMel":5551,"ĠTHE":5552,"UB":5553,"Pat":5554,"ctx":5555,"Ġbasis":5556,"clusion":5557,"Ġconstit":5558,"ponents":5559,"ALL":5560,"Ġdark":5561,"Ġcoord":5562,"ependency":5563,"Ġprotect":5564,"Ġmaximum":5565,"agram":5566,"Write":5567,"ĠFe":5568,"Ġways":5569,"ĠAcademy":5570,"ĠRichard":5571,"Ġstories":5572,"afe":5573,"Ġinsp":5574,"PS":5575,"Ġmeaning":5576,"Ġpair":5577,".\\":5578,"Ġeasy":5579,")^":5580,"Ġsources":5581,"Prot":5582,"Ġwide":5583,"Ġnature":5584,"ĉĉĉĉĉĉĉ":5585,"Ġdigital":5586,"textit":5587,"Go":5588,"Ġleader":5589,"Unit":5590,"Range":5591,"ĠRock":5592,"96":5593,"Ġeditor":5594,"ĠCreate":5595,"Ġanti":5596,"Ġvs":5597,"DA":5598,"Ġ{}":5599,"onder":5600,"Ġdrug":5601,"lam":5602,"Ġbus":5603,"Ġdifference":5604,"Level":5605,"ãĤ":5606,"Ġmis":5607,"BO":5608,"Module":5609,"ĠArg":5610,"Ġleague":5611,"Ġanaly":5612,"Track":5613,"84":5614,"IF":5615,"Ġremains":5616,"ĠSection":5617,"document":5618,"./":5619,"ĠInst":5620,"IGN":5621,"Ġargument":5622,"Callback":5623,"onic":5624,"DF":5625,"osh":5626,"Ġartists":5627,"Ġmur":5628,"ca":5629,"aling":5630,"ĠJose":5631,"ĠTrump":5632,"Op":5633,"akers":5634,"kind":5635,"Ġshot":5636,"igan":5637,"Ġrecover":5638,"Ġbur":5639,"ĠItalian":5640,"osph":5641,"vention":5642,"Ġsample":5643,"duction":5644,"Ġartist":5645,"Operation":5646,"omic":5647,"ĠLos":5648,"Ġcoach":5649,"values":5650,"anda":5651,"Ġtit":5652,"drop":5653,"Ġ~":5654,"fs":5655,"plete":5656,"ĠLake":5657,"ĠDE":5658,"ĠRecords":5659,"fully":5660,"Ġgun":5661,"Ġequip":5662,"VAL":5663,"Ġlatest":5664,"ĠCharles":5665,"andemic":5666,".$":5667,"1960":5668,"Ġclean":5669,"Ġruns":5670,"ĠProject":5671,"Ġgenerated":5672,"asketball":5673,"Ġtrade":5674,"ĠJournal":5675,"Empty":5676,"Ġfully":5677,"Search":5678,"Ġorganization":5679,"Ġded":5680,"Ġearn":5681,"itiz":5682,"Ġcop":5683,"appa":5684,"ĠDev":5685,"icks":5686,"CR":5687,"ĠMo":5688,"images":5689,"ady":5690,"ĠShow":5691,"fa":5692,"ĠCommittee":5693,"ĠHere":5694,"token":5695,"rics":5696,"ACK":5697,"Copy":5698,"Params":5699,"MM":5700,"Stat":5701,"ĠSund":5702,"Ġconstr":5703,"ĉĠ":5704,"Ġcook":5705,"ola":5706,"Ġpartners":5707,"ĠHistor":5708,"room":5709,"ĠLem":5710,"Ġstreng":5711,"bra":5712,"Ġalt":5713,"Ġswitch":5714,"El":5715,"orning":5716,"Ġprojects":5717,"cache":5718,"rier":5719,"Ġfixed":5720,"Ident":5721,"oder":5722,"Ġseek":5723,"Ġsaying":5724,"ĠCre":5725,"Ġeconomic":5726,"Ġsymbol":5727,"Ġability":5728,"Height":5729,"Cons":5730,"usion":5731,"bes":5732,"Ġfactor":5733,"Ġquestions":5734,"Ġoverall":5735,"ici":5736,"Ġadapt":5737,"None":5738,"Ġreached":5739,"ictionary":5740,"Ġmut":5741,"Ġsecret":5742,"Po":5743,"Ġshared":5744,"Ġrap":5745,"Ġguitar":5746,"ĠWomen":5747,"arts":5748,"'ll":5749,"ounter":5750,"Ġotherwise":5751,"split":5752,"jo":5753,"den":5754,"ooth":5755,"Ġdestroy":5756,"Ġconfiguration":5757,"Ġoffers":5758,"Ġrelative":5759,"Ġfavor":5760,"uri":5761,"Ġprograms":5762,"ĠÂ£":5763,"ĠAv":5764,"ulate":5765,"Ġrot":5766,"ournament":5767,"Ġplans":5768,"Ġtraditional":5769,"Ġmovement":5770,"Ġhol":5771,"Option":5772,"Ġspent":5773,"artifactId":5774,"osing":5775,"free":5776,"erry":5777,"Ġfounded":5778,"1000":5779,"flict":5780,"ĠBoard":5781,"kr":5782,"Ġedge":5783,"STR":5784,"ella":5785,"ĠAccording":5786,"GB":5787,"Ġlinear":5788,"ĠBusiness":5789,"Ġfoot":5790,"Ġtherefore":5791,"Ġprim":5792,"Ġ*)":5793,"ucture":5794,"}}$":5795,"Vert":5796,"Ġgrant":5797,"resource":5798,"Ġattention":5799,"Ġarguments":5800,"ĠMap":5801,"Ġcommercial":5802,"ĠMass":5803,"Ġhighest":5804,"command":5805,"%;":5806,"Ġdisease":5807,"Ġparents":5808,"ĠUnder":5809,"Properties":5810,"site":5811,"lev":5812,"Ġcontain":5813,"ibly":5814,"mathfrak":5815,"ih":5816,"Ġcollabor":5817,"Ġparticularly":5818,"bound":5819,"inder":5820,"tim":5821,"ĠDirector":5822,"Ġgrand":5823,"ĠBase":5824,"Position":5825,"Ġrepe":5826,"oute":5827,"PL":5828,"ynch":5829,"control":5830,"Ġproof":5831,"ror":5832,"ĠEducation":5833,"ronic":5834,"unched":5835,"ircraft":5836,"Ġ::":5837,"ootstr":5838,"Ġsubsequ":5839,"acement":5840,"Script":5841,"=\"-":5842,"Ġslow":5843,"63":5844,"pret":5845,"Ġsummer":5846,"citep":5847,"Ġobserved":5848,"Ġchoice":5849,"Ġpen":5850,"ĠCheck":5851,"itable":5852,"Ġemail":5853,"=\"../../../../../":5854,"ingu":5855,"ĠBank":5856,"\"))":5857,"sych":5858,"pop":5859,"Ġvolume":5860,"Ġgets":5861,"ervation":5862,"61":5863,"before":5864,"ictions":5865,"Ġcritical":5866,"Ġlisted":5867,"langle":5868,"Net":5869,"classes":5870,"ĠTimes":5871,"97":5872,"Ġeveryone":5873,"ĠTim":5874,"Ġscope":5875,"ĠFoundation":5876,"Rev":5877,"ĠTop":5878,"ĠSecond":5879,"icker":5880,"olk":5881,"Ġcollege":5882,"Settings":5883,"Ġbuildings":5884,"Ġplaced":5885,"Ġ>=":5886,"DD":5887,"Ġelected":5888,"ĠFlorida":5889,"98":5890,"ds":5891,"Ġgoes":5892,"ĠMost":5893,"ertific":5894,"ĠOR":5895,"ifest":5896,"oded":5897,"Ġhospital":5898,"groupId":5899,"Hash":5900,"Ġang":5901,"1989":5902,"Ġcompetition":5903,"Ġclasses":5904,"ĠTwo":5905,"Ġattribute":5906,"ĠGeorg":5907,"ĠProfess":5908,"pdf":5909,"esh":5910,"ĠChicago":5911,"ĠParis":5912,"EM":5913,"ĠCongress":5914,"osen":5915,"\\%":5916,"Http":5917,"tml":5918,"ĠRun":5919,"Ġsafety":5920,"ĠTre":5921,"Ġalbums":5922,"allery":5923,"AND":5924,"agment":5925,"Connection":5926,"Ġsometimes":5927,"Ġbecomes":5928,"ecause":5929,"ien":5930,"Ġtrain":5931,"Ġstated":5932,"example":5933,"Ġcounter":5934,"Ġalgorithm":5935,"oration":5936,"Ġoptim":5937,"aved":5938,"ldots":5939,"Ġpaint":5940,"Ġbal":5941,"ĠOffice":5942,"Ġrob":5943,"Ġapplied":5944,"stack":5945,"ĠCast":5946,"Ġscript":5947,"ĠIS":5948,"Ġsch":5949,"Ġvariable":5950,"conf":5951,"Project":5952,"ĠVictor":5953,"heast":5954,"Ġfeed":5955,"Ġeventually":5956,"Ġnearly":5957,"ĠFinal":5958,"Ġtests":5959,"ootstrap":5960,"Ġnet":5961,"ĠField":5962,"ĠLand":5963,"Record":5964,"Ġroute":5965,"Ġauth":5966,"Ġopening":5967,"abla":5968,"CS":5969,"erc":5970,"ĠEngine":5971,"note":5972,"PECT":5973,"Ġinfo":5974,"62":5975,"Ġraise":5976,"COLOR":5977,"ĠSun":5978,"ĠIreland":5979,"BS":5980,"Ġtemperature":5981,"Expression":5982,"Match":5983,"hash":5984,"card":5985,"Ġrecords":5986,"iverse":5987,"ĠArts":5988,"Dir":5989,"Ġturned":5990,"Ġbrother":5991,"Ġreach":5992,"Store":5993,"Down":5994,"\"));":5995,"Ġmicro":5996,"ĠCall":5997,"real":5998,"Ġbehavior":5999,"Ġgreen":6000,"enty":6001,"82":6002,"ataset":6003,"Ġexam":6004,"Ġreplaced":6005,"Ġworkers":6006,"Ġappointed":6007,"leep":6008,"writ":6009,"Ġfit":6010,"structor":6011,"LI":6012,"Ġscene":6013,"pg":6014,"Phi":6015,"ĠMil":6016,"Document":6017,"Ġshape":6018,"1988":6019,"icine":6020,"inger":6021,"onom":6022,"Kind":6023,"Te":6024,"ntax":6025,"Ġconvert":6026,"itz":6027,"ĠDen":6028,"Am":6029,"ellig":6030,"foo":6031,"rate":6032,"aver":6033,"uke":6034,"ĠTour":6035,"Ġquickly":6036,"haps":6037,"cat":6038,"ORD":6039,"ĠStep":6040,"ĠAtl":6041,"Ġhighly":6042,"Ġcore":6043,"ĠIll":6044,"ĠSummer":6045,"dest":6046,"Ġequival":6047,"aa":6048,"Ġdemand":6049,"venue":6050,"ĠSil":6051,"Ġoverride":6052,"ĠPo":6053,"\\|":6054,"Ġbuy":6055,"Ġupper":6056,"TER":6057,"Ġperfect":6058,"Ġ\"\\":6059,"izont":6060,"ĠFootball":6061,"Ġpull":6062,"ĠRussia":6063,"ĠFre":6064,"Ġserious":6065,"make":6066,"CTION":6067,"oday":6068,"msg":6069,"debug":6070,"ĠForce":6071,"Ġtransition":6072,"Ġdefinition":6073,"ĠOb":6074,"ĠAngeles":6075,"Handle":6076,"ĠFace":6077,"device":6078,"arl":6079,"ĠGood":6080,"Ġenter":6081,"Ġappears":6082,"Ġspread":6083,"hor":6084,"emp":6085,"TV":6086,"Ġforms":6087,"ĠMur":6088,"ws":6089,"isher":6090,"ydro":6091,"ansion":6092,"iny":6093,"Change":6094,"():":6095,"ĠSocial":6096,"ĠBrown":6097,"Ġquarter":6098,"olute":6099,"Äģ":6100,"nabla":6101,"Ġfourth":6102,"clear":6103,"Ġtouch":6104,"!!":6105,"asic":6106,"Ġreports":6107,"Ġtemplate":6108,"orter":6109,"Ġfair":6110,"Enc":6111,"found":6112,"Ġthread":6113,"73":6114,"ato":6115,"74":6116,"ĠGen":6117,"Ġtoken":6118,"aste":6119,"ader":6120,"ĠBur":6121,"ĠOrder":6122,"ĠBre":6123,"ipe":6124,"related":6125,"81":6126,":(":6127,"Json":6128,"Ġproper":6129,"Ġfix":6130,"Ġgenerally":6131,"cribe":6132,"ĠSecret":6133,"asy":6134,"Tim":6135,"Ġworth":6136,"border":6137,"Ġoccup":6138,"ĠÎ":6139,"Session":6140,"Ġtesting":6141,"itors":6142,"Reference":6143,"cope":6144,"ursor":6145,"after":6146,"subset":6147,"fill":6148,"even":6149,"ĠPan":6150,"irmed":6151,"Host":6152,"More":6153,"ĠFilm":6154,"Ġwrong":6155,"yan":6156,"Ġcommunities":6157,"orpor":6158,"ingle":6159,"Ġcaused":6160,"car":6161,"pers":6162,"Ġchem":6163,"Ġsmaller":6164,"ĠSol":6165,"Ġsave":6166,"Ġsituation":6167,"Ġshoot":6168,"Ġstars":6169,"Ev":6170,"Mult":6171,"iled":6172,"ĠException":6173,"Ġrespond":6174,"second":6175,"ĠNote":6176,"razil":6177,"Ġapplications":6178,"etime":6179,"Ġpandemic":6180,"utch":6181,"Ġgoals":6182,"ä¸":6183,"ĠChild":6184,"Ġassess":6185,"False":6186,"Ġremoved":6187,"olved":6188,"abit":6189,"Ġfarm":6190,"Ġoriginally":6191,"Ġindividuals":6192,"rum":6193,"di":6194,"Ġgreater":6195,"Ġmatches":6196,"Ġbrand":6197,"enum":6198,"71":6199,"mazon":6200,"83":6201,"ĠPeople":6202,"Ġsurround":6203,"ĠOh":6204,"Ġsal":6205,"Ġxml":6206,"spect":6207,"ĠCatholic":6208,"rome":6209,"ĠPenn":6210,"ĠHot":6211,"Ġrender":6212,"Ġcharge":6213,"ĠBi":6214,"Ð»":6215,"{}":6216,"endar":6217,"Ġminor":6218,"join":6219,"Ġimmediately":6220,"Ġcalls":6221,"copy":6222,"Ġparams":6223,"ancing":6224,"Ġclin":6225,"ometry":6226,"ĠVirginia":6227,"Ġax":6228,"weet":6229,"Ġcomponents":6230,"address":6231,"models":6232,"osoph":6233,"ĠSpanish":6234,"Ptr":6235,"ultural":6236,"Ġfigure":6237,"ĠPet":6238,"Ġdou":6239,"Sign":6240,"Inst":6241,"eler":6242,"MD":6243,"})$":6244,"Ġimprove":6245,"equal":6246,"ĠIts":6247,"Ġlayer":6248,"Ġpoor":6249,"kin":6250,"ĠOld":6251,"Ġinform":6252,"Don":6253,"ja":6254,"1987":6255,"undred":6256,"ĠTrue":6257,"=\"_":6258,"Ġfilename":6259,"ĠRegister":6260,"'.":6261,"Ġpadding":6262,"Ġones":6263,"ĠNetwork":6264,"Ġcorn":6265,"ĠFestival":6266,"iro":6267,"Ġcouple":6268,"=\"../../../../../../":6269,"ĉĉĊ":6270,"clude":6271,"ĠMax":6272,"vas":6273,"dule":6274,"Ke":6275,"Ġcritic":6276,"Ġproduce":6277,"WE":6278,"Ġpri":6279,"Ġvariety":6280,"Ġacadem":6281,"ĠAssembly":6282,"Art":6283,"alysis":6284,"legal":6285,"direct":6286,"normal":6287,"istribut":6288,"coin":6289,"Red":6290,"auth":6291,"Dep":6292,"Ġ('":6293,"kappa":6294,"Vari":6295,"Font":6296,"range":6297,"Ġmission":6298,"Pass":6299,"ĠDate":6300,"dat":6301,"sv":6302,"Impl":6303,"Ġapprop":6304,"Pop":6305,"Ġer":6306,"centering":6307,"ĠMexico":6308,"Ġblue":6309,"Ġconsum":6310,"Ġfederal":6311,"ERROR":6312,"Ġdomain":6313,"Integer":6314,"?:":6315,"Ġopportunity":6316,"Ġsolutions":6317,"Ġpressure":6318,"oting":6319,"Ġpriv":6320,"Ġbey":6321,"Ġinstr":6322,"ĠServices":6323,"Ġsurpr":6324,"ĠTeam":6325,"ĠVis":6326,"ĠKn":6327,"ĠCON":6328,"riend":6329,"ln":6330,"Ã§":6331,"ĠMartin":6332,"Sigma":6333,"media":6334,"Ġlibrary":6335,"Ġpresence":6336,"Ø§":6337,"Ġeth":6338,"1986":6339,"Ġplays":6340,"ĠUSA":6341,"Ġstations":6342,"ĠHome":6343,"interface":6344,"Ġfans":6345,"Ġbelong":6346,"ĠAlso":6347,"Mark":6348,"Ġlaunch":6349,"bind":6350,"XX":6351,"Ġoil":6352,"izontal":6353,"success":6354,"ORT":6355,"ĠOp":6356,"Ġwind":6357,"1984":6358,"km":6359,"apped":6360,"ĠScot":6361,"Ġextension":6362,"Ġvoice":6363,"rolled":6364,"Ġbeyond":6365,"high":6366,"Ġwild":6367,"abilities":6368,"oggle":6369,"Ġgiving":6370,"Ġmoving":6371,"Async":6372,"Ġholds":6373,"Ġattr":6374,"ĠWood":6375,"ĠDevelopment":6376,"arian":6377,"dot":6378,"Ġforeign":6379,"Ġnative":6380,"actor":6381,"atically":6382,"Ġvote":6383,"nel":6384,"organ":6385,"Ġcontaining":6386,"ker":6387,"GE":6388,"ali":6389,"clos":6390,"Ġcarry":6391,"Now":6392,"ugins":6393,"Ġstructures":6394,"mbox":6395,"Serial":6396,"bi":6397,"ĠHenry":6398,"ĠErr":6399,"John":6400,"pool":6401,"pling":6402,"Ġelectric":6403,"URE":6404,"pped":6405,"aming":6406,"Ã³n":6407,"stylesheet":6408,"Ġrepresentation":6409,"Ġnamespace":6410,"Ġbottom":6411,"Ġhousehold":6412,"ensuremath":6413,"Ġthr":6414,"estamp":6415,"ĠOlympics":6416,"Ġcomputer":6417,"Ġsettings":6418,"emporary":6419,"while":6420,"sort":6421,"widget":6422,"types":6423,"ĠId":6424,"Ġflag":6425,"Ġshowed":6426,"igration":6427,"Ġnoted":6428,"Ġwood":6429,"Ġpurpose":6430,"Ġimplementation":6431,"ĠUse":6432,"Que":6433,"ĠTable":6434,"Long":6435,"Ġconnected":6436,"access":6437,"Ġfelt":6438,"Ac":6439,"uly":6440,"hens":6441,"Template":6442,"sets":6443,"arant":6444,"Ġcompletely":6445,"jection":6446,"Names":6447,"iana":6448,"Ġletter":6449,"Ġfirm":6450,"Right":6451,"PRE":6452,"Ġhop":6453,"Ġroll":6454,"cp":6455,"Ġdatabase":6456,"ĠGal":6457,"ollowing":6458,"ona":6459,"Order":6460,"ĠLove":6461,"ĠMedia":6462,"ĠOl":6463,"docs":6464,"Ġnuc":6465,"ny":6466,"Ġsociety":6467,"Ġinteresting":6468,"otic":6469,"Ġpackage":6470,"ĠItaly":6471,"Ġillust":6472,"Ġcapacity":6473,"Ġrequires":6474,"Ġproviding":6475,"cient":6476,"âĢĺ":6477,"apers":6478,"Ġbroadcast":6479,"ĠPlay":6480,"Iter":6481,"Ġfeatured":6482,"Ġlaunched":6483,"ORM":6484,"ĠHaw":6485,"Ġhands":6486,"Ġyield":6487,"focus":6488,"Ġamb":6489,"otimes":6490,"Ġdecre":6491,"bridge":6492,"Ðº":6493,"Ġmajority":6494,"iano":6495,"Ġbattle":6496,"Non":6497,"Ġcreating":6498,"internal":6499,"that":6500,"req":6501,"Ġwinning":6502,"Ġwhom":6503,"Ġnegative":6504,"1985":6505,"Other":6506,"ologies":6507,"Ġfif":6508,"Ġnation":6509,"Ġencour":6510,"Ġple":6511,"Ġutil":6512,"Ġactions":6513,"Ġequation":6514,"mid":6515,"iful":6516,"delete":6517,"Ġprofile":6518,"Ġdistributed":6519,"Cal":6520,"ĠEr":6521,"Ġbasic":6522,"ĠSunday":6523,"ested":6524,"Ġvoc":6525,"ĠChief":6526,"Member":6527,"Ġproced":6528,"Ġblood":6529,"Since":6530,"Ġannual":6531,"inem":6532,"ĠBG":6533,"ests":6534,"Ġrepresented":6535,"ĠGame":6536,"Ġcontainer":6537,"Ġhash":6538,"Ġpoll":6539,"Left":6540,"uy":6541,"ĠJim":6542,"webkit":6543,"riage":6544,"Ġremained":6545,"ĠAwards":6546,"graph":6547,"1950":6548,"session":6549,"apse":6550,"Ġessential":6551,"Ġfootballers":6552,"Ġstra":6553,"Ġpretty":6554,"NavBar":6555,"Ġdespite":6556,"Are":6557,"Ġmunic":6558,"Ġaircraft":6559,"ski":6560,"ishop":6561,"While":6562,"aturday":6563,"arden":6564,"Ġjav":6565,"Ã¨":6566,"star":6567,"Ġdrive":6568,"gs":6569,"Ġalumni":6570,"Ġsites":6571,"ĠLibrary":6572,"mode":6573,"(-":6574,"Helper":6575,"Menu":6576,"Ġaffect":6577,"vol":6578,"Ġapproximately":6579,"send":6580,"ĠĠĠĠĠĠĠĠĠĠĠĠĠĠĠĠĠĠĠĠ":6581,"sur":6582,"Decl":6583,"virt":6584,"Ġdu":6585,"ĠPac":6586,"ĠLee":6587,"ĠWell":6588,"ĠAlthough":6589,"Ġchief":6590,"Ġolder":6591,"wid":6592,"DI":6593,"bal":6594,"Ġhar":6595,"render":6596,"Ġsales":6597,"WS":6598,"Ġremaining":6599,"oral":6600,"toString":6601,"asure":6602,"iminal":6603,"step":6604,"resents":6605,"OK":6606,"isters":6607,"Parameters":6608,"{-":6609,"ĠEarth":6610,"Our":6611,"Ġprison":6612,"Ġended":6613,"255":6614,"Ġowner":6615,"ĠValley":6616,"care":6617,"NN":6618,"ĠLine":6619,"Ġundefined":6620,"ategories":6621,"ko":6622,"ĠJud":6623,"bing":6624,"gest":6625,"asion":6626,"Device":6627,"Ġscored":6628,"Ġadopt":6629,"reedom":6630,"Ġtrust":6631,"iments":6632,"icol":6633,"Ġalleg":6634,"udget":6635,"Ġcru":6636,"ĠEXPECT":6637,"PH":6638,"ĠYoung":6639,"Ġseparate":6640,"ils":6641,"Ġbillion":6642,"Ġmask":6643,"Ġcache":6644,"hover":6645,"ĠSwed":6646,"Ġinvoke":6647,"Schema":6648,"ĠMov":6649,"Vector":6650,"ults":6651,"ockey":6652,"ustain":6653,"Invalid":6654,"Ġstock":6655,"Ġanyone":6656,"atalog":6657,"aters":6658,"iable":6659,"Ġneighbor":6660,"Ġerrors":6661,"ATA":6662,"ĠFort":6663,"Ġresponsible":6664,"---":6665,"usband":6666,"Ġstrategy":6667,"Ġ['":6668,"Ġiniti":6669,"ĠLin":6670,"ĠSpe":6671,"Use":6672,"Ġmurder":6673,"cean":6674,"Ġsafe":6675,"Ġpartial":6676,"ĠRequ":6677,"Ġeasily":6678,"ĠEconom":6679,"zing":6680,"1983":6681,"click":6682,"Ġreduce":6683,"vector":6684,"Results":6685,"\\[":6686,"onday":6687,"uty":6688,"ernel":6689,"fn":6690,"elled":6691,"Ġut":6692,"udio":6693,"lie":6694,"ĠFriday":6695,"osis":6696,"allel":6697,"Ġclimate":6698,"Ġdescribe":6699,"edge":6700,"aws":6701,"ilton":6702,"Ġfig":6703,"Ġsea":6704,"Ġraised":6705,"Rect":6706,"anguage":6707,"Ġsusp":6708,"Ġagreement":6709,"SL":6710,"Ġmaster":6711,"Ġstorage":6712,"ensional":6713,"cles":6714,"dates":6715,"ĠValue":6716,"ancer":6717,"/\\":6718,"owers":6719,"Ġpeak":6720,"Ġdetermined":6721,"urred":6722,"âĢĿ.":6723,"Tool":6724,"EC":6725,"vm":6726,"Ġimag":6727,"Ġcoast":6728,"Ġanim":6729,"aby":6730,"white":6731,"del":6732,"(*":6733,"etry":6734,"leted":6735,"Ġecho":6736,"equals":6737,"Ġnodes":6738,"crete":6739,"Ġsinger":6740,"ĠHand":6741,"Ġextended":6742,"Ġorigin":6743,"Ġefforts":6744,"ums":6745,"transform":6746,"Ġawarded":6747,"Ġheavy":6748,"Ġmachine":6749,"Ġvan":6750,"aka":6751,"Ġslight":6752,"%)":6753,"Cre":6754,"Title":6755,"mail":6756,"ĠArab":6757,"Ġwid":6758,"ĠManagement":6759,"Ġdetermine":6760,"Ġphil":6761,"Ġbrief":6762,"Ġmill":6763,"_;":6764,"ĠMa":6765,"ĠEvent":6766,"support":6767,"Ġshift":6768,"Ġedition":6769,"Ġprefer":6770,"Argument":6771,"aren":6772,"ĠLim":6773,"handle":6774,";\"":6775,"inations":6776,"ĠView":6777,"Dom":6778,"ji":6779,"ĠSpecial":6780,"Ġgrowing":6781,"Ġcancer":6782,"ifies":6783,"ĠCarolina":6784,"people":6785,"Ġdelete":6786,"Ġfra":6787,"ĠDom":6788,"'],":6789,"ester":6790,"94":6791,"Ġarrest":6792,">.":6793,"Ġsenior":6794,"ĠHead":6795,"poses":6796,"iders":6797,"Reader":6798,"TC":6799,"Ġhelped":6800,"ĠUN":6801,"(:":6802,"Äĩ":6803,"Ġowners":6804,"Ġserve":6805,"ĠJo":6806,"Ġplease":6807,"Ġstraight":6808,"Ġchoose":6809,"mes":6810,"ĠMethod":6811,"Ġpages":6812,"ĠJohnson":6813,"1982":6814,"Policy":6815,"adium":6816,"ĠKh":6817,"Ġarm":6818,"Ġidentity":6819,"lers":6820,"Parent":6821,"operator":6822,"ĠLO":6823,"env":6824,"ĠBob":6825,"ĠCentre":6826,"Ġmostly":6827,"ĠEp":6828,"Api":6829,"Ġthous":6830,"Ġstudied":6831,"ĠModel":6832,"ĠBet":6833,"Ġsignal":6834,"front":6835,"ĠSu":6836,"ipeline":6837,"Ġheard":6838,"urrency":6839,"Ġparse":6840,"allow":6841,"dots":6842,"Wrap":6843,"awa":6844,"tabular":6845,"Ġhyp":6846,"Ġchain":6847,"ati":6848,"ĠMP":6849,"&#":6850,"Ġremember":6851,"war":6852,"Ġconcent":6853,"Ġofficer":6854,"modal":6855,"ĠFacebook":6856,"EQ":6857,"###":6858,"rees":6859,"ĠAL":6860,"Ġoffered":6861,"eries":6862,"Core":6863,"Ġinfluence":6864,"ye":6865,"Ġready":6866,"ĠWindow":6867,"widet":6868,"ĠEnter":6869,"plement":6870,"Ġcat":6871,"Ġheader":6872,"Ġpiece":6873,"Ġactor":6874,"global":6875,"================================":6876,"rule":6877,"Scal":6878,"Med":6879,"Ġmaterials":6880,"Ġtrial":6881,"Ġgeneration":6882,"standing":6883,"Ġcosts":6884,"Job":6885,"nonumber":6886,"unities":6887,"ĠColor":6888,"Ġvariables":6889,"Ġcitiz":6890,"ĠNO":6891,"agnost":6892,"Ġpartner":6893,"Ġaspect":6894,"GET":6895,"Ġforced":6896,"ĠPM":6897,"Has":6898,"ishes":6899,"ĠâĢ¢":6900,"Ġidentified":6901,"Doc":6902,"Sk":6903,"Sw":6904,"Ġchance":6905,"Ġweak":6906,"Ġconver":6907,"idae":6908,"Ġreduced":6909,"iques":6910,"Ver":6911,"Assert":6912,"anging":6913,"1979":6914,"93":6915,"ĠInformation":6916,"disabled":6917,"coll":6918,"Ġresulting":6919,"ĠLiber":6920,"Ġrates":6921,"}-":6922,"shot":6923,"iced":6924,"Ġuseful":6925,"Home":6926,"Ġstrateg":6927,"Ġalone":6928,"Metadata":6929,"fields":6930,"hs":6931,"mond":6932,"ĠMath":6933,"Ġunknown":6934,"oston":6935,"connect":6936,"Ġmedal":6937,"look":6938,"power":6939,">();":6940,"Render":6941,"Ġdivision":6942,"Ġappearance":6943,"Parser":6944,"Ġbecoming":6945,"91":6946,"virtual":6947,"Ġinnov":6948,"onym":6949,"effic":6950,"Ġwriters":6951,"Ġfailure":6952,"Ġminimum":6953,"tn":6954,"sect":6955,"Ġreb":6956,"oviet":6957,"itan":6958,"Ġwasn":6959,"system":6960,"Ġstrugg":6961,"iki":6962,"OM":6963,"Ġvisual":6964,"ulty":6965,"ĠBGCOLOR":6966,"Ġtraff":6967,"ashion":6968,"Ġexactly":6969,"Num":6970,"ĠPower":6971,"lines":6972,"custom":6973,"ĠGlobal":6974,"ĠBack":6975,"}}{":6976,"ĠLord":6977,"Ġinline":6978,"ĠâĢ¦":6979,"Ġwrap":6980,"Person":6981,"xx":6982,"`,":6983,"Body":6984,"Ġlooks":6985,"Ġunsigned":6986,"reshold":6987,"oves":6988,"Values":6989,"plugin":6990,"spe":6991,"annels":6992,"stone":6993,"Ġregions":6994,"widetilde":6995,"inet":6996,"Ġsupply":6997,"store":6998,"ifications":6999,"Ġdrop":7000,"Ġcentre":7001,"={":7002,"$(":7003,"ĠJones":7004,"Ġjoint":7005,"ĠThus":7006,"Ġrul":7007,"Ġreflect":7008,"ansas":7009,"export":7010,"ĠJun":7011,"Ġmusical":7012,"ĠEmp":7013,"prime":7014,"Ġcategory":7015,"Ġcustomers":7016,"DIR":7017,"Ġking":7018,"ĠTheir":7019,"ATH":7020,"uages":7021,"92":7022,"Ġmorning":7023,"uts":7024,"Ġassume":7025,"olec":7026,"Ġfactors":7027,"ĠĠĠĠĠĠĠĠĠĠĠĠĠĠĠĠĠĠĠĠĠĠĠĠĠĠĠĠĠĠĠĠĠĠĠĠĠĠĠ":7028,"ira":7029,"Sm":7030,"Ġhundred":7031,"Ġparties":7032,"romise":7033,"Select":7034,"ĠSar":7035,"Definition":7036,"Ġanswer":7037,"Ġpush":7038,"Ġtransaction":7039,"AGE":7040,"ĠBrazil":7041,"fram":7042,"ĠIP":7043,"150":7044,"va":7045,"rot":7046,"oles":7047,"Ne":7048,"Rule":7049,"ĠKey":7050,"Ġmentioned":7051,"----------------------------------------------------------------":7052,"DL":7053,"Ġleaving":7054,"Ġshop":7055,"Ġisland":7056,"ĠAR":7057,"Ġcarried":7058,"ĠCy":7059,"wan":7060,"Ġincome":7061,"ĠAsia":7062,"ĠStand":7063,"Ġdepartment":7064,"Ġ&=":7065,"nap":7066,"Found":7067,"Ġagent":7068,"ĠAM":7069,"ĠTechnology":7070,"Ġtournament":7071,"ĠMos":7072,"ĠPubl":7073,"help":7074,"Ġstrict":7075,"Ġbyte":7076,"ĠCross":7077,"Each":7078,"rich":7079,"Ġrare":7080,"Ġfine":7081,"CI":7082,"Writer":7083,"stitution":7084,"Ġbul":7085,"Ġdriver":7086,"Ġorganizations":7087,"Ġmanaged":7088,"Ġdog":7089,"Ġdaily":7090,"Ġtransl":7091,"Any":7092,"1981":7093,"ĠFire":7094,"ĠSaint":7095,"clusive":7096,"Ġpanel":7097,"ĠTri":7098,"Ġprotest":7099,"Ġ})":7100,"ims":7101,"ĠIrish":7102,"ads":7103,"Ġhusband":7104,"ĠNavy":7105,"Enabled":7106,"Ġgenerate":7107,"ĠFree":7108,"Ġspin":7109,"DS":7110,"dependency":7111,"ynchron":7112,"rb":7113,"Ġnorm":7114,"Ġpaid":7115,"`.":7116,"ĠJoe":7117,"claim":7118,"ritory":7119,"cur":7120,"Ġspirit":7121,"Ġlatter":7122,"Ġadvant":7123,"Year":7124,"ĠCommunity":7125,"}]":7126,"ĠHuman":7127,"cup":7128,"ivery":7129,"Su":7130,"Ġcandidate":7131,"Ġstudio":7132,"Ġriver":7133,"Ġrelation":7134,"ĠCode":7135,"ignment":7136,"annotation":7137,"Draw":7138,"ulf":7139,"Ġfamous":7140,"ĠNOT":7141,"byte":7142,"=\"/":7143,"__(":7144,"rick":7145,"Ġinher":7146,"Ġcloud":7147,"Me":7148,"vania":7149,"Stack":7150,"Ġoccur":7151,"Ñĥ":7152,"Application":7153,"ĠAN":7154,"icons":7155,"Ġlived":7156,"Args":7157,"Ġharm":7158,"ĠWal":7159,"exports":7160,"ĠCollection":7161,"ture":7162,"ĠWales":7163,"ĠIran":7164,"\\]":7165,"ĠJoseph":7166,"ITY":7167,"ĠNorthern":7168,"Gu":7169,"bootstrap":7170,"aser":7171,"Bytes":7172,"Ġbill":7173,"PT":7174,"ĠCopy":7175,"They":7176,"Classes":7177,"Note":7178,"Ġsell":7179,"hemat":7180,"SET":7181,"nce":7182,"ĠIO":7183,"Ġclaims":7184,"Ġpool":7185,"present":7186,"othing":7187,"odies":7188,"appro":7189,"ACE":7190,"ĠPrem":7191,"uls":7192,"Ġice":7193,"boolean":7194,"Ġeyes":7195,"Ġcommit":7196,"ador":7197,"Ġicon":7198,"1972":7199,"ertificate":7200,"Ġofficials":7201,"mock":7202,"erg":7203,"May":7204,"equiv":7205,"ĠSaturday":7206,"ECT":7207,"ooks":7208,"kins":7209,"?âĢĿ":7210,"ova":7211,"Ġrepresents":7212,"SION":7213,"Ġupdated":7214,"anner":7215,"Ġpolic":7216,"Ġtools":7217,"Ġrac":7218,"Ġprove":7219,"ectors":7220,"Ġcommission":7221,"Ġentered":7222,"ĠParliament":7223,"ifically":7224,"Some":7225,"scape":7226,"Vol":7227,"ĠHor":7228,"ographic":7229,"La":7230,"Click":7231,"going":7232,"Ġdirectory":7233,"obuf":7234,"Ġsteps":7235,"register":7236,"Ġcomments":7237,"Ġsplit":7238,"Ġphone":7239,"During":7240,"component":7241,"Ġsector":7242,"ĠCard":7243,"'d":7244,"cert":7245,"Ġresidents":7246,"ampion":7247,"ĠConference":7248,"Ġconflict":7249,"Boolean":7250,"Ġdownload":7251,"parameter":7252,"ito":7253,"ĠColumb":7254,"astr":7255,"ilation":7256,")\"":7257,"Root":7258,"1976":7259,"Ġprobability":7260,")-":7261,"160":7262,"Ġrevealed":7263,"Ġesc":7264,"Ġemployees":7265,"phone":7266,"Ġcorre":7267,"ĠSand":7268,"Ġenh":7269,"Will":7270,"ocity":7271,"chen":7272,"attribute":7273,"1978":7274,"Ġproducer":7275,"Ġcontinues":7276,"ĠFigure":7277,"ĠStat":7278,"double":7279,"Ġstack":7280,"typed":7281,"urban":7282,"ĠWeek":7283,"ĠEach":7284,"settings":7285,"ĠPop":7286,"Debug":7287,"&&":7288,"vement":7289,"Ġdraft":7290,"itness":7291,"Ġ++":7292,"ima":7293,"grade":7294,"panel":7295,"Ġunderstanding":7296,"Final":7297,"ĠSir":7298,"framework":7299,"enter":7300,"Ġmeasures":7301,"ucket":7302,"ĠBlue":7303,"angular":7304,"Ġunless":7305,"pute":7306,"buf":7307,"Ġos":7308,"Ġnotice":7309,"\\\"":7310,"callback":7311,"Care":7312,"Ġbytes":7313,"adoop":7314,"Ġmixed":7315,"Ġappropriate":7316,"ighter":7317,"\\!":7318,"Ġagreed":7319,"ĠLi":7320,"ĠGar":7321,"Ġnine":7322,"stat":7323,"AF":7324,"Ġcovered":7325,"Ġdevices":7326,"las":7327,"ĠWilliams":7328,"replace":7329,"ĠHon":7330,"ĠPoint":7331,"Ġran":7332,"keys":7333,"anche":7334,"Ġframework":7335,"Ġrestaur":7336,"Ġbasketball":7337,"ĠAmazon":7338,"Ġnewsp":7339,"isms":7340,"lemma":7341,"Ġestimated":7342,"1975":7343,"padding":7344,"uries":7345,"Ġunion":7346,"ĠassertEquals":7347,"Ġtried":7348,"uby":7349,"ĠPak":7350,"cloud":7351,"olver":7352,"ĠWin":7353,"LS":7354,"ĠWay":7355,"Ġadministration":7356,"entity":7357,"Ġextrem":7358,"Ġpil":7359,"Ġ(*":7360,"Ġhistorical":7361,"kg":7362,"ĠDown":7363,"Ġwall":7364,"amm":7365,"Byte":7366,"Ġserial":7367,"admin":7368,"ĠUser":7369,"istration":7370,"Members":7371,"apy":7372,"1974":7373,"English":7374,"Ġvehicle":7375,"Ġchair":7376,"ĠRh":7377,"EXT":7378,"Ġforest":7379,"ĠChristmas":7380,"ĠIII":7381,"Ġcities":7382,"ĠCorpor":7383,"ĠFI":7384,"Ġowned":7385,"Ġinterpret":7386,"uesday":7387,"Ġequipment":7388,"ednes":7389,"ĠTele":7390,"ĠMonday":7391,"ĠĠĠĠĠĠĠĠĠĠĠĠĠĠĠĠĠĠ":7392,"Ġexamples":7393,"syl":7394,"exception":7395,"\\{":7396,"1977":7397,"}+":7398,"ĠSpain":7399,"Ġrelevant":7400,"Di":7401,"product":7402,"roph":7403,"According":7404,"AME":7405,"Ġactress":7406,"footer":7407,"Ġreasons":7408,"Ġkept":7409,"Early":7410,"Ġpolitician":7411,"faces":7412,"Ġcombined":7413,"ĠLo":7414,"Exp":7415,"ĠCare":7416,"bury":7417,"Ġviews":7418,"Ġsquare":7419,"Only":7420,"ĠPolicy":7421,"ĠElect":7422,"full":7423,"Here":7424,"ixel":7425,"Ġsamples":7426,"Show":7427,"ĠMany":7428,"Storage":7429,"Ġther":7430,"aylor":7431,"Ġconsists":7432,"Ġhuge":7433,"Ġbranch":7434,"material":7435,"Ġcounty":7436,"Ġschedul":7437,"ĠWater":7438,"Ġnumerous":7439,"ĠAND":7440,"Ġfeet":7441,"Ġmock":7442,"estic":7443,"Ġsymmet":7444,"rid":7445,"ĠLuc":7446,"andon":7447,"Ġcluster":7448,"Ġaware":7449,"ĠHospital":7450,"icip":7451,"ĠBow":7452,"elligence":7453,"Ġpp":7454,"Ġprocesses":7455,"ĠMah":7456,"aria":7457,"Ġahead":7458,"email":7459,"Ġequivalent":7460,"aration":7461,"TEST":7462,"ĠHTML":7463,"Ġprotocol":7464,"ĠPri":7465,"Ġ'/":7466,"Ġfinite":7467,"Ġtal":7468,"ĠPass":7469,"Ġoperating":7470,"Ġrout":7471,"Ġpurs":7472,"Ġbusinesses":7473,"ĠPlan":7474,"ĠEqu":7475,"Ġexplicit":7476,"1968":7477,"Ġchart":7478,"SR":7479,"Ġreligious":7480,"Ġvictory":7481,"Ġattract":7482,"Ġdig":7483,"\",\"":7484,"ĠLead":7485,"Ġcultural":7486,"ĠMichigan":7487,"Second":7488,"Ġ<=":7489,"eces":7490,"Ġlif":7491,"leton":7492,"ursday":7493,"}\"":7494,"ffect":7495,"ĠEq":7496,"MC":7497,"Ġgal":7498,"Ġsignificantly":7499,"ĠMA":7500,"ĠTer":7501,"GS":7502,"life":7503,"Ġblog":7504,"Delete":7505,"inates":7506,"toggle":7507,"inion":7508,"Ġhappen":7509,"Ġhear":7510,"textwidth":7511,"Notes":7512,"Ġseasons":7513,"ĠBritain":7514,"ĠLab":7515,"names":7516,"ourney":7517,"Custom":7518,"Ġvel":7519,"ĠIslam":7520,"kl":7521,"iral":7522,"Ġliterature":7523,"Mock":7524,"nam":7525,"uple":7526,"stop":7527,"ĠPolice":7528,"Ġrequirements":7529,"here":7530,"1973":7531,"ĠMain":7532,"Ġfloor":7533,"Ġwel":7534,"notation":7535,"Ġdynam":7536,"Ġscheme":7537,")))":7538,".'":7539,"120":7540,"Ġspeak":7541,"inline":7542,"Ġinfr":7543,"Ġonto":7544,"ĠGi":7545,"person":7546,"Ġss":7547,"Ġflight":7548,"Ġseat":7549,"Pool":7550,"sylvania":7551,"ĠJac":7552,"Ġsouthern":7553,"Ġwants":7554,"Ġweap":7555,"Ġconfirmed":7556,"Ġjson":7557,"ugby":7558,"ĠUkr":7559,"Ġmiles":7560,"ĠWild":7561,"Ġhour":7562,"ĠEven":7563,"Public":7564,"forms":7565,"ĠSouthern":7566,"gebra":7567,"Sum":7568,"miss":7569,"Ġbutton":7570,"ennis":7571,"Ġpowerful":7572,"Ġknew":7573,"Ġissued":7574,"ĠDesign":7575,"Ġdamage":7576,"ĠPacific":7577,"Ġlett":7578,"Ġboy":7579,"Initial":7580,"Ġexternal":7581,"acle":7582,"contin":7583,"Ġshowing":7584,"Ġofficers":7585,"secut":7586,"Ġleads":7587,"mann":7588,"Ġattend":7589,"ĠSecurity":7590,"Ġexchange":7591,"mic":7592,"Ġdelay":7593,"Ġadvert":7594,"ednesday":7595,"holder":7596,"ĠNav":7597,"ented":7598,"posite":7599,";<":7600,"BR":7601,"ĠDemocratic":7602,"Ġeconomy":7603,"Ġnorthern":7604,"Ġextract":7605,"=\"../../../":7606,"Ġfish":7607,"Ġpet":7608,"ailing":7609,"ĠVan":7610,"ĠSenate":7611,"Fields":7612,"zen":7613,"Ġboundary":7614,"-->":7615,"World":7616,"odd":7617,"ĠMen":7618,"itage":7619,"ĠTheorem":7620,"ĠWall":7621,"enth":7622,"Ġuniversity":7623,"unct":7624,")=\\":7625,"Ġattended":7626,"Ġunivers":7627,"DT":7628,"ĠOx":7629,"oes":7630,"Symbol":7631,"Ġdeploy":7632,"ila":7633,"sql":7634,"named":7635,"Ġdoor":7636,"ĠRadio":7637,"Ġconsequ":7638,"ĠEvery":7639,"ĠCivil":7640,"Ġratio":7641,"iden":7642,"lig":7643,"Ġchallenge":7644,"yer":7645,"Tests":7646,"à¸":7647,"Ġfle":7648,"ĠRam":7649,"ĠURL":7650,"ĠĠĠĠĠĠĠĠĠĠĠĠĠĠĠĠĠĠĠĠĠĠĠĠĠ":7651,"Ġcool":7652,"Meta":7653,"DC":7654,"ĠSong":7655,"Ġchosen":7656,"ĠKen":7657,"sel":7658,"ĠAuthor":7659,"install":7660,"Ġpm":7661,"ga":7662,"ĠMedical":7663,"Ġintr":7664,"enger":7665,"zeta":7666,"ĠFrancisco":7667,"Ġestim":7668,"1971":7669,"eless":7670,"ĠReport":7671,"master":7672,"gypt":7673,"Ġideas":7674,"Ġevolution":7675,"ĠNight":7676,"plex":7677,"Ġstarts":7678,"Ġpod":7679,"ĠChampionships":7680,"Icon":7681,"nections":7682,"Ġmagazine":7683,"Ġ),":7684,"insert":7685,"ĠFamily":7686,"Pattern":7687,"Ġbeat":7688,"1969":7689,"Ġestablishments":7690,"ĠDC":7691,"Network":7692,"ĠBoston":7693,"emy":7694,"igin":7695,"ucky":7696,"gency":7697,"ĠChris":7698,"Ġfear":7699,"thm":7700,"Ġpositions":7701,"Ġpropos":7702,"Ġtheme":7703,"comment":7704,"ashed":7705,"agger":7706,"HECK":7707,"Descriptor":7708,"Ġcalling":7709,"pective":7710,"Const":7711,"ĠBul":7712,"ĠTwitter":7713,"Ġdistinct":7714,"ĠJSON":7715,"IE":7716,"Ġplanning":7717,"Ġdrama":7718,"Ġmobile":7719,"Ġspot":7720,"Ġcorpor":7721,"Ġchampionship":7722,"Ġrapid":7723,"elease":7724,"Ġclick":7725,"Before":7726,"}=\\":7727,"SU":7728,"ĠRos":7729,"PP":7730,"Xml":7731,"riev":7732,"ipality":7733,"writer":7734,"har":7735,"ĠRo":7736,"cb":7737,"Ġtruth":7738,"XT":7739,"ĠCoast":7740,"shall":7741,"Ġrecon":7742,"MI":7743,"stra":7744,"Ġtypically":7745,"Fig":7746,"Ġauthors":7747,"Ġpan":7748,";\\":7749,"nergy":7750,"Ġdesc":7751,"application":7752,"ĠBoth":7753,"Ġreferred":7754,"ango":7755,"1940":7756,"Dialog":7757,"Ġalloc":7758,"ĠError":7759,"uilt":7760,"ĠAndrew":7761,"aturing":7762,"Ġconference":7763,"These":7764,"Ġregarding":7765,"Ġarchitecture":7766,"eller":7767,"ĠMiddle":7768,"dict":7769,"Ġens":7770,"ĠOnly":7771,"HS":7772,"Ġrecommend":7773,"Ġvocals":7774,"Ġstreet":7775,"ĠSports":7776,"Ġinitially":7777,"iser":7778,"Ġhappened":7779,"ran":7780,"Psi":7781,"Lock":7782,"ĠRet":7783,"=\"\"":7784,"Ġtracks":7785,"stein":7786,"Ġmsg":7787,"ĠCarl":7788,"idel":7789,"shape":7790,"Ġalternative":7791,"illy":7792,"ĠGeorgia":7793,"ĠJewish":7794,"Ġneut":7795,"Ġclaimed":7796,"short":7797,"items":7798,"Ġcombination":7799,"ĠOrgan":7800,"ussian":7801,"ĠGreek":7802,"istent":7803,"ez":7804,"Ġtrav":7805,"Ġaudience":7806,"ogen":7807,"Ġcars":7808,"ĠHy":7809,"cluded":7810,"gers":7811,"Ġcreation":7812,"Ġsurvey":7813,"ĠJon":7814,"Ġskills":7815,"ĠLandroid":7816,"ĠMid":7817,"FAULT":7818,"Active":7819,"Ġdrink":7820,"Ġarticles":7821,"wer":7822,"Ġproceed":7823,"Var":7824,")/":7825,"Ġmetal":7826,"Ġconducted":7827,"inois":7828,"hadoop":7829,"]]":7830,"ĠOhio":7831,")}\\":7832,"ĠMike":7833,"alloc":7834,"Ġseconds":7835,"Ġsister":7836,"KEY":7837,"Ġfunding":7838,"abeth":7839,"Ġkeys":7840,"ĠTherefore":7841,"ĠMot":7842,"burgh":7843,"Extension":7844,"ĠSciences":7845,"aya":7846,"printf":7847,"category":7848,"Ġlooked":7849,"Ġwave":7850,"omorph":7851,"1967":7852,"points":7853,"Ġmotion":7854,"Ġadjust":7855,"Ð°Ð":7856,"Ġincorpor":7857,"ĠJustice":7858,"Ġhidden":7859,"plugins":7860,"ĠMarket":7861,"Ġmeant":7862,"cher":7863,"Ġprotection":7864,"Å¡":7865,"ðŁ":7866,"irds":7867,"Ġinterested":7868,"ĠText":7869,"agers":7870,"Ġrise":7871,"1945":7872,"Ġfinish":7873,"uses":7874,"FILE":7875,"Ġfrequency":7876,"Package":7877,"ĠMicrosoft":7878,"unte":7879,"ĠEmpire":7880,"Step":7881,"auto":7882,"Ġleadership":7883,"ĠAff":7884,"Changed":7885,"Ġadding":7886,"lets":7887,"Ġmessages":7888,"record":7889,"MENT":7890,"Ġapi":7891,"Ġexecutive":7892,"Ġprocessing":7893,"ĠPennsylvania":7894,"Ġinvestment":7895,"ython":7896,",-":7897,"tsd":7898,"addr":7899,"END":7900,"Ġjavax":7901,"typedef":7902,"Ġcouncil":7903,"ruit":7904,"Ġdedicated":7905,"ĠHarr":7906,"ĠĠĠĠĠĠĊ":7907,"1930":7908,"ĠQueen":7909,"Ġpi":7910,"ĠVAL":7911,"Ġearth":7912,"Ġversions":7913,"ĠColl":7914,"Obj":7915,"ĠCov":7916,"sen":7917,"amin":7918,"Ġfacilities":7919,"ĠCro":7920,"Ġult":7921,"ĠFund":7922,"ela":7923,"Ġconsult":7924,"SSERT":7925,"grid":7926,"Author":7927,"Av":7928,"Ġpatient":7929,"Ġ\\{":7930,"Auth":7931,"Ġsuc":7932,"ĠProfessor":7933,"urer":7934,"onav":7935,"Ġexpansion":7936,"Ġsegment":7937,"ello":7938,"Ġtraffic":7939,"MAX":7940,"pressed":7941,"ĠScotland":7942,"Ġenable":7943,"ĠAsian":7944,"Ġquantum":7945,"256":7946,"Ġfresh":7947,"Ġbatt":7948,"Ġdiscovered":7949,"initial":7950,"rical":7951,"Ġintended":7952,"ĠSecretary":7953,"Ġdepth":7954,"ĠBattle":7955,"ĠBas":7956,"Ġ\"/":7957,"cpp":7958,"Ġcontrast":7959,"bul":7960,"blockList":7961,"IA":7962,"Send":7963,"However":7964,"Main":7965,"indent":7966,"elegate":7967,"Ġlabor":7968,"oster":7969,"security":7970,"awn":7971,"ĠMcC":7972,"Ġarmy":7973,"Ġplot":7974,"alid":7975,"uing":7976,"edit":7977,"orship":7978,"Ġidentify":7979,"Ġwonder":7980,"fony":7981,"region":7982,"Ġpoly":7983,"Aust":7984,"widehat":7985,"matrix":7986,"ĠSoviet":7987,"dx":7988,"Ã¢":7989,"ĠTheatre":7990,"High":7991,"ĠAction":7992,"Ġconsole":7993,"ĠAri":7994,":#":7995,"adel":7996,"ĠIndust":7997,"Ġentity":7998,"Ġpsych":7999,"kw":8000,"Ġsexual":8001,"thread":8002,"Ġmonitor":8003,"okes":8004,"Ġyouth":8005,"âĢĿ,":8006,"Background":8007,"WA":8008,"Security":8009,"ĠNY":8010,"Ġtra":8011,"Ġdream":8012,"Ġnetworks":8013,"PAR":8014,"cut":8015,"oving":8016,"spring":8017,"sol":8018,"Ġtoward":8019,"acket":8020,"}^\\":8021,"Ġnotes":8022,"Ġregional":8023,"600":8024,"Ġfellow":8025,"ĠLink":8026,"orney":8027,"ĠLight":8028,"National":8029,"athan":8030,"ictures":8031,"Ġperhaps":8032,"Ġelections":8033,"ĠApple":8034,"ĠDefault":8035,"ione":8036,"Widget":8037,"Ġrecording":8038,"ideos":8039,"ĠTw":8040,"astructure":8041,"Ġreject":8042,"NG":8043,"ĠJr":8044,"ĠAny":8045,"Ġconvers":8046,"ups":8047,"Ġphotograph":8048,"ymfony":8049,"ĠHistoric":8050,"unsigned":8051,"ĠVersion":8052,"Timeout":8053,"iy":8054,"Ġbeautiful":8055,"Ġcomparison":8056,"Ġ${":8057,"ĠBor":8058,"Ġsucceed":8059,"Ġmainly":8060,"ĠTH":8061,"Ġgather":8062,"ĠParam":8063,"Ġul":8064,"Ġallowing":8065,"Del":8066,"Ġ{};":8067,"emon":8068,"Ġinstanceof":8069,"Ġoccurred":8070,"Ġinsert":8071,"ĠSO":8072,"ĠFederal":8073,"mathsf":8074,"1964":8075,"////////////////////////////////":8076,"Ġserving":8077,"andra":8078,"Then":8079,"Ġexport":8080,"ĠJersey":8081,"Ġreality":8082,"rawn":8083,"ingham":8084,"ĠExt":8085,"Ġpicture":8086,"ĠCEO":8087,"ĠKent":8088,"MB":8089,"ĠProvince":8090,"cit":8091,"Ġexpert":8092,"iÄĩ":8093,"Ã£":8094,"Ġobvious":8095,"Rad":8096,"Channel":8097,"ĠStan":8098,"ĉĉĉĊ":8099,"'))":8100,"family":8101,"____":8102,"ARY":8103,"Ġstrength":8104,"ading":8105,"ĠPage":8106,"ĠDaniel":8107,"ĠJes":8108,"ĠMult":8109,"Ġsufficient":8110,"Ġleaves":8111,"ceived":8112,"Ġrail":8113,"TED":8114,"bro":8115,"nic":8116,"ĠWindows":8117,"wait":8118,"ĠWalk":8119,"ĠKong":8120,"Ġlicense":8121,"Ġslightly":8122,"Msg":8123,"none":8124,"ĠLu":8125,"ĠBern":8126,"_,":8127,"ĠPhys":8128,"ocker":8129,"hentication":8130,"Ġtrend":8131,"Ġdetail":8132,"anes":8133,"Ġsun":8134,"Ġinteger":8135,"plications":8136,"Display":8137,"ĠFar":8138,"zz":8139,"Ġisol":8140,"1920":8141,"Ġexcell":8142,"inds":8143,"Ġstress":8144,"Ġflex":8145,"Ġbenefits":8146,"Ġil":8147,"Ġcolon":8148,"bserv":8149,"Scope":8150,"Ġagree":8151,"Ġtechnical":8152,"Ġfre":8153,"password":8154,"Account":8155,"Ġcris":8156,"ĠFalse":8157,"ĠMu":8158,"Ġexperi":8159,"Ġderived":8160,"Ġclearly":8161,"uzz":8162,"Ġconcert":8163,"Ġbuilder":8164,"Ġreplace":8165,"ĠGirl":8166,"Tab":8167,"Ġcrow":8168,"ĠInitial":8169,"Ġsport":8170,"bre":8171,"inity":8172,"Ġcamera":8173,"hetic":8174,"ĠHa":8175,"}_\\":8176,"NotNull":8177,"Ġbelieved":8178,"Ġclassical":8179,"}|":8180,"JECT":8181,"IB":8182,"TA":8183,"Ġdanger":8184,"Ġshut":8185,"ression":8186,"ĠAdministr":8187,"1965":8188,"Queue":8189,"Ġaccepted":8190,"Ġnoise":8191,"ipping":8192,"ĠMajor":8193,"acks":8194,"Ġspaces":8195,"Ġblocks":8196,"HTML":8197,"bad":8198,"ĠJeff":8199,"Ġlab":8200,"ĠSte":8201,"ĠCommon":8202,"Åį":8203,"ĠTuesday":8204,"ĠLast":8205,"pton":8206,"ĠRepublican":8207,"ĠInvest":8208,"$)":8209,"alo":8210,"Ġdb":8211,"onavirus":8212,"impl":8213,"LOG":8214,".*":8215,"Ġfocused":8216,"Ġuniform":8217,"Ġvisible":8218,"GA":8219,"Ġjobs":8220,"Ġenvironmental":8221,"Ġinner":8222,"lyph":8223,"ĠFurther":8224,"Perm":8225,"iling":8226,"ĠLocal":8227,"pet":8228,"Ġabsolute":8229,"ĠSea":8230,"Two":8231,"Ġinjury":8232,"iate":8233,"1966":8234,"ĠFunction":8235,"iciency":8236,"onto":8237,"cmd":8238,"Ġcredit":8239,"ĠReal":8240,"Ġrelatively":8241,"ĠJackson":8242,"Ġdiff":8243,"othes":8244,"Ġflat":8245,"Init":8246,"rine":8247,"ĠEU":8248,"250":8249,"ĠĠĠĊ":8250,"dropdown":8251,"Ä±":8252,"lay":8253,"Ġappre":8254,"uset":8255,"arters":8256,"}:":8257,"ĠAbout":8258,"Ġhydro":8259,"Ġkids":8260,")^{":8261,"linear":8262,"vin":8263,"protobuf":8264,"ĠKr":8265,"Rest":8266,"itionally":8267,"istant":8268,"ĠEdward":8269,"Ġtab":8270,"Ġattributes":8271,"Ġinstalled":8272,"ĠBang":8273,"isc":8274,"Transaction":8275,"cknow":8276,"Ġaf":8277,"ĠPhilipp":8278,"Ġassigned":8279,"poss":8280,"Ġlocations":8281,"JSON":8282,"Ġtells":8283,"ters":8284,"pan":8285,"Ġbudget":8286,"Ġvirus":8287,"orders":8288,"Ġbass":8289,"Ġformation":8290,"margin":8291,"ONE":8292,"Ġanimals":8293,"Ġreviews":8294,"mi":8295,"Ġbenefit":8296,"ĠStudies":8297,"Ġopportunities":8298,"una":8299,"ĠSE":8300,"Ġdie":8301,"water":8302,"Ġachieve":8303,"Ġrailway":8304,"Ġkill":8305,"Ġdefense":8306,"Ġlaws":8307,"Ġfort":8308,"ĠIllinois":8309,"Ġdir":8310,"ĠGa":8311,"tip":8312,"Ġconstructed":8313,"ountry":8314,"Ġplus":8315,"Ġwinner":8316,"Ġinvestigation":8317,"cdots":8318,"Ġplants":8319,"radius":8320,"ROM":8321,"Ġregistered":8322,"reatest":8323,"Media":8324,"Ġacademic":8325,"RC":8326,"hell":8327,"jar":8328,"profile":8329,"enumer":8330,"Ġmotor":8331,"Ġdocuments":8332,"Ġcitizens":8333,"tain":8334,"Ġremote":8335,"clip":8336,"ĠRay":8337,"Ġcommunication":8338,"Bit":8339,"ĠThursday":8340,"ĠEnvironment":8341,"osophy":8342,"ĠLive":8343,"umes":8344,"Ġwallet":8345,"ĠIl":8346,"important":8347,"Ġpal":8348,"Ġcrew":8349,"Ġapparent":8350,"Ġtrip":8351,"Ġattacks":8352,"Gen":8353,"~~~~":8354,"CF":8355,"Best":8356,"enant":8357,"queue":8358,"ĠCapt":8359,"Ġmuseum":8360,"ĠEgypt":8361,"Ġhtml":8362,"Ġestimate":8363,"Ġfactory":8364,"ĠPrince":8365,"Ġchallenges":8366,"Ġcrime":8367,"Ã±":8368,"Ġrich":8369,"Ġcensus":8370,"Ġbrowser":8371,"Ġheat":8372,"rim":8373,"ĠWednesday":8374,"ĠSpace":8375,"Ġdiscussion":8376,"Ġbegins":8377,"ĠFour":8378,"results":8379,"jpg":8380,"friend":8381,"seud":8382,"\">&":8383,"{(":8384,"ivation":8385,"ĠLittle":8386,"Ġbrain":8387,"inant":8388,"Flags":8389,"sin":8390,"çļ":8391,"oir":8392,"Ġresolution":8393,"DP":8394,"Ġsquad":8395,"Ġfunds":8396,"Ġmarriage":8397,"Grid":8398,"Ġdefeated":8399,"ĠTask":8400,"Global":8401,"Selector":8402,"Dem":8403,"ï¼":8404,"ancel":8405,"Ġbiggest":8406,"Ġven":8407,"Ġhappy":8408,"ĠDar":8409,"Ġbridge":8410,"Car":8411,"ĠMuslim":8412,"ryst":8413,"Ġarrived":8414,"ĠEst":8415,"imb":8416,"je":8417,"Ġsuccessfully":8418,"Ġactors":8419,"Ġpredict":8420,"ogy":8421,"Ġthinking":8422,"Ġvaccine":8423,"ĠUpdate":8424,"Ġsmooth":8425,"iteral":8426,"eper":8427,"Ġwarm":8428,"appe":8429,"iffer":8430,"ĠWho":8431,"ĠPolit":8432,"Ġhighlight":8433,"Editor":8434,"Ġplane":8435,"Ġadvantage":8436,"inator":8437,"inos":8438,"Ġfan":8439,"rie":8440,"Ġordered":8441,"Ġsettlement":8442,"ĠPath":8443,"erial":8444,"ĠBroad":8445,"?\"":8446,"800":8447,"Ġlies":8448,"ĠPy":8449,"Ġphoto":8450,"Cor":8451,"Ġancient":8452,"SIZE":8453,"ĠGre":8454,"Ġpolicies":8455,"Ġvehicles":8456,"Ġdiscussed":8457,"operation":8458,"çļĦ":8459,"ĠOption":8460,"ĠStart":8461,"yo":8462,"Ġguide":8463,"Ġloop":8464,"scroll":8465,"icer":8466,"Ġacquired":8467,"ĠSpec":8468,"_->":8469,"achuset":8470,"ĠSign":8471,"Ġeye":8472,"ĠKorea":8473,"Ġring":8474,"hab":8475,"Ġwestern":8476,"Cast":8477,"Ġdriving":8478,"achusetts":8479,"Float":8480,"Ġwarn":8481,"modules":8482,"fire":8483,"pled":8484,"izabeth":8485,"edding":8486,"@\"":8487,"formance":8488,"Ljava":8489,"Ġtrees":8490,"Tags":8491,"ĠLatin":8492,"Events":8493,"uations":8494,")),":8495,"ĠSpring":8496,"[:":8497,"ifer":8498,"Ġsomew":8499,"itter":8500,"Ġdetect":8501,"ĠKar":8502,"fly":8503,"Ġexerc":8504,"ĠCA":8505,"Ġcer":8506,"ĠEastern":8507,"home":8508,"ĠAsh":8509,"ĠBrook":8510,"Ġhyper":8511,"wa":8512,"world":8513,"Ġreader":8514,"Ġhers":8515,"ĠWis":8516,"atial":8517,"mo":8518,"ĠAmericans":8519,"selected":8520,"ĠWhe":8521,"}}(":8522,"connection":8523,"Ġaffected":8524,"ĠExecut":8525,"Ġip":8526,"Ġpolitics":8527,"Ġtrigger":8528,"urance":8529,"ĠTaylor":8530,"entials":8531,"elly":8532,"Ġclinical":8533,"Ġcref":8534,"Ġelim":8535,"Ġdeveloping":8536,"Further":8537,"words":8538,"Ġfill":8539,"Ġnarr":8540,"ĠSom":8541,"ĠRepresent":8542,"ĠNE":8543,"*)":8544,"128":8545,"HR":8546,"Cond":8547,"ĠBBC":8548,"Ġcomedy":8549,"NT":8550,"teen":8551,"Ġcriminal":8552,"ĠTR":8553,"txt":8554,"ĠMic":8555,"Ġadvanced":8556,"Ġdiss":8557,"ADD":8558,"Ġcorner":8559,"Ġtend":8560,"typeof":8561,"Ġexpressed":8562,"Â°":8563,"ĠTem":8564,"})\\":8565,"ĠLike":8566,"Ġsoft":8567,"manager":8568,"ĠCommand":8569,"ĠNumber":8570,"Ġships":8571,"101":8572,"ĠJava":8573,"ĠBecause":8574,"screen":8575,"Ġgone":8576,"ĠMaster":8577,"super":8578,")));":8579,"gence":8580,"Protocol":8581,"ibli":8582,"ĠTrust":8583,"Ġstandards":8584,"Ġfuel":8585,"ĠRights":8586,"ĠEth":8587,"Ġlisten":8588,"ĠNet":8589,"ĠAlb":8590,"Ġhousing":8591,"Ġdoll":8592,"ami":8593,"Ġspeech":8594,"Ġawait":8595,"Ġsmart":8596,"Ġgain":8597,"(!":8598,"chain":8599,"Ġfinding":8600,"\"`":8601,"VERSION":8602,"pa":8603,"Ġplanned":8604,"obs":8605,"TABLE":8606,"ĠGovernor":8607,"Ġrequests":8608,"Engine":8609,".__":8610,"Ġefficient":8611,"ĠBad":8612,"move":8613,"Ġvac":8614,"Ġfunc":8615,"yes":8616,"Ġ[[":8617,"ydney":8618,"Feature":8619,"Career":8620,"()));":8621,"assertEqual":8622,"Ã£o":8623,"LC":8624,"Ġsustain":8625,"Ġviolence":8626,"rovers":8627,"Ġprepar":8628,"Ġaudio":8629,"ĠAdv":8630,"Activity":8631,"save":8632,"ĠMember":8633,"BI":8634,"Ġadvance":8635,"Ġweather":8636,"ushed":8637,"Ġcycle":8638,"ĠHamilton":8639,"Ġpromin":8640,"Ġhouses":8641,"lean":8642,"duced":8643,"cam":8644,"Proxy":8645,"Ġ$(\\":8646,"ĠRen":8647,"Why":8648,"Ġcancell":8649,"%,":8650,"Bi":8651,"Ġinfe":8652,"orrow":8653,"ĠThree":8654,"LIC":8655,"Ġlearned":8656,"Ġburn":8657,"atters":8658,"Ġsynt":8659,"VD":8660,"âĢ¢":8661,"ĠVill":8662,"assets":8663,"Ġadj":8664,"ori":8665,"Video":8666,"cuss":8667,"Ñı":8668,"ĠOxford":8669,"Ġunc":8670,"Ġguarant":8671,"primary":8672,"effect":8673,"Ġlanguages":8674,"Ġprofessor":8675,"apore":8676,"Ġsqu":8677,"ĠRom":8678,"omial":8679,"Ġenabled":8680,"hu":8681,"ĠDutch":8682,"ĠKim":8683,"Ġphen":8684,"Ġjump":8685,"ervative":8686,"ĠLemma":8687,"Ġmarked":8688,"evin":8689,"LP":8690,"ĠMake":8691,"Iterator":8692,"defined":8693,"controller":8694,"how":8695,"1963":8696,"flags":8697,"GR":8698,"deg":8699,"ĠSus":8700,"numer":8701,"Jan":8702,"Ġtechniques":8703,"amber":8704,"Logger":8705,"ĠStation":8706,"Ġalongside":8707,"Files":8708,"Brit":8709,"Ġindepend":8710,"WN":8711,"Ġfigures":8712,"Ġdifferences":8713,"ĠBO":8714,"Ġdimension":8715,"Ġrain":8716,"ĠSoc":8717,"lyn":8718,"Own":8719,"ĠPrime":8720,"ĠInternet":8721,"Ġsuggested":8722,"Ġrom":8723,"Ġimportance":8724,"\")]":8725,"}</":8726,"Ġsyn":8727,"ulpt":8728,"ĠBoy":8729,"Ġbed":8730,"onia":8731,"Ġmaps":8732,"Ġinteraction":8733,"Database":8734,"Ġ&\\":8735,"events":8736,"Ġpartnership":8737,"Ġconsistent":8738,"Ġtwice":8739,"recated":8740,"}\\\\":8741,"Ġadm":8742,"Ġroles":8743,"dist":8744,"Ġscientific":8745,"Section":8746,"Ġvertical":8747,"Ġdataset":8748,"ĠFood":8749,"avity":8750,"zone":8751,"oret":8752,"ĠĠĠĠĠĠĠĠĠĠĠĠĠĠĠĠĠĠĠĠĠĠĠĠ":8753,"pay":8754,"Ġdetailed":8755,"ĠFair":8756,"(){":8757,"ĠCH":8758,"ĠCat":8759,"Ġgalax":8760,"throws":8761,"ĠLy":8762,"apes":8763,"West":8764,"Prop":8765,"coq":8766,"tex":8767,"IST":8768,"Ġtasks":8769,"asis":8770,"Ġachieved":8771,"Ġstuff":8772,"Ġepisodes":8773,"Close":8774,")).":8775,"ĠFC":8776,"ĠSupport":8777,"idential":8778,"1962":8779,"Ġpointer":8780,"Ġsingles":8781,"rase":8782,"ĠMir":8783,"Ġdance":8784,"Ġsemi":8785,"low":8786,"iterator":8787,"Films":8788,"Ġpitch":8789,"ĠRog":8790,"Func":8791,"Ġends":8792,"Ġsupporting":8793,"Internal":8794,"Term":8795,"ĠControl":8796,"Ġmys":8797,"network":8798,"properties":8799,"Ġelem":8800,"ĠHong":8801,"anth":8802,"ĠNiger":8803,"Ġearned":8804,"Ġbalance":8805,"Ġfashion":8806,"Ġinstrument":8807,"ĠLear":8808,".~":8809,"Ġsale":8810,"UID":8811,"IVE":8812,"inher":8813,"Ġcrisis":8814,"ĠGuide":8815,"ookie":8816,"Ġfeaturing":8817,"ĠMinnes":8818,"Ġpoliticians":8819,"Ġoccurs":8820,"shift":8821,"Ġassociation":8822,"scr":8823,"GO":8824,"ĠCount":8825,"Ġwish":8826,"ĠGuard":8827,"ĠBeach":8828,"gg":8829,"Ġmaybe":8830,"mosph":8831,"ĠAccess":8832,"Ġrepresenting":8833,"dimensional":8834,"Ġawards":8835,"ĠĠĠĠĠĠĠĠĠĠĠĠĠĠĠĠĠĠĠĠĠĠĠĠĠĠĠĠĠĠĠĠĠĠĠĠĠĠĠĠĠĠĠĠĠĠĠĠĠĠĠĠĠĠĠĠĠĠĠĠĠĠĠĠ":8836,"Ġfacility":8837,"ĠRest":8838,"Ġintegr":8839,"Transform":8840,"Ġsecondary":8841,"ĠPortug":8842,"Ġcontained":8843,"fix":8844,"ĠLew":8845,"Ġmyst":8846,"MT":8847,"Ġaccomp":8848,"Ġmolec":8849,"Ġcompare":8850,"Ġreceiving":8851,"Ġexistence":8852,"Memory":8853,";/":8854,"FS":8855,"Full":8856,"ĠMassachusetts":8857,"stats":8858,"Ġcollected":8859,"Items":8860,"ĠBa":8861,"ĠBol":8862,"assertEquals":8863,"ĠMinnesota":8864,"ĠEngineering":8865,"atible":8866,"Ġpersonnel":8867,"Ġteacher":8868,"Ġhair":8869,"Ġinstitutions":8870,"Layer":8871,"BE":8872,"tools":8873,"owa":8874,"Directory":8875,"Ġhandler":8876,"ĠKenn":8877,"Ġnearby":8878,"black":8879,"=(":8880,"aph":8881,"Ġdeleg":8882,"Ġpurposes":8883,"%%%%":8884,"chor":8885,"Loader":8886,"Ġchanging":8887,"ĠOtt":8888,"Ġdecades":8889,"ĠEnergy":8890,"ĠCorporation":8891,"isa":8892,"Ġzone":8893,"ĠLie":8894,"eral":8895,"Ġmand":8896,"Ġmist":8897,"Ġoperated":8898,"Ġsan":8899,"ICE":8900,"game":8901,"Register":8902,"ĠAli":8903,"Ġimproved":8904,"Ġspring":8905,"Ġbehavi":8906,"qquad":8907,"','":8908,"ĠPoland":8909,"ĠElement":8910,"ĠSupreme":8911,"essions":8912,"git":8913,"ĠIndex":8914,"INFO":8915,"Ret":8916,"ĠCirc":8917,"ologist":8918,"Ġmodified":8919,"Ġera":8920,"Ġsupports":8921,"approx":8922,"Ġprimarily":8923,"ĠAS":8924,"->_":8925,"Ġclubs":8926,"encing":8927,"Ġcomposed":8928,"Ġcoeffic":8929,"Ġmac":8930,"Ins":8931,"Ġhonor":8932,"Attributes":8933,"Ġfell":8934,"Ġsides":8935,"ĠWhy":8936,"anna":8937,"sky":8938,"estion":8939,"Ġherself":8940,"Ġperman":8941,"Ġneighborhood":8942,"General":8943,"ĠĠĠĠĠĠĠĠĠĠĠĠĠĠĠĠĠĠĠĠĠĠ":8944,"ingly":8945,"inv":8946,"ĠHard":8947,"pository":8948,"Nov":8949,"Ġapproved":8950,"ĠWilson":8951,"Ġstatistics":8952,"Ġarbit":8953,"Ġextr":8954,"Ġoffering":8955,"Ġgirls":8956,"axis":8957,"Ġjourney":8958,"ĠPen":8959,"ĠAk":8960,"norm":8961,"Ġretired":8962,"1944":8963,"ĠCorn":8964,"Google":8965,"ĠColumbia":8966,"ĠBell":8967,"Ġimplies":8968,"ĠSteve":8969,"uous":8970,"Ġmassive":8971,"Ġio":8972,"Ġsam":8973,"bot":8974,"Ġcoverage":8975,"ãĢ":8976,"Ġcouldn":8977,"ĠRod":8978,"inson":8979,"oured":8980,"NULL":8981,"}\\,":8982,"Ġ[];":8983,"lan":8984,"cf":8985,"Ġcontinuous":8986,"icensed":8987,"avor":8988,"roke":8989,"ĠSa":8990,"United":8991,"Desc":8992,"Ġglass":8993,"Ġcertainly":8994,"Print":8995,"engine":8996,"Ġsetup":8997,"Ġacting":8998,"decl":8999,"()).":9000,"fol":9001,"Ġwaves":9002,"ĠAz":9003,"Selected":9004,"Ġadvent":9005,"Ġbow":9006,"Ġraw":9007,"structions":9008,"Ġwidely":9009,"ĠCa":9010,"ĠPerson":9011,"Ġabstract":9012,"Ġ\"\"":9013,"proto":9014,"sex":9015,"Ġformal":9016,"Ġinvalid":9017,"Ġengineering":9018,"eld":9019,"ĠMinistry":9020,"ĠJean":9021,"Ġcoal":9022,"++;":9023,"Ġ%}":9024,"PM":9025,"xspace":9026,"Ġcycl":9027,"aga":9028,"ĠAnth":9029,"Ġcandidates":9030,"andy":9031,"Pointer":9032,"oses":9033,"keyword":9034,"Ġauthorities":9035,"lg":9036,"]:":9037,"upload":9038,"area":9039,"BUG":9040,"Ġathlet":9041,"ĠVictoria":9042,"ĠBooks":9043,"Ġholding":9044,"para":9045,"Ġencoding":9046,"=\"@":9047,"each":9048,"Ġgrid":9049,"green":9050,"Ġvent":9051,"schema":9052,"Ġrough":9053,"Ġtrail":9054,"Ġemph":9055,"istribution":9056,"1961":9057,"........":9058,"Ġdepends":9059,"Runtime":9060,"Ġcomfort":9061,"======":9062,"University":9063,"Ġtalking":9064,"\\'":9065,"Ġfreedom":9066,"Ġconcerns":9067,"ilarly":9068,"ĠScottish":9069,"mutable":9070,"Ġnewly":9071,"ĠNode":9072,"Ġgrew":9073,"ĠViet":9074,"called":9075,"metadata":9076,"ĠGets":9077,"Generic":9078,"IND":9079,"Expr":9080,"Ġbinary":9081,"eria":9082,"Ġprev":9083,"Ġbond":9084,"Ġorders":9085,"ntario":9086,"worth":9087,"RS":9088,"Ġincreases":9089,"imit":9090,"Ġauthority":9091,"ĠOfficial":9092,"About":9093,"Ġfant":9094,"wall":9095,"attery":9096,"blue":9097,"|^":9098,"atever":9099,"Ġsummary":9100,"Ġrecip":9101,"Ġcontribution":9102,"aska":9103,"outheast":9104,"components":9105,"adelph":9106,"cred":9107,"Ġfifth":9108,"Ġprovider":9109,"desc":9110,"ository":9111,"sche":9112,"Ġoperators":9113,"Ġmenu":9114,"uv":9115,"Windows":9116,"ĠResource":9117,"letion":9118,"bytes":9119,"inf":9120,"Ġcos":9121,"Ġindicate":9122,"ĠCreek":9123,"Ġagency":9124,"ickets":9125,"ĠBal":9126,"lywood":9127,"ĠConfig":9128,"Ġincident":9129,"Adapter":9130,"Ġprotein":9131,"Cap":9132,"domain":9133,"Ġseeing":9134,"Ġfn":9135,"PU":9136,"Arch":9137,"Ġtor":9138,"RES":9139,"ĠDO":9140,"brid":9141,"Ġmeasured":9142,"Ġchemical":9143,"night":9144,"Ġtreated":9145,"Ġtherm":9146,"plus":9147,"Java":9148,"yard":9149,"Ġpassing":9150,"hspace":9151,"Ġcommittee":9152,"Ġ{'":9153,"Ġextremely":9154,"ĠWat":9155,"lik":9156,"Ġexplained":9157,"ennes":9158,"Ġdynamic":9159,"ĠChair":9160,"raham":9161,"Ġclients":9162,"Ġteaching":9163,"Dest":9164,"inton":9165,"Ġimplements":9166,"Profile":9167,"ben":9168,"Mut":9169,"Ġmaintain":9170,"Ġinspired":9171,"ego":9172,"}^{(":9173,"Graph":9174,"Ġnuclear":9175,"Ġlisting":9176,"Ġcapture":9177,"Ġspectrum":9178,"Ġadvoc":9179,"Ġpure":9180,"ĠEs":9181,"jquery":9182,"INS":9183,"Ġdefend":9184,"Ġlargely":9185,"ITE":9186,"Ġindustrial":9187,"ĠIslands":9188,"ĠSaf":9189,"Ġestate":9190,"Double":9191,"Ġelev":9192,"Ġequations":9193,"ĠMedicine":9194,"Ġpractices":9195,"ĠBerlin":9196,"Ġpieces":9197,"editor":9198,"Ġcustomer":9199,"children":9200,"{{\\":9201,"ederation":9202,"Ġminister":9203,".;":9204,"reset":9205,"Ġthousands":9206,"Ġhelps":9207,"Plugin":9208,"total":9209,"ĠCopyright":9210,"thur":9211,"ĠNon":9212,"Ġspons":9213,"ĠArea":9214,"Ġok":9215,"Ġturns":9216,"isted":9217,"Ġpra":9218,"Ġcauses":9219,"asters":9220,"ĠPakistan":9221,"Route":9222,"Ġpossibly":9223,"fast":9224,"ĠBlock":9225,"ĠSydney":9226,"ĠImage":9227,"Ġwitness":9228,"ĠAlexander":9229,"Ġodd":9230,"}'":9231,"ĠAvenue":9232,"ĠPC":9233,"aked":9234,"anz":9235,"Ġprovince":9236,"Ġhistoric":9237,"STAT":9238,"Book":9239,"aki":9240,"iration":9241,"ById":9242,"Ġretail":9243,"mask":9244,"mazing":9245,"otional":9246,"ĠFox":9247,"Ġurban":9248,"vo":9249,"Ġvary":9250,"Space":9251,"Ġcold":9252,"Ġbtn":9253,"ropol":9254,"account":9255,"Ġcarbon":9256,">:":9257,"adelphia":9258,"Ġaccident":9259,"opher":9260,"ĠBit":9261,"Panel":9262,"ĠImp":9263,"_(":9264,"ĠAirport":9265,"Ġinn":9266,"Ġindicates":9267,"Statement":9268,"Constants":9269,"Ġboost":9270,"hidden":9271,"Ġpurchase":9272,"Ġexpanded":9273,"Spe":9274,"channel":9275,"prise":9276,"avid":9277,"Abstract":9278,"Ġdeclared":9279,"Ġdenote":9280,"outs":9281,"Ġrect":9282,"=\"\">":9283,"unes":9284,"Ġliber":9285,"Ġautomatically":9286,"ĠÅ":9287,"Ġadopted":9288,"Ġmagnetic":9289,"Auto":9290,"Play":9291,"&=":9292,"??":9293,"uality":9294,"ĠHun":9295,"Ġsleep":9296,"ĠAnother":9297,"ĠPers":9298,"achment":9299,"1959":9300,"UTF":9301,"zona":9302,"collection":9303,"Edit":9304,"bourne":9305,"Ġpeace":9306,"ĠĠĠĠĠĠĠĠĠĠĠĠĠĠĠĠĠĠĠĠĠĠĠĠĠĠĠĠĠĠĠĠĠĠĠĠĠĠĠĠĠĠĠ":9307,"Ġpy":9308,"Ġexecution":9309,"hy":9310,"original":9311,"Ġcircum":9312,"ĠTODO":9313,"itled":9314,"FE":9315,"Ġexit":9316,"law":9317,"raq":9318,"acts":9319,"Ġoptional":9320,"Ġtrained":9321,"Ġgenus":9322,"Ġwaiting":9323,"Ġfavour":9324,"inating":9325,"Ġexperimental":9326,"Ġthick":9327,"Sports":9328,"aret":9329,"Ġdivided":9330,"ĠAP":9331,"Ġreduction":9332,"^+":9333,"Ġmetric":9334,"Ġfaith":9335,"Ġmanner":9336,"1958":9337,"ĠElizabeth":9338,"1942":9339,"Ġchannels":9340,"Inv":9341,"Ġexperiences":9342,"apply":9343,"Common":9344,"ears":9345,"Ġcommitted":9346,"Ġaccuracy":9347,"hol":9348,"Ġmedium":9349,"ĠHung":9350,"layer":9351,"110":9352,"Cam":9353,"Ġsubstant":9354,"Ġhomes":9355,"urd":9356,"Elements":9357,"Ġexpos":9358,"Ġrecognized":9359,"iveness":9360,"Ġletters":9361,"ĠVideo":9362,"ais":9363,"safe":9364,"ĠProcess":9365,"ĠBon":9366,"Ġaxis":9367,"ĠOs":9368,"liance":9369,"Ġminim":9370,"ACT":9371,"Ġfinds":9372,"SY":9373,"Ġwinter":9374,"coh":9375,"ĠSant":9376,"iner":9377,"[$":9378,"ĠRegion":9379,"Matrix":9380,"bel":9381,"XML":9382,"Ġagric":9383,"ĠVen":9384,"ĠToday":9385,"Ġappend":9386,"agraph":9387,"handler":9388,"Ġparser":9389,"Äį":9390,"Ġvision":9391,"Ġ(-":9392,"builder":9393,"ĠChildren":9394,"Ġce":9395,"'])":9396,"Ġexperiments":9397,"elli":9398,"1948":9399,"etes":9400,"Ġng":9401,"dependent":9402,"ĠRaj":9403,"Just":9404,"arc":9405,"ĠLabor":9406,"hard":9407,"Ġrepeated":9408,"amental":9409,"ĠTam":9410,"fall":9411,"ows":9412,"alg":9413,"Ġdetection":9414,"tmp":9415,"Ġspecifically":9416,"identifier":9417,"]$":9418,"ĠIOException":9419,"Ġreturning":9420,"otten":9421,"ĠWrit":9422,"multicol":9423,"Ġopinion":9424,"picker":9425,"Ġsecure":9426,"1956":9427,"ĠSem":9428,"}}{\\":9429,"FIG":9430,"parser":9431,"Lo":9432,"Ġprogramming":9433,"READ":9434,"################":9435,"IPT":9436,"Ġstorm":9437,"exists":9438,"Constr":9439,"ĠCustom":9440,"ĠBand":9441,"ĠStory":9442,"NavBarCell":9443,"Ġkick":9444,"aug":9445,"ĠLtd":9446,"Ġfavorite":9447,"logger":9448,"ĠRailway":9449,"fold":9450,"prec":9451,"citet":9452,"heim":9453,"1939":9454,"Ġanimal":9455,"zech":9456,"Conn":9457,"ĠTok":9458,"protocol":9459,"Ġmarketing":9460,"idi":9461,"upl":9462,"Ġmental":9463,"Ġnewspaper":9464,"ĠNC":9465,"Ġupdates":9466,"edu":9467,"Ġhotel":9468,"Ġsections":9469,"parameters":9470,"details":9471,"Ġguard":9472,"Ġsilver":9473,"ailure":9474,"Ġspl":9475,"Details":9476,"extern":9477,"Ġprepared":9478,"Ġexplain":9479,"Ġgender":9480,"Ġsubsequently":9481,"enumerate":9482,"His":9483,"Ġcommonly":9484,"consin":9485,"PATH":9486,"iga":9487,"configuration":9488,"Ġcab":9489,"Ġreq":9490,"Ġposted":9491,"Ġcontroller":9492,"Ġacts":9493,"ĠSC":9494,"Ġescape":9495,"Attr":9496,"Ġthanks":9497,"1957":9498,"compl":9499,"}+\\":9500,"multicolumn":9501,"izable":9502,"Scroll":9503,"otted":9504,"ĠShort":9505,"ĠChannel":9506,"Ġsurrounding":9507,"Ġdress":9508,"UD":9509,"ToString":9510,"Ġprices":9511,"Ġentr":9512,"Ġserves":9513,"Ġprocedure":9514,"Ġtypical":9515,"Ġgranted":9516,"ĠSanta":9517,"Ġvelocity":9518,"ĠOlympic":9519,"ĠRon":9520,"Ġheav":9521,"IMP":9522,"ĠNext":9523,"BP":9524,"ĠDam":9525,"switch":9526,"oor":9527,"Ġsignature":9528,"unny":9529,"ERS":9530,"Ġnarrow":9531,"ĠSat":9532,"Ġstored":9533,"udden":9534,"Ġcontributions":9535,"Product":9536,"ĠToronto":9537,"contains":9538,"ĠDigital":9539,"Ġdelivery":9540,"ĠTurn":9541,"ĠWars":9542,"ĠBall":9543,"Ġrural":9544,"ULE":9545,"utf":9546,"SCR":9547,"à¥":9548,"Ġvon":9549,"ĠBC":9550,"Keys":9551,"MOD":9552,"ĉĠĠĠĠĠ":9553,"ĠUnivers":9554,"Ġfighting":9555,"ĠAndroid":9556,"South":9557,"Ġconfirm":9558,"ĠHas":9559,"!\"":9560,"Ġimplemented":9561,"auge":9562,"random":9563,"ĠEnt":9564,"Cred":9565,"limit":9566,"archy":9567,"Ġapproaches":9568,"Ġstable":9569,"ĠRail":9570,"Ġscal":9571,"Ġfeeling":9572,"Ġrecall":9573,"getName":9574,"Ġprofession":9575,")+":9576,"Ġadmin":9577,"Ġsoldiers":9578,"=-":9579,"Ġannounce":9580,"neq":9581,"Ġknows":9582,"Ġcas":9583,"aped":9584,"Ġperforming":9585,"]\\":9586,"ĠEll":9587,"ĠSingapore":9588,"ĠComput":9589,"ĠCur":9590,"ĠNations":9591,"ĠHash":9592,"ĠMarg":9593,"Music":9594,"shadow":9595,"ĠPremier":9596,"pson":9597,"ĠHo":9598,"Ġasync":9599,"ĠGro":9600,"Ġyourself":9601,"Ġentirely":9602,"ĠSon":9603,"Ġsolo":9604,"trigger":9605,"engers":9606,"TT":9607,"Ġtroops":9608,"etherlands":9609,"Ġdoctor":9610,"alyt":9611,"mediate":9612,"apol":9613,"ika":9614,"rait":9615,"ĠTy":9616,"ÅĤ":9617,"Ġshock":9618,"ĠMill":9619,"ĠStephen":9620,"Ġcalc":9621,"Ġaren":9622,"WR":9623,"Ġcaptured":9624,"%.":9625,"Ġweekend":9626,"Ġterror":9627,"iamond":9628,"ĠCountry":9629,"month":9630,"Ġtitles":9631,"irk":9632,"Ġcompute":9633,"Ġhelping":9634,"Ġtopic":9635,"adr":9636,"Ġmountain":9637,"Ġconnections":9638,"akh":9639,"ĠSoftware":9640,"Austral":9641,"1943":9642,"Ġ(_":9643,"ÐµÐ":9644,"tabs":9645,"Ġidx":9646,"Wrapper":9647,"RAN":9648,"Ġscheduled":9649,"endor":9650,"role":9651,"Ġangle":9652,"bat":9653,"Ġnavigation":9654,"Ġlib":9655,"Ġcontemporary":9656,"Ġorient":9657,"Ġcontrovers":9658,"Ġlayout":9659,"1946":9660,"Ġdropped":9661,"Ġcaught":9662,"1941":9663,"adesh":9664,"Ġmel":9665,"Ġdestroyed":9666,"atar":9667,"osa":9668,"sys":9669,"TEXT":9670,"Ġvideos":9671,"Variable":9672,"ses":9673,"Ġ{{":9674,"Ġcampus":9675,"Ġkid":9676,"Î±":9677,"British":9678,"Ġlie":9679,"Ġentries":9680,"ĠKorean":9681,"Ġflags":9682,"Ġapart":9683,":\\":9684,"Ġ\"<":9685,"ĠAnton":9686,"1955":9687,"Failed":9688,"1952":9689,"Ġbaseball":9690,"uma":9691,"ĠAD":9692,"ordan":9693,"Ġunable":9694,"Free":9695,"Ġnice":9696,"Ġarms":9697,"arring":9698,"iper":9699,"kes":9700,"ĠArm":9701,"ĠPlease":9702,"Ġhappens":9703,"ĠBudd":9704,"ĠOntario":9705,"Ġjustice":9706,"stances":9707,"Ġeastern":9708,"ĠPlaces":9709,"ician":9710,"issue":9711,"Landroid":9712,"Ġorganized":9713,"Ġfiction":9714,"Ġcert":9715,"Ġclassification":9716,"Ġportion":9717,"irement":9718,"Writ":9719,"Ġusage":9720,"ĠDu":9721,"multi":9722,"Enum":9723,"istical":9724,"Ġlosing":9725,"Socket":9726,"Ġmarkets":9727,"Ġwww":9728,"Imp":9729,"Ġaggreg":9730,"initely":9731,"Ġsuggests":9732,"roduction":9733,"Ġvotes":9734,"ĠHay":9735,"Ġcopies":9736,"Sync":9737,"Props":9738,"prefix":9739,"rat":9740,"ÑĮ":9741,"ĠĠĠĠĠĠĠĠĠĠĠĠĠĠĠĠĠĠĠĠĠĠĠĠĠĠĠĠĠ":9742,"since":9743,"Ġinfin":9744,"Ġprogramme":9745,"Ġ$.":9746,"}}_":9747,"Ġassistant":9748,"eman":9749,"ndef":9750,"ĠRome":9751,"anchester":9752,"Ġcurve":9753,"alty":9754,"}-\\":9755,"vspace":9756,"ĠAdam":9757,")\">":9758,"Ġdepending":9759,"Ġadvice":9760,"nil":9761,"izz":9762,"Ġpublication":9763,"Ġsand":9764,"Ġatmosph":9765,"CESS":9766,"ĠCase":9767,"theorem":9768,"ĠSI":9769,"Ġfootballer":9770,"ĠTerm":9771,"USE":9772,"Ġsolar":9773,"Ġcolumns":9774,"ĠGreg":9775,"ĠStock":9776,"merce":9777,"ĠIV":9778,"ĠSym":9779,"ouri":9780,"ĠPRO":9781,"SQL":9782,"ĠExper":9783,"ĠBelg":9784,"Ġinfrastructure":9785,"ĠLady":9786,"ĠSeason":9787,"Ġbroken":9788,"ĠTal":9789,"iliar":9790,"Ġhabit":9791,"iated":9792,"dem":9793,"ĠDavis":9794,"Ġclassic":9795,"Ġflood":9796,"Fix":9797,"PORT":9798,"Ġdestination":9799,"IGHT":9800,"ĠAud":9801,"Ġspend":9802,"Ġhence":9803,"Opt":9804,"Ġvot":9805,"LECT":9806,"Ġparallel":9807,"Ġtypeof":9808,"itemize":9809,"OUT":9810,"Ġalleged":9811,"ĠLater":9812,"Conf":9813,"Ġstone":9814,"HL":9815,"Ġseed":9816,"Ġdialog":9817,"ĠNick":9818,"Ġapplicable":9819,"Mapping":9820,"ropical":9821,"zero":9822,"ĠCost":9823,"Ġdispl":9824,"Parse":9825,"gorithms":9826,"Many":9827,"Ġmach":9828,"ĠHom":9829,"Ġglob":9830,"Ġmyself":9831,"Ġmechanism":9832,"Ġarbitr":9833,"Ġshell":9834,"external":9835,"Ġplanet":9836,"Ġproved":9837,"Ġbright":9838,"ĠDocument":9839,"echo":9840,"Pay":9841,"Ġdistingu":9842,"ĠĠĠĠĠĠĠĠĠĠĠĠĠĠĠĠĠĠĠĠĠĠĠĠĠĠ":9843,"Ġacceler":9844,"Ġmort":9845,"SM":9846,"OST":9847,"ĠArgent":9848,"Publ":9849,"ĠHind":9850,"subs":9851,"Ġexperienced":9852,"thon":9853,"Ġdescent":9854,"Ġwat":9855,"ĠØ":9856,"ifiers":9857,"FR":9858,"OB":9859,"Ġsympt":9860,"definition":9861,"International":9862,"ĠForest":9863,"Ġpropag":9864,"Ġsizeof":9865,"Collections":9866,"Ġjudge":9867,"rout":9868,"Ġyards":9869,"Ġtested":9870,"protected":9871,"Ġdisk":9872,"({\\":9873,"Ġwins":9874,"Identifier":9875,"attributes":9876,"Ġdict":9877,"Ġdegrees":9878,"Ġpassword":9879,"generated":9880,"ĠGallery":9881,"atern":9882,"Ġment":9883,"Ĥ¬":9884,"Ġfilled":9885,"Ġobservations":9886,"eli":9887,"duce":9888,"Selection":9889,"Ġperformances":9890,"Ġlinked":9891,"Ġdecisions":9892,"Ġhockey":9893,"idx":9894,"Ġprincipal":9895,"ancell":9896,"possible":9897,"Ġwealth":9898,"season":9899,"esc":9900,"conn":9901,"Ġstores":9902,"ĠExecutive":9903,"Fin":9904,"1947":9905,"Ġdomestic":9906,"ĠHTTP":9907,"Ġtransferred":9908,"OF":9909,"when":9910,"Ġstrings":9911,"ĠWel":9912,"Ġexcellent":9913,"tainment":9914,"Ġmir":9915,"Ġcharges":9916,"Ġduration":9917,"Ġarts":9918,"ĠFac":9919,"ĠStadium":9920,"Ġcontest":9921,"Ġminute":9922,"ĠCambridge":9923,"Ang":9924,"Phone":9925,"Ġnegot":9926,"ogether":9927,"bell":9928,"ĠLow":9929,"Ġseemed":9930,"Ġstopped":9931,"Mer":9932,"Ġacknow":9933,"libr":9934,"sa":9935,"ALSE":9936,"Ġuncertain":9937,"Ġmatching":9938,"Tube":9939,"Ġsubsequent":9940,"Ġtail":9941,"Ġsupposed":9942,"VM":9943,"Ġmetadata":9944,"Remove":9945,"Pod":9946,"ĠDer":9947,"two":9948,"ĠBridge":9949,"unately":9950,"Ġcash":9951,"Ġvolunte":9952,"king":9953,"VE":9954,"ĠObama":9955,"Ġappearances":9956,"TRY":9957,"ĠUI":9958,"ĠConnect":9959,"Ġcontrolled":9960,"asm":9961,"$_":9962,"ĠDoug":9963,"ubs":9964,"ĠStaff":9965,"ni":9966,"Sequ":9967,"Ġresc":9968,"Ġofficially":9969,"watch":9970,"Ġvess":9971,"1953":9972,"ĠQueens":9973,"ĠCorps":9974,"rypto":9975,"ĠGolden":9976,"cha":9977,"Under":9978,"Ġcart":9979,"Ġmanage":9980,"ĠBru":9981,"1954":9982,"Trace":9983,"Ġ×":9984,"Ġri":9985,"forward":9986,"ĠGer":9987,"Ġexplore":9988,"Duration":9989,"Ġ[\"":9990,"ĠOriginal":9991,"ĠCovid":9992,"regon":9993,"tons":9994,"filename":9995,"Registry":9996,"Ġyounger":9997,"ĠColorado":9998,"ĠPay":9999,"Ġprefix":10000,"Ġ-\\":10001,"wrapper":10002,"ĠMatt":10003,"Pi":10004,"tk":10005,"iples":10006,"asi":10007,"ĠÂ»":10008,"Ġacid":10009,"oked":10010,"Total":10011,"130":10012,"erves":10013,"Ġcreative":10014,"IX":10015,"Ã¡n":10016,"ĠWinter":10017,"arsed":10018,"ĠLes":10019,"ĠPolish":10020,"ivacy":10021,"ropy":10022,"Ġcalculated":10023,"ĠSab":10024,"Character":10025,"ĠAgain":10026,"Ġsculpt":10027,"tenance":10028,"ĠCas":10029,"ĠThrough":10030,"SER":10031,"ĠUsing":10032,"prev":10033,"ourse":10034,"Ġcompact":10035,"Ġgap":10036,"ifdef":10037,"oped":10038,"Ġdelivered":10039,"NOT":10040,"Ġchampion":10041,"vs":10042,"Ġvertex":10043,"Ġstrongly":10044,"ruption":10045,"Ġmusicians":10046,"neg":10047,"Ġhosted":10048,"Ġwinners":10049,"Find":10050,"Ġsac":10051,"ĠRa":10052,"Ġfounder":10053,"ĠAh":10054,"Ġpromote":10055,"ĠWisconsin":10056,"wing":10057,"Ġxmlns":10058,"Ġswim":10059,"bits":10060,"'$":10061,"Ġformula":10062,"Ġabandon":10063,"125":10064,"Ġattempts":10065,"Ġconstraints":10066,"Ġemergency":10067,"junit":10068,"Ġkeeping":10069,".<":10070,"icing":10071,"Seg":10072,"special":10073,"Nodes":10074,"Ġfaculty":10075,"ĠSearch":10076,"{$":10077,"usters":10078,"Previous":10079,"Ġregul":10080,"ĠInf":10081,"webpack":10082,"Ġassumed":10083,"Ñĭ":10084,"ĠBh":10085,"iÃ³n":10086,"Ġconven":10087,"Ġreaction":10088,"opl":10089,"NC":10090,"platform":10091,"Success":10092,"ERE":10093,"Ġ\",":10094,"Single":10095,"props":10096,"ĠOnce":10097,"Ġtx":10098,"horizontal":10099,"ariant":10100,"Ġcrowd":10101,"Ġevening":10102,"Ġending":10103,"Look":10104,"Ġalgebra":10105,"Miss":10106,"Ġvul":10107,"arry":10108,"ĠIraq":10109,"ĠCommunic":10110,"Ġfestival":10111,"Make":10112,"minus":10113,"Ġaspects":10114,"Ġdoub":10115,"Ġextend":10116,"Ġoccasion":10117,"Where":10118,"Ġrecognition":10119,"FFFF":10120,"Ġsurg":10121,"Ġshares":10122,"Ġseats":10123,"Game":10124,"1949":10125,"underline":10126,"Category":10127,"Ġtranslation":10128,"Simple":10129,"prov":10130,"Report":10131,"ĠDespite":10132,"expr":10133,"Ġdescribes":10134,"Ant":10135,"ĠFord":10136,"åı":10137,"ĠRose":10138,"Ġ).":10139,"Ġcharged":10140,"Ġprime":10141,"Ġcovers":10142,"Ġreferences":10143,"Ġconstructor":10144,"dp":10145,"iami":10146,"LINE":10147,"article":10148,"isting":10149,"dc":10150,"Browser":10151,"ĠModern":10152,"serial":10153,"abil":10154,"TRUE":10155,"ucks":10156,"iti":10157,"ĠHou":10158,"ĠNa":10159,"ĠBu":10160,"Ã©e":10161,"\"/":10162,"Ġrenew":10163,"Most":10164,"Ġexceed":10165,"Ġvariant":10166,"Ġban":10167,"Prefix":10168,"ĠPhiladelphia":10169,"forcement":10170,"Ġunderlying":10171,"Ġlegisl":10172,"Ġqueue":10173,"ĠWatch":10174,"Ġskin":10175,"Short":10176,"ĠRecord":10177,"hide":10178,"Ãº":10179,"Ġwa":10180,"ĠTransport":10181,"Ġelectron":10182,"NV":10183,"Ġbelief":10184,"ĠCru":10185,"Ġadministrative":10186,"Ġarrested":10187,"Ġbench":10188,"Ġ=========":10189,"Microsoft":10190,"mac":10191,"ĠWAR":10192,"Cluster":10193,"Ġdiagn":10194,"ĠSi":10195,"Ġthreshold":10196,"perial":10197,"tags":10198,"ĠFull":10199,"issues":10200,"Ġsimpl":10201,"123":10202,"Ġpatterns":10203,"Ġgene":10204,"Leg":10205,"asty":10206,"ĠOnline":10207,"Compar":10208,"ipped":10209,"Ġalter":10210,"Ġremark":10211,"Ġusual":10212,"chestra":10213,"Ġfrequently":10214,"Ġrg":10215,"quarters":10216,"JS":10217,"Ġassign":10218,"Ġrecommended":10219,"Ġexplan":10220,"yrics":10221,"Posted":10222,"mad":10223,"noindent":10224,")->":10225,"Ġschedule":10226,"Ġsharing":10227,"Ġbodies":10228,"Ġconsidering":10229,"Ġreserved":10230,"enna":10231,"Ġraces":10232,"anga":10233,"Christ":10234,"ĠPrize":10235,"Ġlabels":10236,"ĠBrad":10237,"hematics":10238,"Ġpairs":10239,"Ġverify":10240,"Figure":10241,"een":10242,"COMP":10243,"dialog":10244,"ownt":10245,"argument":10246,"Ġthank":10247,"ĠNFL":10248,"QU":10249,"Ġliqu":10250,"Ġprominent":10251,"ĠSource":10252,"Ġtypename":10253,"ĠNetherlands":10254,"ĠMoh":10255,"ĠPhot":10256,"ortheast":10257,"Ġexpat":10258,"Namespace":10259,"Ġnob":10260,"required":10261,"itals":10262,"Ġwing":10263,"craft":10264,"Ġsubstantial":10265,"Ġhearing":10266,"ĠMessage":10267,"Ġsnow":10268,"Transport":10269,"Ġideal":10270,"Ġguess":10271,"FORM":10272,"pu":10273,"Ġaid":10274,"Ġclosely":10275,"Ġcro":10276,"()</":10277,"Ġped":10278,"Repository":10279,"gments":10280,"ĠMS":10281,"ĠLewis":10282,"Ġrent":10283,"ruby":10284,"Ġdefin":10285,"Ġwarning":10286,"including":10287,"iley":10288,"Ġguest":10289,")}{":10290,"Headers":10291,"Ġinvolving":10292,"agg":10293,"efe":10294,"pher":10295,"Ġaccounts":10296,"Ġbringing":10297,"Multi":10298,"RR":10299,"rog":10300,"Ġdemocr":10301,"Ġpromoted":10302,"bean":10303,"tbody":10304,"Ġtensor":10305,"player":10306,"Ġpayment":10307,"1951":10308,"ivated":10309,"Ġresulted":10310,"Comment":10311,"ĠArizona":10312,"Ġpurchased":10313,"Ġpermission":10314,"aded":10315,"Ġbought":10316,"Ġ\"-":10317,"HTTP":10318,"aux":10319,"ĠMountain":10320,"Pres":10321,"Ġhorse":10322,"Ġresearchers":10323,"ritical":10324,"ĠChen":10325,"Ġhumans":10326,"agues":10327,"Ġflo":10328,"700":10329,"ĠDaily":10330,"Ġhall":10331,"ĠIT":10332,"headers":10333,"Ġui":10334,"ĠLat":10335,"icity":10336,"Ġsuperv":10337,"Ġphotos":10338,"Ġeigen":10339,"ĉĠĠĠĠ":10340,"Ġwouldn":10341,"ĠBat":10342,"ĠBefore":10343,"Ġedges":10344,"ĠRoute":10345,"Syntax":10346,"180":10347,"Ġabsor":10348,"Ġcircle":10349,"Ġinstitution":10350,"Ġing":10351,"GP":10352,"Ġelectronic":10353,"------------":10354,"Ġinterests":10355,"Ġreform":10356,"ĠSD":10357,"Ġguy":10358,"ivals":10359,"Ġdocumentation":10360,"Ġparticipants":10361,"Ġgreatest":10362,"Ġagents":10363,"stable":10364,"(__":10365,"Ġtruly":10366,"Ġconsumer":10367,"operatorname":10368,"Although":10369,"Ġcollaboration":10370,"eval":10371,"elle":10372,"folio":10373,"Volume":10374,"Ġrequested":10375,"ynomial":10376,"ti":10377,"ĠConf":10378,"Ġton":10379,"antry":10380,"Ġinstant":10381,"onymous":10382,"}},":10383,"iversary":10384,"igrants":10385,"Ġassembly":10386,"Ġris":10387,"Ġpowers":10388,"Mask":10389,"browser":10390,"ĠMiller":10391,"agen":10392,"Ġmunicipality":10393,"PER":10394,"ĠRevolution":10395,"ĠjQuery":10396,"enses":10397,"Ġfee":10398,"Children":10399,"Ġmal":10400,"Ġlimits":10401,"Ã¸":10402,"RT":10403,"Ġefficiency":10404,"Ġpert":10405,"Ġextensive":10406,"Progress":10407,"udes":10408,"Div":10409,"Ġdynamics":10410,"texttt":10411,"Ġproport":10412,"ĠChange":10413,"<!":10414,"Ġbands":10415,"ĠPot":10416,"ifts":10417,"ĠOcean":10418,"ĠUnit":10419,"omy":10420,"ĠSQL":10421,"Execut":10422,"Ġstands":10423,"spirit":10424,"semble":10425,"Ġpun":10426,"Ġrelationships":10427,"Ġele":10428,"icenses":10429,"ĉĉĉĉĉĉĉĉĉ":10430,"acher":10431,"Ġstanding":10432,"HP":10433,"prod":10434,"apos":10435,"aligned":10436,"Oct":10437,"Ġrh":10438,"Ġtaught":10439,"ĠProt":10440,">::":10441,"done":10442,"Ġlat":10443,"Ġassets":10444,"Ġwatching":10445,"uce":10446,"ITION":10447,"Ġtransformation":10448,"ania":10449,"Ġevaluation":10450,"cers":10451,"Ġtransparent":10452,"3333":10453,"plom":10454,"Ġsounds":10455,"Ġdocumentary":10456,"Ġsuffered":10457,"Ġdry":10458,"ĠKnow":10459,"twitter":10460,"âĢī":10461,"jan":10462,"ĠLanguage":10463,"Ġinstruction":10464,"expect":10465,"ĠEP":10466,"services":10467,"ĠCurrent":10468,"Ġfly":10469,"Ġurg":10470,"eting":10471,"chant":10472,"video":10473,"Ġultimately":10474,"acent":10475,"adi":10476,"Ġloan":10477,"depth":10478,"pred":10479,"progress":10480,"ĠAssoci":10481,"Ġ\\|":10482,"Ġmovies":10483,"Ġdoubt":10484,"ĠFOR":10485,"azy":10486,"ĠSav":10487,"Ġindeed":10488,"Ġdefeat":10489,"Ġspr":10490,"ĠNAME":10491,"ĠHarry":10492,"ĠFind":10493,"fi":10494,"ometric":10495,"jango":10496,"ennessee":10497,"ĠGree":10498,"boost":10499,"ĠReb":10500,"$/":10501,"Ġconverted":10502,"Ð²":10503,"ĠFollowing":10504,"ĠMagazine":10505,"gov":10506,"ĠTai":10507,"commod":10508,"Ġresponsibility":10509,"Ġscholar":10510,"enabled":10511,"peror":10512,"Ġperspective":10513,"vard":10514,"Ġcommunic":10515,"TIME":10516,"ighth":10517,"Ġ>>":10518,"ĠAnderson":10519,"Ġeasier":10520,"ĠChem":10521,"Day":10522,"Ġworldwide":10523,"anny":10524,"fd":10525,"Sche":10526,"GC":10527,"ĠON":10528,"Ġctx":10529,"Ġdisabled":10530,"Ġsevere":10531,"storage":10532,"1936":10533,"Ġmapping":10534,"outer":10535,"Ġstatements":10536,"ĠBrian":10537,"Ġfrag":10538,"also":10539,"Ġvisited":10540,"ando":10541,"Ġadult":10542,"ĠDuke":10543,"ugs":10544,"URI":10545,"Ġgained":10546,"views":10547,"Ġfunctional":10548,"Ġdoct":10549,"Ġenum":10550,"Symfony":10551,"ĠOfficer":10552,"Ġspan":10553,"Ġ],":10554,"ĠPR":10555,"complete":10556,"Ġopposite":10557,".âĢĻ":10558,"Ġscenes":10559,"Î¿":10560,"onomy":10561,"Ġscatter":10562,"Begin":10563,"}}}":10564,"Ġcoronavirus":10565,"istence":10566,"ĠProperty":10567,"Password":10568,"Black":10569,"rell":10570,"esome":10571,"islation":10572,"brief":10573,"angers":10574,"blog":10575,"weg":10576,"Ġconvent":10577,"Ġbrings":10578,"Ġiron":10579,"Polit":10580,"tw":10581,"ĠExpl":10582,"Ġopposition":10583,"1918":10584,"Struct":10585,"ĠIndones":10586,"Services":10587,"Ġsaved":10588,"Ġplatforms":10589,"ĠEric":10590,"Ġcontents":10591,"igate":10592,"door":10593,"ĠFA":10594,"ENSE":10595,"ĠDark":10596,"Ġlose":10597,"Ġyellow":10598,"news":10599,"Ġsigns":10600,"ymmet":10601,"Ġconstitu":10602,"ĠUkraine":10603,"Scale":10604,"wp":10605,"Ġconfidence":10606,"BB":10607,"tc":10608,"Ġattached":10609,"EV":10610,"ffff":10611,"Ġextent":10612,"Ġstret":10613,"Ġmedian":10614,"Ġemployed":10615,"Ġintelligence":10616,"aron":10617,"ĠBuilding":10618,"Ġradius":10619,"ĪĴ":10620,"Ġdecor":10621,"Ġresistance":10622,"ellar":10623,"=\"${":10624,"ĠAge":10625,"Ġcategories":10626,"Ġlogger":10627,"Ġunderst":10628,"Ġrecovery":10629,"feature":10630,"ĠRequest":10631,"Ġterritory":10632,"Sur":10633,"Ġproxy":10634,"Ġparticles":10635,"shop":10636,"unnel":10637,"LOCK":10638,"ĠRyan":10639,"Stand":10640,"Ġdecade":10641,"Ġpiano":10642,"Enter":10643,"UK":10644,"ĠKat":10645,"Ġentertain":10646,"$}":10647,"ĠBiden":10648,"Ġlists":10649,"Ġparticle":10650,"Ġinstances":10651,"Support":10652,"Ġtechnique":10653,"ĠTurk":10654,"ĠBox":10655,"ĠKansas":10656,"Ġreaders":10657,"cest":10658,"ells":10659,"Ġtwenty":10660,"ĠAT":10661,"Mac":10662,".\");":10663,"orough":10664,")}$":10665,"Ġinterval":10666,"Generator":10667,"ĠLev":10668,"Ġroy":10669,"FLA":10670,"Ġcompre":10671,"np":10672,"about":10673,"Region":10674,"ĠEntertainment":10675,"Ġrestaurant":10676,"publ":10677,"Bound":10678,"Ġswe":10679,"\\}$":10680,"Ġbomb":10681,"rift":10682,"Ġdat":10683,"riority":10684,"uble":10685,"ĠCastle":10686,"ÐµÐ½":10687,"rf":10688,"1938":10689,"errors":10690,"govern":10691,"Ġpartition":10692,"pull":10693,"ĠGh":10694,"ĠObserv":10695,"icians":10696,"Ġanalyt":10697,"olut":10698,"ivial":10699,";}":10700,"ĠAtlantic":10701,"SCRIPT":10702,"Ġestimates":10703,"ifndef":10704,"ewidth":10705,"!âĢĿ":10706,"pur":10707,"Help":10708,"Ġfaster":10709,"ĠCab":10710,"maven":10711,"Ġdrawn":10712,"Ġimpress":10713,"tor":10714,"Ġpolar":10715,"svg":10716,"ogram":10717,"bec":10718,"Ġsudden":10719,"ĠDonald":10720,"Ġtransmission":10721,"closed":10722,"ĠRight":10723,"ĠLook":10724,"ĠMemorial":10725,"Ġweapons":10726,"ĠDisney":10727,"Vertex":10728,"Ġindicated":10729,"Ġwire":10730,"Ġphenomen":10731,"tle":10732,"ĠHotel":10733,"utenant":10734,"ĠLeon":10735,"Ġintroduction":10736,"iat":10737,"ĠTurkey":10738,"ships":10739,"Ġignore":10740,"Ġ[],":10741,"ĠJews":10742,"ĠPeak":10743,"Ġamazing":10744,"phy":10745,"ordon":10746,"Stop":10747,"Domain":10748,"ĠOregon":10749,"ĠDeath":10750,"ĠAdministration":10751,"Ġoptimal":10752,"ĠSurvey":10753,"provider":10754,"itivity":10755,"ĠJam":10756,"ĠInteger":10757,"Ġintent":10758,"Uri":10759,"olds":10760,"ĠFuture":10761,"ĠDa":10762,"Ġalert":10763,"Ġtheorem":10764,"wild":10765,"Subs":10766,"ĠIowa":10767,"ĠĠĠĠĠĠĠĠĠĠĠĠĠĠĠĠĠĠĠĠĠĠĠĠĠĠĠĠ":10768,"UC":10769,"Ġcloser":10770,"irth":10771,"mers":10772,"zed":10773,"Ġ..":10774,"Ġdrivers":10775,"Aug":10776,"ĠTra":10777,"Every":10778,"ĠAC":10779,">\"":10780,"job":10781,"Ġreporting":10782,"ĠNaz":10783,"Ġinteractions":10784,"Ġincred":10785,"ĠSky":10786,"Ġ{\"":10787,"invalid":10788,"Watch":10789,"Len":10790,";)":10791,"ĠManchester":10792,"ĠPrinc":10793,"Ġclock":10794,"urches":10795,"Ġscoring":10796,"Ġeducational":10797,"Ġdates":10798,"ĠRow":10799,"ĠDead":10800,".\",":10801,"ĠðŁ":10802,"ĠDeb":10803,"Ġshooting":10804,"Ġrepresentative":10805,"ĠHal":10806,"Ġenv":10807,"Ġintroduce":10808,"Ġcomposition":10809,"Ġtack":10810,"Ġloved":10811,"ummy":10812,"ĠDream":10813,"Ġlay":10814,"cow":10815,"Resources":10816,"Ign":10817,"CRE":10818,"colLast":10819,"Ġeffectively":10820,"Hz":10821,"ĠSweden":10822,"Ġbin":10823,"theme":10824,"emet":10825,"Pe":10826,"ĠSound":10827,"ĠStandard":10828,"lix":10829,"agnostic":10830,"ĠLOG":10831,"Ġtechnologies":10832,"rons":10833,"Another":10834,"Mich":10835,"inch":10836,"Ġarrang":10837,"ĠPit":10838,"Ġtargets":10839,"ĠCulture":10840,"Ġencounter":10841,"ĠGil":10842,"irms":10843,"Ġfraction":10844,"Ġlayers":10845,"cussion":10846,"ĠLind":10847,"ĠNorm":10848,"ĠCaptain":10849,"\"><!--":10850,"ĠForeign":10851,"METH":10852,"shared":10853,"ĠMaria":10854,"rett":10855,"Ġnotable":10856,"Ġpersons":10857,"Ġloaded":10858,"Association":10859,"mathscr":10860,"Lin":10861,"ĠRoss":10862,"Family":10863,"Email":10864,"Ġinternet":10865,"ĠÐ¿":10866,"Ġprompt":10867,"eness":10868,"Ġlegend":10869,"Ġoperate":10870,"Ġwalls":10871,"amaz":10872,"Personal":10873,"ĠAmb":10874,"Ġveg":10875,"Ġcompeted":10876,"Ġtradition":10877,"icious":10878,"Ġteachers":10879,"Role":10880,"Ġinh":10881,"Ġpossibility":10882,",'":10883,"Ġpromise":10884,"ĠAthlet":10885,"ĠTony":10886,"ĠTro":10887,"Ben":10888,"rg":10889,"Ġgraduated":10890,"you":10891,"Ġsoc":10892,"FN":10893,"Endpoint":10894,"Ġpainting":10895,"Ġeat":10896,"colFirst":10897,"napshot":10898,"ANCE":10899,"ĠRoll":10900,"ĠSite":10901,"pub":10902,"execute":10903,"Sem":10904,"ĠSP":10905,"Bind":10906,"ceptions":10907,"Capt":10908,"Ġcraft":10909,"ycl":10910,"roit":10911,"oval":10912,"stan":10913,"STATE":10914,"agan":10915,"Ġmoves":10916,"Ġpaths":10917,"âĢĻ,":10918,"icide":10919,"Ġexecute":10920,"yg":10921,"Texture":10922,"hav":10923,"ĠHart":10924,"Ġà¤":10925,"lights":10926,"enable":10927,"users":10928,"detail":10929,"Ġderiv":10930,"Agent":10931,"Ġaccurate":10932,"Ġanimation":10933,"Ġcomposer":10934,"Ġmunicipal":10935,"wich":10936,"ĠAffairs":10937,"ĠSher":10938,"prene":10939,"ĠCond":10940,"Ġrows":10941,"Ġhouseholds":10942,"ĠJane":10943,"Ġconcerned":10944,"Delegate":10945,"Ġpriority":10946,"Enumer":10947,"ĠPA":10948,"bas":10949,"ĠIss":10950,"owner":10951,"ĠIndiana":10952,"ĠHan":10953,"WORD":10954,"ĠVi":10955,"ĠIE":10956,"1937":10957,"Release":10958,"ĠSimon":10959,"Ġresolve":10960,"Ġdiagram":10961,"ĠUl":10962,"Ġreadonly":10963,"ĠGrant":10964,"ĠMoreover":10965,"ĠReact":10966,"Ġwhatever":10967,"DR":10968,"Ġmeasurements":10969,"(@":10970,"Ġles":10971,"Visible":10972,"oven":10973,"igenous":10974,"ĠPhilippines":10975,"Ġtight":10976,"unique":10977,"Ġcookies":10978,"Ġpassion":10979,"Bean":10980,"Ġvice":10981,"Ġconversion":10982,"Join":10983,"oa":10984,"Ġveter":10985,"ĠHeart":10986,"pres":10987,"ĠOak":10988,"ĠYouTube":10989,"flex":10990,"ĠSep":10991,"isition":10992,"nodes":10993,"hl":10994,"VALUE":10995,"aired":10996,"Ġcapable":10997,"Ġintegration":10998,"Ġ=======":10999,"Ġcontrols":11000,"Ġtempor":11001,"OC":11002,"Her":11003,"ĠFellow":11004,"Ġgoods":11005,"Fore":11006,"ixels":11007,"hensive":11008,"Ġmine":11009,"Ġvisitors":11010,"Ġongoing":11011,"Ġvo":11012,"Environment":11013,"reprene":11014,"iva":11015,"David":11016,"ĠBurn":11017,"Ġwear":11018,"zh":11019,"equality":11020,"osed":11021,"pattern":11022,"uda":11023,"Ġeq":11024,"ĠMun":11025,"throw":11026,"Ġreligion":11027,"Ġsevent":11028,"uction":11029,"cribed":11030,"North":11031,"Ġ_.":11032,"Ġ'<":11033,"~$":11034,"ailability":11035,"loop":11036,"Ġaged":11037,"Cloud":11038,"Ġcompliance":11039,"navList":11040,"Ġ''":11041,"PY":11042,"ĠFall":11043,"agu":11044,"ĠSenior":11045,"emplates":11046,"Ġparticipated":11047,"Photo":11048,"Ġstrike":11049,"Ġcombat":11050,"BL":11051,"collapse":11052,"Stats":11053,"shal":11054,"('.":11055,"Ġsoul":11056,"-$":11057,"Ġteen":11058,"Ġsending":11059,"ĠASSERT":11060,"login":11061,"Ġbroke":11062,"Ġworst":11063,"Ġforeach":11064,"Ġcolour":11065,"cases":11066,"\"],":11067,"Real":11068,"Ġaddresses":11069,"Mr":11070,"ĠDNA":11071,"Ġkilling":11072,"policy":11073,"ipl":11074,"signature":11075,"Ġspending":11076,"ĠBrig":11077,"1900":11078,"ĠSix":11079,"ĠMilitary":11080,"offs":11081,"Ġportray":11082,"ĠInstead":11083,"ĠIns":11084,"Returns":11085,"Using":11086,"ÑģÑĤ":11087,"ugar":11088,"ĠJoh":11089,"ceive":11090,"groups":11091,"ea":11092,"temp":11093,"Ġwhereas":11094,"BAR":11095,"Ġpublish":11096,"Sch":11097,"Ġscroll":11098,"Ġexhibition":11099,"Ġcancel":11100,"Ġkit":11101,"ĠCloud":11102,"Ġsteel":11103,"Ġassistance":11104,"ĠTennessee":11105,"Ġpoet":11106,"opes":11107,"ĠFront":11108,"ĠCzech":11109,"volume":11110,"Ġspatial":11111,"Ġcharacteristics":11112,"away":11113,"METHOD":11114,"Ġexperts":11115,"Ġpilot":11116,"abric":11117,"ahoma":11118,"ois":11119,"gi":11120,"asts":11121,"Ġtranslate":11122,"emetery":11123,"Ġscientists":11124,"xs":11125,"inals":11126,"Ġcompletion":11127,"Ġselling":11128,"Ġadults":11129,"Ġracing":11130,"ĠWhere":11131,"notes":11132,"Ġvalign":11133,"Ġchapter":11134,"witzer":11135,"ĠMO":11136,"Ġsubjects":11137,"clean":11138,"Ġexecuted":11139,"Ġproperly":11140,"Ġpasses":11141,"»¿":11142,"route":11143,"putation":11144,"ajax":11145,"ropolitan":11146,"oen":11147,"Coll":11148,"Ġ(+":11149,"Ġtimeout":11150,"ĠÂ·":11151,"ĠMissouri":11152,"Ġ\\(":11153,"REG":11154,"Ġtowns":11155,"Ġpermanent":11156,"fghan":11157,"Ġplate":11158,"UES":11159,"Ġboat":11160,"ĠLiter":11161,"Ġnp":11162,"Ø±":11163,"Ġroof":11164,"Ġfamiliar":11165,"Ġdrag":11166,"ĠRoy":11167,"Tele":11168,"Ġterr":11169,"Ġsole":11170,"DEBUG":11171,"aneous":11172,"Ġdebug":11173,"isode":11174,"ĠChall":11175,"uj":11176,"ï»¿":11177,"ĠNative":11178,"runtime":11179,"Ġprivacy":11180,"Ġcausing":11181,"Ġafford":11182,"Ġdebate":11183,"uable":11184,"Tx":11185,"Ġaccompl":11186,"Ġtitled":11187,"ĠSwedish":11188,"ĠANY":11189,"ĠSche":11190,"Ġmoments":11191,"changed":11192,"ĠOS":11193,"ĠFa":11194,"Ã©s":11195,"Annotation":11196,"Import":11197,"\\,\\":11198,"Ġlistener":11199,"picture":11200,"Ġmile":11201,"Ġfeels":11202,"ryption":11203,"Ġstrategies":11204,"Ġdesired":11205,"Ġhundreds":11206,"ĠPlace":11207,"Ġsymptoms":11208,"Ġbits":11209,"Ġairport":11210,"![":11211,"ployment":11212,"Ġpercentage":11213,")|":11214,"Ġheaders":11215,"tri":11216,"Ġdual":11217,"ĠProduct":11218,"Ġwrest":11219,"1914":11220,"linewidth":11221,"Ġtherapy":11222,"Ġnovels":11223,"Ġjournalist":11224,"coln":11225,"ĠBishop":11226,"compiler":11227,"Ġtyped":11228,"ĠDor":11229,"Ġposts":11230,"Ġcreates":11231,"Program":11232,"ANT":11233,"zip":11234,"ĠHttp":11235,"specific":11236,"ĠSquare":11237,"Ġaccommod":11238,"Sort":11239,"Math":11240,"{%":11241,"Please":11242,"ĠPut":11243,"anches":11244,"ĠArthur":11245,"Ġmanagers":11246,"Ġfeedback":11247,"condition":11248,"Ġfundamental":11249,"Ġqualified":11250,"Ġinfl":11251,"Ġlit":11252,"Ġspecify":11253,"Install":11254,"flag":11255,"Ġhero":11256,"orient":11257,"()))":11258,"witzerland":11259,"Ġdistricts":11260,"ĠRefer":11261,"Ġgovernor":11262,"Once":11263,"ĠDiego":11264,"Ġdrugs":11265,"ĠPier":11266,"Ġconj":11267,"Ġcards":11268,"ellite":11269,"large":11270,"Ġmouth":11271,"ĠResponse":11272,"zo":11273,"ĠCore":11274,"2023":11275,"Ġvirt":11276,"ÙĦ":11277,"Ġexposure":11278,"Fact":11279,"resources":11280,"enny":11281,"tar":11282,"inema":11283,"wick":11284,"timeout":11285,"Ġrepro":11286,"emony":11287,"ĠEditor":11288,"ista":11289,"allclasses":11290,"'));":11291,"Life":11292,"Private":11293,"Ġrevenue":11294,"Ġengineer":11295,"Ġalgorithms":11296,"Ġnullptr":11297,"Ġrestrictions":11298,"some":11299,"aze":11300,"gar":11301,"ĠStatus":11302,"ĠMrs":11303,"ĠFinally":11304,"Ġdefinitely":11305,"python":11306,"Ġbatch":11307,"Ġobjective":11308,"username":11309,"ĠMelbourne":11310,"Ġhits":11311,"ORY":11312,"Ġgate":11313,"Ġparliament":11314,"sea":11315,"Summary":11316,"Ġtrace":11317,"Ġmatters":11318,"DateTime":11319,"Ġcovering":11320,"establ":11321,"Ġbinding":11322,"Ġdisplayed":11323,"RPC":11324,"Ġaffili":11325,"Ġclim":11326,"plicated":11327,"tection":11328,"Ġagencies":11329,"Ġhun":11330,"async":11331,"Ġhealthy":11332,"Ġgod":11333,"1935":11334,"umul":11335,"Ġranked":11336,"ĠWIT":11337,"ĠValid":11338,"Ġvulner":11339,"indexOf":11340,"Ġlect":11341,"Ġdiverse":11342,"1919":11343,"Ġfake":11344,"yers":11345,"Ġscores":11346,"ĠKhan":11347,"wegian":11348,"Ġseeking":11349,"ĠStone":11350,"pping":11351,"don":11352,"ques":11353,"Ġrating":11354,"<\\":11355,"ĠContin":11356,"Ġexercise":11357,"001":11358,"cdn":11359,"Women":11360,"plier":11361,"Ġrefers":11362,"Ġfranch":11363,"Star":11364,"ĠAgency":11365,"Ġasking":11366,"ĠManager":11367,"Ġsimulation":11368,"tests":11369,"Player":11370,"ARD":11371,"Ġsuitable":11372,"Ġbuf":11373,"iac":11374,"oking":11375,"('#":11376,"Ġfiled":11377,"testing":11378,"ĠClark":11379,"Ġregime":11380,"ĠHouston":11381,"arse":11382,"dy":11383,"ĠVector":11384,"ĠTE":11385,"Shape":11386,"ĠTen":11387,"Ġlegislation":11388,"moz":11389,"ĠPhoto":11390,"Ġcorporate":11391,"Ġintegrated":11392,"egas":11393,"ĠArrayList":11394,"Literal":11395,"Sam":11396,"iph":11397,"1917":11398,"rence":11399,"ĠKal":11400,"Ġfat":11401,"rele":11402,"Ġvertices":11403,"Ġtheatre":11404,"Ġstreets":11405,"Admin":11406,"limits":11407,"osl":11408,"ĠKevin":11409,"rik":11410,"Ġinterior":11411,"arest":11412,"ras":11413,"such":11414,"Ġplugin":11415,"Ġinsurance":11416,"****************************************************************":11417,"letter":11418,"Ġtemp":11419,"pair":11420,"ante":11421,"ĠMoon":11422,"EEEE":11423,"ipher":11424,"ĠNAS":11425,"lot":11426,"doi":11427,"Ġcomputed":11428,"dam":11429,"Ġvocal":11430,"Ġsolve":11431,"ĠSquad":11432,"Ġguys":11433,"Ġmeta":11434,"ĠFROM":11435,"POST":11436,"ĠTag":11437,"âĢĻ.":11438,"Ġguid":11439,"rieve":11440,"transition":11441,"springframework":11442,"vc":11443,"1933":11444,"blem":11445,"ĠDoctor":11446,"ership":11447,"ĠLang":11448,"eric":11449,"Ġfaced":11450,"Ġclar":11451,"Ġpolynomial":11452,"incess":11453,"ĠJordan":11454,"Language":11455,"ĠClin":11456,"ĠSystems":11457,"aza":11458,"loom":11459,"Sequence":11460,"Ġcriteria":11461,"Ġdecide":11462,"ĠEmer":11463,"ĠMarc":11464,"Named":11465,"pir":11466,"quir":11467,"Ġmit":11468,"ĠBE":11469,"Ali":11470,"ĠMaryland":11471,"Ġinhib":11472,"Ġstages":11473,"ĠassertThat":11474,"omot":11475,"bg":11476,"Ġtemporary":11477,"subseteq":11478,"ureau":11479,"Ġproposal":11480,"Ġfacilit":11481,"Ġspeaking":11482,"trm":11483,"Ġbanks":11484,"'\\":11485,"ĠHollywood":11486,"ibliography":11487,"Ġkernel":11488,"displayName":11489,"Bal":11490,"Ġimmediate":11491,"ĠHawai":11492,"Ġlyrics":11493,"Theta":11494,"MR":11495,"uating":11496,"Ġrear":11497,"Well":11498,"ĠBatt":11499,"apsed":11500,"Ġsuit":11501,"Ġ\"$":11502,"ĠVietnam":11503,"Ġbind":11504,"phere":11505,"pag":11506,"ĠJesus":11507,"ibraries":11508,"oust":11509,"Ġhaven":11510,"Ġopposed":11511,"Ġmeasurement":11512,"western":11513,"ceptor":11514,"onal":11515,"ĠMas":11516,"UST":11517,"cu":11518,"ĠZh":11519,"Ġparticipate":11520,"Mill":11521,"Ġpregn":11522,"Ġrenamed":11523,"Ġouter":11524,"Ġmanufacturing":11525,"kh":11526,"ificial":11527,"Ġcourses":11528,"ĠMalays":11529,"Ġdisappe":11530,"Ġdetected":11531,"fortunately":11532,"Ġ$\\{":11533,"onical":11534,"Ġarbitrary":11535,"appoint":11536,"ĠBab":11537,"olly":11538,"Ġaccused":11539,"Ġmomentum":11540,"Ġlift":11541,"uba":11542,"catch":11543,"Ġbounded":11544,"ĠBry":11545,"Ġputting":11546,"Ġmissed":11547,"ĉĠĠĠĠĠĠĠ":11548,"nie":11549,"Ġboys":11550,"aval":11551,"goto":11552,"ĠSuch":11553,"Operator":11554,"ĠAI":11555,"Ġexplo":11556,"ĠSever":11557,"nn":11558,"ĠTreat":11559,"French":11560,"textrm":11561,"Ġvictims":11562,"ilk":11563,"Ġpractical":11564,"ĠCapital":11565,"Tax":11566,"German":11567,"Ġminimal":11568,"allas":11569,"DEFAULT":11570,"ĠNev":11571,"Sources":11572,"proxy":11573,"}}_{":11574,"1934":11575,"ĠMit":11576,"Ġtheoret":11577,"Ġtopics":11578,"Ġmo":11579,"News":11580,"Ġgeneric":11581,"Ġproducing":11582,"Ġdimensions":11583,"ĠPhilip":11584,"BM":11585,"INTER":11586,"rupted":11587,"checked":11588,"Sql":11589,"ĠPu":11590,"ĠApache":11591,"owed":11592,"Connect":11593,"RED":11594,"ĠBarn":11595,"cohol":11596,"idelines":11597,"sn":11598,"Ġkil":11599,"Like":11600,"Ġmob":11601,"Ġknock":11602,"NET":11603,"Ġwrites":11604,"CG":11605,"Wait":11606,"ĠHoly":11607,"oli":11608,"Ġrgba":11609,"ĠSerb":11610,"1910":11611,"sem":11612,"Ġhole":11613,"Ġcoff":11614,"Ġcolors":11615,"?>":11616,"ellect":11617,"atrix":11618,"Ġcoordinates":11619,"Flag":11620,"SN":11621,"Ġgrade":11622,"Following":11623,"library":11624,"olutely":11625,"ĠTrail":11626,"thew":11627,"ubble":11628,"ĠKa":11629,"Ġexpatriate":11630,"blank":11631,"klahoma":11632,"once":11633,"Ġassessment":11634,"visible":11635,"ĠGab":11636,"Ġevaluate":11637,"Ġsizes":11638,"Ġenemy":11639,"William":11640,"ĠĠĠĠĠĠĠĠĠĠĠĠĠĠĠĠĠĠĠĠĠĠĠĠĠĠĠĠĠĠ":11641,"Ġpapers":11642,"opts":11643,"fixed":11644,"itis":11645,"mont":11646,"Ġtalent":11647,"ĠAnthony":11648,"Ġlawyer":11649,"PUT":11650,"åĪ":11651,"Ġfemales":11652,"Append":11653,"Ġworse":11654,"agnostics":11655,"Ids":11656,"Stud":11657,"Ġoffices":11658,"Ġ];":11659,"ĠTownship":11660,"1929":11661,"Ġpotentially":11662,"Ġspoke":11663,"ĠCook":11664,"Ġsought":11665,"Ġincreasingly":11666,"Ġflux":11667,"Ġmedicine":11668,"MIN":11669,"Required":11670,"fred":11671,"umin":11672,"ĠAccount":11673,"ĠSilver":11674,"orer":11675,"('/":11676,"Ġgro":11677,"Ġfindings":11678,"Ġbounds":11679,"1928":11680,"typen":11681,"uris":11682,"Ġwindows":11683,"Ġsoci":11684,"plot":11685,"undefined":11686,"CTYPE":11687,"Ġsomewhat":11688,"atomic":11689,"Ġbehaviour":11690,"eties":11691,"esis":11692,"Ġbaby":11693,"secutive":11694,"ĠPalest":11695,"Your":11696,"etary":11697,"tf":11698,"footnote":11699,"Ġride":11700,"Ġhandling":11701,"ĠPos":11702,"abama":11703,"ĠLabour":11704,"umps":11705,"Ġstyles":11706,"ĠBoolean":11707,"ĠRegional":11708,"Ġexcited":11709,"argo":11710,"Dictionary":11711,"xis":11712,"available":11713,"ĠVice":11714,"Ð°Ð½":11715,"REQ":11716,"ĠEdition":11717,"Ġimprovement":11718,"Save":11719,"enda":11720,"Ġwalking":11721,"Song":11722,"ĠHans":11723,"Ġast":11724,"ĠHighway":11725,"Ġreset":11726,"will":11727,"Ġtrading":11728,"ĠCELL":11729,"Ġinvent":11730,"III":11731,"Ġcopyright":11732,"Ġig":11733,"Ġdesignated":11734,"eron":11735,"ENTRY":11736,"ĠJacob":11737,"Ġabuse":11738,"Oh":11739,"Ġrevolution":11740,"Ġpit":11741,"Ġtransactions":11742,"REE":11743,"trim":11744,"Ñĩ":11745,"Ġenhance":11746,"ÛĮ":11747,"Ġmodes":11748,"ĠMean":11749,"Ġseparated":11750,"Ġelig":11751,"ĠChap":11752,"ĠInput":11753,"circle":11754,"Win":11755,"Ġmess":11756,"Ġcm":11757,"Ġinvestors":11758,"Ġappeal":11759,"Py":11760,"ĠHence":11761,"fc":11762,"href":11763,"Ġrefused":11764,"Ġsynchron":11765,"ĠMD":11766,"setminus":11767,"Ġcontributed":11768,"Ġfragment":11769,"sample":11770,"1932":11771,"Ġtmp":11772,"ouses":11773,"eros":11774,"Prov":11775,";\">":11776,"Ġ([":11777,"ĠJay":11778,"Ġpreced":11779,"Ð´":11780,"Ġcorrelation":11781,"ĠColon":11782,"Ġcmd":11783,"Ġconversation":11784,"subfigure":11785,"127":11786,"Ġprepare":11787,"ĠLoc":11788,"ĠEuro":11789,"ĠSport":11790,"ĠHarris":11791,"Bel":11792,"resolve":11793,"Ġlandscape":11794,"Platform":11795,"Ġmoder":11796,"supported":11797,"ĠNever":11798,"Ġapproval":11799,"isor":11800,"perm":11801,"aro":11802,"Ġflu":11803,"ĠFederation":11804,"Ġdangerous":11805,"Ġstood":11806,"ĠApplication":11807,"Ġemission":11808,"getElement":11809,"oton":11810,"ĠCop":11811,"Ġworker":11812,"typename":11813,"Ġwilling":11814,"pare":11815,"aire":11816,"getValue":11817,"Ġexpensive":11818,"assembly":11819,"Ġrig":11820,"Ġprops":11821,"ichol":11822,"facebook":11823,"Ġcrash":11824,"Ġforg":11825,"Ġadds":11826,"Ġpup":11827,"Cent":11828,"ELD":11829,"uther":11830,"æľ":11831,"ĠGard":11832,"Ġinvited":11833,"ibilities":11834,"elect":11835,"report":11836,"peat":11837,"agent":11838,"single":11839,"actic":11840,"Cr":11841,"ĠLegisl":11842,"ĠÂ©":11843,"assandra":11844,"println":11845,"ocaml":11846,"Yes":11847,"inth":11848,"Ġreplacement":11849,"Cur":11850,"Ġfacing":11851,"tah":11852,"ĠCred":11853,"TF":11854,"irty":11855,"ĠPatrick":11856,"Ġprospect":11857,"ĠSH":11858,"cluster":11859,"release":11860,"urst":11861,"ĠClient":11862,"ĠLcom":11863,"burn":11864,"ĠEver":11865,"ĠArk":11866,"ĠMiami":11867,"Ġpseud":11868,"Ġha":11869,"Ġwaste":11870,"ĠTokyo":11871,"optional":11872,"ĠOperation":11873,"Ġ^":11874,"riends":11875,"Ġmg":11876,"ĠDun":11877,"Ġengaged":11878,"Ep":11879,"Ġsentence":11880,"CALL":11881,"Ġprinciple":11882,"Ġsnap":11883,"olid":11884,"Ġheavily":11885,"{\"":11886,"owntown":11887,"console":11888,"Ġ@\"":11889,"Ġnut":11890,"ĠBeng":11891,"Fragment":11892,"iest":11893,"(\"/":11894,"ologists":11895,"Ġdiscrim":11896,"Methods":11897,"Ġillustr":11898,"Ġextreme":11899,"VALID":11900,"dig":11901,"Ġmaintained":11902,"achelor":11903,"\"\"\"":11904,"IDTH":11905,"mc":11906,"Ġpictures":11907,"Flow":11908,"Ġentertainment":11909,"Ġpref":11910,"Ġroutes":11911,"extension":11912,"DEF":11913,"1927":11914,"Ġfolk":11915,"Ġjoining":11916,"zy":11917,"=\"$":11918,"week":11919,"Ġsky":11920,"clipse":11921,"ĠBalt":11922,"ĠAllen":11923,"STRING":11924,"Constant":11925,"Ġaccessible":11926,"sch":11927,"Ġaccord":11928,"ĠConstitution":11929,"hus":11930,"ĠMexican":11931,"east":11932,"Ġbes":11933,"ĠLoad":11934,"Ġneither":11935,"Press":11936,"Ġbrothers":11937,"Ġgauge":11938,"ducer":11939,"Ġtags":11940,"ĠNorway":11941,"City":11942,"Ġfoundation":11943,"lu":11944,"plan":11945,"urers":11946,"integ":11947,"fx":11948,"unior":11949,"ĠGreece":11950,"Also":11951,"Interval":11952,"Japan":11953,"Ġattempted":11954,"Ð¼":11955,"olt":11956,"Coord":11957,"Ġrein":11958,"ĠKy":11959,"1924":11960,"Sing":11961,"Ġ\"\",":11962,"Ġrotation":11963,"Ġreaching":11964,"Ġexcess":11965,"Ġwheel":11966,"Ġcharset":11967,"EEEEFF":11968,"ĠCR":11969,"loyd":11970,"Ġcorresponds":11971,"Ġvalidation":11972,"ippi":11973,"Ġpremier":11974,"ĠEconomic":11975,"obby":11976,"profit":11977,"Ġscenario":11978,"Ġca":11979,"ĠMand":11980,"Ġinjured":11981,"tensor":11982,"Generated":11983,"Ġtalks":11984,"trace":11985,">\\":11986,"itative":11987,"checkbox":11988,"ĠAmong":11989,"Ġassumption":11990,"ONG":11991,"ĠRegiment":11992,"Az":11993,"commons":11994,"Ġintegral":11995,"Ġcatalog":11996,"lections":11997,"Ġcaptain":11998,"ĠTel":11999,"attice":12000,"Ġbreaking":12001,"appy":12002,"angel":12003,"ysical":12004,"ĠSA":12005,"ĠResources":12006,"ardo":12007,"Ġbron":12008,"Ġvast":12009,"ishment":12010,"ĠCape":12011,"Ġturning":12012,"warning":12013,"Ð¾Ð²":12014,"Ġinputs":12015,"DATA":12016,"socket":12017,"Ġchairman":12018,"Effect":12019,"Ġassault":12020,"Ġpresidential":12021,"Ġ_{":12022,"iations":12023,"Ġrooms":12024,"ĠAfghan":12025,"FP":12026,"driver":12027,"Ġtsd":12028,"ĠEV":12029,"ĠPrint":12030,":`":12031,"ÙĨ":12032,"Animation":12033,"MODULE":12034,"bus":12035,"ĠDemocrats":12036,"ĠMedal":12037,"holders":12038,"yy":12039,"diff":12040,"hedral":12041,"construct":12042,"ĠPa":12043,"former":12044,"Ġschema":12045,"Ġentitled":12046,"Ġparish":12047,"ĠSin":12048,"anim":12049,"Ġdismiss":12050,"kwargs":12051,"contents":12052,"Ġaver":12053,"keep":12054,"Ġdire":12055,"Ġexposed":12056,"ĠWy":12057,"ĠScient":12058,"Ġpromotion":12059,"accept":12060,"ĠWrite":12061,"ĠFurthermore":12062,"Ġcircumstances":12063,"Native":12064,"Ġdriven":12065,"Ġresponses":12066,"BY":12067,"ĠRound":12068,"Ġadvertising":12069,"ĠĠĠĠĠĠĠĠĠĠĠĠĠĠĠĠĊ":12070,"amazon":12071,"Ġheads":12072,"Ġmm":12073,"uber":12074,"Ġmining":12075,"Ġnumerical":12076,"/_":12077,"wealth":12078,"ilst":12079,"Ġvalidate":12080,"exec":12081,"Ġwound":12082,"SV":12083,"ĠArchitect":12084,"intell":12085,"ĠSwitzerland":12086,"ders":12087,"Card":12088,"Validation":12089,"Ġgift":12090,"rystal":12091,"cludes":12092,"Proto":12093,"Ġbeauty":12094,"slice":12095,"Notification":12096,"ategor":12097,"GBT":12098,"ĠMunic":12099,"Ġoldest":12100,"Ġversus":12101,"1922":12102,"elson":12103,"Ġ$|":12104,"Audio":12105,"verter":12106,"/.":12107,"ĠExpress":12108,"ulating":12109,"GER":12110,"ublin":12111,"covery":12112,"acon":12113,"batch":12114,"Ġrelax":12115,"Ġexplanation":12116,"EP":12117,"aware":12118,"fef":12119,"Ġskip":12120,"Ġillegal":12121,"ĠCG":12122,"Ġpul":12123,"icking":12124,"Ġgrown":12125,"live":12126,"Ġdrum":12127,"glyph":12128,"Sample":12129,"ĠMoscow":12130,"Ġproud":12131,"isations":12132,"loaded":12133,"Ġprofit":12134,"Ġtries":12135,"Ġbid":12136,"icky":12137,"á»":12138,"ĠJunior":12139,"Pair":12140,"Ġdepos":12141,"Sep":12142,"ĠSIZE":12143,"etween":12144,"Framework":12145,"Ġlands":12146,"Ġapproximation":12147,"Ġshel":12148,"Ġrugby":12149,"ĠWH":12150,"Ġburied":12151,"%\"":12152,"Ġdebt":12153,"Ġdiscovery":12154,"ĠDave":12155,"Ġhide":12156,"Ġflying":12157,"usal":12158,"alion":12159,"ĠMust":12160,"Ġabsence":12161,"factory":12162,"ÏĦ":12163,"Ġlake":12164,"MODE":12165,"Focus":12166,"intend":12167,"Ġundert":12168,"Ġappreci":12169,"Ġschol":12170,"Ġimpossible":12171,"anded":12172,"chart":12173,"ktop":12174,"æĸ":12175,"uffers":12176,"1931":12177,"360":12178,"iche":12179,"uties":12180,"ributed":12181,"Ġexplains":12182,"Phil":12183,"Ġsixth":12184,"Ġhonest":12185,"DOCTYPE":12186,"ĠAdvent":12187,"Mouse":12188,"merge":12189,"Binding":12190,"helper":12191,"Ġcompens":12192,"Ġsimult":12193,"via":12194,"colon":12195,"riers":12196,"ÃŃa":12197,"1925":12198,"Ġregularly":12199,"Ġmanifest":12200,"ĠLag":12201,"kt":12202,"ĠFarm":12203,"Ġlaid":12204,"ĠEND":12205,"Ġdies":12206,"incial":12207,"react":12208,"Ġdecay":12209,"ĠOptional":12210,"Ġchose":12211,"ogene":12212,"chell":12213,"ĠPed":12214,"ĠThird":12215,"ĠPack":12216,"ĠMoore":12217,"Ġmorph":12218,"Ġfired":12219,"Ġinequality":12220,"Ġregistration":12221,"Ġrobust":12222,"intellij":12223,"ĠIslamic":12224,"Ġmembership":12225,"Ġsurn":12226,"Ġlocally":12227,"aton":12228,"asp":12229,"BIT":12230,"Ġtum":12231,"ste":12232,"ĠEarly":12233,"ĠStream":12234,"Ġvoted":12235,"Health":12236,"Information":12237,"Ġduty":12238,"Ġfaces":12239,"Pers":12240,"Ġjazz":12241,"LY":12242,"}^{-":12243,"Ġpoetry":12244,"Copyright":12245,"Dim":12246,"erto":12247,"ATED":12248,"Ġcomplexity":12249,"Ġfails":12250,"Ġmouse":12251,"Ġobservation":12252,"Ġtrials":12253,"Ġru":12254,"Ġsymmetry":12255,"uted":12256,"Ġinfection":12257,"ĠIsraeli":12258,"Mc":12259,"ĠDog":12260,"ĠFreder":12261,"Hub":12262,"fail":12263,"destroy":12264,"ä»":12265,"rock":12266,"ĠTax":12267,"Ġ?>":12268,"Ġconcentration":12269,"Ġsees":12270,"Binary":12271,"1921":12272,"ĠStore":12273,"Ġtower":12274,"rig":12275,"ternoon":12276,"Ms":12277,"ĠGall":12278,"Ġguns":12279,"ntil":12280,"elve":12281,"sidebar":12282,"ĠHoward":12283,"Ġsight":12284,"*{":12285,"xhtml":12286,"objects":12287,"NavBarFont":12288,"ounce":12289,"Ġcolle":12290,"atasets":12291,"ĠPhill":12292,"å®":12293,"Ġnucle":12294,"ĠLib":12295,"Ġtelling":12296,"ĠKentucky":12297,"through":12298,"Ġscr":12299,"Ġquiet":12300,"ArgumentException":12301,"urable":12302,"ifi":12303,"compile":12304,"ĠYouth":12305,"Ġconsecutive":12306,"ĠSchools":12307,"ĠLA":12308,"Ġdemonstrated":12309,"izon":12310,"Ġcontribute":12311,"Ġwine":12312,"oda":12313,"Ġenjoyed":12314,"Ġrelief":12315,"ĠTraining":12316,"Ġsatisfies":12317,"Ġstim":12318,"ĠXML":12319,"Ã¼r":12320,"HC":12321,"ĠVillage":12322,"1926":12323,"uer":12324,"Ġvillages":12325,"Ġobserve":12326,"iot":12327,"basic":12328,"activity":12329,"Example":12330,"agonal":12331,"ĠFinancial":12332,"ationToken":12333,"feed":12334,"Ġmaintenance":12335,"clone":12336,"Ġwelcome":12337,"lat":12338,"Ġdiversity":12339,"Ġownership":12340,"Ġpossess":12341,"ĠTech":12342,"ĠSpr":12343,"ĠBan":12344,"Ġindicating":12345,"inherit":12346,"Ġbirds":12347,"ĠTake":12348,"country":12349,"phony":12350,"Ġimprov":12351,"Ã¥":12352,"-(":12353,"ĠTree":12354,"ĠAnalysis":12355,"sto":12356,"reement":12357,"Ġdiplom":12358,"Ġbrown":12359,"Ġours":12360,"ĠSarah":12361,"ĠLincoln":12362,"Ġrejected":12363,"Ġoutcome":12364,"Ġexplos":12365,"Serv":12366,"Ġinvestigate":12367,"Ġsed":12368,"ĠEag":12369,"=>":12370,"Lower":12371,"Ġchoices":12372,"wik":12373,"party":12374,"Ġdust":12375,"ĠSingh":12376,"PD":12377,"icut":12378,"Ġcompr":12379,"Plan":12380,"rium":12381,"Ġlogic":12382,"ĠMarine":12383,"ĠVo":12384,"Should":12385,"'];":12386,"vironments":12387,"ĠTa":12388,"created":12389,"ĠCart":12390,"Ġhypothes":12391,"usform":12392,"_+":12393,"Material":12394,"aneously":12395,"ĠSmall":12396,"istol":12397,"numerusform":12398,"Ġcov":12399,"lad":12400,"Ġtrains":12401,"ĠSn":12402,"ĠContent":12403,"Ġdrawing":12404,"Ġthrown":12405,"Ġwaters":12406,"ĠSets":12407,"Basic":12408,"SELECT":12409,"Ġstability":12410,"ĠDick":12411,"Skip":12412,"ĠAlbert":12413,"Ġtables":12414,"conv":12415,"Ġoverl":12416,"rah":12417,"Eq":12418,"ifferent":12419,"1912":12420,"Ġfmt":12421,"ĠNik":12422,"Ġbear":12423,"Ġsettled":12424,"ĠSeattle":12425,"ĠHop":12426,"Ġpipeline":12427,"Ġbias":12428,"who":12429,"ĠWhit":12430,"Ġlimitations":12431,"odge":12432,"Ġgeometry":12433,"SSL":12434,"constructor":12435,"LED":12436,"wen":12437,"ĠBah":12438,"ĠLeb":12439,"overty":12440,"textsc":12441,"Ġgiant":12442,"iverpool":12443,"Paul":12444,"Ġsin":12445,"ospitals":12446,"Ġconsumers":12447,"Ġreward":12448,"112":12449,"Ġbon":12450,"Olymp":12451,"Ġreverse":12452,"Ġbold":12453,"OW":12454,"ĠSri":12455,"...</":12456,"ĠKelly":12457,"uscript":12458,"ĠShould":12459,"Ġham":12460,"ierarchy":12461,"Ġrid":12462,"agh":12463,"design":12464,"apolis":12465,"Ġapps":12466,"Area":12467,"eveloper":12468,"mouse":12469,"ĠINTO":12470,"sync":12471,"Ġmagic":12472,"ĠAndre":12473,"Unknown":12474,"memory":12475,"ige":12476,"iop":12477,"Ġprediction":12478,"fefefe":12479,"Ġconstitution":12480,"acew":12481,"Rich":12482,"Rob":12483,"Ġease":12484,"Ġcompetitive":12485,"ĠAnne":12486,"ĠAst":12487,"Ġdesigns":12488,"1915":12489,"Ġemployment":12490,"Ġveget":12491,"igious":12492,"Old":12493,")[":12494,"Ġconsisting":12495,"Ġmerge":12496,"rena":12497,"Ġmales":12498,"Border":12499,"Ġrefuge":12500,"Ġphysics":12501,"ĠDetroit":12502,"ĠLas":12503,"ANG":12504,"ĠStudy":12505,"ĠAlabama":12506,"arner":12507,"çĶ":12508,"hour":12509,"ĠRab":12510,"illery":12511,"forall":12512,"Ġthoughts":12513,"Ġforth":12514,"1923":12515,"Ġconcrete":12516,"Ġcommitment":12517,"Ġtok":12518,"Ġabort":12519,"rieved":12520,"140":12521,"INSERT":12522,"ĠCow":12523,"acht":12524,"uli":12525,"Ġangular":12526,"Ġgarden":12527,"Normal":12528,"Ġanalog":12529,"Ġescap":12530,"Ġpresents":12531,"Ġsoil":12532,"Ġlosses":12533,"Ġhosts":12534,"aks":12535,"Ġstats":12536,"=\\\"":12537,"Ġgar":12538,"ĠYes":12539,"iors":12540,"Film":12541,"Ġcontinuing":12542,"ĠALIGN":12543,"Ġoptimization":12544,"'}":12545,"ĠJosh":12546,"Pal":12547,"Ġfault":12548,"issippi":12549,"oment":12550,"ĠBush":12551,"Ġroads":12552,"Ġcoq":12553,"USER":12554,"ĠBaseball":12555,".[":12556,"Ùħ":12557,"Ġcoaches":12558,"Ġfacts":12559,"ĠML":12560,"ĠOklahoma":12561,"ĠGarden":12562,"InputStream":12563,"Ġunus":12564,"ĠBaron":12565,"FM":12566,"employ":12567,"ycle":12568,"ulum":12569,"_);":12570,"Ġvoting":12571,"variant":12572,"ĠMock":12573,"edded":12574,"ilib":12575,"']['":12576,"Ġtemperatures":12577,"Ġconclusion":12578,"Ġhardware":12579,"Ġinject":12580,"ORTED":12581,"orses":12582,"apis":12583,"dk":12584,"1916":12585,"Ġprovision":12586,"eras":12587,"selector":12588,"FUN":12589,"orne":12590,"Ġfalls":12591,"oplus":12592,"Ġfruit":12593,"Ġgraduate":12594,"pler":12595,"aco":12596,"Ġcritics":12597,"rev":12598,"PG":12599,"convert":12600,"Ġregulations":12601,"Limit":12602,"Ġconstraint":12603,"ĠVin":12604,"Ġsynd":12605,"Ġsurgery":12606,"Who":12607,"Ġlowest":12608,"loader":12609,"ket":12610,"verb":12611,"Ġrend":12612,"_{(":12613,"Ġadmitted":12614,"Ġpeer":12615,"Ġsys":12616,"115":12617,"CB":12618,"Screen":12619,"Ġbattery":12620,"Ġsimulations":12621,"Ġmarg":12622,"Ġliterary":12623,"Ġpub":12624,"Ġemotional":12625,"Ġsubmitted":12626,"ĠNic":12627,"March":12628,"rices":12629,"Ġexplicitly":12630,"Ġadjacent":12631,"Ġmd":12632,"Ġopts":12633,"Death":12634,"Ġvoters":12635,"hot":12636,"Move":12637,"Forms":12638,"Ġsitting":12639,"ĠNigeria":12640,"exit":12641,"Men":12642,"Ġstarring":12643,"Ġholiday":12644,"Ġmonitoring":12645,"ĠPlayer":12646,"Ġliquid":12647,"Govern":12648,"Ġexports":12649,"Ġemployee":12650,"Rober":12651,"ĠDue":12652,"ĠTrade":12653,"ĠQueensland":12654,"bigg":12655,"Execution":12656,"eland":12657,"Ġmeetings":12658,"ĠDean":12659,"Ġoccas":12660,"Ġnominated":12661,"ĠVar":12662,"ĠPur":12663,"EventListener":12664,"ĠRepresentatives":12665,"CHAR":12666,"ctic":12667,"Ġrapidly":12668,"hom":12669,"ĠLaure":12670,"Ġcircuit":12671,"Biography":12672,"tre":12673,"uese":12674,"Ġvariation":12675,"Contact":12676,"constant":12677,"Ġconn":12678,"Ġ(@":12679,"ĠHeritage":12680,"Ġdesire":12681,"Ġpresentation":12682,"eah":12683,"TestCase":12684,"WI":12685,"Ġfasc":12686,"Ġtough":12687,"validate":12688,"ĠOk":12689,"Ġnecessarily":12690,"Ġforget":12691,"ipedia":12692,"ĠAgric":12693,"mn":12694,"105":12695,"Ġsucceeded":12696,"ĠWalker":12697,"Ġchallenging":12698,"rink":12699,"Usage":12700,"jet":12701,"Ġceremony":12702,"Ġsurprise":12703,"CLASS":12704,"Ġshadow":12705,"rank":12706,"Ġsignals":12707,"Ġbott":12708,"ĠJos":12709,"Ġattacked":12710,"Overview":12711,"Ġthin":12712,"Ġapparently":12713,"Ġethnic":12714,"tok":12715,"Ġmail":12716,"Ġwearing":12717,"ĠCommun":12718,"Ġcarrying":12719,"Ġnam":12720,"Ġshortly":12721,"åħ":12722,"IOException":12723,"ĠDVD":12724,"ensis":12725,"ĠDefense":12726,"Mal":12727,"urric":12728,"Objects":12729,"ĠPrivate":12730,"Present":12731,"endment":12732,"bd":12733,"Ġarc":12734,"ĠNob":12735,"ju":12736,"^{-\\":12737,"stage":12738,"urations":12739,"oni":12740,"ĠLimited":12741,"Ġsupplement":12742,"Throw":12743,"San":12744,"Ġcolspan":12745,"simple":12746,"ambig":12747,"atherine":12748,"Ġcompete":12749,"^^":12750,"ĠIL":12751,"ĠBos":12752,"works":12753,"ateur":12754,"notations":12755,"ĠInstagram":12756,"Ġcomic":12757,"Ġbrands":12758,"Ġretirement":12759,"closure":12760,"Ġchecked":12761,"ĠAlbum":12762,"Canadian":12763,"ĠBeck":12764,"Ġ($\\":12765,"ĠYears":12766,"Ġ'\\":12767,"Ġcollections":12768,"Ġpreferred":12769,"Good":12770,"ictional":12771,"ĠNatural":12772,"Ġlistening":12773,"lass":12774,"Ġsql":12775,"Ġ\"%":12776,"esterday":12777,"Constructor":12778,"Ġgrass":12779,"making":12780,"ĠThose":12781,"Ġprinciples":12782,"_*":12783,"DOM":12784,"orry":12785,"ĠScal":12786,"Ġmodify":12787,"hist":12788,"icator":12789,"ĠSM":12790,"omer":12791,"ĠMayor":12792,"native":12793,"Ġroughly":12794,"ailand":12795,"Raw":12796,"January":12797,"102":12798,">)":12799,"Original":12800,"ĠBureau":12801,"Ġcharts":12802,"setup":12803,"ubb":12804,"Batch":12805,"Ġpointed":12806,"Ġatmosphere":12807,"Ġeducated":12808,"isEmpty":12809,"vals":12810,"Nor":12811,"ympt":12812,"oly":12813,"ĠGib":12814,"Ġpopulations":12815,"Ġpicked":12816,"Ġbeach":12817,"Light":12818,"ĠAlan":12819,"ĠâĨ":12820,"Ġarrival":12821,"Ġna":12822,"Theme":12823,"kee":12824,"Ġrational":12825,"Static":12826,"hesis":12827,"Ġgradient":12828,"olo":12829,"Ġsweet":12830,"Based":12831,"clusions":12832,"Ġfought":12833,"April":12834,"ĠKam":12835,"Ġcomprehensive":12836,"Tex":12837,"Ġutility":12838,"()),":12839,"extend":12840,"spir":12841,"Ġweekly":12842,"Tok":12843,"Ġsons":12844,"Ġ_,":12845,"reader":12846,"Ġindependence":12847,"WIN":12848,"Ġmetrics":12849,"Ġcalculate":12850,"ĠAuthority":12851,"Ġignored":12852,"ĠAuto":12853,"ĠBY":12854,"ĠGordon":12855,"Ġdollars":12856,"Remote":12857,"Ġproviders":12858,"Db":12859,"ĠLINE":12860,"ĠProm":12861,"Complete":12862,"ĠStew":12863,"Review":12864,"/\"":12865,"Ġcrucial":12866,"Ġbigger":12867,"Ġheadquarters":12868,"}%":12869,"Ġsessions":12870,"ĠBull":12871,"alytics":12872,"ĠVirtual":12873,"Ġrising":12874,"Ġacknowled":12875,"Ġneuro":12876,"Ġpassengers":12877,"Ġloading":12878,"ĠTemple":12879,"Did":12880,"Ġclosing":12881,"Ġsuspect":12882,"ĠDur":12883,"Ġdrums":12884,"ĠNAV":12885,"Ġconcluded":12886,"UND":12887,"Ġpermissions":12888,"series":12889,"ĠDouble":12890,"Ġmillions":12891,"\\}":12892,"constr":12893,"ĠServer":12894,"ĠPas":12895,"Ġupcoming":12896,"Ġmayor":12897,"ĠBowl":12898,"Ġdevelopers":12899,"ĠMembers":12900,"ĠTrack":12901,"Ġ\\\"":12902,"separ":12903,"sun":12904,"Ġmanip":12905,"¿½":12906,"Europe":12907,"Ġentrance":12908,"Ġrisks":12909,"Î¹":12910,"Ġox":12911,"bara":12912,"Ġinjuries":12913,"Ġlots":12914,"ĠDB":12915,"Ġtank":12916,"Ġpredicted":12917,"imental":12918,"ĠAustria":12919,"Ġcursor":12920,"Ġmerged":12921,"PROJECT":12922,"abad":12923,"Â©":12924,"Ġselector":12925,"Ġsav":12926,"\"},":12927,"ĠLam":12928,"Warning":12929,"Ġscalar":12930,"#{":12931,"earing":12932,"Ġbelieves":12933,"CONT":12934,"sters":12935,"ctrine":12936,"ĠForces":12937,"ĠEss":12938,"Ġsad":12939,"posing":12940,"INST":12941,"opic":12942,"/{":12943,"Ġdose":12944,"Compat":12945,"Ġdiseases":12946,"Ġsurve":12947,"erior":12948,"assertTrue":12949,"Ġinteract":12950,"erk":12951,"gressive":12952,"Ġmodules":12953,"Ġcenturies":12954,"Nullable":12955,"_{{\\":12956,"anka":12957,"ĠDak":12958,"lett":12959,"Ġreasonable":12960,"åĲ":12961,"olph":12962,"ĠSimple":12963,"SG":12964,"Ġfriendly":12965,"Feb":12966,"RAY":12967,"Ġpublications":12968,"Ġsigning":12969,"isset":12970,"Est":12971,"Ġfold":12972,"Labels":12973,"ĠAssistant":12974,"ned":12975,"Ġphilosophy":12976,"ocese":12977,"June":12978,"Clear":12979,"izers":12980,"formed":12981,"orro":12982,"Ġasset":12983,"Ġformerly":12984,"ĠAbstract":12985,"Ġticket":12986,"August":12987,"Ġexciting":12988,"swarm":12989,"ymn":12990,"James":12991,"Michael":12992,".\"\"\"":12993,"iously":12994,"city":12995,"uh":12996,"esian":12997,"inction":12998,"Ġinstructions":12999,"\"].":13000,"days":13001,"Ġreleases":13002,"Ġdiscipl":13003,"ĠBrun":13004,"Ġhealthcare":13005,"ĠAle":13006,"ĠHug":13007,"ibl":13008,"ĠAustin":13009,"Ġ>>>":13010,"Ġsequences":13011,"variable":13012,"Ġsupplied":13013,"Ġinnovation":13014,"enez":13015,"ĠDim":13016,"Ġdecom":13017,"Ġabund":13018,"Ġperiods":13019,"Ġ|\\":13020,"ĠPract":13021,"Ġfranchise":13022,"ĠGram":13023,"Ġ}}":13024,"Ġrival":13025,"Ġrose":13026,"Identity":13027,"ĠAtlanta":13028,"Wallet":13029,"Ġuncertainty":13030,"Ġspectral":13031,"omas":13032,"Ġfurn":13033,"agic":13034,"tp":13035,"Ġexclusive":13036,"Ġdirectors":13037,"tery":13038,"Ġtech":13039,"Ġsubset":13040,"origin":13041,"Ġ$[":13042,"wildfly":13043,"Ġattorney":13044,"oi":13045,"Ġreveals":13046,"ĠVolume":13047,"ellectual":13048,"Ġreducing":13049,"Ġcodes":13050,"Ġapplying":13051,"rient":13052,"ĠAbb":13053,"Pred":13054,"Ġabandoned":13055,"Ġoccupied":13056,"ĠAntonio":13057,"Bad":13058,"Ġreson":13059,"Ġessentially":13060,"Ġintern":13061,"amps":13062,"Consumer":13063,"elastic":13064,"living":13065,"Ġdefensive":13066,"ï¼Į":13067,"Condition":13068,"was":13069,"ĠAlliance":13070,"inx":13071,"ĠSwiss":13072,"Today":13073,"orous":13074,"MAP":13075,"good":13076,"seq":13077,"ĠIllegal":13078,"Ġoutcomes":13079,"ĠMorgan":13080,"Ġalive":13081,"vertical":13082,"Ġnormally":13083,"ĠKit":13084,"Ġleaf":13085,"Ġmeets":13086,"Ġyields":13087,"ĠPrivacy":13088,"Ġillness":13089,"Ġdemonstrate":13090,"vy":13091,"Ġbare":13092,"ĠDub":13093,"Ġradiation":13094,"DIS":13095,"ĠVari":13096,"Ġbreed":13097,"ĠRoc":13098,"AE":13099,">;":13100,"Ġcommunications":13101,"audi":13102,"Ġidentical":13103,"sha":13104,"rama":13105,"Ġrequirement":13106,"Ġstrategic":13107,"Ġguidance":13108,"download":13109,"Ġ\"\";":13110,"ependencies":13111,"wd":13112,"ĠDescription":13113,"Ġrespective":13114,"Site":13115,"itro":13116,"leveland":13117,"ĠDeep":13118,"ĠWas":13119,"Ġconservation":13120,"Ġaccompan":13121,"Ġhorror":13122,"ainian":13123,"ĠTool":13124,"Driver":13125,"ĠWalter":13126,"Ġdyn":13127,"imore":13128,"Ġcenters":13129,"ocks":13130,"urse":13131,"ĠIron":13132,"Ġabsolutely":13133,"East":13134,"score":13135,"Ġargued":13136,"quote":13137,"ĠPod":13138,"ĠDest":13139,"Ġprocedures":13140,"1913":13141,"Ġmusician":13142,"ĠJason":13143,"alia":13144,"Ġpainter":13145,"Ġaims":13146,"UTH":13147,"ĠÄ":13148,"Ġreserve":13149,"Ġinvolves":13150,"tsburgh":13151,"ĠLearning":13152,"Ġ'';":13153,"Ġnurs":13154,"ĠVALUES":13155,"AI":13156,"hill":13157,"Ġtall":13158,"Awards":13159,"leges":13160,"}}(\\":13161,"Ġtypedef":13162,"commit":13163,"Å«":13164,"ĠCle":13165,"zi":13166,"Ġtemple":13167,"ĠSel":13168,"Strategy":13169,"Download":13170,"odox":13171,"ĠGun":13172,"Ġcorrectly":13173,":[":13174,"Dan":13175,"Folder":13176,"ĠHamp":13177,"lia":13178,"Addr":13179,"acer":13180,"written":13181,"etition":13182,"ulator":13183,"Ġemphas":13184,"ĠBron":13185,"elihood":13186,"ĠKitt":13187,"ï¿½":13188,"Ġinformed":13189,"Ġcapabilities":13190,"Ġcommands":13191,"TY":13192,"pin":13193,"Ġcurves":13194,"Ġentering":13195,"Word":13196,"license":13197,"Ġconsc":13198,"ĠHarvard":13199,"outing":13200,"Ġoptical":13201,"NR":13202,"Ġ(;":13203,"aturally":13204,"Ġpenalty":13205,"Ġmor":13206,"Mount":13207,"ĠKings":13208,"Ġsingular":13209,"Ġedit":13210,"Ġpublishing":13211,"FFER":13212,"messages":13213,"ĠCole":13214,"Ġanniversary":13215,"Ġslowly":13216,"Env":13217,"ĠRemove":13218,"Ġconsumption":13219,"ĠBus":13220,"Ġcoefficients":13221,"Organ":13222,"Ġfluid":13223,"Ġocean":13224,"Ġoffensive":13225,"ĠFive":13226,"Ġcompatible":13227,"Î½":13228,"ĠWorks":13229,"Resolver":13230,"liest":13231,"Ġproduces":13232,"vet":13233,"Ġsinging":13234,"contrib":13235,"Ġengines":13236,"oths":13237,"Ġstead":13238,"fish":13239,"ĠÐ²":13240,"Ġplain":13241,"Ġpassenger":13242,"111":13243,"Ġplenty":13244,"Face":13245,"Ġafternoon":13246,"']);":13247,"Ġur":13248,"ĠImm":13249,"ĠClinton":13250,"ĠIR":13251,"Ġbeam":13252,"ĠHoll":13253,"alert":13254,"Master":13255,"Serializer":13256,"Ġthermal":13257,"ieval":13258,"ãĢĤ":13259,"Ġestablishment":13260,"UAL":13261,"Ġcompilation":13262,"flix":13263,"Ġbundle":13264,"hal":13265,"rying":13266,"phant":13267,"sr":13268,"Ġpione":13269,"Ġcrypt":13270,"Ġvisiting":13271,"ĠLouisiana":13272,"Ġdial":13273,"Drop":13274,"ĠRussell":13275,"Ġbronze":13276,"LOC":13277,"pload":13278,"ollary":13279,"Ġhybrid":13280,"Hon":13281,"ORDER":13282,"Ġstake":13283,"ĠTurkish":13284,"ĠHills":13285,"ongo":13286,"ashes":13287,"onna":13288,"Renderer":13289,"standard":13290,"Eval":13291,"opsis":13292,"Ġsubmit":13293,"ĠWolf":13294,"Ġchildhood":13295,"Navigation":13296,"Ġruntime":13297,"Ġracial":13298,"icular":13299,"Ġguests":13300,"Ġlogging":13301,"Ġyes":13302,"ĠRace":13303,"Ġroots":13304,"mouth":13305,"ĠNap":13306,"Ġelif":13307,"jack":13308,"ASE":13309,"NSString":13310,"Ġproducers":13311,"Ġhist":13312,"Ġroyal":13313,"ĠHu":13314,"Ġstatistical":13315,"ĠIndependent":13316,"ĠProposition":13317,"ographical":13318,"Place":13319,"Ġunderstood":13320,"regular":13321,"IAL":13322,"Ġdependencies":13323,"ĠEffect":13324,"ĠChile":13325,"Ġsustainable":13326,"raig":13327,"ividual":13328,"Ġanth":13329,"ĠCSS":13330,"SW":13331,"Ġdistributions":13332,"Ġpulled":13333,"general":13334,"Har":13335,"highlight":13336,"Ġbacter":13337,"Ġpharm":13338,"pkg":13339,"ĠMission":13340,"1911":13341,"database":13342,"DM":13343,"she":13344,"athy":13345,"äº":13346,"ĠPython":13347,"Ġsituated":13348,"elem":13349,"Setting":13350,"Ġgoverning":13351,"Olympic":13352,"dash":13353,"bullet":13354,"ĠHave":13355,"Ġidentifier":13356,"Ġstruggle":13357,"NUM":13358,"inian":13359,"ruction":13360,"duration":13361,"Ġgalaxies":13362,"Ġturb":13363,"Ġdesigner":13364,"ĠallClasses":13365,"wiki":13366,"parts":13367,"July":13368,"ĠChampions":13369,"disable":13370,"900":13371,"ĠSafety":13372,"Ġsocket":13373,"Ġeg":13374,"Îµ":13375,"Ġgovernments":13376,"pid":13377,"Ġbriefly":13378,"ATTR":13379,"enders":13380,"ĠMississippi":13381,"fake":13382,"ĠFer":13383,"Ġstrengthen":13384,"Ġinstruments":13385,"Ġinstallation":13386,"Australian":13387,"Ġbehalf":13388,"Ġinfluenced":13389,"ĠResp":13390,"Ġvictim":13391,"ĠWARRAN":13392,"ĠallClassesLink":13393,"wig":13394,"Ġdependent":13395,"Ġprize":13396,"Ġadapted":13397,"ifting":13398,"Ġ'',":13399,"mount":13400,"esa":13401,"Future":13402,"sb":13403,"Super":13404,"ĠMagn":13405,"ĠPartners":13406,"abul":13407,"oga":13408,"ferred":13409,"Ġcoordinate":13410,"ovak":13411,"Ġmagnitude":13412,"heduler":13413,"may":13414,"Ġsick":13415,"ĠFame":13416,"Alloc":13417,"wedge":13418,"ĠCooper":13419,"otions":13420,"flat":13421,"Ġdisappoint":13422,"PHP":13423,"pages":13424,"Ġlegacy":13425,"dagger":13426,"ĠFle":13427,"Processor":13428,"idges":13429,"Ġ\\;":13430,"owski":13431,"Ġedited":13432,"ĠDallas":13433,"Ġmyth":13434,"ĠSelect":13435,"Ġiget":13436,"Ġendpoint":13437,"opter":13438,"Ġdecrease":13439,"ĠNation":13440,"Ġnarrative":13441,"Errorf":13442,"NP":13443,"Ġopens":13444,"104":13445,"Ġtheoretical":13446,"Ġpayload":13447,"emit":13448,"Compiler":13449,"Ġgang":13450,"Ġsituations":13451,"program":13452,"Former":13453,"avis":13454,"Ġfees":13455,"ARN":13456,"Special":13457,"lon":13458,"Ġamounts":13459,"ĠArmen":13460,"Ġcoupling":13461,"compare":13462,"jQuery":13463,"Ġcoffee":13464,"|}":13465,"ĠMars":13466,"Ġuniverse":13467,"ĠStudios":13468,"pb":13469,"ĠIndonesia":13470,"Ġalcohol":13471,"iture":13472,"scss":13473,"rent":13474,"Ġsensitive":13475,"Populated":13476,"ceiver":13477,"ilty":13478,"ĠMaterial":13479,"Ġreceiver":13480,"Ġfounding":13481,"Ġprohib":13482,"ĠTelevision":13483,"sis":13484,"Series":13485,"novation":13486,"usted":13487,"ĠNorwegian":13488,"aman":13489,"Ġdifferential":13490,"Plot":13491,"poll":13492,"lower":13493,"NotFound":13494,"ĠUtah":13495,"ĠTaiwan":13496,"Ġorganisation":13497,"ĠNichol":13498,"Ġanchor":13499,")\",":13500,"00000000":13501,"350":13502,"iah":13503,"Ġstrip":13504,"Ġmarks":13505,"ĠDouglas":13506,"Ġcommander":13507,"ounced":13508,"CM":13509,"Ġintersection":13510,"gregation":13511,"Ġsatisfy":13512,"fmt":13513,"Ġuniversities":13514,"ĠFinance":13515,"ĠConnecticut":13516,"ĠEnvironmental":13517,"irates":13518,"ĠDal":13519,"Ġmedalists":13520,"rypted":13521,"White":13522,"ĠStill":13523,"Ġflows":13524,"have":13525,"razy":13526,"Ġtransportation":13527,"Ġfleet":13528,"Optional":13529,"ĠGiven":13530,"utt":13531,"mate":13532,"ĠKaz":13533,"Ġfraud":13534,"unning":13535,"licenses":13536,"Ġsync":13537,"Ġauthent":13538,"methods":13539,"Ġinterpretation":13540,"Ġfalling":13541,"atest":13542,"Ġsb":13543,"'_":13544,"alink":13545,"Ġawareness":13546,"inburgh":13547,"ĠMcK":13548,"bow":13549,"inus":13550,"Live":13551,"Äĥ":13552,"ĠResults":13553,"ĠBuilder":13554,"toBe":13555,"ĠWhether":13556,"ĠNag":13557,"Week":13558,"Ġreads":13559,"Ġencourage":13560,"1908":13561,"ĠScholar":13562,"Ġfib":13563,"speed":13564,"Library":13565,"Ġanimated":13566,"ĠPap":13567,"overview":13568,"submit":13569,"ORK":13570,"ĠJob":13571,"orce":13572,"utter":13573,"lined":13574,"ĠAlber":13575,"cline":13576,"Ġschem":13577,"Ġmaxim":13578,"gif":13579,"Ġtruck":13580,"Ġanticip":13581,"Ä«":13582,"ĠThompson":13583,"103":13584,"Ġslot":13585,"ĠAnna":13586,"raits":13587,"ĠIndustry":13588,"ĠChairman":13589,"ĠAG":13590,"Ġchecks":13591,"Ġimpressive":13592,"Ġamplit":13593,"porter":13594,"ĠMcG":13595,"pointer":13596,"Ġdenotes":13597,"Ġantib":13598,"Ġregardless":13599,"Ġtied":13600,"ATCH":13601,"October":13602,"Ġconventional":13603,"Abs":13604,"(.":13605,"iology":13606,"Ãł":13607,"Ġcrick":13608,"paper":13609,"itations":13610,"theless":13611,"December":13612,"Ġintensity":13613,"Even":13614,"Ġstruck":13615,"ĠLawrence":13616,"ĠBruce":13617,"ĠReserve":13618,"AST":13619,"ĠThough":13620,"Mapper":13621,"ĠHold":13622,"olves":13623,"Ġparticipation":13624,"ĠAddress":13625,"Ġinnovative":13626,"Ġcoinc":13627,"Declaration":13628,"Ġdelegate":13629,"expression":13630,"ĠThread":13631,"thrift":13632,"xygen":13633,"ponential":13634,"Ġvaluable":13635,"Ġshots":13636,"ĠLiverpool":13637,"Ġresidential":13638,"Ġclip":13639,"Ġgrounds":13640,"qual":13641,"ometimes":13642,"ĠNash":13643,"),\\":13644,"itarian":13645,"dale":13646,"CHECK":13647,"\\_":13648,"anted":13649,"Ġtranslated":13650,"Ġdiam":13651,"Ġnations":13652,"Inf":13653,"ĠNature":13654,"ĠOwn":13655,"arguments":13656,"ĠProp":13657,"gradient":13658,"Ġneighbour":13659,"Finally":13660,"Ġinitiative":13661,"ĠWebsite":13662,"Fn":13663,"Ġentreprene":13664,"Ġtennis":13665,"Ġclassified":13666,"Ġmachines":13667,"ĠPear":13668,"ĠAdditionally":13669,"likely":13670,"ĠOrganization":13671,"ĠDublin":13672,"Ġ$$":13673,"Contents":13674,"ĉčĊ":13675,"iere":13676,"Ġoperational":13677,"omorphism":13678,"Ġevil":13679,"ĠDid":13680,"ĠWright":13681,"iri":13682,"Ã©t":13683,"Users":13684,"Ġwonderful":13685,"YY":13686,"Tile":13687,"ĠExample":13688,"marks":13689,"Ġenforcement":13690,"ĠNAVBAR":13691,"Ġopera":13692,"UMM":13693,"Android":13694,"Ġrum":13695,"gre":13696,"ĠHD":13697,"Ġpaintings":13698,"subsubsection":13699,"ĠSquadron":13700,"directory":13701,"Ġfest":13702,")_":13703,"bp":13704,"mates":13705,"Ġgenerator":13706,"ĠStudents":13707,"ĠTalk":13708,"tik":13709,"Pack":13710,"pend":13711,"counter":13712,"ĠCentury":13713,"Ġtox":13714,"Ġweights":13715,"avit":13716,"uki":13717,"ouver":13718,"ĠDelhi":13719,"ĠJudge":13720,"loading":13721,"Ġregarded":13722,"Ġarmed":13723,"ĠAttorney":13724,"forEach":13725,"ĠKl":13726,"Ġintention":13727,"Ġplastic":13728,"Ġtheories":13729,"Ġpsy":13730,"Ġreply":13731,"Ġasks":13732,"ĠOrth":13733,"ptic":13734,"yll":13735,"Ġtoler":13736,"bx":13737,"archive":13738,"Ġvectors":13739,"ĠHum":13740,"ĠProtection":13741,"ĠEmperor":13742,"tures":13743,"ativity":13744,"tail":13745,"Ġapplies":13746,"actual":13747,"Ġtimestamp":13748,"Ġtracking":13749,"Ġfarmers":13750,"ĠAndy":13751,"Rate":13752,"father":13753,"ifold":13754,"ĠĠĠĠĠĠĠĠĠĠĠĠĠĠĠĠĠĠĠĠĠĠĠĠĠĠĠĠĠĠĠĠĠĠĠĠĠĠĠĠĠĠĠĠĠĠĠ":13755,"ĠChristopher":13756,"Ġbug":13757,"trl":13758,"Ġflash":13759,"geon":13760,"Ġacquisition":13761,"Ġmanaging":13762,"Education":13763,"Ġwithdraw":13764,"Å¾":13765,"Ġhired":13766,"Ġastr":13767,"Green":13768,"ĠHell":13769,"ĠTher":13770,"cycle":13771,"Ġ{},":13772,"Ġhell":13773,"ĠMess":13774,"ĠStudio":13775,"assign":13776,"relative":13777,"ĠMeg":13778,"Groups":13779,"getElementById":13780,"ikh":13781,"icken":13782,"Cmd":13783,"Ġhook":13784,"Ġgenetic":13785,"IDE":13786,"connected":13787,"Ġbulk":13788,"etal":13789,"bc":13790,"HEAD":13791,"cca":13792,"Ġheritage":13793,"Bibliography":13794,"Html":13795,"Ð¿":13796,"Ġcourts":13797,"Errors":13798,"Ġclusters":13799,"nc":13800,"Den":13801,"Ġcomputing":13802,"rolling":13803,"calendar":13804,"ĠConstant":13805,"/\">":13806,"agma":13807,"ĠMatch":13808,"FIELD":13809,"Ġbreath":13810,"ĠUr":13811,"GroupName":13812,"sheet":13813,"ĠBeat":13814,"resize":13815,"Ġcup":13816,"Ġgenre":13817,"ĠPeace":13818,"AU":13819,"ĠRange":13820,"Ġparking":13821,"ĠThailand":13822,"Ġbath":13823,"Ġec":13824,"Power":13825,"Ġcomplement":13826,"rban":13827,"=[":13828,"1890":13829,"Ġsoccer":13830,"ĠĠĠĠĠĠĠĠĠĠĠĠĠĠĠĠĠĠĠĠĠĠĠĠĠĠĠĠĠĠĠĠĠ":13831,"Donald":13832,"VAR":13833,"AK":13834,"Ġchurches":13835,"warn":13836,"Ġhighway":13837,"Ġrestaurants":13838,"subject":13839,"Ġpatch":13840,"Mus":13841,"ĠLP":13842,"Ġisolated":13843,"animation":13844,"Ġdefines":13845,"Major":13846,"Ġmart":13847,"Ġsheet":13848,"acef":13849,"ĠBart":13850,"ebr":13851,"Ġreveal":13852,"Ġimplied":13853,"ĠWord":13854,"Ġevaluated":13855,"pmatrix":13856,"Ġinhabit":13857,"rible":13858,"bone":13859,"ecture":13860,"Ġion":13861,"comb":13862,"ĠMatthew":13863,"Ġbacking":13864,"Ġstronger":13865,"Signature":13866,"Ġcollapse":13867,"nob":13868,"ymp":13869,"kov":13870,"ĠMovie":13871,"Ġeligible":13872,"binding":13873,"September":13874,"Ġinduced":13875,"Ġhat":13876,"Standard":13877,"Ġadventure":13878,"ulus":13879,"Ġdecline":13880,"Contin":13881,"Ġrescue":13882,"ĠLiberal":13883,"ĠApr":13884,"Ġuniversal":13885,"claimed":13886,"_{-":13887,"ĠTrib":13888,"ĠPrice":13889,"ĠJson":13890,"navigation":13891,"Ġruled":13892,"avia":13893,"ĠDist":13894,"Ġengagement":13895,"Detail":13896,"borough":13897,"Robert":13898,"Ġreputation":13899,"Edge":13900,"Ġovers":13901,"Ġathletes":13902,"arios":13903,"ĠBreak":13904,"Â·":13905,"ushing":13906,"Ġstudying":13907,"à¦":13908,"cluding":13909,"Insert":13910,"Ġprecision":13911,"ĠDoes":13912,":@\"":13913,"ĠOd":13914,"ĠBulg":13915,"Ġsle":13916,"pot":13917,"Ġheaded":13918,"ĠPalace":13919,"plane":13920,"ĠCS":13921,"ĠHope":13922,"ASK":13923,"Ġtotally":13924,"_)":13925,"ĠSocorro":13926,"hips":13927,"ĠRap":13928,"Failure":13929,"Bottom":13930,"inces":13931,"Through":13932,"ĠGirls":13933,"boards":13934,"Ġoutbreak":13935,"Ġanalys":13936,"ĠThanks":13937,"Ġpaying":13938,"sig":13939,"Ġcertificate":13940,"Runner":13941,"Ġnortheast":13942,"Ġincorporated":13943,"ĠPope":13944,"Ġrunner":13945,"Ġsuffering":13946,"Ġenvironments":13947,"TL":13948,"Ġconfront":13949,"Ġindices":13950,"ĠMicro":13951,"Ġinvariant":13952,"fits":13953,"ĠRoom":13954,"Ġterminal":13955,"Ġdeleted":13956,"ĠCommonwealth":13957,"Ġnick":13958,"Ġrestricted":13959,"ĠDrive":13960,"Span":13961,"Ġsurprising":13962,"blob":13963,"transaction":13964,"ĠCommissioner":13965,"ĠPlant":13966,"hematical":13967,"ĠStudent":13968,"Ġputs":13969,"Ġ'%":13970,"Ġstreaming":13971,"ĠVegas":13972,"Ġviewed":13973,"Ġpublicly":13974,"elements":13975,"radio":13976,"Ġprofessionals":13977,"best":13978,"Â®":13979,"ĠLINEAR":13980,"ĠMarshall":13981,"\"|":13982,"Ġboundaries":13983,"6666":13984,"Ġimpl":13985,"StyleID":13986,"âĪĴ":13987,"Ġscales":13988,"ĠSpacew":13989,"ĠHonor":13990,"VICE":13991,"remarks":13992,"Ġsecretary":13993,"ivo":13994,"Ġbird":13995,"fff":13996,"Indian":13997,"LIST":13998,"ATOR":13999,"rooms":14000,"Ġcharacteristic":14001,"ĠArgentina":14002,"Ġ'.":14003,"Implement":14004,"Ġtrouble":14005,"Ġelectro":14006,"Ġstadium":14007,"Ġdating":14008,"Ġmetres":14009,"Ġmarine":14010,"Ġneutral":14011,"winning":14012,"andal":14013,"ĠCroat":14014,"cycl":14015,"Ġthousand":14016,"Ġalpha":14017,"Ġjunior":14018,"ä½":14019,"isely":14020,"Center":14021,"Ġfinishing":14022,"ĠKer":14023,"Ġmanuscript":14024,"ĠJuan":14025,"ĠEarl":14026,"Ġopacity":14027,"Ãª":14028,"ĠFight":14029,"Contains":14030,"Ġequality":14031,"116":14032,"ĠMaur":14033,"CONFIG":14034,"Ø¯":14035,"Ġble":14036,"orus":14037,"Metrics":14038,"oenix":14039,"issance":14040,"ĠLGBT":14041,"Sportspeople":14042,"vi":14043,"ĠÑģ":14044,"Ġnamely":14045,"respons":14046,"VP":14047,">()":14048,"idal":14049,"scill":14050,"Ġinaug":14051,"ÅŁ":14052,"imp":14053,"Tom":14054,"Ã´":14055,"mean":14056,"ĠSud":14057,"Ġpodcast":14058,"ĠKo":14059,"riteria":14060,"Primary":14061,"oker":14062,"Ġpending":14063,"ĠBuck":14064,"Virtual":14065,"Counter":14066,"fetch":14067,"asant":14068,"elfare":14069,"logo":14070,"Ġsa":14071,"November":14072,"maker":14073,"Three":14074,"ashi":14075,"ĠLane":14076,"Ġfewer":14077,"ĠSac":14078,"Ġoutstanding":14079,"Ġrealized":14080,"ĠDA":14081,"Ġdenied":14082,"PROC":14083,"Validator":14084,"ilibrium":14085,"Geography":14086,"ĠLess":14087,"}&":14088,"ĠWoman":14089,"Ġcoins":14090,"ĠAbd":14091,"ĠReference":14092,"arance":14093,"Bounds":14094,"ĠHit":14095,"ĠSpacewatch":14096,"deprecated":14097,"ĠAdams":14098,"Ġtokens":14099,"ddie":14100,"Ġmovements":14101,"Ġlanding":14102,"Ġequipped":14103,"Ġmigr":14104,"Ġboss":14105,"Timestamp":14106,"ĠMort":14107,"ĠLevel":14108,"Ġvolumes":14109,"ĠBelgium":14110,"graduate":14111,"boy":14112,"Ġprojection":14113,"Ġspokes":14114,"icates":14115,"Ġalias":14116,"ĠPublishing":14117,"rend":14118,"ĠOutput":14119,"Ġaimed":14120,"Ġimprovements":14121,"Timer":14122,"ĠFM":14123,"ĠBangl":14124,"ĠBlog":14125,"Ġislands":14126,"Ġconservative":14127,"Ġshopping":14128,"ĠCancer":14129,"Ġcrossing":14130,"nee":14131,"ĠContext":14132,"Ġorbit":14133,"Ġpoverty":14134,"ĠExchange":14135,"ĠHistorical":14136,"ĠPeters":14137,"Culture":14138,"ĠPatri":14139,"ĠJenn":14140,"minute":14141,"zym":14142,"Ġtur":14143,"ĠFern":14144,"Ġblow":14145,"Thus":14146,"Ġpayments":14147,"ido":14148,"Ġexpressions":14149,"ivia":14150,"ĠDJ":14151,"ĠNCAA":14152,"square":14153,"ĠDenmark":14154,"Ġinfinite":14155,"ĠABC":14156,"ĠCommunications":14157,"ĠFred":14158,"assador":14159,"Ġresidence":14160,"ĉĠĠ":14161,"Ġappointment":14162,"Ġfemin":14163,"patcher":14164,"uis":14165,"heel":14166,"Arguments":14167,"Ġorth":14168,"ĠSelf":14169,"deep":14170,"Ġcommissioned":14171,"aba":14172,"Holder":14173,"Ġproven":14174,"ĠPS":14175,"there":14176,"ĠArticle":14177,"Ġreign":14178,"audio":14179,"rin":14180,"Ġstretch":14181,"Ġtouchdown":14182,"Ġsummar":14183,"ĠPerformance":14184,"Ġfolder":14185,"Ġhappening":14186,"fare":14187,"ĠMalaysia":14188,"Ġsymbols":14189,"jax":14190,"ivities":14191,"ĠWard":14192,"ĠAdvis":14193,",$":14194,"Ġdogs":14195,"paren":14196,"ugu":14197,"ĠPsych":14198,"Ġdeput":14199,"castle":14200,"Ġweapon":14201,"Ġmini":14202,"POS":14203,"Air":14204,"\\)":14205,"brand":14206,"wt":14207,"Ġlattice":14208,"Fi":14209,"Ġkeeps":14210,"ĠKennedy":14211,"]))":14212,"1234":14213,"dark":14214,"Ġrounds":14215,"ĠCampbell":14216,"allest":14217,"Ġbelongs":14218,"Ġseriously":14219,"ĠFinn":14220,"iang":14221,"ĠDance":14222,"story":14223,"Ġfishing":14224,"exper":14225,"nest":14226,"Ġconcerning":14227,"Ġconsent":14228,"Ġfinance":14229,"Ġinherited":14230,"bn":14231,"oustic":14232,"ĠTravel":14233,"sz":14234,"<<":14235,"ĠSend":14236,"Ġinclusion":14237,"Prev":14238,"ĠMotor":14239,"ĠNBA":14240,"cfg":14241,"Ġtexture":14242,"Ġaired":14243,"Ġtip":14244,"ĠNep":14245,"Ġlux":14246,"Ġappearing":14247,"ĠLemmon":14248,"requency":14249,"uning":14250,"ÙĪ":14251,"Console":14252,"structure":14253,"Ġemissions":14254,"Ġconnecting":14255,"Ġhorizontal":14256,"Ġmatrices":14257,"spacing":14258,"iem":14259,"berry":14260,"ibration":14261,"Ġpron":14262,"Ġpanels":14263,"generate":14264,"inking":14265,"built":14266,"Ġagricultural":14267,"ĠPun":14268,"ĠLjava":14269,"ĠâĢĻ":14270,"Ġcompetitions":14271,"Ġwet":14272,"Ġoperates":14273,"Login":14274,"Convert":14275,"Ġstructural":14276,"ĠIC":14277,"Ġterrit":14278,"BD":14279,"Segment":14280,"Ġanywhere":14281,"Encoding":14282,"scala":14283,"oca":14284,"Ġrepository":14285,"ĠPDF":14286,"Messages":14287,"1024":14288,"Shared":14289,"Ġcached":14290,"Ġrepeat":14291,"Ïĥ":14292,"Random":14293,"118":14294,"ĠCell":14295,"Ġsurvival":14296,"Ġwx":14297,"Alex":14298,"beat":14299,"Ġtd":14300,"Ġdealing":14301,"Ġhistorian":14302,"Ġfairly":14303,"song":14304,"Ġmixing":14305,"Ġaccompanied":14306,"forming":14307,"=\"../../../../../../../":14308,"Ġcollective":14309,"Ġdominant":14310,"Self":14311,"team":14312,"implement":14313,"ĠFix":14314,"å¤":14315,"Ġunf":14316,"Ġkinds":14317,"ĠPrix":14318,"ĠShar":14319,"OPT":14320,"Ġengage":14321,"Bro":14322,"ĠYan":14323,"Ġstating":14324,"ĠDeputy":14325,"Ġ\".":14326,"loss":14327,"ĠCos":14328,"ĠTan":14329,"Ġenthus":14330,"backs":14331,"cross":14332,"Ġbars":14333,"ĠLanc":14334,"ĠSamuel":14335,"ĠWind":14336,"ĠOP":14337,"nan":14338,"ĠPromise":14339,"ĠBuff":14340,"Ïģ":14341,"Ġconcepts":14342,"Ġpushed":14343,"Ġidentification":14344,"eyond":14345,"School":14346,"Ġoverflow":14347,"Ġbranches":14348,"ĠNeed":14349,"ĠLiving":14350,"Ġreplacing":14351,"ĠWIDTH":14352,"touch":14353,"uuid":14354,"Ġprinted":14355,"Ġsatisfied":14356,"Ġthemes":14357,"1905":14358,"leans":14359,".*;":14360,"asa":14361,"urrence":14362,"Ġsampling":14363,"Ġconsideration":14364,"sat":14365,"gun":14366,"suit":14367,"prom":14368,"106":14369,"Listen":14370,"Ġdescribing":14371,"ancouver":14372,"Ġmechanisms":14373,"Ġwond":14374,"Design":14375,"ĠHero":14376,"Ġ}\\":14377,"Ġgay":14378,"Ġguidelines":14379,"Ġhate":14380,"Ġconclude":14381,"ĠPortugal":14382,"Ġsubscription":14383,"imm":14384,"ĠLock":14385,"ubern":14386,"Ignore":14387,"Ġlaugh":14388,"ĠMobile":14389,"mk":14390,"Ġdoors":14391,"ĠChapter":14392,"Have":14393,"ĠRy":14394,"orrect":14395,"ĠSex":14396,"Ġmeat":14397,"ĠColomb":14398,"URCE":14399,"uced":14400,"Ġcriticism":14401,"Ġhasn":14402,"Rows":14403,"Ġsatellite":14404,"ĠEmb":14405,"ĠConfiguration":14406,"lab":14407,"Analysis":14408,"ĠEdinburgh":14409,"Ġclosure":14410,"makers":14411,"Lib":14412,")^{\\":14413,"ÐµÑĢ":14414,"ĠFel":14415,"isons":14416,"ĠOpt":14417,"Ġcricket":14418,"validation":14419,"ĠElectric":14420,"Points":14421,"Ġrestrict":14422,"Ġperturb":14423,"ijing":14424,"1909":14425,"ĠFant":14426,"ĠKnight":14427,"Ġassociate":14428,"__)":14429,"ĠStewart":14430,"Ġpartially":14431,"Ġimproving":14432,"Ġmidfield":14433,"Ġhill":14434,"Been":14435,"Ġcastle":14436,"Exists":14437,"ahn":14438,"ĠPred":14439,"Ġreliable":14440,"ĠDomin":14441,"ĠOpera":14442,"ĠFal":14443,"anton":14444,"Ġvaccines":14445,"ethe":14446,"Zone":14447,"getId":14448,"ĠIF":14449,"mill":14450,"Ġskill":14451,"Ġconsequences":14452,"ĠJazz":14453,"ĠAqu":14454,"imitive":14455,"extra":14456,"Ġages":14457,"Ġjuris":14458,"Axis":14459,"ĠDelete":14460,"Ġ'./":14461,"Ġdisorder":14462,"ĠBetween":14463,"Observer":14464,"Ġdisable":14465,"Put":14466,"Ġlicensed":14467,"Ġconvergence":14468,"ĠRepublicans":14469,"ĠBou":14470,"nik":14471,"ĠBed":14472,"Ġneural":14473,"Ġsignificance":14474,"Ġbom":14475,"Ġbag":14476,"ĠBrazilian":14477,"ĠInteg":14478,"Profess":14479,"Features":14480,"LOW":14481,"remark":14482,"ĠAppend":14483,"remote":14484,"Ġsingers":14485,"ĠGrad":14486,"Ġdelta":14487,"STATUS":14488,"Ġaccordance":14489,"Ġmeters":14490,"Ġwatched":14491,"Ġenables":14492,"analysis":14493,"ĠPublished":14494,"BUIL":14495,"gow":14496,"Ġsurvive":14497,"ĠPortuguese":14498,"selection":14499,"ĠCleveland":14500,"ĠRain":14501,"ĠVik":14502,"terior":14503,"Ġmanual":14504,"Express":14505,"Updated":14506,"Ġtact":14507,"eren":14508,"ĠPhD":14509,"Ġdeals":14510,"ĠDEFAULT":14511,"Cursor":14512,"Ġsteam":14513,"1907":14514,"Che":14515,"Ġpriest":14516,"Ġchunk":14517,"Ġsoutheast":14518,"ĠNelson":14519,"spl":14520,"Ġ----------------------------------------------------------------":14521,"Ġanswers":14522,"Ġbusy":14523,"Depth":14524,"Ġunexpected":14525,"1906":14526,"Ġmoral":14527,"Ġjs":14528,"WH":14529,"izard":14530,")}(":14531,"rang":14532,"ĠGray":14533,"Ġsalt":14534,"abc":14535,"Ġcalculation":14536,"ĠSR":14537,"illiant":14538,"tl":14539,"ĠOrchestra":14540,"Ġinherit":14541,"Ġcuts":14542,"ĠJonathan":14543,"Ġsimultaneously":14544,"Ġfocuses":14545,"rating":14546,"Ra":14547,"ĠQuery":14548,"ĠGraham":14549,"energy":14550,"}}^":14551,"Ġdatasets":14552,"Ġelectricity":14553,"Ġreact":14554,"Mart":14555,"ocy":14556,"ournals":14557,"ĠRelations":14558,"Ġnotation":14559,"Ġjudges":14560,"Ġadaptation":14561,"orse":14562,"obe":14563,"FOR":14564,"avi":14565,"Despite":14566,"ĠNaval":14567,"Beh":14568,"uplicate":14569,"integer":14570,"BUFFER":14571,"ĠRobinson":14572,"ĠTig":14573,"perp":14574,"Ġrecru":14575,"cosystem":14576,"ĠHost":14577,"Ġcontrad":14578,"direction":14579,"Ġencouraged":14580,"Feed":14581,"ĠMut":14582,"Ġcalendar":14583,"Ġframes":14584,"ĠAfghanistan":14585,"ĠRoger":14586,"Ġelder":14587,"Ġrepair":14588,"Grad":14589,"ĠLeft":14590,"ĠKir":14591,"Ġmolecular":14592,"Ġjet":14593,"ĠChel":14594,"ĠImages":14595,"Weight":14596,"atile":14597,"hatt":14598,"Ġ+\\":14599,"Ġ(,":14600,"Ġforecast":14601,"ĠAnnual":14602,"LICENSE":14603,"Ġsupporters":14604,"Ġsharp":14605,"ĠGill":14606,"ĠYet":14607,"Ġunusual":14608,"Chain":14609,"Ġinvasion":14610,"ĠAlice":14611,"jamin":14612,"criptions":14613,"ĠSingle":14614,"[(":14615,"ials":14616,"Ġpersonality":14617,",...":14618,"Ġcutting":14619,"ACH":14620,"Available":14621,"inar":14622,"ĠCP":14623,"idency":14624,"Ġcited":14625,"ambiguation":14626,"rake":14627,"Ġoblig":14628,"ĠBoys":14629,
[...]
