#version: 0.2
Ġ t
i n
Ġ Ġ
h e
Ġ a
o n
r e
a t
e r
Ġt he
e n
Ġ s
o r
a l
i t
Ġ o
i s
Ġ c
e s
a n
Ġ w
a r
i on
ĠĠ ĠĠ
Ġ f
e d
Ġ p
n d
Ġo f
in g
Ġ b
Ġ \
l e
Ġ in
i c
r o
Ġ $
Ġ d
Ġ m
Ġa nd
a s
Ġt o
c t
e t
e l
o u
en t
i g
Ġt h
o m
s t
i l
r a
Ġ h
Ġ re
at ion
i m
Ġ e
Ġ n
o t
{ \
o l
a m
Ġ is
Ġ l
Ġ T
i d
Ġ (
v e
c e
Ġ S
u t
s e
Ġf or
Ġ g
ĠĠ Ġ
o w
c h
u r
â Ģ
Ġ C
Ġ A
l y
v er
u l
ĠĠĠĠ ĠĠĠĠ
_ {
Ġ on
q u
a b
Ġb e
it h
Ġth at
Ġ I
Ġ u
u m
Ġs t
at h
o d
a d
Ġ$ \
e g
Ġ M
Ġc on
i f
e m
č Ċ
en d
a y
Ġw ith
i r
Ġa s
2 0
m ath
g e
h t
Ġw e
r i
Ġ P
ct ion
Ġ B
t er
Ġp ro
t a
Ġa l
Ġa n
Ġ &
u re
t h
p h
Ġ v
Ġ F
p p
} \
is t
ĠT he
u s
he r
e x
} $
at e
Ġ H
ig ht
o s
^ {
an d
it y
p e
Ġ R
Ġ =
Ġb y
u n
Ġ D
Ġe x
a c
Ġa re
i v
Ġw h
Ġ Ċ
o re
Ġ L
p t
m a
Ġ it
Ġ W
er s
es t
Ġc om
re s
o c
re f
in e
Ġa t
ro m
it e
Ġd e
u b
es s
Ġ N
ar t
il l
Ġ E
Ġ y
Ġ G
i al
i es
} }
e w
p l
( \
âĢ Ļ
n t
p er
Ġ or
an t
Ġs e
i ve
Ġf rom
m ent
eg in
b egin
ex t
c al
ĠĠĠĠ ĠĠĠ
ra c
Ġ r
p s
u d
Ġth is
or t
l d
a g
f t
ou r
T he
Ġ he
i z
k e
_ {\
Ġw as
) $
o p
as s
a ve
Ġs h
al l
ĉ ĉ
o g
e re
ul t
e ct
in t
Ġ -
el l
} {
1 9
ic al
Ġn ot
or m
Ġ O
ic h
Ġs u
c l
Ġc h
r an
e q
Ġ J
Ġ le
u e
f rac
Ġc an
it ion
f f
Ġc l
at ed
0 0
} ,
ig n
ro u
Ġcom p
u st
d e
t ext
Ġh ave
} )
b er
Ġre s
en s
a re
e qu
c ite
ar d
20 1
Ġ âĢ
am e
Ġ <
ation s
r m
r ight
ab le
Ġu s
ab el
ar y
Ġin t
math b
as t
c on
a ge
a ce
d u
Ġ {
Ġ U
o st
Ġw he
, \
Ġal l
Ġwh ich
ac k
as e
a k
= "
l abel
ĠI n
. .
c c
$ ,
im e
) ;
id e
a v
et a
t he
a ct
or k
$ .
on g
math cal
Ġ im
Ġa b
a p
e ar
ou t
- -
Ġp l
Ġ k
Ġh as
i re
Ġ K
i b
ou ld
t her
c om
i p
in d
r u
equ ation
a in
f orm
} .
en ce
or d
f ig
en er
' s
ion s
< /
le ft
ou s
Ġ "
a ch
i an
Ġa pp
ĠĠĠĠĠĠĠĠ ĠĠĠĠĠĠĠĠ
i a
an g
Ġy ou
} (
ic e
Ġa d
s o
ol l
Ġm od
) ,
) .
1 0
} ^
p ro
Ġ j
Ġu n
} _
o k
~ \
Ġ V
Ġs p
Ġm e
ĠT h
s p
r y
Ġw ill
/ /
Ġ if
el y
ro w
Ġon e
l ine
Ġ +
ĠS t
ph a
an ce
o ver
ent s
om e
al pha
Ġo b
am b
r ic
I n
Ġcon t
ol d
Ġp er
s um
Ġ qu
i le
pe ct
d a
Ġd is
ou nd
Ġp art
f ere
g h
o se
al ly
) \
ow n
er v
or s
i e
ri b
ta in
w o
Ġo ut
re e
p le
Ġb ut
Ġ }
or y
o v
ar k
Ġal so
amb da
âĢ Ŀ
res s
Ġe v
Ġd o
im es
Ġ *
on e
cl ud
at a
Ġn e
at es
un ction
el ta
p ort
ur n
w e
Ġthe ir
er m
ĠĠĠĠĠĠĠĠ ĠĠĠ
o b
Ġa r
$ \
ran s
Ġm ore
Ġs y
a u
j ect
20 0
ic s
c es
ir st
Ġh is
l ic
pt ion
_ \
e p
m b
l l
mathb b
am ma
Ġ en
Ġp re
ul ar
h at
Ġo ur
Ġ\ \
l i
o int
h o
m u
Ġcl ass
Ġs et
= \
} _{
s ub
ut ion
} ^{
d ot
ra y
o f
ver s
v el
ig ma
Ġt wo
Ġo ther
Ġs o
p on
od e
o ve
ĠĠĠĠ Ġ
ar i
f in
c k
t o
Ġthe y
ver y
s c
ĠW e
ou nt
Ġwe re
- \
Ġn ew
Ġt ime
Ġit s
i el
n e
c ent
oll ow
Ġd if
Ġs c
eg a
a pp
Ġo ver
nd er
" >
Ġv al
g et
o ok
ph i
ra ph
y s
Ġ Y
ĠC h
^ {\
Ġmod el
Ġm an
Ġin ter
Ġ [
1 2
ra m
Ġf unction
iz e
l ambda
Ġu p
Ġfor m
iel d
um ber
Ġb et
Ġw ork
Ġthe re
s et
t e
r ing
a ke
v i
Ġa g
Ġan y
et h
st em
Ġbe en
w id
d ition
le ct
Ġf ollow
Ġth an
c re
Ġres ult
is h
Ġ {\
b f
Ġ ro
ĠâĢ ľ
Ġwhe re
at ure
Ġf irst
Ġsu ch
Ġcon s
Ġd es
Ġs ub
Ġon ly
mathb f
Ġg o
i x
Ġ |
r it
at ive
y pe
u al
Ġs im
Ġa cc
p os
ay s
oc k
p i
he d
Ġc or
il on
ps ilon
se ction
Ġs ome
Ġt ra
Ġwhe n
Ġwh o
in k
Ġl i
ĠI t
c ed
if ic
ar am
s s
pe c
u p
il d
le m
Ġab out
Ġre l
a x
Ġcon st
l es
p art
ĠTh is
al ign
s igma
rou nd
res ent
ig h
Ġg ener
Ġd ist
Ġre g
Ġsh ow
Ġe qu
il ity
Ġp os
Ġint o
ot h
at ing
W e
il de
1 8
Ġthe n
Ġdif fere
o x
S t
Ġp h
is s
re d
Ġm at
Ġ( \
f ter
is e
} {\
^{ -
ing s
Ġt e
Ġf l
b eta
ic t
as ed
an s
b ar
c ess
n g
Ġd ata
a il
Ġn o
math rm
1 1
we en
t urn
a w
m er
* }
i ent
Ġt rans
ol og
Ġw ould
ĠS e
ation al
Ġh ad
at or
+ \
p ut
ic k
Ġ '
Ġc o
Ġthe se
Ġ her
Ġe ach
Ġk n
it ies
Ġof f
* *
Ġy ear
d er
\ \
g amma
ĠR e
on s
ib le
Ġsy stem
ul l
ment s
Ġbet ween
n ing
in ce
ru ct
Ġu nder
u es
s h
1 5
Ġpro b
Ġin d
Ġ ra
Ġg iv
el f
] {
he re
Ġg et
Ġp e
Ġe ff
Ġcom m
Ġu se
ter n
le q
ub lic
Ġf e
it s
Ġpro v
fig ure
on t
the ta
^ \
id ent
p r
wid th
Ġb l
Ġf in
) }
Ġs a
Ġ i
r ho
ĠâĢ ĵ
T h
Ġp oint
d elta
i ed
ar ray
Ġs ol
Ġ x
it em
ta u
ow er
c y
n ce
c dot
n ot
ĠH e
rou gh
ĠU n
v al
$ -
Ġs m
1 6
Ġc ase
Ġthe m
}$ ,
Ġl ine
b ig
t t
= =
}$ .
Ġst ud
Ġin v
eq ref
ar g
Ġm ay
Ġus ed
r t
Ġin clud
} (\
Ġdiffere nt
1 3
at er
( )
s y
eth od
Ġa ct
Ġapp ro
p end
Ġc ol
Ġp ol
Ġex t
Ġy our
m in
ĠF or
an ge
op le
o y
Ġn umber
our ce
le t
al s
t imes
R e
Ġl oc
i o
w ard
rou p
au se
er t
ĠD e
-- --
aram et
Ġm ost
iz ed
Ġh ow
1 4
n u
u g
ĠP ro
o ol
Ġc ur
he s
iz ation
Ġus ing
Ġpro du
ft y
ar ch
Ġas s
Ġa m
Ġs he
in s
in fty
Ġw ell
om ega
part ial
r al
t ilde
Ġsu pp
per t
Ġli ke
u nd
us s
Ġn on
am ple
ri v
ar row
Ġre turn
2 1
id er
a ir
ction s
is m
ĠĠĠĠĠĠĠĠ ĠĠĠĠĠĠĠ
Ġv ari
v ar
ver t
it t
y n
Ġa fter
f or
Ġse e
n er
ere d
Ġs ign
| \
p m
ra ct
2 5
Ġs ame
en g
con d
m m
il y
ou gh
c ol
ical ly
Ġ .
Ġin st
Ġpart ic
ĠC om
Ġ est
Ġsa id
Ġth rough
e ver
ab l
Ġb ack
- >
Ġ /
ic es
eq n
ot e
Ġre p
u ch
.. .
Ġ ent
as es
1 7
form ation
he n
an n
Ġpl ay
qu ad
ist s
ĉĉ ĉĉ
Ġd et
Ġne ed
ur ing
Ġs pec
re at
k s
Ġf ield
ot s
g y
Ġf act
p ar
Ġde fin
Ġ X
Ġgiv en
c a
it ed
D elta
ut e
Ġ Q
Ġwh at
f l
Ġj ust
se c
Ġre qu
Ġbe c
Ġpe ople
Ġs ur
Ġt erm
sp ace
3 0
ar ge
in es
Ġde f
or ld
Ġre c
Ġh igh
19 9
Ġe m
Ġb oth
ore m
Ġp r
ad e
s erv
ct or
Ġm y
iv ely
Ġ end
er r
as h
Ġo per
Ġe very
ĠN ew
f ul
i vers
} [
\ ,
s im
Ġ :
Ġst ate
x i
ar s
Ġm in
Ġdis c
Ġval ue
Ġ$ (
} }\
Ġfollow ing
ir c
o od
Ġ z
Ġm ethod
Ġd ire
as ure
g le
l and
)$ .
w ork
o ot
ent ial
al ity
y p
d ing
E x
Ġor der
ab ility
Ġex p
ĠA l
Ġc ould
Ġeff ect
Ġn ow
Ġresult s
Ġt r
at ic
t on
Ġper form
Ġp aramet
Ġ Z
. ,
Ġan al
w here
Ġb u
) )
f ore
Ġob tain
vi ew
cent er
r on
ou n
Ġa c
Ġ ed
Ġ //
Ġc all
h i
ĠA s
in clud
Ġde c
oc i
re nt
ri x
$ $
e psilon
ut h
in ed
} _{\
20 20
s q
Ġp ublic
on d
Ġsm all
Ġ ke
" ,
5 0
O m
er n
Ġb ound
E R
e c
em ent
ps i
.. /
C on
ag es
ro ss
P ro
in ing
ens ion
Ġwh ile
am p
Ġsh ould
Ġev en
Ġst r
2 2
Ġr ight
Ġb el
ĠF ig
l og
at t
res pon
Om ega
w n
eqn array
Ġman y
Ġdo es
Ġat t
: :
Ġf ind
Ġ very
mb ol
l ed
Ġag ain
Ġex pl
en cy
00 0
Ġf il
Ġth ree
Ġ< /
ang le
Ġpro cess
Ġbec ause
an y
text bf
)$ ,
Ġ čĊ
Ġex per
vel op
Ġkn ow
re ad
v ent
as on
Ġe le
ener gy
F or
ri pt
Ġdes c
^ *
Th is
Ġle ad
Ġprob lem
Ġl ong
olog y
Ġ @
re n
m an
is ion
Ġc ent
2 4
ak ing
m e
sq rt
Ġme asure
Ġh im
o id
Ġbe ing
t ing
ruct ure
Ġse cond
et s
I t
: //
re l
Ġdist rib
raph ics
Ġcon dition
Ġf ound
Ġs ing
ul ation
Ġyear s
b m
Ġm ass
et work
sub section
if e
Ġo pt
am es
Ġc re
m l
ch n
Ġres pect
v are
Ġin cre
ĠA n
Ġst art
f ra
G amma
p en
i k
Ġw ay
en e
Ġt est
ant s
vare psilon
' ,
il ar
n ess
de f
Ġsp ace
ith m
Ġm on
i er
S T
Ġob serv
^{ (
Ġch ar
b old
Ġad d
Ġm ult
Ġs er
}^ {\
d ay
c o
Ġ `
are d
Ġs erv
ur al
b e
Ġp resent
g an
ce pt
b l
Ġm ake
âĢ ľ
mer ic
Ġpos s
ff ic
I N
includ eg
includeg raphics
ca ption
Ġd i
t en
c m
Ġcont in
ers on
et ric
ire d
at eg
} =
in al
ot her
ĠC on
m od
ess age
Ġm em
Ġs ince
at her
i ew
Ġ$ {\
ĠS h
e e
at ch
Ġas sum
Ġre al
Ġsupp ort
Ġth ose
o le
Ġcomp le
ra w
el s
it ive
Ġin formation
right arrow
ra d
i ence
v ed
t ab
y le
if ied
Ġl im
Ġrep resent
i qu
w w
2 3
a h
Ġcons ider
) =
Ġn ame
ch ool
um n
Ġ energy
g or
ĠĠ Ċ
le ar
Ġ\ ,
. âĢĿ
ran gle
l o
Ġh and
an k
n ame
d iv
v en
r um
O N
u c
g ht
r id
w ay
Ġar t
Ġt ype
Ġg u
ĠI f
ut ions
Ġcor respon
b y
Ġ ve
Ġc ount
âĢ ĵ
Ġhe re
al th
ens ure
f er
is hed
ĠC l
Ġbe fore
Ġre ad
Ġest im
ĠH ow
ge q
g er
if t
Ġs cal
Ġd en
l ess
gor ithm
Ġl arge
var phi
if y
em ph
ot t
Ġhe l
Ġf am
m ed
ol ution
n et
t r
an e
ivers ity
Ġm uch
vi ous
g ram
o h
A T
( "
Ġl ook
Ġto p
. ~\
Ġ el
Ġl ast
um er
iss ion
Ġd id
' t
ĠS c
sy mbol
Ġgener al
Ġde velop
ĠE x
n on
u ally
Ġg roup
Ġm ade
Ġfe ature
sp an
pro of
. }
v es
Ġm ed
4 0
a z
A s
C h
Ġle t
B ig
Ġm ain
eng th
over line
Ġc al
Ġg l
ĉĉ ĉ
ur ther
A R
Ġre m
s on
Ġp a
or n
ĠA nd
d d
pos ition
ric t
Ġ ident
& \
Ġab ove
( );
Ġs l
Ġe ar
Ġa v
Ġd uring
or th
Ġ #
ĠI nd
Ġloc al
am pl
bold symbol
C om
ĠL e
Ġ ,
ere st
Ġim port
ro p
i or
ro du
Ġprov id
1 00
Ġd own
c er
Ġall ow
he ck
r ation
ro l
p re
Ġint eg
Ġval ues
Ġst and
Ġ >
orm al
al e
' '
}, \
Ġgo od
Ġra d
ĠĠĠĠĠĠĠĠ Ġ
Ġle vel
) ^
Ġs at
s u
Ġm ag
Ġpro pert
fra k
Ġex pect
it al
os s
a j
Ġr un
ĠA meric
20 19
ch i
iv es
b ers
> </
in ess
I D
as k
Ġe lect
Ġle ar
Ġst at
ou se
s er
c ur
201 8
Ġn etwork
Ġc a
Ġcon tain
ve c
Ġb ased
Ġst ructure
Ġp res
Ġs pect
[ \
Ġt em
h line
Ġcur rent
Ġw orld
2 7
19 8
Ġst ill
ect ed
}) .
e k
Ġt ake
g g
Ġ err
Ġre st
> <
Ġp ower
201 7
act er
ens ity
6 0
b ack
ter s
od y
Ġcomp ut
R E
Ġc ar
Ġdesc rib
over n
} }$
Ġsh own
eta il
Ġqu ant
ar m
Ġcomm un
2 8
ref ore
Ġde pend
im ension
ak es
s k
T o
w h
f ace
it ial
Ġre port
Ġhel p
math frak
en se
m ber
Ġv is
Ġa round
L et
D e
Ġsim ilar
../ ../
im al
l im
ĠR es
Ġs elf
Ġob ject
Ġmodel s
h ip
Ġfollow s
com e
Ġex ample
er o
n ew
Ġp at
l angle
Ġte chn
ht t
ys is
re qu
Ġre du
an c
i j
Ġpartic ular
ld ots
pl ay
de pend
se e
Ġre le
n o
Ġo wn
) :
g es
Ġad dition
Ġm ust
c or
S S
2 6
Ġdire ct
Ġo pen
t rans
ĠT o
at ors
Ġbe h
âĢ ¦
al k
u le
Ġb est
at ely
e ction
201 6
Ġm ark
er y
Ġdefin ed
c ul
s f
Ġin s
re m
Ġl ist
le ction
L ambda
ific ation
Ġs um
us iness
---- ----
Ġ- -
i ous
Ġw rit
cc ess
ure s
Ġint erest
ĠY ou
Ġdes ign
Ġstud y
iv al
app a
x im
ar get
th is
com m
re en
cite p
3 3
Ġd ue
Ġdisc uss
Ġl ow
ht ml
Ġres pon
2 9
Ġ| |
Ġle ft
e ps
ĠA d
Ġf our
Ġte am
um ent
Ġ _
Ġinclud ing
Ġw ant
is f
P hi
b s
yn am
Ġth ink
Ġb as
Ġor ig
p d
n abl
b le
Ġch o
Ġ et
ot ential
Ġdet erm
a ction
} ;
ĠP l
Ġwith in
t able
b ra
is ed
iv ed
pl ic
re am
== ==
Ġterm s
or ph
Ġdistrib ution
ac es
Ġt ri
ĠI s
Ġwith out
Ġs ize
4 5
ĠĠĠĠĠĠĠĠĠĠĠĠĠĠĠĠ ĠĠĠĠĠĠĠĠĠĠĠĠĠĠĠĠ
ord ing
, âĢĿ
Ġ* /
Ġim p
O R
201 5
Ġse ction
Ġpre d
et y
e ad
in ation
b ox
B y
k appa
y m
Ġp op
Ġd on
Ġshow s
d is
Ġsing le
text it
in c
ĠâĢ ĺ
m ult
ĠP h
st r
\ |
Ġme an
i ents
Ġp ost
w ith
ĠUn iversity
Ġh ref
Ġd om
or ies
ot imes
Ġpro f
Ġs ay
rac k
ĠC ol
iv ity
ĠO n
pl it
ensure math
A N
he m
Ġp ass
ou th
o per
ord s
Ġal gorithm
ĠHow ever
} )$
em ber
. "
nabl a
Ġto t
\ %
Ġg ra
R es
sub set
Ġh ig
Ġd em
ĠA r
Ġposs ible
Ġn ext
n ces
** **
ist ic
ĠThe n
et ry
ion al
r and
s elf
ĠB ut
in a
om en
d s
a ps
Ġre ma
ĠS p
s ource
Ġpoint s
s m
Ġh old
mb ox
Ġm ax
Ġtr ue
al se
vers ion
fere nce
Ġ )
Ġcon f
. \
Ġinv est
Ġprodu ct
p or
ĠW h
i od
9 9
Ġs om
201 4
c ode
c irc
Ġcl os
Ġagain st
A L
3 5
Ġd er
iv id
Ġsat isf
E N
re g
a ult
Ġpro gram
7 5
Ġp erson
av ing
ĠA ll
l ation
r is
20 21
S igma
Ġchar acter
or g
Ġparamet ers
Ġre f
Ġstr ong
3 2
non umber
ress ion
ĠĠĠĠĠĠĠĠĠĠĠĠĠĠĠĠ ĠĠĠ
Ġbu ild
ail able
Ġp otential
Ġg ame
Ġsu per
Ġl arg
Ġkn own
ĠB l
are nt
ix ed
w ays
pl oy
le y
Ġal ong
ent ion
pos ed
}) ,
uth or
im ent
con t
( '
ĠB e
\ [
Ġre ce
Ġp ar
ial ly
}} {
cl ass
ĠT e
Ġs pe
Ġo cc
ĠâĢ Ķ
t d
Ġin itial
wid et
Ġsol ution
Ġex ist
Ġb re
Ġd el
l oc
g round
c it
dot s
I f
Ġcomp on
ob al
T ype
it le
201 3
Ġimport ant
m essage
Ġg raph
N ame
im um
a im
us ic
at ter
Ġpro ject
7 0
Ġn ear
Ġl ife
Ġint rodu
Ġc our
Ġcontin u
Ġass oci
st and
ic le
8 0
Ġc ou
sc ript
Ġpa per
ver se
Ġe as
widet ilde
Ġm ov
Ġcall ed
Ġobtain ed
Ġh ist
Ġl aw
ĠL et
Ġt yp
Ġmat rix
Ġcom b
un e
Ġd etail
Ġf ew
i um
Ġfin al
I d
b it
u x
oh n
ir on
Ġch ild
Ġpred ict
ĠS he
Ġad v
ĠJ an
it her
Ġpl ace
Ġse qu
ur y
iqu e
Ġpro t
Ġd ay
F ig
Ġm om
Ġv iew
o ber
Ġan other
w ide
A S
e b
Ġpre vious
u se
center ing
ri es
m s
ĠM ar
i i
od es
ĠCom m
{ -
Ġst ates
Ġlim it
du ct
ĠThe y
Ġd eg
ab les
Ġim pro
L E
Ġb o
ĠM ay
Ġcont rib
er ing
o ad
A l
Ġanal ysis
Ġre se
an ces
depend ent
/ \
Ġph ot
C l
9 0
201 2
Ġt urn
Ġf ull
Ġ ide
our ces
d raw
ro ll
c ap
ĠĠĠĠ ĠĠ
Ġch ang
Ġhe ad
Ġfam ily
Ġtot al
cl us
Ġc ap
Ġappro ach
u ro
Ġapp lic
Ġch ange
Ġd ensity
Ġf ree
Ġ` `
l er
Ġsign ific
Ġl ess
im port
ur b
A n
Ġar g
ma x
Ġb ook
col or
and om
Ġl ight
t ime
Ġa ut
Ġperform ance
ver al
Ġbet ter
Ġfunction s
Ġappro xim
Ġl ink
ir d
Ġpos ition
Ġ vert
Ġcomple x
at rix
Ã ©
Ġa ff
oc us
con st
r ist
Ġ q
ce ption
en ces
Ġc rit
Ġr ate
is on
Ġp ur
ub l
ampl es
ad d
Ġg row
6 4
end s
b all
f e
Ġa ver
Ġt imes
Ġm et
ĠS u
Ġg reat
Ġstand ard
Ġb ro
o pe
tab ular
Ġpl an
ill ion
Ġs k
) (
Ġequ ation
Ġconst ant
Ġev ent
t ype
Ġ= >
} -
in ter
t op
P s
Ġline ar
o or
Ġqu est
Ġle ast
Ġav ailable
overn ment
oc ial
ud e
Ġthe ory
pp er
ĠE ng
Ġcorrespon ding
Ġcont rol
A C
\ !
Ġf urther
ĠA t
ord er
Ġp riv
I C
s l
id d
Ġm ap
Ġapp ear
Ġ( $
Ġr ange
0 5
Ġrespect ively
Ġh um
o pt
it er
ĠB y
Ġd at
St ring
r ite
Ġre cent
l ing
Ġc ases
t s
per ature
og raph
Ġto o
ĠC ar
Ġp ath
st yle
0 1
Ġser ies
\ ]
ru ction
Ġan n
aj or
Ġs chool
Ġparamet er
ight s
ĠThe orem
Ġse veral
Ġsystem s
ĠU S
us h
\ {
Ġor gan
Ġind ic
ĠThe re
201 0
se qu
Ġcal cul
201 1
f o
r r
Ġo pp
Ġph ase
en n
Ġph ys
ab ly
Ġs ays
g ed
ip le
z eta
Ġc lear
end ed
3 4
Ġh ome
Ġa ction
ĠA pp
w are
Ġf ram
he ad
Ġprov ide
Ġsignific ant
Ġv ar
} +
ĠC ent
Ġpro of
Ġper iod
ward s
ĠC O
Ġb usiness
Ġp air
_ _
as ter
em ma
olog ical
O n
I T
w it
) =\
ĠE q
e y
th m
em pt
pr ime
u ation
es c
Ġm ot
n al
Ġreg ion
} ]
ĠM an
v iron
s cal
Ġv ol
os p
) }\
as ing
ut ure
3 6
Ġgo ing
o ff
Ġc are
/ >
is ing
c hes
Ġh y
Ġr andom
Ġs it
ri ption
Ġt arget
3 1
ĠC an
Ġhig her
er tain
ic y
ang u
Ġim age
ĠAmeric an
} =\
Ġl ower
Ġal ways
Ġcondition s
Ġke y
ore d
ex p
Ġerr or
Ġc ost
Ġ& =
# #
Ġh app
{ (
; \
read y
t y
c hed
Ġl ay
Ġl og
A M
Ġm ight
Ġis s
p aram
Ġtra ining
S E
at s
ur s
ou ght
Ġs ide
4 8
Ġh al
itt le
op y
Ġh ard
U n
ĠSe ction
Ġu nt
ĠO r
tern al
a pe
a i
Ġle g
Ġin put
L ist
Ġc ell
Ġpos itive
Ġare a
n ode
3 8
Ġmon th
}_ \
Ġsu ccess
id es
f ield
âĢ Ķ
ĠS o
ke y
u ary
b r
ĠS y
re turn
Ġme ans
Ġg ive
) ^{
Ġve ctor
Ġl ater
Ġre ally
Ġsh ort
Ġo ld
iv ing
I I
Ġmethod s
m p
ch ie
em s
in ary
ra p
lect ed
$ )
Ġc oll
D E
Ġdif f
en c
Ġsy mm
om orph
et er
Ġse en
Ġab s
}^ \
s ide
Ġbel ow
ffic ient
it or
Ġs ource
ac he
Ġfin ite
Ġfeature s
Ġd ynam
ĠThe se
ide o
b ased
Ġtem perature
ust om
text width
Ġ Â
Ġcomp let
ut es
ur ation
is ter
g o
Ġli k
a ut
ĠJ ohn
~ ~
Ġdi ag
Ġst ring
19 7
id ence
Ġc irc
Ġhe alth
u nder
n ow
Ġcon n
) ]
Ġcons id
ĠUn ited
e v
Ġn eg
Ġb and
A r
} |
cdot s
S h
Ġinclud e
er ial
" />
ly ing
V al
6 5
fere nces
Ġmom ent
Ġbl ock
Ġinv ol
m ost
Ġel se
Ġ !
Ġp ut
Ġcor re
3 7
f oot
Ġre d
ĠP ol
g in
h old
Ġacc ount
on al
Ġb ig
3 9
H e
ivid ual
Ġde v
Ġn ull
ĠC o
Ġn ode
Ġn ormal
ĠG e
Ġf requ
Ġman ag
ib ility
Ġc y
u ck
Ġal ready
ĠN o
val ue
rou ps
our s
ul es
al ax
Ġf ocus
' )
Ġst re
con om
ta ck
ĠO ct
g l
Ġacc ess
}} (
ian s
lem ma
Ġac ross
Ġwe ek
Ġe ither
i us
s ize
trans lation
200 9
c os
Ġ\ {
ĠW ith
math sf
C O
Ġrel ations
wide hat
5 5
ĠM ed
Ġaver age
Ġen c
r ary
Ġen g
Ġan t
Ġf und
Ġc ross
Ġw id
ac y
net ic
Ġh om
Ġb i
Ġl oss
i ver
a f
}) \
ĠM ore
ple ment
, -
q quad
Ġl ength
ne y
Ġg e
Ġne ver
th ough
Ġrequ ire
Ġc over
ĠĠĠĠĠĠĠĠ ĠĠĠĠĠ
4 4
s w
Ġth us
Ġbeh av
Ġw on
Ġpropert ies
ĠA ug
Ġcons ist
Ġcomp any
pp ed
Ġp ract
ww w
Ġc heck
wh ich
u ff
H ow
I nt
Ġassoci ated
Ġdef ine
ĠFig ure
0 8
Ġm ove
viron ment
Ġse par
w ise
Ġunt il
O b
le ment
Ġspec ial
pd f
Ġev al
Ġbel ie
il es
Ġf alse
Ġlear ning
E S
st it
. ~
Ġm ajor
at ural
Ġcom e
Ġobserv ed
p oint
Ġdescrib ed
Ġrese arch
Ġse ason
imension al
v ing
ĠC ount
Ġmult i
A P
com p
Ġz ero
Ġa chie
Ġconst ra
am ent
}^{ (
Ġt ext
Ġt ry
ak en
Ġsim ple
Ġf ar
Ġf ac
200 8
u ild
E D
ge bra
Ġt re
th ing
Ġl a
Ġpro posed
Ġconsid ered
Ġto get
Ġtoget her
Ġv ia
Ġab le
& =
Ġexpect ed
ĠF ran
Ġl ines
i am
ĠN ational
Ġoff ic
] ,
Ġ es
ran sp
ta ct
ian ce
Ġcomp ar
Ġst ar
Ġfil m
ent ly
d ata
ri or
ul ations
Ġsu gg
6 6
Ġsugg est
I S
Ġ= =
Ġfact or
ro id
b o
Ġen ough
ĠC or
9 5
ch an
^ +
Ġin dependent
Ġex ists
Ps i
in ally
Ġex act
C ol
Ġbl ack
f unction
}\ ,
Ġ$ (\
ĠJan uary
s ing
{ {\
0 4
c up
il ities
ow s
ord in
Ġs em
Ġam ong
r ont
r im
Ġprob ability
Ġcl aim
Ġind ividual
e f
Ġanal y
x space
if f
}\ \
ĠG u
in o
ĠA pr
ĠJ u
0 7
Ġunder stand
eth ing
Ġpro m
Ġh tt
st ring
Ġem ploy
Ġe mb
oc ument
Ġf uture
d own
ul a
r s
Ġear ly
Ġre ason
Ġ version
c le
ĠA ust
Ġw in
Ġm usic
ĠL emma
sm all
app ro
Ġest abl
Ġele ment
Ġdefin ition
Ġcou pl
ĠF l
0 9
S c
Ġcl ust
Ġof ten
ann el
ic ro
pl ace
ear ch
Ġorig inal
ĠW orld
um e
Ġf ore
htt ps
Ġcomm on
Ġquant um
Ġc ertain
angu age
ra g
Ġpropert y
Ġf ixed
ress ed
Ġsequ ence
Ġst ep
pro p
ĠA rt
Ġl and
Ġw ar
ĠTh at
Ġpriv ate
0 6
Ġre view
Ġdist ance
al es
Ġequ ival
Ġcl ose
ĠO ne
Ġserv ice
Ġassum e
Ġbe come
ut ed
ĠS ince
ig en
0 2
Ġ& &
Ġg overnment
Ġexper iment
Ġke ep
Ġh aving
C T
cit et
Ġpol it
Ġscal e
de fin
ir t
Ġim pl
Ġinvest ig
ĠM e
uro pe
Ġs ens
Ġ& \
Ġd ays
ĠM arch
sk ip
] .
Ġl ittle
un g
Ġw ater
u k
Ġup d
ĠM in
Ġcont ent
Ġd ou
s in
Ġsur face
Ġ id
c ell
Ġin fl
Ġg ot
S et
m id
4 9
il t
av a
ĠE n
Ġrec ord
ĠY ork
I nd
end ing
ĠW hen
t ra
"> <
Ġvari ous
] $
Ġv oid
itt ing
ot es
S e
on y
200 7
scal e
Ġn umer
0 3
ce mber
on es
st er
Ġdat as
ove mber
iz ing
Ġwhe ther
Ġoper ator
ĠĠĠĠ Ċ
et ing
Ġele ments
Ġrel ated
ab or
} :
Ġa uthor
ĠS chool
}} {\
ĉ Ċ
Ġgl obal
Ġe p
R O
Ġs ample
ĠCh rist
cal l
Ġhum an
pt ember
} +\
Ġm aking
Ġg alax
z e
Ġst ory
m ark
Ġmem bers
ort un
Ġtrans ition
Ġ ill
Ġcommun ity
com es
4 7
L L
om an
Ġa way
Ġp ay
Ġrequ ired
Ġf ail
ĠA ss
Ġpro p
b ook
Ġne cess
ari ant
Ġcor rel
Ġhow ever
Ġas k
Ġc ode
a pt
Ġr at
ast ic
) -
um p
Ġd one
Ġsom ething
, "
ma p
Ġt aken
Ġs ocial
Ġacc ording
iv en
itt ed
lo ad
ĠC al
W ith
Ġth ings
Ġl abel
Ġg r
equ iv
Ġro le
is k
us ed
oper ator
Ġlear n
Ġw ind
6 8
st ar
n eq
med i
Ġev ents
ĠSt ates
c ast
Ġsp in
ott om
igh b
ult s
rac y
le x
| ^
ard s
h space
ĠJ une
Ġed ge
Ġgiv es
Ġcount ry
p x
Ġim plement
ĠF eb
f ill
Ġconst ruct
pp ing
Ġ %
W h
ĠP art
P h
foot not
ĠA b
li ed
ind ent
htt p
i ol
a int
M od
ac c
ic ol
og n
a it
o ch
ĠSt ate
Ġlarg er
m ore
Ġback ground
ri ed
m ary
ĠS outh
Ġreg ular
D ata
} -\
g en
d t
Ġden ote
il i
Ġus er
' $
Ġdom ain
Ġin f
Ġcon text
Ġg round
ĠJu ly
Ġsol utions
6 7
ĠT ra
ort s
Ġmat erial
Ġstr ateg
Ġcon c
ĠR ep
a ff
A nd
ĠC ity
w ed
( {\
c ing
Ġt reat
Ġth ird
el oc
Ġf oot
( $
Ġcan not
sc r
Ġeff ic
Ġth ough
Ġchild ren
n a
ĠOct ober
i ke
Ġf ri
200 6
one y
h am
Ġm akes
Ġde p
uss ian
The re
c her
Ġp an
Ġequ ations
Ġeffect s
Ġf ive
Ġc ut
ĠApr il
Ġprovid ed
le ge
ĠTh us
ĠE urope
Ġp ast
the orem
Ġspec ific
le ase
Ġun it
Ġ- \
Ġl o
Ġimpro ve
ĠN ovember
E T
Ġhist ory
ho od
ĠDe cember
Ġf ig
Ġfield s
Ġc ity
Ġfe el
Ġm illion
ĠW ar
Ġg roups
i res
b ut
ĠAug ust
Ġl ot
Ġw omen
Ġa ir
ra ction
Ġpr im
Ġwork ing
Ġcon fig
Ġwork s
) }{
g ing
ĠM c
g roup
Ġaddition al
Ġnot e
o oth
ĠSe ptember
umer ate
Ġopt im
A ll
Ġwh y
] \
ell ing
N ew
Ġre t
Ġbound ary
li ke
Ġde ath
on ic
og le
Ġexpl ain
ac hes
Ġplay ers
Ġcomp ared
ĠM ark
Ġk ind
Ġdevelop ment
m it
al t
m y
ct ors
Ġat tack
Ġmat ch
Ġp ubl
ict ion
Ġind ex
ot ed
re ed
Ġind ust
ĠĠĠĠĠĠĠĠĠĠĠĠĠĠĠĠ ĠĠĠĠĠĠĠ
& &
Ġp ress
Ġch all
Ġr ather
il it
Ġim ages
P l
ĠP r
Ġal most
led ge
C ont
I M
item ize
Ġeffect ive
Ġhal f
ener al
ĠS ch
ra ft
y l
d om
H E
cre t
Re ferences
re st
C C
ĠR eg
Ġmat ter
ac ed
ut il
il le
Ġdiffere nce
Ġg en
Ġquest ion
y ing
n ers
Ġs ite
en umerate
ĠQ u
ĠB ar
Ġt itle
i ps
Ġv eloc
Ġm etric
Ġthe refore
h ib
A B
) );
Ġbre ak
g s
ĠIn tern
Ġwe ight
ĠE d
Ġcour se
b t
Ġfl ow
Ġmult iple
Ġn um
re w
ma il
f rom
Ġexper ience
ĠNew s
Ġme chan
Ġconstra int
Ġyou ng
ew ork
Ġimpl ies
Ġpro ve
om ial
Ġout put
ĠA f
f act
st ate
Ġset s
v space
Ġn am
V ID
r ated
Ġtrans form
A D
Ġl ove
L e
Ġpre c
) }$
an ta
Ġcomple te
ĠCount y
os ed
pl us
ĠW ill
" );
ĠA g
b b
A d
ict ure
an a
( -
Ġn atural
ĠN orth
math scr
a ctions
operator name
Ġst atic
Ġw ords
Ġon ce
ou d
Ġwh ose
t est
Ġt w
O T
4 6
b um
Ġchang es
I ON
erv ice
Ġsc he
W hat
A pp
P S
Ġhold s
Ġcon ver
~ $
Ġc ateg
Ġ\ |
av es
ic ult
im ate
Ġcre ate
Ġb ase
Ġs qu
al y
p ol
Ġinst ance
n b
Ġin du
Ġco e
in st
Ġwe ak
s el
Ġrespon se
Ġth ought
if orm
Ġp ort
Ġv ideo
ad a
Ġcol or
Ġdeg ree
ĠH ar
Ġwrit ten
Ġen vironment
ess ion
8 5
c he
}} _
Ġother s
Ġimp act
f ile
Ġc ustom
Ġa ge
r ast
at ively
ĠH am
A t
Ġrequ est
e ed
Ġg as
Ġstud ents
Ġj o
I R
Ġs ent
ag ue
Ġt aking
d imensional
row n
k n
no indent
Ġar ch
Ġadd ress
ar ies
Ġon line
Ġcompon ent
mult icol
Ġc amp
ĠI nt
Ġso ft
ĠAust ral
Ġcontain s
Ġm ar
$ }
e ff
Ġse arch
om s
Ġm en
ĠP res
p ath
ĠO b
loc ation
d ag
Ġmag netic
ore s
ne ction
Ġs ong
ru ary
Ġbas is
F rom
\ }$
multicol umn
ce ed
Ġf un
Ġserv ices
th at
-------- --------
Ġincre ase
Ġgener ated
e le
Ġval id
Ġw ave
Ġwid th
N N
ĠB rit
her n
at ory
ir l
l ist
ul ly
Ġform er
ĠB o
l ight
Ġreport ed
Ġun ique
ur ch
p ly
ist ics
U S
Ġact iv
omorph ism
Ġprovid es
\ ,\
Ġor d
Ġp rior
t ic
ĠA fter
ind ex
Ġs ix
em ic
Ġpresent ed
ĠP ar
Ġam ount
Ġst ars
Ġdetail s
Ġfl u
Ġp ack
iz es
ĠG l
Ġequ al
ĠW hat
B ut
Ġto ok
er a
ĠF rom
oun ter
ish ing
Ġ: =
Ġbe gin
Ġh or
ir m
4 2
a ul
Ġent ire
Val ue
ĠC ont
9 8
al le
g ress
Ġw rite
Ġprodu ction
S u
**** ****
our nal
Ġestim ate
s plit
Ġinst ead
Ġb ring
{ }
200 5
bs ite
ĠM y
ĠO ur
20 00
Ġrepresent ation
Ġy ield
and s
im ents
Ġj ob
ene f
appro x
ĠG o
Ġne ighb
Ġproblem s
er al
Ġe conom
ra in
9 7
ill s
Ġre fer
l ink
Ġg ames
Ġcomp et
Ġb ody
Ġpop ulation
ĠS im
S ince
Ġh ouse
Ġal gebra
Ġcompon ents
g ence
] ;
m ar
}} }
Ġh ost
k et
ĠD is
Ġdem on
Ġc ult
Ġdire ction
it ude
Ġy et
Ġnew s
ĠThe refore
Ġclos ed
5 7
he l
Ġrel ation
Ġco ordin
cur ity
Ġspect rum
se mb
Ġmark et
G et
{ $
4 3
Ġm iss
Ġt rack
rum p
ĠT able
L O
id s
m on
ograph y
ĠD ep
B l
] [
Ġev olution
ĠP er
ure d
Ob ject
b ody
au ght
B e
is es
C D
l ish
Ġf ile
ĠM on
an ced
Ġmed ia
) +
Ġsign al
Y ou
r c
==== ====
The n
clus ion
Ġc ame
ransp ort
Ġed uc
V iew
ĠN ot
Ġdiff icult
ar ing
Ġto day
du c
Ġsub ject
Ġmax imum
rr or
Ġeval u
ul ated
ite ct
Ġex ec
under line
P i
" .
Ġb ar
Ġf it
it es
5 8
Ġphys ical
Ġrest rict
P E
Ġlik ely
ri ve
Ġro t
Ġt akes
Ġcho ice
pt ions
v is
Ġe ver
n orm
ur l
id ed
ĠFeb ruary
Ġvari ables
ic les
big g
S p
Ġs ure
Ġact ually
Ġlink s
Ġd imension
Ġl at
ir us
ĠD o
Ġthe orem
Ġt able
Q u
re t
pec ially
Ġs ense
ens or
ĠW est
at form
ĠM od
Ġb it
ĠCom p
M S
Ġ ver
ĠG erm
l in
" )
el ine
I s
U R
Ġf ace
^ -
Ġinclud ed
line ar
Ġdirect ly
Ġ( -
Ġsc en
Ġwho le
b ound
Ġs ound
Ġde al
text tt
W hen
ag er
I G
Ġe igen
ru le
Ġcent ral
Ġ/ **
Ġcom es
O S
}^{ -
Ġstud ies
6 9
text rm
Ġne ut
Ġveloc ity
idd le
en ing
Ġcol umn
ond on
il ton
ĠD av
ĠN ote
ie f
o ps
b re
Ġlead ing
Ġ$\ {
dis play
ric es
Ġneed s
Ġapp lied
Ġcontinu ous
at ives
Ġdid n
and id
ĠP e
min us
en ed
Ġbuild ing
ĠL a
4 1
ic ation
Ġd iv
ove red
ir th
Ex ception
ire ct
Ġcorre ct
F F
IN G
Ġrat io
U T
Ġs w
end er
Ġincre asing
ĠP ark
l a
Ġ _{
Ġ// /
ĠF irst
// //
k en
ic it
Ġset ting
Ġnum bers
Ġde cre
Ġallow s
. )
Ġu pper
Ġp arent
a e
mod el
Ġsh all
Ġad j
as c
yn omial
nb sp
Ġpol icy
Ġrespon s
i ation
ot a
ta int
Ġdet ect
oun c
V ert
ĠU K
Ġsmall er
Ġl ive
Ġcrit ical
ĠAf ric
A A
Ġp o
Ġv iol
Ġcomp an
Ġbe comes
" ;
k ing
Ġth ing
7 7
f ect
St ate
B C
ĠH ere
200 4
ĠS m
kn own
us ing
E n
Ġro b
N ot
subset eq
Ġ$ |
Ġo p
ĠA ct
Ġt ask
m ission
} /
Ġc r
y ear
ar ily
Cl ass
Ġb enef
un ch
Ġelect ron
) ,\
p ublic
Ġfrequ ency
n ormal
Ġ ess
Ġbehav ior
ĠSy stem
.. ..
Ġs ources
ign ed
un c
Ġadd ed
v ision
Ġto ol
ve y
row s
Ġpr inc
Ġl iter
Ġst yle
8 8
Ġbec ame
< \
ĠCO VID
Ġn ight
Ġm ention
Ġfl ux
Ġa rm
Ġneed ed
ill ed
re c
err or
ĠSt ring
5 00
à ¤
Ġan g
ag ing
au ge
ĠT r
l n
L A
Ġno ise
O r
ĠSt ud
O ne
Ġl anguage
Ġstart ed
Ġcon tact
Ġf all
Ġal bum
Ġpro ced
Ġreg ard
Ġconst ruction
Ġvis it
Ġocc ur
Ġge om
Ġbro ad
h a
um ents
Ġpartic ip
footnot e
Ġn uc
Ġdemon str
The ta
5 6
E E
ab s
ĠH ouse
}} _{
Ġqu ality
v ant
T est
ĠE l
ens ive
ens ions
ĠHe alth
Ġrece ived
Ġtyp es
Ġa ud
ĠA m
enc ies
Ġde ep
dition al
Ġf av
Ġrel ative
Ġun cer
pro d
set minus
Ġsim ply
n es
l ong
N ote
ĠN e
us ion
Ġt alk
d ist
av y
at ur
ot ic
le vel
Ġinfl u
} '
) |
P T
os ition
am a
ap an
n ov
}} ,
Ġapplic ation
ĠV al
or ing
Ġide a
ĠI I
l ength
ic on
Ġac cept
b ur
Ġ\ ;
Ġdoes n
Ġdeterm ined
ĠG a
Ġcent er
e in
li er
ĠB ro
ĠK ing
at us
Ġ( $\
x y
Ġapp ly
min ist
p ng
Ġd est
Ġin equ
u racy
Ġ Ð
Ġperform ed
n av
o plus
Ġp age
os en
Ġits elf
O ur
d en
ari o
Ġm er
Ġpat tern
f ord
Ġrec ogn
pert y
Ġr isk
Ġequival ent
Ġmonth s
Ġcon duct
alle l
m ing
Ġper cent
Ġf ront
line width
Ġt ell
M A
qu ot
p ers
ch ange
9 6
Ġemb ed
Ġexp ression
t ical
Ġp ers
Ġw ent
^{ -\
ounc il
comm and
Ġinclud es
Ġch annel
ĠH is
Ġu nd
ĠS er
com ing
Ġus ers
sub figure
Ġknow ledge
ĠA cc
Ġinterest ing
Ġd ig
oc al
Ġ ensure
Ġcre ated
Ġconn ected
ĠPres ident
S o
Ġspe ed
Ġobserv ations
j ection
ĠT rump
Ġobject s
Ġp ref
g ra
Ġiss ues
a res
r ate
}) ;
c an
Ġit er
um b
wed ge
pon ent
Ġmem ber
Ġsm ooth
port s
Ġsu fficient
Ġeas y
ĠCh ar
Ġoper ators
" :
Ġset t
p ack
i ag
Ġfor ward
ĠL ondon
( ).
att ice
_ +
Ġg re
Ġpat ients
j s
Ġintrodu ced
Ġqu ite
M L
ĉĉĉĉ ĉ
$ _
Ġf ood
Ġnecess ary
M an
ĠH igh
Ġd ocument
Ġr ank
\ }
Ġinter action
Ġpol ynomial
ĠN ow
200 3
o e
S C
an ks
Ġ round
ri er
5 9
Ġes pecially
Ġse em
Ġder iv
Ġdatas et
Ġwe bsite
S P
Ġn ational
oc ol
ĠAmeric a
Ġart icle
Ġlevel s
sel ves
i ber
ma g
le g
Ġag re
bl ack
Ġ! =
Ġiss ue
Ġb ox
ag ed
e al
Ġdevelop ed
Ġan sw
c ial
ul let
in ated
Ġm oney
Ġ\ (
Ġs amples
s up
sh ift
Ġreg ions
Ġlook ing
et ic
Ġinter n
Ġg rad
ov ed
Ġindust ry
N ow
qu e
N o
ran ge
Ġhe ld
Ġ$ [
Ġre ve
k y
Ġsh ift
b and
anc ial
ans ion
Ġlay er
Ġa x
l or
z z
Ġc andid
Ġrele ased
Ġproduct s
oci ety
Ġto ld
Ġd ark
ag s
u el
' re
Ġgrow th
Ġperson al
rid ge
Ġmod e
T ime
Ġin fin
Ġor g
Ġneg ative
Ġare as
Ġres id
Ġca pt
ĠĠĠ Ċ
i et
. _
rib ute
Ġus es
n s
Ġ ir
Ġill ust
ĠEng lish
Ġd r
ĠA ng
v olution
Ġsymm etry
Ġopp ortun
c heck
* {
Ġem ission
7 8
() );
Ġhe nce
M ore
Ġun iform
Ġn ov
Ġass ert
E rror
ĠD es
_ *
ac ity
as hed
ub e
Ġstre ng
Ġtrans fer
h and
Ġgo al
oun ced
s pec
Ġcur ve
Ġ ...
ĠL aw
Ġch arg
Ġplay ed
Ġeng ine
d et
per p
5 4
ist ory
Ġcontin ue
ĠIntern ational
Ġ$ -
) {
Ġdiag ram
Ġsche me
Ġvari able
Ġbound ed
Ġdiscuss ed
ber g
Ġm is
` `
he st
Ġsh are
ol ic
P r
Ġform ula
Ġv an
M C
ell ar
_{ (
Ġout side
Ġfram ework
in put
Ġpe ak
Ġm ix
pre t
Ġaut om
Ġbu ilt
Ġdo ing
ran ch
6 3
Ġatt empt
Ġw or
Ġag o
Ġre ach
d o
ĠC ons
ĠT V
Ġfor ce
ĠCol lege
dag ger
Ġpubl ished
Ġvert ex
H ere
5 2
K ey
a ign
+ +
Ġpart s
ĠD ist
Ġdis play
Ġtechn ology
if old
Ġn odes
p c
ĠM ich
o on
Ġper t
h ing
Ġwh ite
at al
cre te
irt ual
Ġw ord
C H
Ġto wn
Ġuncer taint
equ est
ĠRes earch
Ġu pon
Ġbeh ind
in y
O ver
Ġt ree
5 1
art ment
Ġ ?
Ġar ray
Ġexper iments
Ġcomp act
Ġapproxim ation
es e
Ġe y
Ġch arge
Ġexpl icit
ber t
as ks
ĠCent er
is ation
Ġgra v
Ġdou ble
ĠĠĠĠĠĠĠĠ ĠĠ
Ġm ind
Ġim medi
T R
oll ary
o ke
Ġre pl
d ro
em ents
in os
ma in
r ant
Ġm aps
Ġrecent ly
Ġcon clud
Ġse ems
F orm
Ġcho ose
Ġnetwork s
Ġcont ract
5 3
ous ly
lim its
p ite
Ġt ax
Ġopt imal
Ġoffic ial
ot o
ĠWh ile
Ġs us
Â ł
ful ly
Ġal tern
Ġgalax ies
Ġcon sum
Ġe mer
! --
"> </
Ġst age
Ġch ain
ĠĠĠĠĠĠĠĠ ĠĠĠĠ
ou l
ĠH er
Ġh yp
Ġar bit
Ġh ours
Ġst ation
ĠO f
P C
Ġs eg
Ġl ate
col on
u ed
Ġqu ick
ĠPro position
. </
Ġpartic les
Ġg auge
Ġresult ing
A G
N et
D F
Ġp ie
Ġdec ision
Ġev idence
Ġlong er
ar a
Ġthe rm
Ġbelie ve
Ġb all
Ġtra vel
Ġsu ff
Ġloc ated
Ġm ach
Ġdynam ics
Ġd ate
od ing
Ġins ide
ĠA ir
a el
Ġrema ins
)\ ,
Ġ| \
Ġf ight
pp ort
Ġmot ion
i os
Ġinter val
Ġpartic le
Ġp ick
Ġh ol
Ġim m
Ġto wards
6 1
Ġmin imum
ĠC our
Ġh ot
Ð ¾
=" +
u ra
Ġconc ern
6 2
Ġg ain
U N
ĠA c
Ġtreat ment
ec ause
Ġst ra
Ġsp at
il s
Ġexp ress
ĠD em
Ġpres ence
ch o
i ences
Ġarch itect
defin ition
ify ing
rop y
Ġsub set
Ġpan el
Ġcompan ies
Ġw alk
y ond
D is
Ġacc uracy
ag ement
I L
align ed
bl ock
Ġcompar ison
Ġeas ily
el t
ĠJ apan
Ġav oid
ed u
}} (\
T r
ing ton
Ġa im
Ġ vers
ĠM or
200 2
T E
Ġpop ular
m at
el i
Ġprodu ced
C E
ĠO ff
Ġd riv
Ġpert urb
Ġrun ning
Ġmeasure d
Ġre ference
ol ar
ĠE ar
Ġchall eng
w ord
_{ {\
Ġfoot ball
ut ive
re et
Ġmechan ism
ac hed
Ġb irth
Ġlead s
Ġexact ly
Ġcon cept
Ġloc ation
P R
ell ow
att le
ĠInd ia
Ġob ser
Ġb ad
ĠBl ack
stit ute
ib rary
Ġclass ical
r un
Ġmag n
Ġf ully
ma z
Ġspect ral
app ing
Ġclass es
Ġin c
ay er
Ġon es
E qu
) /
Ġmin im
Ġhtt ps
k er
Ġpol ar
end ix
Ġcoupl ing
Ð °
riv ial
A b
Ġapplic ations
= {
Ġpro per
Ġn orm
) _{
Ġmoment um
) }(
if orn
d eg
us er
Ġredu ced
p ace
8 7
r ong
e es
T ext
00 00
ĠRe f
Ġnumer ical
G e
uth ors
../../ ../../
tr ue
' _
I F
ĠBrit ish
Ġpolit ical
Ġlim ited
p an
iz ations
Ġfig ure
Ġsim ulations
om b
Ġcom ing
o ph
Ġbe gan
Ġstat ement
I m
Ġn ature
Ġvol ume
M P
Ġd raw
Ġcol lection
Ġad apt
Ġ- ->
Ġget ting
Ġc le
200 1
' );
Ġsatisf ies
in ct
Ġact ive
am s
p ri
ren ch
Ġc os
Ġvert ices
ĠP at
Ġcontrib ution
Ġ }\
oc r
Ġrad ius
Ġro ad
h y
F irst
p ose
ĠG roup
iqu es
Ġ/ >
is ions
ĠHam ilton
ru g
i ency
esc ription
Ġr ates
ĠH ence
c ase
j oy
Ġsupport ed
I V
S y
ran g
EN T
v ol
Ġcon sequ
Ġrele ase
ĠW ork
Ġm essage
wit ch
Ġess ential
us es
sh ip
Ġpl atform
ob ile
Ġpl ane
ob ject
Ġse lected
Ġse curity
Ġplay er
iforn ia
S O
Ġus ually
Ġcare er
Ġpro te
Ġf ast
Ġder ived
n y
Ġfact ors
S ub
Ġch osen
Ġrele vant
Ġatt ention
Ġprocess es
w ar
Ġrequ ires
How ever
amp ions
ffic ients
O f
sub subsection
= (
for all
S im
text sc
ĠG et
Ġuse ful
Ġspec ies
\ '
t es
ĠIn st
Ġsim pl
st ack
ri ef
F ield
A dd
res hold
Ġallow ed
Ġw atch
) ^{\
Ġstud ied
_{ -
Ġdet ection
S ee
ok en
: \
Ġestabl ished
Ġprof ess
un t
Ġsa f
it z
ĠD r
Ġdeterm ine
Ġconsist ent
Ġcorrespon d
A fter
Ġs ex
Ġsol id
Ġstrateg y
Ġst eps
ĠA rm
,\ ,
Ġed ges
Ð µ
m d
}$ -
m iss
ĠSc ience
res ents
F ile
E q
T able
ĠCh ina
c ases
O D
Ġdescrib e
Ġright s
I P
ar c
ĠS an
Ġhe art
Ġ+ \
' \
pr int
Ġpart y
Ġex amples
wo od
ĠF urther
Ġfe ed
Ġconn ect
( ),
Ġopt ions
ĠD i
Ġde cl
it ing
he ight
Ġst e
ĠComm un
Ġse lect
b in
ar ant
ĠT rans
ist ry
Ġm icro
Ġd im
Ġam plit
Ġoff er
Ġl ed
Ġstart ing
Ġl attice
act ive
Ġpress ure
Ġinvol ved
ĠAss oci
P ath
Ġmeasure ments
Ġcurrent ly
ĠS en
Ġve h
Ġsh ape
Ex ternal
Ġbl ue
Ġper fect
Ġ ~
) {\
Ġinequ ality
et imes
ilit ary
Ġf raction
ĠWill iam
it te
Ġte le
el er
M M
Ġcomp ute
Ġmanag ement
ma ge
ĠR ed
ĠRep ublic
Ġl oad
es tern
Ġdesign ed
ri ver
Ġal though
Ġsl ight
Ġsit uation
S U
ac ing
Ġpract ice
ĠJ ust
Ġst ream
Ġcalcul ated
Ġsignificant ly
Ġquest ions
Ġcorrespon ds
ĠMore over
ĠS ub
as ons
s pect
Ġclust er
Ġcorrel ation
os ing
st o
Ġexp ansion
= -
iv il
Fig ure
over y
Ġnam ed
Ġarg ument
Ġassum ption
ĠDep artment
Ġro om
ac her
Ġcont roll
it able
Ġr ules
Ġover all
ĠDav id
Ġthrough out
Ġcl ub
wit ter
Ġinter pret
ĠH ol
a per
}^ *
ent al
Ġcell s
Ġconstraint s
Ġw ays
Ġproced ure
Ġdec ay
Ġr ule
Ġl ost
Ġdef ault
$ (
Ġst aff
Ġcol lect
Ġlarg est
ĠTe chn
ap ter
ĠI N
Ġhtt p
ym pt
idd en
De f
Ġh ope
[ '
Ġc am
ĠCl ass
F T
Ġfram e
ill ing
b ullet
sum mary
ole an
Ġt ransport
o o
Ġstructure s
Ġme et
rem ark
Ġm id
con fig
u ge
pro t
ad es
Ġad opt
f il
ern el
Ġnot hing
i en
ĠB ook
f ree
Ġc ore
ĠD ay
v an
Ġsp aces
Ġex hib
ĠIn ter
ve x
con s
M e
Ġpres ident
Ġexperiment al
Ġsl ow
8 9
Ġappro pri
' ]
ic ip
ĠM ag
Ġoper ation
Ġachie ve
Ġstreng th
Ġc he
Ġres olution
in f
Ġhy per
Ġst ri
C S
m itted
Ġprob ably
Ġcont rast
l t
Ġm or
Ġann ounced
iz er
ail y
T e
Ġcon nection
ĠG od
col umn
ĠS et
Ġintern ational
v ille
re es
or ge
Ġsy mbol
Ġrep resents
Ġ rac
d x
d im
R equest
E vent
pl ate
Ġcoe fficients
Ġdis e
n ed
rodu ction
ar p
Ġst ay
Ġext ra
Ġcom ment
ĠF in
am ily
Ġet c
Ġmem ory
\! \!
if ier
Ġb al
t em
ed eral
z ero
p age
Ġrelations hip
Ġex cept
Ġdepend s
Ġext ended
hi ps
) ^{-
ak er
Ġh on
val id
n eg
ĠAustral ia
Ġsim ulation
hes is
g raph
g u
ric k
R eg
ra b
ĠG reen
pl es
in v
t itle
ab ilities
Ġident ity
Ġcamp aign
3 00
)\ \
Ġhist or
Ġinteg ral
Ġwrit ing
w ell
ing u
Ġdesc ription
A cc
land s
Ġse lection
ĠO ut
ĠSt reet
ĠCal ifornia
ĠF e
og ene
9 4
Ġalgorithm s
cl es
Ġear lier
erv ed
Ġdistrib utions
Ġext ract
Ġm arg
ĠRe c
ĠM r
Ġpol ice
osp ital
.~ (\
fl ow
$ ).
Ġhe ight
ĠE ast
Ġc red
Ġd ual
b on
Ġacc om
7 2
Ġs ampl
s ol
Ġrad io
res ult
b a
Ġcomplet ely
ir it
Ã ¡
] (
N ode
Ġoper ations
i ers
Ġmain tain
Ġfri end
Ġhigh ly
Ġre comm
ram e
) }{\
Ġlead ers
' :
~ $\
Ġask ed
pp ose
\ "
Ġl atter
ib ly
Ġestim ated
id a
Ġstra ight
Ġbe yond
Ġ row
Ġincre ases
ĠS ur
il ies
Ġl iving
und le
Ġl ack
ic o
sim eq
Ġthem selves
N S
ĠS pec
! !
ri e
Ġsc reen
Ġeduc ation
$ ^{-
pm atrix
Ġprof ile
In st
Ġappro aches
\| _{
Ġany thing
C o
Ġabs ol
Ġf ire
ĠS ome
Ġexist ing
( (
9 3
Ġso on
n ext
k a
r ig
y a
et urn
Ġex am
Ġscal ar
h om
Ġcateg ory
ĠSt e
Ġsc atter
Ġprim ary
il ib
ĠEurope an
d ate
Ġen joy
Ġaff ect
L S
ĠRe view
r ide
Ġincre ased
7 6
d ed
Ġappear s
Ġintrodu ce
Ġprodu ce
Ġoff ice
Ġagre ement
E nd
Ġan gle
O M
Ġsoft ware
Ġen h
Ġconfig uration
Ġsome one
re p
B ar
{ $\
In fo
Ġform ation
ul s
Ġden otes
ĠĠĠĠĠĠĠĠĠĠĠĠĠĠĠĠ ĠĠĠĠĠĠĠĠĠĠĠ
Ġmean ing
Ġexp and
Ġshow ed
Ġredu ce
Ġbel ong
T hat
aramet er
Ġv ict
Ġt ensor
a ur
Ġd am
Ġform s
ĠC ouncil
val ues
}} ^
Ġorig in
u ations
or age
Ġst op
B S
Ġnov el
ĠR em
Ġ&= &
Ġqu al
Ġmeasure s
AT E
} )$.
ri an
ĠP aul
In ter
$ $\
u fact
Ġf em
Ġs il
mult i
Ġh it
Ġf ix
Ġbas ic
en ge
Ġac qu
e ks
al g
Ġupd ate
Ġs aw
Ġevery thing
m ethod
in i
ĠL ist
8 6
Ġinst all
Ġm ole
Ġdev ice
at ically
Ġ ult
ĠI m
it i
Ġc ounter
for ce
ul ate
Mod el
Ġw ide
ĠD ata
use um
Ġdiscuss ion
199 9
Ġtry ing
ĠF ound
ĠA nt
Ġestim ates
Ġant i
ĠLe ague
ĠC ap
ĠE m
pt y
Ġc hem
act ers
Ġ= \
en ch
)$ -
O ut
ic a
ta ge
ĠB ay
Re ad
Ġf air
Ġw all
| |
Ġmod es
Ġg irl
Ġeffic ient
Ġc ry
oc ation
vent ion
Ġo ption
Ġtra in
loc al
Ġspat ial
Ġreve al
Ġpl ot
Ġfollow ed
o ice
Ġin j
ex ample
Ġvis ual
N ext
. $
Ġinv ariant
Ġspect ra
A tt
if ically
g t
Ġexist ence
Ġa uthors
b i
Ġb rand
Ġcur ves
Ġgener ally
L P
Ġhim self
9 2
Ġident ified
com position
Ġcount ries
ĠInd ian
ĠCan ada
Ġinter nal
Ġre pe
un k
8 4
Ġpr ice
ĠP o
y mm
Ġprevious ly
Ġv s
Ġcomput ed
r d
Ġgo es
Ġqu as
Ġwork ed
pro du
it ely
ark s
Ġep is
Ġc ause
Th us
o at
Ġelect ric
Ġst able
in fo
Ð ¸
ition s
in ant
N R
ir al
\ _
ĠG eneral
Ġd ro
Ġsc ore
Ġarbit rary
ĠIn stitute
ap i
ro te
Ġmin utes
ut ing
ir ing
Ġclear ly
The se
b ase
Ġv ill
u a
Ġhor iz
Ġgre ater
Ġerr ors
cont ent
Ġother wise
ag raph
t ri
Ġ },
Ġfin ancial
Ġ Ã
Ġt im
The orem
S ervice
ter m
Ġc opy
Ind ex
ĠO ther
Ġmention ed
ĠY our
ck now
m c
map sto
ĠM at
Ġsymm etric
Ġmod ern
abl ed
Ġf ather
el es
Ġw orth
p id
Ġj ud
c ount
Ġass ess
Ġe mail
ĠP al
' m
/ **
C ode
ĠM al
pro b
ĠB er
ra z
L T
ĠP ort
}} ^{
Ġcomp are
E d
P I
Ġext ension
rou ght
Ġd ra
tt y
ilib ri
Ġtechn iques
M y
ind er
Ġcons ists
Ġt rac
Ġres ources
/ *
v oid
Ġn ames
N A
ĠGa ussian
F l
ĠCour t
od er
m atrix
itte e
ant ic
ĠJ ames
er ve
Ġparticular ly
Ġass ist
u i
con n
Ġact ivity
7 4
Ġthe ore
T rans
[ ]
Ġex pert
M ap
Ġplay ing
l ang
Ġab ility
ĠP ost
Ġth reshold
ash ington
Ġdepend ence
Ġb ottom
le te
ĠF il
Ġinter actions
ĠWh ite
Ġvari ety
199 8
() )
Ġgener ation
Ġun its
Ġal ign
Ġis n
m en
Ġs on
7 9
Ġle ave
Ġwant ed
et ime
Ġmat rices
Ġsqu are
o ption
Ġin sp
E M
g ener
cur rent
Ġprop ag
Ġdis k
N D
Ġget s
Ġevery one
) _
Ġcon cent
is hes
Ġyield s
Ġst ellar
ro t
Ġliter ature
oy al
7 3
Ġsur v
S I
Ġcomb ination
Ġs old
Ġsing ular
Ġpair s
Ġc ele
^{ +
Ġt en
ĠB usiness
ĠH all
Col or
reed om
Con text
Ġbo ard
Ġdep th
ĠD an
not her
Ġw ait
ĠAl so
new command
Ġsy n
D A
Ġadv anta
Ġor b
Ġnear ly
ĠTh om
Ġpr int
m as
Ġident ify
Ġb ur
Ġ ]
Ġm other
od ot
Ġmeasure ment
com ple
and er
ig ation
bo ard
' ;
ro y
Ġw oman
Ġtest ing
ĠF rench
pro position
E C
ĠEng land
g n
ad o
Ġfri ends
ch ar
Ġgener ate
Ġcom pl
Ġcirc le
ĠE qu
Ġqu ad
Ġobser ve
p at
Ġcent ury
ĠPro gram
w rit
oun tain
Ġad minist
s ur
F e
ar ter
Ġbe aut
$ ;
ĠDe f
Ġacc ur
H T
i ant
ĠB el
u it
Ġsp read
b ottom
H z
Ġc ard
Ġro ck
ĠSu per
est s
id ing
Ġe ight
S M
t ik
yp es
Ġ );
res h
Ġex cit
Ġfin ally
8 2
ament al
em y
Ġas ympt
Ġsc ient
ĠY ear
st art
h aps
ĠL eg
ĠR ober
Ġlat est
Ġopt ical
Ġleg al
al ysis
Ġj oint
Ġcour t
ĠJ ack
F il
ĠP ublic
Ġconver gence
Ġsur pr
ĠA re
8 3
\ {\
Ġappropri ate
Ġfil ms
on av
Ġp ure
Ġex c
" "
Ġhig hest
in ner
Ġcos m
Ġstat us
B uild
ĠIn c
an i
ĠR ich
ĠS T
c d
Ġbook s
h as
Ġunderstand ing
ĠM art
Ġin ner
ic ity
| _{
Ġob vious
Ġclass ification
st ream
Ġim ag
C P
' (
Ġchar acters
' ve
C A
av en
it ch
Ġde b
Ġ( !
Ġas pect
ar r
Ġtrans formation
Ġl ives
Ġres ource
Ġwe eks
ay out
p icture
ĠC he
and emic
ro s
Con fig
Ġs n
P ost
Ġanal og
Ġg ave
ĠF ace
Ġcontrib utions
} &
um an
er ia
Ar ray
Ġdist inct
Ġb orn
Ġmed ical
Ġ$ $
Ġcomput ation
Ġsub st
$ ~
onav irus
Ġde ad
ot ing
} %
c r
om ic
Ġsc ience
## ##
ap ache
p ost
ĠP re
ab ase
sc ill
7 1
pon ential
h ol
ri z
' }
ach ing
N e
Ñ Ĥ
Wh ile
Ġprot ect
e ch
Ġread ing
Ġrema in
9 1
Ġ ;
ang er
Ġoff ers
Ġpur pose
Ġ/ *
ot al
Ġde part
tik z
) +\
v est
E O
Ġpro gress
{ {
ĠGo ogle
ist ical
c s
L og
) },
P re
ilibri um
Ġpol y
Ġg reen
Ġfl at
Ġdem and
re me
It em
k i
Ġcal c
olog ies
Ġform al
C ons
Ġfam ilies
ĠS ing
A meric
Ġfav or
Ġve ctors
Ġa ward
Ġsub sequ
m ma
omorph ic
Ġb order
Ġt ro
Ġr ing
Ġext rem
es h
Ġto ur
Ġimmedi ately
r ons
Ġslight ly
ven ue
ĠC re
Ġco ol
Ġv acc
ĠAr ch
ri al
S pec
} }$,
R A
ĠRe ad
Ġmov ing
Ġth reat
Ġra ce
er c
Ġ });
ĠPl an
Ġele ction
ĠSe e
ĠN ov
Ġrepresent ed
F A
ĠD on
c ular
Ġw rote
Ġact ual
Ġinter view
Ġh arm
ip age
Ġpredict ion
Ġm ut
op ic
Ġdetail ed
ĠHamilton ian
velop ment
st ract
_ -
ĠL and
} }$.
) -\
f it
se ud
Ġfil ter
Ġrema ining
mod ule
min ipage
Ġestabl ish
E nt
B A
ĠD ire
b orn
Ġabs or
erv ices
Ġf ine
Ġ ign
r at
Ġc ru
Ġinteg er
an cy
Ġin de
p ir
def ault
} )$,
ĠK e
Ġrel atively
P er
8 1
is her
Ġc ook
Ġb inary
Ġtra de
Ġp ull
Ġres on
pect ed
Ġsaf ety
b ed
h al
Ġm orph
Ġdire ctor
ind ing
on a
Ġgiv ing
Ġun ivers
Ġassum ed
ed ia
Ġmach ine
| -
P art
Ġo dd
= '
ĠDist rict
Ġo scill
Ġbehav i
ĠM usic
Ġsatisf y
Ġd ied
fere nt
Ġhe avy
n el
Ġgu arant
ĠG ra
=" ../../../../
Ġre const
Ġb ul
Ġgalax y
Ġmod ule
S D
Ġwind ow
Ġt asks
f irst
st atic
b uild
ĠV ol
Ġth ick
ta g
Ġgra du
P e
P P
c ore
display style
E lement
so ft
ann els
ĠW ashington
Ġseg ment
air s
Ġdiffere nces
Ġdifferent ial
Ġv ary
re al
M R
Ġmov ie
G L
Re f
Ġon to
Ġt al
Ġtrans l
st on
Ġhyp ot
Ġindu ced
g ent
Ġro ot
Ġin cor
Ġ â
ĠT HE
l am
pon se
cre ate
ann ed
Ġcontain ing
Ġbegin ning
in em
Ġp en
ĠÂ £
ĠO ver
se y
se ct
G B
ĠMich ael
Ġoptim ization
Ġres ol
w in
Ġf a
z a
Ġprovid ing
Ġreg ime
Ġchang ed
ĠB re
C or
Ġsay ing
Ġ er
ĠAn n
Ġb right
Ġan im
Ġcoordin ates
Ġansw er
con g
d y
Ġst rict
mer cial
Ġcons erv
duc ation
Ġdig ital
riv ate
S ize
ĠB est
Ð ½
Ġredu ction
m ass
}{ |
ru pt
h ost
f aces
c el
Ġobserv ation
j o
ines e
ĠR el
Ġconsider ing
Ġteam s
Ġt un
) }_{
ĠAfric a
i h
ur t
S he
Ġv ac
f ont
}( {\
bl ue
ĠP ress
r or
bre ak
20 22
}$ )
Ġide al
im age
Ġcap acity
T H
Ġ util
ĠR oad
Ġpre p
ĠE ach
Ġmov ed
c ref
as er
Ġrun s
Ġmass ive
Ġt er
Ġsit es
n um
ur rent
Ġman ifold
Ġg rid
pro cess
Ġor ient
the n
ĠDe c
4 00
Ġhy dro
: }
Ġa ctions
ott ed
ĠCh urch
less sim
Ġrece ive
Ġstrong ly
Ġgraph s
os ite
Ġscatter ing
ĠS ervice
P A
ect or
wh ile
hen omen
1 000
h bar
Ġconclud e
Ġtem por
Ġpar allel
Ġprov ed
O L
Ġinflu ence
fl oor
Ġw rong
Ġtra ditional
ar se
Ġpre vent
P ol
Ġbu y
Ġm iddle
Ġsuccess ful
Ġcle an
ud es
Ġre place
e ared
Ġdise ase
ĠT ime
ĠR iver
et t
Ġcou ple
def ine
ill er
D S
Ġse ctor
D o
Ġex ternal
Ġref lect
rid ay
we b
ĠO F
Ġcy cle
G C
ollow ing
pos es
$ ),
Ġpur ch
âĢĿ .
Ġquick ly
Ġlay ers
199 6
Ġde vi
Ġg overn
Ġneighb or
ab il
Ġt ru
H and
Ġactiv ities
199 7
sy stem
Ġg ap
et her
Ġb rief
ot ion
Ġshow ing
M essage
p g
Ġpart ners
Ġapproxim ately
\ )
Ġcommun ication
ĠD el
Ġcoll abor
it ivity
ogene ous
ĠM et
Ġconst it
Ġn orth
ĠAssoci ation
ĠGerm an
Ġcomb ined
ĠM a
con text
Ġ$ |\
n am
ĠS un
Ġt or
con tain
Ġuncertaint y
Ġser ious
fin ed
if ferent
Ġstud ent
Int roduction
ĠĠĠĠĠĠĠĠĠĠĠĠĠĠĠĠ Ġ
C R
Ġeffic iency
ĠS w
d l
ol f
Ġdist rict
ĠS und
Ġc ast
re ct
Ġag ent
st ep
' ll
rel ated
ĠM ac
ĠE v
de v
ell i
Ġme eting
ĉĉĉĉ ĉĉ
ĠQ ue
Ġax is
Ġexp ressed
Ġm ilitary
) )$
Ġcult ure
Ġb rought
Ġ$ {
ĠF inally
an o
we ight
Ġtyp ical
Ġmass es
Ġmin imal
Ġc ov
g est
C ount
l ig
Ġnot ation
Ġmagn itude
Ġk m
Ġit em
ĠG old
Ġ ener
Ġdistrib uted
E X
anc ing
Ġgr ant
C all
j ava
Ġinteg r
Ġserv ed
ĠS um
aramet ers
}{ (
ĠU nder
Ġs rc
Ġin form
i verse
c ss
O P
ĠR uss
Ġsh ared
ĠP M
Ġman ufact
ĠC D
li ent
ag o
E L
Ġtra ined
Ġopportun ity
Ġl um
Ġlo op
it a
Ġcar ry
n ames
ĠA lex
Ġinterest ed
ĠR ob
Ġgrad ient
st ra
F inally
Ġst ore
The refore
Ġamplit ude
ith ub
) --
Ġcomput er
Ġor th
~~ ~~
Ġbe am
ĠB en
Ġeconom ic
Ġpart ition
Ġ ut
Ġproject s
ĠPh il
Ġth row
op en
s he
ort hern
semb ly
rib ution
Ġany one
ĠN etwork
Ġpre tty
b as
ĠT om
re y
Ġst ories
ĠW il
T D
aught er
Ġfunction al
Ġa mb
Ġtheore tical
&= &
Ġm ess
ock s
ĠC ong
ĠFran ce
I A
f s
Ġp andemic
ĠDem ocr
S A
Ġse ven
ell ig
Ġd rive
il er
Ġca used
Ġs ort
ĠU sing
ult ure
Ġnuc le
m ut
k in
[ (
Ġdev ices
Ġb ranch
uff er
ĠAl though
ĠO pen
Ġfor ces
Ġwe b
,\ \
it ar
m ann
Ġcomplex ity
Ġprofess ional
Ġd u
Ġtherm al
t x
ĠR ad
Ġrob ust
ro om
Ġp ix
Ġcap ital
v ised
Ġsy nt
qu are
f ess
Ġindic ates
Ġindividual s
Ġr ise
> &
est ival
Ġpl ans
Ġcon vex
Ġschool s
C an
Ġpl aces
Ġprogram s
om etric
Ġfund amental
ĠFace book
Ġturn ed
ĠM o
ĠĠĠĠĠĠĠĠ ĠĠĠĠĠĠ
ĠS am
M ethod
d frac
Ġspe ak
Ġk ernel
ial og
Ġl ic
Ġpl ant
F L
ou ra
b el
i ra
h box
Ġcalcul ations
Ġtre nd
Ġp oor
ĠG al
ĠT est
Ġimplement ation
- $
Ġpro port
ĠFound ation
ran k
Ġpart ial
Ġf arm
it ation
out hern
Ġeval uation
Ġp icture
Ġra pid
su per
ĠSt ar
Ġp lease
Ġnot ice
Ġcom ments
ĠComp any
O C
ex as
Ġform ed
) }}
h an
Ġdatas ets
Ġachie ved
if ies
Ġh ole
ĠPart y
D B
Ġaltern ative
on ly
g ies
in ations
or ter
ov ing
a a
] }
Ġpie ce
Ġreport s
U LL
ĠMan agement
ri a
Ġflu ct
pack age
199 0
******** ********
Ġ} ;
Ġtra ject
Ġinst it
Ġcalc ulation
Ġsom etimes
Ã ³
ap ers
in u
Ñ Ģ
ch ild
cc cc
Com m
Ġb ank
Ġcl in
C M
str ong
ve re
S R
Ġtyp ically
Ġag ree
Ġrel ig
p ass
The y
( {
Ġst ated
Ġm us
Ġinfin ite
ass ert
Ġp henomen
ing er
c ript
Ġhe at
Ġcost s
Ġsol ve
ĠCh ampions
ud get
Ġ[ \
d iag
cher s
Ġde composition
Ġclust ers
om a
ĠS al
Ġnot ed
âĢ ĺ
Ġj ournal
Ġent ry
ature s
Ġconf ir
Ġarchitect ure
Ġbound s
Ġreturn ed
Ġsc ene
Ġang ular
ĠFurther more
Ġwork ers
Ġv irtual
ilar ly
ĠGe orge
, $
B ox
? âĢĿ
Ġscen ario
Ġcontinu ed
Ġconstruct ed
b or
Ġd ivid
Ġs plit
big l
ic ated
l ies
T ra
ers ion
ĠD iv
g rad
Ġfind ing
ĠM er
in ate
se arch
ow ers
Ġl if
Ġs pl
H S
U sing
on ical
g ithub
ĠW ed
c i
Ġwon der
L ast
fin ition
ĠL ife
^* $
Ġst ress
Ġred shift
Ã Ń
Ġindic ate
] $.
ond ay
Ġprot ocol
Ġ( )
Ġs outh
Ġpro ceed
Ġus ual
Ġst ruct
bt n
Ġex ponential
ĠM ost
Ġtest s
199 5
v a
Ġtr uth
Ġinde ed
Ġj ava
Ġmiss ing
Ġrot ation
Ġw ife
Ġsur round
Ġlim its
p a
f alse
Ġsatisf ying
pos s
h ouse
S L
Americ an
c f
Ġle mma
Ġsur vey
ĠJ ul
Ġatt ract
ĠPro ject
for ward
ch ang
Ġh ous
d es
en ess
ĠS ol
ĠJ ournal
Ġre call
L ine
t frac
Ġacc eler
cknow led
ash ion
Ġdim ensions
Ġal one
ĠL ie
Ġden oted
ĠF ore
Ġparent s
Ġscal es
le ctions
Ġim plic
ner gy
ĠAc ad
ateg ory
Ġp m
big r
Ġass ign
Ġa w
Ġwas n
z er
Ġlook s
m et
Ġthan k
Ġmaterial s
Ġit ems
15 0
Ġdec ided
Ġsepar ate
Ġbl ood
C L
id el
\ }$.
ĠF orm
ĠH ig
ĠS ervices
und red
ĠM ary
Ġcomm and
Ġcl ient
ĠOff ice
ĠRober t
Sy stem
ĠH istory
Ġse ctions
ar iance
Ġcandid ate
Ġre ached
ont al
lic k
ĠL ou
: =
Ġsem i
}\ ,\
Ġinst rum
lic ation
Ġsy m
Ġse c
en a
Ġtool s
al gorithm
Ġdis crete
Ġp ark
o om
st ruct
ran e
onal d
ĠG overnment
Ġcoe fficient
Ġ ri
ĠT wo
Ġf reedom
y les
ree k
Ġs en
ĠS l
$ :
Ġtr ust
ĠH el
ĠB i
Ġcustom ers
ist or
//// ////
Ġinter face
-- -
res ults
Ġmajor ity
M ar
Ġscal ing
d b
and a
or ation
Ġhand s
ĠP et
Ġdepend ing
Ġestim ation
ent y
Ġover l
Ġl ock
ĠB ig
ĠCh inese
ĠS M
k l
here nt
c is
] $,
ĠMed ia
es ter
P U
includ e
c uss
id en
pl an
ĠF riday
if ul
f ort
g a
Ġp le
A ct
c ar
R em
ĠM us
Ġp ain
ĠUS A
Ġprocess ing
ĠA M
ĠA ward
R ight
Ġro ll
ĠE ducation
ĠM em
Ġv ote
ĠG reat
od ay
Ġcomplet ed
Ġf ans
Ġqu e
Ġadvanta ge
t wo
sk i
Ġent ropy
}} )
ĠS ocial
Ġsh ot
Ġcomp osition
clus ions
Ġb us
av el
ĠGerm any
Ġch annels
ĠV ir
A V
set s
Ġ ion
sy ch
A ss
ĠA ut
ve ctor
Ġent er
ĠSc ott
l ines
Ġc op
Ġch ance
Ġgrow ing
Ġcontain ed
Ġd ust
Ġdeg rees
F C
ad ian
Ñ ģ
ĠâĢ ¦
ĠAcc ording
cal led
$ };
Ġst ability
g r
ĠT op
Ġ_ _
F R
ell ed
ys et
ĠFl or
I mage
hem at
Ġv oice
ĠJ ew
Ġn ation
aw a
G roup
ĠS ociety
go ing
ed s
st ein
Ġposition s
y r
Ġ= ==
Ã ¼
}[ \
Ġcar ried
pd ate
ĠEar th
Ġpre m
Ġnuc lear
Ġtechn ique
Ġs al
f old
Ġ{ $
Ġevalu ate
}} _{\
k m
s uch
Ġmove ment
ĠĠĠĠĠĠĠĠ Ċ
ur ity
bra ce
g reg
R el
ĠCl ub
Ġcele br
Ġf elt
Ġlist ed
Ġn one
Ġsol ar
n ull
Ġun known
atur day
ound s
ĠE ven
Ġrequire ments
ĠSund ay
Ġexplain ed
v in
Ġne ural
d oc
ĠIs land
Ex t
we et
Ġwe ights
ĠUn ion
ific ations
w rite
r l
b al
Ġreg ist
ĠMod el
Ġcl oud
ĠSm ith
Ġ\ (\
\ ;
ĠB ur
Ġpass ed
U ser
Ġmot iv
Ġspec ified
Ġ\ ]
ĠL at
n umber
Ġex change
con f
ĠB rown
ta il
pert ies
Ġcalcul ate
it iz
ill a
k es
Ġbro ther
rib e
och astic
ĠM ad
ĠM iss
1 20
Ġmax im
Ġprot ected
om y
ĠU s
ic ine
ed y
S ch
os is
ma ke
E W
Ġelect ro
Ġte acher
Ġh ar
ĠI D
ĠChrist ian
atal og
Ġgeom etry
ĠDe velopment
U E
Ġext ends
pt on
ĠJ er
Ġc at
r ich
Ġdes pite
Ġb in
Ġchall enge
Ġqu ery
Ġphys ics
C re
i as
empt yset
Ġre asons
Ġmulti plic
Ġrad iation
< !--
Ġstat istical
Ġg old
Ġpl aced
Ġrem ove
S ection
j oint
][ ]{
pt o
ĠPl ay
Ġc atch
ĠH ill
Ġcommun ities
et te
A ut
) )\
ĠM ax
par agraph
Ġadj ust
Ġimport ance
$ _{
ĠAs sum
D P
C ar
Ġdet ected
Ġrecord ed
ĠT imes
Ġsampl ing
and roid
ĠC up
Ġb illion
Ġocc urs
Ġad ding
Ġs end
Ġsa fe
Ġn il
as y
ĠDire ctor
] )
Ġrepresent ations
ind ow
Ġn om
Ġin nov
he tic
Ġdel ay
Ġvari ation
ob s
s ign
ĠT exas
Ġpredict ed
Ġeff ort
ĠIs ra
R ep
Ġwhere as
Ġex ception
Ġis ol
Ġth ous
ĠCar ol
Ġbi as
S ec
a ud
ynam ic
Ġobject ive
Ġis omorphism
199 4
ul ed
Res ult
Ġir re
Ġo w
ĠG ood
os h
Ġsum mer
ou nce
Ġapp oint
t iny
ĠComm ission
c at
Ġhapp en
ve e
Ġb r
Ġ$ .
Ġorgan ization
Ġunder lying
ĠSe cond
}) }
b u
Ġr ang
S ource
az ine
Ġse cret
=" #
Ġinteg ration
Ex p
Ġtele vision
F urther
Ġc ivil
Ġd rop
Man ager
d at
er ies
ro ad
Ġh uge
Ġs witch
por ate
Ġread y
Ġn av
Ġrel ax
i ota
Ġrespons ible
Ġcon ven
ĠC amp
ou ble
ĠH ome
Ġaccur ate
ĠBo ard
ip al
ĠT witter
Ġarg uments
Ġsp ent
Ġequ ilibrium
r ical
Ġto uch
l aw
ĠR E
Ġhe ard
Ġmin or
Ġapp lying
Ġeff orts
Ġimpro ved
Ġpa int
ve ct
ĠI R
Ġrem ark
Ġpro jection
D M
defin ed
ĠApp endix
ĠN or
Com p
Ġlearn ed
Ġplan et
bur g
n c
ĠSe c
Ġ rough
Ġ ^
ER T
ues day
Ġev ol
ĠSer ies
ĠM ex
Ġlead er
un ct
Ġcon vert
,\ ,\
}} .
ĉĉ Ċ
Ġrepl aced
Ġide as
Ġw ild
[ -
go ogle
Ġrem oved
ph ant
ĉĉĉĉ ĉĉĉĉ
a o
Ġsum mar
ĠG r
a ver
Ġneut r
Ġexpl ore
ĠPol icy
ad ding
Ġey es
Ġc m
ib r
ĠD en
Ġg rand
e vent
O W
ĠL ag
ap se
Ġabsol ute
bm atrix
Ġla un
ic ations
clus ive
ĠA dd
Ġmost ly
l ock
Ð¾ Ð
Ġchem ical
T T
Ġpl ays
Ġprinc iple
ĠH y
Ġd oc
F act
b rid
| }{
Ġan c
; </
Ġapp eared
is ely
Ġf irm
d em
Ġcon j
Ġcoordin ate
ph ys
ĠT or
ĠL i
======== ========
Ġ ur
x x
}} }\
s at
m osp
ĠCent ral
int eg
ĠM onday
roll er
en ame
Res ponse
ĠAfric an
ater ial
Ġor bit
ĠM useum
ĠPe ople
Ġs ales
; &
con dition
ĠR ock
Ġext end
ĠB ill
Ġm ale
Ġpower ful
Ġnam ely
M in
Ġdynam ic
ĠM icro
ĠB ank
Ġsufficient ly
Ġvert ical
Ġassum ptions
) })
A ction
il ing
G o
Ġsign ed
og en
nes day
Ġdirect ed
ust er
Ġm ur
B ack
Ch ar
Ġop in
per form
Ġevent ually
Ġsett ings
l ow
y an
Ġh op
ĠD uring
ens us
Ġcharacter istic
row ser
Ġn et
ph p
Ġfil es
d ir
Ġmod ified
pect ive
Ġopen ed
script style
Ġp seud
Ġdes ired
=" ../
p o
Ġg un
ĠE very
Ġ ×
ĠTechn ology
Ġs le
ĠâĢ ¢
Ġph one
Ġpredict ions
C lient
Ġhe ar
cl aim
^{ *
Ġsuggest s
ĠIn formation
ĠAustral ian
Ġembed ding
st able
Pro of
ad ow
Ġm apping
ĠS ta
c are
rib utes
k o
Ġem pty
ic ies
Ġsp orts
Ġdist ingu
eli hood
Ġh undred
st ain
R I
Ġapp arent
ĠL u
am m
Pro perty
Ġsong s
Ġlum inos
Ġtechn ical
column width
it ors
Ġconsequ ence
Ġra re
cal e
, {\
not ation
Re c
Ġp ages
Ġepis ode
ĠL os
Ġser ver
Ġaut o
ph as
ĠInd eed
Ġmor ning
t arget
v ari
) </
Ġinvestig ate
Ġcan cer
Ġform at
Ġa ware
---------------- ----------------
Ġrecomm end
ay lor
Ġres ist
ly mp
math op
] {\
Ġord ers
$ &
a us
Ġstat istics
Ġkn ew
ig ger
Ġregard ing
}_{ -
cent ury
Ġab und
Ġbl og
Ġnon linear
Ġquad r
ĠMin ister
it ative
l s
ĠSh ow
maz on
ĠThom as
multi row
script size
Ġopen ing
Ġreturn s
a fter
Ġt end
U t
199 3
Ġveh icle
v art
T S
Ġclaim s
Ġcom plic
Ġm ixed
Ġp ush
ip ment
Ġblock s
g ency
Ġjo in
Ġk illed
d el
Ġsom ew
ic ate
Ġchalleng es
Ġar riv
ĠThe ir
ĠT ype
St ream
ĠE nd
ĠA tt
Ġrem ember
pl ot
ok es
}) =
Ġcam era
. ;
em por
v ature
urs day
or ial
il ed
c ut
Ġco inc
n n
Ġqu arter
Ġf erm
ĠFlor ida
ou rier
de c
d f
hen s
Ġcom mercial
stand ing
ult ane
L C
Ġvill age
T op
Ġmatch ing
> (
sl ant
Ġgrav it
ĠJ o
H ead
Ġrec ords
ad ing
qu ery
od ed
os es
\ }$,
ĠB ecause
Ġs un
Ġtrans mission
Ġfail ed
Ġre li
i able
199 2
Ġ\ !
Ġsh ock
ur ations
Ġd aily
}} ^{\
Ġtra ffic
un it
, ...
ĠĠĠĠĠĠĠĠĠĠĠĠĠĠĠĠ ĠĠĠĠĠĠĠĠĠĠĠĠĠĠĠ
Ġl ies
al gebra
Ġconst ants
Ġin verse
Ġm ission
sl ash
Ġin iti
Ġser ve
Ġener gies
) }_
Ġrese ar
ĠT own
. /
ĠT ur
opy right
P D
Ġturn s
Ġjo ined
Ġmed ium
Ġcomput ing
| }
Ġloc ally
198 0
Ġst o
at o
Ġconfir med
Ġand roid
act ic
Ġlook ed
Ġa part
Ġpref er
p y
Ġto ward
ĠA G
ĠIt s
Ġcont rad
br as
ĠEng ine
ĠB u
Ġsu itable
ĠV is
Ġcall s
Ġdriv ing
ĠR oyal
Ġpl us
ĠP eter
Ġs ociety
tikz picture
ĠJ un
Ġbenef it
D es
it ness
al d
Ġcl imate
ĠCh ild
Ġdiag onal
P O
d escription
Ġd ed
ĠL y
ĠO per
Ġfem ale
Ġbe g
Ġdiag n
Ġst d
Ġderiv ative
fin ished
Ġla unch
ĠS aturday
Ġm obile
;\ ;\
Ġcre ating
i pp
Ġfour th
ĠM el
Ġch urch
ĠB oth
Ġstart s
Ġhand le
ear s
long rightarrow
P oint
L emma
D ep
Ġke pt
b ib
ĠN S
ĠH ot
ch ron
Ġsatisf ied
Ġbenef its
Ġw ants
Ġ eth
he ta
h igh
ens ities
ĠM ass
Ġ ^{
ig ration
Ġmain ly
ĠT our
s g
Ġthe ories
Ġcor onavirus
Ã ¶
D ate
In put
Ġplan ning
Ġd aughter
ĠWe b
Ġ- >
F O
d r
Ġj et
Ġcomput ational
ĠL og
Ġpro pos
ĠS k
ĠS pe
Over ride
Ġprop ose
T V
b an
Ġper haps
Ġphot on
Ġchang ing
Ġpattern s
Ġbehavi our
b ug
Ġman ner
ab y
Ġmet al
ĠSt ep
Ġsm art
math it
ĠE conom
Ġmod ul
Ġag ents
Ġtri al
Ġbusiness es
et al
ge bras
Ġm aster
Ġh ospital
Ġsh oot
mod els
re nce
Ġexplicit ly
Ġsu stain
ic ago
ot ype
ĠCong ress
j e
O ff
M ax
pro ject
Ġh idden
}) ^
M B
in n
medi ate
r as
Ġa st
Ġb os
> >
Ġsub t
al ian
el ess
om etry
avel ength
ĠR oman
ĠPh ys
b p
par ison
ide os
iven ess
Ġmax imal
ĠS uch
c over
Ġpa id
Ġm ill
ĠB et
& =\
ĠG rand
Ġdis app
ĠK ore
Ġs ave
} ~
ĠV ict
ĠFran cis
Ġsp irit
Ġaff ected
at re
figure s
Ġprec isely
Ġj our
ed er
o z
Ġp oll
Ġex cell
AT ION
Ġb ool
if act
Ġneighbor hood
m em
rap y
S ome
Ġcharg ed
: =\
H ence
ing ly
Ġdeath s
1 10
Ġsc hem
G l
âĢĿ ,
L ink
Ġst orage
( [
Ġsc hed
G iven
H ome
25 0
Ġlet ter
P L
Ġdi am
} |\
ĠD E
ĠC are
Ġl ab
ib ration
ri end
Ġart ist
Ġsequ ences
Ġd og
Ġt rivial
ĠL ong
Acc ording
Ġpat ient
P M
ĠS U
Ġt ail
an ish
S m
I ST
Ġvar iance
Ġmarg in
Ġun ion
Ġimplement ed
+ (
fl oat
r ish
Ġal t
Ġallow ing
Ġder ive
\ }\
T C
D R
Ġcontin ues
v s
Ġdel iver
fl u
Ġw aves
/ (
ĠComm ittee
Ġconf idence
Ġad m
Cons ider
ĠT uesday
ron ic
ĠE lect
Ġposs ibility
ĠS il
ĠC am
ist an
ist ent
Ġdis pers
ĠJ ose
fere d
Ġint ensity
ĠH en
L abel
L a
l ib
Ġt ick
= .
Ġfeed back
Ġcompet ition
Ġextrem ely
Ġw el
ĠW omen
Ġloc ations
ĠF ree
Ġhapp ened
Ġcent re
ĠAng eles
ĠW estern
ul er
f i
O ther
i pped
St art
ris is
ER S
f unc
^{ (\
ph one
Ġtre es
ock et
ple t
Ġw at
g ers
ere nce
Ġ }{
sub sec
Ġre ality
Ġf ederal
ell er
re land
Ġdi ver
im ages
O per
ON T
arg s
F I
Ġlabel s
Ġview s
a uthor
}} =
A m
Res ults
Ġat mosp
cl ose
B ase
se lect
G u
G ener
ĠR ussian
Ġasympt otic
il bert
Ġsuggest ed
rop ic
Ġn or
in it
mag netic
Ġcapt ure
t ings
ĠRich ard
ĠF und
ĠVir gin
aram s
w est
Ġo il
Ġsp ot
Build er
' d
im g
y er
u um
Ġcandid ates
g ar
ograph ic
ro sc
Ġ$ ,
Ġtop ological
are n
Ġact s
Ġb ra
Ġexpl o
\ |\
ĠW ind
al a
ĠWed nesday
Ġgeneral ized
i em
Qu ery
Ġinst ant
Ġinvestig ation
A rt
Ġ Î
c hen
Ġcon vers
dition ally
Ġlaw s
Ġwrit er
not ag
ĠA R
ĠC all
Ġc overed
Ġal le
cl ient
se cond
Ġcateg ories
\% $
Ġtre ated
Ġw ish
Ġe q
Ġemploy ees
ĠCommun ity
opt ions
w orld
Ġdo or
fin al
ĠP an
Ġtri ed
ar n
u ps
od ies
ĠU p
Ġmon itor
V is
ax is
ĠArm y
Ġpack age
ĠT im
Ġc old
Ġhigh light
ell a
ĠO ffic
Ġthan ks
Ġf rag
Ġgrav ity
Ġs ch
co pe
Ġinter act
ĠL ear
Ġ{ };
ĠJ ac
)-- (
Ġ\ &
wh ite
Ġt it
Ġa head
Ġel im
$ {\
ĠG iven
ĠSt and
G R
vart heta
ed ge
Ġhapp ens
Ġband s
but ton
D D
head er
names pace
med skip
ol a
Ġrad ial
ĠL ee
Ġdescrib es
Ġcertain ly
m f
Ġun less
B M
t an
du le
ĠTe am
Ġle aves
ĠFran k
Ġst ochastic
ĠV er
}$ }
Ġk ids
ĠGl obal
Ġupd ated
Ġquas i
Ġt ag
Ġmom ents
oth ing
ĠO h
Ġbirth s
ĠM ont
C al
Ġpol icies
Ġcan onical
ĠWe ek
E ng
Ġold er
Ġt ight
H el
Ġpath s
St atus
B O
Ġpart ies
Bl ock
Ġem phas
erm an
Ġdynam ical
Ġsubst ant
art s
Ġflu id
Ġmar ried
Ġj ump
ĠCent re
199 1
pre c
ser ver
Ġinter section
Ġreveal ed
Ġpr ime
ĠArt s
Ġcomp at
ĠN one
Ġb udget
Ġrefer red
Ġbul k
Ġc ert
per iment
Ġcy cl
m n
ad y
Ġof fered
j av
Ġart ists
Ġre produ
p arent
form al
Ġfocus ed
og onal
i ate
Ġfore ign
pl oad
ĠB ack
c lear
h ow
ĠG en
sc he
Ġeconom y
Ġst ack
j i
Ġann ual
stit ution
Ġd ashed
ri age
ĠM il
}{ *
Ġoper ating
ĠPro fess
âĢ ¢
h ang
ĠB uild
Ġs izes
Ġcover age
Ġphot o
ĠB ob
Ġat ta
A p
Ġra il
ĠN ULL
cy cl
Ġst ru
ig ital
Ġf ol
ench mark
M on
Ġhelp ed
}\ |
Ġv irus
ver b
Ġcl ick
Ġre ct
ĠJapan ese
Ġhypot hesis
ĠPro v
s pe
Ġad vert
ad er
Ġmorph ism
R un
Ġthink ing
os c
Res ource
pro duct
ĠT re
Ġbeaut iful
Ġc row
ĠP ower
et ries
ð Ł
Ġp ool
X X
lic t
Ġinvest ment
Ġb ill
Ġac ad
Ġnecess arily
Ġbal ance
Ġapproxim ate
ict ed
Ġposs ibly
az z
Ġcol lected
Ġtest ed
Ġsim ultane
al let
$ {
ĠJ ud
in du
Ġh our
Ġstrateg ies
ĠEx p
ĠL ake
Ġfail ure
ortun ately
av or
ĠE nergy
ĠOb ject
etail s
ĠYou ng
un finished
eff ect
ul se
Ġevalu ated
Ġd imensional
Ġsign als
Ġquant ities
ĠI II
ex pected
ĠL ove
Ġdemonstr ate
ask et
Ġsk ills
> \
Ġr ig
Ġw ood
d iff
l ast
ĠD u
Ġis su
ĠI S
Ġgo als
he nt
s a
Ġsim plic
Ġle aving
N av
ĠM ur
ĠR un
Ġfund ing
p ower
ne ver
ig inal
Ġcol lege
ĠTh ursday
E l
el se
Ġli qu
Ġin come
lo op
ĠG ame
W id
More over
ard en
ru it
Ġqu ark
Ġrest aur
pro perty
W ork
Ġattack s
Ġequ ality
ĠG ames
empt y
Ġf lex
Ġtemperature s
Ġt ransp
ĠW ell
Ġ( {\
ug in
r ust
Ġconduct ed
Ġ$\ {\
Ġenc oura
er ior
ĠDes ign
Ġown ers
Ġa p
Ġse a
Ġr ational
ne ctions
Ġcon v
Ġmanag er
Ġinteg rated
d esc
Ġanaly z
ĠB as
Ġvict im
Ġcur vature
12 8
Ġtra ce
Ġd rug
E m
ĠAt l
ĠSp ace
ari os
Ġopp osite
su pport
M ark
Ġadopt ed
Ġcry st
ĠAn y
ĠL in
Ġexpl an
ad s
ig an
n ight
Ġsh ip
ĠW ay
Ġsk y
Ġs ides
Com ponent
pt ic
ĠAcad emy
ĠLou is
Ġread er
ĠA ND
sc ope
H C
ro b
% )
Ġra ised
poss ible
h ab
Ġluminos ity
pl ane
Ġgener ic
Ġprof iles
ĠW ood
Ġd ream
ĠMart in
Ġhapp y
Ġord ered
ad ata
ap es
ĠGe org
om in
Su ppose
ellig ence
li k
ĠÂ »
Ġassum ing
S er
requ est
J ohn
T oken
Ġout er
f ol
ĠC ath
ã ģ
st ructure
point s
p ush
O ptions
H O
S um
ic ian
g eneral
Ġcirc um
ĠRe port
Ġmag net
j a
as ion
se m
rast ructure
Ġcorre ction
phant om
Ġb rain
Ġbu ff
Ġn arrow
( -\
Ġenh ance
Ġsupp ose
Ġimprove ment
ce an
f ind
app ed
ĠO lymp
Ġr ich
j ust
Ġd ie
Ġdat abase
Ġaspect s
e lect
ier arch
av ed
st s
k ins
Ġofficial s
ĠCan adian
ĠH uman
M E
text color
l arge
Ġart icles
ĠR eturn
Ġex pos
ĠB r
Ġsupp ly
Ġspe ech
Ġspec ifically
ut y
Ġre action
Ġs ession
Ġb undle
ĠD et
app end
Ġpur poses
Ġindic ated
b our
Ġinvol ving
back slash
b et
ĠC y
ff ect
ĠC ov
C ase
! \
N O
Ġdef e
ov es
Wh y
ar ity
ĠL ic
P o
ĠRuss ia
Ġinc ident
s d
ĠA v
C K
Ġ< <
Ġd x
N umber
Ġeigen values
Ġpart ner
Ġfor ced
Ġset up
semb le
Ġent ries
X i
F unction
Ġ" ""
ens es
Ġcon vent
Ġpriv acy
Ġpl as
ĠM ult
Ġc itiz
Ġdis s
Ġar rest
Ġrec over
z en
ĠF amily
Ġdetect or
ta ke
Ġopportun ities
ob j
U s
N E
l ife
atur ally
ĠI reland
B o
ĠA rab
s ch
! ]
e lement
Ġfin ished
ent ry
us band
or a
^* \
Ġd edu
ri p
ĠAb out
r ins
Ġfe et
ent ed
sh ow
ĠW ho
6 00
ĠJ oe
ch ain
19 70
Ġf aster
Ġl ibrary
Ġfl oor
Ġl ie
h u
C heck
Ġcharacter istics
ã ĥ
Ġbo olean
Ġpract ical
ĠZ eal
es ian
ĠSe cret
B R
Ġmark ed
Ġme as
Pe ople
ist ed
Ġappear ance
ĠWh y
ĠI ll
Ġw arm
Ã ¤
ĠChrist mas
Ġk in
h ar
Ġf an
Ġca ref
Ġf ashion
Ġcrit ic
iss on
ĠCh icago
Ġfluct uations
T wo
cor ollary
Ġocc up
ĠJ im
@ {
Ġ ,\
Ġme ant
. \\
Ġst ock
t w
Ġdisc rim
) ^\
Ġcomm it
Ġequival ence
Ġro ute
D C
Ġb attle
M O
Â ©
Ġelectron ic
Ġrepe ated
m eta
fin ite
so le
equ ations
Ġleg is
Ġconfig urations
Ġex clud
st ood
B L
Ġquant ity
Ġ\ ,\
Ġexc ited
Ġcoupl ed
th let
Ġins ert
Ġb ed
Ġlaun ched
Ġorig inally
ou pl
au gh
R R
P age
ĠM any
Ġfig ures
00 1
ĠL im
Y PE
sc ape
ĠC oll
Ġd anger
Ġvis ible
Ġmay be
Ġey e
Ġt urb
the re
$. }
ĠL ine
ĠZeal and
li ament
Ġed itor
" ]
Ġequ ipment
M ult
rim inal
Ġdr ink
t ree
ic ians
Ġmix ing
Ġident ical
Ġconf irm
Ġresid ents
Ġsp ac
he t
Ġcharg es
ru ctions
Ġgu ide
neg ative
Ġm ask
rom e
Ġb ond
ĠC H
ii i
Ġwid ely
am ing
Ġ ice
ĠE U
ĠH or
Ġde but
B I
T O
g reen
Ġdire ctions
Ġdown load
Ġnot ion
Ġjob s
nav bar
Ġf ill
f ull
m om
^* (
angu ages
ol es
ĠCom put
Ġs ell
Ġact ing
Ġb oy
il ation
ĠSt at
Ġear th
N on
footnot es
Ġco ach
riv acy
irc raft
Ġpers pective
R eturn
par allel
ĠFil m
Ġeffect ively
ĠAl gorithm
198 9
ĠM ethod
ĠSe curity
ĠDiv ision
A re
Ġbe coming
Ġtalk ing
h ot
Ġfl ight
Ġexpress ions
ĠPar is
Ġw est
Ġclin ical
ars er
ĠO ld
c oll
' _{
R L
st atus
18 0
ĠIsra el
f a
Cont ent
Ġlow est
Ġv ision
Ġn ice
Ġperturb ation
ĠEn ter
Ġdisc overed
Ġunivers al
w a
Ġcorre ctions
Ġvers us
footnotes ize
Ġessential ly
Ġcred it
Ġde ploy
c rit
Ġbas eline
ĠL ast
m es
Ġwh om
Ġst uff
Ġinitial ly
Ġbig gest
Ġcons ult
Ġgu ess
ĠCons ider
f rame
Ġshe ll
in ating
ĠĠĠĠĠĠĠĠ ĠĠĠĠĊ
p arameter
ĠC EO
Ġsp an
us al
L i
Ġp ri
rel ation
AM E
Ġf resh
Ġpe ace
ys elf
ĠE p
Ġfl ag
Ġ$ ^{
Ġdecre ase
Ġaud ience
Ġdevelop ing
Ġgeom etric
as tern
As sum
p op
Ġmole cular
M at
ĠW al
h or
Ġredu ces
ĠS aint
C N
Ġdepend ent
com put
ĠSpec ial
if er
ĠCh ief
ĠMed ical
N ull
Ġf itting
Ġtrans lation
Ġat oms
ubl ished
Ġperform ing
Ġch ief
Ġuncertaint ies
S H
Ġsens itive
Ġem pir
sy mm
Ġenvironment al
A E
Ġnormal ized
m t
Ġg one
ub ble
l en
et ch
Ġwin ning
Ġph ases
Ġan om
Al though
Ġdam age
Pro v
Ġreason able
Ġden se
al ities
Ġgravit ational
ĠW ater
| ^{
ĠGe V
Ġhouse hold
ĠC ast
ĠC r
all ery
ac ent
duc ible
Ġuniform ly
Ġorgan izations
ic ular
ic ed
ĠC ase
Ġf ra
Ġcon clusion
e an
Ġw avelength
s i
Ġc ities
Ġf re
Ġsub group
Att ribute
Ġvac uum
Ġfind s
Ġfa ith
ot on
ĠHig gs
Ġdest roy
Ġhel ps
ĠChar les
Ġcon ference
pro v
st at
sk y
Ġsen ior
M em
Ġag greg
ĠVict or
Ġf ont
Ġar c
ĠJohn son
Ab out
G a
Ġclos er
or row
Ġsens itivity
8 00
ĠA mazon
Ġcho ices
Ġsepar ation
ĠU se
Ġfam ous
Ġk ick
$ ^{
Ġpre par
Ġresid ual
back ground
Ġend ed
serv ice
ate ver
m al
ĠP enn
Ġemploy ed
Ġm es
ĠN ext
j pg
g al
du ction
sh ire
down arrow
rang ian
Ġupd ates
cl ine
ur ance
Ġmetric s
Ġcould n
ĠApp le
sequ ently
Le ft
ĠCarol ina
k ern
Ġded icated
pon ents
Ġis ot
16 0
ĠF ield
Ġpolar ization
ĠVal ley
Ġinterpret ation
Ġth read
ĠKing dom
t ure
circ le
Ġdemonstr ated
Ġexcell ent
Ġsee ing
Ġsc ope
Ġmat ches
ĠU N
Ġm iles
Ġc ars
Ġparticip ants
ĠSu ppose
Ġgl ass
Ġcomm ut
Ġprec ision
Ġbe at
P H
Ġconcern s
in er
ĠT aylor
ĠF estival
H istory
ĠS om
Ġperiod ic
erv es
Ġgener ating
Ġend s
ĠG ener
ĠN et
K E
ĠN Y
| $
Ch ild
ĠIntern et
s or
is ot
ĠSp ring
Ġsol ving
ymm etric
Ġad vers
- (
Ġsum mary
ĠDe v
ram ework
I O
Ġe ast
[ "
est ic
Ġcru cial
Ġl ift
ĠIn vest
sh ort
Ġsecond ary
Ġscen arios
Ġl abor
Tr ue
Ġsh ut
un te
Ġbro ken
Ġcontrib ute
*} [
ĠJ ones
ĠN on
IN T
ject ure
ĠR am
m ode
ĠD own
od d
Ġbre aking
ĠL ibrary
Ġent ertain
M ay
cuss ion
cont rol
Ġpr ison
} /\
Ġra ise
A nother
Ġnumer ous
reg ular
~ (\
Inst ance
ĠF ourier
Ġfac ilities
au g
G S
Ġkeep ing
p rivate
Ġv ideos
ĠĠĠĠĠĠĠĠĠĠĠĠĠĠĠĠĠĠĠĠĠĠĠĠĠĠĠĠĠĠĠĠ ĠĠĠĠĠĠĠĠĠĠĠĠĠĠĠĠĠĠĠĠĠĠĠĠĠĠĠĠĠĠĠĠ
Ġdisc over
Ġatt end
Ġvari ations
Ġbo ost
H om
up date
Ġclos ely
Ġiter ation
ĠF oot
Ġph il
Ġdeg ener
empor ary
{ (\
ult ural
Ġb urn
if est
Ġaud io
og ram
ĠD C
Ġin fer
urb an
Ġfrequ encies
at iv
y e
al f
ĠC A
Ġth in
Ġrepresent ing
Ġcl ients
198 8
ip eline
bold math
Ġh usband
ĠMex ico
Ġsex ual
) (\
r ateg
Ġmanag ed
Ġsc ores
ĠV iew
Ġcontroll ed
Ġhistor ical
cont inu
Ġdevi ation
Ġd oll
qu ant
Ġprote ction
x ml
Ġinvol ve
Ġm yself
Ġass igned
Ġcor ner
ch or
Ġp et
ĠR o
Ġsh o
Ġex ceed
B ook
10 1
$ }}
ĠS and
Ġveh icles
por ation
ran ce
AR T
ĠA wards
pt r
G E
ĠM en
ĠL ab
Ġen able
Ġ+ =
' .
ĠS C
Ġcre ation
Ġd river
p red
Ġind ices
Ġhal o
el a
Ġow ner
Ġcon volution
Ġacc ret
cl ip
T ag
Ġbuild ings
Ġver ify
Hand ler
Ġstraight forward
un icip
ĠK ar
Ġr id
form at
Ġmodel ing
LA SS
Ġpres ents
anc he
Ġr an
Ġex erc
Ġgl ob
Ġdoc uments
ject ive
Ġex cess
Ġinter mediate
G A
ĠAd v
Ġsecond s
inst ein
Ġabs ence
Ġcustom er
ĠP C
K e
Ġcar bon
Ġrecogn ition
ĠOn ly
Ġcom fort
Ġm ac
s quare
Ġknow s
Ġdec ades
er ry
ĠD M
Ġc risis
mult line
198 7
Ø §
Ġadminist ration
Ġmess ages
Ġinst ances
Ġquadr atic
ar ithm
Ġre tain
ĠG re
depend ence
de p
ĠI ran
Ġabsor ption
AB LE
S te
ĠOn line
os oph
w an
}$ \
not e
ĠG R
ict ures
D ec
od cast
ul ating
ĠInd ust
Ġprinc ipal
)} (\
u cl
Ġoff set
12 5
Ġn ine
ĠR ights
ĠCh ris
ĠC R
Ġst ead
Ġtell s
Ġentire ly
Ġcrit eria
ĠA T
) }.
up arrow
Ġschem es
all s
ject ed
ĠS N
s rc
ĠPol ice
n ol
Ġ( (
Ġchalleng ing
ĠT O
Ġelect rons
B H
l ie
eg er
ver age
let s
Ġc atalog
Ġsuccess fully
ĠS D
ĠL o
u zz
res p
Ġeas ier
ĠW rit
Ġtop ic
Ġvacc ine
ian a
erson al
ĠĠ čĊ
Ġp owers
Ġca uses
Ġopin ion
w ave
ĠSp anish
OR T
su pp
M T
Ġanal ys
Post ed
Ġp sych
Ġwe ather
Ġtri ang
ĠN OT
ur ies
Ġdec isions
ĠRe al
Ġthous ands
Ġneut ral
ak a
ĠE X
Ġform ulation
ĠAs ia
F S
Ġt ang
Ġun iverse
Ġstrict ly
E ach
$- $
all ow
Ġdivid ed
Ġa maz
ĠA nother
ĠIt alian
II I
Ġtw ice
es ides
ĠB ra
Ġcult ural
ĠA uthor
it ory
im ation
ĠS E
ĠAg ain
ct ic
ĠVirgin ia
P RO
D ist
L R
or ney
h fill
her ical
t rack
ĠIs lam
Ġsur faces
ce il
Ġext ent
Ġorb ital
ĠO R
j son
W rit
Ġexpect ation
Ġtempor al
ĠĠĠĠĠĠĠĠĠĠĠĠĠĠĠĠ ĠĠĠĠ
ud d
AN D
im ately
\! \
w ater
ĠM ot
b ot
Ġtop ology
ĠS ports
Ġw itness
ĠOr gan
25 6
Ġunder stood
Ġreview s
Ġleaders hip
W E
Ġle ague
Ġviol ence
h ard
}. }
Ġrelations hips
Ġsc ript
raz il
Ġprec ise
ĠL ike
Ġcomple ment
ĠSc iences
Ġinsp ired
ĠIt aly
f ortunately
Ġyour self
ĠH on
the less
B U
Ġ ing
Ġh ierarch
stack rel
Ġtransition s
D on
Ġcover ing
erm i
ĠHe ad
Ġre ward
Ã ¢
ca pe
Ġstandard s
gl obal
Ġp il
Ġvers ions
&= &\
ĠSc ot
n i
Ġinvestig ated
Ġautom atically
Ġorth ogonal
Ġf uel
Ġstre et
ĠA ud
ĠM A
ail ed
c ard
Ġpolynomial s
l at
w t
Ġwe ap
u f
og ether
Ġoff ering
Ġf ib
Ġpotential ly
Ġinter ior
st one
Ġgu y
Ġp uls
) _{\
Ġcolumn s
ã Ĥ
ian o
U p
ac ific
Ġd ensities
Ġdra wn
ĠP S
is er
B uffer
Ġhom ogeneous
L ong
asc ript
Ġscient ific
B E
ut ch
Ġoffic er
{ |
We b
Ġsystem atic
out put
ĠH a
ĠEx ec
Ġre ferences
Ġtru ly
Ġ\ |\
ik i
inv ariant
Ġdom inant
at on
ĠE ll
e per
ph ase
Def ault
p ool
i y
Ġcontrol s
Ġtrac ks
Ġstrong er
Ġapp rec
Ġco ast
Ġintrodu ction
rins ic
ro g
M ed
\| _
Ġp apers
form s
Ġ }}
Ġdecre ases
Ġresear chers
left arrow
h l
Ġdel i
Ġin clusion
Ġdiff usion
s en
ĠF ood
Ġpass ing
Ġz one
Ġconj ug
$ ^
? ?
ĠP oint
Ġfavor ite
Ġcol our
Ġf ear
Ġsu pers
ĠS ar
=\ {
ĠCol or
Ġ{ }
f ast
th on
math tt
Ġissu ed
l ook
Ġanim als
ud den
Ġed ition
ien ced
Ġwor st
Ġneutr ino
ĠJ on
d ens
Ġse vere
lo pe
Ġl ens
Ge V
Ġn aturally
ĠP y
Ġv ot
is ters
Ġwor se
Ġmed ian
end ar
Ġsubsequ ent
Ġfind ings
Ġanaly tic
ĠI d
bin om
Ġdef ense
) ).
V D
Ġclaim ed
198 6
Ġsh aring
Ġmult ip
Ġth rows
ĠSen ate
prob lem
Con n
Ġint ended
Ġmat hemat
ar ian
dom ain
t z
asket ball
ĠA ff
& &\
Ġsp ring
Ġ _{\
yn c
. $$
Ġrestrict ed
V ersion
ov a
RE F
ĠT em
Ġadv ice
Ġrandom ly
i ated
k ers
ĠBl ue
t yp
ĠFor ce
Fact ory
Ġcomp re
ra ise
Ġcontinu um
Ġhe ro
Ġadv anced
Ġext reme
Ġrespect ive
Ġmark eting
Ġhy brid
Al so
Ġdeli very
Ġc odes
Ġdepart ment
Ġlik elihood
Ġliqu id
Ġhoriz ontal
Ġillust r
198 4
Ġem ot
in ity
Ġfeel ing
z y
Ġh air
Ġdriv en
ut ely
Ġstand s
V M
Ġexper iences
Ġp rices
Ġclass ic
Ġrepresent ative
Comm and
Ġp p
$ '
M en
eng er
ph y
Ġsupport ing
Ġstat ements
Ġk ill
ynam ics
S ON
ob serv
Ġwould n
ĠM ike
ĠCor ollary
Ġreg ression
Ġinvol ves
Ġmov es
Ġcorrel ations
text sf
Ġcon nections
th ick
Ġexec ution
Ġsimilar ly
ĉ ĠĠĠ
ĠC ho
Ġderiv atives
b c
Ġvary ing
12 3
Ġjour ney
en ced
Ġtri p
Ġsp ort
Ġ\ [
ĠC ard
Ġmot or
param s
w hen
Ġhoriz on
ĠL ight
Ġproport ional
Ġare n
L oad
ast e
Ġout come
ĠP age
ĠAnd rew
ĠEx t
fil ter
" ).
inst ance
ĠC ross
E ar
d rop
W ill
Ġa ircraft
Ġper mut
in et
st d
to ol
Ġsat ell
ĠÂ ©
Ġl ived
Ġcommon ly
Ġmet all
Ġapp eal
$\ \
ĉ Ġ
Ġin fo
ĠB ow
Ġn ative
Ġ elli
ĠInst ead
cknowled g
Ġgu itar
rib uted
ĠH istor
B B
Ġgener ator
Ġdist ances
ger y
ir ror
An y
it age
text up
Ġf illed
me asure
var rho
old er
respon se
Ġsim ulated
ĠC heck
m ond
Ġalgebra ic
force ment
d ash
ĠW all
ost on
ĠPol it
ĠĠĠĠĠĠĠĠĠĠĠĠĠĠĠĠ ĠĠĠĠĠ
ĠB ern
pro pto
Ġbroad cast
u gh
_{ +
Ġweight ed
al i
O pen
19 60
Ġseem ed
Ġc ir
ĉĉĉ Ċ
ath an
int s
ĠAn alysis
Ġident ification
Ġdispers ion
Ġb enchmark
Ġ ~\
Ġrough ly
à ¥
M D
im b
ĠV an
i ples
Ġanaly ze
] ^
Ġconsist ing
n m
Equ al
ul ner
ion e
p res
at i
ord ers
" ),
se p
Ġcall ing
ili ar
Ġf ant
Ġb an
Ġsomew hat
Ġ- --
Ġadv ance
Ġs ale
mid rule
id ay
U nder
Ġ\ {\
U I
ĠA L
Ġpan els
rep resent
Ġorgan ized
Ġhe av
Ġbeg ins
ĠS ep
Ġm ountain
ress ive
Ġ( "
ir ds
ĠM iddle
h av
ĠCon n
Ġun iqu
sy m
Ġrec overy
Ġnot es
Sc ript
men u
st e
l ayout
Ġpie ces
are st
s ince
h h
) &
ĠL ive
gy pt
est ion
ist ence
Ġis land
w s
Ġreconst ruction
b lem
in ction
ĠSim ilarly
c ategory
ĠP op
ĠO nce
Ġlarg ely
\ },
Ġpost ed
ĠF ort
Ġact or
Ġm eta
Ġdomain s
Ð »
IN E
D O
ĠB iden
Ġcr ime
us hed
ĠAmeric ans
ĠMicro soft
Ġaccount s
Ġfac ility
f riend
}^{ +
Ġextract ed
uck y
Ġconcent ration
s es
198 5
, .
Ġg ate
ig er
' ).
Ġsign ature
h r
Ġmod ules
Ġdefinition s
ĠJ eff
ĠGeorg ia
ĠN ight
ĠP A
Ġdefin es
h ave
Ġsupport s
he red
L ocal
g ather
D T
J an
Ġrespon d
im its
est ed
Ġag reed
Ġsub space
p ot
Ġw ww
script scriptstyle
Ġprep ared
T em
}[ !
ĠJose ph
Ġsec ure
ĠJ es
ag ram
C F
d ensity
miss ions
ST ATE
ĠStud ies
com ponent
P at
D r
it an
Ġdiv ision
Ġincor por
ĠWil son
ĠG overn
ĠL ord
Ġtraject ory
ĠL ink
Ġ{ $\
}{* }{
J ust
Ġdom inated
er ion
ĠK en
Ġcook ies
Ġsurround ing
ĠK ey
conn ected
ĠCath olic
ura ble
Ġnear by
contain er
ĠMark et
c ross
Ġsupp osed
Ġep och
over set
ĠGu ide
Ġrema ined
ut or
Ġst ations
Ġrat ios
ĠT erm
Ġplas ma
A g
Ġcirc uit
Ġcomp osed
Ġbring s
ĠC NN
Ġprote in
Ġm ental
\ }.
Ġann ounce
leq slant
) [
Pro position
n ings
ĠT ri
Ġrelig ious
Ġrestrict ion
Ġc av
ĠI T
Ar g
Ġw ire
}) ^{
ĠG L
Ġfund s
Ġdiscuss ions
Ġro ut
text normal
ĠG ar
f ound
ĠM S
ex ists
ĠS i
Ġfact s
ĠS a
ĠW he
Ġinf rastructure
Ġl anguages
ĠL iber
C ON
Ġmark ets
! âĢĿ
St ep
comm on
ic an
ĠWilliam s
Ġtrans verse
u on
Ġsk in
ĠP lease
com b
Ġf its
Ġorient ation
Ġpro position
ĠF ederal
u er
ĠAd minist
ĠH ospital
d i
ĠB ol
Ġaccret ion
Ġdou b
Ġillust rated
ad ium
G en
ro ot
ĠS ign
Ġf if
Ġprodu ces
Ġpract ices
b ell
C ref
Sc he
am in
Ġfound ed
rack et
ĠL ore
w er
ĠC a
Ġa ug
s igned
Ġirre ducible
Ġexec utive
Ġaccept ed
) }$.
s n
d ifferent
Ġdif fer
Ġinput s
Ġwait ing
iction ary
Ġfin ish
Ġsimultane ously
ĠR a
ib ilities
,... ,
Ġd ip
ig u
Ġr ating
Ġimmedi ate
St yle
ili pp
Se lect
function s
Ġcover s
Ġweek end
hens ive
C urrent
ĠC ur
cy cle
ĠCon ference
Ġsp end
ins on
} >
p ic
Ġl aser
Ġdiagram s
ĠChampions hip
ire ction
Big g
Ġassoci ation
ĠE nt
Ġsign s
Ġin ference
Ġd ram
ĠA PI
big cup
Ġatt ribute
Ġengine ering
Be fore
ĠM ov
Ġconvent ional
Ġat omic
m atch
Ġ< !--
Ġc ub
Ã ¨
ĠS O
Ġcoll ision
ĠHen ry
Ġsle ep
Ġh ab
Ġcompat ible
Ġrequire ment
ine ar
Ġcomplic ated
Ġprogram ming
Ġapp lies
Ġk ing
ult y
_{ [
Ġproper ly
osp it
ul ing
I B
Ġf le
Ġconcern ed
Ġtransform ations
Ġsent ence
ĠW ild
Ġmechanism s
Ġconserv ation
e ven
ativ istic
i ro
cite alt
me an
Ã §
âĢ ī
ĠU V
Ġpix el
form ed
Ġpolit ics
ub b
$\ ,
Ġun iversity
Ġb atter
ĠE mp
al so
k it
S ign
b ro
con duct
Ġsym pt
Ġsub sc
d irect
ak ed
Ġsimilar ity
ĠR ay
ĠLag rangian
Ġoffic ers
Ġfeature d
rib ed
Ġexpos ure
T ask
ĠSu pport
ĠEqu ation
Se cond
Ġelect ed
Ġmus ical
Ġhelp ing
ĠP ass
ident ial
ord an
ple x
Ġd uration
comple te
ĠI P
Ġf ul
or ters
Ġch air
ĠCov id
f iles
Ġcitiz ens
i pe
Ġcharacter ized
ĠM ajor
ris on
ĠDan iel
L ayout
e fined
{ .
let on
ly wood
id ents
ip art
new s
Ġyou th
Ġad vent
F P
Ġk id
Ġsol ved
\ }_{
ray s
ĠM C
ak s
Cre ate
im a
G M
um es
Ġconven ient
ĠP rem
or ough
? "
Ġindu ction
ĠR ail
ĠF ar
Ĥ ¬
Ġm m
Ġfl ows
Ġext ensive
AL L
ĠM id
op es
ĠS up
Ġpl ants
Ġexper ienced
S earch
G eneral
u an
\ [\
ĠE st
ri val
V ER
st rap
Ġtarget s
sub equations
ad ed
jav ascript
ĠA st
c p
ĠJust ice
get s
Ġsimplic ity
t ed
Ġphot ons
Ġsur ve
gra de
S ing
Ġcol ors
ĠN ever
cl osed
im er
end if
U pdate
Ġf aces
p in
Ġlist en
ĠB ase
Ġmov ies
Form at
ĠA I
Ġtem plate
small skip
H D
But ton
it udes
v ity
ĠRepublic an
ul ator
N C
De v
includ ing
= >
Ġread s
Ġen semble
Ġprim arily
Ġcondition al
Ġent ity
erv ation
on ym
S l
Ġreson ance
st yles
sh ould
Ġimp ly
Ġrem ote
Ph ys
im pl
* /
d ocument
Ð º
D escription
T arget
iem ann
P ort
D uring
o ir
. âĢĻ
Ġher self
Ġempir ical
Ġto ken
Con tain
Ġbelie ved
def n
Ġcount y
Ġal gebras
er g
Ġsum m
Ġmanufact ure
b ury
Ġcircum st
m o
oot strap
Ġcompar able
Ġestim ator
Ġqu ot
ĠOr der
Ġro ots
Ġv oc
al ty
Ġregist ered
al ing
Ġ{ @
Ġspe aking
il a
Ġab stract
ĠRec ords
ĠH ilbert
Ġto urn
ĠK im
ĠL ocal
Ġret rie
) >
Ġreal ized
ĠEn vironment
Ġtechn ologies
Ġsymbol s
Ġfe as
Ġne ither
ĠM ap
Ġport ion
Ġse at
e z
U M
ĠD igital
ĠA venue
Ġapplic able
u v
Ġim possible
Ġth r
viron ments
ĠN ame
Ġdou bt
am ber
ĠBrit ain
i ot
Ġsp here
ymm etry
Ġcompar ing
Ġwatch ing
Ġmod er
Ġd raft
D av
ou ch
) }$,
el ian
class es
Ġrestrict ions
ĠB an
Ġsepar ated
com ment
}^ +
cl os
ĠMed icine
Ġst abil
ĠOb ama
t un
ĠN orthern
ut r
Ġdefin itely
M ain
ref erence
ĠD ate
ĠK n
og rap
ap ed
v y
D own
Ġamaz ing
li ography
Ġgirl s
Ġexpert s
l ower
tt p
Con st
Ġinj ury
Ġwhe never
Ġpurch ase
}{ {\
ĠMus lim
Ġphot os
el d
u ing
as p
s id
D esc
or al
Ġs we
Ġexplan ation
erv ing
ab eth
t rivial
ĠCon st
198 3
spec ific
u able
g ray
Ġinterval s
ĠM L
ĠM O
Ġtrans action
b its
ĠE r
Ġag ency
Ġadj acent
) ),
AC K
ĠW alk
ass um
g roups
ĠRad io
ive red
Ġc ash
Ġp al
ac le
Ġ iron
Ġg ender
part icle
ĠD onald
A c
ar ial
Ġarm s
L iving
Ġfram es
B est
and ra
ĠT H
Cont roller
ĠV ideo
ĠP DF
ĠM ic
it ter
Ġf ell
Ġincre d
O K
ĠB ell
form ance
el ly
^+ $
Ġrob ot
}) =\
ĠRes ults
Ġre v
Ġco al
Col umn
ru gs
Ġpl ate
ĠEngine ering
ĠTh rough
Ġembed ded
rem ove
ĠP R
ĠB C
Ġcap able
Ġsh ares
Add ress
Ġ\ }
Ġlink ed
k ind
sy l
cer ning
Ġdiv is
Ġeigen value
Ġch ampions
ĠÂ ·
Ap J
ort ion
Ġgu ys
ĠS wed
ĠTr ust
sp in
ĠA D
Ġp ed
Ġco oper
Ġfac ilit
ps on
ĠFrancis co
mom ent
Ġwh atever
Val id
ĠH aw
E very
ĠT oday
ĠA ction
ĠC ode
Ġconver ges
Ġent ered
mod ules
Ġhom es
iz able
.... ....
}} ,\
pr im
Ġpoint ed
Ġs udden
w ords
Ġl oved
ĠSum mer
ĠTh ree
out s
\, {\
ĠI mm
ĠI rish
ig r
um ps
angle ment
Ġre tail
Ġread ers
Ġcre ative
ĠB razil
ĠR et
sy nc
Ġprof ession
Ġhold ing
C ent
Ġvict ory
ĠSo ft
cul es
ĠM u
il ly
Ġreg ional
ow ered
| _{\
Further more
res pect
R ed
Ġst ick
Ġbound aries
ĠCol umb
ĠH ard
ĠP ak
Ġstation ary
ar ma
Ġguarant ee
Ġpro min
ĠS outhern
i pl
ĠF ire
ĠEq s
ĠR ight
ĠDemocr atic
Ġhous ing
Ġg ather
ĠFoot ball
Ġf iber
| _
Ġoccur red
ĠH om
Ġdefin ing
w ill
Ġfe at
not in
g ment
m arg
l ayer
ry pt
Out put
ĠD ar
Ġtrack ing
Ġfore st
Ġperiod s
Ġb ran
ĠB a
Ġrec ip
Ġ à¤
ĠL ittle
C ell
or i
M ost
Ġf ish
Ġman age
198 2
Ġv ulner
ĠF act
A U
ĠN AS
h s
List ener
Ġarriv ed
Ġtra dition
int on
Ġpost erior
Ġg ift
St at
ĠY es
ĠL ook
st ates
Ġ era
b d
ans as
Ġreconst ruct
Ġf ellow
ĠSt art
Ġinter net
h ome
ce ived
co in
ĠB ru
ĠJac ob
Ġ url
Ġs an
Ġl ose
on to
Big l
Ġst ages
ĠD aily
ucl ide
ĠCont rol
ĠE gypt
Ġdef end
Ġan imal
Ġm el
s ite
Ġcollabor ation
ĠBe ach
Ġhum ans
Ġhot el
R S
( &
Ġm ere
lear ning
M F
ser ies
Ġdi verse
Ġbelong s
Ġstre t
Ġes cape
Ġcomm ission
spec ial
Ġtot ally
p erson
ain s
Ġaug ment
Ġpop ulations
Le vel
Ġposs ess
Ġcol le
Ġra w
Ġinter pol
Ġrapid ly
Ġacad emic
Ġpl anned
Ġdec ide
Q L
M et
\| ^
am ed
Ġdesc ript
< ?
Ġ rom
ĠLic ense
ĠN av
De finition
val ued
f ront
V E
Ġmar riage
ĠProfess or
M ode
or gan
Ġt error
idel ines
ta x
Ġredu cing
ĠBro ok
Ġemer gency
ĠG irl
Ġbuff er
be fore
Ġsh arp
ĠC amb
Ġeven ing
Ġcan cell
ĠA p
q l
Ġsound s
ĠL td
Ġat om
van ia
Ġunit ary
Ġst ored
v o
ĠB rad
T ube
% %
en ance
Ġadv oc
Ġm ob
requ ency
Ġcomm itted
ĠPh ot
const ra
Ġlog arithm
end ent
ĠSu pp
ĠL O
Ġman ip
n etwork
Ġ river
ane ous
Ġ rows
Ġlabel ed
ĠW here
ĠM aster
ĠE vent
en um
ĠMon te
ab et
d ashed
v as
Ġsurpr ising
Ġexhib it
ĠG rant
Ġappoint ed
] ]
ĠP rivacy
d ings
M I
Ġr is
Ġstruct ural
Ġs ight
Equ als
Ġferm ion
ĠA ccess
L ocation
A ccess
B P
Ġrece iving
Ġdef ect
R T
au x
Ġisol ated
Ġd t
ren cy
Ġg iant
Ġstead y
sub stack
Ġsee k
e h
Ġcapt ured
Ġhol es
Ġexp ensive
âĢĻ .
Ġsub section
ĠSp ain
uclide an
ĠB oston
P ack
ĠDe finition
ĠI mage
ĠJew ish
Ġcop ies
Ġab use
Ġkin etic
ĠF our
ĠMich igan
Ġconsider ation
ers et
Ġcomp ens
Ġgeneral ization
s ample
ĠJack son
ĠCo ast
Ġ ..
res ol
Ġp ot
ĠS at
Ġtro ub
u ple
Fil ter
pr ise
D at
su it
Ġfun ctor
l anguage
Ġpresent ation
Ġcoupl ings
: </
Pr ice
ĠD ou
iam ond
Ġcontrad iction
Ġdecre asing
Ġanc ient
V er
ĠH and
Ġ ens
Ġsu c
Ġstru gg
Ġconf lict
ĠP acific
Ġv ort
Ġb ars
ĠSt an
Ġnew sp
Ġc ere
V ar
Ġthem e
ir ty
E P
S N
Ġcosm ological
ĠM ach
_{ -\
] =
^* _
ĠO l
Ġindependent ly
Big r
A F
J o
ul f
Ġs ister
form ing
Ġneut ron
Ġro les
ĠT w
Ġb ridge
`` `
et ies
as ters
Ġ ðŁ
am l
in ator
Ġpart ially
ific ial
Ġm it
Ġown ed
Ġreg ister
rad ius
Ġrad i
id ance
ru ption
Ġfam iliar
on ed
Ġv ent
ĠC as
Ġinterest s
off set
ĠS af
ĠAd am
requ ire
ĠM ain
ual ity
ĠS us
Ġbring ing
v dots
Ġli ber
ĠSte ve
Ġmur der
lim it
Ġb odies
Ġstud io
Ġang les
Ġprob abilities
ost er
ĠF air
Ġso le
New s
b olic
ĠM ake
Ġfrequ ently
nol imits
25 5
here nce
ch annel
per iod
par se
Ġserv es
Ġabsol utely
cor respon
at ivity
Ġindust rial
ĠK now
P ar
Ġvalid ation
Ġs lope
ĠBook s
A uthor
Ġproced ures
ish op
Ġwin ner
W here
Ġis omorphic
her ic
F ONT
T ree
Ġserv ing
13 0
L ength
Ġm al
Ġvol unte
9 00
Ġhon est
th rough
Ġview ed
Right arrow
Ġpost s
g i
Ġre plic
ĠSe ason
Ġsmall est
V ol
Ġ( +
Ġord inary
Ġc ouncil
E v
U L
Ġs and
ĠQue en
Ġd iversity
ĠC ON
U rl
Ġnew ly
bur gh
Ġexpand ed
Ġbrief ly
Ġgreat est
Ġsit uations
ä ¸
ĠMark ov
con nection
ong s
ĠT er
Ġh aven
ex ec
ic ial
enn is
Ġref ers
ĠScot land
ad or
ear ing
ĠC ivil
ĠL abor
Ġp ulse
ĠAG N
; ->
Ġ* *
ĠMe an
Ġpres c
st ic
& $
ĠA P
ann a
re ll
r ative
Ġacc ident
ĠM ountain
Ġout comes
Ġre normal
' $.
} ~\
}} )$
Ġappro ved
Ġpl otted
Ġm ent
Ġturb ul
new line
p he
Ġjust ice
y ou
field s
Ġstand ing
co ordin
Ġsens or
ul as
Ġv irt
ĠF red
Ġt ack
Ġhard ware
enc ing
R ad
sh ape
ĠF ermi
G P
âĢĻ ,
v c
im p
Ġsche dule
Ġpseud o
Ġcre w
Ġaward ed
Ġreli able
ow ski
ĠJ r
ĠO x
Ġsp herical
ind s
Ġen vironments
Ġ urban
iss ions
Ġgener ators
;\ ;
197 9
ors hip
Â °
="../../../../ ../
um ul
ĠF ile
Ġfight ing
n one
r ase
Ġpropos al
ĠF ull
ĠC at
ER R
' ),
ĠCar l
198 1
int ro
Ġaff ord
ĠS earch
Ġbut ton
B ecause
Ġclust ering
op her
iz abeth
Ġse ed
Ġrec ording
Ġd ance
Ġindic ating
Ġc art
os a
th an
Ġ[ ]
Ġv en
amp ion
Ġb ow
Ġre ly
ĠUn ivers
Pre vious
Cont rol
Ġassess ment
Ġhe aring
}} =\
umn i
Ġg ene
t ask
ĠH o
Ġter rit
Ġsuc ceed
UR L
ĠM ah
ak ers
T A
Ġpropag ation
Ġdel ivered
H ar
p ref
ov al
ĠR en
$ _{\
Ġdec ade
}{ }
in itial
Ġpercent age
w as
Ġsto pped
% ,
ĠSystem s
Ġd il
ent ity
Pro p
Ġauthor ities
ĠPo isson
l ights
ĠBro ad
Ġb id
is c
r floor
in dependent
su ccess
Ġdescrib ing
Ġpl ots
, ~
l floor
oid al
n ic
Ġput ting
ĠSt ory
Ġinteg ers
red it
ĠW at
Ġdisplay ed
ĠChild ren
E Q
P op
Ġresist ance
Ġcho osing
B undle
P arameter
Ġre act
ma ges
Ġx ml
t n
ĠR om
w atch
ĠD ue
conn ect
) |\
appro xim
ĠLear ning
Ġdis cret
Ġwrit ers
bel ow
ĠPro cess
Ġdro pped
Ġabund ance
Ġsc an
Ġsc ored
ell o
Ġpix els
Ġinstit utions
ĠP ri
Ġc as
Ġte aching
Ġdisc overy
Ġcirc ular
mod al
se x
Ġre ar
Ġfav our
m i
. '
G r
Ġon going
Ġne ur
Re v
ĠN O
Ġsubject s
)= (
Ġa id
equ al
Ġst im
}\ ;
Ġch art
Ġprom pt
li x
Ġper man
con c
Ġge odes
Y es
y o
ri ers
Ġch iral
Ġatmosp here
} <
Ġloss es
Ġorb its
ĠC art
Ġprogram me
t otal
Ġdistingu ish
Ġre nder
// /
t or
V I
Ġch a
Ġconsum ption
R C
Ġus age
Ġb atch
Re call
Ġsing er
Ġclos ure
Ġspl itting
ir k
Ġexplain s
Ġhe ter
ĠN C
ĠSe a
Ġmin ute
ĠSecret ary
Ġtraject ories
D I
Ġc e
Ġpass ion
Ġb ath
Ġatt ributes
ro vers
Ġm ort
Ġlog ic
f r
sc ious
Ġamplit udes
Ġhundred s
ĠĠĠĠĠĠĠĠĠĠĠĠĠĠĠĠ ĠĠ
ĠA N
Ġprov en
( _
is a
}_{ {\
lear ly
Ġiter ations
ĠP ack
am i
Ġc riminal
Ġp un
Ġref lection
r ink
Ġcon sec
ĠW atch
C lick
Ġun able
Ġneg lig
d oor
Ġc aught
rand om
Ph one
ĠIn f
out e
Ġen ables
Ġs ac
ĠP ay
ĠC LASS
Ġanalyz ed
Ġsu it
syl vania
p et
med ia
ak i
w all
@ {}
om et
7 00
u ated
Ġenh anced
e val
ad el
le ments
Ġwe alth
nt z
Ġcounter part
Ġsyn chron
Ġcov ariance
Ġenc oding
Ġtop ics
ĠV ill
ĠI V
eg o
Ġpublic ation
ĠMc C
U LT
ĠB rand
ps et
Ġreal istic
H igh
ĠSt rateg
w orth
ĠK ong
Ġan isot
ev in
M r
ap ore
ĠG reek
ĠB oy
oc key
k g
M any
Ġamount s
ab ric
Ġslow ly
Ġall oc
ĠCh air
ĠAs sembly
Ġb its
N ames
Ġcoll apse
Ġconsum er
Ġplatform s
ab ove
em an
ri vers
d riv
ĠS P
O h
ert s
ĠC ost
Ġfe els
Ġst ores
g ood
Ġcount s
ĠU k
Ġauthor ity
B D
styles he
Ġhealth y
tri ang
ĠWind ows
Ġn arr
place ment
pol y
P lease
\, ,
Ġrequest s
Ġacqu ired
Ġb ary
Ġ$\ |
Ġstudy ing
14 0
ĠC ustom
L oc
| =
ist ing
M c
G O
ĠW ales
Ġprodu cing
is y
oc y
ĠF ox
Ġask ing
Ġweak ly
rosc opic
sh op
ĠKore a
10 5
mathbb m
Ġim aging
Ġwas te
ĠS ky
Ġre venue
f ocus
Ex ec
ĠH un
form er
Ġco herent
à ¸
l oss
Ġcut s
ad ers
Ñ ĥ
Ġinfl ation
Ġaim s
Ġaccom mod
ĠO N
ĠThe atre
ĠTr ue
ĠC ook
ĠB al
in istic
Ġb are
Ġtr igger
f amily
bet ween
Ġe cho
St ud
Ġre vers
Ġar ise
ĠTe le
Ġb g
ĠS her
O p
Ġdeb ate
Pro ject
is ition
ĠM D
Ġcon formal
Ser ver
Ġrespons es
g rid
ac cess
Ġpro ud
g ot
ĠGu ard
Wid th
W ell
Ġcy l
Ġn orthern
w p
Ġrespons ibility
Ġnormal ization
Ġattempt s
Ġaccom pl
Ġe at
Ġcy cles
Ġlet ters
alax y
Ġint rinsic
phys ical
eng ers
. },
W H
et ary
it o
Ġar rang
b rane
ĠR h
ou ds
¿ ½
ĠC irc
Ġn an
ad v
Ġgu ard
Ġdis joint
. }\
= -\
ĠB H
ĠB log
Ġre fere
ho le
Ġhelp ful
ĠSc he
Ġconcept s
Ġfor get
ĠAs ian
ĠS ir
Ġtri angle
Ġult imately
Ġanaly tical
Ġre new
c raft
=" ../../
Ġcompre hensive
ist ically
Ġre nt
ĠH REF
ĠQ CD
Ġs outhern
iss ue
Ġbl ow
Ġexam ine
te en
Ġinf ection
ĠDi rac
t ics
: (
Ġw inter
ĠA sh
Ġperturb ations
comple x
ĠPr ime
Ġalle ged
F rame
Ġsp ons
ific ate
Pro cess
bound ed
ĠN a
e ah
const ruct
e ach
ĠF ollowing
att r
Ġmag azine
ĠW is
Ġincreasing ly
W orld
ploy ment
Ġcir cles
ĠN umber
Ġmonitor ing
ĠAr ray
hold er
Ġt um
D et
le an
Ġest ate
if iers
ay a
ï ¿½
197 8
Ġres erved
Ġfore cast
A cknowledg
Ġwall s
Ġaccess ible
Ġin vert
P ass
Ġdis pl
D irect
Ġmat ters
CO L
Ġcontroll er
ĠH as
y es
Ġwill ing
ĠG i
pl ain
Ġg ar
Ġt on
Ġarg s
S ym
h ou
Ġimplic it
Ġconsist ency
Ġprob e
Ġsubset s
Ġcon dens
Ġcorrespond ence
Ġarg ue
Ġele v
A v
U se
mer ce
st ud
Ġreport ing
ĠD at
osoph y
Ġexerc ise
ĠM P
n umer
Ġar rival
Ġneighb our
C I
Ġrecogn ized
Ġaff ine
Ġy es
19 50
ĠW in
Ġint elligence
Ġhydro gen
Ġv ast
v able
} &\
l m
K S
ĠF uture
tri angle
197 7
Assum e
11 1
ili ary
Ġlic ense
Pro t
& -
Ġsepar ately
Ent ity
Ġcrit erion
Ġobvious ly
Ġharm onic
ĠCon f
ĠL ow
ĠStand ard
p arameters
ateg ories
let ter
' $,
id ers
ian g
Ġdra ma
Ġbig ger
Ġ ille
Ġins urance
ĠM ath
Ġut ility
Ġthe rapy
T P
D em
ĠS on
' )$
Ġorder ing
we ak
ail ability
Ġpro spect
ĠAnd roid
Ã³ n
Ġcomm ittee
ograp her
in als
Ġsp arse
Ġequ ipped
fol io
ino is
det erm
Ġm and
sing le
Ġinstrum ent
ĠP rom
oid s
Ġspac etime
B i
Ġful fill
ĠR iemann
u pi
ĠBe fore
ĠJer sey
H L
or ous
ĠAir port
ĠK ent
ĠAre a
ck s
ĠCor poration
Ġvan ishes
Ġac id
Ġperform ances
Ġcomplet ion
id al
E ven
i pping
//////// ////////
ĠB ang
art ifact
Ä ģ
du al
197 6
Ġcorrel ated
as et
Ġdec ays
ĠOh io
Ġinstall ed
ok ing
Ġalbum s
m ember
Ġprom ote
R ow
Ġsympt oms
F ind
Ġscen es
Ġs oc
Ġst orm
ob e
W rite
ĠMin istry
Ġg rew
T ags
% ;
Ġcol on
p air
st ore
B as
Ġp ump
ĠExec utive
Ġconsequ ences
chang ed
Ġoutput s
U psilon
ĠĠĠĠĠĠĠĠĠĠĠĠĠĠĠĠĠĠĠĠĠĠĠĠĠĠĠĠĠĠĠĠ ĠĠĠ
Ġactiv ation
AG E
l ers
Ġh un
19 75
ĠB on
ĠT ext
~ (
Ġpeak s
Ġdis order
99 99
Ġreve als
en z
Ġch apter
Ġele ctions
cent ly
ĠF re
F ollowing
ost ic
fra red
Ġb rowser
)} _{\
ĠPh ilipp
Ġ ram
ĠT al
Ġ& $
F OR
hem ical
de ep
ĠI ss
Ġpay ment
ph ia
do i
Ġs oul
ĠL uc
aut ore
Ġtr unc
Ġcoll isions
\| _{\
T rack
Ġexpl os
ĠSta ff
Ġf ault
Ġconvers ation
con v
Ġrang es
el ines
Ġcross ing
re pre
Ġcorrect ly
ĠP a
ĠYou Tube
ĠH D
C ap
aw n
C B
ĠĠĠĠ ĠĠĊ
Ġturn ing
ĠC ro
Ġperform s
IT Y
Ġmarg inal
3 60
Ġprodu cer
Ġ$ $\
A Y
Ġfl oat
ĠD NA
ĠM att
Ġob st
Ġadd s
Un iversity
B ased
c b
ĠT urn
r b
Ġout perform
}) _{
tem plate
t im
Ġc ro
the ory
++ )
Ġcool ing
Ġadm its
Ġillust rate
Ġsee king
Ġse es
In tern
AC T
hom ology
ĠR og
Ġp it
Ġins ight
er on
Ġpre ced
Ġd ry
Ġaver aged
art icle
S ol
ĠS em
Ġd ialog
j k
ĠD ark
1 12
oc racy
ĠDes pite
\ /
Ġoper ate
' }\
F ree
ĠAssum e
ĠB ad
Ġ$ [\
ĠH ong
=" -
ĠP en
ĠL ew
Ġf itted
Ġsegment ation
d ouble
ĠCre ate
ĠF ac
Ġrec urs
Ġas sets
G G
Ġf ly
d est
M s
ĠH T
dev ice
repre ne
tain ed
Ġdanger ous
Ġsh op
Ġl es
}) )
Ġwe ar
Ġv ice
Ġacc ord
Ġb att
Ġent anglement
re q
M ag
Ġlat ent
Ġb aby
aint enance
W S
Ġsp ending
ĠOb serv
Ġproject ive
Ġ{ {
Ġtri ple
O pt
p ed
Ġd war
ou red
un ity
Ġjud ge
ur i
g ov
Ġdedu ce
Ġp y
Ġend ing
Ġsignific ance
math ds
ĠF OR
U K
Ġh a
t ically
Ġpartners hip
ra pper
Ġalong side
ism s
ĉĉĉĉ ĉĉĉ
Ġd rugs
Ġprov es
EE E
sh all
_ .
an alysis
N one
s v
Ġcompet itive
ĠPenn sylvania
ĠAd ditionally
S k
v ard
fin ement
tain ment
rag on
Ġm il
Ġrepl acing
Ġmole cules
aw s
Ġoverl ap
p ay
Ġsynt hetic
roll ed
ĠT ake
t b
ĠB ased
eles cope
Ġdiss ip
Ġtourn ament
H R
im m
O nce
L o
Ġequ ally
Ġcon e
ĠCl in
Ġphenomen on
im od
ĠPro duct
ĠR od
Ġinter ference
al o
ess ions
super vised
Ġmon ot
ĠO nt
ĠSup reme
Ġra in
em ail
Ġan not
Ġconsum ers
H A
D en
Ġthought s
g ame
Ġcan cel
Ġcon cerning
ĠLat in
Ġob j
Ġval uable
Ġ} {\
] ^{
Ch ange
Ġb ott
sim ple
ent ric
Ġmechan ical
Ġgen us
Bl ack
Ġl ists
Ġcor porate
periment al
b ad
w indow
#### ####
Ġ! ==
Ġanalog ous
d ney
ĠPh oto
Ġk inem
Ġp adding
Ġinterpret ed
! "
Ġc raft
un a
ĠS n
197 4
Ġrestaur ant
Ġindu ces
olog ist
ĠA S
ow nt
ĠCount ry
' >
f ly
Ġs now
ar ters
Ġfew er
ĠR ic
V ari
l b
ig ate
Ġt ens
od ge
Ġwalk ing
Q ue
c ounter
y ers
Ġworld wide
j u
sub float
lement ary
Ġatt ended
N T
Ġsched uled
ĠC T
r g
Ġexcit ation
ch itz
. [
reg ion
Ġfl ood
Ġbre ath
Ġfeat uring
b es
Ġk it
Ġa ux
) |^
ĠC E
Ġcrow d
Ġvol tage
Ġmathemat ical
Ġconstra ined
}) -
fl at
ĠD om
Ġcomb ining
Ġlinear ly
ĠComm on
B bb
Ġexcit ing
Ġclass ified
ĠRep resent
Ch ang
Ġatta ched
lik ely
Ġveloc ities
az e
h d
ĠC P
Ġl osing
= (\
th ree
Sim ilarly
Ġscient ists
Ġneg ot
ra ce
Ġfif th
Ġour selves
ad i
Ġimprove ments
ĠD O
v skip
indu ced
v v
ĠT y
. (\
+ $
ĠU pdate
ĠC ru
Ġcircumst ances
Ġact ors
cc c
Head er
ess el
h skip
N ational
T ypes
ĠT ro
ĠK enn
Ġdom estic
C ache
Ġfil ed
ĠS ite
Ġre in
ra q
Ġepis odes
S i
Ġc ache
Ġf at
je ctions
Ġu int
ick er
ĠI mp
ma king
Ġmag ic
Ġyoung er
Ġch ose
Ch rist
en berg
D om
He ight
Ġf old
Ġag ric
197 2
Prov ider
Ġarm y
G s
ĠB and
Ġbg color
Ġun f
Ġdiam eter
b order
Ġh ospit
Ġar rive
Ġseg ments
U V
Ġresult ed
Ġfor th
Ġimpro ving
ĠT R
ĠĠĠĠĠĠĠĠĠĠĠĠĠĠĠĠ ĠĠĠĠĠĠĠĠ
ens ed
Ġhas h
Ġse ar
Ġstring s
m etric
Ġqu iet
Ġb on
man ifold
Ġc ab
C opyright
T YPE
ick s
Ġc od
Ġcall back
g iven
A ust
u pp
Ġ })
or ient
Ġrelax ation
Ġint ent
Ġsatell ite
m ic
os er
ig in
aw are
et ts
ep ing
ĠE th
y stem
D L
Ġm useum
ĠPar liament
is ons
Ġse asons
En c
Ġsubstant ial
HT ML
Ġd y
vert ex
Ġvisit ors
et he
Ġr ide
Ġdo ctor
Ġult ra
deg ree
Ġde vel
197 3
tra ining
W indow
as i
i ary
Ġexpl oration
autore f
writ ten
Ġsuff ices
om atic
P an
Ġad ult
Ġaut hent
Ġtrend s
ĠF ind
ab out
Ġwel come
ĠE astern
Ġanalys es
cur s
p resent
Ġcl ock
Pro perties
ch y
}. \
Ġsem antic
are t
Ġmill ions
Ġcre ates
% .
Y our
Ġkind s
Ġh ang
og gle
Ġintrodu cing
ĠAn th
Ġre aches
ir ation
Ġcheck ed
Ġm outh
Ġdifficult y
)} =
E st
Ent ry
Ġvari ant
or ry
F M
ĠAdminist ration
and y
Ġland scape
F i
ĠH op
Ġtal ent
Ġm unicip
is ode
Ġprinc iples
Ġnon zero
ĠMark eting
is ations
2 13
se par
ĠInst agram
Ġgu idance
ch arge
ail ing
sec urity
Ġcompl aint
ĠDe ath
ĠB BC
ro ke
res ize
Ġun stable
Ġfair ly
ĠB all
ĠJ ordan
Ġreal ize
Ġconsec utive
Go ogle
sol id
). }
Ġprov ider
ĠPr ince
Ġpre v
Ġex ponent
sh arp
Ġ: :
Ġ> =
trans form
dep th
ĠN GC
Ġa cknowled
F ix
ĠE uclidean
}_{ (
Ġa thlet
ol is
Ġrecomm ended
Off set
Ġinter sect
ĠHot el
ĠFin ancial
iv ation
ĠU ser
Ġhon or
Ġcav ity
Ġv otes
ĠEx ample
Ġshoot ing
{ [
Ġdeterm ines
* \
Ġde let
__ __
P osition
an aly
no on
Com parison
IC E
Ġp ray
Ġinstit ution
Ġcon crete
prot otype
ĠC S
she ll
Ġelement ary
Ġm esh
Ġteacher s
Ġcosm ic
ĠTh anks
B el
id ity
Ex ample
Z E
Ġne arest
Ph oto
D el
p ie
Ġb inding
an notation
Ġp ictures
Ġcomb inations
ĠDe ep
19 68
t ex
}} }{
d on
Ġa u
Ġneighb ors
Ġin it
ere r
Ġad ults
Ġpl enty
Ġco ff
T itle
Ġpromin ent
h ash
Ġcon jecture
Ġsch olar
ul atory
ag ues
Ġc oun
ĠNot ice
ĠSt ation
IG N
P res
Ġre verse
Ġb asketball
Ġtr ig
s is
ĠGovern or
Ġy ellow
Ġb ag
fact or
Ġhistor ic
Ġw a
ach us
ĠN avy
pert urb
Ġlimit ations
Ġ\, ,
Ġp ipeline
Ġ$ <
Ġcont emporary
Ġinv oke
l ined
Ġappear ing
ut able
nes ota
Ġant icip
ST R
ag en
}} }$
Ġgener ality
l u
Ġcal ibration
p ress
ĠM ill
10 2
if ting
hy per
Ġrece iver
Ġhous es
t ml
}= (
ĠR yan
Ġocc asion
Ġd rum
Ġproject ed
ĠEl izabeth
us cript
ict s
H am
S pe
ĠL A
enn es
Ġoper ated
AC E
ser ve
ra ine
Ð ²
ĠEmp ire
P os
in ates
ĠTra ining
k h
Ġw ins
Ġgener ates
s ome
sc reen
t ypes
ĠMag azine
Ġing red
p atch
Ġl ots
Ġinvest ors
Ġe c
ĠPro te
Ġdeal ing
ĠB ox
B N
Ġtal ks
d z
ple te
Ġcent ers
\, .
ĉ čĊ
Ġsampl ed
ĠE dition
ĠA ge
Ġleg end
Ġhyper bolic
ĠTh ose
Ġperfect ly
Un it
Ut ils
) )$.
d ers
Ġcryst al
ra ge
' }$
I E
ĠG ro
und erset
Ġbatter y
ric s
Ġdesign s
r ations
t oken
Ġfail s
Ġcon clusions
Ġde formation
ĠN ick
Ġa wards
Ġgood s
ĠK at
Ġeffect iveness
× ķ
ĠStud y
co hol
ĠO pt
Ġw estern
Ġreach ing
p mb
Ġin her
ĠSpec ifically
Ġcollect ive
Ġdes cent
ĠW ars
ĠD irect
Ġasympt ot
Ġ{ {\
Ġconnect ing
u y
& #
Ġs ad
Ġtri als
plic it
Ġopp osed
qu ality
Pl ay
Ġadd ressed
Ġs in
Ġcap abilities
ĠDav is
Dav id
U RE
l ay
Ġ }$
Ġcont rovers
Ġfac ing
Ġm ic
es ome
ent h
k t
Ġhom ot
Ġenc oder
On ly
r f
on om
ĠCh ange
× Ļ
ar ation
Ġmiss ed
upi ed
Ġn ob
ĠIll inois
() ->
pro file
b ool
cre asing
C ho
st ery
ig m
ĠLore ntz
Ġprior ity
Ġtherm od
Ġv eter
Ġconserv ative
ov iet
e en
Ġpos it
P RE
Ġprefer red
ĠE instein
Ġfl o
F in
Ġb ought
P Y
Ġs ending
Ġacc um
ag a
res ource
Ġh o
Ġcamp us
F ound
aw ay
Ġmix ture
c ov
Ġres c
Ġemploy ee
ĠSing apore
Ġembed dings
Ġsubsequ ently
F ull
Ġquot ient
ĠF ord
Ġre form
ch a
Ġv on
ĠM arg
achus etts
Ġinfin ity
IV E
AP I
Ġtra il
AN T
ar on
Ġcent ered
N G
}\ }$
Ġris ks
ĠCar lo
on ia
ĠE ric
w ing
Ġp arams
ure au
Ġh its
Ġte ch
Ġhor se
cons istent
Rec ord
ren ew
il inear
f ire
Ġcom edy
Ġl it
ic ious
Ġcon version
ĠInd ep
ĠStep hen
Ġadapt ed
Ġpen alty
S ur
ĠB ul
jo in
at hered
ord on
ĠMan ager
A nt
Ġm ount
Ġansw ers
AT H
Ġfeas ible
ĠP ur
Ġassist ance
Ġtra ding
A ug
ampl ing
in ternal
Ġhom omorphism
ab olic
ut s
> ,
u u
ĠD ra
Ġ ic
Ġn a
pan el
Inter face
Ġc ards
Ġpure ly
opt imal
ĠAg ency
Ġpotential s
ĠE s
( |
**************** ****************
f n
styleshe et
Ġl en
Ġt elling
Ġnumer ically
H as
j et
marg in
ĠD am
Ġdeterm ination
l arg
le ading
Ġchain s
du ate
C ore
^- $
hor iz
Â ®
Ġin n
Ġregard less
Ġshe l
Ġadvert ising
make box
St ar
Ġsurpr ise
ĠRe v
H ash
ĠF unction
Ġpass es
Ġf usion
}}\ ,
ĠReturn s
il st
Sh ow
anche ster
) !
ester day
ĠP ers
Ġt ends
ari ate
}\ !
T ab
Ġact ress
Ġqu eries
Ġin hib
pro perties
Ġman ifest
ĠC ulture
ĠP ath
ĠCol lection
âĢ¦ .
B T
ĠM ount
Ġcontain er
Ġd ress
Ġinnov ation
Ã ±
10 4
}| ^
Ġformal ism
Ġinst ability
sat isf
Ġanom al
Ġfall s
Ġfe e
Ġfin itely
ĠV en
re nd
st op
Ġsp oke
Ġequ als
i at
ĠOx ford
Ġform ulas
197 1
' ',
ips chitz
Ġvictim s
Ġarrest ed
ĠC L
Ġacceler ation
ĠRem ark
Ġte en
F E
Ġup coming
ĠTra vel
ell s
ĠP RO
Ġp atch
Ġs elling
Ġag encies
Ġant ib
c us
r ine
Or der
Ġpermut ation
B s
m aster
Ġun ity
se q
um a
}, {\
miss ible
D ocument
ĠAlex ander
ch ing
Ġfil ters
O ct
Ġmin ister
Ġassign ment
ĠAcc ount
ĠV ari
Ġca using
p otential
con sin
Gl obal
ĠS anta
artifact Id
nam ed
ĠJes us
CO DE
Ġmanufact uring
3 50
Mod ule
ail s
}} +
Ġcomb ine
ĠDe ad
re ement
ĠTor onto
ĠDis ney
Ġpers ons
Sum mary
off s
vi ation
ast s
Ġr ural
Ġlo ops
gress ive
Ġm ock
Ġefficient ly
ple ctic
Config uration
it is
Ġgrow n
m ay
Ġwonder ful
Ġp in
driv en
ow a
Ġcommun ications
Ġenjoy ed
end ment
ĠC urrent
Ġprofess or
ĠWith out
Ġbox es
P ublic
ĠB attle
im ated
Ġemot ional
ĠF A
W ar
Ġm irror
ĠVal ue
Ġapparent ly
ĠH ou
M ich
Ġin dependence
on line
ip edia
Ġs itting
19 69
it led
st age
dist ribution
L ook
d p
Ġrelig ion
Ġt ables
ĠIs lands
Ġcommit ment
G D
B F
T im
Ġelli ptic
ĠP ubl
d if
display math
G raph
ĠSoft ware
over s
Ġd rivers
ok ed
ĠT ax
Ġentertain ment
Ġext ensions
dis c
Ġex posed
ĠSch olar
' =
ask a
Ġen abled
d ict
ir ms
inter face
Ñ ı
Ġlif etime
ant ly
Ġensure s
Ġfrag ment
u pper
es is
ĠPr inc
U P
CT ION
Ġtit les
or ne
view s
ĠEd ward
no ise
c ache
ĠHol lywood
o is
H ttp
Ġreturn ing
C V
Ġapp s
c ost
Ġheav ily
iz z
Ġdis cre
Ġshift s
put ation
ile y
ĠE mer
Ġear ned
Ġv oting
Ġintegr als
ĠSur vey
Ġdep icted
ĠFore st
u z
Ġp itch
S W
Ġvis ited
ĠMe V
ĠPak istan
Ġde bt
}$ ).
ĠA li
$ (\
ck er
Ġev ident
W ho
Ġdest ination
R ange
Ġevery where
a ire
tem perature
ĠD un
Ġ ),
ĠB rian
xy gen
ord ered
ĠR os
ĠH art
ĠF inal
Ġgrant ed
ĠIn itial
ĠBuild ing
util s
Ġlimit ing
ist ant
H is
ivers ary
Ġhead s
Ġsymm etries
ri ate
Ġprep are
Ġke ys
Ġeduc ational
= {\
Ġto ler
equ ival
Ġproport ion
Ġk illing
AT A
ĠCap ital
Eng lish
cl ick
ĠC rit
writ er
ĠP resent
un iform
ĠVictor ia
b ecause
Ġmulti pl
Ġbeaut y
Ġo k
hed ral
hold ers
con ver
b oth
Ð ¼
_{ {
f ixed
Ġart s
Ġexpect ations
\ }}
Ġimag ine
vious ly
oupl ing
ĠN FL
sum er
Ġtransform ed
par a
ĠU r
b ow
ly n
iam i
Ġpar ad
Ġh all
] );
M ac
Ġpre gn
ĠN ig
^{ [
ĠDemocr ats
Ġ ^{\
Ġ\ }$
x rightarrow
ol i
ĠV iet
ĠTe ch
Ġsus pect
Ġadvers arial
Ġvari ability
qu ir
Su per
Ġappro val
ors ion
Ġrec overed
ĠP ract
respect ively
L M
ĠD R
Ġexpl ored
Ġvot ers
adel phia
ĠRe call
G ET
er os
T ER
Ġh ur
ar ia
R ob
11 5
ĠM iller
Ġser ial
Ġinv ariance
Ġfra ud
el lect
Ġhealth care
Ġcaref ully
Ġpil ot
ĠSh ort
Ġresol ved
Ġf asc
ĠNew ton
aut o
en v
Ġde pos
OR D
add ress
ĠT am
ĠR ose
ĠB E
Ġp ose
Ġshe ar
Ġle af
ry st
Ġstre ets
Ġclass ifier
an th
sp aces
Ġun us
cl oud
ĠS ource
Ġtransfer red
Men u
end a
H y
ra ble
Ġneglig ible
Ġviol ation
ĠH erm
ik ipedia
Ġel astic
Ġne uro
t i
Ġalign ment
al og
Ġhab it
ĠSc ient
ou the
Ġ\\ [
Ġinequ alities
Ġre volution
Ġf ake
group Id
Ġtrans mit
ĠCo oper
stand ard
ĠInd ex
ĠRes ources
Ġrepe at
Ġtun nel
Ġparticip ate
Î ±
Ġag es
V AL
ĠAm ong
ĠW el
end or
Ġtw enty
Ġy ards
Ġde lete
ĠH ay
Ġex clusive
Ġper mission
ang ular
ĠL em
f requency
Pl an
" ))
vel ope
Ġ ĉ
EN D
Ġimag inary
}( -
Ġgrow s
ĠHar ry
Ġaff ili
Ġweap ons
Ġb anks
Ġbo ys
er as
ĠI raq
ĠEd itor
f lix
Ġam pl
Ġarg ued
M edia
ma kers
ĠSy dney
ĠL ind
ĠO s
or b
19 67
le e
ĠB lo
cell color
Ġd s
ĠP rim
}^{ (\
Ġrem oving
P arams
tra ined
Ġse ats
ĠColor ado
Ù Ħ
G ood
Ġdoll ars
Ġf iction
ĠCh ang
Ġa de
rict ion
Ġdevelop ers
ion ed
$ --
per iments
re du
Ġign ore
ho ps
b est
Ġhol iday
app lication
ĠOffic er
Set tings
Ġconvert ed
Ġst one
ĠMod ern
Ġrequ iring
ĠCh all
e fficient
const ant
ric ket
Ġun like
t ensor
ire ment
ĠC opyright
' )\
Ġexpand ing
Ġj ets
it ol
, (
Ġident ifying
Ġh ate
d ynamic
s end
Ġreplace ment
Ġbar rier
S n
Ġab and
Ġvan ishing
ĠOlymp ics
) }^
th ur
Ġcontinu ity
Ġdeterm ining
M a
Ġsur gery
Ar ch
ĠOnt ario
In itial
Ġcomp ris
Ġdraw ing
S erial
r ating
Ġdecl ared
Ġm o
Ġke eps
ĠF arm
bour ne
ĠEx pl
ĠP ut
i ors
Ġd ict
Ġst range
ST M
] _{
Ġs av
ou stic
ĠT ok
ĠColumb ia
ĠIn s
ĠE ffect
res olution
ho ok
ĠPl ace
" =>
Ġmultiplic ation
Em pty
ing ham
ĠN eed
Ġar ises
at ics
ic ide
eq q
D ir
left rightarrow
T ool
Ġcon vention
fig s
ha ust
Ġaddress es
C he
ot he
on i
ĠCon dition
v ia
Contain er
riz ona
ĠN atural
l ab
Ġ\ #
ĠE rror
Con f
s ession
it ud
ĠY et
u pload
Ġfl av
Ġprovid ers
clos ure
cent ral
Ġencoura ge
Ġmach ines
Ġobserv ables
Ġregard ed
be ing
g ly
Ġ( .
bs ites
Ġlocal ization
Ġt ab
Ġto m
Ġcl ouds
Ġform ally
Th rough
ĠH ave
1 18
Ġmeas uring
de bug
Ġdiver gence
return s
ĠB O
itect ure
play er
Ġde als
Ġse p
h us
Ġtra v
k ov
ip her
Ġgreat ly
ĠMass achusetts
/ .
Ġlegis lation
ĠĠĠĠĠĠĠĠĠĠĠĠĠĠĠĠ ĠĠĠĠĠĠĠĠĠ
Ġins ights
' (\
ow ed
Ġre actions
ic ing
sim ilar
Ġprom ising
ĠF all
Ġsuper ior
our se
ĠSt ill
Ġto ugh
Ġst ood
Ġsurv ival
Ġhapp ening
at ar
V ideo
sy n
Ġdist urb
ĠPro blem
ĠS H
ĠS ab
Ġresol ve
Ġcarry ing
al ks
f ramework
p ur
Ġafter noon
l r
ĠT ransport
pe ople
Ġbos on
Ġim per
ĠConn ect
Ġwhe el
Ġwrit es
Ġstream ing
Ġband width
rib le
Ġex it
Ġhand ling
^ +\
ĠA C
Ġdes ire
ĠBer lin
ĠI C
ĠSm all
Ġr u
v m
Ġinform ed
Ġp ole
w he
Ġ[ [
Ġachie ves
Ġimplic ations
reg on
Ġal ter
Ġpick ed
bib liography
Ġent ities
H er
Ġd otted
v irtual
P G
ĠO p
Ġd ating
renew command
i ac
tr im
Ind eed
s ys
Ġrang ing
center line
Ġcount ing
ĠV eg
Ġgain ed
s ort
Ġst rain
ĠG ib
Ġwar ning
Ġopp on
ĠF C
Ġregular ization
Ġadapt ation
Ġnot iced
Ġimp ressive
Ġfor t
PE CT
ĠMin nesota
um s
mon th
Ġoscill ations
Ġgu est
): =\
ph oton
App lication
ĠC au
Ġobserv able
ĠJ ava
Ġtang ent
F ont
Ġover view
Ġver ified
Ġf ruit
em b
Ġs weet
ĠCh apter
Ġwe aring
Ġfl avor
Call back
Ġgu idelines
f ix
c ers
b ind
ĠPro t
Ġg od
P arameters
Con nection
Ġre nd
ĠCh annel
ast ro
om er
h n
ix el
10 3
cre en
m aterial
B oth
ĠA z
Ġd ates
Ġper m
Ġ" \
Ġro oms
ĠJ ean
raz y
ere nces
se a
ĠSt ock
S outh
c ustom
n als
Ġform ing
s un
ard ing
Ġb ug
Ġsh apes
pos itive
op ed
Sp ace
ĠCon sequently
ĠE uler
Ġdr ift
Ġmen u
Ġderiv ation
Su pport
19 64
ĠB ridge
N P
ĠH an
] }\
V ector
Ġext raction
Ġspec ify
Ġinv ent
F IG
)\ ,\
ĠA mb
ĠJ enn
Me an
L D
Ġf estival
t ered
Ġadv is
l ot
ER E
ĠM ember
Ġpull ed
Ġbreak s
ĠPro p
10 8
el le
Ġsc r
AS E
Ġcon sole
ĠUn iverse
10 6
Ġv o
Ġcontinu ing
Ġclub s
Ġaux iliary
ĠN E
Ġhe ll
Ġrese mb
Th read
ul pt
Ġbrand s
ĠL anguage
Ġthick ness
tt ing
Ġo x
T otal
S w
="../../../../ ../../
T F
Ġm ine
}} +\
top rule
19 65
ct x
Ġnot ing
}$ $
}}\ \
Ġbran ches
dist ance
T oday
iz ers
ĠĠĠĠĠĠĠĠĠĠĠĠĠĠĠĠ ĠĠĠĠĠĠ
du ctor
Ġconstit u
ï ¼
f all
n atural
Ġcont est
Ġsold iers
ug ins
ĠL es
Ġcub ic
sequ ence
im it
Ġdis put
Ġprof it
ĠPort ug
ĠF R
ht bp
Ġphot ograph
Ġwind ows
Ġw ed
ĠS ound
Ġsuper conduct
L in
ĠInt erest
ĠEconom ic
g on
ul us
m ac
Ġb omb
sp ring
RO M
Ġt aught
Ġdestroy ed
B re
row th
Ġ icon
ast y
}} ^{(
or iginal
ĠB S
Ġdec or
ĠPart ners
Ġfocus es
crit ical
Back ground
Ġs ought
Ġel ig
Ġjo ining
ĠP H
Ġbo at
Ġas sembly
comp act
Ġinteract ing
in formation
rop ical
}} -
Ġfraction al
5 12
Ġopp osition
ul ous
Ġun likely
ass oci
Ġmin i
Ġplan ets
e a
Ġcr ash
ĠR oss
Ġminim ize
Ġacqu isition
Ġemploy ment
ĠW ord
els on
Ġnorm ally
ĠBro ther
Ġfocus ing
doc s
Ã £
um in
Ġr ising
Ġcomb at
symm etric
Fig ures
Ġprot est
Ġd ot
ke ys
app y
Ġint u
Ġobserv ational
rug gle
Ġw ider
re v
d ra
Su pp
Col lection
u int
) ~\
ĠReg ister
rat io
ĠT an
Rel ated
ĠLew is
ĠS ym
Ġinnov ative
O ption
P ORT
Ġair port
Ġd a
}) }\
=" _
Ġbelie ves
( :
c n
T M
) <
the y
Ġmark s
sh ips
Ġg ro
Ġh at
Ġan ten
Ġmod ification
p aper
Ġfound er
ĠD ream
Ġcl ar
ub s
ĠD rive
Â Ģ
ĠWis consin
Re al
C are
Ġsh orter
Ġd amp
big gl
" ));
Ġover come
Ġman uscript
ĠL iter
L at
Ġb ass
Ġpolit icians
Ġcont am
Ġlegis l
ĠMay be
Ġpr on
Ġthere by
Ġgra de
Ġex port
s qu
W A
ĠS S
Ġknow ing
~~~~ ~~~~
Ġremark able
Ġco homology
ĠS F
}$ ;
ĠK evin
ĠReg ion
on na
+ |
Ġlength s
ĠAnd erson
Ġst ake
pro fit
ĠPro perty
Ġprom ise
Ġgen etic
Ġab elian
ment ioned
Ġemer ging
Ġm aintenance
Ġpl astic
ĠA k
Ġsh ips
Ġperson nel
P arent
Ġpres erve
y ard
ob by
Ġbelie f
ial s
i rac
Ġl y
13 5
at en
Ġrel ief
ern ame
10 7
wid get
Ġste el
ĠNever theless
Ġlocal ized
Ġ* )
ĠD er
Ġgr ate
Ġnav igation
Ġprepar ation
re a
ĠC reek
}, \\
re nder
lect ric
bas ic
Ġsub mitted
h yp
ĠG allery
m ad
ĠK h
ĠT ony
ĠS ong
Ġmod ify
Ġstri ke
Ġri val
Ġdeterm inistic
Ġaccur ately
ĠL ady
Ġreg ulations
eder ation
âĢ ĭ
Ġhe ating
is o
ĠS oviet
Ġpublic ly
Ġaccord ance
cont in
ag an
b at
coordin ate
Ġsw im
Ġrad ii
ÂĢ Â
Not ice
Ġille gal
ĠD utch
ran ged
Ġproof s
Ġautom atic
G reen
own ed
b uffer
' ))
Ġre cept
Ġfac ed
Ġf abric
olog ically
N um
al ed
y y
Ġbas ically
ĠHar ris
z ing
Ġhost ed
ĠB G
Ġad mit
foot er
: "
A ng
â Ĩ
; "
Ġcoff ee
Ear ly
ĠS ant
Ġim posed
ge red
Ġcl ip
m ix
char acter
Ġem issions
Ġal umni
rel im
Ġtrans it
Ġbro ke
ĠHT ML
ĠEnter tainment
ĠHe art
Ġlo an
K L
Oper ation
Ġnewsp aper
Z Z
19 66
Ġcomp osite
Ġs quad
qu es
in line
Ġf er
Ġscreen ing
Ġmut ual
att ered
Ġshift ed
Ġ$- $
Ġso ph
st ers
t ot
Ġobtain ing
Ġpro ton
ĠSt ore
Ġregular ly
ĠW as
Ġque ue
Y ear
ut ors
ĠP aper
Ġsuggest ing
ĠN ations
c ule
}] \
Ġ\| _{
Ġade qu
prot ect
ĠR ome
Ġtrans actions
Ġguarant ees
ub er
Ġe ase
Ġart ificial
Ġsil ver
ĠGold en
19 20
Ġmed icine
Ġaffect s
Ġpre lim
t witter
Ġrac es
Ġgeodes ic
Ġrect angle
Ġf inger
pol ar
ĠCamb ridge
w ick
I ter
Ġvar ies
rib utions
$ =
se ason
Ġd uty
Ġrecogn ize
g ate
Ġde eper
Ġsynt hesis
w ang
bigg r
w ich
sm ooth
Ġshe et
ĠGal actic
19 40
Ġmechan ics
ter ior
Un ited
Ġmere ly
Ġperman ent
}) (
G ra
b ul
de lete
Ġpark ing
deg ener
ache l
Ġstrateg ic
L ear
c am
Ġfact ory
Con clusion
Ġ âĢĻ
R ule
Ġferm ions
Ġconsist ently
Ġpresident ial
Ġimpro ves
U C
ĠAl ice
Ġwor ry
]{ ./
h ist
J E
[ {\
Ġfe es
ĠSen ior
ĠT reat
Ġdisapp oint
ĠE ss
G AN
Ð ´
2 20
ĠG h
L eg
ĠF L
St ore
ĠScott ish
ĠD id
ĠK al
ĠCon tact
ĠC C
ĠDo es
COL OR
ĠV in
int o
ĠC ab
Ġrel ativistic
ĠM anchester
Ġcour ses
le vant
Ġcomput ations
is l
Ġdise ases
rel ax
Ġs ick
Ġev il
ĠS quare
big skip
Ġlist ening
ĠJ am
the w
ĠS pect
N etwork
] _
Ġn od
Ġsuff ered
h over
L ike
Ġwork er
N AME
Com put
ater al
Ġbeh alf
Ġmembers hip
set length
Ġsqu ares
ĠSt one
k w
ĠG ree
Ġl augh
Ġfound ation
ĠM it
itud inal
ĠO cean
Ġsummar ized
Ġrel ies
Ġnucle i
Ġlock down
Ġw ing
pd ated
AR Y
ĠM oon
Ġmodul i
Ġacc used
Ġe gg
Ġmetall icity
g tr
Ġw ine
Dev ice
con j
ak h
Ġin cl
Ġpo inter
19 30
Re ference
bl ing
p f
Ġcons ent
un ing
Ġent ering
ogn itive
ĠIn nov
ad ic
Ġout break
Ġmaintain ed
Ġc reat
anc el
Ġconver ge
ĠDis c
Ġaut omorphism
{- }
Ġcompl iance
~ {\
p adding
Ġ )$
Ġr ings
Ġregist ration
ou ri
ĠLab our
ĠT E
Ġfall ing
ĠBel g
Ġcut ting
Ġcontrib uted
import ant
pl ugin
Ġaware ness
ĠTh ings
ĠApp ro
ik a
P tr
}] $
s ig
H ost
ĠS ho
Ġtransport ation
old s
ĠR aj
F alse
00 5
Ġinst ructions
Ġo xygen
ibr aries
Ġphenomen a
Ġparamet riz
ĠAff airs
De cl
ĠI l
Ġsurve ys
Ġ( @
ĠH E
Ġquant itative
Ġph on
ĠBay esian
Ġop ens
igr ants
Ġj av
J u
) /\
ĠG alaxy
n l
Ġ$ -\
gener ated
Ġprofession als
est amp
Ġsc oring
ash i
Des pite
Ġdispl ays
Ġserious ly
S F
Ġf lying
c opy
ĠD a
b log
hal f
Ġsus pend
Ġtroub le
var pi
Ġphys ically
Ġflex ible
n p
ĠLe aders
M W
ĠE P
Ġt ension
d am
ĠV ice
k k
colon eqq
re ens
Ġm g
Con tact
Ġal ive
equ als
Ġf rust
ĠS av
th in
J son
el and
bibliography style
ore l
Ġuniqu ely
big oplus
Ġspe aker
M o
fra ction
ĠM aterial
Ġb old
on der
Ġke V
Ġelectro magnetic
ĠIndust ry
W atch
ĠT ag
24 0
Ġmeaning ful
ĠR ab
enn a
Ġann ih
> $
ĠW i
con vex
? :
ĠCl oud
pro ve
Ġsingular ity
Ġign ored
ms g
Ġund efined
rac ks
\!\! \!\!
Ġany where
s ens
Ġmotiv ated
ath y
ĠM I
Ġtri es
Ġt rib
Ġsens ors
Ġconven ience
ens ively
Ġeng aged
Ġg al
ant um
b ootstrap
Ġdis miss
Ġrece ives
K K
Ġexec uted
ĠSar ah
u j
Com ment
Ġg host
dis abled
B rit
Ġb ins
it ro
aps hot
fra g
hand le
end o
Ġb le
= #
Ġconc ert
ĠTur key
Ġmat ched
igen ous
B ound
ĠN ether
Ġcaref ul
und les
S ession
ĠR est
ed ing
$ ^{\
pos ing
Ġprov ing
S tack
ĠR oll
prim ary
i ar
Ġcharacter ization
d irection
B r
T erm
Ġsustain able
Ġsub graph
ĠSaf ety
inem a
Ġconsider able
Ġsl ot
he res
Ġpurch ased
A pr
ĠPhil adelphia
m ove
D iag
ĠS R
Ġcont ents
Ġsh adow
Ġme ets
w hat
Id ent
un ning
Ġsurv ive
ed it
ug by
f g
rupt ed
ĠS A
Ġrem oval
Ġch rom
ĠR O
Ġrobust ness
ĠS W
Ġav ailability
Ġar ising
b urn
Ġgu ests
Ġadapt ive
Ġattract ive
Th m
Ġc oding
$ /
D raw
] ^{\
Im pl
ĠBru ce
Ġpro hib
ol y
process ing
resize box
ĠM E
s pl
ph an
ĠS ix
Ġwat ched
Ġinstrum ents
Ġsol o
Ġtarget ed
N OT
cal cul
all as
ĠCan cer
FA ULT
================ ================
Ġbe ar
Ġdip ole
Ġmeet ings
Ġcomp ression
Ġrequest ed
ex act
ĠO t
ent er
W est
ari ants
ĠSim on
Ġhead er
leg ate
Ġdis ag
Ġref lected
Ġsequ ential
Ġexhib its
Ġflux es
$& $
add le
ownt own
Ġaccom pan
d c
and al
\ -
Ġpack et
est yle
ĠS NR
hes es
}\ )
C s
Ġall ocation
ĠQue ens
ĠHou ston
Ġs aved
ĠK a
## #
Ġf ro
Ġoffic ially
Ġdisc ipl
Ġmod ular
sc ribe
iv ariate
az a
M er
ĠH ur
Ġpay ing
Ġass ault
ĠAnt on
Ġro of
Ġca usal
ĠMov ie
os ph
ag on
ĠW inter
over ty
Ġgen u
ĠS L
), (
Ġpur su
ĠC orn
ĠA rizona
Ġdem ands
acc ount
C a
x ym
19 45
Ġs oci
Ġvari ants
ĠM iami
Ġinst ruct
em pl
Ġconclud ed
om eter
Ġdirect ory
Ġvan ish
ĠB or
Ġ\, .
. -
en ant
ex pect
vers ely
Ġoper ational
Ġg ray
o a
M ENT
Ġs ke
ab is
l brace
ul um
Ġexception al
b n
Ġrema inder
Ã£ o
}} }{\
11 4
Ġfac ulty
ĠY ang
Ġc umul
Com b
Ġpolit ician
C y
Ġve get
b ec
Ġle ct
ia h
}_ +
h ire
ĠTh ough
p ing
ract ed
ĠM oh
Ġover ride
Ġin duct
Intern ational
p q
bottom rule
Ġmy th
Ġo cean
() :
Mult i
qu ark
ĠM rs
Ġconsid ers
oy d
d ue
Ġt iny
Ġprotocol s
ne cess
Ñ ĭ
Ġc ensus
trans ition
Ġadvent ure
i est
val uation
C ustom
cl uster
' ,\
Ġmed al
}{ $\
ish ment
Ġorient ed
ĠRel ations
Ġassoci ate
spe ed
cknow ledge
hav ior
ĠL ater
j ar
D ay
Ġtor us
M art
ĠPat rick
P N
Ġbright ness
co q
ĠInt eg
Ġdetect ors
V R
Fe ature
â Ĥ¬
ĠI L
ĠLa ure
Ġprov ince
12 7
ĠI mages
comp are
ĠC ore
Ġdemonstr ates
Ġ\ :
oc a
ĠB at
ra it
' -
ĠDef ense
Ġi Phone
Th anks
ĠE mb
scale box
Ġex haust
Ġst ruggle
Ġoptim ized
ĠJew s
}; \
ĠLim ited
* {-
ĠCl inton
Ġan onym
part y
Ġmanifold s
Ġd ies
ĠKore an
Ġr um
â Ħ
Ġclos est
Ġcycl ic
li ers
ĠEx ception
Ġb acter
ĠReview s
Ġdecl ine
n ie
Ġm art
pon s
ĠU RL
Ġassist ant
arg o
it atively
sp i
ĠT ai
Ġkn ock
ĠF ri
w ho
ĠF ront
Ġanc est
Ġglob ally
Ġse ctors
Ġmin ing
ĠN am
Ġwe bsites
Ġt ank
ut her
web kit
Ġqu bit
P ref
ĠH ung
cc entric
as m
Ġelectric ity
b x
@{ }}
Ġhierarch y
set tings
Ġexam ined
L ife
ĠAd vent
Pol icy
ĠWe bsite
Ġsub stit
Ġcopy right
ache lor
raise box
l an
ĠB urn
Ġret ired
Ġth orough
Ġext ending
S em
depend ency
Ġt ip
ĠEar ly
ht b
}$ ),
ĠS port
correspon ding
Ġatt orney
10 9
n ik
Ġrestaur ants
ĠFore ign
Ġpar agraph
Ġhas n
( $\
continu ous
Ī Ĵ
ellect ual
b one
ĠSim ilar
Ġstri p
Ġport folio
ennes see
el astic
Ġd ose
Ed itor
Ġt all
Ġdual ity
Ġsimpl ified
Ġche ap
ĠUn it
Ġtw ist
gtr sim
): =
gh an
Ġcomplet es
Ġterm inal
ĠSe lect
\' {
ĠP O
Ġmoder ate
Ġpubl isher
t oggle
Ġal cohol
o T
ĠCom ments
algorithm ic
f our
ple ments
Ut il
w ind
Ġintrodu ces
NR AS
Ġreflect s
Ġv oted
Ġm ild
quant um
ĠJ ay
Ġte ach
Ġcommut ative
Ġtransp arent
Ġb ases
EX T
um ann
19 63
ON E
Ġcontinuous ly
ch arg
ro le
Ġman ual
Ġvalid ity
Ġvoc als
ĠD og
Ġpar se
block List
Ġen forcement
ĠPrem ier
N L
Ġrac ing
Ġround s
Ġtro ops
ĠH ad
ĠJ ane
inst all
ĠSh ould
Ġaim ed
Ġreprodu ce
ins ert
ĠB it
utr ition
R F
sin h
Sche ma
& +
Ġto x
Ġpro sec
ta ken
P a
ac on
lic ations
] :
17 0
B ody
] \\
vol ume
D an
Ġy esterday
Ġlay out
col head
T ok
A sync
Ġocc upied
aud i
ĠTh ird
V s
l g
F ollow
Ġprocess ed
ig e
ĠO w
). $$
Ġexhib ition
N orth
A pi
ĠTra de
ill iant
ĠS oc
Ġdiagn osis
Ġro y
Int eger
ĠBl ock
ĠC PU
ĠL ib
A K
ĠAtl antic
ut ter
IG HT
ERR OR
Ġl ying
ĠPer formance
Ġa cknowledge
Ġch ampion
ĠWh it
Ġcele b
Ġsus cept
se en
ĠNAS A
Ġgen es
Ġexponential ly
ex port
Ġp ric
Ġag ed
ard ed
ust ain
Ġelse where
ĠĠĠĠĠĠĠĠĠĠĠĠĠĠĠĠ ĠĠĠĠĠĠĠĠĠĠĠĠ
sp irit
ink ing
Ġmer ger
ĠD or
ĠG PU
S ep
ĠPro of
ĠG W
Ġer g
ĠO regon
Ġg arden
ĠA h
moment um
ĠNether lands
Ġb rown
ant i
Ġbase ball
Ġbe ach
}} )\
Ġrem ind
Ġhost s
U D
ĠR oy
ĠH um
ag ger
Ġ Ø
Ġnot able
Re port
Ġbus y
Ġeng agement
Ġhe lic
ĠH al
) *
ann on
Ġ\\ \
H H
ĠMem orial
D IR
F lo
ĠMo ore
ĠLe on
Ġweek ly
Ġmicro sc
Ġla id
Ġclos ing
) },\
Ġn ic
Ġvari ational
Ġmodel ed
ĠCl ark
with out
Ġput s
Ġin jection
Th ree
Ġw allet
Ġoff ices
Ġj un
ĠY O
R ich
et ition
xym atrix
Ġprim itive
ĠTra il
M atch
ab c
col n
Å ¡
or se
Ġm ail
-- >
P aul
ential s
ĠRec ord
c ert
ant e
ĠN az
' ],
ors es
ĠĠĠĠ ĠĊ
Ġinv ited
Ġw ra
| }{\
ĠW H
ĠU l
olog ists
ĠG un
Ġvisit ing
ĠDi ego
ĠF a
ĠSt adium
P arser
d m
Ġfrequ ent
Ġbelong ing
Ġrele ases
Ä ±
ĠPlan ning
Ġsub sid
ĠLe ft
Ġas set
od a
Ġrecommend ations
Ġhomot opy
Ġguarant eed
ur is
Ġexclud ed
Ġc rack
Ġun expected
ĠP ersonal
ious ly
Re view
Ġso il
ĠB ush
Ġint ention
ĠF ight
ar ry
Mich ael
ik es
Ġcomfort able
Ġsho pping
Ġsk ill
Ġthous and
to String
P ress
Ġfun ny
re port
Ġen emy
DB LP
Ġpar ity
Ġh ook
X ml
m ony
q ed
abil istic
R a
ĠPri ze
V A
ĠV i
Ġparticip ation
i ology
Ġl ux
d or
Ġgovern ments
Ġfil ename
ed ef
qu arters
Ġcont rary
and o
Ġsure ly
= [
00 2
ĠM as
Ġreason ing
Ġwin ners
Ġsp ins
ĠL E
Ġcoinc ides
D ialog
Ġfund ed
p us
ĠRe volution
Ġo vers
h arm
ĠPal est
in ch
âĢ ħ
Ġvulner able
o il
Ġread ily
text style
idel ity
vert ed
Ġbu ying
le in
Ġeng age
Ġwire less
Class es
}{ $
d ays
Ġn ont
}$ :
ĠAn aly
Ġnarr ative
ĠS elf
rom ise
Ġarbit r
fe ctions
Ġre jected
Ġhigh lights
be an
= }
ou rag
Aust ral
=" /
- $\
Ġsupp ressed
Ġgain s
, }
2 30
ĠF O
ĠEv ents
Ġm asks
19 62
r v
Ġi i
ira ble
ss on
Nav Bar
Ġbal anced
ĠR ound
âĦ ¢
ĠF un
Ġobserv ing
ĠAss ert
cho ose
I X
c u
A ud
Val ues
ĠK elly
IN FO
D ue
Ġterrit ory
C oll
ĠSil ver
r ically
effect ive
Ġb irds
ĠS yn
Ġwalk ed
ort he
pp ers
Ġsimpl er
Ġsuff er
Ġident ities
ĠA B
Ġvari ed
G ame
l ass
Hel per
oul omb
E p
Ġposs ibilities
Mem bers
Ġill ness
Ġattempt ed
Ġlaw yer
E ffect
ĠLe vel
ĠMot or
E rr
b g
Ġtru ck
ĠAl tern
Ġany way
Ġfin ance
ang o
Ġdocument ary
c v
Ġs wit
T HE
Ġf ranch
ch ment
Ġdocument ation
Ġsym plectic
Ġpoint ing
Ġrank ed
In v
Ġfriend ly
14 4
z one
ol k
27 0
M SE
Ġk il
Ġg ay
Ġrel ating
l st
ĠG reg
ĠNig eria
Ġdog s
C am
S uch
Ġgr ass
rap ol
Ġâ Ĩ
Ġrail way
Ġpair ing
A f
ĠB ry
IM E
ĠFin ance
Ġadvanta ges
an es
Ġaw ait
Ġsol it
ack now
urs ing
F ace
ĠT en
ĠReg ional
w rap
) ~
Ġunus ual
^{ {\
Ġs ends
d ark
Ġisot ropic
gra vity
ur g
com ponents
der iv
Ġf irms
ĠL as
ig ious
Ġcap ability
ĠHol y
Ġs ake
'' .
elf are
abl ing
Ġtick ets
Ġto k
Ġbi ological
Ġdegener ate
ĠJ SON
om as
oun ces
ĠL LC
Ġad mitted
Ġan xi
Ġagre es
Ġtransl ate
F s
war z
Ā Ā
ĠAll en
wit zer
ann y
Ġapproxim ations
}. $
pl ates
au ra
}} _\
C G
Ġillustr ates
Ġv ital
ĠG ab
ĠLeg al
Ġvol umes
ve ctors
Ġent reprene
Ġs essions
Ġby tes
Ġh am
opt im
He alth
Ġcateg or
Field s
ĠUn fortunately
cos h
ĠThe ory
)$ }
ok er
w ild
t ry
Ġen velope
ĠT rack
Ġdevelop ments
ĠCap itol
Ġtim ing
us ive
cor rect
Ġsudden ly
hel p
ĠR ow
Ġscal ed
ĠStud ent
> .
Ġconjug ate
Ġinj uries
ĠHistor ic
}^{ *
Ġne ck
il ty
N otes
ub a
w ait
^{ *}
Ġno isy
ĠMult i
Ġdisc ount
z o
Ġd rag
Ġpass engers
ĠPl us
Ġsy nd
[ $
Ġbl ind
Ġregular ity
^ *}
E mail
ĠI owa
Ġiniti ative
Jan uary
le v
Ġload ed
IN D
ĠAuthor ity
ĠTur k
Ġal igned
Ġcheck s
tra ce
sh ot
Ġdevi ations
Ġdeep ly
lem an
Ġp ushed
Ġlik es
out ube
ĠRepublic ans
ich ol
h our
iver pool
gg ed
Tem plate
Ġincred ible
ĠD ave
ĠStud ents
re view
Ġmanag ing
ĠF r
I ES
Ġcontract s
Ġsett lement
I EEE
end ers
19 61
ĠS hi
Ġaver aging
ro oms
Ġin line
l ate
ĠN ob
Ġhard er
Ġhop es
ĠC hen
cre d
qu ote
ĠF ellow
et ics
ant ics
Ġsurpr ised
re tt
Ġf illing
Ġenc ounter
^* (\
Q U
> ();
is ta
Ġcut off
cos ity
ĠN ature
comm ut
C ur
ĠK ansas
th read
Ġepoch s
Ġsupp orters
ĠT ask
11 6
Ġexpert ise
Ġfarm ers
back s
Ġdel ight
Ġres erv
id ae
M NRAS
iv ities
it ure
Ġimpact s
as hes
Ġlogarithm ic
M eta
w hel
ĠM ove
in cess
ĠR ub
Ġdefe at
Ġlabor atory
A I
ar o
b us
onom ous
ĠL P
ĠF lo
ce q
Ġrank ing
ro d
r brace
ĠP itt
fo o
Ġre ject
comp at
ĠP ier
des ign
ze ch
Ġdiam ond
Ġdefe ated
Ġmaintain ing
Ġf urn
Ġroad s
ĠJ osh
Ġcheck ing
ut t
W ind
Ġoption al
Ġby te
sur face
ĠAr gent
Ġelect rical
re ction
ad min
Ġt issue
GB T
Ġtick et
ĠProte ction
Ġprov ision
ĠN EW
n as
ĠR on
Ġenhance ment
Ġcons ensus
ro it
1 19
Ġgradu ate
f d
fl ux
ol ly
Ġeas tern
Ġcorrect ed
Read er
Ġenc oded
ĠH ope
am ents
Ġp odcast
{ |\
D u
ĠG ard
ĠNet flix
Ġro se
ĠV ersion
ĠL ipschitz
Ass oci
11 3
R equ
ĠPr ice
Ġinj ured
Ġsp okes
diag ram
ĠMon th
ĠG raph
ĠCont ent
ĠJ ason
Ġpass age
ĠAnth ony
Ġasymptot ically
R ober
book s
ens ing
ĠChampions hips
v ideo
Ġpay ments
ĠP L
Ġar row
ĠF ix
ma ker
Ġn m
re place
ĠP red
Ġas ymmetry
Ġleg it
ĠM ess
-> ]
ant ed
St and
ĠAd vis
b ing
ĠCast le
Ġatt ributed
Ġj oy
ĠC ra
ĠRes ource
ĠMor gan
Ġcurrent s
Ġhol omorphic
eng ine
Ġde com
Ġo s
Ġpaint ing
P aram
)} =\
Ġmanag ers
by te
acknow led
ĠC M
Ġbu ck
sc ore
iv ated
Ġgre y
Ġse vent
A lex
Ã© s
S a
Ġreal ization
tra in
Acc ount
Ġmethod ology
Ġgrad ients
Ġhousehold s
Ġreview ed
ĠDu ke
ĠD ocument
D oc
Ġdev oted
M icro
Ġqu arks
ĠIslam ic
se lected
Ġrad ical
Ġcy ber
ta h
Ġep id
ang led
ĠZ e
v it
Ġmove ments
Ġin herent
f m
4 50
att ices
arg ument
pl ac
tx t
ter y
Ġext inction
Ġreconstruct ed
Ġapproxim ated
Ġh urt
ll i
ĠH R
ĠP ot
ĠĠĠĠĠĠĠ Ċ
ĠPol and
T or
L u
ĠL yn
ph ot
Ġhor ror
F eb
, âĢĻ
Ġsum s
Ġsingular ities
Ġ[ -
Ġent hus
ĠExp ress
s olution
Ġlist ing
gl s
_{ (\
Ġm igration
ĠTerm s
Ġcharacter ize
Ġw ound
ĠC redit
12 4
}} ^\
}. $$
ce ive
ort ed
Ġprelim inary
witzer land
Ġassum es
th r
ĠCl aim
b racket
ighb or
the se
ĠB ible
clud e
f un
Ġchampions hip
plement ation
Ġconstant ly
T rump
}) ^{\
ĠDef ine
Ġinterview s
Ġsub mit
lim ited
ĠDo ctor
Ġsent ences
og a
12 1
ĠD ifferent
Con dition
Ġl ad
Ġinflu enced
| {\
Ġlik ed
Ġorgan ic
Ġsub str
Ġsole ly
ĠVill age
vel oc
}{ !
M arch
ĠOlymp ic
. ]
ĠN N
hom ogeneous
Ġmeas urable
Ġinst ruction
od ic
Ġpro jections
ĠOther wise
Ġanom aly
n an
er red
)) )
M usic
Ġsc ulpt
Ġear n
Ġfl ights
- {\
ex pl
Ġlog ical
ĠEX PECT
Ġadd itive
gl as
ab atic
Ġtempor ary
Ġdo ors
Ġdes k
ard o
Ġsuff ering
ĠP sych
net t
ĠPhys ics
pend icular
r ceil
ru p
ĠP ed
drop down
Ġro utes
on omy
ĠM un
ĠL am
ĠO ak
or ce
ĠProv ince
ĠT a
Ġ )\
l ceil
ĠE M
D onald
Ġc up
ĠW ang
Ġwh ilst
Writ er
Ġweak er
ams ung
st ation
Ġhist ogram
h ig
ĠS ales
Ġinterpol ation
Ġdec oder
Will iam
R oot
Ġdis placement
ĠM obile
}) }{
ah oma
11 7
Ġsimpl est
Ġfl ash
ĠYear s
Ġk ne
Ġindic ator
Ga ussian
Ġobser ver
ĠC u
Ġmod elling
Ġmonth ly
Bo olean
}) ^{-
Ġshort ly
ĠC os
Ġswitch ing
Ġbre ast
Ġconvolution al
Ġdefin ite
ĠL iving
Ä ĩ
Ġadj oint
p b
Ġent itled
Ġinter vention
ĠF ive
Ġh ack
Ġfootball ers
ĠMal ays
ĠMem bers
' }(
Ġjournal ist
) {$
ĠCons erv
im eter
B en
Ġw ake
comm un
Ġh ide
}\, ,
Ġind irect
g age
Ġto wer
ol itan
ĠT ennessee
Ġsubstant ially
ord inary
Ġrep air
ĠD ise
Ġphil osophy
ĠL HC
Ġtun ing
V P
ĠFig s
Ġ$\ |\
ĠR ick
ĠO k
Ġocc as
Ġcoinc ide
Ġas ks
Ġobtain s
e ctions
R et
Ġexpl oring
Ġplan ar
ĠSm art
Ġg amma
Ġpublic ations
Î ¿
In s
tr ation
q q
ĠInd ones
Ġt aste
ick ing
s witch
Ġtrans c
config uration
Ġpe er
Ġbur st
ĠB uck
Ġout standing
P ool
Ġs ed
ij k
ĠV R
Ġrel ate
ĠAut o
U ST
2 10
su fficient
per ience
bo olean
Ġb io
ram es
clus ively
ĠSchool s
el ve
s ame
ib l
st an
Ġsearch ing
le ep
r in
Ġin coming
G T
ĠCap tain
Ġdro ps
S om
Ġlight s
ig a
ĠCommun ications
( *
ĠN orm
Ġcam eras
under brace
] }$
Ġle tting
Ġqu bits
ĠEnvironment al
Ġdis ks
che ll
P erm
ĠT ree
ĠS ex
Ġcompan ion
Ġequival ently
Ġtw isted
-- \
Ġg ram
Ġneutr inos
pos itory
Ġb ol
Ab stract
nabl ed
Ġgener ations
ev ents
Ġintegr ating
Ġsomew here
Ġtra ins
Ġannounce ment
Ġens uring
Ġevalu ating
Ġreg ulation
Ġpro xy
ĠR equest
Ġcelebr ate
ock er
AR S
ex cept
Ġb unch
Ġperson ally
ĠAg ric
ug ht
Ġref uge
ict ions
b v
n ear
ol id
Ġ( '
Ġdi pl
Ġneg lect
Ġimp ose
ĠMary land
ĠS I
geq slant
Ġp aram
Ġsing les
Ġconsider ations
ĠWork s
Ġ+ +
Ġes cap
ur ches
Ġphot ometric
KE Y
horiz ontal
au er
) "
Ġpres erved
Char acter
ĠG all
ĠP ear
RE E
Ġdiv ide
N Y
Ġradi ative
m g
pe ction
ĠN ash
Ġmoment a
ĠO S
ĠAl f
Ġwat ers
Ġgrate ful
d v
st ats
C NN
Ġfacilit ate
ĠH u
Ġdecre ased
or bit
Ġhead ing
fe ature
ew ise
we ek
St r
$ }\
cor r
ĠSwed en
Ġfor cing
ĠWe yl
ĠK am
\\ \
Ġsac r
bre aking
M ember
Ġthink s
{ %
ĠC hem
Ġincorpor ated
al ph
ĠWh ich
}) :
u its
ĠI O
Ġint ense
= $
Ġsto pping
Ñ Į
Ġgovern or
f und
cess ion
i ere
F G
Ġqual itative
Ġthe atre
ĠC ele
Ġchild hood
SE T
ĠCon stitution
Ġb is
Ġcompet e
ĠMic hel
Ġcar rier
ĠA BC
JE CT
S en
Ġconf ident
Ġgen re
Ġc ot
ĠAust in
Ġhospit als
ĠB udd
Ġb ird
Ġart ifact
ĠUk raine
LO G
ĠM s
Ġconnect ivity
ĠR T
ĠG arden
ĠC ert
)$ $
Ġas ide
Ġf ired
ĠK han
d etails
ocr atic
Ġ ions
Ġb ubble
Ġvis its
Ġg ates
ĠM ilitary
In valid
cos ystem
m ates
b rand
em ed
M ass
Ġcoll aps
az y
Ġob lig
ĠPro du
m r
Exp ression
D iv
ĠYou th
P al
ĠG ene
12 2
Ġmotiv ation
Ġdepend encies
Ġsh ots
ra ctions
it ian
Ġu ps
K ind
ĠMethod s
F D
Ġmem ories
Ġhyp ers
}= -
Ġrot ating
e V
Ġin valid
Ġcon scious
L Y
Ġconf ront
)) =
Ġd ots
um ar
tes y
z i
ĠB R
Ġrep ly
Ġpo etry
i op
ĠB ab
ĠĠĠĠĠĠĠĠĠĠĠĠĠĠĠĠĠĠĠĠĠĠĠĠĠĠĠĠĠĠĠĠ ĠĠĠĠĠĠĠ
} "
ĠR u
Ġref used
Ġsynt hes
J ames
ĠR ace
kl ahoma
Ġ( [
Ġt ied
cons ist
Ġg aming
as ant
Ġadminist rative
ĠS in
Ġre putation
Ġr uled
Ġinv ariants
Ġsummar ize
at ial
par ing
ather ine
ĠC ell
Ġcar ries
T om
{ }\
ew art
ro se
er k
cur ve
S al
Ġe ccentric
J une
Ġamb igu
M N
Ġmor al
h ad
pro j
[ ]{
ĠAtt orney
Ġnont rivial
ĠL oc
Ġarchitect ures
Ġal leg
Ġent rance
17 5
ĠD ick
ĠG T
\, $
M iss
a uth
}$ ~
cor relation
Ġ ell
int erest
Ġvort ex
iv a
... ,
Ġrepresent atives
Ġdwar f
ĠCons ult
ter ms
ĠR S
chang es
Ġn ations
Ġor ange
ĠW olf
Ġj unction
l as
Ġac oustic
Ġpass word
19 0
Ġrot ational
P ay
}$ &
cm d
Ġb oss
Ġg aps
iff s
Ġw et
ĠC learly
ta king
ĠTe V
Å į
ĠN eg
) )$,
ã Ģ
am ps
Ġme at
child ren
ĠPolit ics
Ġ& -
19 58
\\ [
Ġlong itudinal
ĠMel bourne
st ellar
Ġv ocal
ĠMay or
Ġdis abled
ĠIndian a
writ ing
hem atic
C rit
Ġevol ved
N umer
Ġgra in
Ġthere in
Ġt et
ag u
M al
Ġt act
Ch annel
Ġal ert
Con clusions
g ments
en h
Ġmod ulation
tra ction
Arg ument
Ġexplo it
ed itor
ail ure
ĠVeg as
l attice
Ġt ill
Ġexperiment ally
ĠT ool
ĠB alt
work s
B et
19 59
Ġp iano
Ġl ib
ab ama
e very
op ing
Ġhe ur
ĠApp lication
at in
ĠW y
ĠJ oh
Ġleg acy
Ġdialog ue
ript or
Ġsk ew
âĢ¦ ]
ĠR y
Ġincor rect
R est
ĠCom b
Ġb ipart
Ġsp ots
cons ider
ĠViet nam
is p
Met adata
r ise
Ġplan es
Ġrem arks
Ġnucle us
ĠTh ank
ĠB esides
B it
ex ception
Ġdo ctors
ĠSt ories
Dis play
\" {
P ublished
Ġinteg rate
R ect
assum ption
Ġground s
Ġcol lections
const ruction
^* _{
ĠArt icle
Ġst yles
Ġ ).
Ġsett led
Ġdeg rad
ĠH IV
rid ges
Ġgradu ally
m ont
In f
T ake
diag onal
h idden
Ġapprec iate
Ġpref ix
Ġelig ible
Ġwere n
Ġmultiplic ity
Ġb eta
Ġcolle agues
Ġpass enger
B G
Ġtok ens
m icro
Ġst em
ĠE ag
ĠSe veral
Ġbehavi ors
ĠSe attle
Ġpl ain
Ġ[ '
leg al
eral d
Ġbr illiant
S yn
Act ive
ĠCl imate
Ġperson ality
Ġvalid ate
Ġoper ates
pl er
h ref
Ġt ips
ov en
Ġdifferent ly
G Hz
c op
ĠCh ap
AR E
Ġf ract
ĠTok yo
Ġe V
ta kes
weight ed
Ġleg s
)} ]
S an
ĠPh ill
Ġa fore
ĠMar ia
ĠMc K
pot ent
}} }}
Ġdifficult ies
Ġprote ins
Ġp ione
Ġast ron
Ġdistingu ished
Ġliter ally
Ġm apped
te ch
Ġarbitr arily
Ġvari eties
33 33
Sec urity
Ġsome how
C ast
S eg
Ġtr im
ure r
Ġtransl ated
o ft
Ġmusic ians
ĠN ev
12 6
Ġaccept ance
Ã© e
in th
Ġun signed
3 20
Ġw alks
anc ell
Ġmob ility
Ġunivers ities
Ġver ification
Ġsupp lement
un ique
Ġd inner
b ian
ĠL ess
ĠS olar
ĠU t
Ġim plements
ous es
Ġneur ons
Ġorgan isation
) _\
l ad
ber ry
C ross
ra pe
ĠM eg
ĠB Y
ass ets
Ġin ert
m ask
Ġviol ent
L ock
ĠM ars
Com mon
Ġutil ize
ĠN ik
Ġam id
ah n
i w
TE ST
+ }
S cale
Ġhighlight ed
_ ;
em ies
com parison
Ġb at
Ġ< =
Ġbrother s
ĠE uro
Ġco herence
rel ations
est abl
_{ |
Ġquant ization
Ġcomb inator
d ynamics
E s
Ġsimpl ify
nt il
),\ \
Ġenc ourag
Ġconstit ution
Ġe ating
ro ck
ĠLin coln
ĠÐ ¿
all oc
Sh ort
are a
ot ive
Ġcomp ound
19 57
g ression
k ernel
f c
ĠSt ream
Sing le
Ġspirit ual
Ġowners hip
t ons
con tact
Ġobject ives
} '$
che stra
Ġaccept able
r h
z an
ĠR oom
ap ing
ĠGree ce
ĠAf ghan
ĠH old
oupl ed
Ġt ube
ĠF alse
( (\
ĠBG COLOR
Ġany more
Ġover head
ĠO pp
Ġmy ster
Ġmod ifications
Ġdesign er
o ys
Ġcalcul ating
Ġspec ification
Ġconsider ably
De lete
ĠD VD
ich let
ĠSp irit
Ġast ro
Ġt orsion
ĠK o
Ðµ Ð½
Ġaccompan ied
ern els
Ġestablish ments
ĠAtl anta
CO VID
ex ports
Ġopin ions
ĠĠĠĠĠĠĠĠĠĠĠĠĠĠĠĠ ĠĠĠĠĠĠĠĠĠĠ
E nabled
Ġindust ries
Ġpl ug
Ġ ray
r k
Ġcere mony
ĠElect ric
ĠComput er
C at
Ġbranch ing
O PT
; <
L ie
Ġqual ified
Ġg ang
e eq
RE AD
ĠMiss ouri
Ġut ter
iss ues
ac cept
×Ļ ×
Ġsus p
En ter
Ġstru ck
Ġint ra
ubl in
+ {\
Ġch ap
Ġsqu ared
7 50
d dot
P rim
t p
ĠPol ish
Ġp sy
Ar gs
Ñģ ÑĤ
Ġn g
Ġsing ing
m iddle
Ġrout ine
ĠOffic ial
Ġdeterm inant
ĠE T
L em
ma j
Ġre write
Ġover whel
ĠPe ace
Ġamong st
f p
ol o
P y
Ġj son
Ġreg ulatory
Ġste ep
Ġgrad ed
ĠAll iance
Ġelim inate
Ġop acity
g ue
ke V
w d
ĠHow ard
ĠComm and
Ju ly
Ġfactor ization
ĠJud ge
ĠB ureau
Apr il
Ġfant astic
m ade
ĠEp isode
Ġpres erves
Ġtax es
t ol
on ing
Hand le
ĠP erson
ĠPhilipp ines
an chor
Ġrig id
ĠW ol
M or
Ġcom ic
V C
class ical
Ġperturb ative
te chn
ign ment
\% ,
m art
ĠImp act
ro magnetic
0 10
Ġill um
ĠD ir
ĠG ram
I con
Ġdram atic
sp ot
Ġcour ts
/ "
H I
Ġfem ales
Ġinsp iration
Ġbi ke
Ġin frared
ĠM om
)$ )
ext ension
J ack
g ap
Ġrare ly
ĠHel p
ad apt
^* ,
L ight
Ġt ur
Ġv ic
f ony
14 5
ĠP as
Ø ±
en able
ĠP rivate
ĠL ane
li est
or ia
c as
Ġp ace
we ets
Ġpriv ile
qu et
Ġvis cosity
att ribute
Ġhop ing
Ġfit ness
S B
Ġm eth
outhe ast
J ob
Ġf uck
AR D
ĠV irtual
asc ular
av ailable
k ar
ĠC oulomb
Ġdesign ated
ĠS ect
De bug
b eq
Ġc ited
Ġj ack
bound ary
Ġv ir
ĠD ub
over ning
, '
G al
Ġachie ving
ĠDel hi
pass word
ĠF ant
Ġstructure d
D id
Ġsl ice
ick en
ĠB orel
)} }\
E urope
Ġinf ected
ĠBow l
ĠPol y
ET H
ĠN ative
Ġret ro
Ñ ĩ
Ġ( âĢľ
us ers
ĠCont in
sur ance
!! !!
Ġminim izing
C r
Ġd elta
ĠRe lease
ĠEx change
OD O
F ore
Ġdivis or
Ġra ising
ĠFor um
su pset
G F
b ran
ĠN ation
Ġm a
}} ;
ĠMc G
Ġp ra
ĠRes ponse
ĠB h
ĠD allas
Ġin aug
Ġu pload
d ig
ir i
Ġinvestig ations
Ġsoph istic
ĠThom pson
Ġincor porate
Ġencoura ged
ĠD omin
Ġpre val
Ġm ile
Ġconf usion
sa fe
}\, .
Ï Ħ
Ġv in
Ġp overty
19 44
Ġfeel ings
em et
Ġin hab
Ġfor b
bar a
Ġinfer red
flu id
b oy
ĠT otal
ĠG Hz
.\ ]
Ġoccur ring
ellig ent
art z
ĠT ab
ĠM R
Ġoff ensive
Ġimpl ied
Ġcl im
ĠAssum ption
Ġvacc ines
00 3
Ġprom oted
Ġgr ants
ush ing
Ġatmosp heric
Ġflex ibility
ĠM other
Ġem otion
Def ine
ud a
ĠMar ine
ĠP ast
Ġm oon
W I
Ġsupp ress
St orage
Ġapp endix
. :
Ġprint ed
Ġp arser
ĠF isher
Ġabund ances
s om
Ġkit chen
en ix
equ ilibrium
Ġcl ot
Wh ite
ĠG O
B ur
Ġp ic
un es
L arge
Ġwed ding
Ġoptim ize
at ta
ĠPro f
e u
bound s
12 9
Ġcontrib uting
em bed
Ġsp ont
Ġpropos als
osc ow
ut ies
Ġsear ches
ĠAnn ual
", "
Ġg ran
Aug ust
ig s
Ġext rapol
Ġexec ute
d k
Ġcomp eting
ĠVol ume
Ġb undles
Pro duct
ul ates
Ġinstall ation
Ġper pendicular
item s
ĠO ption
S end
Ev ents
mark et
Jo in
Ġinter active
Ġult imate
x s
up id
` .
F N
ĠR equ
al gebras
Ġann iversary
im ore
Oct ober
ĠAn ne
atter ing
Ġdelay ed
ĠG er
Ġmac ro
ĠWalk er
F inal
ĠR ot
}}{ (
at om
app er
Ġcomplet eness
ĠLand roid
p icker
ou ver
Ġshould n
Ġrac ial
Ġincre ment
G rid
rec ord
ĠAr thur
awa ii
Ġv ib
* {\
arm ac
Ġtack le
f ac
ic ons
ĠS witzerland
d etail
vari able
! )
ars ity
__ (
Ġfant asy
g as
ĠT ogether
Ġturbul ence
ĠWrit ing
@ {\
L U
ĠM i
Ã¡ n
Ġt rick
ĠH ell
Ġorgan isations
g it
Ġ Å
id ge
Ġg ent
Ġch amber
sc ience
ma ps
ĠPlan ck
IT E
ograph ical
reed y
Ġpres erving
Ġindu ce
ĠM ission
Ġcl imb
Ġfor got
Test s
Ġt weet
19 56
B usiness
Ġold est
Ġapart ment
Ġrec ru
ph ones
13 4
Ġthreat s
P AR
Ġh tml
W he
Ġpar liament
X T
ang a
Ġrenormal ization
Ġform ulated
ex ternal
ou ter
ut er
pro gram
sat z
Ġarrang ement
}) +
Me V
Ġr ub
Ext ension
Ġad missible
Ġinter fer
Ġabs ent
ĠD ur
t m
veloc ity
ĠH ug
)\ |_{
ĠCau chy
itar ian
Ġst uck
' +
ro c
" )]
p ub
D etails
Ġengine er
Ġfol ks
ĠIndep endent
ĠB uff
Ġrec ur
Ġ> >
check mark
ri k
Ġcons erved
Ġan chor
c pp
Ġfore ver
Ġnames pace
R edu
_{\ {
Ġfavour ite
S ports
ĠT alk
}} -\
osp here
Ġtravel ing
Ġspeak ers
plac ian
ĠR F
f b
}, $
ĠBl ood
L aw
ado op
ĠFe ature
Ġimm une
Ġestim ating
Ġadjust ed
Ġcoupl es
Pr int
Ġuniqu eness
2 25
Ġbl ank
ĠOr iginal
win ning
w eg
Ġt one
ĠL iverpool
Ġimm un
pl ugins
). $
da pt
)$ ;
Ġhom ology
ĠH it
Ġingred ients
! [
M AP
ĠC ow
A bs
Ġeng ines
ĠD ays
ia o
coll apse
ĠWhe ther
5 000
Ġl ip
Ġevolution ary
Ġselect ing
contain s
Ġpair wise
p read
Ġa pi
Ġ' '
19 2
ĠHer itage
Ġsub groups
Ġar rows
ĠTem ple
in ian
Ġrepeated ly
ĠF ried
b os
sp ired
B a
Wid get
Ġp uzz
Ġcont our
Pack age
o i
ĠE V
Ġweap on
per or
ank a
rosc opy
f itting
ĠEconom ics
oc he
mid t
cc a
ĠB io
ĠCor ps
Ġst ops
Th ank
Ġcompar isons
ĠSy ria
ur ious
Ġmole cule
Ġcoun sel
)) ^
P ower
or able
M aster
S Y
ĠOrgan ization
ev olution
Ġutil ized
ĠW ard
Ġcap tain
at ers
Ġemer ged
}) ,\
ĠP il
G old
Ġfranch ise
c z
ct rine
ĠB run
Ġpol es
Ġtra p
A x
Ġbl ess
Ġdiff ers
ĠPh ase
ĠCom ment
ĠDe an
d n
m ock
Ġsix th
ĠG as
Ġpopular ity
sh aped
ul i
Ġ }(
Ġcan n
Ġdist ant
st ration
min ute
C ategory
Are a
ĠM ust
Ġhead ed
Ġc razy
f ar
Ġs alt
Ġgun s
ol ars
ĠF ederation
over view
Ġball s
sc ription
ole cular
Ġsu pre
15 5
ĠAl an
By tes
Dis cussion
Ġpur s
Ġreg ret
Ġres idential
re ach
ĠPh D
Ġex clusively
ĠD J
necess ary
ĠLeg end
spi racy
s ave
Ġoccur rence
Ġtit led
Ġwind s
Ġinvert ible
cle an
M ake
pie ce
ĠR L
ol ph
Ġsp iral
ĠMat thew
W ang
emet ery
tem p
Ġbos ons
N a
Ġredshift s
Ġher itage
ĠBl u
Ġaccount ing
dot ted
arc sec
19 55
Ġconstruct ing
Ġjav ax
Al gorithm
×ķ ×
ĠP T
Ġcol ored
ang el
Ġstrength s
Ob serv
ĠB ond
13 2
L java
Ġel der
ĠNor way
Ġpubl ishing
De cember
em ia
r ates
Ġm sg
ĠG M
Ġin jective
v ance
Ù ħ
pol icy
degener ate
re r
ess ages
H P
Fl ow
im ir
Ġser vers
Ġres ident
Ġcompl ain
Ġth rown
Ġdef ensive
period ic
C ity
Ġc ores
Ġafore mentioned
= &
ĠE R
b ridge
SS ERT
grad ient
Ġh ockey
ĠH ans
Ġmem brane
ĠMach ine
t ip
ant ry
Ġsupp lies
} --\
claim ed
Ġp ars
ĠRes erved
Ġoscill ation
Ġdest ruction
Ġcommun icate
$ ~\
ĠW oman
Ġfl ags
&& &&
u psilon
Ġle ver
Ġpart itions
Ġgeom et
J S
N ormal
ent ropy
Ġappear ances
ik ing
ĠS audi
. ][]{
Ġt ie
Pol it
Ġemphas ize
Ġout door
Ġbroad er
Cor ollary
Ġspeed s
form ula
By te
An n
ĠN ic
ĠF am
f ish
ĠH ills
ĠV iol
ĠF ather
Ġpack ages
ĠMean while
19 48
ĠS eg
reg ister
m k
Ġoccup ation
Ġwith draw
Ġk ernels
Ġsurround ed
Â ·
Ġtrans mitted
Ġcov ariant
0000 00
Ġa z
Ġevol ve
Ġbur ied
Ġr anks
ry ption
ĠH ero
Ġext ensively
M ock
Ġn ut
Ġanim ation
Ġdep ression
Se ptember
Ġattack ed
ĠM and
Ġed ited
Ġr uling
Ġtown s
Ġco arse
Ġfunction ality
Ġm ales
Ġparticip ated
Ġthermod ynamic
AS H
ĠB ah
19 39
J ac
Ġpar a
r ator
Ġsign ing
Ġredu nd
ill ance
Ġgu ilty
S un
ĠG ordon
Ġnov els
Ġtriang les
pan cy
Prot ocol
ç ļ
_ ,
Ġprom otion
ick et
prot ocol
ĠâĨ Ĵ
Ġ' /
Ġtransform s
Ġneighb oring
Ġexcit ations
Cl oud
ffic iency
e ast
Ġt ub
hy thm
Ġre ven
Ġsur ge
ĠPl ayer
P et
Ġg athered
à¤ ¾
Ġas semb
Ġport ray
Ġcr imes
ĠG P
( .
m ot
ĠAl bum
Ġrun time
Ġc ognitive
Ġa xi
Ġvirt ually
am an
ps y
ĠChrist opher
Ġhierarch ical
Ġt y
b atch
Ġsim ulate
less ly
Ġpri ze
Ġmagn itudes
Ġg ear
Ġdevel oper
Ġper mitted
Ġob sc
ÑĢ Ð°
Ġgl uon
ne ut
que ue
Ġdes per
Ġiter ative
ĠAd S
Brit ish
ethe less
Ġoutperform s
ĠB ron
Ġcent uries
ĠP ho
Ġhand led
Ġimportant ly
MA X
w alk
ĠK y
Ġless ons
Ġar ranged
app endix
Ġdif fe
Ġmer ch
anc ouver
m ate
Ġk pc
å ı
li ver
l ov
ĠS el
ĠWith in
ĠS ri
ob i
19 00
Ġte a
pat tern
W R
Rober t
w estern
Ġdistrict s
Ġsk etch
aver age
ĠInt elligence
impl ies
Ġreg imes
Ġreli ability
D ouble
Ġret irement
U SE
Ġ( *
he im
h uman
ĠM ort
cal ing
Ġinteg rable
ap olis
ĠD est
Ġneighbour hood
ĠF er
Ġf ed
C opy
bu f
ogene ity
at z
10 24
Ġtext s
T L
Ġmot ions
ire ctor
S am
Ġneg lected
ĠIsra eli
ĠN BA
ĠAd ams
Ġdimension less
? )
Ġel abor
Ġcomplex es
Ġload ing
. ),
s it
)- (
Ġburn ing
rop olitan
ĠS tage
Ġstri king
g auge
Ġb orrow
j an
ĠRe act
U B
ĠWork ing
ĠSing h
b ach
i u
m ill
}) }{\
L and
Ġstr at
Ġtalk ed
system s
Que ue
Ġanomal ous
Ġdissip ation
H a
Ġper mit
produ ction
Ġval ued
ĠF M
Ġf ought
| }\
Ġpredict s
Ġhard ly
ĠCr ime
ĠG ran
r n
S ever
'' $
t ar
Ġden ied
Ġm ouse
Ġcompens ation
Ġto w
sc roll
ĠDef ault
Ġre n
* }\
f ollow
Ġd ial
ail and
Ġassert ion
spect rum
Ġc ow
ĠW I
ost ics
Ġchar ity
O O
i ations
Ġdem ocracy
Ġmaxim ize
ac les
ag ent
Ġcooper ation
Ġpart ly
Ġg olf
if iable
Ġion ization
Ġin version
ĠB ull
., ][]{
Ġview ers
16 5
Ġf est
Ob j
rel ative
Ġdeploy ed
; }
n odes
19 42
Ġh az
Ġfilter ing
ĠB us
F amily
Ġo ct
Ġcomm ands
, $$
Ġconf lic
ĠT rib
O ld
om ed
e igen
Ġcritic ism
Ġdiscrim ination
Ġdo i
Ġcapt ures
çļ Ħ
: #
z hang
Ġch at
Ġt une
ĠF ast
Ġpredict ive
pl ots
Ġen abling
13 3
Ġb tn
19 52
Ġbe er
f ather
ĠSD SS
Ġsuper vised
Ġin fections
ĠO klahoma
Spec ial
W W
AR N
at io
FF FF
Ġcor ners
Ġprodu cers
ĠSol utions
ĠDet roit
Ġcontrib utes
Ġple asure
Ġimplement ing
Ġbackground s
sche ma
Ġback ward
Ð ·
t l
Ġj u
Com pat
el ing
ĠStrateg y
Ġbond s
Ġif f
cre ts
ERS ION
19 47
sq l
in ance
G N
ĠChair man
d imension
bu ilt
bur st
Ġdec oding
Ġrespon ded
M atrix
ig roup
Ġuncer tain
Ġb one
] _{\
Ġun w
Ġhy perp
~~ ~
Ġarm ed
um my
ĠAl abama
ĠAr k
est ions
Ġwar rant
N ovember
Ġmy stery
; /
ĠL GBT
Ġconc aten
Ġsat ur
ĠP rior
ens en
Ġout lined
ĠA thlet
Ġly rics
Pro b
Ġinvolve ment
ator ial
W omen
od ox
n il
Ġcancell ation
Te ch
Ġinn oc
Ġexam ination
="../../ ../
ĠOr th
Ġdepend ency
Ġprob abilistic
u ct
P rivate
ĠPr int
). \
App endix
the ir
Ġmon op
Ġ rib
ater n
ĠMat hemat
Ġsuspend ed
P ER
ĠP ra
Ġdrink ing
Sim ilar
ĠG C
at omic
Ġpush ing
over rightarrow
C ard
Ġw rest
ĠAng el
ĠT aking
ĠPolit ical
ĠĠĠĠĠĠĠĠĠĠĠĠĠĠĠĠ ĠĠĠĠĠĠĠĠĠĠĠĠĠ
Ġdriv es
.\ ,\
H o
fra id
}\ |_{
ĠRef s
Î ¹
Act ivity
Ġs hed
ithm etic
d ale
Ġm ice
ĠSt ein
are r
mult ip
Ass ert
Ġvolunte ers
all ing
ĠCent ury
ist ration
Ġdirect ors
ĠCor onavirus
Ġmer ge
method s
elect ron
Ġfra ctions
Ġle pton
HE CK
H ig
ĠD ouble
| $.
ĠN P
Ġe cosystem
Ġch ronic
Ġsaf ely
Ġresc ue
Ġv it
ĠBe aut
riv ing
l p
ĠI ce
Con stra
Ed it
cre ation
Ġequ ity
19 53
Ch apter
J SON
h op
ĠB L
ĠB ishop
R o
set up
Ġthem es
}: \
Ġf ishing
ric ks
Ġin ev
act ing
Ġc ul
sub ject
Ġpref erence
ce ut
uc lear
Ġl oyal
Ġcomput ers
T w
Ġto uc
bas is
Ġpat ches
ist ance
Ġad min
Ġad s
X Y
Ġt elescope
ĠChall enge
Ġsp ark
phys ics
Ġact ively
13 6
, +
g p
ĠJ ess
ene z
ĠK it
Ġ rays
sh adow
ĠAnd y
Ġint ellectual
ur d
ĠP ublished
H F
Ġb ull
19 41
ash ing
n od
Ġs ink
Ag ain
Ġstream s
}$ \\
ĠR andom
enn y
Ġinfin itely
ĠFig ures
Ġchair man
ĠT ru
u is
Ġcelebr ated
Ġillust ration
Ġstat istically
Ġpres um
rape ut
19 43
ĠRuss ell
ab e
represent ation
ear ance
x it
sche me
|\ ,
perform ance
in ality
ag ers
chi at
Sy mbol
ĠLeaders hip
other wise
Ġres ort
Ġ\ %
ĠS ac
Ġper ception
Ġb ot
ĠM ind
O B
ĠD escription
ĠRead ing
N ov
Ġm ad
ĠT i
ĠY an
h ill
ex amples
ĠUn like
,\ ;
ab ul
B er
ĠAl bert
ĠConst ruction
Ġtom orrow
Ġturbul ent
ĠN ode
N F
ang ers
Ġtrac es
%% %%
ĠSt ars
ĠStud io
Ġout line
Ġz eros
arma ceut
for ced
Ġview ing
ie val
Ġexplos ion
ic ut
Ġqu ote
á ĥ
t v
ffic ial
Ġp or
Ġautom ated
Ġhe x
the ore
the o
ie ve
abet es
o es
ĠK ings
ĠV I
ma xim
ĠJon athan
B ay
Ġgeneral ize
uls ion
19 18
Ġres erve
ĠE state
ĠPer haps
Ġmet ers
Fl ags
US A
ĠAg reement
ĠH oll
13 7
f ollowing
quir y
ĠIn surance
u h
Ġal arm
Ġmass less
B al
am az
Phys Rev
F rag
ous ing
Ä į
vers al
){ $\
ret ch
Ġin ches
ĠRail way
Ġcon figure
ynam ical
condition s
Pres ident
Ġconsequ ently
[ :
Ġcon g
J apan
ĠK ir
}: =\
Ġminor ity
Pan el
Int eg
ab i
Ġimm igration
Ġgra phe
ris k
ron es
ĠB ed
ros so
. \,
est im
l c
l on
Ġval ley
Ġestablish ment
ĠKent ucky
Down load
ĠMex ican
Ġde form
ryst al
ĠPl ant
ĠI ron
ĠG ary
N ever
Ġsupp lied
Ġl ake
Ġdis aster
Ġpo et
Ġl oves
Ġtra pped
Ġprot ests
ĠDown load
ett i
3 000
in burgh
L I
G H
Ġterm in
tr igger
Ġvol at
Ġcyl ind
Ġc able
ĠI de
ĠPy thon
Ġc ock
A ir
is i
]{ @{}
Ġspat ially
Ġbirth day
Ġb es
Ġr g
S ongs
ĠC MB
Ġl oud
ĠCont ract
ĠAdv anced
19 54
E V
Ġt ort
Ġappoint ment
ĠC zech
tag on
Ġcol ours
Ġland s
Ġprem ium
ab a
ĠBe ing
ĠS ED
ol en
Ġcampaign s
ab ol
om es
Ġex terior
Ġple ased
xim ity
Ġcomp ounds
U LE
Ġlaw yers
Ġmil k
D er
is cal
Ġon set
ter min
cont roller
Ġmet adata
Ġdescript ions
. *
Ġf aint
A O
Ġc asc
ad joint
ĠJ e
ĠR achel
Ġprom ot
F oot
Ġm ath
scal ar
Ġt idal
Ġmes on
b ol
build ing
ĠHigh way
Res earch
ĠO K
Ġspect roscopic
ĠSing le
ĠS ay
Equ ation
ĠF ed
f are
fl ag
Ġsk ip
Ġrecommend ation
ĠMax well
ĠChar lie
ĠAn na
nu cle
ĠH ost
Ġth ro
Ġatt itude
Ġl ung
ĠR ank
Ġsc attered
cur ities
min imum
j query
ĠD al
Form er
Ġconduct ivity
ĠR oute
Ġca ps
T aking
he ll
hand ed
ĠT oy
Ġsupp ression
Ġconclud es
M ath
-------------------------------- --------------------------------
ĠSen ator
}\ |\
ĠC lick
Ġins pection
ĠA le
ĠC ape
In formation
Ġm as
pect ives
Ġdeploy ment
Ġparticip ating
ĠM oney
Ġprocess or
ĠRiemann ian
Ġbound ing
Ġadequ ate
ur u
ĠM oscow
Ġsh rink
Ġchem istry
Ġgradu ated
| ,
Ġlimit ation
ĠInnov ation
Ġpar abolic
^+ (
Ġl unch
ĠB ou
Ġp our
ĠL arge
ĠH aving
iss ipp
Ġad i
ular ity
Ù Ĩ
Aut o
ul ators
Ġdist ortion
ides pread
ĠE lection
ĠC I
Ġrefer ring
Ġph rase
vent ions
ĠBo olean
==== ==
Pro gram
Ġstret ch
ed a
r vert
ik h
Ġcharg ing
f x
Ġan th
Hel p
Ġestabl ishing
Ġcyl inder
Ġlux ury
Ġsequ el
inter val
Ġexp ans
ĠComp an
U AL
Ġgraphe ne
Ġd ictionary
ord ination
Ġpurs ue
Ġnot ations
Ġle verage
000 1
Ġbin aries
ic ates
Ġa pert
Ã º
ĠSwed ish
f ers
Ġcur rency
ex istence
Ġcal endar
est one
O H
Ġen code
Ġjoint ly
l ive
Ġfle et
v dash
ĠM ir
row ing
Ġg raphics
Ġst ere
grad ed
c in
Ġsophistic ated
ĠV o
os itory
Ġsens ing
Ġaggreg ate
Ġas c
Ġfol k
itt en
Cl ose
Ġcumul ative
uk i
ur c
he art
19 46
Ġconcent rations
Ġt u
ĠN ear
AT ED
ust ers
Ġun changed
be ck
aren cy
t ures
iss a
triang leq
Î ½
Ġpolar ized
Ġd ad
ar ound
19 49
Ġreson ant
Ġwavelength s
ĠPl aces
ĠW rite
Rem ark
Ġm im
Ġacqu ire
Ġwe ird
H ub
level and
ĠB os
F our
I ll
Ġaband oned
Eng ine
ĠC hel
Ġfix ing
sc ar
ĠV ery
ĠN ichol
Ġnorm s
section s
ch t
ve ction
bal ance
ĠD etails
plic ation
ĠU tah
armaceut ical
Ġpref erences
× Ķ
Ġtum or
Ġrec ruit
Ġmon omial
Ġestim ators
d iamond
ĠGra ham
orient ed
Ġcor ruption
L ive
FI LE
al most
u ous
resol ved
ĠC F
ann ah
ĠI r
ĠP ic
H ave
h m
ĠA F
Su ccess
14 7
ĠS FR
}$ };
Ġcontroll ing
Or gan
Ġprepar ing
or igin
L y
he alth
IT H
g un
l vert
ĠCon fig
M OD
Ġquant ify
ac o
Ġprom oting
O k
Ġsee ks
Ġs aving
id o
Ġg all
p aramet
Dis c
Ġcross ed
or o
pos able
is an
Method s
ĠLabor atory
Ġfre ely
P ut
Ġclot hes
qu al
Ġtreat ments
Ġco aches
ĠShe l
est imate
Ġprior i
i ating
ir ates
19 5
Ġse eds
add r
Ġreserv oir
if i
\ ),
Ġconstra in
ĠIm port
taint y
Ġmetall ic
math rel
^* $.
Ġconcent rated
ĠP ap
in cre
ĠSt ructure
ĠBre ak
P ad
20 2
ĠF al
g iving
Ġend point
Ġreson ances
et o
00 4
Ġsl ower
symm etry
By Id
ount ered
ĠÃ ł
iv an
æ ľ
Ġcor ollary
Ġpreced ing
hy dro
Care er
anc ies
err ors
Ġrele vance
Ġhe li
Ã ¸
ĠD ance
prot ected
ĠR ain
ĠHar vard
Ġun clear
Des ign
Ġmis take
Im port
Ġgl ad
Ġanalyz ing
}{ .
rot ate
13 8
rad io
Ġisol ation
dec ay
ĠTai wan
Ġt ags
-\ !
Ġb ij
Ġag enda
Flo at
plet ion
cont rib
in aries
Ġen orm
ĠRet rie
ir ts
ĠOver all
ĠBet ween
no align
ĠMe asure
Ġdiscuss ing
Ġreason ably
S V
Ġrelax ed
{- .
ĠP ick
Ġathlet es
Ġsp oken
it ations
ĠProfess ional
{ "
ĠE C
Ġed it
ĠSw iss
Ġd owntown
Ġcap ac
}= -\
Ġlat ency
ĠArch ives
ĠM ix
D s
Ġanisot ropy
Ġsqu ee
ĠDou glas
Ġvo ices
ill o
Ġevery day
Ġin cent
gra duate
p rior
Ġmorphism s
T ransport
Child ren
ation ally
ĠT ar
she et
P DF
Ġfem in
) )}
Ġres et
Ġlearn s
Ġlong est
Â »
ĠD ak
issipp i
Ġc ricket
Ġch arts
Ġint rig
ĠSh are
p ull
ing ers
Ġinvestig ating
Ġg overning
Ġflow ers
ĠBrook lyn
cal ar
Ġunder go
Ġh orses
ĠNe uro
ĠC V
int endo
associ ated
equ ence
âĢ¦ âĢ¦
ĠM N
Ġton ight
ps frag
ĠSt ewart
F iles
Ġis lands
Ġâ Ĥ¬
l ag
Ġj azz
Ġsusp ension
=" ">
Ġb if
L ow
Ġc f
Ġb read
Ġsuggest ions
Ġoff ense
Ġdefect s
' }{
il ateral
ĠLe ader
Ġaffect ing
B ro
do es
Ġcry pt
D iff
Ġcor por
ĠArt ist
0 25
Ġinstrum ental
19 51
Ġland ing
Ġattract ed
T i
Ġp c
am er
al go
tool s
col lection
Ġrob ots
ĠS now
am y
_ (
Ġb ene
Ad v
Ġcomplement ary
Ġincred ibly
Te chn
Ġj uris
h adoop
Ġbary on
Reg ion
le ased
ĠChrist ians
ĠÃ ¢
Chang ed
ĠL ock
K n
` ,
Ġ= &
De ep
14 3
Ġemphas is
ci pl
Ġent ers
Ġliter ary
Ġl uck
Q CD
m outh
H aving
Ġad option
Sim ple
ĠMur ray
Ð ¿
Ġgenu ine
Ġ[ âĢ¦]
yn man
ĠAd vert
V ec
ĠSte ven
Ġdesc end
le ans
ol ute
Ġbare ly
H ol
Ġsem antics
oth y
Ġh ill
Ġcomp ress
Ġcounterpart s
conver gence
Ġp ip
_+ $
S G
t own
s b
ilton ian
. (
ĠOper ations
Ġliber al
Ġhand ler
q w
^+ _
Ġcont ours
Ġdist inction
n othing
trans fer
Ġsign atures
US Y
Ġup grade
ĠL ang
Ġintegr ity
ĠBe at
ĠO il
p n
() ).
Ġbenef icial
em a
ĠUS D
Ġansw ered
ĠG ray
Ġtrans ient
Ġdamp ing
Over view
S ocial
Ġdifferent iable
Ġgra ins
ore r
ook ie
Ġ ip
Ġdream s
Wind ows
) ]{
Ġh itting
Ġle ak
as is
}{ -
integ ral
Ġmanufacture r
=" "
Ġst ating
ĠD B
Ġprot otype
Ġover se
Ġsubsc ription
Ġb racket
Ġlight ing
v ac
\ ).
ul u
st eps
Ġmanufacture rs
Ġdiscre pancy
ĠSu ccess
Ġcell ular
ION S
Ġassert Equals
S il
Ġstay ed
ĠB art
T I
ĠMalays ia
c od
Trans action
â ĪĴ
hook rightarrow
Ġenc ountered
Ġs orry
Ġhost ing
Ġrating s
Ġre b
ĠD ublin
ap or
)}\ \
Ġw idespread
Ġax es
ĠJ ob
ĠN elson
Ġdel iber
Ġt ale
Ġprogress ive
V ERSION
ĠC hern
Ġphot ometry
ut f
ĠCre ative
Ġsynd rome
ĠEd ge
ĠF em
Ġrep orter
Ġconvers ations
( !
Ġs lic
ĠR A
Ġagric ultural
e or
Ġbuild er
ĠT el
ĠW right
s r
Ġun con
Ġeng aging
ĠP oll
ĠR ating
Ġlock ed
K M
in j
Ġspan ning
pt ical
ateg or
ĠPl atform
ĠJun ior
2 60
Ġele g
M sg
LE CT
t u
$ ]
Ġhar vest
lot te
Ġau ction
E nergy
ĠLaw rence
clud ing
i ref
Ġdepart ure
Ġter rible
Ġn ons
iv o
() {
Ġsat uration
W el
r ub
Ġblock chain
ĠSpe ed
ĠB rig
ĠL anc
\ @
ĠC ass
e cho
s burgh
Ġin clusive
) }}{
Ġcont raction
ĠSe pt
Ġpresc ription
ĠV AL
col Last
{ #
th rows
ĠF ROM
Ġdi et
ou p
Ġl attices
ph abet
Ġ\ ,\,
ut o
un ov
ĠMar vel
Ġpubl ish
Ġcollect ing
15 00
16 8
ĠUr ban
Ġeth nic
we alth
ĠAnton io
ĠM W
D i
^* $,
Ġc hest
Ġstrugg ling
Ġt ies
ĠE N
ole v
ha o
Ġre finement
ĠK u
Ġphotograph s
G reat
Î µ
ĠDir ichlet
Ġconj unction
app ly
ĠW ikipedia
] +
Ġcl othing
Ġ\ )
Ġle pt
Ġtext ure
z h
k ip
key word
ij ing
=" @
ĠâĢ Ŀ
Ġsm ile
ian ces
ĠCamp aign
ĠClin ical
Ġre fined
13 9
Ġas ymmetric
oun ters
ant on
13 1
! }
Ġinvest ments
ĠTele vision
Ġcontact s
ĠBan ach
Ġsepar able
Ġtra ct
on ce
en abled
ĠMor ris
Ġpre t
App ro
Ġun ve
bi ased
ph ony
ĠRob inson
re ason
ĠS ud
un signed
an im
"> &
re ng
G W
p rom
ĠNetwork s
con e
pro to
qu er
b en
Ġsubt le
d ered
Ġsu icide
x t
Ġg ly
S ample
is ers
14 2
With out
Ġclaim ing
ĠM essage
Ġminim ization
yn olds
ific ant
s ized
Ġlet s
Ġmagnet ization
Ġsh ield
Ġmodul o
ĠBelg ium
Ġanalog ue
at able
Ġprov isions
15 2
Ġt ape
ass y
Ġcert ificate
C ov
l ene
Ġlic ensed
fl ows
Ġdeliver ing
Ġrom antic
thr ift
inc ial
An alysis
Ġw elfare
Ġman ually
Ġout flow
Ġaddress ing
se lection
Ġhuman ity
ĠC row
Ġlaw suit
ict ing
In ternal
Ġqu oted
col First
Ch ina
adv anta
b uck
ack s
av an
Ġaw esome
FOR M
ĠEm ploy
=\ ,
ĠR ap
requ ired
Ġa fraid
Ġinflu ences
ĠF BI
19 17
var iance
ĠSp ot
AB C
L ee
Å Ĥ
ĠI an
ĠAv ailable
Ġfluct uation
Ġhypot heses
ĠLear n
S cope
20 5
ĠClass ic
Ġt ropical
P red
u ate
Ġch ances
ĠC ome
Ġst er
$ _\
ĠCol on
Ġinter pre
UN D
Ġp owered
Ġsit uated
Ġb ullet
ĠN at
Ġanten na
Ġjud ges
U ID
Ġsurv iv
ĠM B
ĠBe ck
Ġmain stream
R andom
ĠGirl s
st ock
ĠPal ace
m any
ĠF le
lim sup
weg ian
de cor
Ġmus cle
ĠA U
ĠAss istant
ĠG ets
Ġcrit ics
Ġdes irable
K im
ĠI E
Ġhe m
Ġmar ine
ĠVis ual
{ -\
}} %
Ġplace ment
P F
Ġ$ ^
Ġsubst ance
id ays
ĠRes erve
z ed
| <
Ġdiff use
Ġat tain
ke ep
Ġenter prise
Ġvot er
g re
m obile
@ "
pre ced
Ġpoor ly
Ġspread ing
Ġsubstr ate
C hen
Ġseem ingly
ĠT arget
ĠMag ic
Ġamb ient
Ġdef ence
Ġdig it
Ġposs ession
P rior
ĠN i
ĠU lt
tab s
I J
ĠM uch
}=\ {
sw arm
ĠPubl ishing
ĠId ent
H on
Ġtheorem s
ĠH awaii
Ġoscill ator
R ay
ac ular
serv ices
fore ach
Pro blem
Ġcomb ines
Ġafford able
Ġl iv
Ġbeg un
m ers
ĠH ubble
ivers al
prop ag
Ġsub script
ĠKenn edy
N orm
ĠV ancouver
ag n
Ph il
Ġproceed s
Ġst upid
Ġven ue
M ot
on z
ĠPhil ip
S chool
end ence
Ġvic inity
F ran
ĠC over
ĠRog er
uck er
Ġdoll ar
Conn ect
ĠCamp bell
ĠB aker
th a
Ġacknowled ges
S QL
}}( {\
be it
Ġroll ing
Ġevery body
ĠIn put
Ex pl
Ġiniti atives
ogen ic
Ġt el
cal ling
* ,
j amin
Ġjud gment
pl atform
C ost
Ġv essel
ift y
Ġhead quarters
Ġcl arity
act ivity
riv ially
I AL
ĠR isk
ï »
Ġun em
ch art
comp ass
Ġpuls es
\% .
L ag
in ely
' ^
ĠB ud
It ems
T ri
j our
Ġar ithmetic
ced ure
ĠMov ies
Ġtw in
Ġlab elled
Ġh ired
ĠB att
our t
ir r
P ATH
ĠL ower
ke e
RE D
Ġpack ets
Ġbelie fs
ĠN ag
ĠTurk ish
ĠP arent
Ù Ī
Ġspeak s
Ġcontam ination
m itting
harm onic
Ġmay or
Ġsecret ary
al ia
Form s
em en
ĠL en
Ġtens ors
Ġhypers ur
d g
ĠJ os
call back
approxim ation
Ġl ibraries
ĠP el
ak ov
i per
chang ing
orthe ast
j ud
J ava
ĠM os
)\ )
rg b
Ġcatalog ue
h ide
ĠG ov
Ġphot ography
Ġsp acing
ric ulum
Ġcombinator ial
Stat ement
Ġm ig
19 36
ĠLeg isl
Ġrel ates
Ġland mark
Ġpresent ing
tabular newline
ĠG il
bl ank
Ġannih ilation
$\ %
ĠR av
Ġharm on
Ġin ject
}} |
he ro
ĠE ve
ĠIn iti
$ ^\
ĠP D
cl ock
ine q
15 6
d one
Ġs ons
Ġtem ple
ef ault
ĠE mm
ĠS ony
ther mal
Ġcomp oser
Ġem itted
Log ger
ĠAut om
,- .
ĠRep ly
omin ator
Ġshould er
ĠWal ter
. ).
exp and
Â Ń
ĠA u
Ph ot
Ġcontext s
Ġic onic
Ġphot ographer
ri el
ĠInt el
Ġac ute
Ġf ool
as a
ĠD ragon
16 9
st ory
im uth
Ġreported ly
ĠT ower
g ical
Int erest
ĠS ide
Ġph ones
Sh are
ĠR ules
Ġst roke
od ium
AN S
Ġcas ual
ĠQueens land
Ġn ights
fin ing
uer to
id x
Ġrandom ized
an cer
ivid ually
Ġj ew
âĢĿ )
Ġre cycl
Ġextra ordinary
ĠG A
a is
s elling
p al
omorphism s
fe ed
n orth
t c
Ġanisot ropic
Ġsp ir
l iter
Ġdel ays
w iki
19 15
ud son
act or
Ġfib ers
Ġs addle
ĠBase ball
ess ment
the me
pe at
ĠGa uss
t re
ĠS ob
ĠP odcast
ry ing
ĠTh ailand
Direct ory
tz mann
M ill
ĠG B
Ġparamet ric
ne ed
pref ix
A uth
Ġjournal ists
Ġmodul us
A rm
t f
f its
Ġsh ops
ur se
D est
ĠIndones ia
ï» ¿
T ele
ĠU C
)\ ;
ĠCar ter
Ġcontrovers ial
dis k
Ġsu gar
en ius
ĠR ule
ĠO wn
Ġc us
Ġtw elve
vi o
Ġor al
ĠMod els
c ir
Ġh ip
Ġbar riers
[ [
Ġp ill
Ġsh ar
}^ -
Ġm ood
Ġarrang ements
ĠY uk
C ert
ĠGu y
Bl ue
W il
Ġf li
ic i
ĠCh ron
Ġtour ism
Ġsub stitute
Ġaddition ally
Rem ove
Ġevol ving
Ġsched uling
ass ador
l av
od s
Ġl ov
Ġvill ages
um bers
ĠF ern
itz er
ĠHistor ical
ĠF ollow
valid ation
Ù Ĭ
Se lected
P ersonal
ĠMet ro
ĠG ill
ĠCon vention
Ġapp end
ĠPet ers
Ġemot ions
ob tained
Ġtun ed
}^{ -\
Ġmicrosc opic
Stand ard
3 30
Wh ich
Ġhad n
ĠÐ ²
14 6
19 38
work ing
Sm all
T ABLE
ĠHun ter
Line ar
ess els
Ġfil tered
th y
ĠTechn ical
p any
Ġre vol
. }.
Ġide als
ĠA LL
ĠCh amber
ab stract
C AR
Ġsu ite
Ġrel ay
Ġtriang ular
Ġres idence
Ġdom inate
ĠE ver
Ġmiss ions
Ġinc idence
Sever al
Ġle an
R oute
ĠD A
ĠE mail
Ġcomputation ally
j j
ĠC her
ĠM atch
Ġsumm ation
() ));
ow ing
Ġcl ause
Ġd uties
ĠB orn
clip se
e conom
Ġbl ame
ym ph
rist ol
pr inc
pos al
it ious
Ġprom ised
Sc ott
b is
. __
Ġmountain s
im ath
ĠEd inburgh
ĠMar shall
Ġanalog y
scal ing
ĠN L
Ġcon fined
20 8
19 19
15 7
inc ar
Ġgal actic
ĠAr g
Ġsc reens
ĠB eng
IN S
h ots
Ġspect roscopy
Ġear liest
Ġp ion
ĠAust ria
M etric
Ġpass ive
ited efault
mc itedefault
Fil ms
Ġmin us
Ġemb od
Ġanxi ety
Ï ĥ
Ġaccording ly
} ''
ow ards
Ġthrough put
F unc
Ġab road
)) );
ĠAgain st
Ġo mitted
ĠJ oy
ĠAnt i
ĠAl ber
om ing
Ġ" /
Ġres il
ĠV ent
l Vert
Ġsuper nov
pro ps
ĠSch r
cd n
Ġrest ore
um m
n z
ut enant
Ġwar ned
AN G
Pat tern
Ġpet ition
ĠW E
ĠR s
Ġr ally
I mm
Ġpen et
Ġpropag ator
ress ions
fl ags
T ax
as g
ĠIn v
bor ne
LE D
Ġsh ipping
C learly
v t
Ġsil ent
Ġen emies
ID S
Ġgovern ed
Ġp unct
sup ers
ĠD iag
ick ed
}} }(
ĠC ould
', '
Ġaff airs
Ġ% }
Ġsus pic
om on
L AS
Ġp ub
Ġpro ximity
Ġinitial ization
Ġal pha
f lex
Ð¾Ð ²
friend ly
ab ases
or ious
ah a
ore sc
rack ets
So ft
ĠR an
Ġab ilities
yp ical
ĠN A
h ai
Ġpredict ing
Ġener get
Ġsimplic ial
sh a
op ter
gener ation
ĠV eter
14 9
bran es
Ġanonym ous
Ġsc roll
Ġbon us
H ard
ĠP U
pl ant
Ġemploy er
ĠG ulf
Pro fess
big cap
n ob
ĠMuslim s
j p
Â ±
sq cup
ate ur
ĠPro duction
ĠCl ar
Ġanticip ated
irm ingham
ĠNe umann
Ġflo ating
Ġst adium
label ed
Ġkinem atic
Ġqu art
ĠLin ux
Ġassess ed
Y Y
Ġs i
om inant
Ġnon negative
ĠSer ver
)\, ,
Ġan satz
Ġimp ression
Ġfore ground
M id
"=> "
ĠA ren
Ġbi ased
p es
k now
ĠF reedom
ill ation
Ġc rown
Ġde put
ĠFor ces
* )
vis or
B ra
ell ers
Ġanaly tically
ĠDise ase
rosso ver
4 000
ĠL ot
Ġm s
ĠS ale
ĠH end
un ion
ĠJust in
Bas ic
o ples
Re cently
by tes
ĠC old
ĠK ids
ĠPort land
E u
Ġst eal
Ġph osph
}) \\
Ġexp ense
S at
Ġsur jective
ĠS ustain
ĠStud ios
Ġped est
ĠC ox
ĠJ en
Ġinf ect
F rench
ĠA qu
f am
ĠK night
qu estion
ĠM ail
Ġpl aus
commut ative
Ġbe ams
gu ide
Ġatt ending
test s
tun ing
c oupling
ĠT itle
iv als
ĠRes Net
Ġceleb ration
Con ver
Ġcon form
ĠPat ri
ĠComm ons
Ġfaith ful
AN CE
Ġj ail
Ġretrie val
Ġcal ib
Ġch urches
Time out
Ġdemand ing
ĠV ector
Feb ruary
Label s
Ġcha os
Ġstay ing
ta ur
Ad apter
s child
ĠTe acher
Ġg est
Ġme al
ĠT ed
Mem ory
em p
Ġroy al
, -\
Ġed iting
Ġbipart ite
or us
ĠD rug
Ġdown stream
Ġindic ation
Ġf oss
ĠMe chan
ĠAfghan istan
am ine
D uration
ĠEv ans
Ġpaint ings
cept ions
ĠZ hang
Ġoccasion ally
u id
18 5
b ank
mem ory
Ġz ones
Comb ining
Ġ$( -
ĠB ody
)$ :
Ġ esc
to o
ĠN HS
ĠHig her
ĠCo hen
Ġb oot
ĠM T
v d
ÃŃ a
ĠBo ys
ed ges
with in
Ġemail s
support ed
ĠIss ue
........ ........
14 8
Ġvis ibility
Ġd b
ĠArch ive
Ġch ip
vi ol
id ation
Ġl ag
W in
ĠOr leans
Ġdiagn ostic
Ġadi abatic
ĠKe ep
_* \
Ġemer ge
ari ju
ĠM is
ĠE D
15 8
Ġmer ged
cont rolled
Ġlif estyle
Ġdes ert
Ġaut onomous
)^{ -\
Ed ge
s ided
++ ++
) }^{
ĠScient ific
ere n
28 0
R ole
ĠF ly
\ `
Ġconstit ute
mu nd
ri ent
Ġnot ions
wild fly
L ondon
Ġsuperconduct ing
Ġtimes cale
' _{\
Ġattempt ing
on ormal
or ange
Ġdiscuss es
ig inally
Ġsav ings
' },
Ġt ent
em on
ĠRe cently
BU G
Ġexplain ing
Ġexceed s
ariju ana
Ġdeb ug
F un
ĠSt ra
Ġfermion ic
Ġtouch down
Ġw ond
Ġcompris es
Acknowledg ements
Ġbr ut
bor ough
Ġlog o
Ġthreat ened
H u
van ishing
ĠO cc
DE s
_* $
ĠConnect icut
. }}
Ġagric ulture
Ġfil tration
ĠMan ufact
)+ (
Ġde emed
ĠCustom er
h ind
ĠPe ak
Ġveter an
ĠBalt imore
S ta
\ #
Ġc er
S K
in ar
Ġexclud e
Ġtrunc ated
N EW
ĠD oc
me as
Ġstat istic
al p
Ġaud iences
Ġp up
Ġshall ow
En vironment
ĠQ uality
ĠJim my
ĠK az
ge o
Ġdegener acy
Con struct
Ġart istic
)} +
ĠSim ple
ĠSam uel
ĠCol lect
Ġl ucky
ĠB egin
inter pret
N ET
B u
^* )
ĠSc i
Ġle x
log ger
Ġpo ison
f mf
}} [
Ġob s
Ġde cent
pm od
ĠOper ation
u ating
ĠW W
St ation
19 37
Ġaccompl ished
ĠArab ia
A H
rob ust
Ġcult ures
Ġengine ers
Ġh ung
Ġhand ed
e als
ĠS Y
rel ativistic
Ġmonot one
at im
Ġ Ñģ
Ġmind s
Ġrest ored
i q
Ġun s
/ {
Ġemploy ing
Ġtre ating
Ġfin ishing
OM E
Ġsol ves
Ġp ounds
ĠC rown
r us
Ġadv ances
oc aml
ĠPract ice
Ġsmooth ing
ad j
ens on
ract ing
ĠMiss issippi
ĠRe ference
Ġt rem
Gener ic
ĠG ate
ĠN iger
ĠLu ke
P erson
ĠLa placian
ĠW orth
ĠCra ig
inter action
h p
as ympt
Ġg a
Ġg allery
res et
ĠLouis iana
ric ane
Ġnom inated
ĠSt atus
prob ability
Rich ard
ĠV M
Ġdram atically
P eter
ass ment
ĠTown ship
Ġt uple
ĠWay ne
ro v
Ġpo em
][ '
ĠK ate
ĠP un
ed ition
ĠT X
ick ets
19 14
Ġrom ance
F W
Ġan notation
Ġun e
t abl
in verse
Ġnob ody
L android
math ring
ĠG ot
;\;\ ;\;\
Ġm i
Ġob ey
Ġpoll ution
Ġstrong est
ĠArch itecture
Ġag gressive
Ġg onna
Ġrac ism
)\, .
hand ler
Ġst unning
22 4
Ph ase
." );
Ġc ust
n or
ac co
ĠĠĠĠĠĠĠĠĠĠĠĠĠĠĠĠ ĠĠĠĠĠĠĠĠĠĠĠĠĠĠ
Ġcross es
: [
l ades
ĠMaterial s
\% )
ĠT es
Ġdev ast
ĠE W
Ġg ym
SI ZE
Ġearth qu
ĠE SP
ĠR and
ĠColl ins
Le ave
ĠWar ren
Ġpron ounced
w al
Ġmort ality
Ġjun ior
ele ments
Ġbuild s
ĠAn c
ĠD ie
ĠE dd
] ,\
| ^{\
Ġwild life
Ġthe sis
M el
Ġclean ing
19 35
Ġfollow ers
ĠBe yond
d ialog
ĠF E
z ens
Ġsoc cer
pro ved
Ġp ul
Ġv iable
ĠT un
Ġ& =\
Ġencourag ing
Ġthe ater
Ġretain ed
Ġpric ing
ĠSte el
ĠMar ie
Ġinstance of
ĠB ag
Ġpre vention
15 4
E lect
Ġper ceived
ĠPro b
small matrix
l um
t ok
st retch
man ager
Ġaugment ed
ĠEx amples
à ¦
F uture
met adata
Ġbas elines
Ġn ick
}\ {
preced ented
!! !
ĠS amsung
ĠMor ning
24 5
Ġvent ure
Ġoff line
Not Null
ad ows
Ġre vis
ho o
ent a
Ġparad igm
Ġcon vin
im s
app rop
Inst ead
ĠPho enix
ĠD eg
Ġconnect s
ĠN ep
Ġprotect ing
Ġgather ing
ah ler
Ġre wards
h is
ĠS quad
row se
le tt
Ġg ri
ĠC ut
Ġpar ish
ern al
ĠU pon
ĠCh ile
H or
ĠP ad
load ing
Ġfast est
ap os
ĠG round
maj or
comp ose
ist ered
Ġaltern ate
ov ich
Ġdesign ing
t mp
ĠP ope
Ġpro s
ĠSus an
hat tan
Ġstar ring
Ġsche ma
Ġ{ (
Ġacceler ated
L iter
Ġp iv
Ġess ay
ĠF I
OR Y
Ġdetect ing
Ġstat s
ĠS oul
t le
st ead
Ġatt raction
ĠF ine
ĠD I
( __
ĠW u
ag ain
Sym fony
ĠH TT
] =\
Ġsub spaces
)} +\
am ic
Ġsimultane ous
Te X
Ġaccommod ate
ow ell
print f
Ġf ate
NN s
Ġb orders
Ġfasc inating
b inary
Ġ{ '
ath on
E t
ĠMit chell
Ġenthus i
ĠC el
Ġdis orders
ĠEvery thing
R ank
}$. }
if ice
ĠL com
s ampling
Ġde ck
Ġinfl amm
ad just
var sigma
Ġcomp os
Ġpl ates
face book
B rowser
ĠN eb
vert ical
}{ (\
it ual
ul in
Ġcirc uits
Ġax ial
ĠEx perience
ĠSt orm
rest rict
Ġnot ably
Ġmod est
Ġpract ition
observ ed
er ick
Ġstreng the
o pp
Ġabsor bed
K ing
Ġtrig gered
ĠS ug
Ġd ir
Pl ot
m ind
ĠU pper
Ġun ified
M ad
^{- (
Ġconf used
ib bean
ĠF alls
vis ible
Ġind ividually
n it
ĉĉĉĉ ĉĉĉĉĉ
f erm
Ġsc ream
w ould
ber ger
Ġen umer
Ġdo zen
Ġrecord ings
ink owski
Ġb ron
ĠH im
Ġsub stitution
IF AR
i ov
Z hang
H i
sh ore
Ġmusic ian
Ġlens ing
15 3
ĠP E
Ġcred its
H M
B ad
b ay
Ġswim ming
Ġgot ten
Ġg ard
Ġd eta
Ġexp enses
Ġaccom pany
omet ers
Ġdom inates
ĠV A
20 23
ĠLe ave
pr ising
Ġyield ing
Ġdam aged
99 9
ĠS ent
th us
19 10
- )
S pect
onic a
Ġbos onic
equival ent
Ġpsych ological
Ġelim inated
ĠUnivers al
ĠHop f
Ġkn ot
Ġg ross
Am ong
Ġsol ver
ĠPan el
n est
Ġun fold
ĠPr incess
ĠC leveland
Ġlo ans
typ edef
ĠBroad way
Ġp arks
le igh
Tra ce
integ er
M us
Ġin complete
Ġshort est
Pl ayer
Ġde leg
he ld
ll ll
sh are
Ġlo ose
d B
t bl
Per formance
23 5
ĠT ob
Ġk iss
Ġex ponents
iz ard
Ġst yl
Ġco q
To String
av g
Ġte eth
Ø§ ÙĦ
is enberg
att ention
in her
Pl ugin
Ġl ady
Ġep ic
Ġirre levant
19 33
hol m
per ial
ĠIn n
Ġalloc ated
Ġ$( {\
Pl ace
Ġiniti ated
her s
Ġdecl ined
alth ough
Ġfail ing
Do es
Ġre written
B AR
ic he
Ġm ilit
Ġtoler ance
ĠD L
ĠMar c
ĠC BS
ST AT
Ġident ifies
Desc riptor
constra ined
N I
li u
Ã ¥
w rapper
ab ad
Ġinter faces
ph al
Ġpat ent
cast le
Q A
R ate
ĠKen ya
ĠF iction
ĠO d
Ġem p
Ġmultiplic ative
pre v
Ġdelet ed
S ync
Ġnull ptr
'] )
=\ !
Set ting
ĠMa ine
v ary
Ġfro zen
ĠAst ron
Ġhun ting
O F
36 5
ign er
Ġappro ached
Ġ å
ĠM es
M ach
e ing
Ġpoly mer
ere my
ĠSt ev
Ġbur den
)} -
Ġnews letter
em e
ass er
Ġun c
ĠCon c
Pro file
ĠRob in
Ġa ster
Ġj umps
ĠO range
S elf
test ing
col sep
Ġsing let
Ġcancell ed
15 9
ĠSch w
ot ypes
ld er
arc ia
k u
Ġre lying
unt ed
We ek
Ġcomplet ing
ĠBlo om
ĠEmer gency
Ġd ash
Ġh ub
Mean while
cho ice
pt s
Ġexpect s
Ġsh it
Ġan nu
m other
Ġalleg ations
Ġpro l
Ġodd s
Ġbank ing
Ġst iff
Ġfore sts
cur y
ues e
16 7
sh ared
aught ers
UT F
v p
Ġpick s
Ġrece ption
Ġca ption
ĠBrown ian
Ġenorm ous
Ġpers istent
f ive
}) +\
object s
Ġbij ection
Ġfor um
Ġspecial ist
ogn ition
> :
Ġir regular
ta gs
ĠĠĠĠĠĠĠĠĠĠĠĠĠĠĠĠĠĠĠĠĠĠĠĠĠĠĠĠĠĠĠĠ ĠĠĠĠĠĠĠĠĠĠĠ
r Vert
M apping
Ġaugment ation
ĠG olf
ĠL aura
ĠL S
Ġmet res
mag n
Ġmonot onic
Dom ain
New ton
k pc
Ġsm oke
c A
Ġs li
abul ary
L ayer
D IF
Ġequ iv
ĠAud io
Ġaggreg ation
J im
Ġi OS
ĠC ole
Ġal ien
AC H
iz on
sh own
2 12
ĠFri ends
part ition
iss ance
b k
ĠIndust rial
Ġhad ronic
Al tern
s al
3 75
Ġwor ried
J ul
n at
online cite
ĠB og
w ere
Ġst ays
ĠMarg aret
Ġs id
ĠS ize
graph s
om i
Ġrid ic
ĠM all
Ġ= ========
Ch ris
Ġlift ed
c hem
Ġcomp ly
ĠA part
con clusion
ĠI oT
Ġlegit imate
Ġassoci ations
exp ression
j ob
nav List
ĠBas ic
l it
Ġt ennis
Ġpl acing
UT H
oc om
iter ator
ĠStan ley
exp ansion
Ġsurv ived
ĠBar bara
s amples
ass o
Ġen force
Ġcount ies
à ®
ĠH ash
Ġsm oot
Ġc ous
Ġint elligent
AM P
Ġf riction
em ark
Ġtra iler
ond o
ĠAb d
al ong
Ġ[ ];
Ġrad ar
S eries
Ġoppon ent
. <
M ajor
Ġbreak fast
r ised
ĠWeek ly
ĠDen mark
Ġout going
× ¨
Ġc ave
Ġdec ides
Ġpred ominant
Ġtal ented
Ġd ump
Ġre vised
C amp
Ġcon spiracy
Pass word
ĠT D
Ġmyster ious
ĠU I
Ġclass ify
Ġapert ure
S ave
Ġapproach ing
Ġcent res
Ġglob e
Ġpresc ribed
ps hire
Ġfoot age
ĠBl ues
ĠDen ote
y outube
Ġspl its
00 7
ĠBrother s
im ag
F rank
Ð ¹
ĠE li
Ġdim in
L ower
pre ceq
Ġ... ,
c ot
Ġang ry
re lease
Ġn ose
ĠC itiz
Ï ģ
× ª
ĠAl b
ut ers
ĠF ab
n ament
ay an
ĠP ant
Ġsucceed ed
tem por
ĠIs a
list ing
bo ards
Ge orge
Ġdisput e
Ġjo ins
CD M
ĠPrim ary
ĠFant asy
mb f
On line
}: =
Ġnom inal
comb ination
G erman
ĠK el
ĠA y
B Y
ud ge
Ex pr
A ST
C ategories
ĠAdd ress
16 6
Load er
Ġfall en
Ġtarget ing
ĠCy ber
++ ;
Ġconduct ing
Ġsch olars
Ġto y
20 4
ĠPortug al
Ġf ert
Ġb ilinear
Ġpermut ations
In it
' })
F ailed
Ġ" "
ĠArgent ina
ĠB aby
Ġsp ell
ĠN othing
row ave
j ack
tikz cd
per m
Ġins pect
Ġfair ness
N i
Ġunder ground
V S
Ind ia
Ġsub mission
Select or
Ġconfir ms
et ed
Ġaltern atives
ĠLiter ature
Ġst ocks
L imit
Ġc ube
33 3
Ġpick ing
ĠA my
ĠQu antum
Ġwidth s
ĠProduct s
cm id
dat aset
-> _
oc on
ĠV oice
19 34
Ġdis h
oun cing
Ġth irty
ĠDen ver
ĠR G
ĠBet ter
ph on
Ġd rew
ĠBe ijing
St op
Ġthread s
Ġincl ination
ex pr
ĠH ind
Ġcook ie
ill ery
Ġtor que
14 1
)}{ (
Ġavoid ed
Ġwant ing
** *
Through out
Ġarriv es
Ġpregn ant
ĠN R
L ove
ĠK an
Ġim pe
40 4
20 3
Ġnucle on
Pro xy
Ġrig orous
Ġhigh way
dis crete
b rowser
rac ing
Ġcard inality
ĠAm endment
ĠStat istics
ĠL ik
Ġgold en
, ,
ĠB irth
F ar
ĠM ade
log in
inv est
B egin
Ġr iding
ĠRe ynolds
Ġcontinu ation
Ġh int
Ġcomp iled
Ġloc us
^ -\
De ath
{ }{
ĠS ad
Dep artment
cmid rule
os hi
ĠC ars
ĠB right
ĠT ODO
ĠĠĠĠĠĠĠĠĠĠĠĠĠĠĠĠ Ċ
rypt ed
( |\
P resent
ĠSt op
ĠAd ditional
Ġsurve illance
Ġres ign
Ġbif urc
F UN
res on
Ġper pet
ĠAl aska
######## ########
ĠCom plex
uff le
c ity
Ġc rop
ĠN otes
ĠIn stit
Ġw orship
ĠS Ne
ic ating
ĠR GB
as ym
ĠInter view
ĠDemocr at
R NA
L ead
ĠA the
Ġi o
ir med
Ġrepl ied
ic z
ĠPitt sburgh
Ġst ain
ĠCondition s
}}{ {\
ĠS EC
olog raph
alt ies
Ġhead ers
ĠV ar
m el
ĠGuard ian
Ġcha otic
Ġtra dem
AD D
Sc roll
as sembly
Ġactiv ists
ĠRober ts
Ġcom ed
Ġrem n
Ġv essels
ĠC ultural
21 7
ĠDep uty
Ġsmart phone
}) _
), $
Ġd ying
id ency
Ġfl ip
Ġanaly tics
Ġbacter ia
uls ive
Ġt ons
} <\
ge ometric
ĠL ost
OR K
Ġmount ed
assert Equals
) &=
15 1
amp a
Ġimp lying
ĠPark er
ĠH O
L F
L anguage
arant ine
Ġcomp ares
ĠZ one
Ġsw ing
ma pping
Ġsent iment
L INE
Ġg ig
ĠCo al
ili ation
Ġactiv ated
Ġplanet ary
Ġb esides
ĠThe ater
Ġfound ing
Res ol
amb ers
Ġco in
p seud
Ġlab our
amaz on
ĠO P
s outh
av al
ĠC G
ĠM unicip
pro gress
Ġsurprising ly
ing ale
C RE
ĠC B
med ium
spect ral
ĠTechn ologies
i Ã³n
Ġform ulate
ĠM ut
d ated
Numer ical
18 00
ĠCom merce
Ġf atal
Ġb ills
}^{ {\
ĠY u
look ing
E lements
ĠH ess
und efined
Ġm ism
B ERT
Ġspecial ized
Ġ ul
id i
res ources
Sh ould
un ting
Ġentreprene ur
ĠW ould
Ġcert ified
ĠJ oint
Ġgu ided
Ġoverl ook
)= -\
Ġd ated
ĠH z
(\ {
he imer
P arse
Ex perimental
Iter ator
ĠD ig
rm k
Ġpe cul
Ġemploy ers
Ġvolunte er
Ġpack ed
+ |\
Ġaccompl ish
ĠCol umn
}{* }{\
Cent er
ĠG ay
ĠMur phy
par ser
ĠC SS
ĠN ormal
col lect
19 29
ĠL ad
Ġrem oves
Ġmorph ology
usal em
W alk
Ã ł
im ization
Ġresidual s
verb atim
> ::
Ġ( _
Ġwe igh
ĠF ashion
Ġbeh ave
St rateg
mag net
Ġdraw s
Ġmathemat ics
b undle
'' (
sc apes
Ġfun c
Ġcompat ibility
2 11
ĠW a
Ġinflu ential
Ġob l
ow der
uit ively
Ġanim ated
th ird
Ġgener ative
ĠAl ong
R P
Ġartifact s
g ie
id ad
Ġcon dem
Ġl ingu
Ġra ises
]{ $
Ġavoid ing
V V
non ym
Ġant is
ĠInvest ment
Ġproceed ings
Ġas ync
ĠK ind
Ġj ury
D ifferent
ĠTh ink
}) -\
Ġshe af
Ġ ],
Ġagre ements
Ġsus pected
Ġsuccess ive
ĠN intendo
Ġj e
ĠM illion
Ġr ated
ĠS K
pp y
oper ation
Ġtele phone
ĠFrank lin
Ġcryst all
ran ger
ĠEx cell
,\,\ ,\,\
c ro
Ġorth onormal
imod al
d ie
)\ |
Ġven ues
compat ible
ĠDak ota
× ľ
Ġprom ises
g ender
st ars
ts d
orne ys
Ġcomput es
L ab
Ö ¼
og s
Ġjust ify
Ġscient ist
Ġperturb ed
- }
Ġd ining
ĠR ing
ĠCamp us
ĠF ame
Ġgraph ic
Se lection
de cess
ced es
)= -
re ma
ĠF u
arm s
fill ed
th row
pd ates
Ġcollabor ative
ĠJenn ifer
ĠFl ight
A X
id uc
ĠSt rong
X ML
ĠL oss
ĠSom etimes
Ġd ub
Ġw ings
ĠC hat
pi res
Vari able
in fl
Ġmer ging
Ġdiscret ization
perturb ative
H ot
4 80
Ġinhab it
ĠCh a
ĠSe an
=" ${
Ġbut ter
uch i
Ġimplement ations
ri ors
Ġviol ations
Ġco aching
ĠT ak
de velop
Ġcur ious
Ġaz imuth
ĠF an
ĠJ our
æ ĸ
ĠMe eting
out ing
Ġa apt
Ġbl ur
Ġlist ener
Cl uster
}^* $
ĠInt roduction
Ġt ap
Ġb ind
Ġs ail
link ed
Ġutil izing
Ġthreshold s
b inding
ĠX box
ĠSh op
/ {\
ĠBu y
b ie
ĠR ud
t ransport
ar in
Ġegg s
Fil m
ch at
ĠS witch
le ases
Ġsc ar
tr uth
Ġun precedented
\| _\
ling ton
Th omas
cycl ic
ĠVis it
ubl isher
Ġu pset
sem i
Ġel ite
re ck
ĠA ve
con serv
NavBar Cell
00 6
be am
Ġf o
Ġfl ower
Ġo mit
Ġa est
Ġformer ly
constra int
Ġtunnel ing
ĠT s
Ġdro ve
Ġsu ited
tain ing
Con sequently
Ġl ang
27 5
ĠH P
he nce
t ies
Ġshow er
Ġer u
b h
ĠCO MM
Sm ith
T x
ine e
Ġpe ers
ic ator
comput e
Ġsatell ites
R N
Ad ditional
bal anced
'' )
Ġrest oration
23 4
Ġm ature
ra v
count ry
Ġwork shop
ĠEth iop
ĠCor p
tan h
W D
Ġcons olid
Ġpost ing
Ġinsert ed
) <\
Ġre q
ĠI M
ces ter
ma ch
es ters
ĠReg iment
ĠEnter prise
cur sor
Te V
I mp
ĠA aron
Ġemer gence
Ġmut ation
Th ough
Th ose
Ġeigen states
ĠO C
Ġpl aint
Ġcosm ology
Ġrem emb
Ġto ll
ĠI F
del ay
Ġb rane
A ff
D a
min is
X iv
ph rase
Ġscr atch
ol s
Ġbel t
Ã¼ r
Ġcomplaint s
pred ict
Ġpos es
m illion
s ocial
w oman
ID E
ĠK itt
ig o
fe fe
part icular
ĠB ird
Ġcoal ition
clud ed
t uple
ĠCommission er
ide al
Ġeduc ated
og y
5 50
ĠK ath
Ġl os
| $,
og ue
ann es
ĠHerm itian
add y
Ġste pped
v ation
p unct
sp here
ON G
- .
Ġ{ "
Ġre ign
Rep ository
Ġheur istic
ĠP uerto
ĠCom mercial
ĠColl abor
flu ence
Ġdemon stration
Res ources
ĠChar lotte
hent ication
hab ilit
ĠSe ven
It s
c H
me ans
Ġv iral
Ġhot els
Ġd ivers
sl ice
> [
100 00
type of
ĠGr ass
ĠLi u
sen al
qu bit
18 8
Ġqual itatively
ĠF P
Ġt err
Ġupd ating
Ġconsist ed
ĠM atter
m itt
py thon
Ġmanip ulation
head ers
n old
Vol ume
ound ing
Ġcre am
Ġsh aped
We ight
eth yl
Ġconstruct or
ĠH app
16 4
ĠJ azz
is en
ĠDe al
Ġent angled
not es
Ġcount able
Ex amples
Ġdel ivers
Ġtransl ations
Ġb ab
Ġcoast al
ĠK rist
Ġf idelity
P b
Ġd ressed
Ġjust ified
nt hesis
Ġoverl apping
ĠS V
m kern
Ġcor pus
ĠBul gar
c amp
ĠCom edy
R ot
Ġsp anned
web pack
air y
ĠLe ban
Ġen compass
rob enius
ox ide
Ġback ing
t oc
Ġrec urrent
Ġpract ically
Vert ex
ĠH I
Ke ys
ĠCommun ication
ĠP le
ĠCol omb
Ġweak ness
def i
arch y
ĠD raw
M ove
ĠN ar
Oper ator
Ġam endment
Ġfail ures
min imal
Ã© t
Pl atform
bre ve
Ġw ishes
Ġh ull
}} ^{-
d iction
ĉĉĉĉ Ċ
rane an
N AS
Ġaver ages
ĠStat ement
H en
19 16
Ġexpl ores
Ġinv asion
ĠO liver
Ġdynam ically
Ob serve
6 50
Ġtre asure
ĠB illy
Ġ$ +
pr ises
Ġbe ating
Ġmore over
D etail
cal endar
ca pt
get Name
UR I
ĠL isa
ĠF ro
Ġh ire
Ġb ench
OW N
Ġexplan ations
ob uf
Ġn utrition
ĠB rew
Ġdead line
Ġfood s
u art
_{ *
ĠAN Y
Ġblock ed
F ocus
s us
ke ley
p ages
ĠN ap
be at
ĠChar acter
i encing
re act
Ġd ys
19 28
Ġfootball er
equiv ariant
ib liography
Ġla pt
Ġsil ence
Ġfrag ments
ĠSh ah
not ations
Pro ps
Ġblock ing
Ġarray s
P ers
Ġexist ed
ĠSch warz
Ġs its
Ã ´
Ġeigen vectors
s ong
ator ies
ĠObserv atory
ap unov
Ġcomp elling
ĠU pdated
Ġhad ron
list ed
22 2
ĠTh or
Ġappropri ately
bo ost
Ġbene ath
Ġmunicip ality
ĠB irmingham
respon d
asg ow
Ġorig ins
Ġex empl
cre ated
int rodu
d in
G rad
ĠB our
ĠH indu
ĠN BC
ĠSpring s
ETH OD
ĠL ux
Q UE
Ġcount ed
Ġcal m
/ $
ĠD P
ĠN an
P air
\ ;\
ed ly
ue z
s sec
c ous
St ructure
Ġd z
\ :
ĠK irk
Ġtrust ed
Ġsl ide
ill ary
ox y
Ġwork place
Ġar cs
c ass
Ġli ability
ĠHealth care
can onical
ser ial
OC K
ĠR acing
own er
}_{ +
qu is
Ġsh ifting
r one
Ġco pper
J y
h size
Ġn est
run ning
Ġcon vey
Ġt ar
Ġpregn ancy
ĠTurn er
C irc
EL D
Pref ix
A verage
K ar
ĠG OP
Ġin set
om at
Ġsub div
ĠCar ibbean
Ġsuscept ibility
ri en
| (
Ġcitiz en
ast ing
irl ines
Ġk iller
Ġsp arsity
K B
s z
r p
20 9
Ġbi ases
Ġsubsequ ence
ĠP erm
ob b
Ġsimilar ities
Ġsec ured
{ +
ĠN J
Micro soft
et ers
Ġd ens
Sh ape
u ons
19 32
Ġprint ing
Ġper f
amp ed
be y
Vis it
B on
ĠMet al
is dom
ĠDat abase
ract ive
L en
Ġrg ba
$\ {
ĠMad rid
Ġrender ing
C u
ĠR io
Ġtransp arency
Ġconvin ced
ĠAb stract
ĠSu ite
Ġlov ely
A mazon
Ġaccess ed
ĠS QL
Ġpaint ed
Ġoppon ents
19 25
ĠLiber al
Ġvisual ization
ĠArm en
ĠR C
ĠK ol
fil ename
ĠDE FAULT
Ġalleged ly
b ia
an ne
Ġn ested
The ir
it ance
ĠF el
Ġdist ancing
T ur
Ġlink ing
Ġcann abis
pe ak
WH M
Ġg au
ĠV ision
ĠRepresent atives
Ġz oom
Ġt ilt
ĠJu an
Europe an
T s
ĠMan hattan
Ġlabel ing
En um
ĠFin n
Ġinc idents
ĠFin land
aj ax
Ġoverse as
Ġrecurs ive
it ime
Over all
w ig
ĠS ure
ĠRe cent
en ario
gl ass
Ġsustain ability
Ġ\ }$.
ĠT u
gener ic
Ġtechn ological
ĠT it
ĠCam eron
M arg
ĠL oad
ĠCro at
ĠL R
Ġse ver
ĠRe ports
hold s
ĠFac ulty
ĠC ategory
f ake
CO MP
ĠAt tack
Ġ} ^{
A li
om o
ĠIn fo
ey er
Ġcook ing
ĠK il
S ame
Ġrock s
j ournal
Ġresid ue
G re
ï¼ Į
lik elihood
all classes
Ġsuper vision
id ered
upload s
00 8
az ines
Ġsatisf action
ĠJohn ny
ĠR ange
ĠSh a
ĠRes pon
m ount
Ġtox ic
; )
ĠProgram me
ĠC lean
Ġcomm ute
Ġb uses
Ġtri ps
Ġ= ======
d it
S ER
ĠFe atures
ĠGra ce
en vironment
Ġal phabet
ibr ations
comp iler
d w
Ġmaintain s
Ġmis takes
ig ion
ĠPart icip
B ern
ĠT ig
Re lease
Ġcon gress
Ġn erv
Ġinv ention
v b
//////////////// ////////////////
ĠAct ive
ĠG host
pan ic
s ocket
ca ps
Ġintu itive
ĠT M
Ġpri est
consist ency
k el
ph icon
å Ī
ug s
Ġgr asp
ĠMove ment
lades h
ul k
iat ric
all ed
Ġcur ved
3 25
ĠE c
ari ous
b rief
Ġincorpor ating
ĠP os
ind a
exec ute
ĠBar ry
b ands
ĠW onder
Ġpro c
ier ra
ĠT on
em ics
. ",
}} ]
Ġin sect
is ible
10 16
ocol ate
Ġbott le
Ġind oor
l ap
Ġre pository
ĠK id
ĠNor wegian
stit uting
Ġrac ist
sc an
ok a
ĠR V
ĠL anka
co h
Ġpers pectives
ĠC ou
Ġdepart ments
ĠM aj
à¤ °
Ġpro gen
Ġhom eless
Ġcompet ed
}= {\
ia z
Ġcar riers
Ġsevent h
Ġsp heres
ĠR ather
ĠSt yle
Ġindex ed
Ġinher ited
C art
Ġ ~~
Ġpl ugin
Ġaccept ing
st ability
Ġval uation
å ®
Ġphon on
Ġbar rel
Ġsem igroup
Ġwarm ing
ĠWat son
ĠM aur
Ġsystem atically
pol ynomial
Ġsh ame
ĠMin or
Ġok ay
ĠB ristol
ard i
Ġtem plates
ĠChristian ity
am med
pir atory
rog ate
d dots
ĠLe v
ĠC lear
continu ity
Ġsupers ymmetric
ĠBre xit
18 9
Ġworld s
ĠMed al
r ational
ĠV eh
Ġactiv ist
E ducation
ict ional
as ync
_ ->
Ġdu plic
Ġparticip ant
Ġcompris ing
W C
Ġminim a
- ,
Ġl on
Ġun bounded
Ġper ipher
log y
Ġconcept ual
Ġoverwhel ming
ĠD esc
cor por
sign al
ĠM Hz
H uman
us hes
Ġbo ards
ĠM ol
Ġex otic
ĠCompan ies
Ġl obby
Ġli ver
Ġair line
Ġspont aneous
Ġsy mp
Û Į
ĠC ensus
ir s
ĠW or
ĠAssum ing
Ġc inema
ĠS r
Ġcon ce
A gent
Ġhal os
Ġpre st
k j
cal es
UN T
Run time
Ġm uon
ĠSum mary
Ġn ursing
vel oper
ĠPer iod
prec ision
Ġatt en
Ġarch ive
B orn
d h
com fort
18 7
Ġexcept ions
de cl
wh ose
c ategor
Ġwra pped
ac re
Ġf iring
ĠSe ctions
Ġafter wards
ĠCost a
IC K
B ill
ĠM aking
im on
Ġcomp ass
Face book
par ity
Un fortunately
Ġtrem end
Ġs ne
ĠBel ow
Ġforb idden
ĠÎ ¼
m or
aud io
Ġb anned
Ġreflect ing
Ġ" <
Ġprevent ing
_* (
ĠCommon wealth
ĠTreat ment
ra ising
h ift
Ġb ump
Ġf n
ĠQ ual
Ġfib re
ĠD W
Ġposit ively
ĠA x
Ġarriv ing
k ed
N M
Ġm arch
ĠK ay
bra ham
ĠG rowth
Ġcour tesy
Ġimplicit ly
Ġad mission
S ervices
n r
ong o
ĠSt okes
ull ivan
en o
19 6
ĠÐ ¸
Ġrecept or
Ġsc ra
Ġg amb
Ġro oted
2 16
as ta
Ġp ink
Ġcomp ilation
8 50
ĠP ictures
ĠK os
add ed
ĠGener ation
sv g
Ġkne e
ic iency
Ġfl are
AR CH
Ġpay load
ro ute
Ġend points
Ġt ired
Ġexp at
Ġtri plet
}| $
30 4
ph ic
m v
iv ic
an ov
ext ra
ĠGl ass
umb ai
ĠDra ma
rapeut ic
20 7
ĠTh an
pl oys
et on
pr ison
ĠAn imal
ĠE E
Ġprof ound
Ġst olen
ĠÂ ±
ĠB ranch
Redu ce
Ġf iscal
rom atic
Ġb rackets
ĠD iamond
Ġcondens ate
ĠChel sea
Ġb om
Ident ifier
sub script
im edia
App lying
Ġachieve ment
by e
Ġ( -\
ĠC le
enez uel
ĠL abel
S creen
oc c
ĠPhys ical
Ġco h
dor ff
Ġsem ic
ak u
inu ous
ĠN LO
if le
66 66
ĠBar cel
n ia
Ġl ane
Ġ[ (
cor related
Ġinitial ized
m orph
2 15
int roduction
N ULL
Ġconflic ts
Ġmet als
P ic
hib ition
Ġmet ast
A h
Ġpecul iar
ĠP ref
down load
Ġball ot
ĠH ub
ĠBen jamin
D irector
E ast
ist le
build er
ĠR R
ĠLet ter
R end
ov ie
Ġcomment ed
Ġtermin ology
Ġdis advanta
od o
Ġr ic
Ġforgot ten
A z
J on
we i
ĠC lient
Rad io
Ġspec im
eli very
Ġdocument ed
w en
ĠAgric ulture
att ributes
ident ity
E ll
uss ia
ĠEm peror
ĠCon sumer
Ġsl ave
Ġdro pping
k al
ĠDe velop
et erm
ĠN ad
Ġaltern ating
m eter
Ġp ocket
17 4
te am
th s
Ġconst ructions
ĠR ate
Ġadvers ary
r int
Com plete
ĠLa place
Ġd oses
Ġback ed
V an
b ird
\, $\
Ġste am
ĠL arry
ring e
Gener ator
ĠNev ada
ĠJer usalem
Ġking dom
Re cent
ĠD S
Ġannot ations
Ġc rossover
ra h
Ġrend ered
Ġf ut
Ġsal ary
Af ric
Ġreprodu ced
Ġspecific ations
cal ed
âĢ¦ âĢĿ
ĠA verage
app ings
ha us
analy tic
O s
ĠA ld
3 40
ĠC ot
Ġpath way
Li u
3 45
ç Ķ
prov ider
Ins ert
ĠE duc
function al
ĠA bs
ĠU AV
ĠSw ift
à¥ į
ĠIs ing
Ġhero es
ĠCru z
ĠM IT
ĠP icture
ä »
Ġan ger
ĠL l
ĠBi ology
v ark
ĠK err
Ġlaun ches
ĠN ord
Ġattack er
Ġtheore tically
ĠG AN
Ġab bre
Ġsho es
he v
Ġp ending
Ġcompet itors
az ar
Ġsett le
Ġsupers ymmetry
Ġ\ ;\;
ex periments
LE S
ĠLink ed
Ġour s
AL SE
Ġsustain ed
Ġex ports
Ġjournal ism
Ġsh ore
18 4
y ang
VI EW
Ġs our
Ġopt s
eg u
ĠLand au
ĠP rad
ess ential
Ġenjoy ing
Const ants
ig ating
ine a
19 26
17 7
{( -
ĠE L
pl ess
Ġin jected
... ]
Ġmut ually
ĠCom ics
}) ]
Ġdat abases
Mart in
Ġeconom ics
Ġa qu
} &=&
N or
Ġmer gers
Frag ment
cal c
Ġad verse
Ġear nings
Ġhand ful
â Ķ
}) _{\
Ġpre decess
Ġwhere in
assert Equal
fe atures
N U
osp el
Ġtradition s
Acknowledg ments
vio let
ast ed
Ġf ingers
rt imes
Ġnot ification
ff ff
ix on
F und
fl ush
Ġ? >
Ġdevel ops
Aud io
1 200
) &=\
y ield
Ġannu ally
Ġle mm
Te am
Ø§ Ø
m oz
Ġexper iencing
ĠCal cul
ĠPo incar
e ak
S ources
ĠF ish
19 22
W ed
st orage
20 6
Pol y
Ġhang ing
Ġr hythm
Ġna ive
or ic
Ġachie vable
Ġvacc ination
Ġintu ition
ĠD elta
ĠEn c
Can adian
ĠHon or
}] ,
ĠRic ci
Ġdegrad ation
L ou
Ġfeed ing
ĠL STM
Ġindic ators
dis cuss
ĠIniti ative
Vis ual
Ġxml ns
Ġto urs
o ons
ac er
ĠNe il
Ġpro ps
ĠEx pert
h art
Ġcryst als
$ },
Ġpro to
t k
Ġres p
ĠJer ry
B V
dot sc
Ġstart up
ĠBrazil ian
Ġt orn
rac es
em ption
Ġbi ology
Ġsp ite
Att ributes
B esides
us ername
Ġt x
Ġc argo
g m
co herent
Ġcou rage
Ġ" ,
o S
Ġkey board
Ġperm its
) &\
Ġw age
Ġwood en
Ġswit ched
Ġim posing
as ia
Ġun necessary
Ġdes erve
SS M
Ġadjust ment
t body
Ġre nov
Ġign or
ĠGh ana
ĠF ocus
F B
rain ian
ĠR ole
Ġint ensive
Ġtrunc ation
Ġdesign ers
Ġsl ip
mod es
Ġinfin ites
AN N
Ad ditionally
n om
O UT
ne ighbor
Ġt rivially
ĠC hemical
M Hz
ĠY a
ĠCl iff
f eld
ĠI SS
ĠL ion
Ġmand atory
Ġ ig
ĠGre ater
}{ |\
Ġco ins
D U
m ust
ĠB enef
Ġin ad
Ad S
ĠH at
Po inter
ER N
Ġlif ting
iz za
Diag n
iz ar
Ġdon ations
}\ }_{
}= (\
ubb les
Ġbreak down
ric ting
Ġsh aded
ĠAdvent ure
In vest
ĠL L
comp ress
Lear ning
ĠConst ant
Ġplaus ible
ĠM ack
ĠY am
su cc
Ġ} _{
I Z
Ġreg ards
Ġpost er
in x
16 2
Ġs urn
Ġheter ogeneous
Lo op
Ġsuper position
ĠFil ms
ers hip
check ed
ĠBit coin
Ġalt ered
Ġeffic acy
sh al
dis cussion
Ġadv ised
Ġtempor arily
AT CH
ĠMO RE
W ait
19 27
ot er
ĠAnd re
ä º
Ġl ap
Ġh oney
ĠC riminal
30 3
Ġchar m
Ġimm ers
Ġatt r
ev ol
acknowled gments
as ets
You ng
he at
Ġvol unt
Ġthrow ing
ĠNY C
ĠM asters
ĠO H
D G
ĠK E
ĠK on
Ã ª
cl one
Ġlog ger
XX XX
Ġre named
Ġcomment ary
ig ue
prec ated
er gy
Associ ation
ĠJ a
-------- ----
ut ives
b rew
c M
Ġevalu ations
c ub
Ġform ats
50 1
N odes
ut orial
$ }.
Ind ian
U pdated
Ġsort ed
19 24
in valid
.. ...
ĠT elescope
Ġprof its
ĠTransport ation
ĠF eed
Trans form
eg e
y u
mm ode
h aw
w ire
Ġscholar ship
Ġvol can
Ġtyp ename
PO ST
B ob
Ġth rew
ĠBarcel ona
ĠHar rison
norm als
vis ual
ä ½
im ony
V O
ort ex
ĠMont real
ĠPer ry
Ġm amm
op ening
Ġt anks
ĠQu estion
19 4
Ġca ution
Dan iel
ĠO scar
Ġre med
ta ges
Dat abase
o j
Ġem power
e ur
ĠYO U
ens itive
An aly
ĠSaint s
ĠTr uth
17 6
Ġbre ach
urs es
IR T
N GC
)} )$
17 8
ĠSh ar
Ġrot ate
pe red
Ġpray er
AV E
The me
Ġen v
ĠDist ribution
ĠPlan et
ĠB eth
different ial
J P
N V
f ine
Ġ" -
ĠTra in
ĠLuc as
Ġhum or
establ ished
\ &
Ļ Ĥ
Ġdet ections
l ia
- |
Ã Ĺ
OR M
Ġorgan ised
M il
h um
ĠAren a
Ġsome body
Ġf ears
g z
ĠAl t
ĠF DA
ĠH ousing
Ġcompet itions
Ġconfirm ation
ĠS ave
ĠB P
ip se
ĠH S
Ġphys ician
) ^*
ĠArt icles
Ġass ass
iv ate
th reshold
ins ky
ĠMo z
F ac
ĠCor porate
in ery
sw er
30 1
ĠN AME
ĠP sy
ac ency
ĠW R
ĠSt ri
Ġpa ired
Ġch ron
Ġdistinct ive
Ġhabit at
if mmode
}}$ -
ĠT ry
hig her
Ġload s
Ġke en
Ġsize of
Ġt ribute
RE G
Ġretrie ve
}\ !\
att y
W allet
Ġtrav elling
P relim
ĠCons ervation
Ġshel ter
d V
Cont in
Ġlegend ary
Pro gress
ĠNav al
nt hetic
Ġp orts
ac cur
Ġmod al
sp arse
rot ron
ĠCele br
z hou
Ġal umin
}\ }
log o
}) /
il ia
Ġgovern ance
m atic
Ġess ence
Ġthe rap
ĠCo ach
Ġap olog
ĠNC AA
ubb ard
ĠV acc
4 20
ose x
Ġacknowled ged
Ġo c
ĠQue bec
K er
Wel come
Ġless on
RE S
Ġcat aly
J ournal
Ġr ice
19 31
M ix
R en
19 12
ce iver
ĠCirc uit
ĠG rad
l ua
Ġc ref
Ġinter ventions
Ġadvoc ate
N ative
ĠÐ ½
ĠP rec
IS H
Ġd aughters
B inary
ĠMem ory
ĠK ra
ber y
yn asty
ort on
23 1
i ological
Y eah
el ike
iv ia
Ġelder ly
l ibrary
Ġtend ency
Ġpro gression
23 2
as ury
Ġmac roscopic
C AL
ĠA SSERT
ĠRes taur
Ġpo ems
W ould
TR UE
ĠW A
IC S
der ived
c ke
ins ula
Ġr ugby
Ġstake holders
Q ual
r ators
pen cer
T y
enc oder
Ġpreval ence
Ġexhib ited
Ġman ages
Ġsub algebra
S ite
ster dam
Ġinnoc ent
< !
55 5
Ġsepar ating
ĠC ant
ĠKe ith
Ġd ancing
M ary
ch rotron
n ice
ĠTheorem s
al ias
ĠE sp
cast ing
ut ton
ĠInd ians
Ġclass ifiers
Ġcapt uring
S us
f ail
im als
Ġeth ical
ĠR idge
\, (
K P
ĉ ĠĠ
ĠTo o
ĠS ets
Ġoccas ions
ĠB apt
et own
h istory
as ive
ĉĉ ĠĠĠ
Ġdrum s
c ially
end ors
Ġreveal ing
St ruct
Ġprev ents
M ike
Ġc rim
ĠF riend
ĠL uther
oc o
Ġtrans cript
}[ (
Ġreal izations
Sp in
ys on
pro port
' |
ĠR M
Inter val
ĠC e
box times
iter ranean
Ġbatt les
ink s
Me asure
ĠU g
">< !--
Ġr itual
ĠC FT
$. \\
ĠH aus
Ġfun ctors
ĠE ND
act ory
m atter
Ġun lock
Ġown s
ĠH udson
Ġpr ide
ĠCour se
ig ator
16 3
vark appa
Ġsc iences
Ġpull ing
Ġimp ressed
Ġparameter ized
Sk ip
Z ero
H istor
Ġf ires
cy l
Ġsur f
ĠJ ake
Ġdi abetes
Ġcommission ed
I mages
j ango
et itive
ĠE volution
ĠMathemat ics
in creasing
ie ce
ĠA irlines
ĠIss ues
Ġexpans ions
erm ont
Ġro uting
ord ial
Ġdis ability
ĠHTT P
Ġmin istry
N eg
Ġmult ivariate
Ġsl ots
ĠOrth odox
Ġfriend ship
Ï Ģ
ĠM ason
ĠWe ather
Ġcomplic ations
bi as
ĠB ath
ĠSh ang
ĠTer rit
ĠZ ero
Ac ad
! (
Ġdecom posed
s ed
ĠIm perial
}^{ [
akes pe
Ġdis rupt
Ġelev ated
g am
B ottom
0 11
ĠB B
Ġcon current
Ġdivid ing
is ol
ta wa
Ġcreat ivity
Ġresol utions
ĠInterest ingly
q a
print ln
plan es
per cent
Ġpack ing
Ġri vers
Ġbel oved
ou x
Ġcomm ander
Ġhe aling
vent ional
ash a
ged y
r ules
Ġdiv orce
Ð° Ð½
Ġh orn
p ixel
ĠW id
Head ers
Ġb ags
b z
ĠC atal
Ġre conc
ĠTre nd
bra ket
ĠM atrix
p u
or ption
Ġident ifier
Ġproduct ivity
Ġun supervised
ĠI SM
ĠCl ay
Ġwitness es
Ġdemonstr ating
un i
Ġcast le
18 3
Ġw isdom
pend ing
Ġtag ged
Ġtrans fers
Ġcomp rised
Ġjo ke
Ġcolle ges
ĠM inkowski
Ġund erest
Ġexpect ing
Ġmes ons
ĠU E
plet ed
ed i
ĠEar l
Ðµ ÑĢ
approp riate
Ġpur ple
Ġwork load
S NR
ĠWar ner
LO CK
f air
Ġdo zens
Ġident ically
ogen esis
P od
Ġbad ly
Ġnegot iations
$ ^{+
G EN
Ġextrem al
Ġro ster
Ġpart on
ch air
Ġviol ated
label s
19 23
ar u
Ġstreng then
Ġact ed
Ġback bone
17 3
ĠFe ynman
ĠOr chestra
Ġcomp ressed
ĠCom plete
h all
ĠA w
22 3
\ },\
ĠOper a
stud y
Ġl un
22 7
car bon
ĠSur v
Ġconcent rate
ĠPortug uese
Ġu i
ĠSand ers
cccc cccc
Ġdep icts
Ġgra ce
Ġcho oses
ĠEvery one
Ġh olograph
ĠK lein
CT YPE
? >
}\ ]
Ġarchitect ural
Den ote
' }}
Ġspect acular
Pl us
ar ab
Ġprogram mes
Ġsuccess or
ĠAr c
ĠInt eger
s il
ĠSum mit
ĠWood s
class ification
Ġimm igrants
itro gen
ore n
Ġpers u
Ġsk i
ĠVin cent
26 4
ĠIn side
16 1
ins ki
Ġfac ial
K T
Ġwhe els
pre p
Ġsn apshot
ĠW es
ov o
ĠRetrie ved
Ġde alt
Ġmed i
cl ed
ob a
Ġdecl are
qu asi
Ġcontrovers y
Al g
C red
to pe
re z
ĠK illing
Ġmake up
ĠE valuation
ĠH orn
3 80
B rown
ĠS creen
e lection
Ġm os
ew ard
Ġnation wide
K w
Ġrefere n
M IN
g ic
Ġv ig
ĠRich mond
Ġpiece wise
rr rr
c ategories
ĠU P
ere nt
link s
Ġscal ars
List en
Ġn p
Ġspons ored
Spec ifically
ĠHill ary
ĠB A
ph oto
s chool
Ġdeput y
Ġmem orial
Ġprison ers
Ġopt imum
Ġen rich
p ublished
Ġtype of
r ases
}' \
Ġfoss il
ram s
17 1
[] {\
Ġnewsp apers
Ġs orts
ĠG rey
ĠT ol
Ġmark er
Ġretrie ved
ĠA round
+\ !
c C
ĠOut put
F lor
vari ables
j unit
ĠM ak
Ġarch ae
E mb
Ġal ike
Ġ& +
Cent ral
Ġt ile
Qu ant
Ġprotect ive
ĠConserv ative
w ear
ĠC emetery
Ġlight er
Ġ$< $
pos ite
C as
p ag
p ure
ĠP ent
Ġcolon ial
Ġpassion ate
Ġsm oking
Ġdiagn osed
og an
ĠJ obs
Austral ian
}} /
Gener ated
____ ____
ĠGl asgow
item ent
y i
ect ure
}) (\
aver aged
19 21
Ġlater al
pres erving
ĠPre vious
Ġn u
}} },
ĠProgram s
ĠCarl os
normals ize
b w
ĠEd wards
Ġinvent ory
at tack
ĠUs ed
Ġingred ient
pro xy
" },
22 6
Ġinstitution al
cipl inary
ĠL ED
s gn
Ġroll ed
Ġinitial ize
ĠN icol
EN SE
G od
ĠB rain
ĠOb serve
charg ed
Ġor acle
Can ada
C ould
ĠG ift
in z
respon s
Ġhydro dynamic
ĠBar on
Ġrenew able
M ur
b age
pp ler
Ġprior it
Ġaccommod ation
othe rapy
ĠArk ansas
ĠL it
Ġp ipe
Ġsl opes
Ġco ordination
Ġmit igate
ĠStan ford
Ġ\ ;\
math ord
Ġvirt ue
D ou
em or
ĠE ye
st rip
Lear n
cel and
Ġhop ed
ĠG ive
R ic
ĠB ound
)) =\
Ġcalcul us
var nothing
Ġlog ging
sing ular
Ġvers a
Ġsymbol ic
Ġdead ly
r Ã©
') );
Ġauthent ication
r x
Book s
ĠApp lications
Ġexplo ited
fol k
H ouse
akespe are
Ġcru ise
tempor al
set counter
vect ive
R ock
ĠFa ith
Ġnav igate
AT O
29 0
ĠF resh
17 9
ĠHam pshire
Is ra
Ġwe aken
Ġframework s
est on
Ġhol idays
Ġmark ers
Ġclass room
de composition
war ning
Ġinduct ive
Ġinform ative
})- (\
s ug
Sp an
Ġapp ar
ĠN ancy
redu ced
) }}{\
S ar
y ellow
ĠE u
å Ĳ
St ill
aps hots
0 12
Ġc ree
ĠIO Exception
Ġcor rupt
ern ess
co e
c ott
And rew
ma ven
ĠJ up
40 1
high light
ĠCh an
v x
Ġrememb ered
Ġw ars
M ask
}{ @{}
{$ {\
b end
ex ist
qu ire
Ġ' \
Ġrot ations
Ġoper a
Ġgraph ical
AR R
oper ative
Ġfight er
Ġb en
ll a
, [
Ġem it
c atch
Ġev ac
( --
ĠW ire
Ġnerv ous
poss ibly
jour nals
Ġdon ated
ĠAst ro
Ġin sufficient
ĠS USY
\ }^
ĠD FT
res a
Ġse crets
fill draw
set ting
3 10
w u
Ġc of
al tern
Ġ& $\
J oe
Ã «
Ġsh ocks
ĠThrough out
ĠA ra
Ġrecip ient
in ous
ĠPaul i
ĠH unt
E val
ĠF itz
)$ \
=" $
IM P
* (
op a
W ord
al one
art icles
Ġdam ages
ĠOther s
ĠF at
con verted
Ġac res
Ġdimension ality
Ġconv icted
E SS
Â «
part icles
ĠSol id
"" "
ĠB T
)( -
ĠL ate
Ġin cur
Ġch icken
Ġd rain
Ġinstant aneous
am ount
neut ral
Ġdistrib ute
Ġinvest ing
ĠE ight
Ġann oy
st rict
23 8
andid ate
ar ct
ĠE ST
g old
og g
ĠPh one
IS A
ĠP i
ĠW ait
Ġauthor ized
H ey
^ ^
ĠM ario
ĠCon text
ĠF ramework
30 5
og raphics
att ing
ĠBol tzmann
land o
Ġwonder ing
Ġf u
Col lections
Ġorbit als
Ġprot ons
ĠR NA
lim inf
Tra ining
ĠMult iple
Look ing
) &=&
19 3
ĠFl ash
ĠP f
Th ird
allow ed
re ne
28 8
-> ,
& +\
M obile
j ee
Ġs el
ĠL ex
Ġmag ical
ĠYuk awa
et ooth
Ġfoot print
Or iginal
Inst all
in ces
Ġdon ation
Ġsynchron ization
new page
c ool
Ġcontrad icts
Vis ible
Ġconsult ation
gg ing
ĠC atherine
Ġsp ike
CO M
Ġformula e
Ġl ymph
ĠPro file
Sc ience
Ġnecess ity
] ^-
Con sumer
osp heric
g oto
ĠH alf
part s
}$ }\
ich i
e enth
ĠS ame
ĠPro perties
)} -\
Ġfl att
Ġ }.
ĠB ass
Ġbuy ers
ĠCom parison
IM O
Ġjour nals
dom inated
Reg ister
W ater
18 90
ion ization
Ġg i
~ ,
row eak
Ġqu otes
Ġannot ated
ach t
S equence
ĠR edu
ĠJ S
ry pto
Ġthorough ly
ĠAssoci ated
Ġcomposition s
Ġassist ed
ĠHor se
ĠV ik
T urn
s ent
E ST
ur st
ĠIran ian
Ġwork force
Ġe ject
ĠH ockey
chron ous
ĠBern ard
al ion
Ġste ering
a id
Ġle ase
b ranch
Ġdwar fs
Ġl oving
em ission
[ $\
() </
)/ (
0 15
Art icle
ext end
ĠEgypt ian
Ġa er
ne um
ĠF err
ĠEm ily
ĠB udget
cc i
Ġprop ri
s ources
ĠPlay ers
ĠNam ely
=\ "
ang les
ĠJo in
Q C
ĠAcad emic
Ġcon vol
Ġattack ing
Ġcert ification
Ġcam ps
P ark
rom y
m ixed
ĠB ee
Ġtransl ates
K R
Ġport rait
m otion
ham mad
d ense
Ġbe ings
18 2
v on
19 11
$. \
Ġaccount ed
Ġsmooth ly
ud ed
p k
Ġra pe
Ġneighborhood s
p z
ie u
ĠCh ampion
Ġf t
ĀĀ ĀĀ
ĠE lementary
ĠN AV
ens is
18 6
ĠSh aw
desc ribed
Ġb rick
Ġhand les
dif ference
: -
Ġall ies
Ġstrugg les
Ġconscious ness
Ö ¸
cy cles
Ġbur sts
ho ff
resol ve
ĠCurrent ly
Ġt weets
Ġst om
Ġanalys ed
Ġmid field
Ġlack ing
Ġgeomet rical
× Ĳ
Ġun fortunately
ex isting
Ġann ounces
Ġhope fully
OL D
v et
le ad
Ġreal m
Ġeccentric ity
ĠH az
Ġbron ze
á »
ĠEx erc
Ġmed ic
P ub
reg ation
spec ies
ĠE sc
ĠV el
ĠAdvis ory
_ +\
r ar
au nd
Ġdismiss ed
Ġgeom etries
Ġoblig ations
Ġph y
ĠCho ose
ĠVi enna
Ġheli um
d ou
us form
mer ge
Ġrecogn ised
Ġlaunch ing
thin space
Pol ice
19 13
numer usform
index Of
ĠCom pl
Ġassign ments
ĠLat est
Ġ< \
L IN
97 8
ĠW ant
i otic
Ġf iduc
Ġlegisl ative
Å Ł
ess a
ol ine
min im
g om
R M
in ters
IF A
DE FAULT
ĠAb u
Ġsevere ly
Ġtime out
)}\ ,
ĠEconom y
for th
ĠI da
ĠU TC
F eed
ĠConsider ing
} </
Ġproblem atic
AR K
'' '
ĠComput ing
Ġt ong
Ġdifferent iation
Ġf ru
Ġequiv ariant
Ġemb arr
f box
EN S
Ġh iding
Ġval ence
ess ed
leg end
enc il
Ġen jo
P unct
ĠM az
ĠWel sh
n ell
ĠDisc overy
f iction
Ġdem ol
j d
Ġheart s
Ġpuls ar
ĠM M
ĠWrit er
Ġdisag ree
habilit ation
Ġmultipl ied
ĠCont emporary
ĠCl ose
U pper
Ġle ather
" ].
$ +$
Ġp ig
ĠC IFAR
ex ponential
Ġy eah
ish a
Ġinvest ed
Ġsymm et
Ġdef ending
Ġdecl aration
ĠC N
ass ign
le af
ĠC oun
Ġpro poses
numer ical
ĠCon struct
arch ive
Ġcomp rom
S und
mult iple
Ġfarm ing
Ġchar set
ĠMe et
ah u
Ġvis itor
ĠApp lied
Left rightarrow
D W
Ġcon finement
Ġhistor ian
in finite
match ing
I SS
CO MM
F ramework
Ġunem ployment
ile vel
ĠToy ota
ĠN athan
Dep end
Ġsur gical
spring framework
L ittle
ĠB ear
ĠAssoci ate
p ark
0000 0000
oc ese
Ġmon oton
ĠDe cl
Ġexplo iting
Al t
Ġbo ats
U ri
ĠMad ison
DE BUG
m us
Ġretail ers
Ġt ears
Ġf ur
ĠIn ternal
p her
Ġshock ed
Ġshe ets
Ġd Ã©
ĠArt ists
M u
sp acing
Ġdem ocratic
un ks
Ġopt ically
es pecially
ar an
Ġobst acles
Ġre jection
Ġconstit utes
A u
ĠArab ic
ĠL ith
ĠDef ence
c F
Ġtravel s
ĠBang ladesh
Ġm akers
eng u
irect ed
w right
is set
sl ashed
B st
E U
^* $-
ĠComp ared
Ġmon ster
m cite
Ðµ ÑĤ
Ġresear cher
May be
O wn
a very
ĠD raft
M AN
Ġs isters
Point s
ale y
Ġfund ament
Ġport ions
] &
Ġfil ament
[ -\
ĠK ur
Names pace
Ġcre atures
ĠT S
ĠF IG
ĠN ames
Ġem ploys
ro us
_+ (
Ġstri kes
23 6
Part icip
L ic
ock ets
top ic
Ġh ype
)\ }$
ĠP ere
red shift
ĠR ivers
Ġbl ues
Ġelectron ics
ĠI SO
Ġsub traction
ĠInd igenous
Ġspin or
spect ra
remark s
hi er
ĠT ell
D b
ĠR AM
iz a
26 5
\, ,\
% ),
W O
19 08
Ġchalleng ed
ĠCho ice
Ġm arijuana
Ġcom ics
normal ized
Ġ( {
maxim um
Ġscan ning
Ġm d
}( (
}^{ *}
ĠCh art
22 8
log ical
I gn
g ive
å ħ
Ġg reedy
)} ;
F rance
Ġme als
ĠCh i
Ġfulfill ed
Ġed itors
ĠKe pler
}) )$
Ad min
elect ric
Ġdeform ations
Ġd B
Ġanaly se
Ġkinem atics
Ġwh is
Ch ain
Ġnetwork ing
Ġenc ounters
ĠS id
semb les
ĠB achelor
Ġcondition ing
Ġcomp romise
$ |
Ġconduct ance
Sc an
Ġsatur ated
ant om
Ġrevers ed
Ġ[ "
Ġtet ra
W F
ie v
bes gue
ĠA V
me chan
Ġ+ (
Ġpe oples
ĠMin i
Ġsold ier
Ġmic rowave
v or
paramet ric
in ative
sm ash
az i
m ir
B ER
oc co
Ġund ers
sol ved
rad iation
hel per
ĠM ann
par box
Ġrec ipe
ĠL ives
d iam
ĠComp etition
) ?
] -
pr ice
c art
t elling
hed ron
Ġin consistent
TE XT
J eff
nd ef
Ġevol ves
ĠĠĠĠĠĠĠĠĠĠĠĠĠĠĠĠĠĠĠĠĠĠĠĠĠĠĠĠĠĠĠĠ Ġ
Ġnow here
Ġal beit
ĠS ongs
S ocket
Ġde ar
ĠArray List
Ġparametriz ation
Ġport al
Ġelabor ate
ĠSob olev
Ġ& &\
Ġepid emic
Ġind igenous
War ning
ĠGR B
op edia
ĠAlex and
ĠStart ing
Dist ribution
ĠIm prove
ap is
Ġless er
R oman
Ð ±
ĠEm ma
}) }$
ĠFellow ship
Ñ ħ
ĠH ab
Qu estion
ĠRem ember
ĠO ptions
ĠT C
Ġmed ieval
roll ing
MOD ULE
Ġprec ip
Ġell ips
Ġcomm od
ĠBer keley
ĠS ays
ĠD ol
column s
Ġburn ed
x html
ge x
ĠForm ula
ĠI BM
ĠD ictionary
Ġfurn iture
d al
ĠH ttp
n os
Ġy ard
ĠAg ent
Ġg y
sign ature
ĠU T
17 2
Ġart work
fact ory
Ġsh or
Ġfor tun
M ah
Ġto ile
ĠRog ers
c P
ring ton
p it
UR N
tab colsep
ĠJul ia
se gment
F r
Ġterror ist
Ġdiscipl ine
ĠDan ish
Ġden ominator
Ġbenchmark s
Ġsurv iving
Ġprem iere
ĠB asketball
gra ined
bib item
Ġgra b
Ġcab in
cent ric
Be an
+ (\
Ġse cular
Ġbl end
" ],
ĠX ML
sim pl
Ġnever theless
on ian
ent e
st ick
Ġw ise
om al
ĠS B
l iving
ke eper
Å «
Ġfinger print
Ġbuck et
" `
Ġur ged
Ġe ager
ĠM pc
Ġexam ining
ĠH erald
Sub scribe
it ic
Ġre he
Ġconfigure d
VAL UE
I ds
b right
Ġfore ach
Ġcontext ual
ĠT erry
em er
Ġpool ing
ract or
J ose
ĠFl ore
ĠIR S
ĠIn j
z el
G overnment
sc attering
ĠApp lying
ĠLine ar
2 14
Ġattend ance
f u
s ix
ĠT odd
L ib
ĠG E
00 9
Ġcor rid
Ġcondition ed
Ġf ocal
the m
Ġcur riculum
path s
is ure
ĠC atalog
\% }
ĠN umer
Ġwitness ed
; ">
DO CTYPE
Ġhaz ard
_{ |\
ge on
3 70
P rom
å ¤
ĠR ico
com ed
he x
T witter
D IS
ĠGl en
rac le
w ik
Ġw are
yp ically
Ġqual ify
re duction
Ġrun ner
W ave
ĠPre vention
ĠR ES
ĠQu arter
ac a
Ġhe aven
c g
Ġpredominant ly
V irtual
Ġb ay
Ġc inem
p owered
Ġfl our
ĠL I
ĠTest ing
fe as
Ġdiv isions
Ġwound ed
EN CE
Ġnom ination
ĠQu estions
ĠF is
ĠN y
Ġrep orters
Ġc ris
Ġrect angular
Ġfun eral
Ġres um
Ġcomm utes
ĠF ra
ĠSo on
Ġdest ro
' =\
J un
im ple
ĠR osen
Ġmunicip al
ĠProt ocol
f an
ĠL an
ĠY e
dat abase
ĉĉ Ġ
Ġcomp iler
Ġveter ans
ingu ish
ĠD oll
s ay
Ġfix es
Ġa ired
ĠLiber ty
he ng
d uration
am ous
Ġcon ject
accur ate
array stretch
Ġliter al
Ġb ootstrap
Ġneur on
ĠM eta
ĠInd ividual
ĠM umbai
ĠK ill
Ġw ore
Ġmod elled
olog ic
mod ified
Ġenerget ic
ĠLe besgue
os opher
ĠS alt
Ġeditor ial
d ynamical
Ġl in
Ġline up
)] $
ĠY eah
Ġw orn
ion ic
Ġestabl ishes
With in
Ġsc andal
Ġex pend
Ġworks hops
ĠKar l
Ġenc ryption
Ġland ed
Ġhospit ality
ĠK er
Ġtem p
os i
R PC
Ġhon our
ĠPS F
K A
Ġbul ge
clud es
Ġtour ist
Ġjuris diction
Ġh orm
Ġf are
D igital
w i
ĠP ub
Ġexpress ing
Ġadopt ing
z ier
vi ate
Ġdu o
r aska
ĠAp ache
ĠAnaly tics
Ġf ier
ian i
ĠKnow ledge
Ġrel ativity
tabl en
og on
m ons
ĉĉ čĊ
Ġs ew
Ġcare ers
Ġappeal ing
R ender
Ġ ^{-
av in
ex it
itte es
v endor
ĠSt re
ĠHar vey
ĠG onz
Ġpri ors
) })\
he nd
ĠForm er
Ġres ume
ĠP apers
ĠJ ar
utr ino
b ast
Ġc ig
ĠS z
Plan ck
Ġsubstit uting
Ġres erves
ĠWork ers
Ġconvent ions
22 9
ĠM Ps
ĠE S
Ġambigu ity
Ġpl a
be cca
m ouse
ĠMed iterranean
n ative
Ġc ra
Ġdepth s
24 8
Ġgu ides
Ġrele asing
ogen ous
R G
Ġ" $
Ġtrac ing
ĠC ay
ĠSet ting
Ġhypersur face
Ġan ime
C hat
ĠE le
uk a
Ġquarter back
Ġexec utives
et ta
mathb in
Ġver b
H K
Ġeleg ant
ress ing
Fl ag
Ġprospect s
ĠNichol as
ĠHy per
Ġimpact ed
k an
c D
ment ation
bour g
ĠCirc le
Ġbe aring
}\| _
Ġkick ed
M G
Ġsignal ing
Ġim prison
ĠN V
ĠM ans
oc ur
Ġdrink s
ĠDis cussion
| |\
prov ided
Ġtem pt
Ġchap ters
ig rant
ĠChar l
determ ined
Ġbut tons
ex plain
Ġback up
b ane
Ġre called
}{! }{
k r
ĠRes ult
if ference
ĠJ eremy
ĠHy dro
ĠM ob
ĠP in
Ġpat ri
ĠAss essment
P aper
ĠP oss
ĠN uclear
op ath
om ers
ĠCom pton
Const ant
O w
ĠA dapt
ĠD IS
A W
Ġsystem ic
Ġpoint wise
Ġe ars
Ġmin eral
ot ics
ĠC arm
g rim
ĠW rest
ĠLook ing
ĠStand ards
av oid
\ (
Ġcong ru
rit ies
whe el
Ġfl aw
Ġworth y
ĠAm sterdam
Ġenjo ys
Ġsem icon
}| ^{
Ġfavor able
Ġqu arantine
n ick
P ing
ho e
ĠCh ain
deriv ative
m un
im an
itor ing
Ġow ing
M aterial
Ġvis ually
ĠBer ry
Ġign oring
Ġre dd
check box
V ir
ĠG PS
ounc ill
T X
Ġearthqu ake
f w
Ġall Classes
sc ss
Ġgift s
ĠHung ary
)] \
e ref
ident ified
ĠTrans ition
Ġcasc ade
ĠB ot
ust ration
Ġprior ities
Ġfin ancing
ĠStrateg ic
Ġ\ "
23 3
osp in
Ġmet abol
ĠallClasses Link
Ġmur dered
| +
Ġintern ationally
Ġsolit on
? }
i Äĩ
ĠC ub
Ġacceler ate
Ġover flow
Ġpost pon
ĠBl ake
m os
}$ \,
Ġch unk
Ġ Ä
ed e
ĠB MW
ob ic
ĠS G
e ither
Ġcur sor
PRO JECT
ach ment
pro c
Ġp t
g io
19 09
Writ ten
av our
": "
th lete
Ġh ug
Reg istry
ĠV enezuel
Ġcro ps
press ure
ĠPhill ips
Ġpeace ful
Ġnil potent
ĠG y
23 7
ĠTes la
c ancel
eg al
Ġch ips
Ġinter cept
C ulture
Ġluminos ities
Ġatta ch
} ')
ĠCl are
3 15
ĠSh adow
el ic
Ġtra uma
Ġlog in
Ġimag ination
Ġr ises
ĠMountain s
Dat aset
ĠF robenius
Ġreg ulated
ĠT ips
be en
sl ide
gl ob
ĠH i
ĠNe ural
option al
B road
ĠIl legal
() ))
S plit
ĠC ad
EE EE
Ġneighb ours
ĠMet ropolitan
ĠMichel le
ear ly
{ ,
pos it
ĠTam il
mem bers
Î ·
att ed
ĠMajor ana
J M
ĠGib bs
Ġ' <
Z one
Con v
sk a
eg el
ĠW ing
ĠK l
ING S
Ġex clusion
Ġ\| _
Ġtra ditionally
Ġconf idential
) ^{(
Ġadminist ered
ĠCart esian
se min
Ġd irty
Ad am
Ġhyperp arameters
Se cret
ĠB ert
Ġrecur rence
c ould
Ä ĥ
en za
Ġadvert is
Ġthro at
v id
Ġ )^
ah l
ĠVal ent
Part y
Ġoptim ality
b ons
ĠI gn
Ġclar ify
C ong
ĠĠĠĠĠĠĠĠ ĠĠĊ
Ġy r
Ġcle ver
Ġtremend ous
Ġo ught
Ġis ometry
Ġse am
Ġsh irt
Ġdes erves
Ġpos ed
i ability
ĠH em
Ġsuper gravity
bb ed
Ġgr at
ach i
pol it
ag ar
ĠðŁ ĺ
SE LECT
gener ate
Av ailable
ub le
uzz y
P UT
ĠB ose
19 05
Rep resent
B an
w x
Ġround ed
Ġinsert ion
ĠĠĠĠĠĠĠĠĠĠĠĠĠĠĠĠĠĠĠĠĠĠĠĠĠĠĠĠĠĠĠĠ ĠĠĠĠĠĠĠĠĠĠĠĠĠĠĠ
d og
I ss
Ġr h
z t
ĠR aw
Ġp he
ĠM n
Ð¾Ð »
Ġdisapp eared
Ġinhabit ants
ĠNaz i
ĠC ash
mark ed
p ract
con sole
w y
ĠPark s
iz ational
add plot
Ġrefuge es
Ġre vel
ĠDe ut
ĠSy rian
ĠS old
App le
Ġrespons ibilities
Pre v
Ġintrig uing
ĠCh and
24 7
Ġsacr ifice
Ġw rap
Ġterm ination
Ġun ions
ĠRem ove
Valid ation
rac ed
Ġcrow ds
Ġentertain ing
Ġfeas ibility
Y ang
Ġany body
ĠGra duate
ĠA braham
au kee
ĠOption al
g mail
get Element
Ġpath ways
bas eline
Ġpropag ating
ĠAlf red
* [
ĠSc ript
\ >
ov ic
Å ¾
ĠDub ai
F ast
ĠLy apunov
ĠR oche
ĠL amb
Ġcorpor ations
Ġt ear
]{ .
}- {\
R ussian
T imes
}\ }$.
ĠBuff alo
Ġsyn tax
S eq
ĠM g
ĠRe ed
ĠESP N
Ġb ell
tagon ist
ĠOb viously
Ġlemm as
Ġfin ishes
ĠPubl isher
K a
M n
ĠR ac
ĠS end
Ġdark ness
ĠHe isenberg
ãĢ Ĥ
ENT S
Ġtravel ed
Lat est
bf series
ĠM F
ĠG rid
= &\
OR S
B ol
ĠInt o
L ater
ĠC er
ĠG amb
Ġmag azines
aps ed
Ġche aper
Ġe uro
ĠNorm an
am ation
us k
ĠChem istry
D rop
ft en
Ġpre view
Ġfunction als
pre vious
L im
} &=
SS L
H s
M ont
up ta
ĠH ack
Ġgain ing
ĠI g
19 1
ĠJ ama
ir ational
ro cal
à¥ ĩ
ĠC IA
Ġanomal ies
i pt
Ġ&= &\
d ip
d iver
Ġtour ists
Ġcust ody
. ''
block s
Cal ifornia
Ġan ch
7 20
Ġpsych ology
Ġthe at
Ġa uth
Ġde compose
Ġho pping
T ON
}( [
Ġvoc abulary
ĠK L
ĠPhot os
ma re
ĠTy ler
F ive
o ct
Ġso vere
Ham iltonian
ĠNep al
Ġpol ym
Ġcre ator
ĠSoc cer
Ġmark ing
Ġinfinites imal
Ġ[ ],
ex tern
Tag ged
Ġpop ulated
les h
reng th
ĠP rix
econom ic
Ġref use
Ġr ush
Ġ$ %
Ġsl iding
Ġquas ars
un iversal
alax ies
f uture
Ġtor ic
Ġsear ched
Ġbi om
Ġexclud ing
18 1
sim ulation
defin ite
effect s
O ST
Sp ring
Ġp ension
p ole
B rand
T B
ĠI ma
ĠB ir
and ed
Ġdisapp ear
Ġam ple
Ġpen al
plan et
Austral ia
Ġtra its
Ö °
Ġsupre m
if ully
... "
O cc
ull er
Î ²
Ġpack aging
ĠG D
le en
Ġab ortion
Ġbehav es
t il
ĠðŁ ĻĤ
R aw
Ġc ad
o qu
pe er
C LASS
Ġrest art
IC ATION
ĠN HL
38 4
] )$
Ġcan vas
Ġend e
Ġb ridges
ĠL ions
Ġloc ate
and ez
\! -\!
d iss
Ġtra ded
Ġelli ptical
Ġatt ractions
Ġdis closure
igu ous
... </
Ġtra ils
Ġpress ures
Ġ' ''
ĠUn less
Ø ¯
Ġint im
Ġsuggest ion
ĠG it
Ġapprec iated
inter acting
b A
et c
ĠHel en
& \\
Ġde formed
ĠP aint
Ġpred icate
ĠYork shire
Ġcod imension
ĠAlber ta
Ġsimple x
AM ES
Work s
B ank
Ġaff air
Mod els
r put
Ġc tx
ens pace
Ste ve
Ġsub manifold
Ġtransform er
Ġsever ity
Ġl oses
Ġhe d
Ġinvest or
ĠUs ers
Ġhe ated
24 6
product s
F ire
Ġloc ality
yl an
ĠBrook s
a ft
p aren
un cer
Qu antum
S ig
ĠSt ef
Ġorig inated
N s
ĠM ental
Assum ing
Ġpractition ers
ex periment
lass ical
ON D
Î »
pp e
Ġcle ared
Ġal i
ext ended
Ġtru cks
ĠI MF
um ph
M ic
T aylor
un s
Ġfin est
Ġsp ans
Ġdepos it
Ġren owned
com par
Ġsw ord
A st
ĠE t
n ar
ĠK umar
app le
side bar
) ->
Ġeth ics
V ill
ĠMy r
Ġpossess es
ul ent
Ġ( #
Ġsc ans
( @
Ġbe ars
zy me
ĠN ak
ĠProm ise
m usic
Ġflav our
Ġt il
ĠHol iday
Ġrecurs ion
ĠVictor ian
C W
ĠSt ay
ĠR ams
en es
Ġch lor
] }(
ĠB rief
Ġhe ights
B uck
Ġ\ [\
Ġachieve ments
ĠY ellow
ĠD ennis
ĠLe o
us c
Ġelim ination
product ive
Ġcooper ative
}} )$.
Ġflu oresc
Ġsp o
Ġl as
eps fig
h im
Ġexcess ive
Ġredund ant
ĠAnc ient
}}\ ,\
$ [
ĠOpp ortun
C over
Ġres piratory
âĶ Ģ
Ġh iring
er ie
Un like
Eu Script
ok u
ĠA A
Ġsil icon
Ġaud it
Q s
Ġw orm
rit is
comple t
iling ual
Ġinsp iring
Ac cept
ĠElect ron
ph il
ĠLink s
Ġaccum ulation
y on
Ġram p
ĠS ER
Ġtransform ing
ĠGra de
S ect
j b
Ġnum b
run time
ĠHall ow
ĠB ris
Ġ- (
Ġref und
Ġp ile
Count ry
V ict
at ile
Ġfil ing
ĠJess ica
Ġgrad es
Pr inc
ĠK aren
Ġposition ed
Ġloc als
ĠÂ «
Ġqu iver
Ġsl avery
th ose
anc ers
Ġinsp ire
ĠDec ision
Ġelev ation
p ad
Ġre ass
ĠC W
Ġdie lectric
am ination
Ġche ese
Ġsurviv ors
E valuation
g ences
ĠB ERT
3 12
y our
Ġw ors
ĠRod rig
ac s
ain ing
Ġconver gent
Ġamb itious
ĠWild life
U A
Ġun biased
at ra
Ġg am
th ink
ĠR H
40 5
}' (
Ġhor r
ag h
arent ly
al ert
Ġdif fraction
ĠMil ky
ĠT T
Ġde ce
ÂĢÂ Ļ
ĠA id
ĠCh arg
d of
(' /
Ġisomorphism s
or ov
ĠPat ients
Ġ Ã©
mon ot
Strateg y
ge ometry
Eq n
ĠD y
ĠF IR
Ġpresum ably
An imation
N eed
60 6
Ġphenomen ological
od ers
Ġemb race
r atic
A gg
Ġstrugg led
ĠC off
Ġnew est
ĠSh akespeare
appro ach
Ġcalib rated
ĠArch itect
Ġdelight ed
Ġsubsc rib
ĠS ession
F ood
Ã¨ re
found er
um ble
d an
ee k
R D
ĠS pencer
if th
Ġbank rupt
J D
ĠClass es
ĠDet erm
ll l
Ġoptim izing
Ġdesper ate
ric hed
Ġloc om
sm ith
M pc
Ġcylind rical
id is
L uc
w aukee
Ġsw ap
Ġw ard
Ġdet erior
H erm
oth s
Ġprot esters
id ual
ĠAdvert ising
Ġn urse
Ġin quiry
ĠW ITH
ann abis
}^* \
Ġmut ations
Ġag ing
W al
ĠP ain
Char les
ook s
Ġnon empty
Ġkn ots
: $
Ġt iles
che l
cor ner
Ġfragment ation
^- (
n x
Ġp ays
< <
Ġu pl
ĠWell s
ĠR etail
SC RI
ort ium
}) \,
Ġtim ely
pro ving
ĠGi ants
Ġpres ervation
at op
ĠNS W
gom ery
Ġl ob
ex plicit
str ateg
Ġlinear ized
, ~\
ĠH odge
ĠR ural
Ġat tained
k le
ĠT ables
G rant
Ġ il
ĠC AN
Ġsur pass
Ġb icy
Ġcred entials
ĠM otion
att s
Return s
ĠV ert
ordin ate
UT C
> =
a ired
av ier
Ġmal icious
ĠHoll and
ĠMont ana
Ġpun ishment
general ized
), $$
Ġun seen
ĠM ul
cl s
ĠPalest inian
Ġ\ '
b usiness
n f
ĠM iles
Ġdef icit
Ġj am
Ġfarm s
ip es
ancell or
Ġdon or
Ġcous in
Date Time
Ġorb ifold
~ .
Ġgener ous
ĠPar ad
G LE
pro jection
is ch
End point
Ġstim ulus
ĠS ample
ĠA CC
Ġmanufact ured
read er
ĠEag les
t ens
ĠC AR
Ġpain ter
ĠP I
ĠPart ner
Ð ³
0 20
ĠO tt
ĠN H
nod ata
im ates
ri pp
ĠW ave
t ouch
ah an
ĠLe ad
z ip
IL D
Ġshow case
ĠU ntil
sd k
ĠSche dule
RE SS
Ġdisappoint ed
Ġm aker
Ñ Ĩ
Ġpr imes
30 8
for cing
Requ ired
ĠMed ic
Ġbroad ly
Ġaccum ulated
st raction
Ġst rang
Ġcor n
Ġsing ers
Ġhist ories
mat rices
c x
d yn
h it
Ġassert That
Dep th
Y et
det ection
ĠJacob ian
/ (\
Ġgirl friend
Ġdec iding
23 9
Ġslic es
Î ¼
ĠL ocation
Ġp unch
Ġinter stellar
Ġqual ifying
st ad
Control s
0 50
AC S
Ġwind ing
Ġinv ite
De legate
pin ion
^* _{\
Y S
ĠĠĠĠĠĠĠĠĠĠĠĠĠĠĠĠĠĠĠĠĠĠĠĠĠĠĠĠĠĠĠĠ ĠĠ
ee a
L B
U ntil
ĠH appy
ĠBer g
ĠRepresent ative
\ (\
ish i
Ġobst acle
ĠMil an
K O
y z
Ġbreath ing
Ġbed room
b ys
ĠS cre
W rapper
ff icking
ĠLe eds
Y M
comp ile
ĠN om
Q R
de velopment
30 2
Ġne b
Ġdis ruption
G ate
ĠM ong
ri ans
s and
ĠPrad esh
ĠPhil osophy
ou lli
E conom
Mach ine
ĠI celand
Ġgard ens
D ark
Ġb ust
Ġhar sh
Ġtouc hed
ĠN I
ĠPier re
Ġen larg
oc ate
AP P
Ġep it
ibl ings
C lear
rotate box
PR L
Ġd ex
e i
cur ves
29 5
time out
ĠÃ Ĺ
ĠSpe aker
qu est
if def
ĠSc ore
Ġwealth y
11 11
sh ows
Ġstack ed
Ġcelebr ity
et able
am o
ĠTh under
eng es
tr l
Ġanaly st
Ġswit ches
Ġin homogeneous
F IN
o ard
19 04
h orn
is se
ar Xiv
Ġd ans
Ġimplic ation
an ol
ĠG az
c ube
c ourse
24 4
Ġastro physical
Ġsmooth ness
*}[ !
m x
per fect
Ġover night
ĠCare er
Ġj Query
24 9
Ġarg ues
Ġs ocket
Am ount
Ġbehavior al
Sc ore
ch apter
Exec ution
Ġweight ing
unc an
ord ering
ĠPet e
ĠJeff erson
Process or
as pect
G ar
ĠP rep
ĠUk rainian
Ġrespect ed
}\, {\
Ġempir ically
Ġmultipl ier
}_{ [
sh ine
Ġtact ics
{ }^
19 07
ific ates
l ift
other mal
ĠO ri
Ġsyn chrotron
ĠDel aware
Christ ian
}\ ;\
ĠSa fe
Ġwel comed
osoph ical
6 25
Ġhold er
' )$.
ĠOt tawa
g rowth
Ġcan on
}) ^\
Ġqual ities
Ġheav ier
| >
ĠLO G
ĠM ock
Ġplay off
er als
Ġcost ly
Ġunf air
m ol
oll o
Ġvac ation
Ġkid n
c ies
ĠC risis
cont ract
Not ification
ĠAct ually
V ery
ĠK in
H op
reat ment
cell s
m oving
Ġappar atus
ĠLe vi
con tr
ĠB rid
Ġig et
ar us
/ -
ĠW ag
Ġsm ell
Ġlect ure
ĠÐ º
ran ging
Ġelect oral
Ġintersect s
ĠD anny
M ut
ĠS outheast
ĠMu hammad
ag i
Ġend orse
Ġelect roweak
Ġpos itivity
gener ator
bro ok
ĠI ter
Ġoffer ings
structure d
st ab
Ex periments
^+ ,
R am
Ġca us
Ġvis cous
Ġshell s
Ġpro x
Ġcl one
cer y
Ġleg ally
LO W
' /
ĠCon versely
n ational
}' _
fin ity
Ġprevent ed
ĠC MS
be a
Ġdom inance
prot obuf
ĠAltern atively
uck land
Ġund erm
Ġqu ench
ĠFran ces
ĠM SE
enn ial
Ġdest inations
ĠD rag
Ġtim eline
Ġcre ature
Ġinstant ly
O lymp
ĠIn cre
et e
ĠS qu
Ġinteg rand
ĠB omb
ĠFred erick
Ġpra ised
ĠB ottom
ĠNash ville
re li
Ġp upp
ĠTrans fer
ud s
4 75
ĠGard ens
ĠM ik
Ġconsum ed
Ġinev itable
30 7
ĠS tack
ĠC uba
ĠVal ues
Ġtr ump
spect ive
con sum
Ġgen ome
Ġ$ >
d S
0 13
D ATA
ĠW HO
Ġjump ed
Id entity
T a
j l
Ġh unt
ard less
? âĢĻ
[ ->]
ect ive
E instein
ĠK re
curs ion
Ġden y
opt s
Ġcoinc idence
Bel ow
ĠCE LL
ĠP P
0 16
g irl
ĠĠ ĉ
Ġnav bar
ĠP om
b uff
Ġout lets
B log
Ġhistor ically
L ibrary
S tage
w avelength
Fil ed
min o
Ġlad der
Ġpuzz le
g b
Ġele ven
ĠS TE
28 5
Ġint imate
ĠTrans form
Ġvulner ability
Ġnon profit
Ġexc itement
Ġcon verse
Ġinv olution
Ġemer ges
ĠPsych ology
urs or
vit ational
Ġg ases
Ġi Pad
Ġbifurc ation
com merce
ĠAl ban
Ġcirc ulation
Y P
it ored
Ġint ensities
ex cit
ĠExcell ence
c O
Ġpro long
Ġfe ver
ĠS ak
ĠL ud
ampl ed
ĠQu ick
ĠJam ie
b ial
Text ure
constra ints
è ¯
Ġden oting
Ġconstitution al
Ġro d
kw args
x b
Ġm irr
ĠK as
' _\
Ġl ig
Ġmon ument
C ut
ib n
W at
Ġg ad
B IT
Ġ æ
a uses
ĠS olution
Ġmon ol
Ġpredict or
Ġdivid es
st ochastic
sens itive
integ ration
ra de
Ġclick ing
0 14
n k
Ġ Ø§ÙĦ
text subscript
ĠCom ing
ren ces
Ġres ur
ĠK ap
Ġaccept s
ĠE asy
gu ard
Ġazimuth al
ĠI van
ĠD aw
IC ENSE
Ġhelic ity
^- _
Ġs b
ORD ER
Ï Ĥ
Ġout liers
Ġ" '
ve rest
inter cal
ĠT F
ĠL F
ĠHe at
load ed
Ġadj acency
Ð° ÑĤ
Ġparametriz ed
Ġdis connected
Ġsuff ers
ĠWall ace
cover ing
) ">
× ©
ĠE ug
ĠWe ight
Never theless
Ġimp urity
Ġint end
acc uracy
) '
ĠTour ism
Ġc attle
ĠNov a
dest roy
fl align
Ġalt ogether
ĠUl tra
col ored
ut z
Ġgame play
um i
st en
18 80
Ġthreat ening
w r
Ġ\ |^
au i
, +\
ĠO z
ĠPro gress
Ġread only
ĠBut ler
ĠSer ge
Ġvolat ility
L STM
ĠEag le
cont ents
Ġcab inet
Comm un
enc oding
ĠHol mes
Ġremind ed
ĠHess ian
ĠDire ctors
ĠSub section
U G
Ġlast ing
w allet
US ER
C ounter
\ })
it eness
ĠPro test
Ġcelebr ating
K h
Ġatta chment
Ġgi ants
16 00
Ġcon ferences
bo ys
pl aced
Ġarg uing
Ġend owed
Ġpropag ate
comm ons
F riday
Ġqu it
ĠB un
Ġproduct ive
Ġcon greg
Ġtel esc
ere k
oper ators
\ }}\
ĠSt uart
c ue
Ġab normal
Ġpartners hips
Ġpoll s
Ġlit igation
2 18
| ^{-
ĠGal ois
ploy ed
abel ian
Ġg erm
Ġex changes
ĠJacob i
equival ence
ĠRe form
33 6
ĠJul ian
ful ness
ĠFl ow
ĠShang hai
ĠHallow een
sol utions
ĠSche me
}_ *
big wedge
Be ing
year s
Ġaccompany ing
Ġconjug ation
equ ality
Ġkn ife
Ġprov incial
atter y
Ġerg odic
Object s
s ight
Ġper missions
Ġhapp iness
D im
Ġment ions
Ġm appings
Ġsubsid iary
ĠS ierra
ĠH arm
Col lect
head ing
ott i
ĠMar cus
supers cript
ĠSt orage
Ġby pass
ai ro
ĠL C
T our
Ġthe rapeutic
s ho
arm acy
Ġreven ues
Ġass ists
Ġconsult ant
Ġexpat riate
sp ort
Ġb ubbles
Ġrefere e
larg er
ĠSp ider
Ġpers istence
Ġmult is
ĠOak land
E F
W ashington
Build ing
B us
H ello
Ġdemand ed
ĠLind a
y g
ow itz
ĉĉĉĉ ĉĉĉĉĉĉ
ing o
ĠL D
Ġam end
M att
Ġc ats
ĠP ul
sp atial
ĠJava Script
el o
30 6
Ġconv ince
l ived
)} |
Ġplate au
Ġinfect ious
Ġre vision
Ġfl ed
Ġcontact ed
ĠC inema
ten ess
AS P
string s
AM S
Ġencoura ges
× ŀ
ampl itude
ent i
Ġout look
diff usion
- (\
19 06
Ġcent r
Ġaim ing
Ġv endors
PE C
Ġp raise
Ġshe aves
Ġu b
de creasing
aj a
rac ies
3 90
Ġsp ray
Ġ$ {{\
Start ing
or on
Ġcon vection
ĠL M
ĠP arameters
ĠK yle
d river
Un known
]{ $\
26 6
Ġrein forcement
Ġresil ience
ĠP G
ĠB order
ĠTh read
Ã© n
T ilde
Ġviol ating
ĠCat hedral
categor ized
ĠP osition
Ġsupp liers
Ġre ck
Ġfiduc ial
ak is
Ġsk illed
Ġbright er
comm end
ĠSal v
Ġmultip lying
}} }_{
ĠComm ander
) }^{\
ad ays
aff ected
Ġl ith
uss els
Ġprob able
Comm unity
Ġare na
b ott
ĠC ities
ĠF oster
mm s
LA Y
). \]
or ig
Ġdecay ing
Ġeight h
/ ">
Ġcrit ically
mag ine
Ġdeb ris
mb le
Ġlog s
ĠD NN
ĠTre k
F ort
it on
se ed
Prim ary
Ġlast ed
Ġf ame
ĠC ool
sur vey
m is
Ġauthent ic
ĠHaus dorff
B ell
IM PORT
ke eping
Ġhol y
rest rial
gest ion
x z
it ively
ĠR uth
Ġmar ry
ud dy
ĠIn stitution
inc inn
âĨ Ĳ
re call
Ġselect s
ĠRoman ia
ast ics
ĠDe b
24 3
Ġe rect
ĠTrans former
ĠHug hes
Ġspec ifies
Ġbroad band
Ġquadr ature
Ġax ion
m skip
Ġ[ ...]
Ġfil med
amb ig
ĠĠĠĠĠĠĠĠĠĠĠĠĠĠĠĠĠĠĠĠĠĠĠĠĠĠĠĠĠĠĠĠ ĠĠĠĠ
Ġanten nas
G rand
ram id
ĠAr nold
Ġpar as
T own
ort ions
ĠZ ar
Ġgram mar
Q Q
Ġ$ _
du ality
ĠA CT
Ġsum mit
ex perimental
ĠCon cept
Ġautom ation
Ġpoly tope
Ġinterview ed
Ġtra gedy
ĠNAV BAR
ĠS OC
Ġthere of
Ġampl ification
Ġlic ence
ote chn
I l
ann ers
Ġchemical s
' ];
0 35
S aint
Ġre forms
Ġprivile ge
} ',
observ ation
ĠB ever
Ġf ifty
ab we
Ġincorpor ates
ĠR ugby
m essages
ĠR ou
Ġcolor ing
Ġh ills
ĠHe avy
ĠMer cedes
vert ices
spec ified
Log in
ĠNeb raska
ĠT ampa
pen se
IC A
empor al
Per haps
atin um
Ù ĩ
ĠBeaut y
EEEE FF
Ġrel atives
ĠS oci
Ġdiffe omorphism
load er
Ġc her
corpor ated
ĠOr lando
ĠBat man
' }(\
Ġo h
- {
Re act
Mult iple
ĠColumb us
ĠD G
Ġhar assment
Ġrid ers
, {
Us ers
Â £
os ity
Ġprospect ive
ĠColomb ia
ĠC raw
Ġcompass ion
Ġtimes cales
Ġholograph ic
ic om
ra ment
ĠC li
rot ation
Ġint ens
Ġlisten ers
| .
Ġ ];
}, \,
Ġtest imony
Ġt mp
ell ite
Ġreal ised
Ġspokes man
Ġwas h
In ner
D ictionary
Ġprim ordial
b R
ĠA viation
Ġsport ing
ĠFact ory
9 11
ĠCo q
Miss ing
Ġtable t
Ġredu ctions
Ġb other
Ġshe ep
}+ (
Fe atures
Ġobl igation
Ġapp l
Ġunder taken
ĠClar ke
ĠC rystal
Ġen sembles
Ġpur suit
b ag
33 5
J ew
ĠR oth
includ es
Ġmo ist
R u
Ġtransport ed
Ġflow ing
F older
tain s
arg uments
Ð¾ ÑĢ
MO DE
l f
K it
sl ow
Ġmother s
/ _
ĠM idd
ĠAll ah
aut om
Ġt ric
ĠCO L
Ġmem orable
19 01
second ary
lic ense
tr unc
ĠV lad
Ġto ss
ear chers
Ġridic ulous
imb abwe
Ġdis able
B and
Ġk g
Ġintersection s
Ġsp are
Ġoccas ional
h w
Ø ª
ĠA W
rab ility
Ġsubject ed
ĠB ak
Ġdis charge
Ġprest igious
Ġsac red
Ġcon duction
Ex port
ruct ive
Ġprob es
= |
Ġinv isible
am pton
Ġbu f
ĠHop kins
ĠBapt ist
ĠL ov
Ch inese
Ġg orge
ĠPresident ial
Ġlept ons
prov ide
F n
Ġsound track
H B
ĠP av
iz ability
Ġspace craft
ĠRating s
j ax
IN ST
Ġiter atively
Ġb ones
ĠM ig
25 7
rum ent
incinn ati
25 8
cur l
ĠR ice
St ats
t ransp
el ong
Ġres igned
ust ering
ĠU pdates
Ġin nings
Ġdisc s
Ġas pir
ID TH
(' .
opt ical
Sub ject
Ġde position
Ġprocess ors
ĠD rop
oc hem
Ġthr iller
E r
y d
Ġp owder
ĠT ib
ert on
D am
ur ally
ĠPhot ography
ell ation
Ġgra ve
Ġcycl ing
2 21
Ġp ale
nd um
ĠB ring
Sep ar
C Y
Ġwhere ver
y ll
ill es
c av
M ust
ĠR alph
ine es
Ġsu cc
Ġ< -
Ġeject a
n ai
ri ends
FI ELD
Ġcompan ions
M ouse
he avy
nav igation
S to
Ġdis hes
Ġph armac
Ġ> >>
ĠP ool
ĠHe brew
valid ate
Ġassemb led
Ġt ier
Ġtransmit ter
Ġe lem
tact ic
Ġyoung est
Ġsacr ific
Ġmem or
UR CE
B atch
Ġprec ious
ĠP rison
Ġb reat
align at
F re
Ġfest ivals
ĠLeban on
C os
ĠReg ulation
dist ributed
ĠC urt
25 3
ĠSy l
ĠPar ish
ss s
Ġtechn ically
g athered
ro e
Ġgeodes ics
ph or
Ġcollaps ed
ĠSher iff
oding er
make cell
Ġsupernov a
ĠDou g
Ġdedu ced
theore tic
Ġn erve
ĠH yp
Ġab ol
Ġgrand father
Ġscr ut
ĠM ine
ĠSh ip
ne ys
ic ode
Ġunder way
el ia
ĠF F
Ġdam n
ress es
A wards
ij i
ĠTra ffic
ĠEqu ations
Ġharm ony
En v
Ġvort ices
ĠCD C
us on
Ġf ibration
Ġon t
Ġsleep ing
Ġdescript or
Ġm ist
ĠG ross
27 9
ĠSu ff
}. \\
Ġsu ck
Ke ep
Ġf ights
Ġhonest ly
ĠK K
ĠRe id
ĠL if
Ġobser vers
Ġconvex ity
Ġc ant
p relim
Ġvalid ated
om ical
Ġup ward
Ġharm ful
Ġm irac
Ġval ign
ident ifier
Ġel ong
urch ase
Ġtong ue
ĠF S
ĠG yr
Per iod
S erv
})$ -
un known
Ġm aj
ĠR at
)=\ {
Ġabund ant
cass andra
N ick
ĠSt r
Ã Ĥ
Ġc ure
ĠÐ ´
Ġpil ots
Ġk ills
ane ously
IC T
ĠB anks
Ġresemb les
Ġflu ids
Ġp orn
[ ][
ĠG S
ĠEdd ie
A J
K D
Ġrent al
ĠD ES
ST AR
Ġperman ently
W ild
Const ruction
ĠProcess ing
Ġrecruit ment
ĠSch midt
Consider ing
Me et
Rem ote
; ,
F LA
Ġto b
Ġsyn c
29 9
vary ing
i encies
ĠTour nament
u ably
ok o
ĠN ine
Ġwell s
ĠTH IS
min ster
Ġdr one
="../../../../../../ ../
ĠL G
Ġplay offs
ik o
amp ire
Ġbug s
m its
K N
sh ock
Ġview point
s an
ĠSh ows
Ġsuper con
produ ced
Dist ance
Ġa viation
Argument Exception
Ġpen alties
B all
Ġb ail
select or
6 40
Ġseason al
G roups
ĠS cale
CE PT
ĠW iki
ĠQu ery
Reduce Action
Ġall iance
oy le
ĠProject s
Ġeigen vector
ĠBen nett
ĠM AC
ĠÐ ¾
Ä «
ceed ings
Us age
sh i
ari um
Ġgod s
sub mit
Americ a
24 1
g c
Ġpropag anda
ĠM aps
NS String
f ew
Ġre combination
ore tical
= ~
Ġfle w
m eg
ĠGu inea
NavBar Font
' ]['
w at
ĠV ers
Ġlapt op
ram er
Ġcritic ized
J ones
ĠSom ething
Ġsk et
M ilitary
x u
ĠNew castle
Ġn urses
Ġbes ide
Ġg ut
Ġque en
S witch
Ġ} }\
ĠPartners hip
Ġ( ),
Ġhighlight ing
n ut
Ġc and
ĠCommun ist
ĠB ald
Ġpeak ed
do ors
f rames
v ir
Ġsy s
Cho ose
ĠSquad ron
4 40
an imation
b road
Ġ\ {(
getElement ById
k im
Ġref lections
Ġescap ed
W ood
Ġn s
D OM
m esh
ĠJ O
ign ore
ĠPer u
B ind
] |
text sl
ĠV ic
Ġfree ze
Ġextract ing
Ġcart oon
qu art
Se ason
Ġtradem ark
Ġtrac ed
ĠHar bor
os ion
w ent
orth ogonal
ĠN u
Ġ\ }$,
& -\
op al
an ch
Ġcorrect ness
E A
O fficial
st ri
Ġdraw ings
Ġrail road
g cd
ĠT rial
Ġse curities
l os
bl ob
Ġbatter ies
Japan ese
sc hem
v phantom
Ġinter change
mar ine
ĠElect ronic
ĠM end
ĠTh r
Ġmach inery
B inding
Ġf ictional
B ey
}$ (
ĠW ords
Ġc s
Ġen roll
Ġadvent ures
c aster
Ġimport ed
in frared
Ġsent enced
ĠCh ase
ĠV ermont
Ġcol span
Ġst ressed
ĠĠĠĠĠĠĠĠĠĠĠĠĠĠĠĠ ĠĠĠĠĊ
Ġra p
Ġh ind
27 3
Ġalt itude
A ge
m ega
ar as
Ġp df
ĠRe leases
Sche me
ĠCoun sel
Ġdiscrim inator
Ġsoci eties
arab ic
Seg ment
Ġdig its
ĠHit ler
ope z
ĠPal mer
Ġn itrogen
p ion
th ood
ĠMy stery
ĠLu is
Ġcor on
'' \
P en
)= {\
)] .
inos ity
Ġth rust
)= (\
Ġmention ing
ol ia
ĠS ens
Ġannih il
it us
Ġd ign
Ġf older
ĠS weet
ĠCoal ition
ps line
ĠDo ppler
Run ning
Ġc md
Ġlaw makers
ĠConfig uration
ĠM RI
ĠHung arian
ba ij
m and
ise cond
ik ov
S ort
Whe ther
s ure
Ġlack s
Ġmaxim izing
text superscript
Ġwork flow
Ġpoly gon
ĠHe aven
}& =\
ĠEv idence
N B
f av
Ġdem ographic
observ ations
follow s
Ġatt orneys
ĠAthe ns
L am
Ġmultip ly
@ \
lst listing
ĠT at
Ġst ir
Ġcontract ed
Ġst ones
ambig uation
Ġm ant
And roid
Ġtail s
Ġst ems
ĠLeon ard
Ġfor ty
ff f
Ġbl ast
q v
ĠTe aching
Ġforth coming
Ġsp otted
ĠEx perimental
ĠZ oom
50 9
rast ically
Ġscript s
tol ua
Ġcancel ed
ĠEffect s
Ġear ning
F ixed
Al pha
AM A
ĠN Z
Ġcont ra
Event Listener
Ex tra
ĠT rent
un ed
Ġdoub led
Bi ography
ĠAd ult
Ġexc use
ĠAccording ly
avor ite
Ġ× Ķ
ÃŃ n
Ġ _\
ĠImm un
Bet ween
Ġadvoc ates
}} &
Â ½
ĠCon v
Ġspec ifying
M g
R ound
Mon th
Ġterror ism
ĠP V
Ġbath room
ĠAust rian
measure d
R B
ĠIt em
ĠAl pha
Ġfil aments
Ġpr uning
Ġart ic
ĠAr senal
Ġbeat en
S aturday
27 6
Ġbab ies
IRT UAL
sc hed
Ġli ps
ocy cle
Ġf art
Ġperipher al
ĠS or
R ail
g ins
Ġ iv
osp ace
N H
Ġeigen functions
Ġcor poration
ĠRel ated
Q P
det ect
IO Exception
ĠS ah
ĠD od
ĠFle et
) }_\
}) |
Ġfif teen
Ġreprodu ction
C ONT
ĠUS B
Ġaffili ated
central ized
t alk
Ġclin ic
ĠTh ought
F ailure
im o
Ġterrit ories
ĠQu ant
id y
;\;\ ;
ï ¬
Ġen rolled
S ir
pl as
Ġcon vective
Ġneg atively
Ġder iving
ley ball
ĠMar x
Ġes cal
ĠBo eing
b id
Ġab rupt
Ġsimpl ifies
ĠB ach
Ġend less
oun ge
At ta
10 80
Ġf ond
ri o
Ġmet er
ĠGreg ory
Ġb il
App Compat
an ia
ĠImage Net
? !
}\ }$,
Ġhon ored
zer baij
24 2
K now
os lav
Ġinert ial
ĠF T
d q
Ġsurn ame
ĠM ask
Ġf etch
ĠD ad
alt Color
Ġce iling
M ills
Ġjump ing
ĠA way
S ound
Ġanth rop
ĠRe ve
ĠIda ho
su ff
M V
z s
d ar
Ġansw ering
RE T
P rem
t ogether
Ġexcell ence
, *
Ġred ist
Ġadvoc acy
ĠThe rapy
cycl opedia
g f
Ġgrid s
H all
ĠB uch
Ġrem ot
& $\
re peat
ĠP owell
ĠT itan
Ġcontain ers
S ix
p ix
Man agement
Ġselect ive
Ġb out
ĠR angers
Ġwar nings
hal o
ĠBob by
Ġreg ener
ĠMc L
Ġrenew ed
ĠEs pecially
acc ording
Ġrece ivers
Ġpurch asing
< -
K en
ĠPlay Station
ĠSp in
arc min
success ful
if ndef
mac ro
ela ide
Ġb arg
Ġmin isters
att i
Ġrandom ness
Ġshut down
ere rs
itt y
ĠIndep endence
enc ia
ĠCol in
ĠComput e
Ġ" %
ĠI EEE
ĠRe ally
Ġbott lene
ĠUg anda
g ements
Ġor che
NO DE
Ġmonoton ically
Ġdies el
Ã§ Ã£o
vent ory
arm ing
è ®
pro per
Qu ick
L V
19 03
ĠFil ter
Ġs au
ĠM IN
Input Stream
Ġo verest
Ġopt ics
ĠSh annon
Ġret reat
st rom
Ġcount less
ĠLeg acy
Ġw ages
ĠNS F
> "
Hig gs
H il
Ġsub system
26 7
S AT
Ġdecor ated
Ġtub es
ĠA ctor
Ġche er
ĠC apt
En umer
}} }_
any on
tim eline
× ĳ
arp oon
Ġconv inc
mod ular
p ent
ip olar
Ġpsy chiat
eler ation
ĠHor ror
St rong
Ġsan ctions
Ġanaly sts
Ġprem ier
Ġs ulf
ast rop
ĠSer bia
ĠMA X
ĠField s
ĠW ong
Ġmuseum s
ĠN as
ET A
irection al
ĠSud an
R h
on de
Ġ' ',
Ġgu ards
IC AL
Ġemphas ized
it ches
ari ates
ĠLag range
ĠF uel
ov ak
Ġs q
role um
= {(
ĠRel igion
Ġacc us
S ide
Ġdial ect
small er
Ġur gent
Ġboy friend
B ounds
ĠP ink
ers en
St atic
Ġathlet ic
Ġrespond ents
Ġin ch
Ġ( ``
Ġdesk top
4 95
v f
ex c
Ġdel icious
ĠG roups
isp here
ari us
ĠP DE
ĠA uckland
âĨ ĳ
K W
Ġrepe ating
Ġb eds
pack et
Ġw and
Ġske leton
con cept
ĠPack age
station ary
D ig
ĠFl ag
ĠH ERE
}, $$
Ġentreprene urs
em it
h istor
Ġd os
Ġk a
Ġj er
29 8
Ġmer it
Ġpros per
ine z
Ġch ocolate
ĠH ubbard
op ol
bro ken
et es
30 9
ĠC ond
orth y
Ġcr ude
ĠB in
ĠB ent
Ġprohib ited
ĠLl oyd
H aw
assum ing
ag le
Ġopp osing
Ġphil osopher
Ġprem ises
Ġnot ify
Ġquas ar
ĠComb ining
Ġc p
Ġsatisf actory
ival ent
Ġconsult ing
G erm
fig ref
coordin ates
Ġrock et
ĠS ullivan
}^* (
P W
ir re
Ġa f
if fin
Ġoptim istic
Ġcos ine
}] $.
fil m
ĠDiag n
) ",
ĠPop ulation
ĠPrinc ipal
Ġmed ication
Ġchar ter
sw ing
ĠNiger ian
g overnment
Sund ay
28 6
z ant
D ynamic
ĠTre asury
ĠJup iter
ĠP CA
... )
xy z
Ġre minis
Ġhom etown
C ond
ĠU SS
adapt ive
{ }_
EN V
bor o
}} }(\
Rep ly
s uc
Liter al
ĠL akes
ĠCar bon
go al
ĠAl z
35 5
ĠCam era
Ġper cept
ĠDis play
ĠT OP
^{\ ,
Ġadvis or
ĠB D
Ġph armaceutical
S ched
}) )\
ĠSy mbol
Sm art
Ge ography
Ġcus p
Ġ ì
ne ighb
Ġminim izes
Ġbal ancing
Ġunve iled
th ritis
Ġswe ep
ac ies
ass ing
ĠFor ward
Ġb er
ĠCon jecture
}} :
Ġrespon ding
Ġpress ing
p ine
ic iary
IS O
Ġp ad
Ġcl ump
Ġco at
Ġinterpret ations
Ġpurch ases
ĠHard y
Ġrel uct
Enc oding
Spe ed
Ġstom ach
Ġgroup ed
Ġsummar izes
C lim
ĠH ob
(" /
D river
ĠNorth west
Ġcivil ian
IT ION
spect or
Get ty
" |
Ġsuper b
Ġcoh ort
V AR
read ing
Ġre cre
Ġreplic a
ĠInf antry
ass ed
est e
ĠBeng al
ĠD T
Ġch ord
bell ion
Constra int
Ġsoc io
Ġre fin
Ġcot ton
Ġbe ats
25 4
k ward
conj ug
hem atically
rig er
ĠFour th
ĠM ode
L ip
ro ots
are l
Ġp ist
ub ern
Ġsupp lementary
Ġstat ue
Ġoptim izer
ĠInf rastructure
Ġen um
Ġ' ';
SCRI PT
Ġtob acco
0 75
P ublisher
Ġ$ *
ĠP ont
26 3
B ru
n of
Sc ient
ĠChang es
com pl
ca ptions
}}$ )
Pro s
osc opic
Ġimp air
Ġinst abilities
Ġalgorithm ic
Ġhab its
ĠS hen
ĠHis panic
f ight
ee per
ĠRec overy
T alk
Ġn ortheast
ĠL ed
Ġout s
umb ent
Ġf oster
ĠB ullet
Ġyour s
Ġup stream
Ġphys icians
uck s
Ġbow l
cap acity
g art
ĠPop ular
ir ling
ps is
Ġfunction ing
Ġimp ed
Ġprol ifer
ĠBe havior
Ġtim estamp
Ġd rastically
st ill
Ġdeterm in
sm art
Ġprompt ed
Ġimag ery
0 17
ĠT ot
ĠW ere
Ġmon itored
ding ton
izar re
ment ed
ĠCh rome
cm s
n is
ĠAn a
Ġquant ized
b ishop
ĠJ et
V ICE
Ġbroad ening
{\ '
de comp
Ġdisc arded
SE C
Ġclimb ing
Ġ+ +(
æ ķ
Ġtouch ing
Ġb ureau
rup ole
ff ield
_+ ^
Conn ell
ordin ator
ĠH F
ing e
af ety
ri ber
27 8
45 6
Ġrenormal ized
Ġn aked
ĠP ok
ch ap
ind ices
}^{ +\
e lem
y t
ĠR B
ĠO UT
Ġ$[ -
26 9
ĠE lement
ĠGo ing
eval uation
# {
4 60
Ġrecover ing
ĠSI ZE
ĠSub ject
Co in
}{! }{\
Ġmism atch
pg f
quir ies
ĠL is
PC A
gly phicon
Ġorigin ating
all ax
y en
g ement
{ },
Ġin con
ĠT error
ĠK S
ĠHar per
Ġrevers al
is Empty
ĠT urb
}. \]
Ġfight ers
K G
b les
ĠS aw
Ġcol ony
erm ost
ĠT ests
pop ulation
ĠR ah
Ġconc erts
eder ated
27 7
AS K
ĠPoint s
)\ }_{
ĠM ills
ĠG arcia
Att r
25 2
For ce
j ump
Ġref lex
Un iform
con volution
ang ent
Ġsc rew
Rem ember
ĠJo an
in ical
ĠM AP
ĠP and
Ġtra vers
Ġco pe
h fil
el in
qu oted
Ġprodu ctions
ĠAndrew s
Ġph rases
arg min
p kg
iov ascular
S FR
g d
ĠS erial
fer red
Ġfurther more
Ġg el
ĠC OR
Ġion ized
ĠGro ve
Ġass ured
Ġeth n
de precated
ĠH annah
Ġcross ings
Ġst amp
28 9
}}, {\
19 02
restrict ed
v r
ba um
Work ing
ĠRam an
Ġflav ors
ding er
}. )
Fig s
ĠLem mas
re search
Ġancest ors
iqu it
ĠBrand on
ĠDom ain
H V
i int
Ġt ribe
in ent
Ġpublisher s
phan ie
Ġtransc ription
Ġmonop ole
ĠSur gery
Ġl enses
roid s
ĠĠĠĠ čĊ
Ġb end
Ġreview ing
Ġstra ins
writ ers
ĠE OS
Ġcru el
ind ividual
l ists
Ġmon oidal
ĠFirst ly
ĠSw an
Ġdivis ors
ext ensions
Ġmot if
ex change
Ġdis g
Ġspec ially
ĠCon nection
R V
ĠNov el
en code
7 68
ĠB M
Rep ublic
cer tain
m ans
Com plex
ĠG aming
ĠK ash
ibl ical
ĠG oth
26 8
C apt
Ġp neum
ĠA ST
ĠB ark
ĠBry an
Ġbrut al
il o
rub y
ĠBill board
P ur
che t
Ġ\! \
C redit
ĠW ine
[...]
