{"[UNK]":0,"!":1,"\"":2,"#":3,"$":4,"%":5,"&":6,"'":7,"(":8,")":9,"*":10,"+":11,",":12,"-":13,".":14,"/":15,"0":16,"1":17,"2":18,"3":19,"4":20,"5":21,"6":22,"7":23,"8":24,"9":25,":":26,";":27,"<":28,"=":29,">":30,"?":31,"@":32,"A":33,"B":34,"C":35,"D":36,"E":37,"F":38,"G":39,"H":40,"I":41,"J":42,"K":43,"L":44,"M":45,"N":46,"O":47,"P":48,"Q":49,"R":50,"S":51,"T":52,"U":53,"V":54,"W":55,"X":56,"Y":57,"Z":58,"[":59,"\\":60,"]":61,"^":62,"_":63,"`":64,"a":65,"b":66,"c":67,"d":68,"e":69,"f":70,"g":71,"h":72,"i":73,"j":74,"k":75,"l":76,"m":77,"n":78,"o":79,"p":80,"q":81,"r":82,"s":83,"t":84,"u":85,"v":86,"w":87,"x":88,"y":89,"z":90,"{":91,"|":92,"}":93,"~":94,"¡":95,"¢":96,"£":97,"¤":98,"¥":99,"¦":100,"§":101,"¨":102,"©":103,"ª":104,"«":105,"¬":106,"®":107,"¯":108,"°":109,"±":110,"²":111,"³":112,"´":113,"µ":114,"¶":115,"·":116,"¸":117,"¹":118,"º":119,"»":120,"¼":121,"½":122,"¾":123,"¿":124,"Â":125,"Ã":126,"Ä":127,"Å":128,"Æ":129,"Ç":130,"È":131,"É":132,"Ê":133,"Ë":134,"Ì":135,"Í":136,"Î":137,"Ï":138,"Ð":139,"Ñ":140,"Ò":141,"Ó":142,"Ô":143,"Õ":144,"Ö":145,"×":146,"Ø":147,"Ù":148,"Ú":149,"Û":150,"Ü":151,"Ý":152,"Þ":153,"ß":154,"à":155,"á":156,"â":157,"ã":158,"ä":159,"å":160,"æ":161,"ç":162,"è":163,"é":164,"ê":165,"ë":166,"ì":167,"í":168,"î":169,"ï":170,"ð":171,"ñ":172,"ó":173,"ô":174,"Ā":175,"ā":176,"Ă":177,"ă":178,"Ą":179,"ą":180,"Ć":181,"ć":182,"Ĉ":183,"ĉ":184,"Ċ":185,"ċ":186,"Č":187,"č":188,"Ď":189,"ď":190,"Đ":191,"đ":192,"Ē":193,"ē":194,"Ĕ":195,"ĕ":196,"Ė":197,"ė":198,"Ę":199,"ę":200,"Ě":201,"ě":202,"Ĝ":203,"ĝ":204,"Ğ":205,"ğ":206,"Ġ":207,"ġ":208,"Ģ":209,"ģ":210,"Ĥ":211,"ĥ":212,"Ħ":213,"ħ":214,"Ĩ":215,"ĩ":216,"Ī":217,"ī":218,"Ĭ":219,"ĭ":220,"Į":221,"į":222,"İ":223,"ı":224,"Ĳ":225,"ĳ":226,"Ĵ":227,"ĵ":228,"Ķ":229,"ķ":230,"ĸ":231,"Ĺ":232,"ĺ":233,"Ļ":234,"ļ":235,"Ľ":236,"ľ":237,"Ŀ":238,"ŀ":239,"Ł":240,"ł":241,"Ń":242,"Ġt":243,"in":244,"ĠĠ":245,"he":246,"Ġa":247,"on":248,"re":249,"at":250,"er":251,"Ġthe":252,"en":253,"Ġs":254,"or":255,"al":256,"it":257,"Ġo":258,"is":259,"Ġc":260,"es":261,"an":262,"Ġw":263,"ar":264,"ion":265,"ĠĠĠĠ":266,"Ġf":267,"ed":268,"Ġp":269,"nd":270,"Ġof":271,"ing":272,"Ġb":273,"Ġ\\":274,"le":275,"Ġin":276,"ic":277,"ro":278,"Ġ$":279,"Ġd":280,"Ġm":281,"Ġand":282,"as":283,"Ġto":284,"ct":285,"et":286,"el":287,"ou":288,"ent":289,"ig":290,"Ġth":291,"om":292,"st":293,"il":294,"ra":295,"Ġh":296,"Ġre":297,"ation":298,"im":299,"Ġe":300,"Ġn":301,"ot":302,"{\\":303,"ol":304,"am":305,"Ġis":306,"Ġl":307,"ĠT":308,"id":309,"Ġ(":310,"ve":311,"ce":312,"ĠS":313,"ut":314,"se":315,"Ġfor":316,"Ġg":317,"ĠĠĠ":318,"ow":319,"ch":320,"ur":321,"âĢ":322,"ĠC":323,"ĠA":324,"ly":325,"ver":326,"ul":327,"ĠĠĠĠĠĠĠĠ":328,"_{":329,"Ġon":330,"qu":331,"ab":332,"Ġbe":333,"ith":334,"Ġthat":335,"ĠI":336,"Ġu":337,"um":338,"Ġst":339,"ath":340,"od":341,"ad":342,"Ġ$\\":343,"eg":344,"ĠM":345,"Ġcon":346,"if":347,"em":348,"čĊ":349,"end":350,"ay":351,"Ġwith":352,"ir":353,"Ġas":354,"20":355,"math":356,"ge":357,"ht":358,"Ġwe":359,"ri":360,"ĠP":361,"ction":362,"ĠB":363,"ter":364,"Ġpro":365,"ta":366,"Ġal":367,"Ġan":368,"Ġ&":369,"ure":370,"th":371,"ph":372,"Ġv":373,"ĠF":374,"pp":375,"}\\":376,"ist":377,"ĠThe":378,"us":379,"her":380,"ex":381,"}$":382,"ate":383,"ĠH":384,"ight":385,"os":386,"^{":387,"and":388,"ity":389,"pe":390,"ĠR":391,"Ġ=":392,"Ġby":393,"un":394,"ĠD":395,"Ġex":396,"ac":397,"Ġare":398,"iv":399,"Ġwh":400,"ĠĊ":401,"ore":402,"ĠL":403,"pt":404,"ma":405,"Ġit":406,"ĠW":407,"ers":408,"est":409,"Ġcom":410,"res":411,"oc":412,"ref":413,"ine":414,"Ġat":415,"rom":416,"ite":417,"Ġde":418,"ub":419,"ess":420,"ĠN":421,"art":422,"ill":423,"ĠE":424,"Ġy":425,"ĠG":426,"ial":427,"ies":428,"}}":429,"ew":430,"pl":431,"(\\":432,"âĢĻ":433,"nt":434,"per":435,"Ġor":436,"ant":437,"Ġse":438,"ive":439,"Ġfrom":440,"ment":441,"egin":442,"begin":443,"ext":444,"cal":445,"ĠĠĠĠĠĠĠ":446,"rac":447,"Ġr":448,"ps":449,"ud":450,"Ġthis":451,"ort":452,"ld":453,"ag":454,"ft":455,"our":456,"The":457,"Ġhe":458,"iz":459,"ke":460,"_{\\":461,"Ġwas":462,")$":463,"op":464,"ass":465,"ave":466,"Ġsh":467,"all":468,"ĉĉ":469,"og":470,"ere":471,"ult":472,"ect":473,"int":474,"Ġ-":475,"ell":476,"}{":477,"19":478,"ical":479,"Ġnot":480,"orm":481,"ĠO":482,"ich":483,"Ġsu":484,"cl":485,"Ġch":486,"ran":487,"eq":488,"ĠJ":489,"Ġle":490,"ue":491,"frac":492,"Ġcan":493,"ition":494,"ff":495,"Ġcl":496,"ated":497,"00":498,"},":499,"ign":500,"rou":501,"Ġcomp":502,"ust":503,"de":504,"text":505,"Ġhave":506,"})":507,"ber":508,"Ġres":509,"ens":510,"are":511,"equ":512,"cite":513,"ard":514,"201":515,"ĠâĢ":516,"ame":517,"Ġ<":518,"ations":519,"rm":520,"right":521,"able":522,"Ġus":523,"abel":524,"ary":525,"Ġint":526,"mathb":527,"ast":528,"con":529,"age":530,"ace":531,"du":532,"Ġ{":533,"ĠU":534,"ost":535,"Ġwhe":536,",\\":537,"Ġall":538,"Ġwhich":539,"ack":540,"ase":541,"ak":542,"=\"":543,"label":544,"ĠIn":545,"..":546,"cc":547,"$,":548,"ime":549,");":550,"ide":551,"av":552,"eta":553,"the":554,"act":555,"ork":556,"$.":557,"ong":558,"mathcal":559,"Ġim":560,"Ġab":561,"ap":562,"ear":563,"out":564,"--":565,"Ġpl":566,"Ġk":567,"Ġhas":568,"ire":569,"ĠK":570,"ib":571,"ould":572,"ther":573,"com":574,"ip":575,"ind":576,"ru":577,"equation":578,"ain":579,"form":580,"}.":581,"ence":582,"ord":583,"fig":584,"ener":585,"'s":586,"ions":587,"</":588,"left":589,"ous":590,"Ġ\"":591,"ach":592,"ian":593,"Ġapp":594,"ĠĠĠĠĠĠĠĠĠĠĠĠĠĠĠĠ":595,"ia":596,"ang":597,"Ġyou":598,"}(":599,"ice":600,"Ġad":601,"so":602,"oll":603,"Ġmod":604,"),":605,").":606,"10":607,"}^":608,"pro":609,"Ġj":610,"Ġun":611,"}_":612,"ok":613,"~\\":614,"ĠV":615,"Ġsp":616,"Ġme":617,"ĠTh":618,"sp":619,"ry":620,"Ġwill":621,"//":622,"Ġif":623,"ely":624,"row":625,"Ġone":626,"line":627,"Ġ+":628,"ĠSt":629,"pha":630,"ance":631,"over":632,"ents":633,"ome":634,"alpha":635,"Ġob":636,"amb":637,"ric":638,"In":639,"Ġcont":640,"old":641,"Ġper":642,"sum":643,"Ġqu":644,"ile":645,"pect":646,"da":647,"Ġdis":648,"ound":649,"Ġpart":650,"fere":651,"gh":652,"ose":653,"ally":654,")\\":655,"own":656,"erv":657,"ors":658,"ie":659,"rib":660,"tain":661,"wo":662,"Ġout":663,"ree":664,"ple":665,"Ġbut":666,"Ġ}":667,"ory":668,"ov":669,"ark":670,"Ġalso":671,"ambda":672,"âĢĿ":673,"ress":674,"Ġev":675,"Ġdo":676,"imes":677,"Ġ*":678,"one":679,"clud":680,"ata":681,"Ġne":682,"ates":683,"unction":684,"elta":685,"port":686,"urn":687,"we":688,"Ġtheir":689,"erm":690,"ĠĠĠĠĠĠĠĠĠĠĠ":691,"ob":692,"Ġar":693,"$\\":694,"rans":695,"Ġmore":696,"Ġsy":697,"au":698,"ject":699,"200":700,"ics":701,"ces":702,"irst":703,"Ġhis":704,"lic":705,"ption":706,"_\\":707,"ep":708,"mb":709,"ll":710,"mathbb":711,"amma":712,"Ġen":713,"Ġpre":714,"ular":715,"hat":716,"Ġour":717,"Ġ\\\\":718,"li":719,"oint":720,"ho":721,"mu":722,"Ġclass":723,"Ġset":724,"=\\":725,"}_{":726,"sub":727,"ution":728,"}^{":729,"dot":730,"ray":731,"of":732,"vers":733,"vel":734,"igma":735,"Ġtwo":736,"Ġother":737,"Ġso":738,"pon":739,"ode":740,"ove":741,"ĠĠĠĠĠ":742,"ari":743,"fin":744,"ck":745,"to":746,"Ġthey":747,"very":748,"sc":749,"ĠWe":750,"ount":751,"Ġwere":752,"-\\":753,"Ġnew":754,"Ġtime":755,"Ġits":756,"iel":757,"ne":758,"cent":759,"ollow":760,"Ġdif":761,"Ġsc":762,"ega":763,"app":764,"Ġover":765,"nder":766,"\">":767,"Ġval":768,"get":769,"ook":770,"phi":771,"raph":772,"ys":773,"ĠY":774,"ĠCh":775,"^{\\":776,"Ġmodel":777,"Ġman":778,"Ġinter":779,"Ġ[":780,"12":781,"ram":782,"Ġfunction":783,"ize":784,"lambda":785,"Ġup":786,"Ġform":787,"ield":788,"umber":789,"Ġbet":790,"Ġwork":791,"Ġthere":792,"set":793,"te":794,"ring":795,"ake":796,"vi":797,"Ġag":798,"Ġany":799,"eth":800,"stem":801,"Ġbeen":802,"wid":803,"dition":804,"lect":805,"Ġfollow":806,"Ġthan":807,"cre":808,"Ġresult":809,"ish":810,"Ġ{\\":811,"bf":812,"Ġro":813,"ĠâĢľ":814,"Ġwhere":815,"ature":816,"Ġfirst":817,"Ġsuch":818,"Ġcons":819,"Ġdes":820,"Ġsub":821,"Ġonly":822,"mathbf":823,"Ġgo":824,"ix":825,"Ġ|":826,"rit":827,"ative":828,"ype":829,"ual":830,"Ġsim":831,"Ġacc":832,"pos":833,"ays":834,"ock":835,"pi":836,"hed":837,"Ġcor":838,"ilon":839,"psilon":840,"section":841,"Ġsome":842,"Ġtra":843,"Ġwhen":844,"Ġwho":845,"ink":846,"Ġli":847,"ĠIt":848,"ced":849,"ific":850,"aram":851,"ss":852,"pec":853,"up":854,"ild":855,"lem":856,"Ġabout":857,"Ġrel":858,"ax":859,"Ġconst":860,"les":861,"part":862,"ĠThis":863,"align":864,"sigma":865,"round":866,"resent":867,"igh":868,"Ġgener":869,"Ġdist":870,"Ġreg":871,"Ġshow":872,"Ġequ":873,"ility":874,"Ġpos":875,"Ġinto":876,"oth":877,"ating":878,"We":879,"ilde":880,"18":881,"Ġthen":882,"Ġdiffere":883,"ox":884,"St":885,"Ġph":886,"iss":887,"red":888,"Ġmat":889,"Ġ(\\":890,"fter":891,"ise":892,"}{\\":893,"^{-":894,"ings":895,"Ġte":896,"Ġfl":897,"beta":898,"ict":899,"ased":900,"ans":901,"bar":902,"cess":903,"ng":904,"Ġdata":905,"ail":906,"Ġno":907,"mathrm":908,"11":909,"ween":910,"turn":911,"aw":912,"mer":913,"*}":914,"ient":915,"Ġtrans":916,"olog":917,"Ġwould":918,"ĠSe":919,"ational":920,"Ġhad":921,"ator":922,"+\\":923,"put":924,"ick":925,"Ġ'":926,"Ġco":927,"Ġthese":928,"Ġher":929,"Ġeach":930,"Ġkn":931,"ities":932,"Ġoff":933,"**":934,"Ġyear":935,"der":936,"\\\\":937,"gamma":938,"ĠRe":939,"ons":940,"ible":941,"Ġsystem":942,"ull":943,"ments":944,"Ġbetween":945,"ning":946,"ince":947,"ruct":948,"Ġunder":949,"ues":950,"sh":951,"15":952,"Ġprob":953,"Ġind":954,"Ġra":955,"Ġgiv":956,"elf":957,"]{":958,"here":959,"Ġget":960,"Ġpe":961,"Ġeff":962,"Ġcomm":963,"Ġuse":964,"tern":965,"leq":966,"ublic":967,"Ġfe":968,"its":969,"Ġprov":970,"figure":971,"ont":972,"theta":973,"^\\":974,"ident":975,"pr":976,"width":977,"Ġbl":978,"Ġfin":979,")}":980,"Ġsa":981,"Ġi":982,"rho":983,"ĠâĢĵ":984,"Th":985,"Ġpoint":986,"delta":987,"ied":988,"array":989,"Ġsol":990,"Ġx":991,"item":992,"tau":993,"ower":994,"cy":995,"nce":996,"cdot":997,"not":998,"ĠHe":999,"rough":1000,"ĠUn":1001,"val":1002,"$-":1003,"Ġsm":1004,"16":1005,"Ġcase":1006,"Ġthem":1007,"}$,":1008,"Ġline":1009,"big":1010,"tt":1011,"==":1012,"}$.":1013,"Ġstud":1014,"Ġinv":1015,"eqref":1016,"arg":1017,"Ġmay":1018,"Ġused":1019,"rt":1020,"Ġinclud":1021,"}(\\":1022,"Ġdifferent":1023,"13":1024,"ater":1025,"()":1026,"sy":1027,"ethod":1028,"Ġact":1029,"Ġappro":1030,"pend":1031,"Ġcol":1032,"Ġpol":1033,"Ġext":1034,"Ġyour":1035,"min":1036,"ĠFor":1037,"ange":1038,"ople":1039,"oy":1040,"Ġnumber":1041,"ource":1042,"let":1043,"als":1044,"times":1045,"Re":1046,"Ġloc":1047,"io":1048,"ward":1049,"roup":1050,"ause":1051,"ert":1052,"ĠDe":1053,"----":1054,"aramet":1055,"Ġmost":1056,"ized":1057,"Ġhow":1058,"14":1059,"nu":1060,"ug":1061,"ĠPro":1062,"ool":1063,"Ġcur":1064,"hes":1065,"ization":1066,"Ġusing":1067,"Ġprodu":1068,"fty":1069,"arch":1070,"Ġass":1071,"Ġam":1072,"Ġshe":1073,"ins":1074,"infty":1075,"Ġwell":1076,"omega":1077,"partial":1078,"ral":1079,"tilde":1080,"Ġsupp":1081,"pert":1082,"Ġlike":1083,"und":1084,"uss":1085,"Ġnon":1086,"ample":1087,"riv":1088,"arrow":1089,"Ġreturn":1090,"21":1091,"ider":1092,"air":1093,"ctions":1094,"ism":1095,"ĠĠĠĠĠĠĠĠĠĠĠĠĠĠĠ":1096,"Ġvari":1097,"var":1098,"vert":1099,"itt":1100,"yn":1101,"Ġafter":1102,"for":1103,"Ġsee":1104,"ner":1105,"ered":1106,"Ġsign":1107,"|\\":1108,"pm":1109,"ract":1110,"25":1111,"Ġsame":1112,"eng":1113,"cond":1114,"mm":1115,"ily":1116,"ough":1117,"col":1118,"ically":1119,"Ġ.":1120,"Ġinst":1121,"Ġpartic":1122,"ĠCom":1123,"Ġest":1124,"Ġsaid":1125,"Ġthrough":1126,"ever":1127,"abl":1128,"Ġback":1129,"->":1130,"Ġ/":1131,"ices":1132,"eqn":1133,"ote":1134,"Ġrep":1135,"uch":1136,"...":1137,"Ġent":1138,"ases":1139,"17":1140,"formation":1141,"hen":1142,"ann":1143,"Ġplay":1144,"quad":1145,"ists":1146,"ĉĉĉĉ":1147,"Ġdet":1148,"Ġneed":1149,"uring":1150,"Ġspec":1151,"reat":1152,"ks":1153,"Ġfield":1154,"ots":1155,"gy":1156,"Ġfact":1157,"par":1158,"Ġdefin":1159,"ĠX":1160,"Ġgiven":1161,"ca":1162,"ited":1163,"Delta":1164,"ute":1165,"ĠQ":1166,"Ġwhat":1167,"fl":1168,"Ġjust":1169,"sec":1170,"Ġrequ":1171,"Ġbec":1172,"Ġpeople":1173,"Ġsur":1174,"Ġterm":1175,"space":1176,"30":1177,"arge":1178,"ines":1179,"Ġdef":1180,"orld":1181,"Ġrec":1182,"Ġhigh":1183,"199":1184,"Ġem":1185,"Ġboth":1186,"orem":1187,"Ġpr":1188,"ade":1189,"serv":1190,"ctor":1191,"Ġmy":1192,"ively":1193,"Ġend":1194,"err":1195,"ash":1196,"Ġoper":1197,"Ġevery":1198,"ĠNew":1199,"ful":1200,"ivers":1201,"}[":1202,"\\,":1203,"sim":1204,"Ġ:":1205,"Ġstate":1206,"xi":1207,"ars":1208,"Ġmin":1209,"Ġdisc":1210,"Ġvalue":1211,"Ġ$(":1212,"}}\\":1213,"Ġfollowing":1214,"irc":1215,"ood":1216,"Ġz":1217,"Ġmethod":1218,"Ġdire":1219,"asure":1220,"gle":1221,"land":1222,")$.":1223,"work":1224,"oot":1225,"ential":1226,"ality":1227,"yp":1228,"ding":1229,"Ex":1230,"Ġorder":1231,"ability":1232,"Ġexp":1233,"ĠAl":1234,"Ġcould":1235,"Ġeffect":1236,"Ġnow":1237,"Ġresults":1238,"Ġtr":1239,"atic":1240,"ton":1241,"Ġperform":1242,"Ġparamet":1243,"ĠZ":1244,".,":1245,"Ġanal":1246,"where":1247,"Ġbu":1248,"))":1249,"fore":1250,"Ġobtain":1251,"view":1252,"center":1253,"ron":1254,"oun":1255,"Ġac":1256,"Ġed":1257,"Ġ//":1258,"Ġcall":1259,"hi":1260,"ĠAs":1261,"includ":1262,"Ġdec":1263,"oci":1264,"rent":1265,"rix":1266,"$$":1267,"epsilon":1268,"uth":1269,"ined":1270,"}_{\\":1271,"2020":1272,"sq":1273,"Ġpublic":1274,"ond":1275,"Ġsmall":1276,"Ġke":1277,"\",":1278,"50":1279,"Om":1280,"ern":1281,"Ġbound":1282,"ER":1283,"ec":1284,"ement":1285,"psi":1286,"../":1287,"Con":1288,"ages":1289,"ross":1290,"Pro":1291,"ining":1292,"ension":1293,"Ġwhile":1294,"amp":1295,"Ġshould":1296,"Ġeven":1297,"Ġstr":1298,"22":1299,"Ġright":1300,"Ġbel":1301,"ĠFig":1302,"log":1303,"att":1304,"respon":1305,"Omega":1306,"wn":1307,"eqnarray":1308,"Ġmany":1309,"Ġdoes":1310,"Ġatt":1311,"::":1312,"Ġfind":1313,"Ġvery":1314,"mbol":1315,"led":1316,"Ġagain":1317,"Ġexpl":1318,"ency":1319,"000":1320,"Ġfil":1321,"Ġthree":1322,"Ġ</":1323,"angle":1324,"Ġprocess":1325,"Ġbecause":1326,"any":1327,"textbf":1328,")$,":1329,"ĠčĊ":1330,"Ġexper":1331,"velop":1332,"Ġknow":1333,"read":1334,"vent":1335,"ason":1336,"Ġele":1337,"energy":1338,"For":1339,"ript":1340,"Ġdesc":1341,"^*":1342,"This":1343,"Ġlead":1344,"Ġproblem":1345,"Ġlong":1346,"ology":1347,"Ġ@":1348,"ren":1349,"man":1350,"ision":1351,"Ġcent":1352,"24":1353,"aking":1354,"me":1355,"sqrt":1356,"Ġmeasure":1357,"Ġhim":1358,"oid":1359,"Ġbeing":1360,"ting":1361,"ructure":1362,"Ġsecond":1363,"ets":1364,"It":1365,"://":1366,"rel":1367,"Ġdistrib":1368,"raphics":1369,"Ġcondition":1370,"Ġfound":1371,"Ġsing":1372,"ulation":1373,"Ġyears":1374,"bm":1375,"Ġmass":1376,"etwork":1377,"subsection":1378,"ife":1379,"Ġopt":1380,"ames":1381,"Ġcre":1382,"ml":1383,"chn":1384,"Ġrespect":1385,"vare":1386,"Ġincre":1387,"ĠAn":1388,"Ġstart":1389,"fra":1390,"Gamma":1391,"pen":1392,"ik":1393,"Ġway":1394,"ene":1395,"Ġtest":1396,"ants":1397,"varepsilon":1398,"',":1399,"ilar":1400,"ness":1401,"def":1402,"Ġspace":1403,"ithm":1404,"Ġmon":1405,"ier":1406,"ST":1407,"Ġobserv":1408,"^{(":1409,"Ġchar":1410,"bold":1411,"Ġadd":1412,"Ġmult":1413,"Ġser":1414,"}^{\\":1415,"day":1416,"co":1417,"Ġ`":1418,"ared":1419,"Ġserv":1420,"ural":1421,"be":1422,"Ġpresent":1423,"gan":1424,"cept":1425,"bl":1426,"Ġmake":1427,"âĢľ":1428,"meric":1429,"Ġposs":1430,"ffic":1431,"IN":1432,"includeg":1433,"includegraphics":1434,"caption":1435,"Ġdi":1436,"ten":1437,"cm":1438,"Ġcontin":1439,"erson":1440,"etric":1441,"ired":1442,"ateg":1443,"}=":1444,"inal":1445,"other":1446,"ĠCon":1447,"mod":1448,"essage":1449,"Ġmem":1450,"Ġsince":1451,"ather":1452,"iew":1453,"Ġ${\\":1454,"ĠSh":1455,"ee":1456,"atch":1457,"Ġassum":1458,"Ġreal":1459,"Ġsupport":1460,"Ġthose":1461,"ole":1462,"Ġcomple":1463,"raw":1464,"els":1465,"itive":1466,"Ġinformation":1467,"rightarrow":1468,"rad":1469,"ience":1470,"ved":1471,"tab":1472,"yle":1473,"ified":1474,"Ġlim":1475,"Ġrepresent":1476,"iqu":1477,"ww":1478,"23":1479,"ah":1480,"Ġconsider":1481,")=":1482,"Ġname":1483,"chool":1484,"umn":1485,"Ġenergy":1486,"gor":1487,"ĠĠĊ":1488,"lear":1489,"Ġ\\,":1490,".âĢĿ":1491,"rangle":1492,"lo":1493,"Ġhand":1494,"ank":1495,"name":1496,"div":1497,"ven":1498,"rum":1499,"ON":1500,"uc":1501,"ght":1502,"rid":1503,"way":1504,"Ġart":1505,"Ġtype":1506,"Ġgu":1507,"ĠIf":1508,"utions":1509,"Ġcorrespon":1510,"by":1511,"Ġve":1512,"Ġcount":1513,"âĢĵ":1514,"Ġhere":1515,"alth":1516,"ensure":1517,"fer":1518,"ished":1519,"ĠCl":1520,"Ġbefore":1521,"Ġread":1522,"Ġestim":1523,"ĠHow":1524,"geq":1525,"ger":1526,"ift":1527,"Ġscal":1528,"Ġden":1529,"less":1530,"gorithm":1531,"Ġlarge":1532,"varphi":1533,"ify":1534,"emph":1535,"ott":1536,"Ġhel":1537,"Ġfam":1538,"med":1539,"olution":1540,"net":1541,"tr":1542,"ane":1543,"iversity":1544,"Ġmuch":1545,"vious":1546,"gram":1547,"oh":1548,"AT":1549,"(\"":1550,"Ġlook":1551,"Ġtop":1552,".~\\":1553,"Ġel":1554,"Ġlast":1555,"umer":1556,"ission":1557,"Ġdid":1558,"'t":1559,"ĠSc":1560,"symbol":1561,"Ġgeneral":1562,"Ġdevelop":1563,"ĠEx":1564,"non":1565,"ually":1566,"Ġgroup":1567,"Ġmade":1568,"Ġfeature":1569,"span":1570,"proof":1571,".}":1572,"ves":1573,"Ġmed":1574,"40":1575,"az":1576,"As":1577,"Ch":1578,"Ġlet":1579,"Big":1580,"Ġmain":1581,"ength":1582,"overline":1583,"Ġcal":1584,"Ġgl":1585,"ĉĉĉ":1586,"urther":1587,"AR":1588,"Ġrem":1589,"son":1590,"Ġpa":1591,"orn":1592,"ĠAnd":1593,"dd":1594,"position":1595,"rict":1596,"Ġident":1597,"&\\":1598,"Ġabove":1599,"();":1600,"Ġsl":1601,"Ġear":1602,"Ġav":1603,"Ġduring":1604,"orth":1605,"Ġ#":1606,"ĠInd":1607,"Ġlocal":1608,"ampl":1609,"boldsymbol":1610,"Com":1611,"ĠLe":1612,"Ġ,":1613,"erest":1614,"Ġimport":1615,"rop":1616,"ior":1617,"rodu":1618,"Ġprovid":1619,"100":1620,"Ġdown":1621,"cer":1622,"Ġallow":1623,"heck":1624,"ration":1625,"rol":1626,"pre":1627,"Ġinteg":1628,"Ġvalues":1629,"Ġstand":1630,"Ġ>":1631,"ormal":1632,"ale":1633,"''":1634,"},\\":1635,"Ġgood":1636,"Ġrad":1637,"ĠĠĠĠĠĠĠĠĠ":1638,"Ġlevel":1639,")^":1640,"Ġsat":1641,"su":1642,"Ġmag":1643,"Ġpropert":1644,"frak":1645,"Ġexpect":1646,"ital":1647,"oss":1648,"aj":1649,"Ġrun":1650,"ĠAmeric":1651,"2019":1652,"chi":1653,"ives":1654,"bers":1655,"></":1656,"iness":1657,"ID":1658,"ask":1659,"Ġelect":1660,"Ġlear":1661,"Ġstat":1662,"ouse":1663,"ser":1664,"cur":1665,"2018":1666,"Ġnetwork":1667,"Ġca":1668,"Ġcontain":1669,"vec":1670,"Ġbased":1671,"Ġstructure":1672,"Ġpres":1673,"Ġspect":1674,"[\\":1675,"Ġtem":1676,"hline":1677,"Ġcurrent":1678,"Ġworld":1679,"27":1680,"198":1681,"Ġstill":1682,"ected":1683,"}).":1684,"ek":1685,"Ġtake":1686,"gg":1687,"Ġerr":1688,"Ġrest":1689,"><":1690,"Ġpower":1691,"2017":1692,"acter":1693,"ensity":1694,"60":1695,"back":1696,"ters":1697,"ody":1698,"Ġcomput":1699,"RE":1700,"Ġcar":1701,"Ġdescrib":1702,"overn":1703,"}}$":1704,"Ġshown":1705,"etail":1706,"Ġquant":1707,"arm":1708,"Ġcommun":1709,"28":1710,"refore":1711,"Ġdepend":1712,"imension":1713,"akes":1714,"sk":1715,"To":1716,"wh":1717,"face":1718,"itial":1719,"Ġreport":1720,"Ġhelp":1721,"mathfrak":1722,"ense":1723,"mber":1724,"Ġvis":1725,"Ġaround":1726,"Let":1727,"De":1728,"Ġsimilar":1729,"../../":1730,"imal":1731,"lim":1732,"ĠRes":1733,"Ġself":1734,"Ġobject":1735,"Ġmodels":1736,"hip":1737,"Ġfollows":1738,"come":1739,"Ġexample":1740,"ero":1741,"new":1742,"Ġpat":1743,"langle":1744,"Ġtechn":1745,"htt":1746,"ysis":1747,"requ":1748,"Ġredu":1749,"anc":1750,"ij":1751,"Ġparticular":1752,"ldots":1753,"play":1754,"depend":1755,"see":1756,"Ġrele":1757,"no":1758,"Ġown":1759,"):":1760,"ges":1761,"Ġaddition":1762,"Ġmust":1763,"cor":1764,"SS":1765,"26":1766,"Ġdirect":1767,"Ġopen":1768,"trans":1769,"ĠTo":1770,"ators":1771,"Ġbeh":1772,"âĢ¦":1773,"alk":1774,"ule":1775,"Ġbest":1776,"ately":1777,"ection":1778,"2016":1779,"Ġmark":1780,"ery":1781,"Ġdefined":1782,"cul":1783,"sf":1784,"Ġins":1785,"rem":1786,"Ġlist":1787,"lection":1788,"Lambda":1789,"ification":1790,"Ġsum":1791,"usiness":1792,"--------":1793,"Ġ--":1794,"ious":1795,"Ġwrit":1796,"ccess":1797,"ures":1798,"Ġinterest":1799,"ĠYou":1800,"Ġdesign":1801,"Ġstudy":1802,"ival":1803,"appa":1804,"xim":1805,"arget":1806,"this":1807,"comm":1808,"reen":1809,"citep":1810,"33":1811,"Ġdue":1812,"Ġdiscuss":1813,"Ġlow":1814,"html":1815,"Ġrespon":1816,"29":1817,"Ġ||":1818,"Ġleft":1819,"eps":1820,"ĠAd":1821,"Ġfour":1822,"Ġteam":1823,"ument":1824,"Ġ_":1825,"Ġincluding":1826,"Ġwant":1827,"isf":1828,"Phi":1829,"bs":1830,"ynam":1831,"Ġthink":1832,"Ġbas":1833,"Ġorig":1834,"pd":1835,"nabl":1836,"ble":1837,"Ġcho":1838,"Ġet":1839,"otential":1840,"Ġdeterm":1841,"action":1842,"};":1843,"ĠPl":1844,"Ġwithin":1845,"table":1846,"bra":1847,"ised":1848,"ived":1849,"plic":1850,"ream":1851,"====":1852,"Ġterms":1853,"orph":1854,"Ġdistribution":1855,"aces":1856,"Ġtri":1857,"ĠIs":1858,"Ġwithout":1859,"Ġsize":1860,"45":1861,"ĠĠĠĠĠĠĠĠĠĠĠĠĠĠĠĠĠĠĠĠĠĠĠĠĠĠĠĠĠĠĠĠ":1862,"ording":1863,",âĢĿ":1864,"Ġ*/":1865,"Ġimp":1866,"OR":1867,"2015":1868,"Ġsection":1869,"Ġpred":1870,"ety":1871,"ead":1872,"ination":1873,"box":1874,"By":1875,"kappa":1876,"ym":1877,"Ġpop":1878,"Ġdon":1879,"Ġshows":1880,"dis":1881,"Ġsingle":1882,"textit":1883,"inc":1884,"ĠâĢĺ":1885,"mult":1886,"ĠPh":1887,"str":1888,"\\|":1889,"Ġmean":1890,"ients":1891,"Ġpost":1892,"with":1893,"ĠUniversity":1894,"Ġhref":1895,"Ġdom":1896,"ories":1897,"otimes":1898,"Ġprof":1899,"Ġsay":1900,"rack":1901,"ĠCol":1902,"ivity":1903,"ĠOn":1904,"plit":1905,"ensuremath":1906,"AN":1907,"hem":1908,"Ġpass":1909,"outh":1910,"oper":1911,"ords":1912,"Ġalgorithm":1913,"ĠHowever":1914,"})$":1915,"ember":1916,".\"":1917,"nabla":1918,"Ġtot":1919,"\\%":1920,"Ġgra":1921,"Res":1922,"subset":1923,"Ġhig":1924,"Ġdem":1925,"ĠAr":1926,"Ġpossible":1927,"Ġnext":1928,"nces":1929,"****":1930,"istic":1931,"ĠThen":1932,"etry":1933,"ional":1934,"rand":1935,"self":1936,"ĠBut":1937,"ina":1938,"omen":1939,"ds":1940,"aps":1941,"Ġrema":1942,"ĠSp":1943,"source":1944,"Ġpoints":1945,"sm":1946,"Ġhold":1947,"mbox":1948,"Ġmax":1949,"Ġtrue":1950,"alse":1951,"version":1952,"ference":1953,"Ġ)":1954,"Ġconf":1955,".\\":1956,"Ġinvest":1957,"Ġproduct":1958,"por":1959,"ĠWh":1960,"iod":1961,"99":1962,"Ġsom":1963,"2014":1964,"code":1965,"circ":1966,"Ġclos":1967,"Ġagainst":1968,"AL":1969,"35":1970,"Ġder":1971,"ivid":1972,"Ġsatisf":1973,"EN":1974,"reg":1975,"ault":1976,"Ġprogram":1977,"75":1978,"Ġperson":1979,"aving":1980,"ĠAll":1981,"lation":1982,"ris":1983,"2021":1984,"Sigma":1985,"Ġcharacter":1986,"org":1987,"Ġparameters":1988,"Ġref":1989,"Ġstrong":1990,"32":1991,"nonumber":1992,"ression":1993,"ĠĠĠĠĠĠĠĠĠĠĠĠĠĠĠĠĠĠĠ":1994,"Ġbuild":1995,"ailable":1996,"Ġpotential":1997,"Ġgame":1998,"Ġsuper":1999,"Ġlarg":2000,"Ġknown":2001,"ĠBl":2002,"arent":2003,"ixed":2004,"ways":2005,"ploy":2006,"ley":2007,"Ġalong":2008,"ention":2009,"posed":2010,"}),":2011,"uthor":2012,"iment":2013,"cont":2014,"('":2015,"ĠBe":2016,"\\[":2017,"Ġrece":2018,"Ġpar":2019,"ially":2020,"}}{":2021,"class":2022,"ĠTe":2023,"Ġspe":2024,"Ġocc":2025,"ĠâĢĶ":2026,"td":2027,"Ġinitial":2028,"widet":2029,"Ġsolution":2030,"Ġexist":2031,"Ġbre":2032,"Ġdel":2033,"loc":2034,"ground":2035,"cit":2036,"dots":2037,"If":2038,"Ġcompon":2039,"obal":2040,"Type":2041,"itle":2042,"2013":2043,"Ġimportant":2044,"message":2045,"Ġgraph":2046,"Name":2047,"imum":2048,"aim":2049,"usic":2050,"atter":2051,"Ġproject":2052,"70":2053,"Ġnear":2054,"Ġlife":2055,"Ġintrodu":2056,"Ġcour":2057,"Ġcontinu":2058,"Ġassoci":2059,"stand":2060,"icle":2061,"80":2062,"Ġcou":2063,"script":2064,"Ġpaper":2065,"verse":2066,"Ġeas":2067,"widetilde":2068,"Ġmov":2069,"Ġcalled":2070,"Ġobtained":2071,"Ġhist":2072,"Ġlaw":2073,"ĠLet":2074,"Ġtyp":2075,"Ġmatrix":2076,"Ġcomb":2077,"une":2078,"Ġdetail":2079,"Ġfew":2080,"ium":2081,"Ġfinal":2082,"Id":2083,"bit":2084,"ux":2085,"ohn":2086,"iron":2087,"Ġchild":2088,"Ġpredict":2089,"ĠShe":2090,"Ġadv":2091,"ĠJan":2092,"ither":2093,"Ġplace":2094,"Ġsequ":2095,"ury":2096,"ique":2097,"Ġprot":2098,"Ġday":2099,"Fig":2100,"Ġmom":2101,"Ġview":2102,"ober":2103,"Ġanother":2104,"wide":2105,"AS":2106,"eb":2107,"Ġprevious":2108,"use":2109,"centering":2110,"ries":2111,"ms":2112,"ĠMar":2113,"ii":2114,"odes":2115,"ĠComm":2116,"{-":2117,"Ġstates":2118,"Ġlimit":2119,"duct":2120,"ĠThey":2121,"Ġdeg":2122,"ables":2123,"Ġimpro":2124,"LE":2125,"Ġbo":2126,"ĠMay":2127,"Ġcontrib":2128,"ering":2129,"oad":2130,"Al":2131,"Ġanalysis":2132,"Ġrese":2133,"ances":2134,"dependent":2135,"/\\":2136,"Ġphot":2137,"Cl":2138,"90":2139,"2012":2140,"Ġturn":2141,"Ġfull":2142,"Ġide":2143,"ources":2144,"draw":2145,"roll":2146,"cap":2147,"ĠĠĠĠĠĠ":2148,"Ġchang":2149,"Ġhead":2150,"Ġfamily":2151,"Ġtotal":2152,"clus":2153,"Ġcap":2154,"Ġapproach":2155,"uro":2156,"Ġapplic":2157,"Ġchange":2158,"Ġdensity":2159,"Ġfree":2160,"Ġ``":2161,"ler":2162,"Ġsignific":2163,"Ġless":2164,"import":2165,"urb":2166,"An":2167,"Ġarg":2168,"max":2169,"Ġbook":2170,"color":2171,"andom":2172,"Ġlight":2173,"time":2174,"Ġaut":2175,"Ġperformance":2176,"veral":2177,"Ġbetter":2178,"Ġfunctions":2179,"Ġapproxim":2180,"Ġlink":2181,"ird":2182,"Ġposition":2183,"Ġvert":2184,"Ġcomplex":2185,"atrix":2186,"Ã©":2187,"Ġaff":2188,"ocus":2189,"const":2190,"rist":2191,"Ġq":2192,"ception":2193,"ences":2194,"Ġcrit":2195,"Ġrate":2196,"ison":2197,"Ġpur":2198,"ubl":2199,"amples":2200,"add":2201,"Ġgrow":2202,"64":2203,"ends":2204,"ball":2205,"fe":2206,"Ġaver":2207,"Ġtimes":2208,"Ġmet":2209,"ĠSu":2210,"Ġgreat":2211,"Ġstandard":2212,"Ġbro":2213,"ope":2214,"tabular":2215,"Ġplan":2216,"illion":2217,"Ġsk":2218,")(":2219,"Ġequation":2220,"Ġconstant":2221,"Ġevent":2222,"type":2223,"Ġ=>":2224,"}-":2225,"inter":2226,"top":2227,"Ps":2228,"Ġlinear":2229,"oor":2230,"Ġquest":2231,"Ġleast":2232,"Ġavailable":2233,"overnment":2234,"ocial":2235,"ude":2236,"Ġtheory":2237,"pper":2238,"ĠEng":2239,"Ġcorresponding":2240,"Ġcontrol":2241,"AC":2242,"\\!":2243,"Ġfurther":2244,"ĠAt":2245,"order":2246,"Ġpriv":2247,"IC":2248,"sl":2249,"idd":2250,"Ġmap":2251,"Ġappear":2252,"Ġ($":2253,"Ġrange":2254,"05":2255,"Ġrespectively":2256,"Ġhum":2257,"opt":2258,"iter":2259,"ĠBy":2260,"Ġdat":2261,"String":2262,"rite":2263,"Ġrecent":2264,"ling":2265,"Ġcases":2266,"ts":2267,"perature":2268,"ograph":2269,"Ġtoo":2270,"ĠCar":2271,"Ġpath":2272,"style":2273,"01":2274,"Ġseries":2275,"\\]":2276,"ruction":2277,"Ġann":2278,"ajor":2279,"Ġschool":2280,"Ġparameter":2281,"ights":2282,"ĠTheorem":2283,"Ġseveral":2284,"Ġsystems":2285,"ĠUS":2286,"ush":2287,"\\{":2288,"Ġorgan":2289,"Ġindic":2290,"ĠThere":2291,"2010":2292,"sequ":2293,"Ġcalcul":2294,"2011":2295,"fo":2296,"rr":2297,"Ġopp":2298,"Ġphase":2299,"enn":2300,"Ġphys":2301,"ably":2302,"Ġsays":2303,"ged":2304,"iple":2305,"zeta":2306,"Ġclear":2307,"ended":2308,"34":2309,"Ġhome":2310,"Ġaction":2311,"ĠApp":2312,"ware":2313,"Ġfram":2314,"head":2315,"Ġprovide":2316,"Ġsignificant":2317,"Ġvar":2318,"}+":2319,"ĠCent":2320,"Ġproof":2321,"Ġperiod":2322,"wards":2323,"ĠCO":2324,"Ġbusiness":2325,"Ġpair":2326,"__":2327,"aster":2328,"emma":2329,"ological":2330,"On":2331,"IT":2332,"wit":2333,")=\\":2334,"ĠEq":2335,"ey":2336,"thm":2337,"empt":2338,"prime":2339,"uation":2340,"esc":2341,"Ġmot":2342,"nal":2343,"Ġregion":2344,"}]":2345,"ĠMan":2346,"viron":2347,"scal":2348,"Ġvol":2349,"osp":2350,")}\\":2351,"asing":2352,"uture":2353,"36":2354,"Ġgoing":2355,"off":2356,"Ġcare":2357,"/>":2358,"ising":2359,"ches":2360,"Ġhy":2361,"Ġrandom":2362,"Ġsit":2363,"ription":2364,"Ġtarget":2365,"31":2366,"ĠCan":2367,"Ġhigher":2368,"ertain":2369,"icy":2370,"angu":2371,"Ġimage":2372,"ĠAmerican":2373,"}=\\":2374,"Ġlower":2375,"Ġalways":2376,"Ġconditions":2377,"Ġkey":2378,"ored":2379,"exp":2380,"Ġerror":2381,"Ġcost":2382,"Ġ&=":2383,"##":2384,"Ġhapp":2385,"{(":2386,";\\":2387,"ready":2388,"ty":2389,"ched":2390,"Ġlay":2391,"Ġlog":2392,"AM":2393,"Ġmight":2394,"Ġiss":2395,"param":2396,"Ġtraining":2397,"SE":2398,"ats":2399,"urs":2400,"ought":2401,"Ġside":2402,"48":2403,"Ġhal":2404,"ittle":2405,"opy":2406,"Ġhard":2407,"Un":2408,"ĠSection":2409,"Ġunt":2410,"ĠOr":2411,"ternal":2412,"ape":2413,"ai":2414,"Ġleg":2415,"Ġinput":2416,"List":2417,"Ġcell":2418,"Ġpositive":2419,"Ġarea":2420,"node":2421,"38":2422,"Ġmonth":2423,"}_\\":2424,"Ġsuccess":2425,"ides":2426,"field":2427,"âĢĶ":2428,"ĠSo":2429,"key":2430,"uary":2431,"br":2432,"ĠSy":2433,"return":2434,"Ġmeans":2435,"Ġgive":2436,")^{":2437,"Ġvector":2438,"Ġlater":2439,"Ġreally":2440,"Ġshort":2441,"Ġold":2442,"iving":2443,"II":2444,"Ġmethods":2445,"mp":2446,"chie":2447,"ems":2448,"inary":2449,"rap":2450,"lected":2451,"$)":2452,"Ġcoll":2453,"DE":2454,"Ġdiff":2455,"enc":2456,"Ġsymm":2457,"omorph":2458,"eter":2459,"Ġseen":2460,"Ġabs":2461,"}^\\":2462,"side":2463,"Ġbelow":2464,"fficient":2465,"itor":2466,"Ġsource":2467,"ache":2468,"Ġfinite":2469,"Ġfeatures":2470,"Ġdynam":2471,"ĠThese":2472,"ideo":2473,"based":2474,"Ġtemperature":2475,"ustom":2476,"textwidth":2477,"ĠÂ":2478,"Ġcomplet":2479,"utes":2480,"uration":2481,"ister":2482,"go":2483,"Ġlik":2484,"aut":2485,"ĠJohn":2486,"~~":2487,"Ġdiag":2488,"Ġstring":2489,"197":2490,"idence":2491,"Ġcirc":2492,"Ġhealth":2493,"under":2494,"now":2495,"Ġconn":2496,")]":2497,"Ġconsid":2498,"ĠUnited":2499,"ev":2500,"Ġneg":2501,"Ġband":2502,"Ar":2503,"}|":2504,"cdots":2505,"Sh":2506,"Ġinclude":2507,"erial":2508,"\"/>":2509,"lying":2510,"Val":2511,"65":2512,"ferences":2513,"Ġmoment":2514,"Ġblock":2515,"Ġinvol":2516,"most":2517,"Ġelse":2518,"Ġ!":2519,"Ġput":2520,"Ġcorre":2521,"37":2522,"foot":2523,"Ġred":2524,"ĠPol":2525,"gin":2526,"hold":2527,"Ġaccount":2528,"onal":2529,"Ġbig":2530,"39":2531,"He":2532,"ividual":2533,"Ġdev":2534,"Ġnull":2535,"ĠCo":2536,"Ġnode":2537,"Ġnormal":2538,"ĠGe":2539,"Ġfrequ":2540,"Ġmanag":2541,"ibility":2542,"Ġcy":2543,"uck":2544,"Ġalready":2545,"ĠNo":2546,"value":2547,"roups":2548,"ours":2549,"ules":2550,"alax":2551,"Ġfocus":2552,"')":2553,"Ġstre":2554,"conom":2555,"tack":2556,"ĠOct":2557,"gl":2558,"Ġaccess":2559,"}}(":2560,"ians":2561,"lemma":2562,"Ġacross":2563,"Ġweek":2564,"Ġeither":2565,"ius":2566,"size":2567,"translation":2568,"2009":2569,"cos":2570,"Ġ\\{":2571,"ĠWith":2572,"mathsf":2573,"CO":2574,"Ġrelations":2575,"widehat":2576,"55":2577,"ĠMed":2578,"Ġaverage":2579,"Ġenc":2580,"rary":2581,"Ġeng":2582,"Ġant":2583,"Ġfund":2584,"Ġcross":2585,"Ġwid":2586,"acy":2587,"netic":2588,"Ġhom":2589,"Ġbi":2590,"Ġloss":2591,"iver":2592,"af":2593,"})\\":2594,"ĠMore":2595,"plement":2596,",-":2597,"qquad":2598,"Ġlength":2599,"ney":2600,"Ġge":2601,"Ġnever":2602,"though":2603,"Ġrequire":2604,"Ġcover":2605,"ĠĠĠĠĠĠĠĠĠĠĠĠĠ":2606,"44":2607,"sw":2608,"Ġthus":2609,"Ġbehav":2610,"Ġwon":2611,"Ġproperties":2612,"ĠAug":2613,"Ġconsist":2614,"Ġcompany":2615,"pped":2616,"Ġpract":2617,"www":2618,"Ġcheck":2619,"which":2620,"uff":2621,"How":2622,"Int":2623,"Ġassociated":2624,"Ġdefine":2625,"ĠFigure":2626,"08":2627,"Ġmove":2628,"vironment":2629,"Ġsepar":2630,"wise":2631,"Ġuntil":2632,"Ob":2633,"lement":2634,"Ġspecial":2635,"pdf":2636,"Ġeval":2637,"Ġbelie":2638,"iles":2639,"Ġfalse":2640,"Ġlearning":2641,"ES":2642,"stit":2643,".~":2644,"Ġmajor":2645,"atural":2646,"Ġcome":2647,"Ġobserved":2648,"point":2649,"Ġdescribed":2650,"Ġresearch":2651,"Ġseason":2652,"imensional":2653,"ving":2654,"ĠCount":2655,"Ġmulti":2656,"AP":2657,"comp":2658,"Ġzero":2659,"Ġachie":2660,"Ġconstra":2661,"ament":2662,"}^{(":2663,"Ġtext":2664,"Ġtry":2665,"aken":2666,"Ġsimple":2667,"Ġfar":2668,"Ġfac":2669,"2008":2670,"uild":2671,"ED":2672,"gebra":2673,"Ġtre":2674,"thing":2675,"Ġla":2676,"Ġproposed":2677,"Ġconsidered":2678,"Ġtoget":2679,"Ġtogether":2680,"Ġvia":2681,"Ġable":2682,"&=":2683,"Ġexpected":2684,"ĠFran":2685,"Ġlines":2686,"iam":2687,"ĠNational":2688,"Ġoffic":2689,"],":2690,"Ġes":2691,"ransp":2692,"tact":2693,"iance":2694,"Ġcompar":2695,"Ġstar":2696,"Ġfilm":2697,"ently":2698,"data":2699,"rior":2700,"ulations":2701,"Ġsugg":2702,"66":2703,"Ġsuggest":2704,"IS":2705,"Ġ==":2706,"Ġfactor":2707,"roid":2708,"bo":2709,"Ġenough":2710,"ĠCor":2711,"95":2712,"chan":2713,"^+":2714,"Ġindependent":2715,"Ġexists":2716,"Psi":2717,"inally":2718,"Ġexact":2719,"Col":2720,"Ġblack":2721,"function":2722,"}\\,":2723,"Ġ$(\\":2724,"ĠJanuary":2725,"sing":2726,"{{\\":2727,"04":2728,"cup":2729,"ilities":2730,"ows":2731,"ordin":2732,"Ġsem":2733,"Ġamong":2734,"ront":2735,"rim":2736,"Ġprobability":2737,"Ġclaim":2738,"Ġindividual":2739,"ef":2740,"Ġanaly":2741,"xspace":2742,"iff":2743,"}\\\\":2744,"ĠGu":2745,"ino":2746,"ĠApr":2747,"ĠJu":2748,"07":2749,"Ġunderstand":2750,"ething":2751,"Ġprom":2752,"Ġhtt":2753,"string":2754,"Ġemploy":2755,"Ġemb":2756,"ocument":2757,"Ġfuture":2758,"down":2759,"ula":2760,"rs":2761,"Ġearly":2762,"Ġreason":2763,"Ġversion":2764,"cle":2765,"ĠAust":2766,"Ġwin":2767,"Ġmusic":2768,"ĠLemma":2769,"small":2770,"appro":2771,"Ġestabl":2772,"Ġelement":2773,"Ġdefinition":2774,"Ġcoupl":2775,"ĠFl":2776,"09":2777,"Sc":2778,"Ġclust":2779,"Ġoften":2780,"annel":2781,"icro":2782,"place":2783,"earch":2784,"Ġoriginal":2785,"ĠWorld":2786,"ume":2787,"Ġfore":2788,"https":2789,"Ġcommon":2790,"Ġquantum":2791,"Ġcertain":2792,"anguage":2793,"rag":2794,"Ġproperty":2795,"Ġfixed":2796,"ressed":2797,"Ġsequence":2798,"Ġstep":2799,"prop":2800,"ĠArt":2801,"Ġland":2802,"Ġwar":2803,"ĠThat":2804,"Ġprivate":2805,"06":2806,"Ġreview":2807,"Ġdistance":2808,"ales":2809,"Ġequival":2810,"Ġclose":2811,"ĠOne":2812,"Ġservice":2813,"Ġassume":2814,"Ġbecome":2815,"uted":2816,"ĠSince":2817,"igen":2818,"02":2819,"Ġ&&":2820,"Ġgovernment":2821,"Ġexperiment":2822,"Ġkeep":2823,"Ġhaving":2824,"CT":2825,"citet":2826,"Ġpolit":2827,"Ġscale":2828,"defin":2829,"irt":2830,"Ġimpl":2831,"Ġinvestig":2832,"ĠMe":2833,"urope":2834,"Ġsens":2835,"Ġ&\\":2836,"Ġdays":2837,"ĠMarch":2838,"skip":2839,"].":2840,"Ġlittle":2841,"ung":2842,"Ġwater":2843,"uk":2844,"Ġupd":2845,"ĠMin":2846,"Ġcontent":2847,"Ġdou":2848,"sin":2849,"Ġsurface":2850,"Ġid":2851,"cell":2852,"Ġinfl":2853,"Ġgot":2854,"Set":2855,"mid":2856,"49":2857,"ilt":2858,"ava":2859,"ĠEn":2860,"Ġrecord":2861,"ĠYork":2862,"Ind":2863,"ending":2864,"ĠWhen":2865,"tra":2866,"\"><":2867,"Ġvarious":2868,"]$":2869,"Ġvoid":2870,"itting":2871,"otes":2872,"Se":2873,"ony":2874,"2007":2875,"scale":2876,"Ġnumer":2877,"03":2878,"cember":2879,"ones":2880,"ster":2881,"Ġdatas":2882,"ovember":2883,"izing":2884,"Ġwhether":2885,"Ġoperator":2886,"ĠĠĠĠĊ":2887,"eting":2888,"Ġelements":2889,"Ġrelated":2890,"abor":2891,"}:":2892,"Ġauthor":2893,"ĠSchool":2894,"}}{\\":2895,"ĉĊ":2896,"Ġglobal":2897,"Ġep":2898,"RO":2899,"Ġsample":2900,"ĠChrist":2901,"call":2902,"Ġhuman":2903,"ptember":2904,"}+\\":2905,"Ġmaking":2906,"Ġgalax":2907,"ze":2908,"Ġstory":2909,"mark":2910,"Ġmembers":2911,"ortun":2912,"Ġtransition":2913,"Ġill":2914,"Ġcommunity":2915,"comes":2916,"47":2917,"LL":2918,"oman":2919,"Ġaway":2920,"Ġpay":2921,"Ġrequired":2922,"Ġfail":2923,"ĠAss":2924,"Ġprop":2925,"book":2926,"Ġnecess":2927,"ariant":2928,"Ġcorrel":2929,"Ġhowever":2930,"Ġask":2931,"Ġcode":2932,"apt":2933,"Ġrat":2934,"astic":2935,")-":2936,"ump":2937,"Ġdone":2938,"Ġsomething":2939,",\"":2940,"map":2941,"Ġtaken":2942,"Ġsocial":2943,"Ġaccording":2944,"iven":2945,"itted":2946,"load":2947,"ĠCal":2948,"With":2949,"Ġthings":2950,"Ġlabel":2951,"Ġgr":2952,"equiv":2953,"Ġrole":2954,"isk":2955,"used":2956,"operator":2957,"Ġlearn":2958,"Ġwind":2959,"68":2960,"star":2961,"neq":2962,"medi":2963,"Ġevents":2964,"ĠStates":2965,"cast":2966,"Ġspin":2967,"ottom":2968,"ighb":2969,"ults":2970,"racy":2971,"lex":2972,"|^":2973,"ards":2974,"hspace":2975,"ĠJune":2976,"Ġedge":2977,"Ġgives":2978,"Ġcountry":2979,"px":2980,"Ġimplement":2981,"ĠFeb":2982,"fill":2983,"Ġconstruct":2984,"pping":2985,"Ġ%":2986,"Wh":2987,"ĠPart":2988,"Ph":2989,"footnot":2990,"ĠAb":2991,"lied":2992,"indent":2993,"http":2994,"iol":2995,"aint":2996,"Mod":2997,"acc":2998,"icol":2999,"ogn":3000,"ait":3001,"och":3002,"ĠState":3003,"Ġlarger":3004,"more":3005,"Ġbackground":3006,"ried":3007,"mary":3008,"ĠSouth":3009,"Ġregular":3010,"Data":3011,"}-\\":3012,"gen":3013,"dt":3014,"Ġdenote":3015,"ili":3016,"Ġuser":3017,"'$":3018,"Ġdomain":3019,"Ġinf":3020,"Ġcontext":3021,"Ġground":3022,"ĠJuly":3023,"Ġsolutions":3024,"67":3025,"ĠTra":3026,"orts":3027,"Ġmaterial":3028,"Ġstrateg":3029,"Ġconc":3030,"ĠRep":3031,"aff":3032,"And":3033,"ĠCity":3034,"wed":3035,"({\\":3036,"cing":3037,"Ġtreat":3038,"Ġthird":3039,"eloc":3040,"Ġfoot":3041,"($":3042,"Ġcannot":3043,"scr":3044,"Ġeffic":3045,"Ġthough":3046,"Ġchildren":3047,"na":3048,"ĠOctober":3049,"ike":3050,"Ġfri":3051,"2006":3052,"oney":3053,"ham":3054,"Ġmakes":3055,"Ġdep":3056,"ussian":3057,"There":3058,"cher":3059,"Ġpan":3060,"Ġequations":3061,"Ġeffects":3062,"Ġfive":3063,"Ġcut":3064,"ĠApril":3065,"Ġprovided":3066,"lege":3067,"ĠThus":3068,"ĠEurope":3069,"Ġpast":3070,"theorem":3071,"Ġspecific":3072,"lease":3073,"Ġunit":3074,"Ġ-\\":3075,"Ġlo":3076,"Ġimprove":3077,"ĠNovember":3078,"ET":3079,"Ġhistory":3080,"hood":3081,"ĠDecember":3082,"Ġfig":3083,"Ġfields":3084,"Ġcity":3085,"Ġfeel":3086,"Ġmillion":3087,"ĠWar":3088,"Ġgroups":3089,"ires":3090,"but":3091,"ĠAugust":3092,"Ġlot":3093,"Ġwomen":3094,"Ġair":3095,"raction":3096,"Ġprim":3097,"Ġworking":3098,"Ġconfig":3099,"Ġworks":3100,")}{":3101,"ging":3102,"ĠMc":3103,"group":3104,"Ġadditional":3105,"Ġnote":3106,"ooth":3107,"ĠSeptember":3108,"umerate":3109,"Ġoptim":3110,"All":3111,"Ġwhy":3112,"]\\":3113,"elling":3114,"New":3115,"Ġret":3116,"Ġboundary":3117,"like":3118,"Ġdeath":3119,"onic":3120,"ogle":3121,"Ġexplain":3122,"aches":3123,"Ġplayers":3124,"Ġcompared":3125,"ĠMark":3126,"Ġkind":3127,"Ġdevelopment":3128,"mit":3129,"alt":3130,"my":3131,"ctors":3132,"Ġattack":3133,"Ġmatch":3134,"Ġpubl":3135,"iction":3136,"Ġindex":3137,"oted":3138,"reed":3139,"Ġindust":3140,"ĠĠĠĠĠĠĠĠĠĠĠĠĠĠĠĠĠĠĠĠĠĠĠ":3141,"&&":3142,"Ġpress":3143,"Ġchall":3144,"Ġrather":3145,"ilit":3146,"Ġimages":3147,"Pl":3148,"ĠPr":3149,"Ġalmost":3150,"ledge":3151,"Cont":3152,"IM":3153,"itemize":3154,"Ġeffective":3155,"Ġhalf":3156,"eneral":3157,"ĠSch":3158,"raft":3159,"yl":3160,"dom":3161,"HE":3162,"cret":3163,"References":3164,"rest":3165,"CC":3166,"ĠReg":3167,"Ġmatter":3168,"aced":3169,"util":3170,"ille":3171,"Ġdifference":3172,"Ġgen":3173,"Ġquestion":3174,"ying":3175,"ners":3176,"Ġsite":3177,"enumerate":3178,"ĠQu":3179,"ĠBar":3180,"Ġtitle":3181,"ips":3182,"Ġveloc":3183,"Ġmetric":3184,"Ġtherefore":3185,"hib":3186,"AB":3187,"));":3188,"Ġbreak":3189,"gs":3190,"ĠIntern":3191,"Ġweight":3192,"ĠEd":3193,"Ġcourse":3194,"bt":3195,"Ġflow":3196,"Ġmultiple":3197,"Ġnum":3198,"rew":3199,"mail":3200,"from":3201,"Ġexperience":3202,"ĠNews":3203,"Ġmechan":3204,"Ġconstraint":3205,"Ġyoung":3206,"ework":3207,"Ġimplies":3208,"Ġprove":3209,"omial":3210,"Ġoutput":3211,"ĠAf":3212,"fact":3213,"state":3214,"Ġsets":3215,"vspace":3216,"Ġnam":3217,"VID":3218,"rated":3219,"Ġtransform":3220,"AD":3221,"Ġlove":3222,"Le":3223,"Ġprec":3224,")}$":3225,"anta":3226,"Ġcomplete":3227,"ĠCounty":3228,"osed":3229,"plus":3230,"ĠWill":3231,"\");":3232,"ĠAg":3233,"bb":3234,"Ad":3235,"icture":3236,"ana":3237,"(-":3238,"Ġnatural":3239,"ĠNorth":3240,"mathscr":3241,"actions":3242,"operatorname":3243,"Ġstatic":3244,"Ġwords":3245,"Ġonce":3246,"oud":3247,"Ġwhose":3248,"test":3249,"Ġtw":3250,"OT":3251,"46":3252,"bum":3253,"Ġchanges":3254,"ION":3255,"ervice":3256,"Ġsche":3257,"What":3258,"App":3259,"PS":3260,"Ġholds":3261,"Ġconver":3262,"~$":3263,"Ġcateg":3264,"Ġ\\|":3265,"aves":3266,"icult":3267,"imate":3268,"Ġcreate":3269,"Ġbase":3270,"Ġsqu":3271,"aly":3272,"pol":3273,"Ġinstance":3274,"nb":3275,"Ġindu":3276,"Ġcoe":3277,"inst":3278,"Ġweak":3279,"sel":3280,"Ġresponse":3281,"Ġthought":3282,"iform":3283,"Ġport":3284,"Ġvideo":3285,"ada":3286,"Ġcolor":3287,"Ġdegree":3288,"ĠHar":3289,"Ġwritten":3290,"Ġenvironment":3291,"ession":3292,"85":3293,"che":3294,"}}_":3295,"Ġothers":3296,"Ġimpact":3297,"file":3298,"Ġcustom":3299,"Ġage":3300,"rast":3301,"atively":3302,"ĠHam":3303,"At":3304,"Ġrequest":3305,"eed":3306,"Ġgas":3307,"Ġstudents":3308,"Ġjo":3309,"IR":3310,"Ġsent":3311,"ague":3312,"Ġtaking":3313,"dimensional":3314,"rown":3315,"kn":3316,"noindent":3317,"Ġarch":3318,"Ġaddress":3319,"aries":3320,"Ġonline":3321,"Ġcomponent":3322,"multicol":3323,"Ġcamp":3324,"ĠInt":3325,"Ġsoft":3326,"ĠAustral":3327,"Ġcontains":3328,"Ġmar":3329,"$}":3330,"eff":3331,"Ġsearch":3332,"oms":3333,"Ġmen":3334,"ĠPres":3335,"path":3336,"ĠOb":3337,"location":3338,"dag":3339,"Ġmagnetic":3340,"ores":3341,"nection":3342,"Ġsong":3343,"ruary":3344,"Ġbasis":3345,"From":3346,"\\}$":3347,"multicolumn":3348,"ceed":3349,"Ġfun":3350,"Ġservices":3351,"that":3352,"----------------":3353,"Ġincrease":3354,"Ġgenerated":3355,"ele":3356,"Ġvalid":3357,"Ġwave":3358,"Ġwidth":3359,"NN":3360,"ĠBrit":3361,"hern":3362,"atory":3363,"irl":3364,"list":3365,"ully":3366,"Ġformer":3367,"ĠBo":3368,"light":3369,"Ġreported":3370,"Ġunique":3371,"urch":3372,"ply":3373,"istics":3374,"US":3375,"Ġactiv":3376,"omorphism":3377,"Ġprovides":3378,"\\,\\":3379,"Ġord":3380,"Ġprior":3381,"tic":3382,"ĠAfter":3383,"index":3384,"Ġsix":3385,"emic":3386,"Ġpresented":3387,"ĠPar":3388,"Ġamount":3389,"Ġstars":3390,"Ġdetails":3391,"Ġflu":3392,"Ġpack":3393,"izes":3394,"ĠGl":3395,"Ġequal":3396,"ĠWhat":3397,"But":3398,"Ġtook":3399,"era":3400,"ĠFrom":3401,"ounter":3402,"ishing":3403,"Ġ:=":3404,"Ġbegin":3405,"Ġhor":3406,"irm":3407,"42":3408,"aul":3409,"Ġentire":3410,"Value":3411,"ĠCont":3412,"98":3413,"alle":3414,"gress":3415,"Ġwrite":3416,"Ġproduction":3417,"Su":3418,"********":3419,"ournal":3420,"Ġestimate":3421,"split":3422,"Ġinstead":3423,"Ġbring":3424,"{}":3425,"2005":3426,"bsite":3427,"ĠMy":3428,"ĠOur":3429,"2000":3430,"Ġrepresentation":3431,"Ġyield":3432,"ands":3433,"iments":3434,"Ġjob":3435,"enef":3436,"approx":3437,"ĠGo":3438,"Ġneighb":3439,"Ġproblems":3440,"eral":3441,"Ġeconom":3442,"rain":3443,"97":3444,"ills":3445,"Ġrefer":3446,"link":3447,"Ġgames":3448,"Ġcompet":3449,"Ġbody":3450,"Ġpopulation":3451,"ĠSim":3452,"Since":3453,"Ġhouse":3454,"Ġalgebra":3455,"Ġcomponents":3456,"gence":3457,"];":3458,"mar":3459,"}}}":3460,"Ġhost":3461,"ket":3462,"ĠDis":3463,"Ġdemon":3464,"Ġcult":3465,"Ġdirection":3466,"itude":3467,"Ġyet":3468,"Ġnews":3469,"ĠTherefore":3470,"Ġclosed":3471,"57":3472,"hel":3473,"Ġrelation":3474,"Ġcoordin":3475,"curity":3476,"Ġspectrum":3477,"semb":3478,"Ġmarket":3479,"Get":3480,"{$":3481,"43":3482,"Ġmiss":3483,"Ġtrack":3484,"rump":3485,"ĠTable":3486,"LO":3487,"ids":3488,"mon":3489,"ography":3490,"ĠDep":3491,"Bl":3492,"][":3493,"Ġevolution":3494,"ĠPer":3495,"ured":3496,"Object":3497,"body":3498,"aught":3499,"Be":3500,"ises":3501,"CD":3502,"lish":3503,"Ġfile":3504,"ĠMon":3505,"anced":3506,"Ġmedia":3507,")+":3508,"Ġsignal":3509,"You":3510,"rc":3511,"========":3512,"Then":3513,"clusion":3514,"Ġcame":3515,"ransport":3516,"Ġeduc":3517,"View":3518,"ĠNot":3519,"Ġdifficult":3520,"aring":3521,"Ġtoday":3522,"duc":3523,"Ġsubject":3524,"Ġmaximum":3525,"rror":3526,"Ġevalu":3527,"ulated":3528,"itect":3529,"Ġexec":3530,"underline":3531,"Pi":3532,"\".":3533,"Ġbar":3534,"Ġfit":3535,"ites":3536,"58":3537,"Ġphysical":3538,"Ġrestrict":3539,"PE":3540,"Ġlikely":3541,"rive":3542,"Ġrot":3543,"Ġtakes":3544,"Ġchoice":3545,"ptions":3546,"vis":3547,"Ġever":3548,"norm":3549,"url":3550,"ided":3551,"ĠFebruary":3552,"Ġvariables":3553,"icles":3554,"bigg":3555,"Sp":3556,"Ġsure":3557,"Ġactually":3558,"Ġlinks":3559,"Ġdimension":3560,"Ġlat":3561,"irus":3562,"ĠDo":3563,"Ġtheorem":3564,"Ġtable":3565,"Qu":3566,"ret":3567,"pecially":3568,"Ġsense":3569,"ensor":3570,"ĠWest":3571,"atform":3572,"ĠMod":3573,"Ġbit":3574,"ĠComp":3575,"MS":3576,"Ġver":3577,"ĠGerm":3578,"lin":3579,"\")":3580,"eline":3581,"Is":3582,"UR":3583,"Ġface":3584,"^-":3585,"Ġincluded":3586,"linear":3587,"Ġdirectly":3588,"Ġ(-":3589,"Ġscen":3590,"Ġwhole":3591,"bound":3592,"Ġsound":3593,"Ġdeal":3594,"texttt":3595,"When":3596,"ager":3597,"IG":3598,"Ġeigen":3599,"rule":3600,"Ġcentral":3601,"Ġ/**":3602,"Ġcomes":3603,"OS":3604,"}^{-":3605,"Ġstudies":3606,"69":3607,"textrm":3608,"Ġneut":3609,"Ġvelocity":3610,"iddle":3611,"ening":3612,"Ġcolumn":3613,"ondon":3614,"ilton":3615,"ĠDav":3616,"ĠNote":3617,"ief":3618,"ops":3619,"bre":3620,"Ġleading":3621,"Ġ$\\{":3622,"display":3623,"rices":3624,"Ġneeds":3625,"Ġapplied":3626,"Ġcontinuous":3627,"atives":3628,"Ġdidn":3629,"andid":3630,"ĠPe":3631,"minus":3632,"ened":3633,"Ġbuilding":3634,"ĠLa":3635,"41":3636,"ication":3637,"Ġdiv":3638,"overed":3639,"irth":3640,"Exception":3641,"irect":3642,"Ġcorrect":3643,"FF":3644,"ING":3645,"Ġratio":3646,"UT":3647,"Ġsw":3648,"ender":3649,"Ġincreasing":3650,"ĠPark":3651,"la":3652,"Ġ_{":3653,"Ġ///":3654,"ĠFirst":3655,"////":3656,"ken":3657,"icit":3658,"Ġsetting":3659,"Ġnumbers":3660,"Ġdecre":3661,"Ġallows":3662,".)":3663,"Ġupper":3664,"Ġparent":3665,"ae":3666,"model":3667,"Ġshall":3668,"Ġadj":3669,"asc":3670,"ynomial":3671,"nbsp":3672,"Ġpolicy":3673,"Ġrespons":3674,"iation":3675,"ota":3676,"taint":3677,"Ġdetect":3678,"ounc":3679,"Vert":3680,"ĠUK":3681,"Ġsmaller":3682,"Ġlive":3683,"Ġcritical":3684,"ĠAfric":3685,"AA":3686,"Ġpo":3687,"Ġviol":3688,"Ġcompan":3689,"Ġbecomes":3690,"\";":3691,"king":3692,"Ġthing":3693,"77":3694,"fect":3695,"State":3696,"BC":3697,"ĠHere":3698,"2004":3699,"ĠSm":3700,"known":3701,"using":3702,"En":3703,"Ġrob":3704,"Not":3705,"subseteq":3706,"Ġ$|":3707,"Ġop":3708,"ĠAct":3709,"Ġtask":3710,"mission":3711,"}/":3712,"Ġcr":3713,"year":3714,"arily":3715,"Class":3716,"Ġbenef":3717,"unch":3718,"Ġelectron":3719,"),\\":3720,"public":3721,"Ġfrequency":3722,"normal":3723,"Ġess":3724,"Ġbehavior":3725,"ĠSystem":3726,"....":3727,"Ġsources":3728,"igned":3729,"unc":3730,"Ġadded":3731,"vision":3732,"Ġtool":3733,"vey":3734,"rows":3735,"Ġprinc":3736,"Ġliter":3737,"Ġstyle":3738,"88":3739,"Ġbecame":3740,"<\\":3741,"ĠCOVID":3742,"Ġnight":3743,"Ġmention":3744,"Ġflux":3745,"Ġarm":3746,"Ġneeded":3747,"illed":3748,"rec":3749,"error":3750,"ĠString":3751,"500":3752,"à¤":3753,"Ġang":3754,"aging":3755,"auge":3756,"ĠTr":3757,"ln":3758,"LA":3759,"Ġnoise":3760,"Or":3761,"ĠStud":3762,"One":3763,"Ġlanguage":3764,"Ġstarted":3765,"Ġcontact":3766,"Ġfall":3767,"Ġalbum":3768,"Ġproced":3769,"Ġregard":3770,"Ġconstruction":3771,"Ġvisit":3772,"Ġoccur":3773,"Ġgeom":3774,"Ġbroad":3775,"ha":3776,"uments":3777,"Ġparticip":3778,"footnote":3779,"Ġnuc":3780,"Ġdemonstr":3781,"Theta":3782,"56":3783,"EE":3784,"abs":3785,"ĠHouse":3786,"}}_{":3787,"Ġquality":3788,"vant":3789,"Test":3790,"ĠEl":3791,"ensive":3792,"ensions":3793,"ĠHealth":3794,"Ġreceived":3795,"Ġtypes":3796,"Ġaud":3797,"ĠAm":3798,"encies":3799,"Ġdeep":3800,"ditional":3801,"Ġfav":3802,"Ġrelative":3803,"Ġuncer":3804,"prod":3805,"setminus":3806,"Ġsimply":3807,"nes":3808,"long":3809,"Note":3810,"ĠNe":3811,"usion":3812,"Ġtalk":3813,"dist":3814,"avy":3815,"atur":3816,"otic":3817,"level":3818,"Ġinflu":3819,"}'":3820,")|":3821,"PT":3822,"osition":3823,"ama":3824,"apan":3825,"nov":3826,"}},":3827,"Ġapplication":3828,"ĠVal":3829,"oring":3830,"Ġidea":3831,"ĠII":3832,"length":3833,"icon":3834,"Ġaccept":3835,"bur":3836,"Ġ\\;":3837,"Ġdoesn":3838,"Ġdetermined":3839,"ĠGa":3840,"Ġcenter":3841,"ein":3842,"lier":3843,"ĠBro":3844,"ĠKing":3845,"atus":3846,"Ġ($\\":3847,"xy":3848,"Ġapply":3849,"minist":3850,"png":3851,"Ġdest":3852,"Ġinequ":3853,"uracy":3854,"ĠÐ":3855,"Ġperformed":3856,"nav":3857,"oplus":3858,"Ġpage":3859,"osen":3860,"Ġitself":3861,"Our":3862,"den":3863,"ario":3864,"Ġmer":3865,"Ġpattern":3866,"ford":3867,"Ġrecogn":3868,"perty":3869,"Ġrisk":3870,"Ġequivalent":3871,"Ġmonths":3872,"Ġconduct":3873,"allel":3874,"ming":3875,"Ġpercent":3876,"Ġfront":3877,"linewidth":3878,"Ġtell":3879,"MA":3880,"quot":3881,"pers":3882,"change":3883,"96":3884,"Ġembed":3885,"Ġexpression":3886,"tical":3887,"Ġpers":3888,"Ġwent":3889,"^{-\\":3890,"ouncil":3891,"command":3892,"Ġincludes":3893,"Ġchannel":3894,"ĠHis":3895,"Ġund":3896,"ĠSer":3897,"coming":3898,"Ġusers":3899,"subfigure":3900,"Ġknowledge":3901,"ĠAcc":3902,"Ġinteresting":3903,"Ġdig":3904,"ocal":3905,"Ġensure":3906,"Ġcreated":3907,"Ġconnected":3908,"ĠPresident":3909,"So":3910,"Ġspeed":3911,"Ġobservations":3912,"jection":3913,"ĠTrump":3914,"Ġobjects":3915,"Ġpref":3916,"gra":3917,"Ġissues":3918,"ares":3919,"rate":3920,"});":3921,"can":3922,"Ġiter":3923,"umb":3924,"wedge":3925,"ponent":3926,"Ġmember":3927,"Ġsmooth":3928,"ports":3929,"Ġsufficient":3930,"Ġeasy":3931,"ĠChar":3932,"Ġoperators":3933,"\":":3934,"Ġsett":3935,"pack":3936,"iag":3937,"Ġforward":3938,"ĠLondon":3939,"().":3940,"attice":3941,"_+":3942,"Ġgre":3943,"Ġpatients":3944,"js":3945,"Ġintroduced":3946,"Ġquite":3947,"ML":3948,"ĉĉĉĉĉ":3949,"$_":3950,"Ġfood":3951,"Ġnecessary":3952,"Man":3953,"ĠHigh":3954,"Ġdocument":3955,"Ġrank":3956,"\\}":3957,"Ġinteraction":3958,"Ġpolynomial":3959,"ĠNow":3960,"2003":3961,"oe":3962,"SC":3963,"anks":3964,"Ġround":3965,"rier":3966,"59":3967,"Ġespecially":3968,"Ġseem":3969,"Ġderiv":3970,"Ġdataset":3971,"Ġwebsite":3972,"SP":3973,"Ġnational":3974,"ocol":3975,"ĠAmerica":3976,"Ġarticle":3977,"Ġlevels":3978,"selves":3979,"iber":3980,"mag":3981,"leg":3982,"Ġagre":3983,"black":3984,"Ġ!=":3985,"Ġissue":3986,"Ġbox":3987,"aged":3988,"eal":3989,"Ġdeveloped":3990,"Ġansw":3991,"cial":3992,"ullet":3993,"inated":3994,"Ġmoney":3995,"Ġ\\(":3996,"Ġsamples":3997,"sup":3998,"shift":3999,"Ġregions":4000,"Ġlooking":4001,"etic":4002,"Ġintern":4003,"Ġgrad":4004,"oved":4005,"Ġindustry":4006,"Now":4007,"que":4008,"No":4009,"range":4010,"Ġheld":4011,"Ġ$[":4012,"Ġreve":4013,"ky":4014,"Ġshift":4015,"band":4016,"ancial":4017,"ansion":4018,"Ġlayer":4019,"Ġax":4020,"lor":4021,"zz":4022,"Ġcandid":4023,"Ġreleased":4024,"Ġproducts":4025,"ociety":4026,"Ġtold":4027,"Ġdark":4028,"ags":4029,"uel":4030,"'re":4031,"Ġgrowth":4032,"Ġpersonal":4033,"ridge":4034,"Ġmode":4035,"Time":4036,"Ġinfin":4037,"Ġorg":4038,"Ġnegative":4039,"Ġareas":4040,"Ġresid":4041,"Ġcapt":4042,"ĠĠĠĊ":4043,"iet":4044,"._":4045,"ribute":4046,"Ġuses":4047,"ns":4048,"Ġir":4049,"Ġillust":4050,"ĠEnglish":4051,"Ġdr":4052,"ĠAng":4053,"volution":4054,"Ġsymmetry":4055,"Ġopportun":4056,"check":4057,"*{":4058,"Ġemission":4059,"78":4060,"());":4061,"Ġhence":4062,"More":4063,"Ġuniform":4064,"Ġnov":4065,"Ġassert":4066,"Error":4067,"ĠDes":4068,"_*":4069,"acity":4070,"ashed":4071,"ube":4072,"Ġstreng":4073,"Ġtransfer":4074,"hand":4075,"Ġgoal":4076,"ounced":4077,"spec":4078,"Ġcurve":4079,"Ġ...":4080,"ĠLaw":4081,"Ġcharg":4082,"Ġplayed":4083,"Ġengine":4084,"det":4085,"perp":4086,"54":4087,"istory":4088,"Ġcontinue":4089,"ĠInternational":4090,"Ġ$-":4091,"){":4092,"Ġdiagram":4093,"Ġscheme":4094,"Ġvariable":4095,"Ġbounded":4096,"Ġdiscussed":4097,"berg":4098,"Ġmis":4099,"``":4100,"hest":4101,"Ġshare":4102,"olic":4103,"Pr":4104,"Ġformula":4105,"Ġvan":4106,"MC":4107,"ellar":4108,"_{(":4109,"Ġoutside":4110,"Ġframework":4111,"input":4112,"Ġpeak":4113,"Ġmix":4114,"pret":4115,"Ġautom":4116,"Ġbuilt":4117,"Ġdoing":4118,"ranch":4119,"63":4120,"Ġattempt":4121,"Ġwor":4122,"Ġago":4123,"Ġreach":4124,"do":4125,"ĠCons":4126,"ĠTV":4127,"Ġforce":4128,"ĠCollege":4129,"dagger":4130,"Ġpublished":4131,"Ġvertex":4132,"Here":4133,"52":4134,"Key":4135,"aign":4136,"++":4137,"Ġparts":4138,"ĠDist":4139,"Ġdisplay":4140,"Ġtechnology":4141,"ifold":4142,"Ġnodes":4143,"pc":4144,"ĠMich":4145,"oon":4146,"Ġpert":4147,"hing":4148,"Ġwhite":4149,"atal":4150,"crete":4151,"irtual":4152,"Ġword":4153,"CH":4154,"Ġtown":4155,"Ġuncertaint":4156,"equest":4157,"ĠResearch":4158,"Ġupon":4159,"Ġbehind":4160,"iny":4161,"Over":4162,"Ġtree":4163,"51":4164,"artment":4165,"Ġ?":4166,"Ġarray":4167,"Ġexperiments":4168,"Ġcompact":4169,"Ġapproximation":4170,"ese":4171,"Ġey":4172,"Ġcharge":4173,"Ġexplicit":4174,"bert":4175,"asks":4176,"ĠCenter":4177,"isation":4178,"Ġgrav":4179,"Ġdouble":4180,"ĠĠĠĠĠĠĠĠĠĠ":4181,"Ġmind":4182,"Ġimmedi":4183,"TR":4184,"ollary":4185,"oke":4186,"Ġrepl":4187,"dro":4188,"ements":4189,"inos":4190,"main":4191,"rant":4192,"Ġmaps":4193,"Ġrecently":4194,"Ġconclud":4195,"Ġseems":4196,"Form":4197,"Ġchoose":4198,"Ġnetworks":4199,"Ġcontract":4200,"53":4201,"ously":4202,"limits":4203,"pite":4204,"Ġtax":4205,"Ġoptimal":4206,"Ġofficial":4207,"oto":4208,"ĠWhile":4209,"Ġsus":4210,"Âł":4211,"fully":4212,"Ġaltern":4213,"Ġgalaxies":4214,"Ġconsum":4215,"Ġemer":4216,"!--":4217,"\"></":4218,"Ġstage":4219,"Ġchain":4220,"ĠĠĠĠĠĠĠĠĠĠĠĠ":4221,"oul":4222,"ĠHer":4223,"Ġhyp":4224,"Ġarbit":4225,"Ġhours":4226,"Ġstation":4227,"ĠOf":4228,"PC":4229,"Ġseg":4230,"Ġlate":4231,"colon":4232,"ued":4233,"Ġquick":4234,"ĠProposition":4235,".</":4236,"Ġparticles":4237,"Ġgauge":4238,"Ġresulting":4239,"AG":4240,"Net":4241,"DF":4242,"Ġpie":4243,"Ġdecision":4244,"Ġevidence":4245,"Ġlonger":4246,"ara":4247,"Ġtherm":4248,"Ġbelieve":4249,"Ġball":4250,"Ġtravel":4251,"Ġsuff":4252,"Ġlocated":4253,"Ġmach":4254,"Ġdynamics":4255,"Ġdate":4256,"oding":4257,"Ġinside":4258,"ĠAir":4259,"ael":4260,"Ġremains":4261,")\\,":4262,"Ġ|\\":4263,"Ġfight":4264,"pport":4265,"Ġmotion":4266,"ios":4267,"Ġinterval":4268,"Ġparticle":4269,"Ġpick":4270,"Ġhol":4271,"Ġimm":4272,"Ġtowards":4273,"61":4274,"Ġminimum":4275,"ĠCour":4276,"Ġhot":4277,"Ð¾":4278,"=\"+":4279,"ura":4280,"Ġconcern":4281,"62":4282,"Ġgain":4283,"UN":4284,"ĠAc":4285,"Ġtreatment":4286,"ecause":4287,"Ġstra":4288,"Ġspat":4289,"ils":4290,"Ġexpress":4291,"ĠDem":4292,"Ġpresence":4293,"cho":4294,"iences":4295,"Ġarchitect":4296,"definition":4297,"ifying":4298,"ropy":4299,"Ġsubset":4300,"Ġpanel":4301,"Ġcompanies":4302,"Ġwalk":4303,"yond":4304,"Dis":4305,"Ġaccuracy":4306,"agement":4307,"IL":4308,"aligned":4309,"block":4310,"Ġcomparison":4311,"Ġeasily":4312,"elt":4313,"ĠJapan":4314,"Ġavoid":4315,"edu":4316,"}}(\\":4317,"Tr":4318,"ington":4319,"Ġaim":4320,"Ġvers":4321,"ĠMor":4322,"2002":4323,"TE":4324,"Ġpopular":4325,"mat":4326,"eli":4327,"Ġproduced":4328,"CE":4329,"ĠOff":4330,"Ġdriv":4331,"Ġperturb":4332,"Ġrunning":4333,"Ġmeasured":4334,"Ġreference":4335,"olar":4336,"ĠEar":4337,"Ġchalleng":4338,"word":4339,"_{{\\":4340,"Ġfootball":4341,"utive":4342,"reet":4343,"Ġmechanism":4344,"ached":4345,"Ġbirth":4346,"Ġleads":4347,"Ġexactly":4348,"Ġconcept":4349,"Ġlocation":4350,"PR":4351,"ellow":4352,"attle":4353,"ĠIndia":4354,"Ġobser":4355,"Ġbad":4356,"ĠBlack":4357,"stitute":4358,"ibrary":4359,"Ġclassical":4360,"run":4361,"Ġmagn":4362,"Ġfully":4363,"maz":4364,"Ġspectral":4365,"apping":4366,"Ġclasses":4367,"Ġinc":4368,"ayer":4369,"Ġones":4370,"Equ":4371,")/":4372,"Ġminim":4373,"Ġhttps":4374,"ker":4375,"Ġpolar":4376,"endix":4377,"Ġcoupling":4378,"Ð°":4379,"rivial":4380,"Ab":4381,"Ġapplications":4382,"={":4383,"Ġproper":4384,"Ġnorm":4385,")_{":4386,"Ġmomentum":4387,")}(":4388,"iforn":4389,"deg":4390,"user":4391,"Ġreduced":4392,"pace":4393,"87":4394,"rong":4395,"ees":4396,"Text":4397,"0000":4398,"ĠRef":4399,"Ġnumerical":4400,"Ge":4401,"uthors":4402,"../../../../":4403,"true":4404,"'_":4405,"IF":4406,"ĠBritish":4407,"Ġpolitical":4408,"Ġlimited":4409,"pan":4410,"izations":4411,"Ġfigure":4412,"Ġsimulations":4413,"omb":4414,"Ġcoming":4415,"oph":4416,"Ġbegan":4417,"Ġstatement":4418,"Im":4419,"Ġnature":4420,"Ġvolume":4421,"MP":4422,"Ġdraw":4423,"Ġcollection":4424,"Ġadapt":4425,"Ġ-->":4426,"Ġgetting":4427,"Ġcle":4428,"2001":4429,"');":4430,"Ġsatisfies":4431,"inct":4432,"Ġactive":4433,"ams":4434,"pri":4435,"rench":4436,"Ġcos":4437,"Ġvertices":4438,"ĠPat":4439,"Ġcontribution":4440,"Ġ}\\":4441,"ocr":4442,"Ġradius":4443,"Ġroad":4444,"hy":4445,"First":4446,"pose":4447,"ĠGroup":4448,"iques":4449,"Ġ/>":4450,"isions":4451,"ĠHamilton":4452,"rug":4453,"iency":4454,"escription":4455,"Ġrates":4456,"ĠHence":4457,"case":4458,"joy":4459,"Ġsupported":4460,"IV":4461,"Sy":4462,"rang":4463,"ENT":4464,"vol":4465,"Ġconsequ":4466,"Ġrelease":4467,"ĠWork":4468,"Ġmessage":4469,"witch":4470,"Ġessential":4471,"uses":4472,"ship":4473,"Ġplatform":4474,"obile":4475,"Ġplane":4476,"object":4477,"Ġselected":4478,"Ġsecurity":4479,"Ġplayer":4480,"ifornia":4481,"SO":4482,"Ġusually":4483,"Ġcareer":4484,"Ġprote":4485,"Ġfast":4486,"Ġderived":4487,"ny":4488,"Ġfactors":4489,"Sub":4490,"Ġchosen":4491,"Ġrelevant":4492,"Ġattention":4493,"Ġprocesses":4494,"war":4495,"Ġrequires":4496,"However":4497,"ampions":4498,"fficients":4499,"Of":4500,"subsubsection":4501,"=(":4502,"forall":4503,"Sim":4504,"textsc":4505,"ĠGet":4506,"Ġuseful":4507,"Ġspecies":4508,"\\'":4509,"tes":4510,"ĠInst":4511,"Ġsimpl":4512,"stack":4513,"rief":4514,"Field":4515,"Add":4516,"reshold":4517,"Ġallowed":4518,"Ġwatch":4519,")^{\\":4520,"Ġstudied":4521,"_{-":4522,"Ġdetection":4523,"See":4524,"oken":4525,":\\":4526,"Ġestablished":4527,"Ġprofess":4528,"unt":4529,"Ġsaf":4530,"itz":4531,"ĠDr":4532,"Ġdetermine":4533,"Ġconsistent":4534,"Ġcorrespond":4535,"After":4536,"Ġsex":4537,"Ġsolid":4538,"Ġstrategy":4539,"Ġsteps":4540,"ĠArm":4541,",\\,":4542,"Ġedges":4543,"Ðµ":4544,"md":4545,"}$-":4546,"miss":4547,"ĠScience":4548,"resents":4549,"File":4550,"Eq":4551,"Table":4552,"ĠChina":4553,"cases":4554,"OD":4555,"Ġdescribe":4556,"Ġrights":4557,"IP":4558,"arc":4559,"ĠSan":4560,"Ġheart":4561,"Ġ+\\":4562,"'\\":4563,"print":4564,"Ġparty":4565,"Ġexamples":4566,"wood":4567,"ĠFurther":4568,"Ġfeed":4569,"Ġconnect":4570,"(),":4571,"Ġoptions":4572,"ĠDi":4573,"Ġdecl":4574,"iting":4575,"height":4576,"Ġste":4577,"ĠCommun":4578,"Ġselect":4579,"bin":4580,"arant":4581,"ĠTrans":4582,"istry":4583,"Ġmicro":4584,"Ġdim":4585,"Ġamplit":4586,"Ġoffer":4587,"Ġled":4588,"Ġstarting":4589,"Ġlattice":4590,"active":4591,"Ġpressure":4592,"Ġinvolved":4593,"ĠAssoci":4594,"Path":4595,"Ġmeasurements":4596,"Ġcurrently":4597,"ĠSen":4598,"Ġveh":4599,"Ġshape":4600,"External":4601,"Ġblue":4602,"Ġperfect":4603,"Ġ~":4604,"){\\":4605,"Ġinequality":4606,"etimes":4607,"ilitary":4608,"Ġfraction":4609,"ĠWilliam":4610,"itte":4611,"Ġtele":4612,"eler":4613,"MM":4614,"Ġcompute":4615,"Ġmanagement":4616,"mage":4617,"ĠRed":4618,"ĠRepublic":4619,"Ġload":4620,"estern":4621,"Ġdesigned":4622,"river":4623,"Ġalthough":4624,"Ġslight":4625,"Ġsituation":4626,"SU":4627,"acing":4628,"Ġpractice":4629,"ĠJust":4630,"Ġstream":4631,"Ġcalculated":4632,"Ġsignificantly":4633,"Ġquestions":4634,"Ġcorresponds":4635,"ĠMoreover":4636,"ĠSub":4637,"asons":4638,"spect":4639,"Ġcluster":4640,"Ġcorrelation":4641,"osing":4642,"sto":4643,"Ġexpansion":4644,"=-":4645,"ivil":4646,"Figure":4647,"overy":4648,"Ġnamed":4649,"Ġargument":4650,"Ġassumption":4651,"ĠDepartment":4652,"Ġroom":4653,"acher":4654,"Ġcontroll":4655,"itable":4656,"Ġrules":4657,"Ġoverall":4658,"ĠDavid":4659,"Ġthroughout":4660,"Ġclub":4661,"witter":4662,"Ġinterpret":4663,"ĠHol":4664,"aper":4665,"}^*":4666,"ental":4667,"Ġcells":4668,"Ġconstraints":4669,"Ġways":4670,"Ġprocedure":4671,"Ġdecay":4672,"Ġrule":4673,"Ġlost":4674,"Ġdefault":4675,"$(":4676,"Ġstaff":4677,"Ġcollect":4678,"Ġlargest":4679,"ĠTechn":4680,"apter":4681,"ĠIN":4682,"Ġhttp":4683,"ympt":4684,"idden":4685,"Def":4686,"Ġhope":4687,"['":4688,"Ġcam":4689,"ĠClass":4690,"FT":4691,"Ġframe":4692,"illing":4693,"bullet":4694,"summary":4695,"olean":4696,"Ġtransport":4697,"oo":4698,"Ġstructures":4699,"Ġmeet":4700,"remark":4701,"Ġmid":4702,"config":4703,"uge":4704,"prot":4705,"ades":4706,"Ġadopt":4707,"fil":4708,"ernel":4709,"Ġnothing":4710,"ien":4711,"ĠBook":4712,"free":4713,"Ġcore":4714,"ĠDay":4715,"van":4716,"Ġspaces":4717,"Ġexhib":4718,"ĠInter":4719,"vex":4720,"cons":4721,"Me":4722,"Ġpresident":4723,"Ġexperimental":4724,"Ġslow":4725,"89":4726,"Ġappropri":4727,"']":4728,"icip":4729,"ĠMag":4730,"Ġoperation":4731,"Ġachieve":4732,"Ġstrength":4733,"Ġche":4734,"Ġresolution":4735,"inf":4736,"Ġhyper":4737,"Ġstri":4738,"CS":4739,"mitted":4740,"Ġprobably":4741,"Ġcontrast":4742,"lt":4743,"Ġmor":4744,"Ġannounced":4745,"izer":4746,"aily":4747,"Te":4748,"Ġconnection":4749,"ĠGod":4750,"column":4751,"ĠSet":4752,"Ġinternational":4753,"ville":4754,"rees":4755,"orge":4756,"Ġsymbol":4757,"Ġrepresents":4758,"Ġrac":4759,"dx":4760,"dim":4761,"Request":4762,"Event":4763,"plate":4764,"Ġcoefficients":4765,"Ġdise":4766,"ned":4767,"roduction":4768,"arp":4769,"Ġstay":4770,"Ġextra":4771,"Ġcomment":4772,"ĠFin":4773,"amily":4774,"Ġetc":4775,"Ġmemory":4776,"\\!\\!":4777,"ifier":4778,"Ġbal":4779,"tem":4780,"ederal":4781,"zero":4782,"page":4783,"Ġrelationship":4784,"Ġexcept":4785,"Ġdepends":4786,"Ġextended":4787,"hips":4788,")^{-":4789,"aker":4790,"Ġhon":4791,"valid":4792,"neg":4793,"ĠAustralia":4794,"Ġsimulation":4795,"hesis":4796,"graph":4797,"gu":4798,"rick":4799,"Reg":4800,"rab":4801,"ĠGreen":4802,"ples":4803,"inv":4804,"title":4805,"abilities":4806,"Ġidentity":4807,"Ġcampaign":4808,"300":4809,")\\\\":4810,"Ġhistor":4811,"Ġintegral":4812,"Ġwriting":4813,"well":4814,"ingu":4815,"Ġdescription":4816,"Acc":4817,"lands":4818,"Ġselection":4819,"ĠOut":4820,"ĠStreet":4821,"ĠCalifornia":4822,"ĠFe":4823,"ogene":4824,"94":4825,"Ġalgorithms":4826,"cles":4827,"Ġearlier":4828,"erved":4829,"Ġdistributions":4830,"Ġextract":4831,"Ġmarg":4832,"ĠRec":4833,"ĠMr":4834,"Ġpolice":4835,"ospital":4836,".~(\\":4837,"flow":4838,"$).":4839,"Ġheight":4840,"ĠEast":4841,"Ġcred":4842,"Ġdual":4843,"bon":4844,"Ġaccom":4845,"72":4846,"Ġsampl":4847,"sol":4848,"Ġradio":4849,"result":4850,"ba":4851,"Ġcompletely":4852,"irit":4853,"Ã¡":4854,"](":4855,"Node":4856,"Ġoperations":4857,"iers":4858,"Ġmaintain":4859,"Ġfriend":4860,"Ġhighly":4861,"Ġrecomm":4862,"rame":4863,")}{\\":4864,"Ġleaders":4865,"':":4866,"~$\\":4867,"Ġasked":4868,"ppose":4869,"\\\"":4870,"Ġlatter":4871,"ibly":4872,"Ġestimated":4873,"ida":4874,"Ġstraight":4875,"Ġbeyond":4876,"Ġrow":4877,"Ġincreases":4878,"ĠSur":4879,"ilies":4880,"Ġliving":4881,"undle":4882,"Ġlack":4883,"ico":4884,"simeq":4885,"Ġthemselves":4886,"NS":4887,"ĠSpec":4888,"!!":4889,"rie":4890,"Ġscreen":4891,"Ġeducation":4892,"$^{-":4893,"pmatrix":4894,"Ġprofile":4895,"Inst":4896,"Ġapproaches":4897,"\\|_{":4898,"Ġanything":4899,"Co":4900,"Ġabsol":4901,"Ġfire":4902,"ĠSome":4903,"Ġexisting":4904,"((":4905,"93":4906,"Ġsoon":4907,"next":4908,"ka":4909,"rig":4910,"ya":4911,"eturn":4912,"Ġexam":4913,"Ġscalar":4914,"hom":4915,"Ġcategory":4916,"ĠSte":4917,"Ġscatter":4918,"Ġprimary":4919,"ilib":4920,"ĠEuropean":4921,"date":4922,"Ġenjoy":4923,"Ġaffect":4924,"LS":4925,"ĠReview":4926,"ride":4927,"Ġincreased":4928,"76":4929,"ded":4930,"Ġappears":4931,"Ġintroduce":4932,"Ġproduce":4933,"Ġoffice":4934,"Ġagreement":4935,"End":4936,"Ġangle":4937,"OM":4938,"Ġsoftware":4939,"Ġenh":4940,"Ġconfiguration":4941,"Ġsomeone":4942,"rep":4943,"Bar":4944,"{$\\":4945,"Info":4946,"Ġformation":4947,"uls":4948,"Ġdenotes":4949,"ĠĠĠĠĠĠĠĠĠĠĠĠĠĠĠĠĠĠĠĠĠĠĠĠĠĠĠ":4950,"Ġmeaning":4951,"Ġexpand":4952,"Ġshowed":4953,"Ġreduce":4954,"Ġbelong":4955,"That":4956,"arameter":4957,"Ġvict":4958,"Ġtensor":4959,"aur":4960,"Ġdam":4961,"Ġforms":4962,"ĠCouncil":4963,"values":4964,"}}^":4965,"Ġorigin":4966,"uations":4967,"orage":4968,"Ġstop":4969,"BS":4970,"Ġnovel":4971,"ĠRem":4972,"Ġ&=&":4973,"Ġqual":4974,"Ġmeasures":4975,"ATE":4976,"})$.":4977,"rian":4978,"ĠPaul":4979,"Inter":4980,"$$\\":4981,"ufact":4982,"Ġfem":4983,"Ġsil":4984,"multi":4985,"Ġhit":4986,"Ġfix":4987,"Ġbasic":4988,"enge":4989,"Ġacqu":4990,"eks":4991,"alg":4992,"Ġupdate":4993,"Ġsaw":4994,"Ġeverything":4995,"method":4996,"ini":4997,"ĠList":4998,"86":4999,"Ġinstall":5000,"Ġmole":5001,"Ġdevice":5002,"atically":5003,"Ġult":5004,"ĠIm":5005,"iti":5006,"Ġcounter":5007,"force":5008,"ulate":5009,"Model":5010,"Ġwide":5011,"ĠData":5012,"useum":5013,"Ġdiscussion":5014,"1999":5015,"Ġtrying":5016,"ĠFound":5017,"ĠAnt":5018,"Ġestimates":5019,"Ġanti":5020,"ĠLeague":5021,"ĠCap":5022,"ĠEm":5023,"pty":5024,"Ġchem":5025,"acters":5026,"Ġ=\\":5027,"ench":5028,")$-":5029,"Out":5030,"ica":5031,"tage":5032,"ĠBay":5033,"Read":5034,"Ġfair":5035,"Ġwall":5036,"||":5037,"Ġmodes":5038,"Ġgirl":5039,"Ġefficient":5040,"Ġcry":5041,"ocation":5042,"vention":5043,"Ġoption":5044,"Ġtrain":5045,"local":5046,"Ġspatial":5047,"Ġreveal":5048,"Ġplot":5049,"Ġfollowed":5050,"oice":5051,"Ġinj":5052,"example":5053,"Ġvisual":5054,"Next":5055,".$":5056,"Ġinvariant":5057,"Ġspectra":5058,"Att":5059,"ifically":5060,"gt":5061,"Ġexistence":5062,"Ġauthors":5063,"bi":5064,"Ġbrand":5065,"Ġcurves":5066,"Ġgenerally":5067,"LP":5068,"Ġhimself":5069,"92":5070,"Ġidentified":5071,"composition":5072,"Ġcountries":5073,"ĠIndian":5074,"ĠCanada":5075,"Ġinternal":5076,"Ġrepe":5077,"unk":5078,"84":5079,"Ġprice":5080,"ĠPo":5081,"ymm":5082,"Ġpreviously":5083,"Ġvs":5084,"Ġcomputed":5085,"rd":5086,"Ġgoes":5087,"Ġquas":5088,"Ġworked":5089,"produ":5090,"itely":5091,"arks":5092,"Ġepis":5093,"Ġcause":5094,"Thus":5095,"oat":5096,"Ġelectric":5097,"Ġstable":5098,"info":5099,"Ð¸":5100,"itions":5101,"inant":5102,"NR":5103,"iral":5104,"\\_":5105,"ĠGeneral":5106,"Ġdro":5107,"Ġscore":5108,"Ġarbitrary":5109,"ĠInstitute":5110,"api":5111,"rote":5112,"Ġminutes":5113,"uting":5114,"iring":5115,"Ġclearly":5116,"These":5117,"base":5118,"Ġvill":5119,"ua":5120,"Ġhoriz":5121,"Ġgreater":5122,"Ġerrors":5123,"content":5124,"Ġotherwise":5125,"agraph":5126,"tri":5127,"Ġ},":5128,"Ġfinancial":5129,"ĠÃ":5130,"Ġtim":5131,"Theorem":5132,"Service":5133,"term":5134,"Ġcopy":5135,"Index":5136,"ĠOther":5137,"Ġmentioned":5138,"ĠYour":5139,"cknow":5140,"mc":5141,"mapsto":5142,"ĠMat":5143,"Ġsymmetric":5144,"Ġmodern":5145,"abled":5146,"Ġfather":5147,"eles":5148,"Ġworth":5149,"pid":5150,"Ġjud":5151,"count":5152,"Ġassess":5153,"Ġemail":5154,"ĠPal":5155,"'m":5156,"/**":5157,"Code":5158,"ĠMal":5159,"prob":5160,"ĠBer":5161,"raz":5162,"LT":5163,"ĠPort":5164,"}}^{":5165,"Ġcompare":5166,"Ed":5167,"PI":5168,"Ġextension":5169,"rought":5170,"Ġdra":5171,"tty":5172,"ilibri":5173,"Ġtechniques":5174,"My":5175,"inder":5176,"Ġconsists":5177,"Ġtrac":5178,"Ġresources":5179,"/*":5180,"void":5181,"Ġnames":5182,"NA":5183,"ĠGaussian":5184,"Fl":5185,"ĠCourt":5186,"oder":5187,"matrix":5188,"ittee":5189,"antic":5190,"ĠJames":5191,"erve":5192,"Ġparticularly":5193,"Ġassist":5194,"ui":5195,"conn":5196,"Ġactivity":5197,"74":5198,"Ġtheore":5199,"Trans":5200,"[]":5201,"Ġexpert":5202,"Map":5203,"Ġplaying":5204,"lang":5205,"Ġability":5206,"ĠPost":5207,"Ġthreshold":5208,"ashington":5209,"Ġdependence":5210,"Ġbottom":5211,"lete":5212,"ĠFil":5213,"Ġinteractions":5214,"ĠWhite":5215,"Ġvariety":5216,"1998":5217,"())":5218,"Ġgeneration":5219,"Ġunits":5220,"Ġalign":5221,"Ġisn":5222,"men":5223,"Ġson":5224,"79":5225,"Ġleave":5226,"Ġwanted":5227,"etime":5228,"Ġmatrices":5229,"Ġsquare":5230,"option":5231,"Ġinsp":5232,"EM":5233,"gener":5234,"current":5235,"Ġpropag":5236,"Ġdisk":5237,"ND":5238,"Ġgets":5239,"Ġeveryone":5240,")_":5241,"Ġconcent":5242,"ishes":5243,"Ġyields":5244,"Ġstellar":5245,"rot":5246,"Ġliterature":5247,"oyal":5248,"73":5249,"Ġsurv":5250,"SI":5251,"Ġcombination":5252,"Ġsold":5253,"Ġsingular":5254,"Ġpairs":5255,"Ġcele":5256,"^{+":5257,"Ġten":5258,"ĠBusiness":5259,"ĠHall":5260,"Color":5261,"reedom":5262,"Context":5263,"Ġboard":5264,"Ġdepth":5265,"ĠDan":5266,"nother":5267,"Ġwait":5268,"ĠAlso":5269,"newcommand":5270,"Ġsyn":5271,"DA":5272,"Ġadvanta":5273,"Ġorb":5274,"Ġnearly":5275,"ĠThom":5276,"Ġprint":5277,"mas":5278,"Ġidentify":5279,"Ġbur":5280,"Ġ]":5281,"Ġmother":5282,"odot":5283,"Ġmeasurement":5284,"comple":5285,"ander":5286,"igation":5287,"board":5288,"';":5289,"roy":5290,"Ġwoman":5291,"Ġtesting":5292,"ĠFrench":5293,"proposition":5294,"EC":5295,"ĠEngland":5296,"gn":5297,"ado":5298,"Ġfriends":5299,"char":5300,"Ġgenerate":5301,"Ġcompl":5302,"Ġcircle":5303,"ĠEqu":5304,"Ġquad":5305,"Ġobserve":5306,"pat":5307,"Ġcentury":5308,"ĠProgram":5309,"writ":5310,"ountain":5311,"Ġadminist":5312,"sur":5313,"Fe":5314,"arter":5315,"Ġbeaut":5316,"$;":5317,"ĠDef":5318,"Ġaccur":5319,"HT":5320,"iant":5321,"ĠBel":5322,"uit":5323,"Ġspread":5324,"bottom":5325,"Hz":5326,"Ġcard":5327,"Ġrock":5328,"ĠSuper":5329,"ests":5330,"iding":5331,"Ġeight":5332,"SM":5333,"tik":5334,"ypes":5335,"Ġ);":5336,"resh":5337,"Ġexcit":5338,"Ġfinally":5339,"82":5340,"amental":5341,"emy":5342,"Ġasympt":5343,"Ġscient":5344,"ĠYear":5345,"start":5346,"haps":5347,"ĠLeg":5348,"ĠRober":5349,"Ġlatest":5350,"Ġoptical":5351,"Ġlegal":5352,"alysis":5353,"Ġjoint":5354,"Ġcourt":5355,"ĠJack":5356,"Fil":5357,"ĠPublic":5358,"Ġconvergence":5359,"Ġsurpr":5360,"ĠAre":5361,"83":5362,"\\{\\":5363,"Ġappropriate":5364,"Ġfilms":5365,"onav":5366,"Ġpure":5367,"Ġexc":5368,"\"\"":5369,"Ġhighest":5370,"inner":5371,"Ġcosm":5372,"Ġstatus":5373,"Build":5374,"ĠInc":5375,"ani":5376,"ĠRich":5377,"ĠST":5378,"cd":5379,"Ġbooks":5380,"has":5381,"Ġunderstanding":5382,"ĠMart":5383,"Ġinner":5384,"icity":5385,"|_{":5386,"Ġobvious":5387,"Ġclassification":5388,"stream":5389,"Ġimag":5390,"CP":5391,"'(":5392,"Ġcharacters":5393,"'ve":5394,"CA":5395,"aven":5396,"itch":5397,"Ġdeb":5398,"Ġ(!":5399,"Ġaspect":5400,"arr":5401,"Ġtransformation":5402,"Ġlives":5403,"Ġresource":5404,"Ġweeks":5405,"ayout":5406,"picture":5407,"ĠChe":5408,"andemic":5409,"ros":5410,"Config":5411,"Ġsn":5412,"Post":5413,"Ġanalog":5414,"Ġgave":5415,"ĠFace":5416,"Ġcontributions":5417,"}&":5418,"uman":5419,"eria":5420,"Array":5421,"Ġdistinct":5422,"Ġborn":5423,"Ġmedical":5424,"Ġ$$":5425,"Ġcomputation":5426,"Ġsubst":5427,"$~":5428,"onavirus":5429,"Ġdead":5430,"oting":5431,"}%":5432,"cr":5433,"omic":5434,"Ġscience":5435,"####":5436,"apache":5437,"post":5438,"ĠPre":5439,"abase":5440,"scill":5441,"71":5442,"ponential":5443,"hol":5444,"riz":5445,"'}":5446,"aching":5447,"Ne":5448,"ÑĤ":5449,"While":5450,"Ġprotect":5451,"ech":5452,"Ġreading":5453,"Ġremain":5454,"91":5455,"Ġ;":5456,"anger":5457,"Ġoffers":5458,"Ġpurpose":5459,"Ġ/*":5460,"otal":5461,"Ġdepart":5462,"tikz":5463,")+\\":5464,"vest":5465,"EO":5466,"Ġprogress":5467,"{{":5468,"ĠGoogle":5469,"istical":5470,"cs":5471,"Log":5472,")},":5473,"Pre":5474,"ilibrium":5475,"Ġpoly":5476,"Ġgreen":5477,"Ġflat":5478,"Ġdemand":5479,"reme":5480,"Item":5481,"ki":5482,"Ġcalc":5483,"ologies":5484,"Ġformal":5485,"Cons":5486,"Ġfamilies":5487,"ĠSing":5488,"Americ":5489,"Ġfavor":5490,"Ġvectors":5491,"Ġaward":5492,"Ġsubsequ":5493,"mma":5494,"omorphic":5495,"Ġborder":5496,"Ġtro":5497,"Ġring":5498,"Ġextrem":5499,"esh":5500,"Ġtour":5501,"Ġimmediately":5502,"rons":5503,"Ġslightly":5504,"venue":5505,"ĠCre":5506,"Ġcool":5507,"Ġvacc":5508,"ĠArch":5509,"rial":5510,"Spec":5511,"}}$,":5512,"RA":5513,"ĠRead":5514,"Ġmoving":5515,"Ġthreat":5516,"Ġrace":5517,"erc":5518,"Ġ});":5519,"ĠPlan":5520,"Ġelection":5521,"ĠSee":5522,"ĠNov":5523,"Ġrepresented":5524,"FA":5525,"ĠDon":5526,"cular":5527,"Ġwrote":5528,"Ġactual":5529,"Ġinterview":5530,"Ġharm":5531,"ipage":5532,"Ġprediction":5533,"Ġmut":5534,"opic":5535,"Ġdetailed":5536,"ĠHamiltonian":5537,"velopment":5538,"stract":5539,"_-":5540,"ĠLand":5541,"}}$.":5542,")-\\":5543,"fit":5544,"seud":5545,"Ġfilter":5546,"Ġremaining":5547,"module":5548,"minipage":5549,"Ġestablish":5550,"Ent":5551,"BA":5552,"ĠDire":5553,"born":5554,"Ġabsor":5555,"ervices":5556,"Ġfine":5557,"Ġign":5558,"rat":5559,"Ġcru":5560,"Ġinteger":5561,"ancy":5562,"Ġinde":5563,"pir":5564,"default":5565,"})$,":5566,"ĠKe":5567,"Ġrelatively":5568,"Per":5569,"81":5570,"isher":5571,"Ġcook":5572,"Ġbinary":5573,"Ġtrade":5574,"Ġpull":5575,"Ġreson":5576,"pected":5577,"Ġsafety":5578,"bed":5579,"hal":5580,"Ġmorph":5581,"Ġdirector":5582,"inding":5583,"ona":5584,"Ġgiving":5585,"Ġunivers":5586,"Ġassumed":5587,"edia":5588,"Ġmachine":5589,"|-":5590,"Part":5591,"Ġodd":5592,"='":5593,"ĠDistrict":5594,"Ġoscill":5595,"Ġbehavi":5596,"ĠMusic":5597,"Ġsatisfy":5598,"Ġdied":5599,"ferent":5600,"Ġheavy":5601,"nel":5602,"Ġguarant":5603,"ĠGra":5604,"=\"../../../../":5605,"Ġreconst":5606,"Ġbul":5607,"Ġgalaxy":5608,"Ġmodule":5609,"SD":5610,"Ġwindow":5611,"Ġtasks":5612,"first":5613,"static":5614,"build":5615,"ĠVol":5616,"Ġthick":5617,"tag":5618,"Ġgradu":5619,"Pe":5620,"PP":5621,"core":5622,"displaystyle":5623,"Element":5624,"soft":5625,"annels":5626,"ĠWashington":5627,"Ġsegment":5628,"airs":5629,"Ġdifferences":5630,"Ġdifferential":5631,"Ġvary":5632,"real":5633,"MR":5634,"Ġmovie":5635,"GL":5636,"Ref":5637,"Ġonto":5638,"Ġtal":5639,"Ġtransl":5640,"ston":5641,"Ġhypot":5642,"Ġinduced":5643,"gent":5644,"Ġroot":5645,"Ġincor":5646,"Ġâ":5647,"ĠTHE":5648,"lam":5649,"ponse":5650,"create":5651,"anned":5652,"Ġcontaining":5653,"Ġbeginning":5654,"inem":5655,"Ġpen":5656,"ĠÂ£":5657,"ĠOver":5658,"sey":5659,"sect":5660,"GB":5661,"ĠMichael":5662,"Ġoptimization":5663,"Ġresol":5664,"win":5665,"Ġfa":5666,"za":5667,"Ġproviding":5668,"Ġregime":5669,"Ġchanged":5670,"ĠBre":5671,"Cor":5672,"Ġsaying":5673,"Ġer":5674,"ĠAnn":5675,"Ġbright":5676,"Ġanim":5677,"Ġcoordinates":5678,"Ġanswer":5679,"cong":5680,"dy":5681,"Ġstrict":5682,"mercial":5683,"Ġconserv":5684,"ducation":5685,"Ġdigital":5686,"rivate":5687,"Size":5688,"ĠBest":5689,"Ð½":5690,"Ġreduction":5691,"mass":5692,"}{|":5693,"rupt":5694,"host":5695,"faces":5696,"cel":5697,"Ġobservation":5698,"jo":5699,"inese":5700,"ĠRel":5701,"Ġconsidering":5702,"Ġteams":5703,"Ġtun":5704,")}_{":5705,"ĠAfrica":5706,"ih":5707,"urt":5708,"She":5709,"Ġvac":5710,"font":5711,"}({\\":5712,"blue":5713,"ĠPress":5714,"ror":5715,"break":5716,"2022":5717,"}$)":5718,"Ġideal":5719,"image":5720,"Ġcapacity":5721,"TH":5722,"Ġutil":5723,"ĠRoad":5724,"Ġprep":5725,"ĠEach":5726,"Ġmoved":5727,"cref":5728,"aser":5729,"Ġruns":5730,"Ġmassive":5731,"Ġter":5732,"Ġsites":5733,"num":5734,"urrent":5735,"Ġmanifold":5736,"Ġgrid":5737,"process":5738,"Ġorient":5739,"then":5740,"ĠDec":5741,"400":5742,"Ġhydro":5743,":}":5744,"Ġactions":5745,"otted":5746,"ĠChurch":5747,"lesssim":5748,"Ġreceive":5749,"Ġstrongly":5750,"Ġgraphs":5751,"osite":5752,"Ġscattering":5753,"ĠService":5754,"PA":5755,"ector":5756,"while":5757,"henomen":5758,"1000":5759,"hbar":5760,"Ġconclude":5761,"Ġtempor":5762,"Ġparallel":5763,"Ġproved":5764,"OL":5765,"Ġinfluence":5766,"floor":5767,"Ġwrong":5768,"Ġtraditional":5769,"arse":5770,"Ġprevent":5771,"Pol":5772,"Ġbuy":5773,"Ġmiddle":5774,"Ġsuccessful":5775,"Ġclean":5776,"udes":5777,"Ġreplace":5778,"eared":5779,"Ġdisease":5780,"ĠTime":5781,"ĠRiver":5782,"ett":5783,"Ġcouple":5784,"define":5785,"iller":5786,"DS":5787,"Ġsector":5788,"Do":5789,"Ġexternal":5790,"Ġreflect":5791,"riday":5792,"web":5793,"ĠOF":5794,"Ġcycle":5795,"GC":5796,"ollowing":5797,"poses":5798,"$),":5799,"Ġpurch":5800,"âĢĿ.":5801,"Ġquickly":5802,"Ġlayers":5803,"1996":5804,"Ġdevi":5805,"Ġgovern":5806,"Ġneighbor":5807,"abil":5808,"Ġtru":5809,"Hand":5810,"Ġactivities":5811,"1997":5812,"system":5813,"Ġgap":5814,"ether":5815,"Ġbrief":5816,"otion":5817,"Ġshowing":5818,"Message":5819,"pg":5820,"Ġpartners":5821,"Ġapproximately":5822,"\\)":5823,"Ġcommunication":5824,"ĠDel":5825,"Ġcollabor":5826,"itivity":5827,"ogeneous":5828,"ĠMet":5829,"Ġconstit":5830,"Ġnorth":5831,"ĠAssociation":5832,"ĠGerman":5833,"Ġcombined":5834,"ĠMa":5835,"context":5836,"Ġ$|\\":5837,"nam":5838,"ĠSun":5839,"Ġtor":5840,"contain":5841,"Ġuncertainty":5842,"Ġserious":5843,"fined":5844,"ifferent":5845,"Ġstudent":5846,"Introduction":5847,"ĠĠĠĠĠĠĠĠĠĠĠĠĠĠĠĠĠ":5848,"CR":5849,"Ġefficiency":5850,"ĠSw":5851,"dl":5852,"olf":5853,"Ġdistrict":5854,"ĠSund":5855,"Ġcast":5856,"rect":5857,"Ġagent":5858,"step":5859,"'ll":5860,"related":5861,"ĠMac":5862,"ĠEv":5863,"dev":5864,"elli":5865,"Ġmeeting":5866,"ĉĉĉĉĉĉ":5867,"ĠQue":5868,"Ġaxis":5869,"Ġexpressed":5870,"Ġmilitary":5871,"))$":5872,"Ġculture":5873,"Ġbrought":5874,"Ġ${":5875,"ĠFinally":5876,"ano":5877,"weight":5878,"Ġtypical":5879,"Ġmasses":5880,"Ġminimal":5881,"Ġcov":5882,"gest":5883,"Count":5884,"lig":5885,"Ġnotation":5886,"Ġmagnitude":5887,"Ġkm":5888,"Ġitem":5889,"ĠGold":5890,"Ġener":5891,"Ġdistributed":5892,"EX":5893,"ancing":5894,"Ġgrant":5895,"Call":5896,"java":5897,"Ġintegr":5898,"Ġserved":5899,"ĠSum":5900,"arameters":5901,"}{(":5902,"ĠUnder":5903,"Ġsrc":5904,"Ġinform":5905,"iverse":5906,"css":5907,"OP":5908,"ĠRuss":5909,"Ġshared":5910,"ĠPM":5911,"Ġmanufact":5912,"ĠCD":5913,"lient":5914,"ago":5915,"EL":5916,"Ġtrained":5917,"Ġopportunity":5918,"Ġlum":5919,"Ġloop":5920,"ita":5921,"Ġcarry":5922,"names":5923,"ĠAlex":5924,"Ġinterested":5925,"ĠRob":5926,"Ġgradient":5927,"stra":5928,"Finally":5929,"Ġstore":5930,"Therefore":5931,"Ġamplitude":5932,"ithub":5933,")--":5934,"Ġcomputer":5935,"Ġorth":5936,"~~~~":5937,"Ġbeam":5938,"ĠBen":5939,"Ġeconomic":5940,"Ġpartition":5941,"Ġut":5942,"Ġprojects":5943,"ĠPhil":5944,"Ġthrow":5945,"open":5946,"she":5947,"orthern":5948,"sembly":5949,"ribution":5950,"Ġanyone":5951,"ĠNetwork":5952,"Ġpretty":5953,"bas":5954,"ĠTom":5955,"rey":5956,"Ġstories":5957,"ĠWil":5958,"TD":5959,"aughter":5960,"Ġfunctional":5961,"Ġamb":5962,"Ġtheoretical":5963,"&=&":5964,"Ġmess":5965,"ocks":5966,"ĠCong":5967,"ĠFrance":5968,"IA":5969,"fs":5970,"Ġpandemic":5971,"ĠDemocr":5972,"SA":5973,"Ġseven":5974,"ellig":5975,"Ġdrive":5976,"iler":5977,"Ġcaused":5978,"Ġsort":5979,"ĠUsing":5980,"ulture":5981,"Ġnucle":5982,"mut":5983,"kin":5984,"[(":5985,"Ġdevices":5986,"Ġbranch":5987,"uffer":5988,"ĠAlthough":5989,"ĠOpen":5990,"Ġforces":5991,"Ġweb":5992,",\\\\":5993,"itar":5994,"mann":5995,"Ġcomplexity":5996,"Ġprofessional":5997,"Ġdu":5998,"Ġthermal":5999,"tx":6000,"ĠRad":6001,"Ġrobust":6002,"room":6003,"Ġpix":6004,"Ġcapital":6005,"vised":6006,"Ġsynt":6007,"quare":6008,"fess":6009,"Ġindicates":6010,"Ġindividuals":6011,"Ġrise":6012,">&":6013,"estival":6014,"Ġplans":6015,"Ġconvex":6016,"Ġschools":6017,"Can":6018,"Ġplaces":6019,"Ġprograms":6020,"ometric":6021,"Ġfundamental":6022,"ĠFacebook":6023,"Ġturned":6024,"ĠMo":6025,"ĠĠĠĠĠĠĠĠĠĠĠĠĠĠ":6026,"ĠSam":6027,"Method":6028,"dfrac":6029,"Ġspeak":6030,"Ġkernel":6031,"ialog":6032,"Ġlic":6033,"Ġplant":6034,"FL":6035,"oura":6036,"bel":6037,"ira":6038,"hbox":6039,"Ġcalculations":6040,"Ġtrend":6041,"Ġpoor":6042,"ĠGal":6043,"ĠTest":6044,"Ġimplementation":6045,"-$":6046,"Ġproport":6047,"ĠFoundation":6048,"rank":6049,"Ġpartial":6050,"Ġfarm":6051,"itation":6052,"outhern":6053,"Ġevaluation":6054,"Ġpicture":6055,"Ġrapid":6056,"super":6057,"ĠStar":6058,"Ġplease":6059,"Ġnotice":6060,"Ġcomments":6061,"ĠCompany":6062,"OC":6063,"exas":6064,"Ġformed":6065,")}}":6066,"han":6067,"Ġdatasets":6068,"Ġachieved":6069,"ifies":6070,"Ġhole":6071,"ĠParty":6072,"DB":6073,"Ġalternative":6074,"only":6075,"gies":6076,"inations":6077,"orter":6078,"oving":6079,"aa":6080,"]}":6081,"Ġpiece":6082,"Ġreports":6083,"ULL":6084,"ĠManagement":6085,"ria":6086,"Ġfluct":6087,"package":6088,"1990":6089,"****************":6090,"Ġ};":6091,"Ġtraject":6092,"Ġinstit":6093,"Ġcalculation":6094,"Ġsometimes":6095,"Ã³":6096,"apers":6097,"inu":6098,"ÑĢ":6099,"child":6100,"cccc":6101,"Comm":6102,"Ġbank":6103,"Ġclin":6104,"CM":6105,"strong":6106,"vere":6107,"SR":6108,"Ġtypically":6109,"Ġagree":6110,"Ġrelig":6111,"pass":6112,"They":6113,"({":6114,"Ġstated":6115,"Ġmus":6116,"Ġinfinite":6117,"assert":6118,"Ġphenomen":6119,"inger":6120,"cript":6121,"Ġheat":6122,"Ġcosts":6123,"Ġsolve":6124,"ĠChampions":6125,"udget":6126,"Ġ[\\":6127,"diag":6128,"chers":6129,"Ġdecomposition":6130,"Ġclusters":6131,"oma":6132,"ĠSal":6133,"Ġnoted":6134,"âĢĺ":6135,"Ġjournal":6136,"Ġentry":6137,"atures":6138,"Ġconfir":6139,"Ġarchitecture":6140,"Ġbounds":6141,"Ġreturned":6142,"Ġscene":6143,"Ġangular":6144,"ĠFurthermore":6145,"Ġworkers":6146,"Ġvirtual":6147,"ilarly":6148,"ĠGeorge":6149,",$":6150,"Box":6151,"?âĢĿ":6152,"Ġscenario":6153,"Ġcontinued":6154,"Ġconstructed":6155,"bor":6156,"Ġdivid":6157,"Ġsplit":6158,"bigl":6159,"icated":6160,"lies":6161,"Tra":6162,"ersion":6163,"ĠDiv":6164,"grad":6165,"Ġfinding":6166,"ĠMer":6167,"inate":6168,"search":6169,"owers":6170,"Ġlif":6171,"Ġspl":6172,"HS":6173,"Using":6174,"onical":6175,"github":6176,"ĠWed":6177,"ci":6178,"Ġwonder":6179,"Last":6180,"finition":6181,"ĠLife":6182,"^*$":6183,"Ġstress":6184,"Ġredshift":6185,"ÃŃ":6186,"Ġindicate":6187,"]$.":6188,"onday":6189,"Ġprotocol":6190,"Ġ()":6191,"Ġsouth":6192,"Ġproceed":6193,"Ġusual":6194,"Ġstruct":6195,"btn":6196,"Ġexponential":6197,"ĠMost":6198,"Ġtests":6199,"1995":6200,"va":6201,"Ġtruth":6202,"Ġindeed":6203,"Ġjava":6204,"Ġmissing":6205,"Ġrotation":6206,"Ġwife":6207,"Ġsurround":6208,"Ġlimits":6209,"pa":6210,"false":6211,"Ġsatisfying":6212,"poss":6213,"house":6214,"SL":6215,"American":6216,"cf":6217,"Ġlemma":6218,"Ġsurvey":6219,"ĠJul":6220,"Ġattract":6221,"ĠProject":6222,"forward":6223,"chang":6224,"Ġhous":6225,"des":6226,"eness":6227,"ĠSol":6228,"ĠJournal":6229,"Ġrecall":6230,"Line":6231,"tfrac":6232,"Ġacceler":6233,"cknowled":6234,"ashion":6235,"Ġdimensions":6236,"Ġalone":6237,"ĠLie":6238,"Ġdenoted":6239,"ĠFore":6240,"Ġparents":6241,"Ġscales":6242,"lections":6243,"Ġimplic":6244,"nergy":6245,"ĠAcad":6246,"ategory":6247,"Ġpm":6248,"bigr":6249,"Ġassign":6250,"Ġaw":6251,"Ġwasn":6252,"zer":6253,"Ġlooks":6254,"met":6255,"Ġthank":6256,"Ġmaterials":6257,"Ġitems":6258,"150":6259,"Ġdecided":6260,"Ġseparate":6261,"Ġblood":6262,"CL":6263,"idel":6264,"\\}$.":6265,"ĠForm":6266,"ĠHig":6267,"ĠServices":6268,"undred":6269,"ĠMary":6270,"Ġcommand":6271,"Ġclient":6272,"ĠOffice":6273,"ĠRobert":6274,"System":6275,"ĠHistory":6276,"Ġsections":6277,"ariance":6278,"Ġcandidate":6279,"Ġreached":6280,"ontal":6281,"lick":6282,"ĠLou":6283,":=":6284,"Ġsemi":6285,"}\\,\\":6286,"Ġinstrum":6287,"lication":6288,"Ġsym":6289,"Ġsec":6290,"ena":6291,"Ġtools":6292,"algorithm":6293,"Ġdiscrete":6294,"Ġpark":6295,"oom":6296,"struct":6297,"rane":6298,"onald":6299,"ĠGovernment":6300,"Ġcoefficient":6301,"Ġri":6302,"ĠTwo":6303,"Ġfreedom":6304,"yles":6305,"reek":6306,"Ġsen":6307,"ĠSl":6308,"$:":6309,"Ġtrust":6310,"ĠHel":6311,"ĠBi":6312,"Ġcustomers":6313,"istor":6314,"////////":6315,"Ġinterface":6316,"---":6317,"results":6318,"Ġmajority":6319,"Mar":6320,"Ġscaling":6321,"db":6322,"anda":6323,"oration":6324,"Ġhands":6325,"ĠPet":6326,"Ġdepending":6327,"Ġestimation":6328,"enty":6329,"Ġoverl":6330,"Ġlock":6331,"ĠBig":6332,"ĠChinese":6333,"ĠSM":6334,"kl":6335,"herent":6336,"cis":6337,"]$,":6338,"ĠMedia":6339,"ester":6340,"PU":6341,"include":6342,"cuss":6343,"iden":6344,"plan":6345,"ĠFriday":6346,"iful":6347,"fort":6348,"ga":6349,"Ġple":6350,"Act":6351,"car":6352,"Rem":6353,"ĠMus":6354,"Ġpain":6355,"ĠUSA":6356,"Ġprocessing":6357,"ĠAM":6358,"ĠAward":6359,"Right":6360,"Ġroll":6361,"ĠEducation":6362,"ĠMem":6363,"Ġvote":6364,"ĠGreat":6365,"oday":6366,"Ġcompleted":6367,"Ġfans":6368,"Ġque":6369,"Ġadvantage":6370,"two":6371,"ski":6372,"Ġentropy":6373,"}})":6374,"ĠSocial":6375,"Ġshot":6376,"Ġcomposition":6377,"clusions":6378,"Ġbus":6379,"avel":6380,"ĠGermany":6381,"Ġchannels":6382,"ĠVir":6383,"AV":6384,"sets":6385,"Ġion":6386,"sych":6387,"Ass":6388,"ĠAut":6389,"vector":6390,"Ġenter":6391,"ĠScott":6392,"lines":6393,"Ġcop":6394,"Ġchance":6395,"Ġgrowing":6396,"Ġcontained":6397,"Ġdust":6398,"Ġdegrees":6399,"FC":6400,"adian":6401,"Ñģ":6402,"ĠâĢ¦":6403,"ĠAccording":6404,"called":6405,"$};":6406,"Ġstability":6407,"gr":6408,"ĠTop":6409,"Ġ__":6410,"FR":6411,"elled":6412,"yset":6413,"ĠFlor":6414,"Image":6415,"hemat":6416,"Ġvoice":6417,"ĠJew":6418,"Ġnation":6419,"awa":6420,"Group":6421,"ĠSociety":6422,"going":6423,"eds":6424,"stein":6425,"Ġpositions":6426,"yr":6427,"Ġ===":6428,"Ã¼":6429,"}[\\":6430,"Ġcarried":6431,"pdate":6432,"ĠEarth":6433,"Ġprem":6434,"Ġnuclear":6435,"Ġtechnique":6436,"Ġsal":6437,"fold":6438,"Ġ{$":6439,"Ġevaluate":6440,"}}_{\\":6441,"km":6442,"such":6443,"Ġmovement":6444,"ĠĠĠĠĠĠĠĠĊ":6445,"urity":6446,"brace":6447,"greg":6448,"Rel":6449,"ĠClub":6450,"Ġcelebr":6451,"Ġfelt":6452,"Ġlisted":6453,"Ġnone":6454,"Ġsolar":6455,"null":6456,"Ġunknown":6457,"aturday":6458,"ounds":6459,"ĠEven":6460,"Ġrequirements":6461,"ĠSunday":6462,"Ġexplained":6463,"vin":6464,"Ġneural":6465,"doc":6466,"ĠIsland":6467,"Ext":6468,"weet":6469,"Ġweights":6470,"ĠUnion":6471,"ifications":6472,"write":6473,"rl":6474,"bal":6475,"Ġregist":6476,"ĠModel":6477,"Ġcloud":6478,"ĠSmith":6479,"Ġ\\(\\":6480,"\\;":6481,"ĠBur":6482,"Ġpassed":6483,"User":6484,"Ġmotiv":6485,"Ġspecified":6486,"Ġ\\]":6487,"ĠLat":6488,"number":6489,"Ġexchange":6490,"conf":6491,"ĠBrown":6492,"tail":6493,"perties":6494,"Ġcalculate":6495,"itiz":6496,"illa":6497,"kes":6498,"Ġbrother":6499,"ribe":6500,"ochastic":6501,"ĠMad":6502,"ĠMiss":6503,"120":6504,"Ġmaxim":6505,"Ġprotected":6506,"omy":6507,"ĠUs":6508,"icine":6509,"edy":6510,"Sch":6511,"osis":6512,"make":6513,"EW":6514,"Ġelectro":6515,"Ġteacher":6516,"Ġhar":6517,"ĠID":6518,"ĠChristian":6519,"atalog":6520,"Ġgeometry":6521,"ĠDevelopment":6522,"UE":6523,"Ġextends":6524,"pton":6525,"ĠJer":6526,"Ġcat":6527,"rich":6528,"Ġdespite":6529,"Ġbin":6530,"Ġchallenge":6531,"Ġquery":6532,"Ġphysics":6533,"Cre":6534,"ias":6535,"emptyset":6536,"Ġreasons":6537,"Ġmultiplic":6538,"Ġradiation":6539,"<!--":6540,"Ġstatistical":6541,"Ġgold":6542,"Ġplaced":6543,"Ġremove":6544,"Section":6545,"joint":6546,"][]{":6547,"pto":6548,"ĠPlay":6549,"Ġcatch":6550,"ĠHill":6551,"Ġcommunities":6552,"ette":6553,"Aut":6554,"))\\":6555,"ĠMax":6556,"paragraph":6557,"Ġadjust":6558,"Ġimportance":6559,"$_{":6560,"ĠAssum":6561,"DP":6562,"Car":6563,"Ġdetected":6564,"Ġrecorded":6565,"ĠTimes":6566,"Ġsampling":6567,"android":6568,"ĠCup":6569,"Ġbillion":6570,"Ġoccurs":6571,"Ġadding":6572,"Ġsend":6573,"Ġsafe":6574,"Ġnil":6575,"asy":6576,"ĠDirector":6577,"])":6578,"Ġrepresentations":6579,"indow":6580,"Ġnom":6581,"Ġinnov":6582,"hetic":6583,"Ġdelay":6584,"Ġvariation":6585,"obs":6586,"sign":6587,"ĠTexas":6588,"Ġpredicted":6589,"Ġeffort":6590,"ĠIsra":6591,"Rep":6592,"Ġwhereas":6593,"Ġexception":6594,"Ġisol":6595,"Ġthous":6596,"ĠCarol":6597,"Ġbias":6598,"Sec":6599,"aud":6600,"ynamic":6601,"Ġobjective":6602,"Ġisomorphism":6603,"1994":6604,"uled":6605,"Result":6606,"Ġirre":6607,"Ġow":6608,"ĠGood":6609,"osh":6610,"Ġsummer":6611,"ounce":6612,"Ġappoint":6613,"tiny":6614,"ĠCommission":6615,"cat":6616,"Ġhappen":6617,"vee":6618,"Ġbr":6619,"Ġ$.":6620,"Ġorganization":6621,"Ġunderlying":6622,"ĠSecond":6623,"})}":6624,"bu":6625,"Ġrang":6626,"Source":6627,"azine":6628,"Ġsecret":6629,"=\"#":6630,"Ġintegration":6631,"Exp":6632,"Ġtelevision":6633,"Further":6634,"Ġcivil":6635,"Ġdrop":6636,"Manager":6637,"dat":6638,"eries":6639,"road":6640,"Ġhuge":6641,"Ġswitch":6642,"porate":6643,"Ġready":6644,"Ġnav":6645,"Ġrelax":6646,"iota":6647,"Ġresponsible":6648,"Ġconven":6649,"ĠCamp":6650,"ouble":6651,"ĠHome":6652,"Ġaccurate":6653,"ĠBoard":6654,"ipal":6655,"ĠTwitter":6656,"Ġarguments":6657,"Ġspent":6658,"Ġequilibrium":6659,"rical":6660,"Ġtouch":6661,"law":6662,"ĠRE":6663,"Ġheard":6664,"Ġminor":6665,"Ġapplying":6666,"Ġefforts":6667,"Ġimproved":6668,"Ġpaint":6669,"vect":6670,"ĠIR":6671,"Ġremark":6672,"Ġprojection":6673,"DM":6674,"defined":6675,"ĠAppendix":6676,"ĠNor":6677,"Comp":6678,"Ġlearned":6679,"Ġplanet":6680,"burg":6681,"nc":6682,"ĠSec":6683,"Ġrough":6684,"Ġ^":6685,"ERT":6686,"uesday":6687,"Ġevol":6688,"ĠSeries":6689,"ĠMex":6690,"Ġleader":6691,"unct":6692,"Ġconvert":6693,",\\,\\":6694,"}}.":6695,"ĉĉĊ":6696,"Ġreplaced":6697,"Ġideas":6698,"Ġwild":6699,"[-":6700,"google":6701,"Ġremoved":6702,"phant":6703,"ĉĉĉĉĉĉĉĉ":6704,"ao":6705,"Ġsummar":6706,"ĠGr":6707,"aver":6708,"Ġneutr":6709,"Ġexplore":6710,"ĠPolicy":6711,"adding":6712,"Ġeyes":6713,"Ġcm":6714,"ibr":6715,"ĠDen":6716,"Ġgrand":6717,"event":6718,"OW":6719,"ĠLag":6720,"apse":6721,"Ġabsolute":6722,"bmatrix":6723,"Ġlaun":6724,"ications":6725,"clusive":6726,"ĠAdd":6727,"Ġmostly":6728,"lock":6729,"Ð¾Ð":6730,"Ġchemical":6731,"TT":6732,"Ġplays":6733,"Ġprinciple":6734,"ĠHy":6735,"Ġdoc":6736,"Fact":6737,"brid":6738,"|}{":6739,"Ġanc":6740,";</":6741,"Ġappeared":6742,"isely":6743,"Ġfirm":6744,"dem":6745,"Ġconj":6746,"Ġcoordinate":6747,"phys":6748,"ĠTor":6749,"ĠLi":6750,"================":6751,"Ġur":6752,"xx":6753,"}}}\\":6754,"sat":6755,"mosp":6756,"ĠCentral":6757,"integ":6758,"ĠMonday":6759,"roller":6760,"ename":6761,"Response":6762,"ĠAfrican":6763,"aterial":6764,"Ġorbit":6765,"ĠMuseum":6766,"ĠPeople":6767,"Ġsales":6768,";&":6769,"condition":6770,"ĠRock":6771,"Ġextend":6772,"ĠBill":6773,"Ġmale":6774,"Ġpowerful":6775,"Ġnamely":6776,"Min":6777,"Ġdynamic":6778,"ĠMicro":6779,"ĠBank":6780,"Ġsufficiently":6781,"Ġvertical":6782,"Ġassumptions":6783,")})":6784,"Action":6785,"iling":6786,"Go":6787,"Ġsigned":6788,"ogen":6789,"nesday":6790,"Ġdirected":6791,"uster":6792,"Ġmur":6793,"Back":6794,"Char":6795,"Ġopin":6796,"perform":6797,"Ġeventually":6798,"Ġsettings":6799,"low":6800,"yan":6801,"Ġhop":6802,"ĠDuring":6803,"ensus":6804,"Ġcharacteristic":6805,"rowser":6806,"Ġnet":6807,"php":6808,"Ġfiles":6809,"dir":6810,"Ġmodified":6811,"pective":6812,"Ġopened":6813,"scriptstyle":6814,"Ġpseud":6815,"Ġdesired":6816,"=\"../":6817,"po":6818,"Ġgun":6819,"ĠEvery":6820,"Ġ×":6821,"ĠTechnology":6822,"Ġsle":6823,"ĠâĢ¢":6824,"Ġphone":6825,"Ġpredictions":6826,"Client":6827,"Ġhear":6828,"claim":6829,"^{*":6830,"Ġsuggests":6831,"ĠInformation":6832,"ĠAustralian":6833,"Ġembedding":6834,"stable":6835,"Proof":6836,"adow":6837,"Ġmapping":6838,"ĠSta":6839,"care":6840,"ributes":6841,"ko":6842,"Ġempty":6843,"icies":6844,"Ġsports":6845,"Ġdistingu":6846,"elihood":6847,"Ġhundred":6848,"stain":6849,"RI":6850,"Ġapparent":6851,"ĠLu":6852,"amm":6853,"Property":6854,"Ġsongs":6855,"Ġluminos":6856,"Ġtechnical":6857,"columnwidth":6858,"itors":6859,"Ġconsequence":6860,"Ġrare":6861,"cale":6862,",{\\":6863,"notation":6864,"Rec":6865,"Ġpages":6866,"Ġepisode":6867,"ĠLos":6868,"Ġserver":6869,"Ġauto":6870,"phas":6871,"ĠIndeed":6872,"Ġmorning":6873,"target":6874,"vari":6875,")</":6876,"Ġinvestigate":6877,"Ġcancer":6878,"Ġformat":6879,"Ġaware":6880,"--------------------------------":6881,"Ġrecommend":6882,"aylor":6883,"Ġresist":6884,"lymp":6885,"mathop":6886,"]{\\":6887,"Ġorders":6888,"$&":6889,"aus":6890,"Ġstatistics":6891,"Ġknew":6892,"igger":6893,"Ġregarding":6894,"}_{-":6895,"century":6896,"Ġabund":6897,"Ġblog":6898,"Ġnonlinear":6899,"Ġquadr":6900,"ĠMinister":6901,"itative":6902,"ls":6903,"ĠShow":6904,"mazon":6905,"ĠThomas":6906,"multirow":6907,"scriptsize":6908,"Ġopening":6909,"Ġreturns":6910,"after":6911,"Ġtend":6912,"Ut":6913,"1993":6914,"Ġvehicle":6915,"vart":6916,"TS":6917,"Ġclaims":6918,"Ġcomplic":6919,"Ġmixed":6920,"Ġpush":6921,"ipment":6922,"Ġblocks":6923,"gency":6924,"Ġjoin":6925,"Ġkilled":6926,"del":6927,"Ġsomew":6928,"icate":6929,"Ġchallenges":6930,"Ġarriv":6931,"ĠTheir":6932,"ĠType":6933,"Stream":6934,"ĠEnd":6935,"ĠAtt":6936,"Ġremember":6937,"plot":6938,"okes":6939,"})=":6940,"Ġcamera":6941,".;":6942,"empor":6943,"vature":6944,"ursday":6945,"orial":6946,"iled":6947,"cut":6948,"Ġcoinc":6949,"nn":6950,"Ġquarter":6951,"Ġferm":6952,"ĠFlorida":6953,"ourier":6954,"dec":6955,"df":6956,"hens":6957,"Ġcommercial":6958,"standing":6959,"ultane":6960,"LC":6961,"Ġvillage":6962,"Top":6963,"Ġmatching":6964,">(":6965,"slant":6966,"Ġgravit":6967,"ĠJo":6968,"Head":6969,"Ġrecords":6970,"ading":6971,"query":6972,"oded":6973,"oses":6974,"\\}$,":6975,"ĠBecause":6976,"Ġsun":6977,"Ġtransmission":6978,"Ġfailed":6979,"Ġreli":6980,"iable":6981,"1992":6982,"Ġ\\!":6983,"Ġshock":6984,"urations":6985,"Ġdaily":6986,"}}^{\\":6987,"Ġtraffic":6988,"unit":6989,",...":6990,"ĠĠĠĠĠĠĠĠĠĠĠĠĠĠĠĠĠĠĠĠĠĠĠĠĠĠĠĠĠĠĠ":6991,"Ġlies":6992,"algebra":6993,"Ġconstants":6994,"Ġinverse":6995,"Ġmission":6996,"slash":6997,"Ġiniti":6998,"Ġserve":6999,"Ġenergies":7000,")}_":7001,"Ġresear":7002,"ĠTown":7003,"./":7004,"ĠTur":7005,"opyright":7006,"PD":7007,"Ġturns":7008,"Ġjoined":7009,"Ġmedium":7010,"Ġcomputing":7011,"|}":7012,"Ġlocally":7013,"1980":7014,"Ġsto":7015,"ato":7016,"Ġconfirmed":7017,"Ġandroid":7018,"actic":7019,"Ġlooked":7020,"Ġapart":7021,"Ġprefer":7022,"py":7023,"Ġtoward":7024,"ĠAG":7025,"ĠIts":7026,"Ġcontrad":7027,"bras":7028,"ĠEngine":7029,"ĠBu":7030,"Ġsuitable":7031,"ĠVis":7032,"Ġcalls":7033,"Ġdriving":7034,"ĠRoyal":7035,"Ġplus":7036,"ĠPeter":7037,"Ġsociety":7038,"tikzpicture":7039,"ĠJun":7040,"Ġbenefit":7041,"Des":7042,"itness":7043,"ald":7044,"Ġclimate":7045,"ĠChild":7046,"Ġdiagonal":7047,"PO":7048,"description":7049,"Ġded":7050,"ĠLy":7051,"ĠOper":7052,"Ġfemale":7053,"Ġbeg":7054,"Ġdiagn":7055,"Ġstd":7056,"Ġderivative":7057,"finished":7058,"Ġlaunch":7059,"ĠSaturday":7060,"Ġmobile":7061,";\\;\\":7062,"Ġcreating":7063,"ipp":7064,"Ġfourth":7065,"ĠMel":7066,"Ġchurch":7067,"ĠBoth":7068,"Ġstarts":7069,"Ġhandle":7070,"ears":7071,"longrightarrow":7072,"Point":7073,"Lemma":7074,"Dep":7075,"Ġkept":7076,"bib":7077,"ĠNS":7078,"ĠHot":7079,"chron":7080,"Ġsatisfied":7081,"Ġbenefits":7082,"Ġwants":7083,"Ġeth":7084,"heta":7085,"high":7086,"ensities":7087,"ĠMass":7088,"Ġ^{":7089,"igration":7090,"Ġmainly":7091,"ĠTour":7092,"sg":7093,"Ġtheories":7094,"Ġcoronavirus":7095,"Ã¶":7096,"Date":7097,"Input":7098,"Ġplanning":7099,"Ġdaughter":7100,"ĠWeb":7101,"Ġ->":7102,"FO":7103,"dr":7104,"Ġjet":7105,"Ġcomputational":7106,"ĠLog":7107,"Ġpropos":7108,"ĠSk":7109,"ĠSpe":7110,"Override":7111,"Ġpropose":7112,"TV":7113,"ban":7114,"Ġperhaps":7115,"Ġphoton":7116,"Ġchanging":7117,"Ġpatterns":7118,"Ġbehaviour":7119,"bug":7120,"Ġmanner":7121,"aby":7122,"Ġmetal":7123,"ĠStep":7124,"Ġsmart":7125,"mathit":7126,"ĠEconom":7127,"Ġmodul":7128,"Ġagents":7129,"Ġtrial":7130,"Ġbusinesses":7131,"etal":7132,"gebras":7133,"Ġmaster":7134,"Ġhospital":7135,"Ġshoot":7136,"models":7137,"rence":7138,"Ġexplicitly":7139,"Ġsustain":7140,"icago":7141,"otype":7142,"ĠCongress":7143,"je":7144,"Off":7145,"Max":7146,"project":7147,"Ġhidden":7148,"})^":7149,"MB":7150,"inn":7151,"mediate":7152,"ras":7153,"Ġast":7154,"Ġbos":7155,">>":7156,"Ġsubt":7157,"alian":7158,"eless":7159,"ometry":7160,"avelength":7161,"ĠRoman":7162,"ĠPhys":7163,"bp":7164,"parison":7165,"ideos":7166,"iveness":7167,"Ġmaximal":7168,"ĠSuch":7169,"cover":7170,"Ġpaid":7171,"Ġmill":7172,"ĠBet":7173,"&=\\":7174,"ĠGrand":7175,"Ġdisapp":7176,"ĠKore":7177,"Ġsave":7178,"}~":7179,"ĠVict":7180,"ĠFrancis":7181,"Ġspirit":7182,"Ġaffected":7183,"atre":7184,"figures":7185,"Ġprecisely":7186,"Ġjour":7187,"eder":7188,"oz":7189,"Ġpoll":7190,"Ġexcell":7191,"ATION":7192,"Ġbool":7193,"ifact":7194,"Ġneighborhood":7195,"mem":7196,"rapy":7197,"Some":7198,"Ġcharged":7199,":=\\":7200,"Hence":7201,"ingly":7202,"Ġdeaths":7203,"110":7204,"Ġschem":7205,"Gl":7206,"âĢĿ,":7207,"Link":7208,"Ġstorage":7209,"([":7210,"Ġsched":7211,"Given":7212,"Home":7213,"250":7214,"Ġletter":7215,"PL":7216,"Ġdiam":7217,"}|\\":7218,"ĠDE":7219,"ĠCare":7220,"Ġlab":7221,"ibration":7222,"riend":7223,"Ġartist":7224,"Ġsequences":7225,"Ġdog":7226,"Ġtrivial":7227,"ĠLong":7228,"According":7229,"Ġpatient":7230,"PM":7231,"ĠSU":7232,"Ġtail":7233,"anish":7234,"Sm":7235,"IST":7236,"Ġvariance":7237,"Ġmargin":7238,"Ġunion":7239,"Ġimplemented":7240,"+(":7241,"float":7242,"rish":7243,"Ġalt":7244,"Ġallowing":7245,"Ġderive":7246,"\\}\\":7247,"TC":7248,"DR":7249,"Ġcontinues":7250,"vs":7251,"Ġdeliver":7252,"flu":7253,"Ġwaves":7254,"/(":7255,"ĠCommittee":7256,"Ġconfidence":7257,"Ġadm":7258,"Consider":7259,"ĠTuesday":7260,"ronic":7261,"ĠElect":7262,"Ġpossibility":7263,"ĠSil":7264,"ĠCam":7265,"istan":7266,"istent":7267,"Ġdispers":7268,"ĠJose":7269,"fered":7270,"Ġintensity":7271,"ĠHen":7272,"Label":7273,"La":7274,"lib":7275,"Ġtick":7276,"=.":7277,"Ġfeedback":7278,"Ġcompetition":7279,"Ġextremely":7280,"Ġwel":7281,"ĠWomen":7282,"Ġlocations":7283,"ĠFree":7284,"Ġhappened":7285,"Ġcentre":7286,"ĠAngeles":7287,"ĠWestern":7288,"uler":7289,"fi":7290,"Other":7291,"ipped":7292,"Start":7293,"risis":7294,"ERS":7295,"func":7296,"^{(\\":7297,"phone":7298,"Ġtrees":7299,"ocket":7300,"plet":7301,"Ġwat":7302,"gers":7303,"erence":7304,"Ġ}{":7305,"subsec":7306,"Ġreality":7307,"Ġfederal":7308,"eller":7309,"reland":7310,"Ġdiver":7311,"images":7312,"Oper":7313,"ONT":7314,"args":7315,"FI":7316,"Ġlabels":7317,"Ġviews":7318,"author":7319,"}}=":7320,"Am":7321,"Results":7322,"Ġatmosp":7323,"close":7324,"Base":7325,"select":7326,"Gu":7327,"Gener":7328,"ĠRussian":7329,"Ġasymptotic":7330,"ilbert":7331,"Ġsuggested":7332,"ropic":7333,"Ġnor":7334,"init":7335,"magnetic":7336,"Ġcapture":7337,"tings":7338,"ĠRichard":7339,"ĠFund":7340,"ĠVirgin":7341,"arams":7342,"west":7343,"Ġoil":7344,"Ġspot":7345,"Builder":7346,"'d":7347,"img":7348,"yer":7349,"uum":7350,"Ġcandidates":7351,"gar":7352,"ographic":7353,"rosc":7354,"Ġ$,":7355,"Ġtopological":7356,"aren":7357,"Ġacts":7358,"Ġbra":7359,"Ġexplo":7360,"\\|\\":7361,"ĠWind":7362,"ala":7363,"ĠWednesday":7364,"Ġgeneralized":7365,"iem":7366,"Query":7367,"Ġinstant":7368,"Ġinvestigation":7369,"Art":7370,"ĠÎ":7371,"chen":7372,"Ġconvers":7373,"ditionally":7374,"Ġlaws":7375,"Ġwriter":7376,"notag":7377,"ĠAR":7378,"ĠCall":7379,"Ġcovered":7380,"Ġalle":7381,"client":7382,"second":7383,"Ġcategories":7384,"\\%$":7385,"Ġtreated":7386,"Ġwish":7387,"Ġeq":7388,"Ġemployees":7389,"ĠCommunity":7390,"options":7391,"world":7392,"Ġdoor":7393,"final":7394,"ĠPan":7395,"Ġtried":7396,"arn":7397,"ups":7398,"odies":7399,"ĠUp":7400,"Ġmonitor":7401,"Vis":7402,"axis":7403,"ĠArmy":7404,"Ġpackage":7405,"ĠTim":7406,"Ġcold":7407,"Ġhighlight":7408,"ella":7409,"ĠOffic":7410,"Ġthanks":7411,"Ġfrag":7412,"Ġgravity":7413,"Ġsch":7414,"cope":7415,"Ġinteract":7416,"ĠLear":7417,"Ġ{};":7418,"ĠJac":7419,")--(":7420,"Ġ\\&":7421,"white":7422,"Ġtit":7423,"Ġahead":7424,"Ġelim":7425,"${\\":7426,"ĠGiven":7427,"ĠStand":7428,"GR":7429,"vartheta":7430,"edge":7431,"Ġhappens":7432,"Ġbands":7433,"button":7434,"DD":7435,"header":7436,"namespace":7437,"medskip":7438,"ola":7439,"Ġradial":7440,"ĠLee":7441,"Ġdescribes":7442,"Ġcertainly":7443,"mf":7444,"Ġunless":7445,"BM":7446,"tan":7447,"dule":7448,"ĠTeam":7449,"Ġleaves":7450,"ĠFrank":7451,"Ġstochastic":7452,"ĠVer":7453,"}$}":7454,"Ġkids":7455,"ĠGlobal":7456,"Ġupdated":7457,"Ġquasi":7458,"Ġtag":7459,"Ġmoments":7460,"othing":7461,"ĠOh":7462,"Ġbirths":7463,"ĠMont":7464,"Cal":7465,"Ġpolicies":7466,"Ġcanonical":7467,"ĠWeek":7468,"Eng":7469,"Ġolder":7470,"Ġtight":7471,"Hel":7472,"Ġpaths":7473,"Status":7474,"BO":7475,"Ġparties":7476,"Block":7477,"Ġemphas":7478,"erman":7479,"Ġdynamical":7480,"Ġsubstant":7481,"arts":7482,"Ġfluid":7483,"Ġmarried":7484,"Ġjump":7485,"ĠCentre":7486,"1991":7487,"prec":7488,"server":7489,"Ġintersection":7490,"Ġrevealed":7491,"Ġprime":7492,"ĠArts":7493,"Ġcompat":7494,"ĠNone":7495,"Ġbudget":7496,"Ġreferred":7497,"Ġbulk":7498,"Ġcert":7499,"periment":7500,"Ġcycl":7501,"mn":7502,"ady":7503,"Ġoffered":7504,"jav":7505,"Ġartists":7506,"Ġreprodu":7507,"parent":7508,"formal":7509,"Ġfocused":7510,"ogonal":7511,"iate":7512,"Ġforeign":7513,"pload":7514,"ĠBack":7515,"clear":7516,"how":7517,"ĠGen":7518,"sche":7519,"Ġeconomy":7520,"Ġstack":7521,"ji":7522,"Ġannual":7523,"stitution":7524,"Ġdashed":7525,"riage":7526,"ĠMil":7527,"}{*":7528,"Ġoperating":7529,"ĠProfess":7530,"âĢ¢":7531,"hang":7532,"ĠBuild":7533,"Ġsizes":7534,"Ġcoverage":7535,"Ġphoto":7536,"ĠBob":7537,"Ġatta":7538,"Ap":7539,"Ġrail":7540,"ĠNULL":7541,"cycl":7542,"Ġstru":7543,"igital":7544,"Ġfol":7545,"enchmark":7546,"Mon":7547,"Ġhelped":7548,"}\\|":7549,"Ġvirus":7550,"verb":7551,"Ġclick":7552,"Ġrect":7553,"ĠJapanese":7554,"Ġhypothesis":7555,"ĠProv":7556,"spe":7557,"Ġadvert":7558,"ader":7559,"Ġmorphism":7560,"Run":7561,"Ġthinking":7562,"osc":7563,"Resource":7564,"product":7565,"ĠTre":7566,"Ġbeautiful":7567,"Ġcrow":7568,"ĠPower":7569,"etries":7570,"ðŁ":7571,"Ġpool":7572,"XX":7573,"lict":7574,"Ġinvestment":7575,"Ġbill":7576,"Ġacad":7577,"Ġnecessarily":7578,"Ġbalance":7579,"Ġapproximate":7580,"icted":7581,"Ġpossibly":7582,"azz":7583,"Ġcollected":7584,"Ġtested":7585,"Ġsimultane":7586,"allet":7587,"${":7588,"ĠJud":7589,"indu":7590,"Ġhour":7591,"Ġstrategies":7592,"ĠExp":7593,"ĠLake":7594,"Ġfailure":7595,"ortunately":7596,"avor":7597,"ĠEnergy":7598,"ĠObject":7599,"etails":7600,"ĠYoung":7601,"unfinished":7602,"effect":7603,"ulse":7604,"Ġevaluated":7605,"Ġdimensional":7606,"Ġsignals":7607,"Ġquantities":7608,"ĠIII":7609,"expected":7610,"ĠLove":7611,"Ġdemonstrate":7612,"asket":7613,"Ġskills":7614,">\\":7615,"Ġrig":7616,"Ġwood":7617,"diff":7618,"last":7619,"ĠDu":7620,"Ġissu":7621,"ĠIS":7622,"Ġgoals":7623,"hent":7624,"sa":7625,"Ġsimplic":7626,"Ġleaving":7627,"Nav":7628,"ĠMur":7629,"ĠRun":7630,"Ġfunding":7631,"power":7632,"never":7633,"iginal":7634,"Ġcollege":7635,"ĠThursday":7636,"El":7637,"else":7638,"Ġliqu":7639,"Ġincome":7640,"loop":7641,"ĠGame":7642,"Wid":7643,"Moreover":7644,"arden":7645,"ruit":7646,"Ġquark":7647,"Ġrestaur":7648,"property":7649,"Work":7650,"Ġattacks":7651,"Ġequality":7652,"ĠGames":7653,"empty":7654,"Ġflex":7655,"Ġtemperatures":7656,"Ġtransp":7657,"ĠWell":7658,"Ġ({\\":7659,"ugin":7660,"rust":7661,"Ġconducted":7662,"Ġ$\\{\\":7663,"Ġencoura":7664,"erior":7665,"ĠDesign":7666,"Ġowners":7667,"Ġap":7668,"Ġsea":7669,"Ġrational":7670,"nections":7671,"Ġconv":7672,"Ġmanager":7673,"Ġintegrated":7674,"desc":7675,"Ġanalyz":7676,"ĠBas":7677,"Ġvictim":7678,"Ġcurvature":7679,"128":7680,"Ġtrace":7681,"Ġdrug":7682,"Em":7683,"ĠAtl":7684,"ĠSpace":7685,"arios":7686,"Ġopposite":7687,"support":7688,"Mark":7689,"Ġadopted":7690,"Ġcryst":7691,"ĠAny":7692,"ĠLin":7693,"Ġexplan":7694,"ads":7695,"igan":7696,"night":7697,"Ġship":7698,"ĠWay":7699,"Ġsky":7700,"Ġsides":7701,"Component":7702,"ptic":7703,"ĠAcademy":7704,"ĠLouis":7705,"Ġreader":7706,"ĠAND":7707,"scope":7708,"HC":7709,"rob":7710,"%)":7711,"Ġraised":7712,"possible":7713,"hab":7714,"Ġluminosity":7715,"plane":7716,"Ġgeneric":7717,"Ġprofiles":7718,"ĠWood":7719,"Ġdream":7720,"ĠMartin":7721,"Ġhappy":7722,"Ġordered":7723,"adata":7724,"apes":7725,"ĠGeorg":7726,"omin":7727,"Suppose":7728,"elligence":7729,"lik":7730,"ĠÂ»":7731,"Ġassuming":7732,"Ser":7733,"request":7734,"John":7735,"Token":7736,"Ġouter":7737,"fol":7738,"ĠCath":7739,"ãģ":7740,"structure":7741,"points":7742,"push":7743,"Options":7744,"HO":7745,"Sum":7746,"ician":7747,"general":7748,"Ġcircum":7749,"ĠReport":7750,"Ġmagnet":7751,"ja":7752,"asion":7753,"sem":7754,"rastructure":7755,"Ġcorrection":7756,"phantom":7757,"Ġbrain":7758,"Ġbuff":7759,"Ġnarrow":7760,"(-\\":7761,"Ġenhance":7762,"Ġsuppose":7763,"Ġimprovement":7764,"cean":7765,"find":7766,"apped":7767,"ĠOlymp":7768,"Ġrich":7769,"just":7770,"Ġdie":7771,"Ġdatabase":7772,"Ġaspects":7773,"elect":7774,"ierarch":7775,"aved":7776,"sts":7777,"kins":7778,"Ġofficials":7779,"ĠCanadian":7780,"ĠHuman":7781,"ME":7782,"textcolor":7783,"large":7784,"Ġarticles":7785,"ĠReturn":7786,"Ġexpos":7787,"ĠBr":7788,"Ġsupply":7789,"Ġspeech":7790,"Ġspecifically":7791,"uty":7792,"Ġreaction":7793,"Ġsession":7794,"Ġbundle":7795,"ĠDet":7796,"append":7797,"Ġpurposes":7798,"Ġindicated":7799,"bour":7800,"Ġinvolving":7801,"backslash":7802,"bet":7803,"ĠCy":7804,"ffect":7805,"ĠCov":7806,"Case":7807,"!\\":7808,"NO":7809,"Ġdefe":7810,"oves":7811,"Why":7812,"arity":7813,"ĠLic":7814,"Po":7815,"ĠRussia":7816,"Ġincident":7817,"sd":7818,"ĠAv":7819,"CK":7820,"Ġ<<":7821,"Ġdx":7822,"Number":7823,"Ġeigenvalues":7824,"Ġpartner":7825,"Ġforced":7826,"Ġsetup":7827,"semble":7828,"Ġentries":7829,"Xi":7830,"Function":7831,"Ġ\"\"\"":7832,"enses":7833,"Ġconvent":7834,"Ġprivacy":7835,"Ġplas":7836,"ĠMult":7837,"Ġcitiz":7838,"Ġdiss":7839,"Ġarrest":7840,"Ġrecover":7841,"zen":7842,"ĠFamily":7843,"Ġdetector":7844,"take":7845,"Ġopportunities":7846,"obj":7847,"Us":7848,"NE":7849,"life":7850,"aturally":7851,"ĠIreland":7852,"Bo":7853,"ĠArab":7854,"sch":7855,"!]":7856,"element":7857,"Ġfinished":7858,"entry":7859,"usband":7860,"ora":7861,"^*\\":7862,"Ġdedu":7863,"rip":7864,"ĠAbout":7865,"rins":7866,"Ġfeet":7867,"ented":7868,"show":7869,"ĠWho":7870,"600":7871,"ĠJoe":7872,"chain":7873,"1970":7874,"Ġfaster":7875,"Ġlibrary":7876,"Ġfloor":7877,"Ġlie":7878,"hu":7879,"Check":7880,"Ġcharacteristics":7881,"ãĥ":7882,"Ġboolean":7883,"Ġpractical":7884,"ĠZeal":7885,"esian":7886,"ĠSecret":7887,"BR":7888,"Ġmarked":7889,"Ġmeas":7890,"People":7891,"isted":7892,"Ġappearance":7893,"ĠWhy":7894,"ĠIll":7895,"Ġwarm":7896,"Ã¤":7897,"ĠChristmas":7898,"Ġkin":7899,"har":7900,"Ġfan":7901,"Ġcaref":7902,"Ġfashion":7903,"Ġcritic":7904,"isson":7905,"ĠChicago":7906,"Ġfluctuations":7907,"Two":7908,"corollary":7909,"Ġoccup":7910,"ĠJim":7911,"@{":7912,"Ġ,\\":7913,"Ġmeant":7914,".\\\\":7915,"Ġstock":7916,"tw":7917,"Ġdiscrim":7918,")^\\":7919,"Ġcommit":7920,"Ġequivalence":7921,"Ġroute":7922,"DC":7923,"Ġbattle":7924,"MO":7925,"Â©":7926,"Ġelectronic":7927,"Ġrepeated":7928,"meta":7929,"finite":7930,"sole":7931,"equations":7932,"Ġlegis":7933,"Ġconfigurations":7934,"Ġexclud":7935,"stood":7936,"BL":7937,"Ġquantity":7938,"Ġ\\,\\":7939,"Ġexcited":7940,"Ġcoupled":7941,"thlet":7942,"Ġinsert":7943,"Ġbed":7944,"Ġlaunched":7945,"Ġoriginally":7946,"oupl":7947,"augh":7948,"RR":7949,"Page":7950,"ĠMany":7951,"Ġfigures":7952,"001":7953,"ĠLim":7954,"YPE":7955,"scape":7956,"ĠColl":7957,"Ġdanger":7958,"Ġvisible":7959,"Ġmaybe":7960,"Ġeye":7961,"Ġturb":7962,"there":7963,"$.}":7964,"ĠLine":7965,"ĠZealand":7966,"liament":7967,"Ġeditor":7968,"\"]":7969,"Ġequipment":7970,"Mult":7971,"riminal":7972,"Ġdrink":7973,"tree":7974,"icians":7975,"Ġmixing":7976,"Ġidentical":7977,"Ġconfirm":7978,"Ġresidents":7979,"Ġspac":7980,"het":7981,"Ġcharges":7982,"ructions":7983,"Ġguide":7984,"negative":7985,"Ġmask":7986,"rome":7987,"Ġbond":7988,"ĠCH":7989,"iii":7990,"Ġwidely":7991,"aming":7992,"Ġice":7993,"ĠEU":7994,"ĠHor":7995,"Ġdebut":7996,"BI":7997,"TO":7998,"green":7999,"Ġdirections":8000,"Ġdownload":8001,"Ġnotion":8002,"Ġjobs":8003,"navbar":8004,"Ġfill":8005,"full":8006,"mom":8007,"^*(":8008,"anguages":8009,"oles":8010,"ĠComput":8011,"Ġsell":8012,"Ġacting":8013,"Ġboy":8014,"ilation":8015,"ĠStat":8016,"Ġearth":8017,"Non":8018,"footnotes":8019,"Ġcoach":8020,"rivacy":8021,"ircraft":8022,"Ġperspective":8023,"Return":8024,"parallel":8025,"ĠFilm":8026,"Ġeffectively":8027,"ĠAlgorithm":8028,"1989":8029,"ĠMethod":8030,"ĠSecurity":8031,"ĠDivision":8032,"Are":8033,"Ġbecoming":8034,"Ġtalking":8035,"hot":8036,"Ġflight":8037,"Ġexpressions":8038,"ĠParis":8039,"Ġwest":8040,"Ġclinical":8041,"arser":8042,"ĠOld":8043,"coll":8044,"'_{":8045,"RL":8046,"status":8047,"180":8048,"ĠIsrael":8049,"fa":8050,"Content":8051,"Ġlowest":8052,"Ġvision":8053,"Ġnice":8054,"Ġperturbation":8055,"ĠEnter":8056,"Ġdiscovered":8057,"Ġuniversal":8058,"wa":8059,"Ġcorrections":8060,"Ġversus":8061,"footnotesize":8062,"Ġessentially":8063,"Ġcredit":8064,"Ġdeploy":8065,"crit":8066,"Ġbaseline":8067,"ĠLast":8068,"mes":8069,"Ġwhom":8070,"Ġstuff":8071,"Ġinitially":8072,"Ġbiggest":8073,"Ġconsult":8074,"Ġguess":8075,"ĠConsider":8076,"frame":8077,"Ġshell":8078,"inating":8079,"ĠĠĠĠĠĠĠĠĠĠĠĠĊ":8080,"parameter":8081,"ĠCEO":8082,"Ġspan":8083,"usal":8084,"Li":8085,"Ġpri":8086,"relation":8087,"AME":8088,"Ġfresh":8089,"Ġpeace":8090,"yself":8091,"ĠEp":8092,"Ġflag":8093,"Ġ$^{":8094,"Ġdecrease":8095,"Ġaudience":8096,"Ġdeveloping":8097,"Ġgeometric":8098,"astern":8099,"Assum":8100,"pop":8101,"Ġmolecular":8102,"Mat":8103,"ĠWal":8104,"hor":8105,"Ġreduces":8106,"ĠSaint":8107,"CN":8108,"Ġdependent":8109,"comput":8110,"ĠSpecial":8111,"ifer":8112,"ĠChief":8113,"ĠMedical":8114,"Null":8115,"Ġfitting":8116,"Ġtranslation":8117,"Ġatoms":8118,"ublished":8119,"Ġperforming":8120,"Ġchief":8121,"Ġuncertainties":8122,"SH":8123,"Ġsensitive":8124,"Ġempir":8125,"symm":8126,"Ġenvironmental":8127,"AE":8128,"Ġnormalized":8129,"mt":8130,"Ġgone":8131,"ubble":8132,"len":8133,"etch":8134,"Ġwinning":8135,"Ġphases":8136,"Ġanom":8137,"Although":8138,"Ġdamage":8139,"Prov":8140,"Ġreasonable":8141,"Ġdense":8142,"alities":8143,"Ġgravitational":8144,"ĠWater":8145,"|^{":8146,"ĠGeV":8147,"Ġhousehold":8148,"ĠCast":8149,"ĠCr":8150,"allery":8151,"acent":8152,"ducible":8153,"Ġuniformly":8154,"Ġorganizations":8155,"icular":8156,"iced":8157,"ĠCase":8158,"Ġfra":8159,"Ġconclusion":8160,"ean":8161,"Ġwavelength":8162,"si":8163,"Ġcities":8164,"Ġfre":8165,"Ġsubgroup":8166,"Attribute":8167,"Ġvacuum":8168,"Ġfinds":8169,"Ġfaith":8170,"oton":8171,"ĠHiggs":8172,"Ġdestroy":8173,"Ġhelps":8174,"ĠCharles":8175,"Ġconference":8176,"prov":8177,"stat":8178,"sky":8179,"Ġsenior":8180,"Mem":8181,"Ġaggreg":8182,"ĠVictor":8183,"Ġfont":8184,"Ġarc":8185,"ĠJohnson":8186,"About":8187,"Ga":8188,"Ġcloser":8189,"orrow":8190,"Ġsensitivity":8191,"800":8192,"ĠAmazon":8193,"Ġchoices":8194,"Ġseparation":8195,"ĠUse":8196,"Ġfamous":8197,"Ġkick":8198,"$^{":8199,"Ġprepar":8200,"Ġresidual":8201,"background":8202,"Ġended":8203,"service":8204,"atever":8205,"mal":8206,"ĠPenn":8207,"Ġemployed":8208,"Ġmes":8209,"ĠNext":8210,"jpg":8211,"gal":8212,"duction":8213,"shire":8214,"downarrow":8215,"rangian":8216,"Ġupdates":8217,"cline":8218,"urance":8219,"Ġmetrics":8220,"Ġcouldn":8221,"ĠApple":8222,"sequently":8223,"Left":8224,"ĠCarolina":8225,"kern":8226,"Ġdedicated":8227,"ponents":8228,"Ġisot":8229,"160":8230,"ĠField":8231,"Ġpolarization":8232,"ĠValley":8233,"Ġinterpretation":8234,"Ġthread":8235,"ĠKingdom":8236,"ture":8237,"circle":8238,"Ġdemonstrated":8239,"Ġexcellent":8240,"Ġseeing":8241,"Ġscope":8242,"Ġmatches":8243,"ĠUN":8244,"Ġmiles":8245,"Ġcars":8246,"Ġparticipants":8247,"ĠSuppose":8248,"Ġglass":8249,"Ġcommut":8250,"Ġprecision":8251,"Ġbeat":8252,"PH":8253,"Ġconcerns":8254,"iner":8255,"ĠTaylor":8256,"ĠFestival":8257,"History":8258,"ĠSom":8259,"Ġperiodic":8260,"erves":8261,"Ġgenerating":8262,"Ġends":8263,"ĠGener":8264,"ĠNet":8265,"KE":8266,"ĠNY":8267,"|$":8268,"Child":8269,"ĠInternet":8270,"sor":8271,"isot":8272,"ĠSpring":8273,"Ġsolving":8274,"ymmetric":8275,"Ġadvers":8276,"-(":8277,"Ġsummary":8278,"ĠDev":8279,"ramework":8280,"IO":8281,"Ġeast":8282,"[\"":8283,"estic":8284,"Ġcrucial":8285,"Ġlift":8286,"ĠInvest":8287,"short":8288,"Ġsecondary":8289,"Ġscenarios":8290,"Ġlabor":8291,"True":8292,"Ġshut":8293,"unte":8294,"Ġbroken":8295,"Ġcontribute":8296,"*}[":8297,"ĠJones":8298,"ĠNon":8299,"INT":8300,"jecture":8301,"ĠRam":8302,"mode":8303,"ĠDown":8304,"odd":8305,"Ġbreaking":8306,"ĠLibrary":8307,"Ġentertain":8308,"May":8309,"cussion":8310,"control":8311,"Ġprison":8312,"}/\\":8313,"Ġraise":8314,"Another":8315,"Ġnumerous":8316,"regular":8317,"~(\\":8318,"Instance":8319,"ĠFourier":8320,"Ġfacilities":8321,"aug":8322,"GS":8323,"Ġkeeping":8324,"private":8325,"Ġvideos":8326,"ĠĠĠĠĠĠĠĠĠĠĠĠĠĠĠĠĠĠĠĠĠĠĠĠĠĠĠĠĠĠĠĠĠĠĠĠĠĠĠĠĠĠĠĠĠĠĠĠĠĠĠĠĠĠĠĠĠĠĠĠĠĠĠĠ":8327,"Ġdiscover":8328,"Ġattend":8329,"Ġvariations":8330,"Ġboost":8331,"Hom":8332,"update":8333,"Ġclosely":8334,"Ġiteration":8335,"ĠFoot":8336,"Ġphil":8337,"Ġdegener":8338,"emporary":8339,"{(\\":8340,"ultural":8341,"Ġburn":8342,"ifest":8343,"Ġaudio":8344,"ogram":8345,"ĠDC":8346,"Ġinfer":8347,"urban":8348,"Ġfrequencies":8349,"ativ":8350,"ye":8351,"alf":8352,"ĠCA":8353,"Ġthin":8354,"Ġrepresenting":8355,"Ġclients":8356,"1988":8357,"ipeline":8358,"boldmath":8359,"Ġhusband":8360,"ĠMexico":8361,"Ġsexual":8362,")(\\":8363,"rateg":8364,"Ġmanaged":8365,"Ġscores":8366,"ĠView":8367,"Ġcontrolled":8368,"Ġhistorical":8369,"continu":8370,"Ġdeviation":8371,"Ġdoll":8372,"quant":8373,"Ġprotection":8374,"xml":8375,"Ġinvolve":8376,"Ġmyself":8377,"Ġassigned":8378,"Ġcorner":8379,"chor":8380,"Ġpet":8381,"ĠRo":8382,"Ġsho":8383,"Ġexceed":8384,"Book":8385,"101":8386,"$}}":8387,"ĠSand":8388,"Ġvehicles":8389,"poration":8390,"rance":8391,"ART":8392,"ĠAwards":8393,"ptr":8394,"GE":8395,"ĠMen":8396,"ĠLab":8397,"Ġenable":8398,"Ġ+=":8399,"'.":8400,"ĠSC":8401,"Ġcreation":8402,"Ġdriver":8403,"pred":8404,"Ġindices":8405,"Ġhalo":8406,"ela":8407,"Ġowner":8408,"Ġconvolution":8409,"Ġaccret":8410,"clip":8411,"Tag":8412,"Ġbuildings":8413,"Ġverify":8414,"Handler":8415,"Ġstraightforward":8416,"unicip":8417,"ĠKar":8418,"Ġrid":8419,"format":8420,"Ġmodeling":8421,"LASS":8422,"Ġpresents":8423,"anche":8424,"Ġran":8425,"Ġexerc":8426,"Ġglob":8427,"Ġdocuments":8428,"jective":8429,"Ġexcess":8430,"Ġintermediate":8431,"GA":8432,"ĠAdv":8433,"Ġseconds":8434,"instein":8435,"Ġabsence":8436,"Ġcustomer":8437,"ĠPC":8438,"Ke":8439,"Ġcarbon":8440,"Ġrecognition":8441,"ĠOnly":8442,"Ġcomfort":8443,"Ġmac":8444,"square":8445,"Ġknows":8446,"Ġdecades":8447,"erry":8448,"ĠDM":8449,"Ġcrisis":8450,"multline":8451,"1987":8452,"Ø§":8453,"Ġadministration":8454,"Ġmessages":8455,"Ġinstances":8456,"Ġquadratic":8457,"arithm":8458,"Ġretain":8459,"ĠGre":8460,"dependence":8461,"dep":8462,"ĠIran":8463,"Ġabsorption":8464,"ABLE":8465,"Ste":8466,"ĠOnline":8467,"osoph":8468,"wan":8469,"}$\\":8470,"note":8471,"ĠGR":8472,"ictures":8473,"Dec":8474,"odcast":8475,"ulating":8476,"ĠIndust":8477,"Ġprincipal":8478,")}(\\":8479,"ucl":8480,"Ġoffset":8481,"125":8482,"Ġnine":8483,"ĠRights":8484,"ĠChris":8485,"ĠCR":8486,"Ġstead":8487,"Ġtells":8488,"Ġentirely":8489,"Ġcriteria":8490,"ĠAT":8491,")}.":8492,"uparrow":8493,"Ġschemes":8494,"alls":8495,"jected":8496,"ĠSN":8497,"src":8498,"ĠPolice":8499,"nol":8500,"Ġ((":8501,"Ġchallenging":8502,"ĠTO":8503,"Ġelectrons":8504,"BH":8505,"lie":8506,"eger":8507,"verage":8508,"lets":8509,"Ġcatalog":8510,"Ġsuccessfully":8511,"ĠSD":8512,"ĠLo":8513,"uzz":8514,"resp":8515,"Ġeasier":8516,"ĠWrit":8517,"Ġtopic":8518,"Ġvaccine":8519,"iana":8520,"ersonal":8521,"ĠĠčĊ":8522,"Ġpowers":8523,"Ġcauses":8524,"Ġopinion":8525,"wave":8526,"ĠSpanish":8527,"ORT":8528,"supp":8529,"MT":8530,"Ġanalys":8531,"Posted":8532,"Ġpsych":8533,"Ġweather":8534,"Ġtriang":8535,"ĠNOT":8536,"uries":8537,"Ġdecisions":8538,"ĠReal":8539,"Ġthousands":8540,"Ġneutral":8541,"aka":8542,"ĠEX":8543,"Ġformulation":8544,"ĠAsia":8545,"FS":8546,"Ġtang":8547,"Ġuniverse":8548,"Ġstrictly":8549,"Each":8550,"$-$":8551,"allow":8552,"Ġdivided":8553,"Ġamaz":8554,"ĠAnother":8555,"ĠItalian":8556,"III":8557,"Ġtwice":8558,"esides":8559,"ĠBra":8560,"Ġcultural":8561,"ĠAuthor":8562,"itory":8563,"imation":8564,"ĠSE":8565,"ĠAgain":8566,"ctic":8567,"ĠVirginia":8568,"PRO":8569,"Dist":8570,"LR":8571,"orney":8572,"hfill":8573,"herical":8574,"track":8575,"ĠIslam":8576,"Ġsurfaces":8577,"ceil":8578,"Ġextent":8579,"Ġorbital":8580,"ĠOR":8581,"json":8582,"Writ":8583,"Ġexpectation":8584,"Ġtemporal":8585,"ĠĠĠĠĠĠĠĠĠĠĠĠĠĠĠĠĠĠĠĠ":8586,"udd":8587,"AND":8588,"imately":8589,"\\!\\":8590,"water":8591,"ĠMot":8592,"bot":8593,"Ġtopology":8594,"ĠSports":8595,"Ġwitness":8596,"ĠOrgan":8597,"256":8598,"Ġunderstood":8599,"Ġreviews":8600,"Ġleadership":8601,"WE":8602,"Ġleague":8603,"Ġviolence":8604,"hard":8605,"}.}":8606,"Ġrelationships":8607,"Ġscript":8608,"razil":8609,"Ġprecise":8610,"ĠLike":8611,"Ġcomplement":8612,"ĠSciences":8613,"Ġinspired":8614,"ĠItaly":8615,"fortunately":8616,"Ġyourself":8617,"ĠHon":8618,"theless":8619,"BU":8620,"Ġing":8621,"Ġhierarch":8622,"stackrel":8623,"Ġtransitions":8624,"Don":8625,"Ġcovering":8626,"ermi":8627,"ĠHead":8628,"Ġreward":8629,"Ã¢":8630,"cape":8631,"Ġstandards":8632,"global":8633,"Ġpil":8634,"Ġversions":8635,"&=&\\":8636,"ĠScot":8637,"ni":8638,"Ġinvestigated":8639,"Ġautomatically":8640,"Ġorthogonal":8641,"Ġfuel":8642,"Ġstreet":8643,"ĠAud":8644,"ĠMA":8645,"ailed":8646,"card":8647,"Ġpolynomials":8648,"lat":8649,"wt":8650,"Ġweap":8651,"uf":8652,"ogether":8653,"Ġoffering":8654,"Ġfib":8655,"Ġpotentially":8656,"Ġinterior":8657,"stone":8658,"Ġguy":8659,"Ġpuls":8660,")_{\\":8661,"Ġcolumns":8662,"ãĤ":8663,"iano":8664,"Up":8665,"acific":8666,"Ġdensities":8667,"Ġdrawn":8668,"ĠPS":8669,"iser":8670,"Buffer":8671,"Ġhomogeneous":8672,"Long":8673,"ascript":8674,"Ġscientific":8675,"BE":8676,"utch":8677,"Ġofficer":8678,"{|":8679,"Web":8680,"Ġsystematic":8681,"output":8682,"ĠHa":8683,"ĠExec":8684,"Ġreferences":8685,"Ġtruly":8686,"Ġ\\|\\":8687,"iki":8688,"invariant":8689,"Ġdominant":8690,"aton":8691,"ĠEll":8692,"eper":8693,"phase":8694,"Default":8695,"pool":8696,"iy":8697,"Ġcontrols":8698,"Ġtracks":8699,"Ġstronger":8700,"Ġapprec":8701,"Ġcoast":8702,"Ġintroduction":8703,"rinsic":8704,"rog":8705,"Med":8706,"\\|_":8707,"Ġpapers":8708,"forms":8709,"Ġ}}":8710,"Ġdecreases":8711,"Ġresearchers":8712,"leftarrow":8713,"hl":8714,"Ġdeli":8715,"Ġinclusion":8716,"Ġdiffusion":8717,"sen":8718,"ĠFood":8719,"Ġpassing":8720,"Ġzone":8721,"Ġconjug":8722,"$^":8723,"??":8724,"ĠPoint":8725,"Ġfavorite":8726,"Ġcolour":8727,"Ġfear":8728,"Ġsupers":8729,"ĠSar":8730,"=\\{":8731,"ĠColor":8732,"Ġ{}":8733,"fast":8734,"thon":8735,"mathtt":8736,"Ġissued":8737,"look":8738,"Ġanimals":8739,"udden":8740,"Ġedition":8741,"ienced":8742,"Ġworst":8743,"Ġneutrino":8744,"ĠJon":8745,"dens":8746,"Ġsevere":8747,"lope":8748,"Ġlens":8749,"GeV":8750,"Ġnaturally":8751,"ĠPy":8752,"Ġvot":8753,"isters":8754,"Ġworse":8755,"Ġmedian":8756,"endar":8757,"Ġsubsequent":8758,"Ġfindings":8759,"Ġanalytic":8760,"ĠId":8761,"binom":8762,"Ġdefense":8763,")).":8764,"VD":8765,"Ġclaimed":8766,"1986":8767,"Ġsharing":8768,"Ġmultip":8769,"Ġthrows":8770,"ĠSenate":8771,"problem":8772,"Conn":8773,"Ġintended":8774,"Ġmathemat":8775,"arian":8776,"domain":8777,"tz":8778,"asketball":8779,"ĠAff":8780,"&&\\":8781,"Ġspring":8782,"Ġ_{\\":8783,"ync":8784,".$$":8785,"Ġrestricted":8786,"Version":8787,"ova":8788,"REF":8789,"ĠTem":8790,"Ġadvice":8791,"Ġrandomly":8792,"iated":8793,"kers":8794,"ĠBlue":8795,"typ":8796,"ĠForce":8797,"Factory":8798,"Ġcompre":8799,"raise":8800,"Ġcontinuum":8801,"Ġhero":8802,"Ġadvanced":8803,"Ġextreme":8804,"Ġrespective":8805,"Ġmarketing":8806,"Ġhybrid":8807,"Also":8808,"Ġdelivery":8809,"Ġcodes":8810,"Ġdepartment":8811,"Ġlikelihood":8812,"Ġliquid":8813,"Ġhorizontal":8814,"Ġillustr":8815,"1984":8816,"Ġemot":8817,"inity":8818,"Ġfeeling":8819,"zy":8820,"Ġhair":8821,"Ġdriven":8822,"utely":8823,"Ġstands":8824,"VM":8825,"Ġexperiences":8826,"Ġprices":8827,"Ġclassic":8828,"Ġrepresentative":8829,"Command":8830,"Ġpp":8831,"$'":8832,"Men":8833,"enger":8834,"phy":8835,"Ġsupporting":8836,"Ġstatements":8837,"Ġkill":8838,"ynamics":8839,"SON":8840,"observ":8841,"Ġwouldn":8842,"ĠMike":8843,"ĠCorollary":8844,"Ġregression":8845,"Ġinvolves":8846,"Ġmoves":8847,"Ġcorrelations":8848,"textsf":8849,"Ġconnections":8850,"thick":8851,"Ġexecution":8852,"Ġsimilarly":8853,"ĉĠĠĠ":8854,"ĠCho":8855,"Ġderivatives":8856,"bc":8857,"Ġvarying":8858,"123":8859,"Ġjourney":8860,"enced":8861,"Ġtrip":8862,"Ġsport":8863,"Ġ\\[":8864,"ĠCard":8865,"Ġmotor":8866,"params":8867,"when":8868,"Ġhorizon":8869,"ĠLight":8870,"Ġproportional":8871,"Ġaren":8872,"Load":8873,"aste":8874,"Ġoutcome":8875,"ĠPage":8876,"ĠAndrew":8877,"ĠExt":8878,"filter":8879,"\").":8880,"instance":8881,"ĠCross":8882,"Ear":8883,"drop":8884,"Will":8885,"Ġaircraft":8886,"Ġpermut":8887,"inet":8888,"std":8889,"tool":8890,"Ġsatell":8891,"ĠÂ©":8892,"Ġlived":8893,"Ġcommonly":8894,"Ġmetall":8895,"Ġappeal":8896,"$\\\\":8897,"ĉĠ":8898,"Ġinfo":8899,"ĠBow":8900,"Ġnative":8901,"Ġelli":8902,"ĠInstead":8903,"cknowledg":8904,"Ġguitar":8905,"ributed":8906,"ĠHistor":8907,"BB":8908,"Ġgenerator":8909,"Ġdistances":8910,"gery":8911,"irror":8912,"Any":8913,"itage":8914,"textup":8915,"Ġfilled":8916,"measure":8917,"varrho":8918,"older":8919,"response":8920,"Ġsimulated":8921,"ĠCheck":8922,"mond":8923,"Ġalgebraic":8924,"forcement":8925,"dash":8926,"ĠWall":8927,"oston":8928,"ĠPolit":8929,"ĠĠĠĠĠĠĠĠĠĠĠĠĠĠĠĠĠĠĠĠĠ":8930,"ĠBern":8931,"propto":8932,"Ġbroadcast":8933,"ugh":8934,"_{+":8935,"Ġweighted":8936,"ali":8937,"Open":8938,"1960":8939,"Ġseemed":8940,"Ġcir":8941,"ĉĉĉĊ":8942,"athan":8943,"ints":8944,"ĠAnalysis":8945,"Ġidentification":8946,"Ġdispersion":8947,"Ġbenchmark":8948,"Ġ~\\":8949,"Ġroughly":8950,"à¥":8951,"MD":8952,"imb":8953,"ĠVan":8954,"iples":8955,"Ġanalyze":8956,"]^":8957,"Ġconsisting":8958,"nm":8959,"Equal":8960,"ulner":8961,"ione":8962,"pres":8963,"ati":8964,"orders":8965,"\"),":8966,"sep":8967,"Ġcalling":8968,"iliar":8969,"Ġfant":8970,"Ġban":8971,"Ġsomewhat":8972,"Ġ---":8973,"Ġadvance":8974,"Ġsale":8975,"midrule":8976,"iday":8977,"Under":8978,"Ġ\\{\\":8979,"UI":8980,"ĠAL":8981,"Ġpanels":8982,"represent":8983,"Ġorganized":8984,"Ġheav":8985,"Ġbegins":8986,"ĠSep":8987,"Ġmountain":8988,"ressive":8989,"Ġ(\"":8990,"irds":8991,"ĠMiddle":8992,"hav":8993,"ĠConn":8994,"Ġuniqu":8995,"sym":8996,"Ġrecovery":8997,"Ġnotes":8998,"Script":8999,"menu":9000,"ste":9001,"layout":9002,"Ġpieces":9003,"arest":9004,"since":9005,"hh":9006,")&":9007,"ĠLive":9008,"gypt":9009,"estion":9010,"istence":9011,"Ġisland":9012,"ws":9013,"Ġreconstruction":9014,"blem":9015,"inction":9016,"ĠSimilarly":9017,"category":9018,"ĠPop":9019,"ĠOnce":9020,"Ġlargely":9021,"\\},":9022,"Ġposted":9023,"ĠFort":9024,"Ġactor":9025,"Ġmeta":9026,"Ġdomains":9027,"Ð»":9028,"INE":9029,"DO":9030,"ĠBiden":9031,"Ġcrime":9032,"ushed":9033,"ĠAmericans":9034,"ĠMicrosoft":9035,"Ġaccounts":9036,"Ġfacility":9037,"friend":9038,"}^{+":9039,"Ġextracted":9040,"ucky":9041,"Ġconcentration":9042,"ses":9043,"1985":9044,",.":9045,"Ġgate":9046,"iger":9047,"').":9048,"Ġsignature":9049,"hr":9050,"Ġmodules":9051,"Ġdefinitions":9052,"ĠJeff":9053,"ĠGeorgia":9054,"ĠNight":9055,"ĠPA":9056,"Ġdefines":9057,"have":9058,"Ġsupports":9059,"hered":9060,"Local":9061,"gather":9062,"DT":9063,"Jan":9064,"Ġrespond":9065,"imits":9066,"ested":9067,"Ġagreed":9068,"Ġsubspace":9069,"pot":9070,"Ġwww":9071,"scriptscriptstyle":9072,"Ġprepared":9073,"Tem":9074,"}[!":9075,"ĠJoseph":9076,"Ġsecure":9077,"ĠJes":9078,"agram":9079,"CF":9080,"density":9081,"missions":9082,"STATE":9083,"ĠStudies":9084,"component":9085,"Pat":9086,"Dr":9087,"itan":9088,"Ġdivision":9089,"Ġincorpor":9090,"ĠWilson":9091,"ĠGovern":9092,"ĠLord":9093,"Ġtrajectory":9094,"ĠLink":9095,"Ġ{$\\":9096,"}{*}{":9097,"Just":9098,"Ġdominated":9099,"erion":9100,"ĠKen":9101,"Ġcookies":9102,"Ġsurrounding":9103,"ĠKey":9104,"connected":9105,"ĠCatholic":9106,"urable":9107,"Ġnearby":9108,"container":9109,"ĠMarket":9110,"cross":9111,"Ġsupposed":9112,"Ġepoch":9113,"overset":9114,"ĠGuide":9115,"Ġremained":9116,"utor":9117,"Ġstations":9118,"Ġratios":9119,"ĠTerm":9120,"Ġplasma":9121,"Ag":9122,"Ġcircuit":9123,"Ġcomposed":9124,"Ġbrings":9125,"ĠCNN":9126,"Ġprotein":9127,"Ġmental":9128,"\\}.":9129,"Ġannounce":9130,"leqslant":9131,")[":9132,"Proposition":9133,"nings":9134,"ĠTri":9135,"Ġreligious":9136,"Ġrestriction":9137,"Ġcav":9138,"ĠIT":9139,"Arg":9140,"Ġwire":9141,"})^{":9142,"ĠGL":9143,"Ġfunds":9144,"Ġdiscussions":9145,"Ġrout":9146,"textnormal":9147,"ĠGar":9148,"found":9149,"ĠMS":9150,"exists":9151,"ĠSi":9152,"Ġfacts":9153,"ĠSa":9154,"ĠWhe":9155,"Ġinfrastructure":9156,"Ġlanguages":9157,"ĠLiber":9158,"CON":9159,"Ġmarkets":9160,"!âĢĿ":9161,"Step":9162,"common":9163,"ican":9164,"ĠWilliams":9165,"Ġtransverse":9166,"uon":9167,"Ġskin":9168,"ĠPlease":9169,"comb":9170,"Ġfits":9171,"Ġorientation":9172,"Ġproposition":9173,"ĠFederal":9174,"uer":9175,"ĠAdminist":9176,"ĠHospital":9177,"di":9178,"ĠBol":9179,"Ġaccretion":9180,"Ġdoub":9181,"Ġillustrated":9182,"adium":9183,"Gen":9184,"root":9185,"ĠSign":9186,"Ġfif":9187,"Ġproduces":9188,"Ġpractices":9189,"bell":9190,"Cref":9191,"Sche":9192,"amin":9193,"Ġfounded":9194,"racket":9195,"ĠLore":9196,"wer":9197,"ĠCa":9198,"Ġaug":9199,"signed":9200,"Ġirreducible":9201,"Ġexecutive":9202,"Ġaccepted":9203,")}$.":9204,"sn":9205,"different":9206,"Ġdiffer":9207,"Ġinputs":9208,"Ġwaiting":9209,"ictionary":9210,"Ġfinish":9211,"Ġsimultaneously":9212,"ĠRa":9213,"ibilities":9214,",...,":9215,"Ġdip":9216,"igu":9217,"Ġrating":9218,"Ġimmediate":9219,"Style":9220,"ilipp":9221,"Select":9222,"functions":9223,"Ġcovers":9224,"Ġweekend":9225,"hensive":9226,"Current":9227,"ĠCur":9228,"cycle":9229,"ĠConference":9230,"Ġspend":9231,"inson":9232,"}>":9233,"pic":9234,"Ġlaser":9235,"Ġdiagrams":9236,"ĠChampionship":9237,"irection":9238,"Bigg":9239,"Ġassociation":9240,"ĠEnt":9241,"Ġsigns":9242,"Ġinference":9243,"Ġdram":9244,"ĠAPI":9245,"bigcup":9246,"Ġattribute":9247,"Ġengineering":9248,"Before":9249,"ĠMov":9250,"Ġconventional":9251,"Ġatomic":9252,"match":9253,"Ġ<!--":9254,"Ġcub":9255,"Ã¨":9256,"ĠSO":9257,"Ġcollision":9258,"ĠHenry":9259,"Ġsleep":9260,"Ġhab":9261,"Ġcompatible":9262,"Ġrequirement":9263,"inear":9264,"Ġcomplicated":9265,"Ġprogramming":9266,"Ġapplies":9267,"Ġking":9268,"ulty":9269,"_{[":9270,"Ġproperly":9271,"ospit":9272,"uling":9273,"IB":9274,"Ġfle":9275,"Ġconcerned":9276,"Ġtransformations":9277,"Ġsentence":9278,"ĠWild":9279,"Ġmechanisms":9280,"Ġconservation":9281,"even":9282,"ativistic":9283,"iro":9284,"citealt":9285,"mean":9286,"Ã§":9287,"âĢī":9288,"ĠUV":9289,"Ġpixel":9290,"formed":9291,"Ġpolitics":9292,"ubb":9293,"$\\,":9294,"Ġuniversity":9295,"Ġbatter":9296,"ĠEmp":9297,"also":9298,"kit":9299,"Sign":9300,"bro":9301,"conduct":9302,"Ġsympt":9303,"Ġsubsc":9304,"direct":9305,"aked":9306,"Ġsimilarity":9307,"ĠRay":9308,"ĠLagrangian":9309,"Ġofficers":9310,"Ġfeatured":9311,"ribed":9312,"Ġexposure":9313,"Task":9314,"ĠSupport":9315,"ĠEquation":9316,"Second":9317,"Ġelected":9318,"Ġmusical":9319,"Ġhelping":9320,"ĠPass":9321,"idential":9322,"ordan":9323,"plex":9324,"Ġduration":9325,"complete":9326,"ĠIP":9327,"Ġful":9328,"orters":9329,"Ġchair":9330,"ĠCovid":9331,"files":9332,"Ġcitizens":9333,"ipe":9334,"Ġcharacterized":9335,"ĠMajor":9336,"rison":9337,"ĠDaniel":9338,"Layout":9339,"efined":9340,"{.":9341,"leton":9342,"lywood":9343,"idents":9344,"ipart":9345,"news":9346,"Ġyouth":9347,"Ġadvent":9348,"FP":9349,"Ġkid":9350,"Ġsolved":9351,"\\}_{":9352,"rays":9353,"ĠMC":9354,"aks":9355,"Create":9356,"ima":9357,"GM":9358,"umes":9359,"Ġconvenient":9360,"ĠPrem":9361,"orough":9362,"?\"":9363,"Ġinduction":9364,"ĠRail":9365,"ĠFar":9366,"Ĥ¬":9367,"Ġmm":9368,"Ġflows":9369,"Ġextensive":9370,"ALL":9371,"ĠMid":9372,"opes":9373,"ĠSup":9374,"Ġplants":9375,"Ġexperienced":9376,"Search":9377,"General":9378,"uan":9379,"\\[\\":9380,"ĠEst":9381,"rival":9382,"VER":9383,"strap":9384,"Ġtargets":9385,"subequations":9386,"aded":9387,"javascript":9388,"ĠAst":9389,"cp":9390,"ĠJustice":9391,"gets":9392,"Ġsimplicity":9393,"ted":9394,"Ġphotons":9395,"Ġsurve":9396,"grade":9397,"Sing":9398,"Ġcolors":9399,"ĠNever":9400,"closed":9401,"imer":9402,"endif":9403,"Update":9404,"Ġfaces":9405,"pin":9406,"Ġlisten":9407,"ĠBase":9408,"Ġmovies":9409,"Format":9410,"ĠAI":9411,"Ġtemplate":9412,"smallskip":9413,"HD":9414,"Button":9415,"itudes":9416,"vity":9417,"ĠRepublican":9418,"ulator":9419,"NC":9420,"Dev":9421,"including":9422,"=>":9423,"Ġreads":9424,"Ġensemble":9425,"Ġprimarily":9426,"Ġconditional":9427,"Ġentity":9428,"ervation":9429,"onym":9430,"Sl":9431,"Ġresonance":9432,"styles":9433,"should":9434,"Ġimply":9435,"Ġremote":9436,"Phys":9437,"impl":9438,"*/":9439,"document":9440,"Ðº":9441,"Description":9442,"Target":9443,"iemann":9444,"Port":9445,"During":9446,"oir":9447,".âĢĻ":9448,"Ġherself":9449,"Ġempirical":9450,"Ġtoken":9451,"Contain":9452,"Ġbelieved":9453,"defn":9454,"Ġcounty":9455,"Ġalgebras":9456,"erg":9457,"Ġsumm":9458,"Ġmanufacture":9459,"bury":9460,"Ġcircumst":9461,"mo":9462,"ootstrap":9463,"Ġcomparable":9464,"Ġestimator":9465,"Ġquot":9466,"ĠOrder":9467,"Ġroots":9468,"Ġvoc":9469,"alty":9470,"Ġregistered":9471,"aling":9472,"Ġ{@":9473,"Ġspeaking":9474,"ila":9475,"Ġabstract":9476,"ĠRecords":9477,"ĠHilbert":9478,"Ġtourn":9479,"ĠKim":9480,"ĠLocal":9481,"Ġretrie":9482,")>":9483,"Ġrealized":9484,"ĠEnvironment":9485,"Ġtechnologies":9486,"Ġsymbols":9487,"Ġfeas":9488,"Ġneither":9489,"ĠMap":9490,"Ġportion":9491,"Ġseat":9492,"ez":9493,"UM":9494,"ĠDigital":9495,"ĠAvenue":9496,"Ġapplicable":9497,"uv":9498,"Ġimpossible":9499,"Ġthr":9500,"vironments":9501,"ĠName":9502,"Ġdoubt":9503,"amber":9504,"ĠBritain":9505,"iot":9506,"Ġsphere":9507,"ymmetry":9508,"Ġcomparing":9509,"Ġwatching":9510,"Ġmoder":9511,"Ġdraft":9512,"Dav":9513,"ouch":9514,")}$,":9515,"elian":9516,"classes":9517,"Ġrestrictions":9518,"ĠBan":9519,"Ġseparated":9520,"comment":9521,"}^+":9522,"clos":9523,"ĠMedicine":9524,"Ġstabil":9525,"ĠObama":9526,"tun":9527,"ĠNorthern":9528,"utr":9529,"Ġdefinitely":9530,"Main":9531,"reference":9532,"ĠDate":9533,"ĠKn":9534,"ograp":9535,"aped":9536,"vy":9537,"Down":9538,"Ġamazing":9539,"liography":9540,"Ġgirls":9541,"Ġexperts":9542,"lower":9543,"ttp":9544,"Const":9545,"Ġinjury":9546,"Ġwhenever":9547,"Ġpurchase":9548,"}{{\\":9549,"ĠMuslim":9550,"Ġphotos":9551,"eld":9552,"uing":9553,"asp":9554,"sid":9555,"Desc":9556,"oral":9557,"Ġswe":9558,"Ġexplanation":9559,"erving":9560,"abeth":9561,"trivial":9562,"ĠConst":9563,"1983":9564,"specific":9565,"uable":9566,"gray":9567,"Ġintervals":9568,"ĠML":9569,"ĠMO":9570,"Ġtransaction":9571,"bits":9572,"ĠEr":9573,"Ġagency":9574,"Ġadjacent":9575,")),":9576,"ACK":9577,"ĠWalk":9578,"assum":9579,"groups":9580,"ĠRadio":9581,"ivered":9582,"Ġcash":9583,"Ġpal":9584,"acle":9585,"Ġiron":9586,"Ġgender":9587,"particle":9588,"ĠDonald":9589,"Ac":9590,"arial":9591,"Ġarms":9592,"Living":9593,"Ġframes":9594,"Best":9595,"andra":9596,"ĠTH":9597,"Controller":9598,"ĠVideo":9599,"ĠPDF":9600,"ĠMic":9601,"itter":9602,"Ġfell":9603,"Ġincred":9604,"OK":9605,"ĠBell":9606,"formance":9607,"elly":9608,"^+$":9609,"Ġrobot":9610,"})=\\":9611,"ĠResults":9612,"Ġrev":9613,"Ġcoal":9614,"Column":9615,"rugs":9616,"Ġplate":9617,"ĠEngineering":9618,"ĠThrough":9619,"Ġembedded":9620,"remove":9621,"ĠPR":9622,"ĠBC":9623,"Ġcapable":9624,"Ġshares":9625,"Address":9626,"Ġ\\}":9627,"Ġlinked":9628,"kind":9629,"syl":9630,"cerning":9631,"Ġdivis":9632,"Ġeigenvalue":9633,"Ġchampions":9634,"ĠÂ·":9635,"ApJ":9636,"ortion":9637,"Ġguys":9638,"ĠSwed":9639,"ĠTrust":9640,"spin":9641,"ĠAD":9642,"Ġped":9643,"Ġcooper":9644,"Ġfacilit":9645,"pson":9646,"ĠFrancisco":9647,"moment":9648,"Ġwhatever":9649,"Valid":9650,"ĠHaw":9651,"Every":9652,"ĠToday":9653,"ĠAction":9654,"ĠCode":9655,"Ġconverges":9656,"Ġentered":9657,"modules":9658,"Ġhomes":9659,"izable":9660,"........":9661,"}},\\":9662,"prim":9663,"Ġpointed":9664,"Ġsudden":9665,"words":9666,"Ġloved":9667,"ĠSummer":9668,"ĠThree":9669,"outs":9670,"\\,{\\":9671,"ĠImm":9672,"ĠIrish":9673,"igr":9674,"umps":9675,"anglement":9676,"Ġretail":9677,"Ġreaders":9678,"Ġcreative":9679,"ĠBrazil":9680,"ĠRet":9681,"sync":9682,"Ġprofession":9683,"Ġholding":9684,"Cent":9685,"Ġvictory":9686,"ĠSoft":9687,"cules":9688,"ĠMu":9689,"illy":9690,"Ġregional":9691,"owered":9692,"|_{\\":9693,"Furthermore":9694,"respect":9695,"Red":9696,"Ġstick":9697,"Ġboundaries":9698,"ĠColumb":9699,"ĠHard":9700,"ĠPak":9701,"Ġstationary":9702,"arma":9703,"Ġguarantee":9704,"Ġpromin":9705,"ĠSouthern":9706,"ipl":9707,"ĠFire":9708,"ĠEqs":9709,"ĠRight":9710,"ĠDemocratic":9711,"Ġhousing":9712,"Ġgather":9713,"ĠFootball":9714,"Ġfiber":9715,"|_":9716,"Ġoccurred":9717,"ĠHom":9718,"Ġdefining":9719,"will":9720,"Ġfeat":9721,"notin":9722,"gment":9723,"marg":9724,"layer":9725,"rypt":9726,"Output":9727,"ĠDar":9728,"Ġtracking":9729,"Ġforest":9730,"Ġperiods":9731,"Ġbran":9732,"ĠBa":9733,"Ġrecip":9734,"Ġà¤":9735,"ĠLittle":9736,"Cell":9737,"ori":9738,"Most":9739,"Ġfish":9740,"Ġmanage":9741,"1982":9742,"Ġvulner":9743,"ĠFact":9744,"AU":9745,"ĠNAS":9746,"hs":9747,"Listener":9748,"Ġarrived":9749,"Ġtradition":9750,"inton":9751,"Ġposterior":9752,"Ġgift":9753,"Stat":9754,"ĠYes":9755,"ĠLook":9756,"states":9757,"Ġera":9758,"bd":9759,"ansas":9760,"Ġreconstruct":9761,"Ġfellow":9762,"ĠStart":9763,"Ġinternet":9764,"home":9765,"ceived":9766,"coin":9767,"ĠBru":9768,"ĠJacob":9769,"Ġurl":9770,"Ġsan":9771,"Ġlose":9772,"onto":9773,"Bigl":9774,"Ġstages":9775,"ĠDaily":9776,"uclide":9777,"ĠControl":9778,"ĠEgypt":9779,"Ġdefend":9780,"Ġanimal":9781,"Ġmel":9782,"site":9783,"Ġcollaboration":9784,"ĠBeach":9785,"Ġhumans":9786,"Ġhotel":9787,"RS":9788,"(&":9789,"Ġmere":9790,"learning":9791,"MF":9792,"series":9793,"Ġdiverse":9794,"Ġbelongs":9795,"Ġstret":9796,"Ġescape":9797,"Ġcommission":9798,"special":9799,"Ġtotally":9800,"person":9801,"ains":9802,"Ġaugment":9803,"Ġpopulations":9804,"Level":9805,"Ġpossess":9806,"Ġcolle":9807,"Ġraw":9808,"Ġinterpol":9809,"Ġrapidly":9810,"Ġacademic":9811,"Ġplanned":9812,"Ġdecide":9813,"QL":9814,"Met":9815,"\\|^":9816,"amed":9817,"Ġdescript":9818,"<?":9819,"Ġrom":9820,"ĠLicense":9821,"ĠNav":9822,"Definition":9823,"valued":9824,"front":9825,"VE":9826,"Ġmarriage":9827,"ĠProfessor":9828,"Mode":9829,"organ":9830,"Ġterror":9831,"idelines":9832,"tax":9833,"Ġreducing":9834,"ĠBrook":9835,"Ġemergency":9836,"ĠGirl":9837,"Ġbuffer":9838,"before":9839,"Ġsharp":9840,"ĠCamb":9841,"Ġevening":9842,"Ġcancell":9843,"ĠAp":9844,"ql":9845,"Ġsounds":9846,"ĠLtd":9847,"Ġatom":9848,"vania":9849,"Ġunitary":9850,"Ġstored":9851,"vo":9852,"ĠBrad":9853,"Tube":9854,"%%":9855,"enance":9856,"Ġadvoc":9857,"Ġmob":9858,"requency":9859,"Ġcommitted":9860,"ĠPhot":9861,"constra":9862,"Ġlogarithm":9863,"endent":9864,"ĠSupp":9865,"ĠLO":9866,"Ġmanip":9867,"network":9868,"Ġriver":9869,"aneous":9870,"Ġrows":9871,"Ġlabeled":9872,"ĠWhere":9873,"ĠMaster":9874,"ĠEvent":9875,"enum":9876,"ĠMonte":9877,"abet":9878,"dashed":9879,"vas":9880,"Ġsurprising":9881,"Ġexhibit":9882,"ĠGrant":9883,"Ġappointed":9884,"]]":9885,"ĠPrivacy":9886,"dings":9887,"MI":9888,"Ġris":9889,"Ġstructural":9890,"Ġsight":9891,"Equals":9892,"Ġfermion":9893,"ĠAccess":9894,"Location":9895,"Access":9896,"BP":9897,"Ġreceiving":9898,"Ġdefect":9899,"RT":9900,"aux":9901,"Ġisolated":9902,"Ġdt":9903,"rency":9904,"Ġgiant":9905,"Ġsteady":9906,"substack":9907,"Ġseek":9908,"eh":9909,"Ġcaptured":9910,"Ġholes":9911,"Ġexpensive":9912,"âĢĻ.":9913,"Ġsubsection":9914,"ĠSpain":9915,"uclidean":9916,"ĠBoston":9917,"Pack":9918,"ĠDefinition":9919,"ĠImage":9920,"ĠJewish":9921,"Ġcopies":9922,"Ġabuse":9923,"Ġkinetic":9924,"ĠFour":9925,"ĠMichigan":9926,"Ġconsideration":9927,"erset":9928,"Ġcompens":9929,"Ġgeneralization":9930,"sample":9931,"ĠJackson":9932,"ĠCoast":9933,"Ġ..":9934,"resol":9935,"Ġpot":9936,"ĠSat":9937,"Ġtroub":9938,"uple":9939,"Filter":9940,"prise":9941,"Dat":9942,"suit":9943,"Ġfunctor":9944,"language":9945,"Ġpresentation":9946,"Ġcouplings":9947,":</":9948,"Price":9949,"ĠDou":9950,"iamond":9951,"Ġcontradiction":9952,"Ġdecreasing":9953,"Ġancient":9954,"Ver":9955,"ĠHand":9956,"Ġens":9957,"Ġsuc":9958,"Ġstrugg":9959,"Ġconflict":9960,"ĠPacific":9961,"Ġvort":9962,"Ġbars":9963,"ĠStan":9964,"Ġnewsp":9965,"Ġcere":9966,"Var":9967,"Ġtheme":9968,"irty":9969,"EP":9970,"SN":9971,"Ġcosmological":9972,"ĠMach":9973,"_{-\\":9974,"]=":9975,"^*_":9976,"ĠOl":9977,"Ġindependently":9978,"Bigr":9979,"AF":9980,"Jo":9981,"ulf":9982,"Ġsister":9983,"forming":9984,"Ġneutron":9985,"Ġroles":9986,"ĠTw":9987,"Ġbridge":9988,"```":9989,"eties":9990,"asters":9991,"ĠðŁ":9992,"aml":9993,"inator":9994,"Ġpartially":9995,"ificial":9996,"Ġmit":9997,"Ġowned":9998,"Ġregister":9999,"radius":10000,"Ġradi":10001,"idance":10002,"ruption":10003,"Ġfamiliar":10004,"oned":10005,"Ġvent":10006,"ĠCas":10007,"Ġinterests":10008,"offset":10009,"ĠSaf":10010,"ĠAdam":10011,"require":10012,"ĠMain":10013,"uality":10014,"ĠSus":10015,"Ġbringing":10016,"vdots":10017,"Ġliber":10018,"ĠSteve":10019,"Ġmurder":10020,"limit":10021,"Ġbodies":10022,"Ġstudio":10023,"Ġangles":10024,"Ġprobabilities":10025,"oster":10026,"ĠFair":10027,"Ġsole":10028,"News":10029,"bolic":10030,"ĠMake":10031,"Ġfrequently":10032,"nolimits":10033,"255":10034,"herence":10035,"channel":10036,"period":10037,"parse":10038,"Ġserves":10039,"Ġabsolutely":10040,"correspon":10041,"ativity":10042,"Ġindustrial":10043,"ĠKnow":10044,"Par":10045,"Ġvalidation":10046,"Ġslope":10047,"ĠBooks":10048,"Author":10049,"Ġprocedures":10050,"ishop":10051,"Ġwinner":10052,"Where":10053,"Ġisomorphic":10054,"heric":10055,"FONT":10056,"Tree":10057,"Ġserving":10058,"130":10059,"Length":10060,"Ġmal":10061,"Ġvolunte":10062,"900":10063,"Ġhonest":10064,"through":10065,"Ġviewed":10066,"Rightarrow":10067,"Ġposts":10068,"gi":10069,"Ġreplic":10070,"ĠSeason":10071,"Ġsmallest":10072,"Vol":10073,"Ġ(+":10074,"Ġordinary":10075,"Ġcouncil":10076,"Ev":10077,"UL":10078,"Ġsand":10079,"ĠQueen":10080,"Ġdiversity":10081,"ĠCON":10082,"Url":10083,"Ġnewly":10084,"burgh":10085,"Ġexpanded":10086,"Ġbriefly":10087,"Ġgreatest":10088,"Ġsituations":10089,"ä¸":10090,"ĠMarkov":10091,"connection":10092,"ongs":10093,"ĠTer":10094,"Ġhaven":10095,"exec":10096,"icial":10097,"ennis":10098,"Ġrefers":10099,"ĠScotland":10100,"ador":10101,"earing":10102,"ĠCivil":10103,"ĠLabor":10104,"Ġpulse":10105,"ĠAGN":10106,";->":10107,"Ġ**":10108,"ĠMean":10109,"Ġpresc":10110,"stic":10111,"&$":10112,"ĠAP":10113,"anna":10114,"rell":10115,"rative":10116,"Ġaccident":10117,"ĠMountain":10118,"Ġoutcomes":10119,"Ġrenormal":10120,"'$.":10121,"}~\\":10122,"}})$":10123,"Ġapproved":10124,"Ġplotted":10125,"Ġment":10126,"Ġturbul":10127,"newline":10128,"phe":10129,"Ġjustice":10130,"you":10131,"fields":10132,"Ġstanding":10133,"coordin":10134,"Ġsensor":10135,"ulas":10136,"Ġvirt":10137,"ĠFred":10138,"Ġtack":10139,"Ġhardware":10140,"encing":10141,"Rad":10142,"shape":10143,"ĠFermi":10144,"GP":10145,"âĢĻ,":10146,"vc":10147,"imp":10148,"Ġschedule":10149,"Ġpseudo":10150,"Ġcrew":10151,"Ġawarded":10152,"Ġreliable":10153,"owski":10154,"ĠJr":10155,"ĠOx":10156,"Ġspherical":10157,"inds":10158,"Ġenvironments":10159,"Ġurban":10160,"issions":10161,"Ġgenerators":10162,";\\;":10163,"1979":10164,"orship":10165,"Â°":10166,"=\"../../../../../":10167,"umul":10168,"ĠFile":10169,"Ġfighting":10170,"none":10171,"rase":10172,"Ġproposal":10173,"ĠFull":10174,"ĠCat":10175,"ERR":10176,"'),":10177,"ĠCarl":10178,"1981":10179,"intro":10180,"Ġafford":10181,"ĠSearch":10182,"Ġbutton":10183,"Because":10184,"Ġclustering":10185,"opher":10186,"izabeth":10187,"Ġseed":10188,"Ġrecording":10189,"Ġdance":10190,"Ġindicating":10191,"Ġcart":10192,"osa":10193,"than":10194,"Ġ[]":10195,"Ġven":10196,"ampion":10197,"Ġbow":10198,"Ġrely":10199,"ĠUnivers":10200,"Previous":10201,"Control":10202,"Ġassessment":10203,"Ġhearing":10204,"}}=\\":10205,"umni":10206,"Ġgene":10207,"task":10208,"ĠHo":10209,"Ġterrit":10210,"Ġsucceed":10211,"URL":10212,"ĠMah":10213,"akers":10214,"TA":10215,"Ġpropagation":10216,"Ġdelivered":10217,"Har":10218,"pref":10219,"oval":10220,"ĠRen":10221,"$_{\\":10222,"Ġdecade":10223,"}{}":10224,"initial":10225,"Ġpercentage":10226,"was":10227,"Ġstopped":10228,"%,":10229,"ĠSystems":10230,"Ġdil":10231,"entity":10232,"Prop":10233,"Ġauthorities":10234,"ĠPoisson":10235,"lights":10236,"ĠBroad":10237,"Ġbid":10238,"isc":10239,"rfloor":10240,"independent":10241,"success":10242,"Ġdescribing":10243,"Ġplots":10244,",~":10245,"lfloor":10246,"oidal":10247,"nic":10248,"Ġputting":10249,"ĠStory":10250,"Ġintegers":10251,"redit":10252,"ĠWat":10253,"Ġdisplayed":10254,"ĠChildren":10255,"EQ":10256,"Pop":10257,"Ġresistance":10258,"Ġchoosing":10259,"Bundle":10260,"Parameter":10261,"Ġreact":10262,"mages":10263,"Ġxml":10264,"tn":10265,"ĠRom":10266,"watch":10267,"ĠDue":10268,"connect":10269,")|\\":10270,"approxim":10271,"ĠLearning":10272,"Ġdiscret":10273,"Ġwriters":10274,"below":10275,"ĠProcess":10276,"Ġdropped":10277,"Ġabundance":10278,"Ġscan":10279,"Ġscored":10280,"ello":10281,"Ġpixels":10282,"Ġinstitutions":10283,"ĠPri":10284,"Ġcas":10285,"Ġteaching":10286,"Ġdiscovery":10287,"Ġcircular":10288,"modal":10289,"sex":10290,"Ġrear":10291,"Ġfavour":10292,"mi":10293,".'":10294,"Gr":10295,"Ġongoing":10296,"Ġneur":10297,"Rev":10298,"ĠNO":10299,"Ġsubjects":10300,")=(":10301,"Ġaid":10302,"equal":10303,"Ġstim":10304,"}\\;":10305,"Ġchart":10306,"Ġprompt":10307,"lix":10308,"Ġperman":10309,"conc":10310,"Ġgeodes":10311,"Yes":10312,"yo":10313,"riers":10314,"Ġchiral":10315,"Ġatmosphere":10316,"}<":10317,"Ġlosses":10318,"Ġorbits":10319,"ĠCart":10320,"Ġprogramme":10321,"total":10322,"Ġdistinguish":10323,"Ġrender":10324,"///":10325,"tor":10326,"VI":10327,"Ġcha":10328,"Ġconsumption":10329,"RC":10330,"Ġusage":10331,"Ġbatch":10332,"Recall":10333,"Ġsinger":10334,"Ġclosure":10335,"Ġsplitting":10336,"irk":10337,"Ġexplains":10338,"Ġheter":10339,"ĠNC":10340,"ĠSea":10341,"Ġminute":10342,"ĠSecretary":10343,"Ġtrajectories":10344,"DI":10345,"Ġce":10346,"Ġpassion":10347,"Ġbath":10348,"Ġattributes":10349,"rovers":10350,"Ġmort":10351,"Ġlogic":10352,"fr":10353,"scious":10354,"Ġamplitudes":10355,"Ġhundreds":10356,"ĠĠĠĠĠĠĠĠĠĠĠĠĠĠĠĠĠĠ":10357,"ĠAN":10358,"Ġproven":10359,"(_":10360,"isa":10361,"}_{{\\":10362,"learly":10363,"Ġiterations":10364,"ĠPack":10365,"ami":10366,"Ġcriminal":10367,"Ġpun":10368,"Ġreflection":10369,"rink":10370,"Ġconsec":10371,"ĠWatch":10372,"Click":10373,"Ġunable":10374,"Ġneglig":10375,"door":10376,"Ġcaught":10377,"random":10378,"Phone":10379,"ĠInf":10380,"oute":10381,"Ġenables":10382,"Ġsac":10383,"ĠPay":10384,"ĠCLASS":10385,"Ġanalyzed":10386,"Ġsuit":10387,"sylvania":10388,"pet":10389,"media":10390,"aki":10391,"wall":10392,"@{}":10393,"omet":10394,"700":10395,"uated":10396,"Ġenhanced":10397,"eval":10398,"adel":10399,"lements":10400,"Ġwealth":10401,"ntz":10402,"Ġcounterpart":10403,"Ġsynchron":10404,"Ġcovariance":10405,"Ġencoding":10406,"Ġtopics":10407,"ĠVill":10408,"ĠIV":10409,"ego":10410,"Ġpublication":10411,"ĠMcC":10412,"ULT":10413,"ĠBrand":10414,"pset":10415,"Ġrealistic":10416,"High":10417,"ĠStrateg":10418,"worth":10419,"ĠKong":10420,"Ġanisot":10421,"evin":10422,"Mr":10423,"apore":10424,"ĠGreek":10425,"ĠBoy":10426,"ockey":10427,"kg":10428,"Many":10429,"Ġamounts":10430,"abric":10431,"Ġslowly":10432,"Ġalloc":10433,"ĠChair":10434,"ĠAssembly":10435,"Ġbits":10436,"Names":10437,"Ġcollapse":10438,"Ġconsumer":10439,"Ġplatforms":10440,"above":10441,"eman":10442,"rivers":10443,"driv":10444,"ĠSP":10445,"Oh":10446,"erts":10447,"ĠCost":10448,"Ġfeels":10449,"Ġstores":10450,"good":10451,"Ġcounts":10452,"ĠUk":10453,"Ġauthority":10454,"BD":10455,"styleshe":10456,"Ġhealthy":10457,"triang":10458,"ĠWindows":10459,"Ġnarr":10460,"placement":10461,"poly":10462,"Please":10463,"\\,,":10464,"Ġrequests":10465,"Ġacquired":10466,"Ġbary":10467,"Ġ$\\|":10468,"Ġstudying":10469,"140":10470,"ĠCustom":10471,"Loc":10472,"|=":10473,"isting":10474,"Mc":10475,"GO":10476,"ĠWales":10477,"Ġproducing":10478,"isy":10479,"ocy":10480,"ĠFox":10481,"Ġasking":10482,"Ġweakly":10483,"roscopic":10484,"shop":10485,"ĠKorea":10486,"105":10487,"mathbbm":10488,"Ġimaging":10489,"Ġwaste":10490,"ĠSky":10491,"Ġrevenue":10492,"focus":10493,"Exec":10494,"ĠHun":10495,"former":10496,"Ġcoherent":10497,"à¸":10498,"loss":10499,"Ġcuts":10500,"aders":10501,"Ñĥ":10502,"Ġinflation":10503,"Ġaims":10504,"Ġaccommod":10505,"ĠON":10506,"ĠTheatre":10507,"ĠTrue":10508,"ĠCook":10509,"ĠBal":10510,"inistic":10511,"Ġbare":10512,"Ġtrigger":10513,"family":10514,"between":10515,"Ġecho":10516,"Stud":10517,"Ġrevers":10518,"Ġarise":10519,"ĠTele":10520,"Ġbg":10521,"ĠSher":10522,"Op":10523,"Ġdebate":10524,"Project":10525,"isition":10526,"ĠMD":10527,"Ġconformal":10528,"Server":10529,"Ġresponses":10530,"grid":10531,"access":10532,"Ġproud":10533,"got":10534,"ĠGuard":10535,"Width":10536,"Well":10537,"Ġcyl":10538,"Ġnorthern":10539,"wp":10540,"Ġresponsibility":10541,"Ġnormalization":10542,"Ġattempts":10543,"Ġaccompl":10544,"Ġeat":10545,"Ġcycles":10546,"Ġletters":10547,"alaxy":10548,"Ġintrinsic":10549,"physical":10550,"engers":10551,".},":10552,"WH":10553,"etary":10554,"ito":10555,"Ġarrang":10556,"brane":10557,"ĠRh":10558,"ouds":10559,"¿½":10560,"ĠCirc":10561,"Ġnan":10562,"adv":10563,"Ġguard":10564,"Ġdisjoint":10565,".}\\":10566,"=-\\":10567,"ĠBH":10568,"ĠBlog":10569,"Ġrefere":10570,"hole":10571,"Ġhelpful":10572,"ĠSche":10573,"Ġconcepts":10574,"Ġforget":10575,"ĠAsian":10576,"ĠSir":10577,"Ġtriangle":10578,"Ġultimately":10579,"Ġanalytical":10580,"Ġrenew":10581,"craft":10582,"=\"../../":10583,"Ġcomprehensive":10584,"istically":10585,"Ġrent":10586,"ĠHREF":10587,"ĠQCD":10588,"Ġsouthern":10589,"issue":10590,"Ġblow":10591,"Ġexamine":10592,"teen":10593,"Ġinfection":10594,"ĠDirac":10595,"tics":10596,":(":10597,"Ġwinter":10598,"ĠAsh":10599,"Ġperturbations":10600,"complex":10601,"ĠPrime":10602,"Ġalleged":10603,"Frame":10604,"Ġspons":10605,"ificate":10606,"Process":10607,"bounded":10608,"ĠNa":10609,"eah":10610,"construct":10611,"each":10612,"ĠFollowing":10613,"attr":10614,"Ġmagazine":10615,"ĠWis":10616,"Ġincreasingly":10617,"World":10618,"ployment":10619,"Ġcircles":10620,"ĠNumber":10621,"Ġmonitoring":10622,"ĠArray":10623,"holder":10624,"Ġtum":10625,"Det":10626,"lean":10627,"Ġestate":10628,"ifiers":10629,"aya":10630,"ï¿½":10631,"1978":10632,"Ġreserved":10633,"Ġforecast":10634,"Acknowledg":10635,"Ġwalls":10636,"Ġaccessible":10637,"Ġinvert":10638,"Pass":10639,"Ġdispl":10640,"Direct":10641,"Ġmatters":10642,"COL":10643,"Ġcontroller":10644,"ĠHas":10645,"yes":10646,"Ġwilling":10647,"ĠGi":10648,"plain":10649,"Ġgar":10650,"Ġton":10651,"Ġargs":10652,"Sym":10653,"hou":10654,"Ġimplicit":10655,"Ġconsistency":10656,"Ġprobe":10657,"Ġsubsets":10658,"Ġcondens":10659,"Ġcorrespondence":10660,"Ġargue":10661,"Ġelev":10662,"Av":10663,"Use":10664,"merce":10665,"stud":10666,"Ġreporting":10667,"ĠDat":10668,"osophy":10669,"Ġexercise":10670,"ĠMP":10671,"numer":10672,"Ġarrival":10673,"Ġneighbour":10674,"CI":10675,"Ġrecognized":10676,"Ġaffine":10677,"Ġyes":10678,"1950":10679,"ĠWin":10680,"Ġintelligence":10681,"Ġhydrogen":10682,"Ġvast":10683,"vable":10684,"}&\\":10685,"lm":10686,"KS":10687,"ĠFuture":10688,"triangle":10689,"1977":10690,"Assume":10691,"111":10692,"iliary":10693,"Ġlicense":10694,"Prot":10695,"&-":10696,"Ġseparately":10697,"Entity":10698,"Ġcriterion":10699,"Ġobviously":10700,"Ġharmonic":10701,"ĠConf":10702,"ĠLow":10703,"ĠStandard":10704,"parameters":10705,"ategories":10706,"letter":10707,"'$,":10708,"iders":10709,"iang":10710,"Ġdrama":10711,"Ġbigger":10712,"Ġille":10713,"Ġinsurance":10714,"ĠMath":10715,"Ġutility":10716,"Ġtherapy":10717,"TP":10718,"Dem":10719,"ĠSon":10720,"')$":10721,"Ġordering":10722,"weak":10723,"ailability":10724,"Ġprospect":10725,"ĠAndroid":10726,"Ã³n":10727,"Ġcommittee":10728,"ographer":10729,"inals":10730,"Ġsparse":10731,"Ġequipped":10732,"folio":10733,"inois":10734,"determ":10735,"Ġmand":10736,"single":10737,"Ġinstrument":10738,"ĠProm":10739,"oids":10740,"Ġspacetime":10741,"Bi":10742,"Ġfulfill":10743,"ĠRiemann":10744,"upi":10745,"ĠBefore":10746,"ĠJersey":10747,"HL":10748,"orous":10749,"ĠAirport":10750,"ĠKent":10751,"ĠArea":10752,"cks":10753,"ĠCorporation":10754,"Ġvanishes":10755,"Ġacid":10756,"Ġperformances":10757,"Ġcompletion":10758,"idal":10759,"Even":10760,"ipping":10761,"////////////////":10762,"ĠBang":10763,"artifact":10764,"Äģ":10765,"dual":10766,"1976":10767,"Ġcorrelated":10768,"aset":10769,"Ġdecays":10770,"ĠOhio":10771,"Ġinstalled":10772,"oking":10773,"Ġalbums":10774,"member":10775,"Ġpromote":10776,"Row":10777,"Ġsymptoms":10778,"Find":10779,"Ġscenes":10780,"Ġsoc":10781,"Ġstorm":10782,"obe":10783,"Write":10784,"ĠMinistry":10785,"Ġgrew":10786,"Tags":10787,"%;":10788,"Ġcolon":10789,"pair":10790,"store":10791,"Bas":10792,"Ġpump":10793,"ĠExecutive":10794,"Ġconsequences":10795,"changed":10796,"Ġoutputs":10797,"Upsilon":10798,"ĠĠĠĠĠĠĠĠĠĠĠĠĠĠĠĠĠĠĠĠĠĠĠĠĠĠĠĠĠĠĠĠĠĠĠ":10799,"Ġactivation":10800,"AGE":10801,"lers":10802,"Ġhun":10803,"1975":10804,"ĠBon":10805,"ĠText":10806,"~(":10807,"Ġpeaks":10808,"Ġdisorder":10809,"9999":10810,"Ġreveals":10811,"enz":10812,"Ġchapter":10813,"Ġelections":10814,"cently":10815,"ĠFre":10816,"Following":10817,"ostic":10818,"frared":10819,"Ġbrowser":10820,")}_{\\":10821,"ĠPhilipp":10822,"Ġram":10823,"ĠTal":10824,"Ġ&$":10825,"FOR":10826,"hemical":10827,"deep":10828,"ĠIss":10829,"Ġpayment":10830,"phia":10831,"doi":10832,"Ġsoul":10833,"ĠLuc":10834,"autore":10835,"Ġtrunc":10836,"Ġcollisions":10837,"\\|_{\\":10838,"Track":10839,"Ġexplos":10840,"ĠStaff":10841,"Ġfault":10842,"Ġconversation":10843,"conv":10844,"Ġranges":10845,"elines":10846,"Ġcrossing":10847,"repre":10848,"Ġcorrectly":10849,"ĠPa":10850,"ĠYouTube":10851,"ĠHD":10852,"Cap":10853,"awn":10854,"CB":10855,"ĠĠĠĠĠĠĊ":10856,"Ġturning":10857,"ĠCro":10858,"Ġperforms":10859,"ITY":10860,"Ġmarginal":10861,"360":10862,"Ġproducer":10863,"Ġ$$\\":10864,"AY":10865,"Ġfloat":10866,"ĠDNA":10867,"ĠMatt":10868,"Ġobst":10869,"Ġadds":10870,"University":10871,"Based":10872,"cb":10873,"ĠTurn":10874,"rb":10875,"Ġoutperform":10876,"})_{":10877,"template":10878,"tim":10879,"Ġcro":10880,"theory":10881,"++)":10882,"Ġcooling":10883,"Ġadmits":10884,"Ġillustrate":10885,"Ġseeking":10886,"Ġsees":10887,"Intern":10888,"ACT":10889,"homology":10890,"ĠRog":10891,"Ġpit":10892,"Ġinsight":10893,"eron":10894,"Ġpreced":10895,"Ġdry":10896,"Ġaveraged":10897,"article":10898,"Sol":10899,"ĠSem":10900,"Ġdialog":10901,"jk":10902,"ĠDark":10903,"112":10904,"ocracy":10905,"ĠDespite":10906,"\\/":10907,"Ġoperate":10908,"'}\\":10909,"Free":10910,"ĠAssume":10911,"ĠBad":10912,"Ġ$[\\":10913,"ĠHong":10914,"=\"-":10915,"ĠPen":10916,"ĠLew":10917,"Ġfitted":10918,"Ġsegmentation":10919,"double":10920,"ĠCreate":10921,"ĠFac":10922,"Ġrecurs":10923,"Ġassets":10924,"GG":10925,"Ġfly":10926,"dest":10927,"Ms":10928,"ĠHT":10929,"device":10930,"reprene":10931,"tained":10932,"Ġdangerous":10933,"Ġshop":10934,"Ġles":10935,"}))":10936,"Ġwear":10937,"Ġvice":10938,"Ġaccord":10939,"Ġbatt":10940,"Ġentanglement":10941,"req":10942,"Mag":10943,"Ġlatent":10944,"Ġbaby":10945,"aintenance":10946,"WS":10947,"Ġspending":10948,"ĠObserv":10949,"Ġprojective":10950,"Ġ{{":10951,"Ġtriple":10952,"Opt":10953,"ped":10954,"Ġdwar":10955,"oured":10956,"unity":10957,"Ġjudge":10958,"uri":10959,"gov":10960,"Ġdeduce":10961,"Ġpy":10962,"Ġending":10963,"Ġsignificance":10964,"mathds":10965,"ĠFOR":10966,"UK":10967,"Ġha":10968,"tically":10969,"Ġpartnership":10970,"rapper":10971,"Ġalongside":10972,"isms":10973,"ĉĉĉĉĉĉĉ":10974,"Ġdrugs":10975,"Ġproves":10976,"EEE":10977,"shall":10978,"_.":10979,"analysis":10980,"None":10981,"sv":10982,"Ġcompetitive":10983,"ĠPennsylvania":10984,"ĠAdditionally":10985,"Sk":10986,"vard":10987,"finement":10988,"tainment":10989,"ragon":10990,"Ġmil":10991,"Ġreplacing":10992,"Ġmolecules":10993,"aws":10994,"Ġoverlap":10995,"pay":10996,"Ġsynthetic":10997,"rolled":10998,"ĠTake":10999,"tb":11000,"ĠBased":11001,"elescope":11002,"Ġdissip":11003,"Ġtournament":11004,"HR":11005,"imm":11006,"Once":11007,"Lo":11008,"Ġequally":11009,"Ġcone":11010,"ĠClin":11011,"Ġphenomenon":11012,"imod":11013,"ĠProduct":11014,"ĠRod":11015,"Ġinterference":11016,"alo":11017,"essions":11018,"supervised":11019,"Ġmonot":11020,"ĠOnt":11021,"ĠSupreme":11022,"Ġrain":11023,"email":11024,"Ġannot":11025,"Ġconsumers":11026,"HA":11027,"Den":11028,"Ġthoughts":11029,"game":11030,"Ġcancel":11031,"Ġconcerning":11032,"ĠLatin":11033,"Ġobj":11034,"Ġvaluable":11035,"Ġ}{\\":11036,"]^{":11037,"Change":11038,"Ġbott":11039,"simple":11040,"entric":11041,"Ġmechanical":11042,"Ġgenus":11043,"Black":11044,"Ġlists":11045,"Ġcorporate":11046,"perimental":11047,"bad":11048,"window":11049,"########":11050,"Ġ!==":11051,"Ġanalogous":11052,"dney":11053,"ĠPhoto":11054,"Ġkinem":11055,"Ġpadding":11056,"Ġinterpreted":11057,"!\"":11058,"Ġcraft":11059,"una":11060,"ĠSn":11061,"1974":11062,"Ġrestaurant":11063,"Ġinduces":11064,"ologist":11065,"ĠAS":11066,"ownt":11067,"ĠCountry":11068,"'>":11069,"fly":11070,"Ġsnow":11071,"arters":11072,"Ġfewer":11073,"ĠRic":11074,"Vari":11075,"lb":11076,"igate":11077,"Ġtens":11078,"odge":11079,"Ġwalking":11080,"Que":11081,"counter":11082,"yers":11083,"Ġworldwide":11084,"ju":11085,"subfloat":11086,"lementary":11087,"Ġattended":11088,"NT":11089,"Ġscheduled":11090,"ĠCT":11091,"rg":11092,"Ġexcitation":11093,"chitz":11094,".[":11095,"region":11096,"Ġflood":11097,"Ġbreath":11098,"Ġfeaturing":11099,"bes":11100,"Ġkit":11101,"Ġaux":11102,")|^":11103,"ĠCE":11104,"Ġcrowd":11105,"Ġvoltage":11106,"Ġmathematical":11107,"Ġconstrained":11108,"})-":11109,"flat":11110,"ĠDom":11111,"Ġcombining":11112,"Ġlinearly":11113,"ĠCommon":11114,"Bbb":11115,"Ġexciting":11116,"Ġclassified":11117,"ĠRepresent":11118,"Chang":11119,"Ġattached":11120,"likely":11121,"Ġvelocities":11122,"aze":11123,"hd":11124,"ĠCP":11125,"Ġlosing":11126,"=(\\":11127,"three":11128,"Similarly":11129,"Ġscientists":11130,"Ġnegot":11131,"race":11132,"Ġfifth":11133,"Ġourselves":11134,"adi":11135,"Ġimprovements":11136,"ĠDO":11137,"vskip":11138,"induced":11139,"vv":11140,"ĠTy":11141,".(\\":11142,"+$":11143,"ĠUpdate":11144,"ĠCru":11145,"Ġcircumstances":11146,"Ġactors":11147,"ccc":11148,"Header":11149,"essel":11150,"hskip":11151,"National":11152,"Types":11153,"ĠTro":11154,"ĠKenn":11155,"Ġdomestic":11156,"Cache":11157,"Ġfiled":11158,"ĠSite":11159,"Ġrein":11160,"raq":11161,"Ġepisodes":11162,"Si":11163,"Ġcache":11164,"Ġfat":11165,"jections":11166,"Ġuint":11167,"icker":11168,"ĠImp":11169,"making":11170,"Ġmagic":11171,"Ġyounger":11172,"Ġchose":11173,"Christ":11174,"enberg":11175,"Dom":11176,"Height":11177,"Ġfold":11178,"Ġagric":11179,"1972":11180,"Provider":11181,"Ġarmy":11182,"Gs":11183,"ĠBand":11184,"Ġbgcolor":11185,"Ġunf":11186,"Ġdiameter":11187,"border":11188,"Ġhospit":11189,"Ġarrive":11190,"Ġsegments":11191,"UV":11192,"Ġresulted":11193,"Ġforth":11194,"Ġimproving":11195,"ĠTR":11196,"ĠĠĠĠĠĠĠĠĠĠĠĠĠĠĠĠĠĠĠĠĠĠĠĠ":11197,"ensed":11198,"Ġhash":11199,"Ġsear":11200,"Ġstrings":11201,"metric":11202,"Ġquiet":11203,"Ġbon":11204,"manifold":11205,"Ġcab":11206,"Copyright":11207,"TYPE":11208,"icks":11209,"Ġcod":11210,"Ġcallback":11211,"given":11212,"Aust":11213,"upp":11214,"Ġ})":11215,"orient":11216,"Ġrelaxation":11217,"Ġintent":11218,"Ġsatellite":11219,"mic":11220,"oser":11221,"igin":11222,"aware":11223,"etts":11224,"eping":11225,"ĠEth":11226,"ystem":11227,"DL":11228,"Ġmuseum":11229,"ĠParliament":11230,"isons":11231,"Ġseasons":11232,"Enc":11233,"Ġsubstantial":11234,"HTML":11235,"Ġdy":11236,"vertex":11237,"Ġvisitors":11238,"ethe":11239,"Ġride":11240,"Ġdoctor":11241,"Ġultra":11242,"degree":11243,"Ġdevel":11244,"1973":11245,"training":11246,"Window":11247,"asi":11248,"iary":11249,"Ġexploration":11250,"autoref":11251,"written":11252,"Ġsuffices":11253,"omatic":11254,"Pan":11255,"Ġadult":11256,"Ġauthent":11257,"Ġtrends":11258,"ĠFind":11259,"about":11260,"Ġwelcome":11261,"ĠEastern":11262,"Ġanalyses":11263,"curs":11264,"present":11265,"Ġclock":11266,"Properties":11267,"chy":11268,"}.\\":11269,"Ġsemantic":11270,"aret":11271,"Ġmillions":11272,"Ġcreates":11273,"%.":11274,"Your":11275,"Ġkinds":11276,"Ġhang":11277,"oggle":11278,"Ġintroducing":11279,"ĠAnth":11280,"Ġreaches":11281,"iration":11282,"Ġchecked":11283,"Ġmouth":11284,"Ġdifficulty":11285,")}=":11286,"Est":11287,"Entry":11288,"Ġvariant":11289,"orry":11290,"FM":11291,"ĠAdministration":11292,"andy":11293,"Ġlandscape":11294,"Fi":11295,"ĠHop":11296,"Ġtalent":11297,"Ġmunicip":11298,"isode":11299,"Ġprinciples":11300,"Ġnonzero":11301,"ĠMarketing":11302,"isations":11303,"213":11304,"separ":11305,"ĠInstagram":11306,"Ġguidance":11307,"charge":11308,"ailing":11309,"security":11310,"Ġcomplaint":11311,"ĠDeath":11312,"ĠBBC":11313,"roke":11314,"resize":11315,"Ġunstable":11316,"Ġfairly":11317,"ĠBall":11318,"ĠJordan":11319,"Ġrealize":11320,"Ġconsecutive":11321,"Google":11322,"solid":11323,").}":11324,"Ġprovider":11325,"ĠPrince":11326,"Ġprev":11327,"Ġexponent":11328,"sharp":11329,"Ġ::":11330,"Ġ>=":11331,"transform":11332,"depth":11333,"ĠNGC":11334,"Ġacknowled":11335,"Fix":11336,"ĠEuclidean":11337,"}_{(":11338,"Ġathlet":11339,"olis":11340,"Ġrecommended":11341,"Offset":11342,"Ġintersect":11343,"ĠHotel":11344,"ĠFinancial":11345,"ivation":11346,"ĠUser":11347,"Ġhonor":11348,"Ġcavity":11349,"Ġvotes":11350,"ĠExample":11351,"Ġshooting":11352,"{[":11353,"Ġdetermines":11354,"*\\":11355,"Ġdelet":11356,"____":11357,"Position":11358,"analy":11359,"noon":11360,"Comparison":11361,"ICE":11362,"Ġpray":11363,"Ġinstitution":11364,"Ġconcrete":11365,"prototype":11366,"ĠCS":11367,"shell":11368,"Ġelementary":11369,"Ġmesh":11370,"Ġteachers":11371,"Ġcosmic":11372,"ĠThanks":11373,"Bel":11374,"idity":11375,"Example":11376,"ZE":11377,"Ġnearest":11378,"Photo":11379,"Del":11380,"pie":11381,"Ġbinding":11382,"annotation":11383,"Ġpictures":11384,"Ġcombinations":11385,"ĠDeep":11386,"1968":11387,"tex":11388,"}}}{":11389,"don":11390,"Ġau":11391,"Ġneighbors":11392,"Ġinit":11393,"erer":11394,"Ġadults":11395,"Ġplenty":11396,"Ġcoff":11397,"Title":11398,"Ġprominent":11399,"hash":11400,"Ġconjecture":11401,"Ġscholar":11402,"ulatory":11403,"agues":11404,"Ġcoun":11405,"ĠNotice":11406,"ĠStation":11407,"IGN":11408,"Pres":11409,"Ġreverse":11410,"Ġbasketball":11411,"Ġtrig":11412,"sis":11413,"ĠGovernor":11414,"Ġyellow":11415,"Ġbag":11416,"factor":11417,"Ġhistoric":11418,"Ġwa":11419,"achus":11420,"ĠNavy":11421,"perturb":11422,"Ġlimitations":11423,"Ġ\\,,":11424,"Ġpipeline":11425,"Ġ$<":11426,"Ġcontemporary":11427,"Ġinvoke":11428,"lined":11429,"Ġappearing":11430,"utable":11431,"nesota":11432,"Ġanticip":11433,"STR":11434,"agen":11435,"}}}$":11436,"Ġgenerality":11437,"lu":11438,"Ġcalibration":11439,"press":11440,"ĠMill":11441,"102":11442,"ifting":11443,"hyper":11444,"Ġreceiver":11445,"Ġhouses":11446,"tml":11447,"}=(":11448,"ĠRyan":11449,"Ġoccasion":11450,"Ġdrum":11451,"Ġprojected":11452,"ĠElizabeth":11453,"uscript":11454,"icts":11455,"Ham":11456,"Spe":11457,"ĠLA":11458,"ennes":11459,"Ġoperated":11460,"ACE":11461,"serve":11462,"raine":11463,"Ð²":11464,"ĠEmpire":11465,"Pos":11466,"inates":11467,"ĠTraining":11468,"kh":11469,"Ġwins":11470,"Ġgenerates":11471,"some":11472,"screen":11473,"types":11474,"ĠMagazine":11475,"Ġingred":11476,"patch":11477,"Ġlots":11478,"Ġinvestors":11479,"Ġec":11480,"ĠProte":11481,"Ġdealing":11482,"ĠBox":11483,"BN":11484,"Ġtalks":11485,"dz":11486,"plete":11487,"Ġcenters":11488,"\\,.":11489,"ĉčĊ":11490,"Ġsampled":11491,"ĠEdition":11492,"ĠAge":11493,"Ġlegend":11494,"Ġhyperbolic":11495,"ĠThose":11496,"Ġperfectly":11497,"Unit":11498,"Utils":11499,"))$.":11500,"ders":11501,"Ġcrystal":11502,"rage":11503,"'}$":11504,"IE":11505,"ĠGro":11506,"underset":11507,"Ġbattery":11508,"rics":11509,"Ġdesigns":11510,"rations":11511,"token":11512,"Ġfails":11513,"Ġconclusions":11514,"Ġdeformation":11515,"ĠNick":11516,"Ġawards":11517,"Ġgoods":11518,"ĠKat":11519,"Ġeffectiveness":11520,"×ķ":11521,"ĠStudy":11522,"cohol":11523,"ĠOpt":11524,"Ġwestern":11525,"Ġreaching":11526,"pmb":11527,"Ġinher":11528,"ĠSpecifically":11529,"Ġcollective":11530,"Ġdescent":11531,"ĠWars":11532,"ĠDirect":11533,"Ġasymptot":11534,"Ġ{{\\":11535,"Ġconnecting":11536,"uy":11537,"&#":11538,"Ġsad":11539,"Ġtrials":11540,"plicit":11541,"Ġopposed":11542,"quality":11543,"Play":11544,"Ġaddressed":11545,"Ġsin":11546,"Ġcapabilities":11547,"ĠDavis":11548,"David":11549,"URE":11550,"lay":11551,"Ġ}$":11552,"Ġcontrovers":11553,"Ġfacing":11554,"Ġmic":11555,"esome":11556,"enth":11557,"kt":11558,"Ġhomot":11559,"Ġencoder":11560,"Only":11561,"rf":11562,"onom":11563,"ĠChange":11564,"×Ļ":11565,"aration":11566,"Ġmissed":11567,"upied":11568,"Ġnob":11569,"ĠIllinois":11570,"()->":11571,"profile":11572,"bool":11573,"creasing":11574,"Cho":11575,"stery":11576,"igm":11577,"ĠLorentz":11578,"Ġpriority":11579,"Ġthermod":11580,"Ġveter":11581,"Ġconservative":11582,"oviet":11583,"een":11584,"Ġposit":11585,"PRE":11586,"Ġpreferred":11587,"ĠEinstein":11588,"Ġflo":11589,"Fin":11590,"Ġbought":11591,"PY":11592,"Ġsending":11593,"Ġaccum":11594,"aga":11595,"resource":11596,"Ġho":11597,"Ġcampus":11598,"Found":11599,"away":11600,"Ġmixture":11601,"cov":11602,"Ġresc":11603,"Ġemployee":11604,"ĠSingapore":11605,"Ġembeddings":11606,"Ġsubsequently":11607,"Full":11608,"Ġquotient":11609,"ĠFord":11610,"Ġreform":11611,"cha":11612,"Ġvon":11613,"ĠMarg":11614,"achusetts":11615,"Ġinfinity":11616,"IVE":11617,"API":11618,"Ġtrail":11619,"ANT":11620,"aron":11621,"Ġcentered":11622,"NG":11623,"}\\}$":11624,"Ġrisks":11625,"ĠCarlo":11626,"onia":11627,"ĠEric":11628,"wing":11629,"Ġparams":11630,"ureau":11631,"Ġhits":11632,"Ġtech":11633,"Ġhorse":11634,"consistent":11635,"Record":11636,"renew":11637,"ilinear":11638,"fire":11639,"Ġcomedy":11640,"Ġlit":11641,"icious":11642,"Ġconversion":11643,"ĠIndep":11644,"ĠStephen":11645,"Ġadapted":11646,"Ġpenalty":11647,"Sur":11648,"ĠBul":11649,"join":11650,"athered":11651,"ordon":11652,"ĠManager":11653,"Ant":11654,"Ġmount":11655,"Ġanswers":11656,"ATH":11657,"Ġfeasible":11658,"ĠPur":11659,"Ġassistance":11660,"Ġtrading":11661,"Aug":11662,"ampling":11663,"internal":11664,"Ġhomomorphism":11665,"abolic":11666,"uts":11667,">,":11668,"uu":11669,"ĠDra":11670,"Ġic":11671,"Ġna":11672,"panel":11673,"Interface":11674,"Ġcards":11675,"Ġpurely":11676,"optimal":11677,"ĠAgency":11678,"Ġpotentials":11679,"ĠEs":11680,"(|":11681,"********************************":11682,"fn":11683,"stylesheet":11684,"Ġlen":11685,"Ġtelling":11686,"Ġnumerically":11687,"Has":11688,"jet":11689,"margin":11690,"ĠDam":11691,"Ġdetermination":11692,"larg":11693,"leading":11694,"Ġchains":11695,"duate":11696,"Core":11697,"^-$":11698,"horiz":11699,"Â®":11700,"Ġinn":11701,"Ġregardless":11702,"Ġshel":11703,"Ġadvertising":11704,"makebox":11705,"Star":11706,"Ġsurprise":11707,"ĠRev":11708,"Hash":11709,"ĠFunction":11710,"Ġpasses":11711,"Ġfusion":11712,"}}\\,":11713,"ĠReturns":11714,"ilst":11715,"Show":11716,"anchester":11717,")!":11718,"esterday":11719,"ĠPers":11720,"Ġtends":11721,"ariate":11722,"}\\!":11723,"Tab":11724,"Ġactress":11725,"Ġqueries":11726,"Ġinhib":11727,"properties":11728,"Ġmanifest":11729,"ĠCulture":11730,"ĠPath":11731,"ĠCollection":11732,"âĢ¦.":11733,"BT":11734,"ĠMount":11735,"Ġcontainer":11736,"Ġdress":11737,"Ġinnovation":11738,"Ã±":11739,"104":11740,"}|^":11741,"Ġformalism":11742,"Ġinstability":11743,"satisf":11744,"Ġanomal":11745,"Ġfalls":11746,"Ġfee":11747,"Ġfinitely":11748,"ĠVen":11749,"rend":11750,"stop":11751,"Ġspoke":11752,"Ġequals":11753,"iat":11754,"ĠOxford":11755,"Ġformulas":11756,"1971":11757,"'',":11758,"ipschitz":11759,"Ġvictims":11760,"Ġarrested":11761,"ĠCL":11762,"Ġacceleration":11763,"ĠRemark":11764,"Ġteen":11765,"FE":11766,"Ġupcoming":11767,"ĠTravel":11768,"ells":11769,"ĠPRO":11770,"Ġpatch":11771,"Ġselling":11772,"Ġagencies":11773,"Ġantib":11774,"cus":11775,"rine":11776,"Order":11777,"Ġpermutation":11778,"Bs":11779,"master":11780,"Ġunity":11781,"seq":11782,"uma":11783,"},{\\":11784,"missible":11785,"Document":11786,"ĠAlexander":11787,"ching":11788,"Ġfilters":11789,"Oct":11790,"Ġminister":11791,"Ġassignment":11792,"ĠAccount":11793,"ĠVari":11794,"Ġcausing":11795,"potential":11796,"consin":11797,"Global":11798,"ĠSanta":11799,"artifactId":11800,"named":11801,"ĠJesus":11802,"CODE":11803,"Ġmanufacturing":11804,"350":11805,"Module":11806,"ails":11807,"}}+":11808,"Ġcombine":11809,"ĠDead":11810,"reement":11811,"ĠToronto":11812,"ĠDisney":11813,"Ġpersons":11814,"Summary":11815,"offs":11816,"viation":11817,"asts":11818,"Ġrural":11819,"Ġloops":11820,"gressive":11821,"Ġmock":11822,"Ġefficiently":11823,"plectic":11824,"Configuration":11825,"itis":11826,"Ġgrown":11827,"may":11828,"Ġwonderful":11829,"Ġpin":11830,"driven":11831,"owa":11832,"Ġcommunications":11833,"Ġenjoyed":11834,"endment":11835,"ĠCurrent":11836,"Ġprofessor":11837,"ĠWithout":11838,"Ġboxes":11839,"Public":11840,"ĠBattle":11841,"imated":11842,"Ġemotional":11843,"ĠFA":11844,"War":11845,"Ġmirror":11846,"ĠValue":11847,"Ġapparently":11848,"ĠHou":11849,"Mich":11850,"Ġindependence":11851,"online":11852,"ipedia":11853,"Ġsitting":11854,"1969":11855,"itled":11856,"stage":11857,"distribution":11858,"Look":11859,"dp":11860,"Ġreligion":11861,"Ġtables":11862,"ĠIslands":11863,"Ġcommitment":11864,"GD":11865,"BF":11866,"Tim":11867,"Ġelliptic":11868,"ĠPubl":11869,"dif":11870,"displaymath":11871,"Graph":11872,"ĠSoftware":11873,"overs":11874,"Ġdrivers":11875,"oked":11876,"ĠTax":11877,"Ġentertainment":11878,"Ġextensions":11879,"disc":11880,"Ġexposed":11881,"ĠScholar":11882,"'=":11883,"aska":11884,"Ġenabled":11885,"dict":11886,"irms":11887,"interface":11888,"Ñı":11889,"Ġlifetime":11890,"antly":11891,"Ġensures":11892,"Ġfragment":11893,"upper":11894,"esis":11895,"ĠPrinc":11896,"UP":11897,"CTION":11898,"Ġtitles":11899,"orne":11900,"views":11901,"ĠEdward":11902,"noise":11903,"cache":11904,"ĠHollywood":11905,"ois":11906,"Http":11907,"Ġreturning":11908,"CV":11909,"Ġapps":11910,"cost":11911,"Ġheavily":11912,"izz":11913,"Ġdiscre":11914,"Ġshifts":11915,"putation":11916,"iley":11917,"ĠEmer":11918,"Ġearned":11919,"Ġvoting":11920,"Ġintegrals":11921,"ĠSurvey":11922,"Ġdepicted":11923,"ĠForest":11924,"uz":11925,"Ġpitch":11926,"SW":11927,"Ġvisited":11928,"ĠMeV":11929,"ĠPakistan":11930,"Ġdebt":11931,"}$).":11932,"ĠAli":11933,"$(\\":11934,"cker":11935,"Ġevident":11936,"Who":11937,"Ġdestination":11938,"Range":11939,"Ġeverywhere":11940,"aire":11941,"temperature":11942,"ĠDun":11943,"Ġ),":11944,"ĠBrian":11945,"xygen":11946,"ordered":11947,"ĠRos":11948,"ĠHart":11949,"ĠFinal":11950,"Ġgranted":11951,"ĠInitial":11952,"ĠBuilding":11953,"utils":11954,"Ġlimiting":11955,"istant":11956,"His":11957,"iversary":11958,"Ġheads":11959,"Ġsymmetries":11960,"riate":11961,"Ġprepare":11962,"Ġkeys":11963,"Ġeducational":11964,"={\\":11965,"Ġtoler":11966,"equival":11967,"Ġproportion":11968,"Ġkilling":11969,"ATA":11970,"ĠCapital":11971,"English":11972,"click":11973,"ĠCrit":11974,"writer":11975,"ĠPresent":11976,"uniform":11977,"ĠVictoria":11978,"because":11979,"Ġmultipl":11980,"Ġbeauty":11981,"Ġok":11982,"hedral":11983,"holders":11984,"conver":11985,"both":11986,"Ð¼":11987,"_{{":11988,"fixed":11989,"Ġarts":11990,"Ġexpectations":11991,"\\}}":11992,"Ġimagine":11993,"viously":11994,"oupling":11995,"ĠNFL":11996,"sumer":11997,"Ġtransformed":11998,"para":11999,"ĠUr":12000,"bow":12001,"lyn":12002,"iami":12003,"Ġparad":12004,"Ġhall":12005,"]);":12006,"Mac":12007,"Ġpregn":12008,"ĠNig":12009,"^{[":12010,"ĠDemocrats":12011,"Ġ^{\\":12012,"Ġ\\}$":12013,"xrightarrow":12014,"oli":12015,"ĠViet":12016,"ĠTech":12017,"Ġsuspect":12018,"Ġadversarial":12019,"Ġvariability":12020,"quir":12021,"Super":12022,"Ġapproval":12023,"orsion":12024,"Ġrecovered":12025,"ĠPract":12026,"respectively":12027,"LM":12028,"ĠDR":12029,"Ġexplored":12030,"Ġvoters":12031,"adelphia":12032,"ĠRecall":12033,"GET":12034,"eros":12035,"TER":12036,"Ġhur":12037,"aria":12038,"Rob":12039,"115":12040,"ĠMiller":12041,"Ġserial":12042,"Ġinvariance":12043,"Ġfraud":12044,"ellect":12045,"Ġhealthcare":12046,"Ġcarefully":12047,"Ġpilot":12048,"ĠShort":12049,"Ġresolved":12050,"Ġfasc":12051,"ĠNewton":12052,"auto":12053,"env":12054,"Ġdepos":12055,"ORD":12056,"address":12057,"ĠTam":12058,"ĠRose":12059,"ĠBE":12060,"Ġpose":12061,"Ġshear":12062,"Ġleaf":12063,"ryst":12064,"Ġstreets":12065,"Ġclassifier":12066,"anth":12067,"spaces":12068,"Ġunus":12069,"cloud":12070,"ĠSource":12071,"Ġtransferred":12072,"Menu":12073,"enda":12074,"Hy":12075,"rable":12076,"Ġnegligible":12077,"Ġviolation":12078,"ĠHerm":12079,"ikipedia":12080,"Ġelastic":12081,"Ġneuro":12082,"ti":12083,"Ġalignment":12084,"alog":12085,"Ġhabit":12086,"ĠScient":12087,"outhe":12088,"Ġ\\\\[":12089,"Ġinequalities":12090,"Ġrevolution":12091,"Ġfake":12092,"groupId":12093,"Ġtransmit":12094,"ĠCooper":12095,"standard":12096,"ĠIndex":12097,"ĠResources":12098,"Ġrepeat":12099,"Ġtunnel":12100,"Ġparticipate":12101,"Î±":12102,"Ġages":12103,"VAL":12104,"ĠAmong":12105,"ĠWel":12106,"endor":12107,"Ġtwenty":12108,"Ġyards":12109,"Ġdelete":12110,"ĠHay":12111,"Ġexclusive":12112,"Ġpermission":12113,"angular":12114,"ĠLem":12115,"frequency":12116,"Plan":12117,"\"))":12118,"velope":12119,"Ġĉ":12120,"END":12121,"Ġimaginary":12122,"}(-":12123,"Ġgrows":12124,"ĠHarry":12125,"Ġaffili":12126,"Ġweapons":12127,"Ġbanks":12128,"Ġboys":12129,"eras":12130,"ĠIraq":12131,"ĠEditor":12132,"flix":12133,"Ġampl":12134,"Ġargued":12135,"Media":12136,"makers":12137,"ĠSydney":12138,"ĠLind":12139,"ĠOs":12140,"orb":12141,"1967":12142,"lee":12143,"ĠBlo":12144,"cellcolor":12145,"Ġds":12146,"ĠPrim":12147,"}^{(\\":12148,"Ġremoving":12149,"Params":12150,"trained":12151,"Ġseats":12152,"ĠColorado":12153,"ÙĦ":12154,"Good":12155,"Ġdollars":12156,"Ġfiction":12157,"ĠChang":12158,"Ġade":12159,"riction":12160,"Ġdevelopers":12161,"ioned":12162,"$--":12163,"periments":12164,"redu":12165,"Ġignore":12166,"hops":12167,"best":12168,"Ġholiday":12169,"application":12170,"ĠOfficer":12171,"Settings":12172,"Ġconverted":12173,"Ġstone":12174,"ĠModern":12175,"Ġrequiring":12176,"ĠChall":12177,"efficient":12178,"constant":12179,"ricket":12180,"Ġunlike":12181,"tensor":12182,"irement":12183,"ĠCopyright":12184,"')\\":12185,"Ġexpanding":12186,"Ġjets":12187,"itol":12188,",(":12189,"Ġidentifying":12190,"Ġhate":12191,"dynamic":12192,"send":12193,"Ġreplacement":12194,"Ġbarrier":12195,"Sn":12196,"Ġaband":12197,"Ġvanishing":12198,"ĠOlympics":12199,")}^":12200,"thur":12201,"Ġcontinuity":12202,"Ġdetermining":12203,"Ma":12204,"Ġsurgery":12205,"Arch":12206,"ĠOntario":12207,"Initial":12208,"Ġcompris":12209,"Ġdrawing":12210,"Serial":12211,"rating":12212,"Ġdeclared":12213,"Ġmo":12214,"Ġkeeps":12215,"ĠFarm":12216,"bourne":12217,"ĠExpl":12218,"ĠPut":12219,"iors":12220,"Ġdict":12221,"Ġstrange":12222,"STM":12223,"]_{":12224,"Ġsav":12225,"oustic":12226,"ĠTok":12227,"ĠColumbia":12228,"ĠIns":12229,"ĠEffect":12230,"resolution":12231,"hook":12232,"ĠPlace":12233,"\"=>":12234,"Ġmultiplication":12235,"Empty":12236,"ingham":12237,"ĠNeed":12238,"Ġarises":12239,"atics":12240,"icide":12241,"eqq":12242,"Dir":12243,"leftrightarrow":12244,"Tool":12245,"Ġconvention":12246,"figs":12247,"haust":12248,"Ġaddresses":12249,"Che":12250,"othe":12251,"oni":12252,"ĠCondition":12253,"via":12254,"Container":12255,"rizona":12256,"ĠNatural":12257,"lab":12258,"Ġ\\#":12259,"ĠError":12260,"Conf":12261,"session":12262,"itud":12263,"ĠYet":12264,"upload":12265,"Ġflav":12266,"Ġproviders":12267,"closure":12268,"central":12269,"Ġencourage":12270,"Ġmachines":12271,"Ġobservables":12272,"Ġregarded":12273,"being":12274,"gly":12275,"Ġ(.":12276,"bsites":12277,"Ġlocalization":12278,"Ġtab":12279,"Ġtom":12280,"Ġclouds":12281,"Ġformally":12282,"Through":12283,"ĠHave":12284,"118":12285,"Ġmeasuring":12286,"debug":12287,"Ġdivergence":12288,"returns":12289,"ĠBO":12290,"itecture":12291,"player":12292,"Ġdeals":12293,"Ġsep":12294,"hus":12295,"Ġtrav":12296,"kov":12297,"ipher":12298,"Ġgreatly":12299,"ĠMassachusetts":12300,"/.":12301,"Ġlegislation":12302,"ĠĠĠĠĠĠĠĠĠĠĠĠĠĠĠĠĠĠĠĠĠĠĠĠĠ":12303,"Ġinsights":12304,"'(\\":12305,"owed":12306,"Ġreactions":12307,"icing":12308,"similar":12309,"Ġpromising":12310,"ĠFall":12311,"Ġsuperior":12312,"ourse":12313,"ĠStill":12314,"Ġtough":12315,"Ġstood":12316,"Ġsurvival":12317,"Ġhappening":12318,"atar":12319,"Video":12320,"syn":12321,"Ġdisturb":12322,"ĠProblem":12323,"ĠSH":12324,"ĠSab":12325,"Ġresolve":12326,"Ġcarrying":12327,"alks":12328,"framework":12329,"pur":12330,"Ġafternoon":12331,"lr":12332,"ĠTransport":12333,"people":12334,"Ġboson":12335,"Ġimper":12336,"ĠConnect":12337,"Ġwheel":12338,"Ġwrites":12339,"Ġstreaming":12340,"Ġbandwidth":12341,"rible":12342,"Ġexit":12343,"Ġhandling":12344,"^+\\":12345,"ĠAC":12346,"Ġdesire":12347,"ĠBerlin":12348,"ĠIC":12349,"ĠSmall":12350,"Ġru":12351,"vm":12352,"Ġinformed":12353,"Ġpole":12354,"whe":12355,"Ġ[[":12356,"Ġachieves":12357,"Ġimplications":12358,"regon":12359,"Ġalter":12360,"Ġpicked":12361,"bibliography":12362,"Ġentities":12363,"Her":12364,"Ġdotted":12365,"virtual":12366,"PG":12367,"ĠOp":12368,"Ġdating":12369,"renewcommand":12370,"iac":12371,"trim":12372,"Indeed":12373,"sys":12374,"Ġranging":12375,"centerline":12376,"Ġcounting":12377,"ĠVeg":12378,"Ġgained":12379,"sort":12380,"Ġstrain":12381,"ĠGib":12382,"Ġwarning":12383,"Ġoppon":12384,"ĠFC":12385,"Ġregularization":12386,"Ġadaptation":12387,"Ġnoticed":12388,"Ġimpressive":12389,"Ġfort":12390,"PECT":12391,"ĠMinnesota":12392,"ums":12393,"month":12394,"Ġoscillations":12395,"Ġguest":12396,"):=\\":12397,"photon":12398,"Application":12399,"ĠCau":12400,"Ġobservable":12401,"ĠJava":12402,"Ġtangent":12403,"Font":12404,"Ġoverview":12405,"Ġverified":12406,"Ġfruit":12407,"emb":12408,"Ġsweet":12409,"ĠChapter":12410,"Ġwearing":12411,"Ġflavor":12412,"Callback":12413,"Ġguidelines":12414,"fix":12415,"cers":12416,"bind":12417,"ĠProt":12418,"Ġgod":12419,"Parameters":12420,"Connection":12421,"Ġrend":12422,"ĠChannel":12423,"astro":12424,"omer":12425,"hn":12426,"ixel":12427,"103":12428,"creen":12429,"material":12430,"Both":12431,"ĠAz":12432,"Ġdates":12433,"Ġperm":12434,"Ġ\"\\":12435,"Ġrooms":12436,"ĠJean":12437,"razy":12438,"erences":12439,"sea":12440,"ĠStock":12441,"South":12442,"custom":12443,"nals":12444,"Ġforming":12445,"sun":12446,"arding":12447,"Ġbug":12448,"Ġshapes":12449,"positive":12450,"oped":12451,"Space":12452,"ĠConsequently":12453,"ĠEuler":12454,"Ġdrift":12455,"Ġmenu":12456,"Ġderivation":12457,"Support":12458,"1964":12459,"ĠBridge":12460,"NP":12461,"ĠHan":12462,"]}\\":12463,"Vector":12464,"Ġextraction":12465,"Ġspecify":12466,"Ġinvent":12467,"FIG":12468,")\\,\\":12469,"ĠAmb":12470,"ĠJenn":12471,"Mean":12472,"LD":12473,"Ġfestival":12474,"tered":12475,"Ġadvis":12476,"lot":12477,"ERE":12478,"ĠMember":12479,"Ġpulled":12480,"Ġbreaks":12481,"ĠProp":12482,"108":12483,"elle":12484,"Ġscr":12485,"ASE":12486,"Ġconsole":12487,"ĠUniverse":12488,"106":12489,"Ġvo":12490,"Ġcontinuing":12491,"Ġclubs":12492,"Ġauxiliary":12493,"ĠNE":12494,"Ġhell":12495,"Ġresemb":12496,"Thread":12497,"ulpt":12498,"Ġbrands":12499,"ĠLanguage":12500,"Ġthickness":12501,"tting":12502,"Ġox":12503,"Total":12504,"Sw":12505,"=\"../../../../../../":12506,"TF":12507,"Ġmine":12508,"}}+\\":12509,"toprule":12510,"1965":12511,"ctx":12512,"Ġnoting":12513,"}$$":12514,"}}\\\\":12515,"Ġbranches":12516,"distance":12517,"Today":12518,"izers":12519,"ĠĠĠĠĠĠĠĠĠĠĠĠĠĠĠĠĠĠĠĠĠĠ":12520,"ductor":12521,"Ġconstitu":12522,"ï¼":12523,"fall":12524,"natural":12525,"Ġcontest":12526,"Ġsoldiers":12527,"ugins":12528,"ĠLes":12529,"Ġcubic":12530,"sequence":12531,"imit":12532,"Ġdisput":12533,"Ġprofit":12534,"ĠPortug":12535,"ĠFR":12536,"htbp":12537,"Ġphotograph":12538,"Ġwindows":12539,"Ġwed":12540,"ĠSound":12541,"Ġsuperconduct":12542,"Lin":12543,"ĠInterest":12544,"ĠEconomic":12545,"gon":12546,"ulus":12547,"mac":12548,"Ġbomb":12549,"spring":12550,"ROM":12551,"Ġtaught":12552,"Ġdestroyed":12553,"Bre":12554,"rowth":12555,"Ġicon":12556,"asty":12557,"}}^{(":12558,"original":12559,"ĠBS":12560,"Ġdecor":12561,"ĠPartners":12562,"Ġfocuses":12563,"critical":12564,"Background":12565,"Ġsought":12566,"Ġelig":12567,"Ġjoining":12568,"ĠPH":12569,"Ġboat":12570,"Ġassembly":12571,"compact":12572,"Ġinteracting":12573,"information":12574,"ropical":12575,"}}-":12576,"Ġfractional":12577,"512":12578,"Ġopposition":12579,"ulous":12580,"Ġunlikely":12581,"associ":12582,"Ġmini":12583,"Ġplanets":12584,"ea":12585,"Ġcrash":12586,"ĠRoss":12587,"Ġminimize":12588,"Ġacquisition":12589,"Ġemployment":12590,"ĠWord":12591,"elson":12592,"Ġnormally":12593,"ĠBrother":12594,"Ġfocusing":12595,"docs":12596,"Ã£":12597,"umin":12598,"Ġrising":12599,"Ġcombat":12600,"symmetric":12601,"Figures":12602,"Ġprotest":12603,"Ġdot":12604,"keys":12605,"appy":12606,"Ġintu":12607,"Ġobservational":12608,"ruggle":12609,"Ġwider":12610,"rev":12611,"dra":12612,"Supp":12613,"Collection":12614,"uint":12615,")~\\":12616,"ĠRegister":12617,"ratio":12618,"ĠTan":12619,"Related":12620,"ĠLewis":12621,"ĠSym":12622,"Ġinnovative":12623,"Option":12624,"PORT":12625,"Ġairport":12626,"Ġda":12627,"})}\\":12628,"=\"_":12629,"Ġbelieves":12630,"(:":12631,"cn":12632,"TM":12633,")<":12634,"they":12635,"Ġmarks":12636,"ships":12637,"Ġgro":12638,"Ġhat":12639,"Ġanten":12640,"Ġmodification":12641,"paper":12642,"Ġfounder":12643,"ĠDream":12644,"Ġclar":12645,"ubs":12646,"ĠDrive":12647,"ÂĢ":12648,"ĠWisconsin":12649,"Real":12650,"Care":12651,"Ġshorter":12652,"Ġdamp":12653,"biggl":12654,"\"));":12655,"Ġovercome":12656,"Ġmanuscript":12657,"ĠLiter":12658,"Lat":12659,"Ġbass":12660,"Ġpoliticians":12661,"Ġcontam":12662,"Ġlegisl":12663,"ĠMaybe":12664,"Ġpron":12665,"Ġthereby":12666,"Ġgrade":12667,"Ġexport":12668,"squ":12669,"WA":12670,"ĠSS":12671,"Ġknowing":12672,"~~~~~~~~":12673,"Ġremarkable":12674,"Ġcohomology":12675,"ĠSF":12676,"}$;":12677,"ĠKevin":12678,"ĠRegion":12679,"onna":12680,"+|":12681,"Ġlengths":12682,"ĠAnderson":12683,"Ġstake":12684,"profit":12685,"ĠProperty":12686,"Ġpromise":12687,"Ġgenetic":12688,"Ġabelian":12689,"mentioned":12690,"Ġemerging":12691,"Ġmaintenance":12692,"Ġplastic":12693,"ĠAk":12694,"Ġships":12695,"Ġpersonnel":12696,"Parent":12697,"Ġpreserve":12698,"yard":12699,"obby":12700,"Ġbelief":12701,"ials":12702,"irac":12703,"Ġly":12704,"135":12705,"aten":12706,"Ġrelief":12707,"ername":12708,"107":12709,"widget":12710,"Ġsteel":12711,"ĠNevertheless":12712,"Ġlocalized":12713,"Ġ*)":12714,"ĠDer":12715,"Ġgrate":12716,"Ġnavigation":12717,"Ġpreparation":12718,"rea":12719,"ĠCreek":12720,"},\\\\":12721,"render":12722,"lectric":12723,"basic":12724,"Ġsubmitted":12725,"hyp":12726,"ĠGallery":12727,"mad":12728,"ĠKh":12729,"ĠTony":12730,"ĠSong":12731,"Ġmodify":12732,"Ġstrike":12733,"Ġrival":12734,"Ġdeterministic":12735,"Ġaccurately":12736,"ĠLady":12737,"Ġregulations":12738,"ederation":12739,"âĢĭ":12740,"Ġheating":12741,"iso":12742,"ĠSoviet":12743,"Ġpublicly":12744,"Ġaccordance":12745,"contin":12746,"agan":12747,"bat":12748,"coordinate":12749,"Ġswim":12750,"Ġradii":12751,"ÂĢÂ":12752,"Notice":12753,"Ġillegal":12754,"ĠDutch":12755,"ranged":12756,"Ġproofs":12757,"Ġautomatic":12758,"Green":12759,"owned":12760,"buffer":12761,"'))":12762,"Ġrecept":12763,"Ġfaced":12764,"Ġfabric":12765,"ologically":12766,"Num":12767,"aled":12768,"yy":12769,"Ġbasically":12770,"ĠHarris":12771,"zing":12772,"Ġhosted":12773,"ĠBG":12774,"Ġadmit":12775,"footer":12776,":\"":12777,"Ang":12778,"âĨ":12779,";\"":12780,"Ġcoffee":12781,"Early":12782,"ĠSant":12783,"Ġimposed":12784,"gered":12785,"Ġclip":12786,"mix":12787,"character":12788,"Ġemissions":12789,"Ġalumni":12790,"relim":12791,"Ġtransit":12792,"Ġbroke":12793,"ĠHTML":12794,"ĠEntertainment":12795,"ĠHeart":12796,"Ġloan":12797,"KL":12798,"Operation":12799,"Ġnewspaper":12800,"ZZ":12801,"1966":12802,"Ġcomposite":12803,"Ġsquad":12804,"ques":12805,"inline":12806,"Ġfer":12807,"Ġscreening":12808,"Ġmutual":12809,"attered":12810,"Ġshifted":12811,"Ġ$-$":12812,"Ġsoph":12813,"sters":12814,"tot":12815,"Ġobtaining":12816,"Ġproton":12817,"ĠStore":12818,"Ġregularly":12819,"ĠWas":12820,"Ġqueue":12821,"Year":12822,"utors":12823,"ĠPaper":12824,"Ġsuggesting":12825,"ĠNations":12826,"cule":12827,"}]\\":12828,"Ġ\\|_{":12829,"Ġadequ":12830,"protect":12831,"ĠRome":12832,"Ġtransactions":12833,"Ġguarantees":12834,"uber":12835,"Ġease":12836,"Ġartificial":12837,"Ġsilver":12838,"ĠGolden":12839,"1920":12840,"Ġmedicine":12841,"Ġaffects":12842,"Ġprelim":12843,"twitter":12844,"Ġraces":12845,"Ġgeodesic":12846,"Ġrectangle":12847,"Ġfinger":12848,"polar":12849,"ĠCambridge":12850,"wick":12851,"Iter":12852,"Ġvaries":12853,"ributions":12854,"$=":12855,"season":12856,"Ġduty":12857,"Ġrecognize":12858,"gate":12859,"Ġdeeper":12860,"Ġsynthesis":12861,"wang":12862,"biggr":12863,"wich":12864,"smooth":12865,"Ġsheet":12866,"ĠGalactic":12867,"1940":12868,"Ġmechanics":12869,"terior":12870,"United":12871,"Ġmerely":12872,"Ġpermanent":12873,"})(":12874,"Gra":12875,"bul":12876,"delete":12877,"Ġparking":12878,"degener":12879,"achel":12880,"Ġstrategic":12881,"Lear":12882,"cam":12883,"Ġfactory":12884,"Conclusion":12885,"ĠâĢĻ":12886,"Rule":12887,"Ġfermions":12888,"Ġconsistently":12889,"Ġpresidential":12890,"Ġimproves":12891,"UC":12892,"ĠAlice":12893,"Ġworry":12894,"]{./":12895,"hist":12896,"JE":12897,"[{\\":12898,"Ġfees":12899,"ĠSenior":12900,"ĠTreat":12901,"Ġdisappoint":12902,"ĠEss":12903,"GAN":12904,"Ð´":12905,"220":12906,"ĠGh":12907,"Leg":12908,"ĠFL":12909,"Store":12910,"ĠScottish":12911,"ĠDid":12912,"ĠKal":12913,"ĠContact":12914,"ĠCC":12915,"ĠDoes":12916,"COLOR":12917,"ĠVin":12918,"into":12919,"ĠCab":12920,"Ġrelativistic":12921,"ĠManchester":12922,"Ġcourses":12923,"levant":12924,"Ġcomputations":12925,"isl":12926,"Ġdiseases":12927,"relax":12928,"Ġsick":12929,"Ġevil":12930,"ĠSquare":12931,"bigskip":12932,"Ġlistening":12933,"ĠJam":12934,"thew":12935,"ĠSpect":12936,"Network":12937,"]_":12938,"Ġnod":12939,"Ġsuffered":12940,"hover":12941,"Like":12942,"Ġworker":12943,"NAME":12944,"Comput":12945,"ateral":12946,"Ġbehalf":12947,"Ġmembership":12948,"setlength":12949,"Ġsquares":12950,"ĠStone":12951,"kw":12952,"ĠGree":12953,"Ġlaugh":12954,"Ġfoundation":12955,"ĠMit":12956,"itudinal":12957,"ĠOcean":12958,"Ġsummarized":12959,"Ġrelies":12960,"Ġnuclei":12961,"Ġlockdown":12962,"Ġwing":12963,"pdated":12964,"ARY":12965,"ĠMoon":12966,"Ġmoduli":12967,"Ġaccused":12968,"Ġegg":12969,"Ġmetallicity":12970,"gtr":12971,"Ġwine":12972,"Device":12973,"conj":12974,"akh":12975,"Ġincl":12976,"Ġpointer":12977,"1930":12978,"Reference":12979,"bling":12980,"pf":12981,"Ġconsent":12982,"uning":12983,"Ġentering":12984,"ognitive":12985,"ĠInnov":12986,"adic":12987,"Ġoutbreak":12988,"Ġmaintained":12989,"Ġcreat":12990,"ancel":12991,"Ġconverge":12992,"ĠDisc":12993,"Ġautomorphism":12994,"{-}":12995,"Ġcompliance":12996,"~{\\":12997,"padding":12998,"Ġ)$":12999,"Ġrings":13000,"Ġregistration":13001,"ouri":13002,"ĠLabour":13003,"ĠTE":13004,"Ġfalling":13005,"ĠBelg":13006,"Ġcutting":13007,"Ġcontributed":13008,"important":13009,"plugin":13010,"Ġawareness":13011,"ĠThings":13012,"ĠAppro":13013,"ika":13014,"Ptr":13015,"}]$":13016,"sig":13017,"Host":13018,"ĠSho":13019,"Ġtransportation":13020,"olds":13021,"ĠRaj":13022,"False":13023,"005":13024,"Ġinstructions":13025,"Ġoxygen":13026,"ibraries":13027,"Ġphenomena":13028,"Ġparametriz":13029,"ĠAffairs":13030,"Decl":13031,"ĠIl":13032,"Ġsurveys":13033,"Ġ(@":13034,"ĠHE":13035,"Ġquantitative":13036,"Ġphon":13037,"ĠBayesian":13038,"Ġopens":13039,"igrants":13040,"Ġjav":13041,"Ju":13042,")/\\":13043,"ĠGalaxy":13044,"nl":13045,"Ġ$-\\":13046,"generated":13047,"Ġprofessionals":13048,"estamp":13049,"Ġscoring":13050,"ashi":13051,"Despite":13052,"Ġdisplays":13053,"Ġseriously":13054,"SF":13055,"Ġflying":13056,"copy":13057,"ĠDa":13058,"blog":13059,"half":13060,"Ġsuspend":13061,"Ġtrouble":13062,"varpi":13063,"Ġphysically":13064,"Ġflexible":13065,"np":13066,"ĠLeaders":13067,"MW":13068,"ĠEP":13069,"Ġtension":13070,"dam":13071,"ĠVice":13072,"kk":13073,"coloneqq":13074,"reens":13075,"Ġmg":13076,"Contact":13077,"Ġalive":13078,"equals":13079,"Ġfrust":13080,"ĠSav":13081,"thin":13082,"Json":13083,"eland":13084,"bibliographystyle":13085,"orel":13086,"Ġuniquely":13087,"bigoplus":13088,"Ġspeaker":13089,"Mo":13090,"fraction":13091,"ĠMaterial":13092,"Ġbold":13093,"onder":13094,"ĠkeV":13095,"Ġelectromagnetic":13096,"ĠIndustry":13097,"Watch":13098,"ĠTag":13099,"240":13100,"Ġmeaningful":13101,"ĠRab":13102,"enna":13103,"Ġannih":13104,">$":13105,"ĠWi":13106,"convex":13107,"?:":13108,"ĠCloud":13109,"prove":13110,"Ġsingularity":13111,"Ġignored":13112,"msg":13113,"Ġundefined":13114,"racks":13115,"\\!\\!\\!\\!":13116,"Ġanywhere":13117,"sens":13118,"Ġmotivated":13119,"athy":13120,"ĠMI":13121,"Ġtries":13122,"Ġtrib":13123,"Ġsensors":13124,"Ġconvenience":13125,"ensively":13126,"Ġengaged":13127,"Ġgal":13128,"antum":13129,"bootstrap":13130,"Ġdismiss":13131,"Ġreceives":13132,"KK":13133,"Ġexecuted":13134,"ĠSarah":13135,"uj":13136,"Comment":13137,"Ġghost":13138,"disabled":13139,"Brit":13140,"Ġbins":13141,"itro":13142,"apshot":13143,"frag":13144,"handle":13145,"endo":13146,"Ġble":13147,"=#":13148,"Ġconcert":13149,"ĠTurkey":13150,"Ġmatched":13151,"igenous":13152,"Bound":13153,"ĠNether":13154,"Ġcareful":13155,"undles":13156,"Session":13157,"ĠRest":13158,"eding":13159,"$^{\\":13160,"posing":13161,"Ġproving":13162,"Stack":13163,"ĠRoll":13164,"primary":13165,"iar":13166,"Ġcharacterization":13167,"direction":13168,"Br":13169,"Term":13170,"Ġsustainable":13171,"Ġsubgraph":13172,"ĠSafety":13173,"inema":13174,"Ġconsiderable":13175,"Ġslot":13176,"heres":13177,"Ġpurchased":13178,"Apr":13179,"ĠPhiladelphia":13180,"move":13181,"Diag":13182,"ĠSR":13183,"Ġcontents":13184,"Ġshadow":13185,"Ġmeets":13186,"what":13187,"Ident":13188,"unning":13189,"Ġsurvive":13190,"edit":13191,"ugby":13192,"fg":13193,"rupted":13194,"ĠSA":13195,"Ġremoval":13196,"Ġchrom":13197,"ĠRO":13198,"Ġrobustness":13199,"ĠSW":13200,"Ġavailability":13201,"Ġarising":13202,"burn":13203,"Ġguests":13204,"Ġadaptive":13205,"Ġattractive":13206,"Thm":13207,"Ġcoding":13208,"$/":13209,"Draw":13210,"]^{\\":13211,"Impl":13212,"ĠBruce":13213,"Ġprohib":13214,"oly":13215,"processing":13216,"resizebox":13217,"ĠME":13218,"spl":13219,"phan":13220,"ĠSix":13221,"Ġwatched":13222,"Ġinstruments":13223,"Ġsolo":13224,"Ġtargeted":13225,"NOT":13226,"calcul":13227,"allas":13228,"ĠCancer":13229,"FAULT":13230,"================================":13231,"Ġbear":13232,"Ġdipole":13233,"Ġmeetings":13234,"Ġcompression":13235,"Ġrequested":13236,"exact":13237,"ĠOt":13238,"enter":13239,"West":13240,"ariants":13241,"ĠSimon":13242,"Ġheader":13243,"legate":13244,"Ġdisag":13245,"Ġreflected":13246,"Ġsequential":13247,"Ġexhibits":13248,"Ġfluxes":13249,"$&$":13250,"addle":13251,"owntown":13252,"Ġaccompan":13253,"dc":13254,"andal":13255,"\\-":13256,"Ġpacket":13257,"estyle":13258,"ĠSNR":13259,"heses":13260,"}\\)":13261,"Cs":13262,"Ġallocation":13263,"ĠQueens":13264,"ĠHouston":13265,"Ġsaved":13266,"ĠKa":13267,"###":13268,"Ġfro":13269,"Ġofficially":13270,"Ġdiscipl":13271,"Ġmodular":13272,"scribe":13273,"ivariate":13274,"aza":13275,"Mer":13276,"ĠHur":13277,"Ġpaying":13278,"Ġassault":13279,"ĠAnton":13280,"Ġroof":13281,"Ġcausal":13282,"ĠMovie":13283,"osph":13284,"agon":13285,"ĠWinter":13286,"overty":13287,"Ġgenu":13288,"ĠSL":13289,"),(":13290,"Ġpursu":13291,"ĠCorn":13292,"ĠArizona":13293,"Ġdemands":13294,"account":13295,"Ca":13296,"xym":13297,"1945":13298,"Ġsoci":13299,"Ġvariants":13300,"ĠMiami":13301,"Ġinstruct":13302,"empl":13303,"Ġconcluded":13304,"ometer":13305,"Ġdirectory":13306,"Ġvanish":13307,"ĠBor":13308,"Ġ\\,.":13309,".-":13310,"enant":13311,"expect":13312,"versely":13313,"Ġoperational":13314,"Ġgray":13315,"oa":13316,"MENT":13317,"Ġske":13318,"abis":13319,"lbrace":13320,"ulum":13321,"Ġexceptional":13322,"bn":13323,"Ġremainder":13324,"Ã£o":13325,"}}}{\\":13326,"114":13327,"Ġfaculty":13328,"ĠYang":13329,"Ġcumul":13330,"Comb":13331,"Ġpolitician":13332,"Cy":13333,"Ġveget":13334,"bec":13335,"Ġlect":13336,"iah":13337,"}_+":13338,"hire":13339,"ĠThough":13340,"ping":13341,"racted":13342,"ĠMoh":13343,"Ġoverride":13344,"Ġinduct":13345,"International":13346,"pq":13347,"bottomrule":13348,"Ġmyth":13349,"Ġocean":13350,"():":13351,"Multi":13352,"quark":13353,"ĠMrs":13354,"Ġconsiders":13355,"oyd":13356,"due":13357,"Ġtiny":13358,"Ġprotocols":13359,"necess":13360,"Ñĭ":13361,"Ġcensus":13362,"transition":13363,"Ġadventure":13364,"iest":13365,"valuation":13366,"Custom":13367,"cluster":13368,"',\\":13369,"Ġmedal":13370,"}{$\\":13371,"ishment":13372,"Ġoriented":13373,"ĠRelations":13374,"Ġassociate":13375,"speed":13376,"cknowledge":13377,"havior":13378,"ĠLater":13379,"jar":13380,"Day":13381,"Ġtorus":13382,"Mart":13383,"ĠPatrick":13384,"PN":13385,"Ġbrightness":13386,"coq":13387,"ĠInteg":13388,"Ġdetectors":13389,"VR":13390,"Feature":13391,"âĤ¬":13392,"ĠIL":13393,"ĠLaure":13394,"Ġprovince":13395,"127":13396,"ĠImages":13397,"compare":13398,"ĠCore":13399,"Ġdemonstrates":13400,"Ġ\\:":13401,"oca":13402,"ĠBat":13403,"rait":13404,"'-":13405,"ĠDefense":13406,"ĠiPhone":13407,"Thanks":13408,"ĠEmb":13409,"scalebox":13410,"Ġexhaust":13411,"Ġstruggle":13412,"Ġoptimized":13413,"ĠJews":13414,"};\\":13415,"ĠLimited":13416,"*{-":13417,"ĠClinton":13418,"Ġanonym":13419,"party":13420,"Ġmanifolds":13421,"Ġdies":13422,"ĠKorean":13423,"Ġrum":13424,"âĦ":13425,"Ġclosest":13426,"Ġcyclic":13427,"liers":13428,"ĠException":13429,"Ġbacter":13430,"ĠReviews":13431,"Ġdecline":13432,"nie":13433,"Ġmart":13434,"pons":13435,"ĠURL":13436,"Ġassistant":13437,"argo":13438,"itatively":13439,"spi":13440,"ĠTai":13441,"Ġknock":13442,"ĠFri":13443,"who":13444,"ĠFront":13445,"Ġancest":13446,"Ġglobally":13447,"Ġsectors":13448,"Ġmining":13449,"ĠNam":13450,"Ġwebsites":13451,"Ġtank":13452,"uther":13453,"webkit":13454,"Ġqubit":13455,"Pref":13456,"ĠHung":13457,"ccentric":13458,"asm":13459,"Ġelectricity":13460,"bx":13461,"@{}}":13462,"Ġhierarchy":13463,"settings":13464,"Ġexamined":13465,"Life":13466,"ĠAdvent":13467,"Policy":13468,"ĠWebsite":13469,"Ġsubstit":13470,"Ġcopyright":13471,"achelor":13472,"raisebox":13473,"lan":13474,"ĠBurn":13475,"Ġretired":13476,"Ġthorough":13477,"Ġextending":13478,"Sem":13479,"dependency":13480,"Ġtip":13481,"ĠEarly":13482,"htb":13483,"}$),":13484,"ĠSport":13485,"corresponding":13486,"Ġattorney":13487,"109":13488,"nik":13489,"Ġrestaurants":13490,"ĠForeign":13491,"Ġparagraph":13492,"Ġhasn":13493,"($\\":13494,"continuous":13495,"ĪĴ":13496,"ellectual":13497,"bone":13498,"ĠSimilar":13499,"Ġstrip":13500,"Ġportfolio":13501,"ennessee":13502,"elastic":13503,"Ġdose":13504,"Editor":13505,"Ġtall":13506,"Ġduality":13507,"Ġsimplified":13508,"Ġcheap":13509,"ĠUnit":13510,"Ġtwist":13511,"gtrsim":13512,"):=":13513,"ghan":13514,"Ġcompletes":13515,"Ġterminal":13516,"ĠSelect":13517,"\\'{":13518,"ĠPO":13519,"Ġmoderate":13520,"Ġpublisher":13521,"toggle":13522,"Ġalcohol":13523,"oT":13524,"ĠComments":13525,"algorithmic":13526,"four":13527,"plements":13528,"Util":13529,"wind":13530,"Ġintroduces":13531,"NRAS":13532,"Ġreflects":13533,"Ġvoted":13534,"Ġmild":13535,"quantum":13536,"ĠJay":13537,"Ġteach":13538,"Ġcommutative":13539,"Ġtransparent":13540,"Ġbases":13541,"EXT":13542,"umann":13543,"1963":13544,"ONE":13545,"Ġcontinuously":13546,"charg":13547,"role":13548,"Ġmanual":13549,"Ġvalidity":13550,"Ġvocals":13551,"ĠDog":13552,"Ġparse":13553,"blockList":13554,"Ġenforcement":13555,"ĠPremier":13556,"NL":13557,"Ġracing":13558,"Ġrounds":13559,"Ġtroops":13560,"ĠHad":13561,"ĠJane":13562,"install":13563,"ĠShould":13564,"Ġaimed":13565,"Ġreproduce":13566,"insert":13567,"ĠBit":13568,"utrition":13569,"RF":13570,"sinh":13571,"Schema":13572,"&+":13573,"Ġtox":13574,"Ġprosec":13575,"taken":13576,"Pa":13577,"acon":13578,"lications":13579,"]:":13580,"170":13581,"Body":13582,"]\\\\":13583,"volume":13584,"Dan":13585,"Ġyesterday":13586,"Ġlayout":13587,"colhead":13588,"Tok":13589,"Async":13590,"Ġoccupied":13591,"audi":13592,"ĠThird":13593,"Vs":13594,"lg":13595,"Follow":13596,"Ġprocessed":13597,"ige":13598,"ĠOw":13599,").$$":13600,"Ġexhibition":13601,"North":13602,"Api":13603,"ĠTrade":13604,"illiant":13605,"ĠSoc":13606,"Ġdiagnosis":13607,"Ġroy":13608,"Integer":13609,"ĠBlock":13610,"ĠCPU":13611,"ĠLib":13612,"AK":13613,"ĠAtlantic":13614,"utter":13615,"IGHT":13616,"ERROR":13617,"Ġlying":13618,"ĠPerformance":13619,"Ġacknowledge":13620,"Ġchampion":13621,"ĠWhit":13622,"Ġceleb":13623,"Ġsuscept":13624,"seen":13625,"ĠNASA":13626,"Ġgenes":13627,"Ġexponentially":13628,"export":13629,"Ġpric":13630,"Ġaged":13631,"arded":13632,"ustain":13633,"Ġelsewhere":13634,"ĠĠĠĠĠĠĠĠĠĠĠĠĠĠĠĠĠĠĠĠĠĠĠĠĠĠĠĠ":13635,"spirit":13636,"inking":13637,"Ġmerger":13638,"ĠDor":13639,"ĠGPU":13640,"Sep":13641,"ĠProof":13642,"ĠGW":13643,"Ġerg":13644,"ĠOregon":13645,"Ġgarden":13646,"ĠAh":13647,"momentum":13648,"ĠNetherlands":13649,"Ġbrown":13650,"anti":13651,"Ġbaseball":13652,"Ġbeach":13653,"}})\\":13654,"Ġremind":13655,"Ġhosts":13656,"UD":13657,"ĠRoy":13658,"ĠHum":13659,"agger":13660,"ĠØ":13661,"Ġnotable":13662,"Report":13663,"Ġbusy":13664,"Ġengagement":13665,"Ġhelic":13666,"ĠHal":13667,")*":13668,"annon":13669,"Ġ\\\\\\":13670,"HH":13671,"ĠMemorial":13672,"DIR":13673,"Flo":13674,"ĠMoore":13675,"ĠLeon":13676,"Ġweekly":13677,"Ġmicrosc":13678,"Ġlaid":13679,"Ġclosing":13680,")},\\":13681,"Ġnic":13682,"Ġvariational":13683,"Ġmodeled":13684,"ĠClark":13685,"without":13686,"Ġputs":13687,"Ġinjection":13688,"Three":13689,"Ġwallet":13690,"Ġoffices":13691,"Ġjun":13692,"ĠYO":13693,"Rich":13694,"etition":13695,"xymatrix":13696,"Ġprimitive":13697,"ĠTrail":13698,"Match":13699,"abc":13700,"coln":13701,"Å¡":13702,"orse":13703,"Ġmail":13704,"-->":13705,"Paul":13706,"entials":13707,"ĠRecord":13708,"cert":13709,"ante":13710,"ĠNaz":13711,"'],":13712,"orses":13713,"ĠĠĠĠĠĊ":13714,"Ġinvited":13715,"Ġwra":13716,"|}{\\":13717,"ĠWH":13718,"ĠUl":13719,"ologists":13720,"ĠGun":13721,"Ġvisiting":13722,"ĠDiego":13723,"ĠFa":13724,"ĠStadium":13725,"Parser":13726,"dm":13727,"Ġfrequent":13728,"Ġbelonging":13729,"Ġreleases":13730,"Ä±":13731,"ĠPlanning":13732,"Ġsubsid":13733,"ĠLeft":13734,"Ġasset":13735,"oda":13736,"Ġrecommendations":13737,"Ġhomotopy":13738,"Ġguaranteed":13739,"uris":13740,"Ġexcluded":13741,"Ġcrack":13742,"Ġunexpected":13743,"ĠPersonal":13744,"iously":13745,"Review":13746,"Ġsoil":13747,"ĠBush":13748,"Ġintention":13749,"ĠFight":13750,"arry":13751,"Michael":13752,"ikes":13753,"Ġcomfortable":13754,"Ġshopping":13755,"Ġskill":13756,"Ġthousand":13757,"toString":13758,"Press":13759,"Ġfunny":13760,"report":13761,"Ġenemy":13762,"DBLP":13763,"Ġparity":13764,"Ġhook":13765,"Xml":13766,"mony":13767,"qed":13768,"abilistic":13769,"Ra":13770,"ĠPrize":13771,"VA":13772,"ĠVi":13773,"Ġparticipation":13774,"iology":13775,"Ġlux":13776,"dor":13777,"Ġgovernments":13778,"Ġfilename":13779,"edef":13780,"quarters":13781,"Ġcontrary":13782,"ando":13783,"Ġsurely":13784,"=[":13785,"002":13786,"ĠMas":13787,"Ġreasoning":13788,"Ġwinners":13789,"Ġspins":13790,"ĠLE":13791,"Ġcoincides":13792,"Dialog":13793,"Ġfunded":13794,"pus":13795,"ĠRevolution":13796,"Ġovers":13797,"harm":13798,"ĠPalest":13799,"inch":13800,"âĢħ":13801,"Ġvulnerable":13802,"oil":13803,"Ġreadily":13804,"textstyle":13805,"idelity":13806,"verted":13807,"Ġbuying":13808,"lein":13809,"Ġengage":13810,"Ġwireless":13811,"Classes":13812,"}{$":13813,"days":13814,"Ġnont":13815,"}$:":13816,"ĠAnaly":13817,"Ġnarrative":13818,"ĠSelf":13819,"romise":13820,"Ġarbitr":13821,"fections":13822,"Ġrejected":13823,"Ġhighlights":13824,"bean":13825,"=}":13826,"ourag":13827,"Austral":13828,"=\"/":13829,"-$\\":13830,"Ġsuppressed":13831,"Ġgains":13832,",}":13833,"230":13834,"ĠFO":13835,"ĠEvents":13836,"Ġmasks":13837,"1962":13838,"rv":13839,"Ġii":13840,"irable":13841,"sson":13842,"NavBar":13843,"Ġbalanced":13844,"ĠRound":13845,"âĦ¢":13846,"ĠFun":13847,"Ġobserving":13848,"ĠAssert":13849,"choose":13850,"IX":13851,"cu":13852,"Aud":13853,"Values":13854,"ĠKelly":13855,"INFO":13856,"Due":13857,"Ġterritory":13858,"Coll":13859,"ĠSilver":13860,"rically":13861,"effective":13862,"Ġbirds":13863,"ĠSyn":13864,"Ġwalked":13865,"orthe":13866,"ppers":13867,"Ġsimpler":13868,"Ġsuffer":13869,"Ġidentities":13870,"ĠAB":13871,"Ġvaried":13872,"Game":13873,"lass":13874,"Helper":13875,"oulomb":13876,"Ep":13877,"Ġpossibilities":13878,"Members":13879,"Ġillness":13880,"Ġattempted":13881,"Ġlawyer":13882,"Effect":13883,"ĠLevel":13884,"ĠMotor":13885,"Err":13886,"bg":13887,"Ġtruck":13888,"ĠAltern":13889,"Ġanyway":13890,"Ġfinance":13891,"ango":13892,"Ġdocumentary":13893,"cv":13894,"Ġswit":13895,"THE":13896,"Ġfranch":13897,"chment":13898,"Ġdocumentation":13899,"Ġsymplectic":13900,"Ġpointing":13901,"Ġranked":13902,"Inv":13903,"Ġfriendly":13904,"144":13905,"zone":13906,"olk":13907,"270":13908,"MSE":13909,"Ġkil":13910,"Ġgay":13911,"Ġrelating":13912,"lst":13913,"ĠGreg":13914,"ĠNigeria":13915,"Ġdogs":13916,"Cam":13917,"Such":13918,"Ġgrass":13919,"rapol":13920,"ĠâĨ":13921,"Ġrailway":13922,"Ġpairing":13923,"Af":13924,"ĠBry":13925,"IME":13926,"ĠFinance":13927,"Ġadvantages":13928,"anes":13929,"Ġawait":13930,"Ġsolit":13931,"acknow":13932,"ursing":13933,"Face":13934,"ĠTen":13935,"ĠRegional":13936,"wrap":13937,")~":13938,"Ġunusual":13939,"^{{\\":13940,"Ġsends":13941,"dark":13942,"Ġisotropic":13943,"gravity":13944,"urg":13945,"components":13946,"deriv":13947,"Ġfirms":13948,"ĠLas":13949,"igious":13950,"Ġcapability":13951,"ĠHoly":13952,"Ġsake":13953,"''.":13954,"elfare":13955,"abling":13956,"Ġtickets":13957,"Ġtok":13958,"Ġbiological":13959,"Ġdegenerate":13960,"ĠJSON":13961,"omas":13962,"ounces":13963,"ĠLLC":13964,"Ġadmitted":13965,"Ġanxi":13966,"Ġagrees":13967,"Ġtranslate":13968,"Fs":13969,"warz":13970,"ĀĀ":13971,"ĠAllen":13972,"witzer":13973,"anny":13974,"Ġapproximations":13975,"}.$":13976,"plates":13977,"aura":13978,"}}_\\":13979,"CG":13980,"Ġillustrates":13981,"Ġvital":13982,"ĠGab":13983,"ĠLegal":13984,"Ġvolumes":13985,"vectors":13986,"Ġentreprene":13987,"Ġsessions":13988,"Ġbytes":13989,"Ġham":13990,"optim":13991,"Health":13992,"Ġcategor":13993,"Fields":13994,"ĠUnfortunately":13995,"cosh":13996,"ĠTheory":13997,")$}":13998,"oker":13999,"wild":14000,"try":14001,"Ġenvelope":14002,"ĠTrack":14003,"Ġdevelopments":14004,"ĠCapitol":14005,"Ġtiming":14006,"usive":14007,"correct":14008,"Ġsuddenly":14009,"help":14010,"ĠRow":14011,"Ġscaled":14012,"ĠStudent":14013,">.":14014,"Ġconjugate":14015,"Ġinjuries":14016,"ĠHistoric":14017,"}^{*":14018,"Ġneck":14019,"ilty":14020,"Notes":14021,"uba":14022,"wait":14023,"^{*}":14024,"Ġnoisy":14025,"ĠMulti":14026,"Ġdiscount":14027,"zo":14028,"Ġdrag":14029,"Ġpassengers":14030,"ĠPlus":14031,"Ġsynd":14032,"[$":14033,"Ġblind":14034,"Ġregularity":14035,"^*}":14036,"Email":14037,"ĠIowa":14038,"Ġinitiative":14039,"January":14040,"lev":14041,"Ġloaded":14042,"IND":14043,"ĠAuthority":14044,"ĠTurk":14045,"Ġaligned":14046,"Ġchecks":14047,"trace":14048,"shot":14049,"Ġdeviations":14050,"Ġdeeply":14051,"leman":14052,"Ġpushed":14053,"Ġlikes":14054,"outube":14055,"ĠRepublicans":14056,"ichol":14057,"hour":14058,"iverpool":14059,"gged":14060,"Template":14061,"Ġincredible":14062,"ĠDave":14063,"ĠStudents":14064,"review":14065,"Ġmanaging":14066,"ĠFr":14067,"IES":14068,"Ġcontracts":14069,"Ġsettlement":14070,"IEEE":14071,"enders":14072,"1961":14073,"ĠShi":14074,"Ġaveraging":14075,"rooms":14076,"Ġinline":14077,"late":14078,"ĠNob":14079,"Ġharder":14080,"Ġhopes":14081,"ĠChen":14082,"cred":14083,"quote":14084,"ĠFellow":14085,"etics":14086,"antics":14087,"Ġsurprised":14088,"rett":14089,"Ġfilling":14090,"Ġencounter":14091,"^*(\\":14092,"QU":14093,">();":14094,"ista":14095,"Ġcutoff":14096,"cosity":14097,"ĠNature":14098,"commut":14099,"Cur":14100,"ĠKansas":14101,"thread":14102,"Ġepochs":14103,"Ġsupporters":14104,"ĠTask":14105,"116":14106,"Ġexpertise":14107,"Ġfarmers":14108,"backs":14109,"Ġdelight":14110,"Ġreserv":14111,"idae":14112,"MNRAS":14113,"ivities":14114,"iture":14115,"Ġimpacts":14116,"ashes":14117,"Ġlogarithmic":14118,"Meta":14119,"whel":14120,"ĠMove":14121,"incess":14122,"ĠRub":14123,"Ġdefeat":14124,"Ġlaboratory":14125,"AI":14126,"aro":14127,"bus":14128,"onomous":14129,"ĠLP":14130,"ĠFlo":14131,"ceq":14132,"Ġranking":14133,"rod":14134,"rbrace":14135,"ĠPitt":14136,"foo":14137,"Ġreject":14138,"compat":14139,"ĠPier":14140,"design":14141,"zech":14142,"Ġdiamond":14143,"Ġdefeated":14144,"Ġmaintaining":14145,"Ġfurn":14146,"Ġroads":14147,"ĠJosh":14148,"Ġchecking":14149,"utt":14150,"Wind":14151,"Ġoptional":14152,"Ġbyte":14153,"surface":14154,"ĠArgent":14155,"Ġelectrical":14156,"rection":14157,"admin":14158,"Ġtissue":14159,"GBT":14160,"Ġticket":14161,"ĠProtection":14162,"Ġprovision":14163,"ĠNEW":14164,"nas":14165,"ĠRon":14166,"Ġenhancement":14167,"Ġconsensus":14168,"roit":14169,"119":14170,"Ġgraduate":14171,"fd":14172,"flux":14173,"olly":14174,"Ġeastern":14175,"Ġcorrected":14176,"Reader":14177,"Ġencoded":14178,"ĠHope":14179,"aments":14180,"Ġpodcast":14181,"{|\\":14182,"Du":14183,"ĠGard":14184,"ĠNetflix":14185,"Ġrose":14186,"ĠVersion":14187,"ĠLipschitz":14188,"Associ":14189,"113":14190,"Requ":14191,"ĠPrice":14192,"Ġinjured":14193,"Ġspokes":14194,"diagram":14195,"ĠMonth":14196,"ĠGraph":14197,"ĠContent":14198,"ĠJason":14199,"Ġpassage":14200,"ĠAnthony":14201,"Ġasymptotically":14202,"Rober":14203,"books":14204,"ensing":14205,"ĠChampionships":14206,"video":14207,"Ġpayments":14208,"ĠPL":14209,"Ġarrow":14210,"ĠFix":14211,"maker":14212,"Ġnm":14213,"replace":14214,"ĠPred":14215,"Ġasymmetry":14216,"Ġlegit":14217,"ĠMess":14218,"->]":14219,"anted":14220,"Stand":14221,"ĠAdvis":14222,"bing":14223,"ĠCastle":14224,"Ġattributed":14225,"Ġjoy":14226,"ĠCra":14227,"ĠResource":14228,"ĠMorgan":14229,"Ġcurrents":14230,"Ġholomorphic":14231,"engine":14232,"Ġdecom":14233,"Ġos":14234,"Ġpainting":14235,"Param":14236,")}=\\":14237,"Ġmanagers":14238,"byte":14239,"acknowled":14240,"ĠCM":14241,"Ġbuck":14242,"score":14243,"ivated":14244,"Ġgrey":14245,"Ġsevent":14246,"Alex":14247,"Ã©s":14248,"Sa":14249,"Ġrealization":14250,"train":14251,"Account":14252,"Ġmethodology":14253,"Ġgradients":14254,"Ġhouseholds":14255,"Ġreviewed":14256,"ĠDuke":14257,"ĠDocument":14258,"Doc":14259,"Ġdevoted":14260,"Micro":14261,"Ġquarks":14262,"ĠIslamic":14263,"selected":14264,"Ġradical":14265,"Ġcyber":14266,"tah":14267,"Ġepid":14268,"angled":14269,"ĠZe":14270,"vit":14271,"Ġmovements":14272,"Ġinherent":14273,"fm":14274,"450":14275,"attices":14276,"argument":14277,"plac":14278,"txt":14279,"tery":14280,"Ġextinction":14281,"Ġreconstructed":14282,"Ġapproximated":14283,"Ġhurt":14284,"lli":14285,"ĠHR":14286,"ĠPot":14287,"ĠĠĠĠĠĠĠĊ":14288,"ĠPoland":14289,"Tor":14290,"Lu":14291,"ĠLyn":14292,"phot":14293,"Ġhorror":14294,"Feb":14295,",âĢĻ":14296,"Ġsums":14297,"Ġsingularities":14298,"Ġ[-":14299,"Ġenthus":14300,"ĠExpress":14301,"solution":14302,"Ġlisting":14303,"gls":14304,"_{(\\":14305,"Ġmigration":14306,"ĠTerms":14307,"Ġcharacterize":14308,"Ġwound":14309,"ĠCredit":14310,"124":14311,"}}^\\":14312,"}.$$":14313,"ceive":14314,"orted":14315,"Ġpreliminary":14316,"witzerland":14317,"Ġassumes":14318,"thr":14319,"ĠClaim":14320,"bracket":14321,"ighbor":14322,"these":14323,"ĠBible":14324,"clude":14325,"fun":14326,"Ġchampionship":14327,"plementation":14328,"Ġconstantly":14329,"Trump":14330,"})^{\\":14331,"ĠDefine":14332,"Ġinterviews":14333,"Ġsubmit":14334,"limited":14335,"ĠDoctor":14336,"Ġsentences":14337,"oga":14338,"121":14339,"ĠDifferent":14340,"Condition":14341,"Ġlad":14342,"Ġinfluenced":14343,"|{\\":14344,"Ġliked":14345,"Ġorganic":14346,"Ġsubstr":14347,"Ġsolely":14348,"ĠVillage":14349,"veloc":14350,"}{!":14351,"March":14352,"ĠOlympic":14353,".]":14354,"ĠNN":14355,"homogeneous":14356,"Ġmeasurable":14357,"Ġinstruction":14358,"odic":14359,"Ġprojections":14360,"ĠOtherwise":14361,"Ġanomaly":14362,"nan":14363,"erred":14364,")))":14365,"Music":14366,"Ġsculpt":14367,"Ġearn":14368,"Ġflights":14369,"-{\\":14370,"expl":14371,"Ġlogical":14372,"ĠEXPECT":14373,"Ġadditive":14374,"glas":14375,"abatic":14376,"Ġtemporary":14377,"Ġdoors":14378,"Ġdesk":14379,"ardo":14380,"Ġsuffering":14381,"ĠPsych":14382,"nett":14383,"ĠPhysics":14384,"pendicular":14385,"rceil":14386,"rup":14387,"ĠPed":14388,"dropdown":14389,"Ġroutes":14390,"onomy":14391,"ĠMun":14392,"ĠLam":14393,"ĠOak":14394,"orce":14395,"ĠProvince":14396,"ĠTa":14397,"Ġ)\\":14398,"lceil":14399,"ĠEM":14400,"Donald":14401,"Ġcup":14402,"ĠWang":14403,"Ġwhilst":14404,"Writer":14405,"Ġweaker":14406,"amsung":14407,"station":14408,"Ġhistogram":14409,"hig":14410,"ĠSales":14411,"Ġinterpolation":14412,"Ġdecoder":14413,"William":14414,"Root":14415,"Ġdisplacement":14416,"ĠMobile":14417,"})}{":14418,"ahoma":14419,"117":14420,"Ġsimplest":14421,"Ġflash":14422,"ĠYears":14423,"Ġkne":14424,"Ġindicator":14425,"Gaussian":14426,"Ġobserver":14427,"ĠCu":14428,"Ġmodelling":14429,"Ġmonthly":14430,"Boolean":14431,"})^{-":14432,"Ġshortly":14433,"ĠCos":14434,"Ġswitching":14435,"Ġbreast":14436,"Ġconvolutional":14437,"Ġdefinite":14438,"ĠLiving":14439,"Äĩ":14440,"Ġadjoint":14441,"pb":14442,"Ġentitled":14443,"Ġintervention":14444,"ĠFive":14445,"Ġhack":14446,"Ġfootballers":14447,"ĠMalays":14448,"ĠMembers":14449,"'}(":14450,"Ġjournalist":14451,"){$":14452,"ĠConserv":14453,"imeter":14454,"Ben":14455,"Ġwake":14456,"commun":14457,"Ġhide":14458,"}\\,,":14459,"Ġindirect":14460,"gage":14461,"Ġtower":14462,"olitan":14463,"ĠTennessee":14464,"Ġsubstantially":14465,"ordinary":14466,"Ġrepair":14467,"ĠDise":14468,"Ġphilosophy":14469,"ĠLHC":14470,"Ġtuning":14471,"VP":14472,"ĠFigs":14473,"Ġ$\\|\\":14474,"ĠRick":14475,"ĠOk":14476,"Ġoccas":14477,"Ġcoincide":14478,"Ġasks":14479,"Ġobtains":14480,"ections":14481,"Ret":14482,"Ġexploring":14483,"Ġplanar":14484,"ĠSmart":14485,"Ġgamma":14486,"Ġpublications":14487,"Î¿":14488,"Ins":14489,"tration":14490,"qq":14491,"ĠIndones":14492,"Ġtaste":14493,"icking":14494,"switch":14495,"Ġtransc":14496,"configuration":14497,"Ġpeer":14498,"Ġburst":14499,"ĠBuck":14500,"Ġoutstanding":14501,"Pool":14502,"Ġsed":14503,"ijk":14504,"ĠVR":14505,"Ġrelate":14506,"ĠAuto":14507,"UST":14508,"210":14509,"sufficient":14510,
[...]
